#version: 0.2
t h
i n
th e</w>
a n
r e
t i
t e
e n
o n</w>
o n
o f</w>
e r
in g</w>
a r
an d</w>
o r
r o
a l
t o</w>
e d</w>
ti on</w>
s t
o r</w>
e r</w>
i n</w>
i t
a c
e s</w>
o u
i c
i s</w>
e c
a l</w>
a t
s i
c o
a s
l o
u r
i l
a tion</w>
c on
d i
d e
p ro
p l
m en
r i
a t</w>
c h
s h
a n</w>
e s
a s</w>
f or</w>
e l
u s
v e</w>
r a
l i
t s</w>
s u
m a
l e</w>
u n
a b
te d</w>
co m
n o
l y</w>
e n</w>
w h
a g
men t</w>
b e</w>
l e
w it
p er
s e
c e</w>
p o
a m
wit h</w>
s p
q u
al l</w>
a p
ti on
v i
e x
i t</w>
m e
te r</w>
o l
t r
f or
te r
u l
m o
a d
th at</w>
f i
ar e</w>
d u
b e
at e</w>
n e
it y</w>
v er
i s
b y</w>
re s
o u</w>
ur e</w>
th e
p ar
y ou</w>
d e</w>
g h
th is</w>
t a
m e</w>
s t</w>
tion s</w>
b u
c l
t o
v e
h a
s te
c i
no t</w>
f f
st r
ou n
d o
m an
a r</w>
en t</w>
c h</w>
i m
f ro
w or
p or
es s</w>
fro m</w>
s o
d ing</w>
re d</w>
d s</w>
s e</w>
ab le</w>
er s</w>
er e</w>
th er</w>
b o
l a
com p
s y
re c
g e</w>
re n
w a
t ing</w>
ou r</w>
ec t</w>
in e</w>
sh all</w>
c u
s er
ag e</w>
h i
v er</w>
h o
il l</w>
du c
ou t</w>
t h</w>
con t
w e
l d</w>
on e</w>
d er</w>
s c
te n
an ce</w>
qu i
a i
c an</w>
k e
an y</w>
si on</w>
k e</w>
h e
ac c
ti c
f e
m in
sp ec
sy ste
w ill</w>
ti ve</w>
for m
in g
an t</w>
ha ve</w>
t y</w>
w as</w>
o p
gh t</w>
v al
as e</w>
a ted</w>
si g
m b
i f</w>
f ac
ic e</w>
p res
u p</w>
s o</w>
o d</w>
us e</w>
ou ld</w>
s ec
m i
a u
it s</w>
g h</w>
t u
d ed</w>
h as</w>
u c
g e
w i
d a
syste m</w>
p re
ic h</w>
di s
g o
p e
es s
or e</w>
p u
a d</w>
al ly</w>
g i
c re
ic al</w>
ar y</w>
s el
t e</w>
a f
men ts</w>
wh ich</w>
m s</w>
k ing</w>
ar d</w>
e ment</w>
lo w
f in
o ther</w>
us t</w>
i z
te s</w>
ic ation</w>
lo c
p a
e m
g ra
g ro
ti es</w>
pl e</w>
f il
s a
spec i
y our</w>
a tions</w>
str uc
tr an
cont ro
an g
pro c
o per
wh en</w>
in ter
ou r
su p
re s</w>
g en
ap pl
p r
t or</w>
0 0
am e</w>
h e</w>
k s</w>
en g
w e</w>
m ar
p i
p e</w>
d at
bu t</w>
ti me</w>
tion al</w>
tr ac
d en
on g</w>
com m
cl u
lo w</w>
t ra
ser v
pl e
al l
pro duc
o b
ti c</w>
pro vi
y e
te ri
e l</w>
l u
p h
at ing</w>
an d
w n</w>
t w
or s</w>
t ur
p ri
t ri
re qui
su b
m ore</w>
st o
n o</w>
g u
p ment</w>
m on
fi r
u m</w>
ne w</w>
sig n
b r
wor k</w>
i r</w>
c a
es e</w>
por t</w>
ing s</w>
or y</w>
n ec
it e</w>
the y</w>
y s</w>
ou s</w>
us ed</w>
u s</w>
t ure</w>
e v
c ur
s ure</w>
ma y</w>
val u
man ag
t y
ro u
ac h</w>
u p
f a
contro l</w>
j ect</w>
i l</w>
pl a
c or
f o
f ol
form ation</w>
n u
lo g
ch in
d er
on s</w>
b le</w>
in st
f u
sh o
as t</w>
ac h
tran s
s ur
l l
me th
po s
ti v
the ir</w>
ve lo
e ff
il ity</w>
l in
ren t</w>
i es</w>
t al</w>
in clu
dat a</w>
su ch</w>
su l
n a
de velo
al s</w>
b i
an ge</w>
af ter</w>
te ch
se t</w>
mb er</w>
in to</w>
c en
th an</w>
be en</w>
ch ar
re g
h is</w>
th ere</w>
w el
al so</w>
b as
be t
ac e</w>
ver y</w>
di rec
c ar
w er</w>
p en
st u
in formation</w>
v ed</w>
st a
r on
es t</w>
i d</w>
st s</w>
t ly</w>
on ly</w>
v ing</w>
d o</w>
sh i
r u
a re
re e</w>
vi e
e p
f un
wi th
n ing</w>
per i
te c
c oun
con trac
w ere</w>
gen er
in t</w>
v en
f t</w>
m y</w>
b ac
wa ter</w>
d ra
d y</w>
r e</w>
s en
sh ould</w>
c es</w>
o ff
w s</w>
al y
di ff
m ust</w>
2 0
el ec
ter s</w>
te st</w>
fi ed</w>
re sp
sig n</w>
i c</w>
ap pro
po si
l ine</w>
a v
tw o</w>
d ec
c ap
con nec
for m</w>
ta in
te m
re mo
hi gh</w>
wa y</w>
b ec
comp any</w>
v ol
un der</w>
ab out</w>
b ra
re la
s ti
e ach</w>
as s
t t
a m</w>
oun d</w>
y ing</w>
f l
un i
per s
d es</w>
po l
p er</w>
e t</w>
en ce</w>
an aly
ar s</w>
e qui
f ic
ic k</w>
d ic
in te
ma teri
e d
i g
s ol
c y</w>
we en</w>
manag ement</w>
c er
po wer</w>
ai d</w>
b us
m is
bet ween</w>
ai r</w>
no w</w>
th ese</w>
fol low
th rou
th en</w>
al ity</w>
c ul
st ing</w>
ur ing</w>
j ec
ou t
e i
ar i
me as
m ul
chin a</w>
ty pe</w>
p lo
at ure</w>
g re
c an
us ing</w>
ma in
st ri
at or</w>
en ts</w>
for e</w>
acc or
da y</w>
ve l</w>
p s</w>
t ation</w>
si de</w>
il e</w>
so me</w>
w in
j o
de sign</w>
st ra
re sul
n i
serv ice</w>
ic es</w>
l es</w>
ab ility</w>
s ch
s is</w>
o f
com ple
resp on
v es</w>
el y</w>
diff e
d ri
con struc
throu gh</w>
pe o
l l</w>
fir st</w>
k ed</w>
wh at</w>
fac e</w>
s es</w>
h u
m an</w>
fil e</w>
st ar
t ;</w>
peo ple</w>
pro ject</w>
ch ange</w>
t re
an s</w>
st and
as s</w>
ci al</w>
proc ess</w>
p ur
valu e</w>
oper ation</w>
n ame</w>
f ul
l ing</w>
. .</w>
sup pl
vie w</w>
in ess</w>
o ver</w>
wh ere</w>
l ess</w>
se e</w>
s ing</w>
ch ec
f ication</w>
ic i
c lo
m il
am p
0 0</w>
ci r
t ro
h el
ol d</w>
o se</w>
g r
ac t</w>
ge t</w>
ke t</w>
develo pment</w>
l ed</w>
con di
inst all
ma ke</w>
nu mber</w>
ha d</w>
par t</w>
c le
s ed</w>
o k</w>
meth od</w>
en d</w>
oun t</w>
se ar
li ke</w>
wh o</w>
bas ed</w>
l s</w>
1 0</w>
appl ication</w>
o c
tr y</w>
pu t</w>
2 00
d uring</w>
tic al</w>
log y</w>
bu il
follow ing</w>
wel l</w>
gro up</w>
do cu
w ould</w>
cu sto
ri ght</w>
t able</w>
h y
h an
sec tion</w>
mo st</w>
i r
c al
s s</w>
fun c
o l</w>
li c</w>
bus iness</w>
equi pment</w>
ti m
mo de
ma in</w>
ho w</w>
ter min
a use</w>
s aid</w>
ec ted</w>
the m</w>
sc ri
pu b
or der</w>
res s</w>
as se
requi re
st or
be fore</w>
m u
construc tion</w>
pro per
si ble</w>
i ties</w>
pro tec
le vel</w>
g a
th er
na tional</w>
ma de</w>
j u
pres sure</w>
p an
ti al</w>
h er</w>
par t
si ons</w>
o ver
man u
co l
fi g
ex c
1 9
con si
por t
cl ick</w>
reg ul
sc re
an k</w>
or g
tech no
n or
pro b
f y</w>
ta in</w>
z e</w>
posi tion</w>
wh e
d ate</w>
in du
sp e
ch ang
on o
qu ality</w>
in cre
ye ar</w>
re ad
meas u
pl an
p ing</w>
are a</w>
is e</w>
t ors</w>
n ess</w>
te n</w>
me di
p ed</w>
in f
c ould</w>
w ar
x i
m at
re f
l ar
& amp
li f
dis pla
su m
n er</w>
&amp ;</w>
ex am
re le
sear ch</w>
po int</w>
re qu
un der
e t
p ul
sh e</w>
iz ation</w>
on g
ren ce</w>
de v
h ar
v ari
d r
au to
c ri
sel ect</w>
o il</w>
st ate</w>
pl ace</w>
ser ver</w>
bac k</w>
fi el
e ar
ne t
m ic
20 1
pro gra
s ame</w>
en vi
ri s
ta ke</w>
do wn</w>
s m
ag a
j ust</w>
si ve</w>
org an
analy sis</w>
au th
n ed</w>
for man
require ments</w>
cur rent</w>
a il
o ds</w>
inclu ding</w>
re gi
requi red</w>
m ach
cir cu
bec ause</w>
envi ron
fi c</w>
elec tr
s ite</w>
of f</w>
ai r
ten t</w>
go ver
with in</w>
per forman
h ol
ul t</w>
shi p</w>
man y</w>
h ou
ac tion</w>
cont in
chec k</w>
w ing</w>
am e
eff ec
c r
ec ono
in e
char ac
or t</w>
is su
wh ile</w>
d ent</w>
diffe rent</w>
r ing</w>
b a
sup port</w>
go od</w>
on al</w>
c ase</w>
er ing</w>
an g</w>
iz ed</w>
s al
performan ce</w>
y er</w>
th ree</w>
s wit
par ty</w>
o m
1 .
ma g
fu l</w>
ye ars</w>
& bra
sec on
pl ac
& ke
re si
el s</w>
rec ei
em plo
i te
w r
str y</w>
u tion</w>
&bra ;</w>
contin u
" "</w>
&ke t;</w>
av ail
prob le
stu dy</w>
fa il
im pro
so ci
s k
tic le</w>
v en</w>
c li
hi gh
h ic
tem per
0 .
un d</w>
k no
min i
it al</w>
struc ture</w>
en ti
tic s</w>
c y
l ong</w>
pr in
ag re
gover n
bo th</w>
accor ding</w>
ve hic
ro o
li ght</w>
b re
sec ur
mode l</w>
p ac
techno logy</w>
sel f</w>
s h</w>
ap er</w>
custo m
op en</w>
ex peri
materi al</w>
st an
di sc
t ting</w>
c ed</w>
com e</w>
n al</w>
sa fe
sh ed</w>
te ly</w>
th ou
win do
wor ld</w>
ne ed</w>
g y</w>
il y</w>
v o
b l
2 .
be ing</w>
ke y</w>
rec or
den ti
n am
a tes</w>
b ro
di vi
asse mb
comm un
ro r</w>
le t</w>
d ro
l and</w>
produc t</w>
contrac t</w>
ad di
comp u
co ll
do es</w>
i ght</w>
in dic
im um</w>
mi c</w>
d ance</w>
provi de</w>
ag es</w>
st ance</w>
ne l</w>
d ers</w>
g g
ch o
stand ard</w>
fin an
proc ess
produc tion</w>
m m</w>
v al</w>
b el
our ce</w>
comp on
bo x</w>
li st</w>
en ter
in i
safe ty</w>
gener al</w>
m p</w>
un it</w>
c el
ar ticle</w>
provi ded</w>
e p</w>
produc ts</w>
appl ic
ad v
temper ature</w>
g o</w>
p t</w>
p aper</w>
us er</w>
s or</w>
fiel d</w>
as es</w>
mar ket</w>
de scri
th ing</w>
lif e</w>
w ant</w>
can not</w>
serv ices</w>
te x
with out</w>
t age</w>
men tal</w>
e st
de ta
contrac tor</w>
wor k
avail able</w>
en cy</w>
in ve
tur n</w>
resul ts</w>
hi m</w>
in ce</w>
re port</w>
pres en
ma ge</w>
ac ti
al i
lo ad</w>
speci fied</w>
l ic
stor age</w>
du le</w>
re search</w>
con tain
ab o
at t
b en
th ose</w>
im port
chin ese</w>
f ur
ac k</w>
com pl
de sign
i denti
s ing
cen tr
p tion</w>
d ge</w>
d in
p at
n on</w>
inve st
f low</w>
in de
ob jec
eng ine
syste ms</w>
r ate</w>
b in
pub lic</w>
peri od</w>
net work</w>
bo dy</w>
po in
p ass
remo ve</w>
e f
2 0</w>
b ri
val ve</w>
or i
r y</w>
materi als</w>
so f
res t</w>
sur face</w>
re as
le g
re co
m it
de fin
g as</w>
r an
condi tions</w>
ad d
h ere</w>
c our
ev en</w>
pers on</w>
auth or
pol ic
i ed</w>
w ard</w>
f ra
er ror</w>
t ory</w>
n s</w>
tech n
3 .
gro und</w>
loc k</w>
lo o
ne t</w>
as si
acc ess</w>
wa ys</w>
circu it</w>
co de</w>
star t</w>
di t</w>
fe rence</w>
b ar
ec tion</w>
m ec
ch i
ex p
suppl y</w>
c c
to p</w>
tu al</w>
di stri
ap pe
manu fac
fa ult</w>
distri bu
k es</w>
con fig
sti tu
cor rec
cre ate</w>
ti s
mic ro
de part
eff ect</w>
loc al</w>
spe ed</w>
de li
1 0
mec han
he ad</w>
ac tiv
in ing</w>
func tion</w>
00 0</w>
a k
in spec
m al</w>
c ro
to tal</w>
nec ess
de termin
s ity</w>
ad mini
a ff
protec tion</w>
5 0</w>
d on</w>
gu i
c k</w>
bac k
ste el</w>
se tt
pro f
pa y
qu e</w>
m er
finan cial</w>
al e</w>
fo re
m ess
f ron
secur ity</w>
mach ine</w>
in k</w>
par ame
al low
mon it
gh ts</w>
abo ve</w>
auto ma
r ic
dev ice</w>
pl an</w>
m it</w>
y ed</w>
en er
ch il
m or
bo ard</w>
mis sion</w>
ar ing</w>
l ab
eng ine</w>
enter pri
ab li
si ze</w>
tri c</w>
indu stry</w>
in v
re por
the re
wor ks</w>
est abli
ris k</w>
p es</w>
ul ar</w>
ic k
ple ase</w>
cal cul
t le</w>
ful l</w>
import ant</w>
tw are</w>
f am
e u
il ities</w>
am er
b ed</w>
in s</w>
hel p</w>
c ity</w>
an ti
trans f
cer ti
co st</w>
vehic le</w>
techn ical</w>
k now</w>
inter national</w>
es ti
t or
sh e
assemb ly</w>
exam ple</w>
f ound</w>
ar ds</w>
low er</w>
swit ch</w>
b ility</w>
te red</w>
n ex
4 .
e very</w>
du e</w>
z ed</w>
it u
me ans</w>
rele v
h and
wor king</w>
en sure</w>
c o</w>
rela ted</w>
e qu
si c</w>
s ci
contro ll
lar ge</w>
it ing</w>
d y
sp ace</w>
install ation</w>
govern ment</w>
le ft</w>
tran sp
as h</w>
par ts</w>
o w
sm all</w>
la w</w>
g lo
deta il
am ount</w>
necess ary</w>
b er</w>
co p
al o
he al
speci al</w>
b ank</w>
sof tware</w>
str ic
mu ch</w>
is m</w>
acc ep
j i
fron t</w>
l ast</w>
relev ant</w>
mul ti
su per
log ical</w>
s am
p ho
tim es</w>
d ation</w>
tre at
ful ly</w>
t ar
p age</w>
d re
r un
de f
k en</w>
li on</w>
sing le</w>
z h
an other</w>
re ad</w>
compu ter</w>
r ange</w>
ou s
nex t</w>
connec tion</w>
as soci
f lo
le ad
con tent</w>
da ys</w>
pos ed</w>
3 0</w>
cen ter</w>
ne e
1 2</w>
il l
cl ass</w>
c all
agre ement</w>
b al
chang es</w>
men tation</w>
sti ll</w>
k in
at u
pl ate</w>
a tive</w>
sup por
our ces</w>
is t</w>
ra di
charac teri
sy n
pres s</w>
ur ation</w>
con duc
str ation</w>
di ag
an t
c ou
dec i
ener gy</w>
tiv ely</w>
accor dance</w>
str u
ho we
howe ver</w>
no ti
inclu de</w>
st re
ma x
ex ten
roo m</w>
resul t</w>
displa y</w>
ro ad</w>
par ti
op en
ur al</w>
read y</w>
environ ment</w>
mo de</w>
si m
proper ty</w>
sel ected</w>
ch an
or din
5 .
at us</w>
buil ding</w>
inst all</w>
a k</w>
mo di
ac tive</w>
ad d</w>
us es</w>
proc e
ex ec
ex i
in st</w>
s ou
ig n</w>
ic s</w>
s ource</w>
comple te</w>
aga inst</w>
dri ve</w>
docu ment</w>
depart ment</w>
cap ac
t al
acc ount</w>
meth ods</w>
lo ad
ab les</w>
secon d</w>
loc ation</w>
ob ject</w>
car ri
eff ici
et c</w>
s co
con ver
mb ers</w>
pr ice</w>
su cc
whe ther</w>
ul es</w>
oper ating</w>
il i
custom er</w>
b ur
com men
te e</w>
tex t</w>
ar t</w>
w o
as ed</w>
bo o
o wn</w>
a si
disc us
pos sible</w>
dat ab
st ren
den ts</w>
add ress</w>
or ig
treat ment</w>
inspec tion</w>
re duc
du ce</w>
er y</w>
pu mp</w>
sh a
c e
vol u
e duc
stren g
ar ound</w>
i i</w>
f ree</w>
b at
de tec
ma j
re li
iz e</w>
speci fic</w>
im ple
ol s</w>
cont act</w>
ru n</w>
progra m</w>
e valu
in tro
sch e
g l
pres ent</w>
b an
ten ance</w>
econo mic</w>
fil es</w>
f ri
prin ci
tur al</w>
do or</w>
acc oun
1 5</w>
main tenance</w>
or ing</w>
gi ven</w>
vol tage</w>
e ve</w>
polic y</w>
x ed</w>
coun try</w>
invest ment</w>
ti l</w>
lin es</w>
pur ch
l ation</w>
h ap
sho w</w>
off ice</w>
st ation</w>
se par
di d</w>
manag er</w>
to o</w>
gre at</w>
f lu
pl ant</w>
st y
th s</w>
pers on
se ver
tr u
tu res</w>
s ince</w>
ch es</w>
pl es</w>
s ted</w>
proble m</w>
m ary</w>
le ar
un til</w>
as k</w>
is h</w>
cor por
be low</w>
me e
1 1</w>
characteri s
se e
y s
mo dule</w>
measu res</w>
du al</w>
form ed</w>
tic ally</w>
tri es</w>
sch o
me mber</w>
a tely</w>
com bin
st atus</w>
comm it
we e
b est</w>
tt on</w>
te am</w>
b ase</w>
as h
sh ort</w>
docu ments</w>
se qu
be g
ver s</w>
proper ties</w>
max imum</w>
val id</w>
he ad
sen sor</w>
t an
pa ti
uni ver
con cre
datab ase</w>
for ce</w>
m oun
en ter</w>
fin d</w>
p h</w>
t ou
ev ent</w>
ve ment</w>
ar ly</w>
co ver</w>
re ference</w>
pi pe</w>
im p
g ation</w>
vi r
wh o
comp e
s li
char ge</w>
lo ok</w>
le a
gi ve</w>
ch ing</w>
f as
aga in</w>
th ink</w>
h al
6 .
re presen
l it
transf er</w>
comp an
atu res</w>
compon ents</w>
are as</w>
heal th</w>
po se</w>
amer ic
fu el</w>
indu stri
fir e</w>
le ast</w>
b al</w>
h or
concre te</w>
pan el</w>
capac ity</w>
_ _
windo ws</w>
in ed</w>
ad ju
f our</w>
hou se</w>
te sting</w>
ter m</w>
at ors</w>
go ing</w>
sign i
he at</w>
nor mal</w>
in stru
re ment</w>
up on</w>
ous ly</w>
l ang
con sum
tra ining</w>
fore ign</w>
g ed</w>
c able</w>
incre ase</w>
lo t</w>
w all</w>
p ic
intro duc
install ed</w>
de n</w>
de le
res er
stra te
in divi
c ing</w>
condi tion</w>
co ol
al ways</w>
appro pri
cur ren
h and</w>
fig ure</w>
on ce</w>
config uration</w>
par tic
s or
poin ts</w>
alo g</w>
c le</w>
ho me</w>
c ent</w>
se tting</w>
th ir
sign al</w>
orig in
on ic</w>
signi fic
c ement</w>
en d
ac hi
d ou
1 00</w>
ite m</w>
f requ
i de
sub ject</w>
o me</w>
so ft</w>
p ped</w>
mess age</w>
y u
engine ering</w>
di men
valu es</w>
mo tor</w>
ter n</w>
l t
stu di
ar m</w>
re ar</w>
in ation</w>
in ten
inter nal</w>
ver sion</w>
cap ital</w>
l er</w>
& g
out put</w>
n at
19 9
distribu tion</w>
re al</w>
sho wn</w>
l eng
den ce</w>
m r</w>
tiv es</w>
proc ed
ver age</w>
certi fic
e f</w>
fur ther</w>
lu m
adv an
at ten
sal es</w>
sh ing</w>
po w
high er</w>
res ources</w>
ap e</w>
acti vi
m a</w>
ta x</w>
con n
br an
elec tric</w>
wor d</w>
b on
re r</w>
electr ical</w>
proble ms</w>
ch em
b il
inv esti
m ine</w>
u te</w>
provi des</w>
te ach
in es</w>
b ar</w>
in struc
am p</w>
w are</w>
glo bal</w>
to ol</w>
in stitu
bet ter</w>
ma king</w>
b er
mee ting</w>
hu man</w>
conn ect</w>
b ol
qu es
di g
ep t</w>
we b</w>
w n
de fault</w>
ver i
ei ther</w>
appl y</w>
b or
clo se</w>
2 5</w>
f oun
&g t;</w>
ge o
m as
g er</w>
mi d
proced ure</w>
educ ation</w>
i al</w>
k i
g ing</w>
ta ken</w>
vi sion</w>
su b</w>
pay ment</w>
g es</w>
sol ution</w>
our s</w>
i mage</w>
activi ties</w>
l ong
oc cur
p ec
em er
thou gh</w>
no te</w>
s po
ca use</w>
ex change</w>
effec tive</w>
stand ards</w>
op tion</w>
inf lu
ve red</w>
st ory</w>
pac k
exi sting</w>
gra ph
ser ies</w>
si onal</w>
co lum
tain ed</w>
comm and</w>
v ent</w>
e y</w>
me et</w>
ke ep</w>
lit tle</w>
appro val</w>
dy nam
ba sic</w>
ite ms</w>
mi ght</w>
sett ings</w>
w ise</w>
w ed</w>
bec ome</w>
addi tional</w>
si on
st and</w>
maj or</w>
de red</w>
sa y</w>
reg is
windo w</w>
to ge
le v
bu tton</w>
gro w
re view</w>
appropri ate</w>
h er
re turn</w>
loc ated</w>
toge ther</w>
re commen
a ter</w>
so cial</w>
so li
al ready</w>
pl at
de pen
coun tries</w>
process ing</w>
volu me</w>
pl as
pl u
as ing</w>
pro v
lo ss</w>
m ing</w>
an y
d le</w>
sh af
mar ke
pro jec
inte gr
ref er</w>
grow th</w>
ro w</w>
sta tes</w>
z ation</w>
el e
con cer
c at
comm on</w>
ex pen
bas is</w>
call ed</w>
si mul
sta te
pro mo
re plac
m p
emplo ye
dra wing</w>
7 .
ph ase</w>
leng th</w>
vari ous</w>
er red</w>
us ers</w>
lic en
u ti
c ra
cli ent</w>
res ol
re p
enterpri se</w>
a x
leg al</w>
con fi
appl ied</w>
we ight</w>
o id</w>
bo ok</w>
experi ence</w>
ex pres
regul ations</w>
ste p</w>
1 6</w>
suppl i
so me
t ary</w>
ph ys
up s</w>
compan ies</w>
hy dro
ty pes</w>
en tly</w>
stan ding</w>
ac tions</w>
cop y</w>
detail s</w>
l an
ter ms</w>
comp a
pol y
tri bu
design ed</w>
e ver
manufac tu
person nel</w>
ro ll
ac y</w>
trans mission</w>
run ning</w>
applic ations</w>
scre en</w>
li mi
sto p</w>
ph one</w>
an ts</w>
scho ol</w>
tra de</w>
ma il</w>
l en
li sh</w>
da mage</w>
correc t</w>
oper ations</w>
m es
recor d</w>
comm er
sty le</w>
rela tion
fail ure</w>
gu ar
min imum</w>
medi a</w>
defin ed</w>
connec ted</w>
col or</w>
li gh
a i</w>
ass ess
parame ters</w>
organ ization</w>
la yer</w>
li qui
asse ts</w>
sever al</w>
kno w
mo ve</w>
hal f</w>
po ten
con c
s itu
al ong</w>
ven tion</w>
fail ed</w>
ach ed</w>
dre n</w>
str ong</w>
fo od</w>
1 6
b it</w>
e ty</w>
lang u
ini ti
ch ed</w>
chil dren</w>
st e</w>
m en</w>
p ping</w>
e as
cour se</w>
re al
ar chi
do wn
respon sible</w>
st ore</w>
wi re</w>
kno wn</w>
fic ations</w>
compon ent</w>
limi ted</w>
mil lion</w>
2 4</w>
me mbers</w>
direc t</w>
lo gi
ter nal</w>
sa ys</w>
su ff
nat ural</w>
monit oring</w>
inte rest</w>
lt d</w>
ad ded</w>
commun ication</w>
o th
y es</w>
fam ily</w>
4 0</w>
ch a
ab ly</w>
in put</w>
s on</w>
fe w</w>
pri v
resi stance</w>
cy lin
fu ture</w>
qu anti
uni ted</w>
inter face</w>
characteris tics</w>
at tribu
h ard</w>
ri ghts</w>
pa y</w>
n er
t un
who le</w>
know le
f r
ever y
direc tly</w>
form s</w>
ben ef
, 000</w>
con fir
r ules</w>
it able</w>
cl es</w>
sur ance</w>
shaf t</w>
par ties</w>
c ar</w>
appro ved</w>
ter y</w>
thir d</w>
a way</w>
fil ter</w>
si bility</w>
requ est</w>
fi ve</w>
1 4</w>
po pul
to m</w>
jo int</w>
impro ve</w>
me d
am ong</w>
ac tu
v ation</w>
in vol
vi s
environ mental</w>
adju st
inclu des</w>
de m
at ory</w>
ne ver</w>
qu ali
me m
gra de</w>
al low</w>
fi xed</w>
imp act</w>
fe atures</w>
1 3</w>
proce du
stu dents</w>
1 8
f re
in ser
bra ke</w>
procedu res</w>
sc ale</w>
activ ity</w>
si mil
ac ro
mon ey</w>
progra m
comm is
k er</w>
mit ted</w>
cle an
h en
kin d</w>
pro g
di alog</w>
ha ving</w>
at s</w>
men u</w>
s us
j ing</w>
har d
sign ed</w>
m er</w>
fra me</w>
eu ro
diag no
oc cu
g n
pre par
origin al</w>
s mo
tar get</w>
pr acti
noti ce</w>
sh u
sh are</w>
c ard</w>
effec ts</w>
addi tion</w>
pr ac
co sts</w>
a tional</w>
on es</w>
ci p
centr al</w>
be aring</w>
em c</w>
me ter</w>
b lock</w>
g en</w>
mo d
p hi
ch e
jo b</w>
measu rement</w>
ex ternal</w>
op tions</w>
h old</w>
pre vi
bi o
certific ate</w>
of ten</w>
direc tion</w>
m es</w>
custom ers</w>
to ols</w>
s ent</w>
cer tain</w>
there fore</w>
for ward</w>
chem ical</w>
re pl
pat h</w>
continu e</w>
tech ni
1 2
ap ter</w>
c all</w>
f it
f le
c ases</w>
nee ds</w>
m b</w>
g er
lin k</w>
o ther
1 5
sho ws</w>
comp res
associ ated</w>
exec u
at h</w>
compl i
industri al</w>
streng th</w>
te sts</w>
cl a
cre dit</w>
cor respon
is ed</w>
es sion</w>
wh y</w>
hy dra
applic able</w>
re spec
st age</w>
t ter</w>
cle ar</w>
cu t</w>
chan nel</w>
multi ple</w>
ad op
sa ve</w>
manu al</w>
on line</w>
succ ess
she et</w>
g s</w>
la y
ag ent</w>
automa tic</w>
issu e</w>
guar an
speci fication</w>
d n</w>
resp ect</w>
out side</w>
whe el</w>
el ement</w>
z ing</w>
un d
m l</w>
lev els</w>
po li
de ter
pi ec
mo der
remo te</w>
cre ated</w>
me tal</w>
imple mentation</w>
& bar
un its</w>
d ary</w>
n a</w>
indivi dual</w>
r up
ex plo
bi g</w>
exc e
n ers</w>
objec ts</w>
us u
bo t
m un
univer sity</w>
t i</w>
b ul
s af
sur ve
th ings</w>
lo ve</w>
la ter</w>
w al
gui de</w>
dev ices</w>
ra y</w>
go ods</w>
re in
frequ ency</w>
dis k</w>
us h</w>
regi on</w>
sa tis
evalu ation</w>
carri ed</w>
ge ar</w>
develo ped</w>
a de
bel i
6 0</w>
pri mary</w>
ta king</w>
h ours</w>
ar ti
ad e</w>
pri or</w>
scre w</w>
func tions</w>
langu age</w>
p el
fin al</w>
li mit</w>
the ory</w>
per form</w>
exp ected</w>
st ant</w>
mar k</w>
stric t</w>
acc ur
objec tive</w>
a verage</w>
connec tor</w>
ma tic</w>
ten ing</w>
practi ce</w>
an im
or ies</w>
&bar ;</w>
emer gen
speci fy</w>
tur ned</w>
ro le</w>
colum n</w>
wh ite</w>
diffe ren
to day</w>
c are</w>
ou gh</w>
sol u
wr it
ma p</w>
in come</w>
s le
rele ase</w>
other wise</w>
respon se</w>
ti gh
tra di
go t</w>
sco pe</w>
tur ing</w>
sc en
sche dule</w>
mem ory</w>
represen ta
plat form</w>
ear ly</w>
ste n
pre vent</w>
dou ble</w>
dra w
pur pose</w>
li g
e ver</w>
m ed</w>
cho ose</w>
wi de</w>
z one</w>
in side</w>
fac tors</w>
be i
sto ck</w>
si l
b lo
bal ance</w>
br ation</w>
mon ths</w>
d one</w>
o s</w>
in no
automa tically</w>
knowle dge</w>
tiv ity</w>
c ore</w>
u lic</w>
mechan ism</w>
deli very</w>
dynam ic</w>
f ar</w>
ne w
con sul
writ ten</w>
mag ne
inter net</w>
hydra ulic</w>
qu ar
1 8</w>
en ds</w>
prov ince</w>
i d
econo my</w>
compe ti
re main
g ri
g ate</w>
direc tor</w>
plan ning</w>
fac es</w>
f er
poten tial</w>
ic ally</w>
bot tom</w>
cl assi
pla y</w>
i mag
re fl
provi sions</w>
c s</w>
el l</w>
inclu ded</w>
dem and</w>
deter mine</w>
le ad</w>
ca te
gro ups</w>
s qu
se at</w>
sel ection</w>
consi der
contain s</w>
elec tro
im medi
parame ter</w>
commit tee</w>
simil ar</w>
t ank</w>
relation ship</w>
determin ed</w>
e ding</w>
projec ts</w>
m al
hi story</w>
flo or</w>
fo o
pre si
re duce</w>
ra ti
so il</w>
comple ted</w>
cate g
hel d</w>
ho t</w>
cle an</w>
es ted</w>
sh an
suppli er</w>
re ally</w>
j un
ex pan
eas y</w>
pati ents</w>
bran ch</w>
oth ers</w>
b ile</w>
war ds</w>
w om
hou sing</w>
al ing</w>
mechan ical</w>
mon th</w>
acro ss</w>
establi shed</w>
ver se</w>
f low
vi de
cro ss</w>
up per</w>
yu an</w>
meas ure</w>
di stance</w>
phys ical</w>
fac ilities</w>
se ts</w>
fun d</w>
b s</w>
cylin der</w>
sou th</w>
electr onic</w>
al ter
d ly</w>
par ag
cal i
dri ver</w>
dig ital</w>
pho to
im pl
main ly</w>
enterpri ses</w>
back up</w>
transp or
prof es
1 3
ri ver</w>
an nu
wom en</w>
af f</w>
ang le</w>
inde x</w>
op ti
me an
o re
vi a</w>
ma kes</w>
pro posed</w>
b on</w>
clo sed</w>
j ap
d ings</w>
diff ic
con ven
emergen cy</w>
ta b</w>
con clu
form ing</w>
sp ring</w>
in surance</w>
u e</w>
i a</w>
u tes</w>
mo bile</w>
be ha
eng lish</w>
5 0
micro soft</w>
zh ou</w>
se t
recei ved</w>
st aff</w>
me t
g ar
ant i</w>
co ordin
it ation</w>
reas on
cul ture</w>
p rec
author ity</w>
med ical</w>
descri ption</w>
ac qui
res ource</w>
sec re
di se
8 .
admini stration</w>
parag ra
ch ron
influ ence</w>
su itable</w>
p aid</w>
partic ular</w>
ac tual</w>
assess ment</w>
bei jing</w>
instru ment</w>
en ough</w>
n on
sci enti
ele ments</w>
l or
sy m
re place</w>
se al</w>
per cent</w>
j ur
bi d
tem por
it or</w>
pers onal</w>
ca re
open ing</w>
so meth
s w
sam ple</w>
descri bed</w>
foun dation</w>
sim ple</w>
pre ci
com par
he av
sh are
x es</w>
situ ation</w>
pr e</w>
mul ti</w>
someth ing</w>
buil d</w>
inde pen
am s</w>
bat tery</w>
incre ased</w>
wel ding</w>
st ress</w>
prog ress</w>
con ten
wor ds</w>
b all</w>
beha vi
buil t</w>
al ized</w>
e vi
si t</w>
purch ase</w>
organ iz
t ask</w>
po st</w>
bu s</w>
d ated</w>
i ally</w>
f it</w>
vehic les</w>
r s</w>
ai m</w>
de st
d ru
s an
ec ts</w>
te le
commun ic
cont ri
form ul
per formed</w>
displa yed</w>
direc tory</w>
en s
plu g</w>
fol der</w>
w il
ter ing</w>
allow s</w>
ag ing</w>
wr iting</w>
y oun
t ch</w>
consi dered</w>
un less</w>
issu es</w>
ear th</w>
se a</w>
chang ed</w>
gre ater</w>
contri bu
issu ed</w>
wee k</w>
1 7</w>
fe ren
form er</w>
wi d
termin al</w>
de b
ni ght</w>
p al
th ick
tra f
gre en</w>
ob serv
gh ai</w>
ec ting</w>
ab ilities</w>
suppor ted</w>
co al</w>
off ici
h in
hap p
engine er</w>
c m</w>
ca used</w>
lo g</w>
t ance</w>
sha res</w>
signific ant</w>
en ces</w>
cl in
la ws</w>
li k
exc ept</w>
f ying</w>
he ight</w>
saf e</w>
es pec
w w
ex er
su n
effici ency</w>
t on</w>
fe ature</w>
i p</w>
tion ed</w>
transp ort</w>
ne u
ho st</w>
di sp
j us
d ar
repor ts</w>
deci sion</w>
1 4
traf fic</w>
allow ed</w>
reco very</w>
th re
li ve</w>
do m</w>
uti li
inte gra
up date</w>
espec ially</w>
nor th</w>
o xi
nee ded</w>
controll er</w>
y ment</w>
he art</w>
fol low</w>
il s</w>
car ry</w>
v el
fi es</w>
in sul
8 0</w>
emplo yer</w>
s and</w>
o d
appro ach</w>
ye t</w>
over all</w>
ex pl
b an</w>
ow ner</w>
mid dle</w>
sim pl
ab led</w>
commer cial</w>
state ment</w>
z z
cour t</w>
form at</w>
do main</w>
trans action</w>
determin ation</w>
pos es</w>
reas on</w>
coll ection</w>
bl ack</w>
op port
i gh
si tion</w>
admini stra
3 0
li sted</w>
prepar ation</w>
sci ence</w>
mat ter</w>
w est</w>
re ly</w>
s i</w>
recor ds</w>
rep air</w>
cel l</w>
b lu
t ren
re lation</w>
long er</w>
accoun ting</w>
vide o</w>
au di
calcul ation</w>
p ass</w>
av oid</w>
speci fications</w>
he re
m y
i ous</w>
liqui d</w>
ef for
e asi
lin e
w as
presi dent</w>
f on
sh or
th us</w>
pub li
al arm</w>
defin i
rati o</w>
la y</w>
el l
pi c</w>
c ash</w>
dr y</w>
li br
ne ar</w>
parti cip
fac tory</w>
b it
comp re
wa ste</w>
inf ra
displa ys</w>
f ill</w>
cr y
c ame</w>
princi ple</w>
cl ause</w>
en able</w>
r o</w>
advan ced</w>
c ru
americ an</w>
m ass</w>
instruc tions</w>
s we
opti mi
b y
reco gn
employe es</w>
annu al</w>
dele te</w>
tain ing</w>
te l</w>
ho le</w>
gener ation</w>
or ity</w>
correspon ding</w>
requi re</w>
w at
di ame
mas ter</w>
fe el</w>
si des</w>
fac tor</w>
effici ent</w>
c d</w>
usu ally</w>
develo p</w>
n ature</w>
administra tive</w>
tradi tional</w>
a c</w>
in ts</w>
p ast</w>
cy cle</w>
com es</w>
co vered</w>
thou ght</w>
pl ing</w>
star ted</w>
an ces</w>
s p</w>
an n
hol ders</w>
ch apter</w>
f ast</w>
1 7
ste ps</w>
tion ing</w>
compli ance</w>
suff ici
adjust ment</w>
detail ed</w>
car bon</w>
ob tained</w>
remo ving</w>
shan ghai</w>
remo ved</w>
all s</w>
manufactu rer</w>
load ing</w>
sen d</w>
ac id</w>
tu be</w>
install ing</w>
x i</w>
e th
fin i
f ab
previ ous</w>
min utes</w>
paragra ph</w>
fil m</w>
strate gy</w>
stan ces</w>
h ong</w>
wr ite</w>
l ate</w>
compre hen
cu s</w>
win d</w>
e .
reg ar
monit or</w>
curren tly</w>
or ation</w>
2 1</w>
teri a</w>
draw ings</w>
bi r
s ound</w>
controll ed</w>
ev ents</w>
cir cul
chil d</w>
bu d
c ab
ex trac
acc ess
manufac turing</w>
archi tec
wid th</w>
p c</w>
c tion</w>
men ted</w>
gl ass</w>
p al</w>
sta in
di st
pro file</w>
vi su
m ou
m us
s er</w>
in jec
priv ate</w>
diffe rence</w>
na vi
ci l</w>
oper ator</w>
m ol
gi r
al ization</w>
a men
ci es</w>
profes sional</w>
s ession</w>
co operation</w>
s lo
measu red</w>
ru b
ex clu
en try</w>
we b
st op
ex per
lik ely</w>
9 .
re pe
integra ted</w>
il lu
ac ci
pow er
air s</w>
cl ass
1 9</w>
star ting</w>
b loc
ric ul
ini tial</w>
be au
th y</w>
di strict</w>
bre ak
exer c
sp ac
comp ens
co ld</w>
com ing</w>
process es</w>
do mes
thick ness</w>
de g
da mag
s pl
consi sten
hor iz
ru le</w>
ni tion</w>
cool ing</w>
s ter</w>
er r
d a</w>
k ong</w>
la un
si x</w>
su gg
solu tions</w>
bri dge</w>
ver tical</w>
as er</w>
regi stration</w>
immedi ately</w>
2 2</w>
cl us
sto red</w>
can c
vir tual</w>
in ste
m ac
main tain</w>
blo od</w>
en g</w>
under stand</w>
introduc ed</w>
em p
rec ent</w>
regis tered</w>
contro ls</w>
f ine</w>
require ment</w>
al g
ser ve</w>
j ac
x ing</w>
pass eng
l y
hol der</w>
p in</w>
ag g
diame ter</w>
diag ra
ag ed</w>
st one</w>
e dit</w>
n it
se g
h un
teach ing</w>
comple tion</w>
ed ge</w>
b es</w>
fac t</w>
charac ter</w>
sen si
per s</w>
regul ation</w>
ex port</w>
moder n</w>
rein for
col le
youn g</w>
to ok</w>
cha in</w>
in valid</w>
st ability</w>
atten tion</w>
secur ities</w>
strate gi
deg ree</w>
el er
cri tical</w>
resol ution</w>
inser t</w>
posi tive</w>
p ra
phi c</w>
pack age</w>
medi um</w>
hard ware</w>
de mon
requi res</w>
z ard</w>
se en</w>
th in
magne tic</w>
no de</w>
soci ety</w>
pos al</w>
off ic
lead ing</w>
plas tic</w>
me an</w>
bel t</w>
direc tors</w>
domes tic</w>
f f</w>
al though</w>
sus pen
m its</w>
es is</w>
follow s</w>
t as
c ket</w>
transpor tation</w>
an e</w>
sp i
w ent</w>
dro p</w>
en ing</w>
pi pel
l am
coun cil</w>
il ls</w>
ra tes</w>
it ary</w>
b ine</w>
sh ape</w>
plan e</w>
te ll</w>
secon dary</w>
ar ance</w>
un able</w>
gr an
de p
as set</w>
e ts</w>
piec e</w>
bec om
o logical</w>
sho p</w>
pl ans</w>
0 1</w>
fiel ds</w>
pr int</w>
compa red</w>
inste ad</w>
f e</w>
pre pa
flu id</w>
9 0</w>
respon sibility</w>
o x
at tem
b and</w>
tr a</w>
recei ve</w>
ai l</w>
develo ping</w>
d c</w>
tru e</w>
cel ls</w>
pr ices</w>
lear ning</w>
qu ick
trac k</w>
pre dic
regi onal</w>
read ing</w>
ch all
f c</w>
quanti ty</w>
t ol
3 2</w>
studi es</w>
ev ed</w>
s n
tra vel</w>
inst ance</w>
u .
coun ty</w>
comple x</w>
t rou
off er</w>
il er</w>
gra du
pa in
ur ban</w>
sta tis
on d</w>
uc le
r ang
accep tance</w>
re stric
war ning</w>
tempor ary</w>
con stitu
in di
val ves</w>
sequ ence</w>
ta kes</w>
mi r
de plo
combin ation</w>
par k</w>
we ar</w>
meas uring</w>
ad ap
no ise</w>
pro to
recommen ded</w>
commun ity</w>
w ash
e ds</w>
z er
ep tion</w>
ste ering</w>
ge ts</w>
tra in</w>
in ven
sk in</w>
el ev
al u
appe ars</w>
per f
shi ps</w>
surve y</w>
ch am
l and
inte re
b oun
mode ls</w>
techni que</w>
comprehen sive</w>
m in</w>
por ts</w>
al lo
consum ption</w>
ro ck</w>
be am</w>
t in
man age</w>
wa ve</w>
ori th
fa v
e ous</w>
alg orith
pro of</w>
polic ies</w>
l ity</w>
pers ons</w>
min al</w>
min d</w>
struc tures</w>
e red</w>
de si
2 5
ther mal</w>
ra pi
t .
iz ing</w>
lea ve</w>
t on
gener ator</w>
repor ted</w>
le tter</w>
t a</w>
loo king</w>
el d</w>
so on</w>
attribu te</w>
con tain</w>
suffici ent</w>
da tes</w>
acc eler
3 1</w>
corpor ate</w>
ho sp
fle xi
in ning</w>
cla im
s l
heav y</w>
representa tive</w>
ques tion</w>
sp here</w>
e ast</w>
le y</w>
ra il
cre ating</w>
bre a
uni que</w>
tor que</w>
bol ts</w>
ap poin
licen se</w>
ran ge
horiz on
oper ate</w>
gu e</w>
si a</w>
1 00
w ar</w>
7 0</w>
presen ted</w>
ar ies</w>
is ing</w>
vi ol
pol lu
im port</w>
ic ity</w>
vo ice</w>
fo cus</w>
th ro
simul ation</w>
y e</w>
ac ts</w>
g ame</w>
separ ate</w>
soli d</w>
mat ch</w>
veri fy</w>
tur ns</w>
do ing</w>
plac ed</w>
to wn</w>
continu ous</w>
calcul ated</w>
stre am</w>
vie ws</w>
vari able</w>
ar range
li ving</w>
ro of</w>
gener ally</w>
br ing</w>
le ment</w>
connec tions</w>
h on
n ucle
bil lion</w>
g od</w>
da ily</w>
d ol
set up</w>
2 3</w>
man i
m i</w>
guaran tee</w>
equ al</w>
n an
enti re</w>
o th</w>
de ep</w>
e mb
in ci
libr ary</w>
qu ery</w>
l amp</w>
circu m
lear n</w>
cul tural</w>
deta il</w>
fin ally</w>
so le</w>
appe ar</w>
__ __
ab sor
pur poses</w>
pos ite</w>
fun ds</w>
j our
en s</w>
admini str
dise ase</w>
ing ly</w>
dep th</w>
super vision</w>
prepa red</w>
hi bi
cor ro
investi gation</w>
f la
establi sh</w>
pur su
ag ricul
pro per</w>
por tion</w>
line ar</w>
ex pla
ste am</w>
in ner</w>
provi ding</w>
indepen dent</w>
g am
marke ts</w>
shi ft</w>
nu mer
w an
der i
m ation</w>
me tric</w>
c k
2 8</w>
sta tic</w>
detec tion</w>
ap pen
ji ang</w>
proper ly</w>
con centr
ra ther</w>
vi l</w>
prac tic
produc ed</w>
lar g
5 00</w>
att ached</w>
identi fication</w>
occur red</w>
b ad</w>
qu o
20 10</w>
20 0</w>
is ol
ir on</w>
w es
equi val
scre ws</w>
19 8
a o</w>
studi ed</w>
pul l</w>
su n</w>
ig n
identi fy</w>
si b
poli tical</w>
s a</w>
ex ha
cl aim</w>
c am
sec ure</w>
ri se</w>
pro duce</w>
ori en
c amer
pat tern</w>
hand ling</w>
sh ment</w>
br and</w>
mo vement</w>
z es</w>
fin ance</w>
benef its</w>
si tes</w>
u. s</w>
coun ter
lay out</w>
ag o</w>
conten ts</w>
disc lo
conduc ted</w>
conduc t</w>
me ters</w>
ma x</w>
en tial</w>
v ic
ne ga
i on</w>
s in
f an</w>
y i
mu sic</w>
v ac
to ol
ro und</w>
ti ble</w>
en jo
evi dence</w>
sel ves</w>
partic ul
fon t</w>
charac ters</w>
gra phic</w>
expres sion</w>
logi es</w>
diffic ult</w>
corpor ation</w>
en han
agre ed</w>
mo ther</w>
t old</w>
reason able</w>
ess es</w>
e. g</w>
no thing</w>
impro ved</w>
rela tive</w>
work ers</w>
har ness</w>
bi d</w>
hol ding</w>
cu mul
k ers</w>
it self</w>
clean ing</w>
p ical</w>
u ary</w>
ti n</w>
ad s</w>
s tic</w>
el ing</w>
s la
accoun ts</w>
er o
lu br
pass word</w>
we a
s q
tem plate</w>
ner ship</w>
progra ms</w>
ad just</w>
ke ts</w>
sub si
sec tions</w>
struc tural</w>
t ree</w>
associ ation</w>
americ a</w>
il ing</w>
inte l
al ed</w>
f el
nu mbers</w>
ke ep
lo st</w>
hin d</w>
exam ination</w>
he ating</w>
pres ents</w>
ide a</w>
hand le</w>
impl ement</w>
cri teria</w>
wh ose</w>
ref erred</w>
ob lig
mo ving</w>
discus sed</w>
al most</w>
sub mitted</w>
do c
me dic
po or</w>
sen se</w>
impro vement</w>
sh es</w>
sche me</w>
teri or</w>
prof it</w>
v ill
achi eve</w>
centr e</w>
th esis</w>
repor ting</w>
sch ed
combin ed</w>
m ale</w>
in duc
esti ma
ec tor</w>
ke y
clin ical</w>
infra structure</w>
au dit</w>
ven ue</w>
e sts</w>
r mb</w>
ter al</w>
chang ing</w>
regul ar</w>
dri ving</w>
dis charge</w>
3 5</w>
wo od</w>
gener ated</w>
actu ally</w>
syn chron
mess ages</w>
s s
ho tel</w>
nam es</w>
f all</w>
horizon tal</w>
categ ory</w>
fre e
pro te
200 8</w>
bro w
tr ying</w>
p p
b le
de ath</w>
connec ting</w>
be hind</w>
exten sion</w>
man ner</w>
a st
em ed</w>
te ll
ou l
cra ft</w>
mi gr
ach es</w>
adop ted</w>
sub mit</w>
sp ect</w>
sa w</w>
t v</w>
f ar
w on</w>
li es</w>
pa ren
marke ting</w>
reduc ed</w>
benef it</w>
protec t</w>
pre ven
g old</w>
d ang
de al</w>
quick ly</w>
rou ght</w>
r ich</w>
identi fied</w>
indic ator</w>
ter r
d on
fo c
commis sion</w>
ar ri
consi der</w>
fi er</w>
me try</w>
i ii</w>
re ach</w>
indic ates</w>
respec tively</w>
z o
ques tions</w>
is on</w>
compl y</w>
re sear
il ling</w>
inno vation</w>
th o
ca p</w>
di es</w>
com for
au to</w>
i st
defini tion</w>
y l</w>
fil led</w>
ci vil</w>
man ds</w>
ris ks</w>
on to</w>
br ac
k m</w>
ad ding</w>
tim ate</w>
graph y</w>
hi stor
m el
nega tive</w>
visu al</w>
re l
uc k</w>
ro ll</w>
invol ved</w>
e yes</w>
str ong
integr ation</w>
pl us</w>
blu e</w>
c ast</w>
se l</w>
ob tain</w>
throu gh
be d
au x
remo val</w>
ec m</w>
ti tle</w>
ne ws</w>
te sted</w>
indic ated</w>
sett lement</w>
suppor ts</w>
replac ement</w>
n e</w>
euro pe
behavi or</w>
rub ber</w>
m ate</w>
en tered</w>
h tt
mo tion</w>
li ft</w>
a u</w>
fri ends</w>
cur ve</w>
equi pped</w>
incre asing</w>
se as
em is
cl ou
modi fy</w>
algorith m</w>
min is
sh an</w>
di dn</w>
cu tting</w>
conc ept</w>
commis sion
reduc tion</w>
sec u
clus ter</w>
sal e</w>
li ghts</w>
gu ang
oper ational</w>
al le
beli eve</w>
suppl ied</w>
wes tern</w>
y el
ma tely</w>
ma y
easi ly</w>
sel ler</w>
ju d
na tive</w>
4 5</w>
me t</w>
a red</w>
4 0
sum mary</w>
i ds</w>
modi fied</w>
ax is</w>
contain ing</w>
an tly</w>
pipel ine</w>
scienti fic</w>
author ized</w>
equ ity</w>
beg inning</w>
stre et</w>
fini shed</w>
ta tions</w>
uni ties</w>
bre ak</w>
squ are</w>
b ing</w>
equival ent</w>
custo m</w>
an s
pati ent</w>
wa ter
no tes</w>
co pi
pla tes</w>
plan ts</w>
s ources</w>
exec ution</w>
cou ra
me mb
ge tting</w>
201 5</w>
in jur
ver ing</w>
co m</w>
sh ap
sho wed</w>
le ts</w>
ban ks</w>
y ers</w>
employe e</w>
un ity</w>
aff ected</w>
den sity</w>
dec e
f ru
o m</w>
zer o</w>
analy zed</w>
ne y</w>
l ess
ing u
qu es</w>
tal k</w>
curren cy</w>
6 0
l un
jap an</w>
discus sion</w>
mo ment</w>
techno logies</w>
ex ist</w>
aff ect</w>
r us
compens ation</w>
ad ver
bol t</w>
tur bine</w>
ex tre
2 6</w>
s en</w>
200 0</w>
dimen sions</w>
europe an</w>
oun ds</w>
h ab
st able</w>
sam ples</w>
de s
tion ally</w>
quali fied</w>
c ks</w>
ca uses</w>
af ric
passeng er</w>
lab or</w>
tas ks</w>
proto co
dimen sion</w>
gu red</w>
ra il</w>
r ac
d u</w>
exerc ise</w>
h our</w>
sur faces</w>
secon ds</w>
i um</w>
aux ili
organiz ations</w>
expan sion</w>
la test</w>
per man
colle ge</w>
provi sion</w>
popul ation</w>
en ess</w>
expen ses</w>
as signed</w>
re feren
sp or
tr ust</w>
wo man</w>
p ush</w>
load ed</w>
str ing</w>
a p</w>
e ful</w>
v es
ade qu
config ure</w>
tra ding</w>
part ner</w>
s ses</w>
a h</w>
ti le</w>
appen di
con soli
g au
fl ic
exc ell
fir m</w>
pa rent</w>
i .
ph en
el im
pa int</w>
radi o</w>
mil itary</w>
y ang</w>
n ations</w>
comple tely</w>
f air</w>
fra me
fac ility</w>
fl at</w>
docu mentation</w>
de posi
promo te</w>
as ked</w>
occu r</w>
fa ul
bu y</w>
regis ter</w>
sh ad
c as
c ables</w>
pre vention</w>
ligh ting</w>
add res
e c</w>
ser ious</w>
fe ed</w>
fa ther</w>
… …
under standing</w>
lo an</w>
res h</w>
ro d</w>
fas tening</w>
d it
e di
t ment</w>
ra ted</w>
201 1</w>
hap pen
tol er
appendi x</w>
re main</w>
chi ef</w>
p sy
as p
rela y</w>
open ed</w>
indic ate</w>
ach ing</w>
s mar
exha ust</w>
ta il</w>
def ine</w>
200 9</w>
re form</w>
pu m
ag ency</w>
li ter
success fully</w>
op tical</w>
dec re
im por
den tial</w>
li ability</w>
vi sit</w>
gri d</w>
fe ed
cen tur
fi ber</w>
ear li
mar ks</w>
enti ty</w>
auxili ary</w>
p m</w>
administr ator</w>
l i</w>
buil dings</w>
sho o
v ely</w>
l on
sp an</w>
vi bration</w>
qu a
back ground</w>
i or</w>
b ab
oblig ations</w>
deb t</w>
pic ture</w>
ou ter</w>
auth en
investi g
ti tu
ser vers</w>
t c</w>
7 5</w>
conven i
cho ice</w>
op ini
emplo yment</w>
st on</w>
er ship</w>
ar gu
s tic
reser vo
as sum
tou ch</w>
ann oun
ther n</w>
as sign
qu ite</w>
reas ons</w>
men tioned</w>
sub scri
experi mental</w>
euro pe</w>
ro t
suppor ting</w>
beg an</w>
princi ples</w>
at trac
r ying</w>
dru g</w>
asi a</w>
po ol</w>
gen ce</w>
super vi
kin ds</w>
bu yer</w>
ne go
ra w</w>
in let</w>
beau ti
nego ti
ho pe</w>
nam ed</w>
success ful</w>
every thing</w>
confi gured</w>
j e
tt le</w>
g y
de mo
war ran
sp a
corro sion</w>
du ty</w>
dol l
func tional</w>
2 7</w>
c f</w>
protec tive</w>
in c
w ri
201 2</w>
tre ated</w>
some times</w>
cl ari
su res</w>
sk ills</w>
nucle ar</w>
pro mis
prac tical</w>
wi ring</w>
plac es</w>
lor d</w>
diagno stic</w>
bro ad
t ables</w>
ke pt</w>
boo ks</w>
en abled</w>
con flic
200 7</w>
ex tent</w>
an k
k g</w>
s ors</w>
divi sion</w>
imag es</w>
correc tly</w>
re turned</w>
t ab
co ating</w>
any thing</w>
ox y
ten ce</w>
gi ves</w>
st ly</w>
conclu sion</w>
fi sh</w>
offic er</w>
d ust</w>
share holders</w>
mar ked</w>
coun ter</w>
li ste
execu tive</w>
effor ts</w>
nor m
su m</w>
posi tions</w>
a te
ro un
recor ded</w>
min im
b ill</w>
do es
sho t</w>
high ly</w>
con ve
b rought</w>
trans actions</w>
concentr ation</w>
the m
p a</w>
accur acy</w>
fin ish</w>
pi pes</w>
pu ts</w>
gui de
201 4</w>
ve ments</w>
cat aly
li mits</w>
ec tive</w>
r ation</w>
rail way</w>
dece mber</w>
con stra
roo t</w>
re ached</w>
offici al</w>
larg est</w>
ac cumul
depart ments</w>
arti cles</w>
logi c</w>
fil ling</w>
val i
whe re
vi ation</w>
does n</w>
ra in</w>
t ant</w>
pre f
sq l</w>
ther ap
2 4
accep t</w>
injec tion</w>
adv ance</w>
speci fies</w>
de lay</w>
moun ting</w>
v an
fe der
x ml</w>
sta y</w>
ad he
201 6</w>
exce ed</w>
li mit
sha red</w>
instru ments</w>
ty pical</w>
m 2</w>
te l
pol ice</w>
t ape</w>
d or</w>
i p
han ds</w>
author ities</w>
ex pi
air craft</w>
becom es</w>
pre p
confir m</w>
adv ant
st ro
t led</w>
institu tions</w>
3 00</w>
camer a</w>
pe tro
indivi du
hol es</w>
some one</w>
contain er</w>
p as
go al</w>
characteris tic</w>
st y</w>
h im
for ces</w>
insul ation</w>
am bi
replac ed</w>
wi zard</w>
carri er</w>
an ch
vie wed</w>
fi g</w>
lab or
z er</w>
po st
diagra m</w>
ac ks</w>
ch ro
lif ting</w>
intere sts</w>
tur ning</w>
cali bration</w>
ha z
repl ication</w>
sm all
wa it</w>
through out</w>
uti lity</w>
wi de
n ar
ren ch</w>
x y</w>
consisten t</w>
sel y</w>
be y
moun ted</w>
to wards</w>
201 3</w>
techni ques</w>
out let</w>
qu ick</w>
beauti ful</w>
cli ents</w>
prep are</w>
ri c</w>
s r
exi sts</w>
v ity</w>
hosp ital</w>
them selves</w>
o logy</w>
re d
experi ment</w>
state ments</w>
p y
n els</w>
architec ture</w>
sec tor</w>
en coura
classi fication</w>
recei ving</w>
a ma
con stant</w>
l at
sched ul
b a</w>
mi x
spo t</w>
mach in
ba g</w>
nu t</w>
provi der</w>
lab el</w>
re action</w>
en ding</w>
fe e</w>
1 0.
ex ca
ow ned</w>
there of</w>
ad jus
sym bo
ho od</w>
bey ond</w>
lar ger</w>
occur s</w>
publi shed</w>
lo sses</w>
se p
fic ial</w>
effec tively</w>
t ac
dr illing</w>
sa ving</w>
sp ir
frame work</w>
pass ed</w>
opport unity</w>
agg reg
op tim
distribu ted</w>
der ing</w>
veri fication</w>
ci ties</w>
authen tic
acci dent</w>
s at
w .
advan tage</w>
rou te</w>
min er
d r</w>
v a
s m</w>
char t</w>
re vi
an ese</w>
2 9</w>
program me</w>
min ing</w>
y our
op s</w>
ta i
appro xi
dri ven</w>
re public</w>
ex po
e mail</w>
sensi tive</w>
an ne
circum stances</w>
ar ray</w>
st ar</w>
car rying</w>
tain s</w>
s an</w>
bec ame</w>
competi tion</w>
us age</w>
cop per</w>
secre tary</w>
deli vered</w>
tigh ten</w>
t ally</w>
en cies</w>
fri end</w>
exten ded</w>
chec ked</w>
ten der</w>
con ference</w>
1 ,
sen ior</w>
excell ent</w>
loc king</w>
ga ve</w>
si lic
organ ic</w>
s .
inter pre
recei pt</w>
j an
follow ed</w>
di ver
h p</w>
compar ison</w>
mach ines</w>
d i</w>
gi ving</w>
g as
re rs</w>
centur y</w>
ac ade
ans wer</w>
gro wing</w>
pec ts</w>
f light</w>
gro un
c c</w>
k a
consider ation</w>
u n</w>
is o</w>
depen ding</w>
ves sel</w>
thin king</w>
dra w</w>
b ound</w>
plac ement</w>
institu te</w>
simpl y</w>
fr ac
ga in</w>
pres cri
princi pal</w>
bud get</w>
loc ations</w>
pollu tion</w>
ed itor</w>
v it
il led</w>
mar g
sn ap
con text</w>
protoco l</w>
elim in
gg er</w>
in su
tiv eness</w>
invest ors</w>
e state</w>
tr us
stu dent</w>
y m
inten ded</w>
ob vi
stra ight</w>
sp read</w>
clo sing</w>
g al
slo pe</w>
high est</w>
avail ability</w>
protec ted</w>
re venue</w>
sol en
r ural</w>
q i
re tri
err ors</w>
at mo
succ ess</w>
earli er</w>
bus in
scri pt</w>
yel low</w>
han g</w>
di e</w>
cle arly</w>
ev ol
ar bit
fo rec
rela tions</w>
reservo ir</w>
see ms</w>
diagno sis</w>
machin ery</w>
ti s</w>
i. e</w>
co des</w>
happ y</w>
fi x</w>
vari ety</w>
him self</w>
th in</w>
mean ing</w>
se aling</w>
b c</w>
cer tain
or ders</w>
ag s</w>
web site</w>
per cen
e ye</w>
manag ed</w>
lead er</w>
damag ed</w>
g b</w>
strategi c</w>
su g
sh ell</w>
f t
particul arly</w>
approxi mately</w>
contain ed</w>
ben e
c a</w>
r t</w>
par alle
tren d</w>
regi ons</w>
ac he</w>
vac u
fo rest</w>
m 3</w>
cap ability</w>
ic on</w>
mat ters</w>
go es</w>
an ci
inven tory</w>
al one</w>
w ish</w>
communic ations</w>
ordin ance</w>
str ate</w>
qu e
formul a</w>
gui dance</w>
mor ning</w>
k ore
dis ci
paralle l</w>
mi xed</w>
et ary</w>
me tr
flexi ble</w>
chall eng
la w
st ations</w>
perf ect</w>
lubr ic
the ore
it ory</w>
cry st
con tr
off ers</w>
ic ing</w>
ho se</w>
load s</w>
regar ding</w>
injur y</w>
ha ir</w>
prin ting</w>
gener ate</w>
remain s</w>
h am
detec ted</w>
ac tor</w>
norm ally</w>
tion ary</w>
l aser</w>
sub sequ
scen e</w>
in ch</w>
le ak
titu de</w>
ther mo
concer ned</w>
uni on</w>
c n
200 5</w>
sh ar
in c</w>
re store</w>
assi stance</w>
3 3</w>
smo oth</w>
arrange ment</w>
fe es</w>
wel d</w>
trans former</w>
rapi d</w>
psy cho
su stain
fur n
practic es</w>
ear th
att ach
audi o</w>
sign als</w>
sib ilities</w>
at o
jun e</w>
mo ved</w>
in et</w>
di um</w>
mis sing</w>
plan ned</w>
as pects</w>
gra ph</w>
vi sible</w>
pl i
bor ro
qu eu
design ated</w>
foo t</w>
da tions</w>
pre mi
re ci
tion ality</w>
r y
impro ving</w>
sa ved</w>
sur vi
j ob
in fl
ar rang
instruc tion</w>
wor ked</w>
ban king</w>
00 0
acqui sition</w>
au str
to wer</w>
de al
st ated</w>
r in
subsi di
reli ability</w>
advant ages</w>
n or</w>
sp are</w>
com position</w>
ar ms</w>
fe et</w>
mar ch</w>
th ick</w>
electr icity</w>
ac ting</w>
oxi de</w>
gam es</w>
hy per
differen tial</w>
ig nition</w>
r ings</w>
cap able</w>
ess ential</w>
mis sions</w>
" ""</w>
fl ange</w>
ten sion</w>
p ages</w>
appe arance</w>
il it
ch ri
200 6</w>
fri end
sub jec
up dated</w>
rela tively</w>
d den</w>
bu re
3 d</w>
lan ds</w>
your self</w>
3 6</w>
radi ation</w>
cab inet</w>
rec ently</w>
alu min
f s</w>
vacu um</w>
imple mented</w>
m ount</w>
divi ded</w>
dou b
speci es</w>
lin ks</w>
char ged</w>
solen oid</w>
deposi t</w>
ww w.
compres sor</w>
allo y</w>
pri ority</w>
se ven</w>
dra in</w>
th read</w>
s al</w>
l ack</w>
sam pling</w>
cre ation</w>
ag ree</w>
anci ent</w>
1 1
resul ting</w>
mun ici
every one</w>
us eful</w>
con serv
dest ination</w>
attribu tes</w>
requ ests</w>
m ers</w>
estima ted</w>
incre ases</w>
re ve
am oun
p ts</w>
as tic</w>
p c
regul atory</w>
fi f
l b</w>
8 0
claim s</w>
paren ts</w>
austr ali
h t
quali fication</w>
pub lic
it h</w>
e ments</w>
continu ed</w>
wr ong</w>
re verse</w>
ad a</w>
consi sts</w>
w alls</w>
con den
reser ve</w>
consum er</w>
fic i
care fully</w>
beg in</w>
the out</w>
te ch</w>
conver sion</w>
q ing</w>
mi d</w>
import ance</w>
ch air
g ol
clou d</w>
bat ch</w>
perman ent</w>
deli ver</w>
tri p</w>
hu an</w>
2. 1</w>
tou ris
le t
flow s</w>
establi shment</w>
en ables</w>
adjus ted</w>
finan cing</w>
e m</w>
in age</w>
rel ating</w>
foo t
reli ef</w>
s low
preci sion</w>
il ed</w>
dis connect</w>
al er
medic ine</w>
ch eng
def en
achi eved</w>
b o</w>
/ /
spor ts</w>
da m</w>
all ing</w>
accep table</w>
accep ted</w>
reduc ing</w>
htt p
sh el
emp ty</w>
cli mate</w>
touris m</w>
pres er
fit ted</w>
gau ge</w>
accur ate</w>
leak age</w>
mar ri
pi ston</w>
sel l</w>
expo sure</w>
dar k</w>
bra in</w>
com posite</w>
tu m
moun tain</w>
appl ies</w>
men tary</w>
it ting</w>
wee ks</w>
c au
e e</w>
con g
n ur
o h</w>
sub section</w>
s ic
bid der</w>
bu ff
con sole</w>
oper ated</w>
ei ght</w>
la ted</w>
wan ted</w>
re turns</w>
chec king</w>
ke ys</w>
oxy gen</w>
ordin ary</w>
wea ther</w>
el i
is o
ga p</w>
ref ers</w>
en ced</w>
loo p</w>
ta g</w>
ch ers</w>
trans mit
w on
re member</w>
requ ested</w>
pul se</w>
labor atory</w>
sum mer</w>
agricul tural</w>
introduc tion</w>
do ors</w>
is tic</w>
fam ous</w>
hu man
part ners</w>
dis as
canc er</w>
cham ber</w>
ex it</w>
l ad
enti tled</w>
w in</w>
de emed</w>
feed back</w>
indi a</w>
disci pl
jo ints</w>
copi es</w>
clo sure</w>
al ty</w>
sli de</w>
exam ples</w>
anne x</w>
h an</w>
adequ ate</w>
do min
jus ti
roo ms</w>
fail s</w>
sol ve</w>
ex press</w>
tu red</w>
al ign
ti sh</w>
la teral</w>
pro posal</w>
: //
c amp
ev en
di scre
ob li
ve ge
tu ally</w>
navi gation</w>
f resh</w>
prob ably</w>
jap anese</w>
to x
2. 2</w>
t ings</w>
e tic</w>
com part
sch em
hou se
mod ules</w>
jan uary</w>
small er</w>
ag ents</w>
1. 1</w>
contrac ts</w>
fel t</w>
p ile</w>
adver ti
ra ise</w>
ven ti
sign ature</w>
zh en</w>
the tic</w>
fol d</w>
chan nels</w>
at a</w>
pi lot</w>
pe ak</w>
in spect</w>
0. 0
mol ec
wi fe</w>
manu ally</w>
remain ing</w>
s ort</w>
par king</w>
h ang
ar ity</w>
ri t</w>
pow der</w>
neu tr
access ories</w>
percen tage</w>
fac ilit
r ating</w>
har mon
ex tra</w>
en h
ic king</w>
inter medi
process or</w>
ph ar
b un
vill age</w>
a th
au g
co vers</w>
wal k</w>
f al
mini stry</w>
re f</w>
statis tics</w>
pres sion</w>
6 5</w>
dis c</w>
re set</w>
dra inage</w>
popul ar</w>
assi st</w>
so ph
suspen sion</w>
opport unities</w>
gh tly</w>
lay ers</w>
per mit</w>
d ong</w>
decre ase</w>
jo h
se as</w>
tri al</w>
200 3</w>
roll ing</w>
de ad</w>
e an</w>
enh ance</w>
tu m</w>
a im
termin ation</w>
dele ted</w>
deci ded</w>
a xi
industri es</w>
li sts</w>
pan ts</w>
k v</w>
le ver</w>
recogn ized</w>
ex is
rele ased</w>
n ation</w>
per mission</w>
si vely</w>
work er</w>
si ght</w>
clu tch</w>
stain less</w>
wa re
dri ves</w>
ju ly</w>
enjo y</w>
du pl
di es
keep ing</w>
w an</w>
signific antly</w>
appl ying</w>
ide as</w>
wide ly</w>
7 0
an cy</w>
previ ously</w>
prote in</w>
job s</w>
piec es</w>
& l
optimi zation</w>
&l t;</w>
http ://
1 50</w>
ad es</w>
seg ment</w>
char ges</w>
tun nel</w>
loo ked</w>
sc an
m c
tele phone</w>
lead ers</w>
sep te
b r</w>
reli able</w>
ch en</w>
main tained</w>
k y</w>
si an</w>
3 4</w>
swit ches</w>
per forming</w>
lin ked</w>
1. 5</w>
mat ri
si zed</w>
seas on</w>
tra vel
down load</w>
bal an
septe mber</w>
5 5</w>
ligh t
smar t</w>
fi gh
y or
ri sing</w>
symbo l</w>
spec tive</w>
up grade</w>
k o
op tional</w>
off set</w>
6 4</w>
manufac ture</w>
spi rit</w>
th or
su me</w>
sol d</w>
st ab
call s</w>
he ard</w>
sp on
coun t</w>
m s
t ine</w>
i b
cli p</w>
activ ated</w>
x u
guide lines</w>
teach er</w>
cool ant</w>
d al</w>
ar ily</w>
loc k
gir l</w>
align ment</w>
anim al</w>
af ter
im mun
d uration</w>
to ward</w>
pac king</w>
mir ror</w>
pac k</w>
g nition</w>
dies el</w>
controll ing</w>
pro cu
4 8</w>
differen ces</w>
3. 1</w>
eng age</w>
9 5</w>
l d
comp ound</w>
inno v
trans formation</w>
sign s</w>
ra ised</w>
nu ts</w>
loo ks</w>
net works</w>
custo mi
gu ard</w>
respec tive</w>
t s
wat ch</w>
ad vi
yi eld</w>
cap abilities</w>
pi ping</w>
bloc ks</w>
tr ation</w>
bor n</w>
pay ments</w>
th r
respon sibilities</w>
ap pra
mar ine</w>
for th</w>
histor ical</w>
h it</w>
hel ps</w>
av es</w>
cro s
desi red</w>
fi re
wi re
ni ke</w>
ap ri
h ur
ta x
sh aring</w>
ra id</w>
par ticle</w>
val s</w>
gi ble</w>
co o
w ang</w>
war m</w>
al ist</w>
ne arly</w>
e at</w>
prov in
li ves</w>
real ize</w>
mor t
3. 2</w>
chair man</w>
ad apter</w>
sub stan
dis posal</w>
n ic
de gre
de duc
th ly</w>
1. 2</w>
suppli ers</w>
bri tish</w>
b b
afric a</w>
in terior</w>
is es</w>
descri bes</w>
en ty</w>
brac ket</w>
c in
re presents</w>
pack aging</w>
conver ter</w>
alter native</w>
vie w
cor ner</w>
go als</w>
2 8
cri sis</w>
boun dary</w>
arrang ed</w>
gg ing</w>
he ater</w>
ve loc
av o
quar ter</w>
d p</w>
li abilities</w>
ec h</w>
parti cles</w>
di c</w>
c p</w>
pres ence</w>
d an
th read
de sp
em bed
w u
govern ments</w>
matri x</w>
sal t</w>
apri l</w>
appoin ted</w>
c f
201 7</w>
sic huan</w>
pursu ant</w>
veloc ity</w>
commission ing</w>
certi fication</w>
observ ed</w>
roll er</w>
res ted</w>
busin esses</w>
pro mp
def ects</w>
eng aged</w>
cri minal</w>
sk y</w>
cou pling</w>
amoun ts</w>
reg ard</w>
anim als</w>
co efficient</w>
pla yer</w>
s low</w>
s on
migr ation</w>
bo dies</w>
sel ecting</w>
tim ely</w>
is ation</w>
jun ction</w>
per mitted</w>
colum ns</w>
tigh tening</w>
sh oul
alumin um</w>
en for
et ings</w>
ca sting</w>
y l
institu tion</w>
yor k</w>
speci fic
bro ken</w>
s and
pre li
am in
f ail</w>
y o
teach ers</w>
p ments</w>
f ing
discus s</w>
lo se</w>
elev ation</w>
f our
repl ic
concer ning</w>
minis ter</w>
bon d</w>
we igh
mo vi
tri m</w>
confir med</w>
can cel
guaran te
st res
com pla
expen se</w>
b one</w>
preli min
construc ted</w>
fo li
dra wn</w>
he ar</w>
3 8</w>
hu ge</w>
th u
achi e
phen o
3 5
exper ts</w>
d b</w>
lig ent</w>
dis abled</w>
commer ce</w>
4 00</w>
laun ch</w>
auth or</w>
cor rup
t ang
compart ment</w>
u es</w>
sh en
streng then</w>
l t</w>
tran sition</w>
thre sh
v able</w>
ven dor</w>
com mands</w>
bo iler</w>
k er
bo xes</w>
i v</w>
bl ade</w>
b old</w>
char ging</w>
is ms</w>
sho wing</w>
dec lar
v s</w>
d n
a wa
c p
ab or
so cket</w>
el se</w>
custo ms</w>
g lu
3 7</w>
loc ked</w>
evalu ate</w>
pay able</w>
be ar</w>
com bus
p air</w>
sa ying</w>
fi br
in corpor
attem pt</w>
h s
utili zation</w>
ob serve</w>
mod ul
lin ed</w>
ap p</w>
sur roun
mon thly</w>
ar d
diffic ul
car s</w>
bin ding</w>
sum mar
des k</w>
v ice</w>
pen e
te a</w>
car ds</w>
leg is
ul l</w>
2 6
manag ers</w>
re ver
lon don</w>
loc ate</w>
warran ty</w>
canc el</w>
sen sors</w>
mic ro</w>
pic ally</w>
manag ing</w>
pain ting</w>
tre es</w>
brow ser</w>
p tions</w>
f ly</w>
d v
ev es</w>
att ack</w>
gro w</w>
fac ing</w>
ri de</w>
pho sp
is land</w>
ten ed</w>
over seas</w>
ser ial</w>
cul tiv
in d
sel ling</w>
sur g
effor t</w>
air port</w>
fun da
pa in</w>
reinfor cement</w>
ro tation</w>
a in</w>
r ice</w>
sto od</w>
objec tives</w>
prin ter</w>
len e</w>
a ward</w>
x x
exc eption</w>
degre es</w>
pho to</w>
ar c</w>
i an</w>
t t</w>
hol ds</w>
mil li
transf erred</w>
intel ligent</w>
tran si
ty pically</w>
scho ols</w>
dimen sional</w>
fit ting</w>
x in
ch er</w>
compres sion</w>
wire less</w>
sli ghtly</w>
be half</w>
2. 5</w>
th an
streng th
power ful</w>
parti ci
co vering</w>
n b
bure au</w>
sh ore</w>
over view</w>
dra g</w>
hap s</w>
oc to
analy ze</w>
ma pping</w>
me etings</w>
p ill
ex posed</w>
min ute</w>
y ou
per haps</w>
stri p</w>
class es</w>
b ars</w>
c ache</w>
identi ty</w>
in take</w>
on ing</w>
re taining</w>
s ation</w>
cont acts</w>
aff airs</w>
ce re
d h
ste ad
hibi tion</w>
contrac tors</w>
exp and</w>
0 2</w>
sur ing</w>
opini on</w>
stab il
m g</w>
v a</w>
men ting</w>
dra ft</w>
d il
deplo yment</w>
therap y</w>
circu its</w>
200 4</w>
ro ads</w>
g ment</w>
cheng du</w>
l ap
g a</w>
f ts</w>
dest ro
l ying</w>
di an</w>
enter ing</w>
4. 2</w>
coll ected</w>
star ts</w>
fab ric</w>
t ap
fas hi
re ments</w>
am a</w>
z en</w>
pres sed</w>
fe male</w>
se is
reco gnition</w>
val id
sol ar</w>
noti fication</w>
v ul
en ded</w>
v il
syn thesis</w>
work shop</w>
2 7
stop ped</w>
ma the
descri be</w>
f ran
spe ak
ven ture</w>
n one</w>
introduc es</w>
par tial</w>
m o</w>
cre ates</w>
ne igh
ou ght</w>
offici als</w>
a head</w>
n d
d ges</w>
prescri bed</w>
ro tor</w>
j in
me tal
jo in</w>
sever e</w>
p ick</w>
recor ding</w>
pla ying</w>
le aves</w>
procu rement</w>
is ra
ingu i
promo tion</w>
ar my</w>
nu tri
col our</w>
tis su
ong s</w>
p ad</w>
fi x
fam ili
an ten
land sc
see m</w>
ar ch
es sive</w>
sustain able</w>
p un
prelimin ary</w>
9 9
condi tioning</w>
conflic t</w>
car di
4 2</w>
techno logical</w>
ow nership</w>
s ke
sc an</w>
pan els</w>
du ties</w>
pro p
p it
ac le</w>
at ly</w>
up dates</w>
sup ple
inter rup
sh er</w>
suppl ies</w>
pres sing</w>
bar ri
pat ter
oper ators</w>
purch aser</w>
amen d
si le</w>
la u
individu als</w>
win ter</w>
pum ps</w>
certi fied</w>
connec tors</w>
mes h</w>
ul tr
ac ted</w>
3 9</w>
en e</w>
run s</w>
shi pping</w>
la ke</w>
program ming</w>
min ation</w>
a z
thou sand</w>
bo y</w>
cle arance</w>
ax le</w>
cal end
it al
modi fication</w>
wa iting</w>
compl ex
r at
vari ation</w>
produc ing</w>
fac tion</w>
authentic ation</w>
heal thy</w>
furn ace</w>
impor ted</w>
fav or
na sty</w>
de pos
execu ted</w>
sto res</w>
octo ber</w>
sc al
ta r</w>
4. 1</w>
f rench</w>
categ ories</w>
sti pul
h und
numer ical</w>
vie wing</w>
pro be</w>
amen ded</w>
ne i
ci ti
w ine</w>
compa tible</w>
vol un
scen ari
hund red</w>
compe tent</w>
measu rements</w>
dru gs</w>
exp ec
strategi es</w>
chec k
form al</w>
mi x</w>
6 00</w>
part nership</w>
l ou
b order</w>
gu res</w>
al k
subsequ ent</w>
pe ace</w>
la id</w>
deci sions</w>
a o
mil k</w>
mean while</w>
shap ed</w>
agre ements</w>
is tics</w>
axi al</w>
w age</w>
fe eling</w>
deri ved</w>
mo ist
form ity</w>
off ering</w>
con vention</w>
she ets</w>
geo metry</w>
sti mul
as sign</w>
ai g
we t</w>
in al</w>
cri me</w>
p per</w>
er ous</w>
r ace</w>
no .
re viewed</w>
certific ates</w>
emplo yed</w>
shu t</w>
8 5</w>
acc es
challeng es</w>
w ra
separ ation</w>
ph y
i de</w>
who m</w>
memb ran
inter val</w>
extre m
disas ter</w>
no ted</w>
high way</w>
for tun
feder al</w>
queu e</w>
con sequ
de formation</w>
con cen
signific ance</w>
su s</w>
ex por
resi stant</w>
spec tr
co at</w>
e th</w>
sugg es
we i
ji ang
r a</w>
embed ded</w>
com /
gu n</w>
ta tive</w>
ra d
transp a
ho li
to pic</w>
pro portion</w>
l in</w>
attach ment</w>
be ar
4 4</w>
san ds</w>
resear chers</w>
t ari
l ac
pl c</w>
extrac tion</w>
relation ships</w>
sur pri
may be</w>
sle ep</w>
dec reas
shor t
pl y</w>
for d</w>
simul tan
investi gate</w>
u k</w>
d f</w>
wor th</w>
ultr as
confir mation</w>
off ered</w>
sho ck</w>
fru it</w>
b lin
schedul ed</w>
emis sion</w>
per si
competi tive</w>
faul ts</w>
oper ative</w>
li sting</w>
up gra
prin ted</w>
al t</w>
att le</w>
no zz
con sent</w>
n ings</w>
satis fied</w>
si zes</w>
equ ation</w>
dat ing</w>
1 000</w>
tri ed</w>
conveni ent</w>
sub stitu
investig ated</w>
in vention</w>
trac king</w>
bu tt
consum ers</w>
li gence</w>
al co
dis co
wee k
exten d</w>
ti me
sus p
expres sed</w>
z e
cu p</w>
actu ator</w>
camp aig
presen tation</w>
trans lation</w>
expl oration</w>
coordin ation</w>
gr in
adju sting</w>
compu ters</w>
pa tent</w>
b in</w>
s u</w>
nit ro
toler ance</w>
ten tion</w>
hy dr
re actor</w>
fl ash</w>
inten sity</w>
pheno men
ti an
gran ted</w>
e rec
il e
mathe ma
h z</w>
s na
ch ance</w>
stra in</w>
f ric
tim ing</w>
mou se</w>
out standing</w>
vir us</w>
peri o
10 24</w>
any one</w>
calcul ate</w>
n y</w>
assign ment</w>
ec tions</w>
observ ation</w>
a .
no des</w>
it ors</w>
ti ally</w>
y i</w>
ch lor
h all</w>
referen ces</w>
19 7
j in</w>
k it</w>
h us
im pac
gh t
fu sion</w>
ste m</w>
b i</w>
de sk
k a</w>
ren der</w>
effec tiveness</w>
q ing
ger many</w>
sp ent</w>
we red</w>
head er</w>
sc ra
dic tion</w>
aug ust</w>
fin ite</w>
dr in
cou ple</w>
tan ts</w>
gar den</w>
trou ble</w>
gra in</w>
dy nasty</w>
appra is
ac com
e x</w>
thresh old</w>
f ell</w>
mar k
d ur
flo od</w>
5. 1</w>
lead ership</w>
1 st</w>
i ted</w>
d am
fas ter</w>
enhan ced</w>
clari ion</w>
bab y</w>
we ak</w>
expla in</w>
itu de</w>
patter ns</w>
lo ans</w>
en ge</w>
u d</w>
reser ves</w>
sle eve</w>
c ad</w>
compl ic
reinfor ced</w>
en ed</w>
de viation</w>
y a</w>
conc ep
to p
theore tical</w>
lin k
gh ter</w>
sp ar
appl i
for ma
e ded</w>
c lock</w>
fi gures</w>
prof its</w>
adv ice</w>
dang erous</w>
di ed</w>
under ground</w>
we ap
v in
se x</w>
no ve
co tton</w>
d .
environ ments</w>
wel come</w>
coordin ate</w>
com posed</w>
iz es</w>
extrem ely</w>
circul ation</w>
re present</w>
chall enge</w>
tele vision</w>
contribu tion</w>
en suring</w>
aggreg ate</w>
sp her
gro o
en tr
seis mic</w>
mar king</w>
earth qua
se mi</w>
gradu ally</w>
fal se</w>
co il</w>
c at</w>
a er
ti e</w>
clu b</w>
orien ted</w>
en do
al ities</w>
vir tu
su peri
induc ed</w>
mix ture</w>
c t</w>
spe ech</w>
b low
nove mber</w>
intermedi ate</w>
integr ity</w>
shad o
indic ators</w>
g one</w>
we al
r d</w>
fibr e</w>
com ments</w>
t ty</w>
stic k</w>
t ons</w>
ori al</w>
mou th</w>
ar di
cou pl
s ong</w>
5. 2</w>
re jec
desp ite</w>
can di
hydro gen</w>
particip ate</w>
w ants</w>
orig in</w>
ro se</w>
expl ore</w>
calend ar</w>
swit ching</w>
exca vation</w>
dis able</w>
att ach</w>
separ ately</w>
x im
gen e</w>
fir m
rec ti
m ous</w>
uni form</w>
f at</w>
a ware</w>
inte ll
4 1</w>
5 00
stra ted</w>
phar mac
th ank</w>
he ar
ide al</w>
5 2</w>
bid ding</w>
damag es</w>
co ol</w>
concer n</w>
log istics</w>
le um</w>
spl it</w>
te ams</w>
shu t
doll ars</w>
coll ect</w>
shoo ting</w>
5 1</w>
0 3</w>
ref ri
2. 3</w>
sp an
phi lo
i o
pass ing</w>
comfor t</w>
re start</w>
de la
col ors</w>
simpl i
re vol
al location</w>
ti ght</w>
super vis
exper t</w>
recommen dations</w>
ta xes</w>
specific ally</w>
in cur
p ace</w>
bl ank</w>
refri ger
sil ver</w>
moist ure</w>
partici pants</w>
port foli
tre as
liter ature</w>
gre atly</w>
do g</w>
ser i
e u</w>
p il
g m</w>
ess or</w>
ex ac
a king</w>
cir cle</w>
mat ching</w>
k u
exp ect</w>
200 2</w>
dise ases</w>
s lu
ri gi
avo i
f 16
conven tional</w>
re sta
lin ing</w>
exec ute</w>
sat ur
ing ing</w>
ap i</w>
wel ded</w>
m m
serv ed</w>
lang 1024</w>
mu tual</w>
friend ly</w>
b ers</w>
sy mp
tr uck</w>
dic ated</w>
al ize</w>
al li
ger man</w>
bi gg
open s</w>
resta ur
jo in
fit tings</w>
nei ther</w>
2 9
depen ds</w>
venti lation</w>
sp ray</w>
the f</w>
fir ms</w>
f16 lang1024</w>
usu al</w>
australi a</w>
process ed</w>
deci de</w>
concen tra
su it</w>
be i</w>
anten na</w>
diagra ms</w>
alter n
l a</w>
a y</w>
g or
th es</w>
h ex
amp ing</w>
http:// www.
ti bility</w>
supervi sor</w>
joh n</w>
es timate</w>
marg in</w>
stric tly</w>
temper atures</w>
de leg
ab road</w>
men s</w>
figh ting</w>
hou ses</w>
k new</w>
bigg est</w>
p an</w>
no t
manufactu rers</w>
ass es</w>
sub contractor</w>
spe ak</w>
four th</w>
dupl ic
ver sions</w>
ad jac
li able</w>
dr ill</w>
4 9</w>
tor ies</w>
invest ments</w>
rou tine</w>
sa v
doc tor</w>
nb sp</w>
applic ant</w>
rec y
we ak
tre at</w>
refl ect</w>
repe at</w>
su d
r ack</w>
representa tives</w>
ga z
mi xing</w>
s ac
shi eld</w>
eng ines</w>
ap preci
en coun
ur y</w>
le ase</w>
au d
chec ks</w>
h i</w>
il ies</w>
j av
ur l</w>
jour nal</w>
bear ings</w>
te ro
declar ation</w>
ec ological</w>
func tionality</w>
contr ast</w>
lab our</w>
s ter
radi o
co verage</w>
pill ar</w>
sp ort</w>
optim al</w>
reli gi
accom mo
determin ing</w>
b right</w>
vali dation</w>
ro ws</w>
al ism</w>
y n
mo tors</w>
ar ising</w>
co ding</w>
st atu
jur is
aler t</w>
ap ple</w>
see k</w>
6 f16lang1024</w>
hu a</w>
mo des</w>
off ices</w>
be sides</w>
atmo sphere</w>
no tic
p on
re fin
ti er</w>
0. 5</w>
sp end</w>
1 20</w>
depen dent</w>
en cry
disp ute</w>
munici pal</w>
adjac ent</w>
b la
v c</w>
pla in</w>
p neu
restric ted</w>
explo sion</w>
head s</w>
orien tation</w>
ht ml</w>
edi tion</w>
volu mes</w>
can ada</w>
spac es</w>
ev ing</w>
continu ously</w>
mil es</w>
am ing</w>
she ar</w>
mon o
dri vers</w>
graph ics</w>
allow ing</w>
activ ate</w>
slow ly</w>
famili ar</w>
petro leum</w>
ti p</w>
per spective</w>
circul ar</w>
cool er</w>
tou ri
res in</w>
ed ges</w>
ex plan
boo t</w>
p ure</w>
satis faction</w>
bas in</w>
peri ods</w>
4 3</w>
regi stry</w>
con sci
sh op
cl icking</w>
s c</w>
sugg ested</w>
cer am
ap par
clo sely</w>
smo ke</w>
1. 3</w>
quanti ties</w>
adop t</w>
de e
emis sions</w>
defen se</w>
combus tion</w>
fric tion</w>
recei ver</w>
intell ec
sou thern</w>
d ying</w>
kore a</w>
fab ric
wi res</w>
tell ite</w>
conve y
te en</w>
s d
cr ane</w>
cro w
electr on
n as
sa tellite</w>
d ity</w>
pre mis
anim ation</w>
scienti sts</w>
lo ose</w>
in si
confi dence</w>
mode ling</w>
b its</w>
as is</w>
ic als</w>
ware house</w>
pub l
m t</w>
f air
no minal</w>
200 1</w>
oc ean</w>
correc tion</w>
geo logical</w>
r ul
2 3
ha zard</w>
a tion
thou sands</w>
e g
che mi
fam ilies</w>
se aled</w>
ad vis
3. 3</w>
tu s</w>
mi es</w>
direc ted</w>
noti fy</w>
micro sof
bon ds</w>
g on
d ingly</w>
philo soph
no vel</w>
tra y</w>
fr ance</w>
bio logical</w>
lead s</w>
publ ication</w>
00 1</w>
me mor
the in</w>
inte rested</w>
au t
br it
car go</w>
bro wn</w>
es tim
u res</w>
mo ves</w>
cr ank
agricul ture</w>
pic tures</w>
comfor table</w>
d au
es ter</w>
butt ons</w>
ex hi
el ess</w>
or al</w>
dis placement</w>
da o</w>
vari ables</w>
as surance</w>
st an</w>
te x</w>
per c
co ff
obvi ous</w>
e mo
landsc ape</w>
real ized</w>
s wi
mi sta
ba y</w>
organ ized</w>
pan e</w>
in qui
lea ving</w>
en ab
appe ared</w>
trac e</w>
ar row</w>
haz ard
forec ast</w>
s y</w>
tar gets</w>
stand ardi
ta il
pos s
microsof t.
es day</w>
op posite</w>
sub stances</w>
en z
miner al</w>
ca using</w>
maj ority</w>
ac k
stro ke</w>
sa p</w>
commit ted</w>
tel ec
apprais al</w>
ed iting</w>
se di
de dicated</w>
t ag
c x
proce ed
2 ,
du m
situ ations</w>
hazard ous</w>
n an</w>
lam ps</w>
an a</w>
hy po
sol ute</w>
s au
e pi
in vi
funda mental</w>
oc ca
ori de</w>
consider ing</w>
new ly</w>
hibi ted</w>
exc ess</w>
beau ty</w>
re stra
assemb lies</w>
inter action</w>
cho sen</w>
pref erred</w>
pla yed</w>
coll ap
is n</w>
membran e</w>
v oc
flow ers</w>
aut ono
proceed ings</w>
ki lo
th ers</w>
pri me</w>
ch ur
alco ho
tra de
ri ses</w>
dre am</w>
disco very</w>
nor thern</w>
sh i</w>
isol ation</w>
radi us</w>
ne ur
inf ection</w>
easi er</w>
4 6</w>
cel e
univer sal</w>
f are</w>
in vo
4 5
h r</w>
pow ers</w>
chem icals</w>
sho es</w>
de struc
inci dent</w>
sty les</w>
break er</w>
tru th</w>
ran dom</w>
adhe sive</w>
po le</w>
re tail</w>
m pt</w>
clo th</w>
care er</w>
in correct</w>
dis covered</w>
appar atus</w>
res cu
to po
educ ational</w>
obli gation</w>
rus sia</w>
r on</w>
ag encies</w>
col li
6 6</w>
continu es</w>
acade mic</w>
ag e
posi tioning</w>
ag ue</w>
exac tly</w>
organ ize</w>
ro bo
bri ef</w>
vi d</w>
din al</w>
p it</w>
manufactu red</w>
f ting</w>
ki a</w>
sup er</w>
d tc</w>
mini um</w>
disclo sure</w>
de mands</w>
si ties</w>
fin ding</w>
exis tence</w>
es cap
gr ant</w>
n d</w>
fe br
mo re
becom ing</w>
mee ts</w>
lear ned</w>
cap ture</w>
activ ely</w>
enti ties</w>
analy ses</w>
v i</w>
ju m
e ously</w>
am pli
lo ts</w>
cr ack</w>
st ages</w>
comp are</w>
desk top</w>
fl ame</w>
pr icing</w>
bro ad</w>
attem p
dist ur
than ks</w>
ap h
fa x</w>
tal king</w>
re pu
f alling</w>
shi pment</w>
4. 3</w>
whe els</w>
fil ters</w>
shut down</w>
buff er</w>
ti re</w>
proce ed</w>
in voice</w>
pe t</w>
pro xy</w>
3. 5</w>
reason ably</w>
arrange ments</w>
z hang</w>
lu n</w>
gre ase</w>
happ en</w>
purch asing</w>
g on</w>
rapi dly</w>
w ash</w>
j am
wh en
author ization</w>
c asing</w>
li e</w>
commit ment</w>
facilit ate</w>
ab solute</w>
pla yers</w>
le g</w>
long itu
neutr al</w>
un known</w>
j et</w>
en closure</w>
cul ar</w>
experi enced</w>
et te</w>
disp at
fe ar</w>
cl amp</w>
intel ligence</w>
tissu e</w>
den cy</w>
fi ght</w>
ple as
indic ating</w>
l o</w>
let ters</w>
r are</w>
dynam ics</w>
3 8
determin es</w>
or dered</w>
per missions</w>
appoin tment</w>
communic ate</w>
trou ble
mort g
ici an</w>
anch or</w>
was te
s lot</w>
ni a</w>
absor ption</w>
ing ton</w>
s now</w>
pro mpt</w>
pr o</w>
mp a</w>
6 1</w>
nitro gen</w>
bo ards</w>
pac i
clo thes</w>
o g
hi dden</w>
ta p</w>
us d</w>
frequ ently</w>
p .
li ber
ac king</w>
con formity</w>
b .
arbit ration</w>
neigh b
fashi on</w>
happen ed</w>
gh ly</w>
re l</w>
con f
main taining</w>
l ers</w>
stead y</w>
d less</w>
exce eds</w>
out look</w>
por tal</w>
incur red</w>
ac ute</w>
acces sible</w>
free dom</w>
mat o
ne ed
febr uary</w>
cur ves</w>
mis s</w>
premi um</w>
ow ners</w>
dr ink</w>
7 2</w>
my self</w>
termin als</w>
t ted</w>
addres ses</w>
so dium</w>
se ment</w>
gro ss</w>
li fe
asi an</w>
ambi ent</w>
detec t</w>
occur rence</w>
4 7</w>
def ect</w>
statis tical</w>
gl y
alu minium</w>
the f
ib m</w>
plat forms</w>
portfoli o</w>
pr of</w>
p uni
parti tion</w>
tool ing</w>
bir th</w>
consoli dated</w>
z ens</w>
ti ous</w>
re di
log ging</w>
gen etic</w>
earthqua ke</w>
m c</w>
e ur
5 4</w>
li d</w>
config ur
for ced</w>
immedi ate</w>
movi e</w>
reser ved</w>
ro y
sign ing</w>
ma il
surroun ding</w>
mic s</w>
pro ved</w>
resi dual</w>
ind ication</w>
i e</w>
aff ili
ai red</w>
sen ding</w>
v ary</w>
re new
regul arly</w>
fu r</w>
rot ate</w>
bo at</w>
c si</w>
no kia</w>
promo ting</w>
classi fied</w>
foc used</w>
con form</w>
cor relation</w>
sensi tivity</w>
k it
exc essive</w>
b and
am ed</w>
microsoft. com/
duc t</w>
ga tes</w>
inter ference</w>
intro duce</w>
incorpor ated</w>
sc ore</w>
pro por
h a</w>
resi dents</w>
star t
concer ns</w>
lu x
v ap
ther ing</w>
gro u
flo ating</w>
argu ment</w>
re vision</w>
s our
reci pi
cong ress</w>
integr al</w>
tex ture</w>
ben ding</w>
when ever</w>
asp ect</w>
a b</w>
encoun tered</w>
experi ments</w>
ex hibition</w>
design s</w>
h u</w>
on ed</w>
0 5</w>
brea king</w>
5 6</w>
represen ted</w>
re ality</w>
accor dingly</w>
particip ation</w>
8 00</w>
tw enty</w>
om a</w>
tr un
de pu
here in</w>
exc ep
hi er
pur i
se als</w>
ti ci
govern ance</w>
priv ile
il legal</w>
wor ld
arti ficial</w>
v ar
pu s</w>
ro les</w>
t p</w>
pos sibility</w>
announ ced</w>
a po
y ard</w>
iz er</w>
dec k</w>
s es
reco ver</w>
ab str
er a</w>
w l</w>
dec la
isra el</w>
la tions</w>
conver t</w>
pro spec
de gra
ol der</w>
em ul
intellec tual</w>
dist inc
low est</w>
dang er</w>
6 2</w>
cre ative</w>
m ill</w>
bo w</w>
pla ys</w>
hu ang</w>
tw ice</w>
hu b</w>
in ver
provin cial</w>
was her</w>
in er
appe al</w>
subsidi ary</w>
min ated</w>
superi or</w>
chi p</w>
bre ach</w>
bri ef
guang zhou</w>
a e</w>
br ush</w>
transmit ter</w>
v ess
compa tibility</w>
a ero
sli p</w>
nec k</w>
es ter
wil ling</w>
cryst al</w>
hy bri
sub mission</w>
tr ic
sli ding</w>
tu bes</w>
doll ar</w>
nozz le</w>
en cing</w>
n ine</w>
u l</w>
molec ular</w>
d b
2 50</w>
poly mer</w>
cop y
resol ve</w>
0 4</w>
po t
pre gn
hier arch
el ed</w>
do c</w>
de bu
lea ther</w>
imple menting</w>
paci fic</w>
conduc tor</w>
activ ation</w>
liste n</w>
9 9</w>
qu er
ma ble</w>
sug ge
ab cd</w>
secu red</w>
li p
vess els</w>
fol ders</w>
eas tern</w>
win ding</w>
ab ra
alo gue</w>
6 8</w>
el astic</w>
swit ch
frac ture</w>
longitu dinal</w>
more over</w>
pi d</w>
sol ved</w>
gra vity</w>
campaig n</w>
weal th</w>
6 3</w>
k ing
f arm</w>
plas ma</w>
cen ter
re tention</w>
cu shi
me at</w>
justi ce</w>
p o</w>
spec tro
f at
purch ased</w>
com man
m ature</w>
prepar ing</w>
to oth</w>
inte l</w>
compres sed</w>
d res
mor al</w>
v ector</w>
see ing</w>
ren ess</w>
l u</w>
g all
wh ate
sto cks</w>
m ur
share holder</w>
si x
n ice</w>
in form</w>
is csi</w>
e k</w>
th i
separ ated</w>
we i</w>
whate ver</w>
se c</w>
dr um</w>
cataly st</w>
y u</w>
con stan
o sc
re aches</w>
secre t</w>
f ed</w>
n t</w>
j i</w>
ki ds</w>
quar ters</w>
sy mb
auto mation</w>
k ar
d w
f i</w>
cont ra
groun ding</w>
f es
z ones</w>
z inc</w>
2. 4</w>
cen ters</w>
prog res
tar ge
ha i</w>
fe eding</w>
el ine</w>
po t</w>
fa ti
mo bil
ass is</w>
al ign</w>
depos its</w>
exclu sive</w>
mechan isms</w>
rot ating</w>
conserv ation</w>
max im
pla y
j ack</w>
exce eding</w>
fer ti
n for</w>
ge l</w>
ga te
fun ding</w>
th y
ol ym
establi shing</w>
win d
represen tation</w>
fac ts</w>
wil d</w>
cour ses</w>
p in
und ant</w>
ma r</w>
a ti
ch eng</w>
stan ds</w>
u x</w>
in cen
te ster</w>
rela tes</w>
design ing</w>
o do
experi ences</w>
pe dal</w>
trus ted</w>
min or</w>
l uc
ch l
d ant</w>
s per
br u
tai wan</w>
trans form</w>
innov ative</w>
terr itory</w>
sol di
at titude</w>
9 0
to ms</w>
laun ched</w>
expen sive</w>
bor ne</w>
direc tions</w>
ch assis</w>
v as
6. 2</w>
l es
to w
se xu
flexi bility</w>
m as</w>
na tion
offic ers</w>
li a
tic ket</w>
ob ama</w>
gener ating</w>
5 3</w>
assi stant</w>
demon strate</w>
ap s</w>
analy zing</w>
adverti sing</w>
defini tions</w>
mo on</w>
pre feren
tain ment</w>
sor ry</w>
adjust able</w>
syn dro
design er</w>
k en
produc tivity</w>
gir ls</w>
fra mes</w>
wash ing</w>
in ter</w>
6 7</w>
consul tation</w>
ho me
ap art</w>
elimin ate</w>
re tro
n as</w>
gi c</w>
sud den
sub stance</w>
spectr um</w>
g la
ac compan
metal lic</w>
5. 3</w>
graph ical</w>
juris diction</w>
prof essor</w>
alcoho l</w>
suspen ded</w>
emp ha
bul k</w>
or acle</w>
the ast</w>
ab normal</w>
f alls</w>
evol ution</w>
6. 1</w>
zz y</w>
5 8</w>
g b
n ic</w>
vo te</w>
de ad
com ment</w>
ph ones</w>
y an</w>
sudden ly</w>
r an</w>
un g</w>
pa ste</w>
promis e</w>
l an</w>
entr ance</w>
pre tty</w>
er ring</w>
sch e</w>
o res
elec tion</w>
a w
ou ts</w>
passeng ers</w>
gg ed</w>
cre w</w>
____ ____
acci dents</w>
as ingly</w>
bran ches</w>
d ged</w>
la b</w>
awa reness</w>
y ang
syn thetic</w>
q i</w>
acqui red</w>
g ent</w>
u r</w>
l .
ous ness</w>
mon y</w>
in hi
alter na
silic on</w>
men t
p i</w>
out door</w>
u t
ter n
en tries</w>
mani pul
simultan eously</w>
acceler ation</w>
decreas ed</w>
co ated</w>
sugg est</w>
satis fy</w>
spe aking</w>
no w
cros sing</w>
…… ……
ali an</w>
ass ess</w>
p p</w>
waste water</w>
dis ks</w>
differen ti
b ore</w>
sp ending</w>
stru gg
s d</w>
rec ep
shen zhen</w>
engine ers</w>
regul ator</w>
govern or</w>
ma ps</w>
detec tor</w>
sho e</w>
mo stly</w>
ap ore</w>
inde ed</w>
li u</w>
he rein
fati gue</w>
work flow</w>
hus band</w>
sing apore</w>
pro pos
house hold</w>
dec or
ro pe</w>
extrac t</w>
sugges tions</w>
schem a</w>
3 00
pass age</w>
world wide</w>
wo o
chemi stry</w>
cap it
he aring</w>
sch ol
moun tains</w>
defin es</w>
mani fold</w>
ro tary</w>
restric tions</w>
d an</w>
c i</w>
subscri ption</w>
fi xing</w>
el ling</w>
ri es</w>
re pos
c d
pu tting</w>
f u</w>
al ig
cou l
depu ty</w>
di al</w>
st or</w>
g al</w>
do se</w>
guang dong</w>
here by</w>
ac e
respon d</w>
re ti
inser ted</w>
f ans</w>
doub t</w>
n s
n m</w>
ev ening</w>
occu p
org an</w>
k illed</w>
se ed</w>
ra in
in ary</w>
o t</w>
shop ping</w>
r ing
di a</w>
y un
4 8
consisten cy</w>
inter faces</w>
an no
plo t</w>
li ver</w>
speci alized</w>
evalu ated</w>
bro ther</w>
teri es</w>
rus sian</w>
marri age</w>
valid ity</w>
fur ther
n g</w>
her it
cy cles</w>
lea f</w>
balan ced</w>
d ress</w>
mor row</w>
sp ra
ten d</w>
aff ecting</w>
exam ine</w>
ci vil
ta ste</w>
h o</w>
wa ves</w>
f lower</w>
intere sting</w>
veri fied</w>
sla b</w>
conver ted</w>
un to</w>
ex terior</w>
pri mar
the red</w>
wri ter</w>
explo rer</w>
comm only</w>
con du
construc t</w>
un certain
2. 0</w>
stra tes</w>
f eng</w>
ab sen
ess ed</w>
se emed</w>
and a</w>
confi dential</w>
h ref</w>
5 7
ti an</w>
kno ws</w>
ch air</w>
t one</w>
clo thing</w>
electron ics</w>
un screw</w>
decla red</w>
tan ks</w>
prop ag
hel ped</w>
sav ings</w>
snap shot</w>
s ar
incre asingly</w>
de fl
bra king</w>
coul dn</w>
5 7</w>
f use</w>
recy cl
y ester
war ded</w>
valu able</w>
http://www. microsoft.com/
st ack</w>
fu n</w>
our ing</w>
ex ci
uni fied</w>
den tly</w>
discipl ine</w>
roll ed</w>
rescu e</w>
mi ti
d ness</w>
le ak</w>
rigi d</w>
hi de</w>
9 8</w>
t our</w>
replac ing</w>
s of</w>
h ate</w>
he a
interpre tation</w>
w u</w>
thou ghts</w>
bur ning</w>
herein after</w>
m w</w>
calcul ating</w>
regar dless</w>
strength ening</w>
me tri
consoli dation</w>
jud gment</w>
archi ve</w>
an o
in a</w>
shar p</w>
contrac ting</w>
ev ap
mi a</w>
. com</w>
fla g</w>
dv d</w>
s at</w>
resi dential</w>
no on</w>
log s</w>
surg ery</w>
enfor cement</w>
start up</w>
shado w</w>
gal van
5 9</w>
th west</w>
olym pic</w>
wa i
d ong
com mod
pa th
cho o
yester day</w>
e um</w>
ex t
ad verse</w>
grin ding</w>
dr ying</w>
invol ves</w>
ti zation</w>
speak er</w>
tren ds</w>
po wered</w>
c s
tool bar</w>
you th</w>
1. 0</w>
\ \</w>
cat alog</w>
per me
mo tor
deal er</w>
su ction</w>
b ic
us a</w>
p ins</w>
commod ity</w>
occu pa
atten d</w>
tal ent</w>
encoura ge</w>
fla v
dau ghter</w>
h s</w>
vul ner
bus y</w>
invol ving</w>
h at
enab ling</w>
i ec</w>
ad ds</w>
nar row</w>
im pe
gre en
syndro me</w>
tiv al</w>
swe et</w>
pneu matic</w>
t. asp
stop s</w>
ju dge</w>
certain ly</w>
3 7
wh ol
premis es</w>
discus ses</w>
in ches</w>
to morrow</w>
divi den
w ro
chl oride</w>
j a
sk ill</w>
inst al
further more</w>
impac ts</w>
val ley</w>
199 8</w>
symp toms</w>
langu ages</w>
wal king</w>
fi sc
im en</w>
call ing</w>
mu d</w>
extre me</w>
rou ting</w>
happen s</w>
compu ting</w>
se wage</w>
emer ging</w>
cla y</w>
meth odo
y cle</w>
complic ated</w>
reduc es</w>
invest or</w>
cl am
consul tant</w>
legis lation</w>
t ang</w>
se ats</w>
satis factory</w>
mor tar</w>
inf o</w>
lic ence</w>
2 2
1. 4</w>
cat ch</w>
vic ti
bo ttle</w>
electro magnetic</w>
ar ts</w>
primar ily</w>
subjec ts</w>
conten tre
d able</w>
ar range</w>
consul ting</w>
infl ation</w>
hu mid
the ten</w>
http://www.microsoft.com/ contentre
http://www.microsoft.com/contentre direc
automa ted</w>
t.asp .</w>
http://www.microsoft.com/contentredirec t.asp.</w>
rec ru
on e
constra ints</w>
pub lish</w>
ex em
fu zzy</w>
seg ments</w>
en em
pro pri
the me</w>
thro ttle</w>
be an</w>
* *</w>
ch ong
co lo
mo tiv
sna p</w>
cle aring</w>
er ation</w>
off line</w>
o meter</w>
pro ve</w>
4. 5</w>
ho ok</w>
phenomen on</w>
eng ag
c ad
ac knowle
gi ant</w>
h se</w>
k ill</w>
fa ith</w>
pri son
sion ing</w>
i den
estima tes</w>
revi sed</w>
mon etary</w>
gr and
expla ined</w>
humid ity</w>
inde m
fisc al</w>
te eth</w>
sal ary</w>
o red</w>
e gy
tran sit</w>
la ying</w>
groo ve</w>
ici ous</w>
chang er</w>
inter view</w>
fes tival</w>
govern mental</w>
dec om
commen cement</w>
isol ated</w>
d ging</w>
calcul ations</w>
wro te</w>
wash ington</w>
b ble</w>
trac tion</w>
mach ining</w>
hybri d</w>
c kets</w>
off ence</w>
k w</w>
c er</w>
d ns</w>
he ated</w>
contain ers</w>
ac u
auto mobile</w>
p en</w>
ten de
gra m</w>
fe asi
ex tra
ro man
recommen d</w>
thr ust</w>
vi sco
borro wer</w>
boo k
ge red</w>
gro up
tri gger</w>
b at</w>
ai re</w>
re n</w>
non linear</w>
rec ur
fl ang
da vid</w>
fl ash
stu dying</w>
cel l
gr ass</w>
sib ly</w>
char ger</w>
fin dings</w>
199 9</w>
drin king</w>
mus eum</w>
r pm</w>
de aling</w>
ft lb</w>
characteri zed</w>
ce iling</w>
opini ons</w>
brit ain</w>
hard ness</w>
di plo
de ll</w>
viol ation</w>
eng land</w>
autono mous</w>
requi ring</w>
j er
l ec
su sta
m r
ho mo
exten sive</w>
stor m</w>
join tly</w>
3. 4</w>
stipul ated</w>
even tually</w>
amend ment</w>
cal ci
ra ys</w>
ra ising</w>
synchron ization</w>
log in</w>
lubr ication</w>
concep ts</w>
memb ership</w>
duplic ate</w>
form ers</w>
tem plates</w>
de vi
men tum</w>
gre a
pass es</w>
cu n</w>
estim ation</w>
den tal</w>
shoul der</w>
coff ee</w>
har m
ma gaz
beg ins</w>
nit ure</w>
im posed</w>
inspec ted</w>
claim ed</w>
appro aches</w>
enem y</w>
scenari o</w>
i ra
ab oration</w>
explan ation</w>
feasi bility</w>
swit ched</w>
continu ing</w>
fur niture</w>
absen ce</w>
pack ages</w>
bra z
distribu tor</w>
comp ounds</w>
y an
grea test</w>
gol den</w>
fab r
xi ang</w>
under lying</w>
lab els</w>
r ats</w>
blin d</w>
revol ution</w>
spa tial</w>
err a</w>
ven ues</w>
re stor
ing redi
care ful</w>
restaur ant</w>
in coming</w>
ro cks</w>
ec o
exam ined</w>
ro b
valu ation</w>
consi st</w>
h ill</w>
scre w
pa ying</w>
po p</w>
en tre
we aring</w>
stand by</w>
sol ving</w>
sol vent</w>
ul timate</w>
b ought</w>
po e
a es
fabr ication</w>
volun te
univer sities</w>
exca v
vi br
sc at
diver sity</w>
z he
boo m</w>
tem ple</w>
gradu ate</w>
philosoph y</w>
199 7</w>
gen ic</w>
key board</w>
classi c</w>
pharmac eu
barri er</w>
d na</w>
sug ar</w>
mo tive</w>
am or
us b</w>
initi ative</w>
convey or</w>
continu ity</w>
ric h
ra tional</w>
obvi ously</w>
t am
st ars</w>
ke l</w>
br ings</w>
pro hibited</w>
imag ing</w>
is s</w>
bus h</w>
scri p
bo ss</w>
ga ins</w>
chur ch</w>
gate way</w>
predic tion</w>
b ad
dis h</w>
limit ation</w>
comp act</w>
loo sen</w>
ic ed</w>
b attle</w>
der ly</w>
ten sile</w>
g ps</w>
ji an</w>
de ep
ex tru
lan e</w>
produc es</w>
di stor
go og
photo s</w>
met als</w>
in puts</w>
t ness</w>
wel ls</w>
e ating</w>
minim ize</w>
enter tainment</w>
9 6</w>
len s</w>
e able</w>
enz y
tra ined</w>
read er</w>
guarante ed</w>
b ags</w>
expl ic
s itting</w>
fe a
vo ca
z a</w>
symb ols</w>
fil ms</w>
ir s</w>
f a</w>
combin ing</w>
gra y</w>
regar ded</w>
k ne
hun dre
constra int</w>
shi rt</w>
prob ability</w>
gi ft</w>
k ine
ultras onic</w>
i x</w>
por sche</w>
contribu tions</w>
expan ded</w>
termin ate</w>
8 6</w>
ceram ic</w>
car bon
fo am</w>
adap tive</w>
sti ff
occupa tional</w>
de fici
entre pre
prec au
recei ves</w>
0 6</w>
pain ted</w>
mac ro</w>
pro files</w>
k ni
as ph
un expected</w>
plac ing</w>
mon day</w>
datab ases</w>
dec line</w>
afric an</w>
di am
b am
assemb led</w>
rad ar</w>
4. 4</w>
loc ks</w>
5 m</w>
bu ying</w>
lin ux</w>
auto cad</w>
ac compli
col on
boo st</w>
ro ad
4 7
connec tivity</w>
li p</w>
ra m</w>
by pass</w>
fre ight</w>
d s
d ash
cali for
bas ically</w>
7. 5</w>
was n</w>
fri day</w>
cu ts</w>
wel l
ge or
ta i</w>
k y
an sw
thread s</w>
ferti li
di ab
alk al
ti se</w>
jo ined</w>
arri val</w>
d m</w>
happ iness</w>
co ast</w>
ren dering</w>
qing dao</w>
publi shing</w>
expres s
tre ating</w>
r he
cra tic</w>
ju dic
6 9</w>
ra ble</w>
assum ed</w>
ma kers</w>
vis itors</w>
pi vo
tin y</w>
ou red</w>
iden tical</w>
ac ous
s si
constitu te</w>
fac ed</w>
ti ll
goog le</w>
be ams</w>
fil ed</w>
pa vement</w>
down stream</w>
in door</w>
por table</w>
poin ted</w>
ic ations</w>
sh ops</w>
foun ded</w>
e ase</w>
bir d</w>
coll ective</w>
wa vel
ac ked</w>
ti les</w>
gu y</w>
occu pi
succ e
inst ances</w>
corrup tion</w>
dro pped</w>
there by</w>
hu i</w>
bel ongs</w>
cl one</w>
sugge sts</w>
for get</w>
a qu
resol ved</w>
i dle</w>
scan ning</w>
a teral</w>
a y
hosp it
be at</w>
dis rup
lin er</w>
leg s</w>
hand led</w>
haz ards</w>
comm unities</w>
h ou</w>
over head</w>
hor se</w>
ti ll</w>
em pi
optim um</w>
ch ick
infra red</w>
z y</w>
achie vements</w>
t te</w>
repos itory</w>
clean ed</w>
abstr act</w>
negoti ation</w>
sp in
for um</w>
z i
thre at</w>
v y</w>
hel ping</w>
rin k
al located</w>
li ved</w>
conduc ting</w>
m acro
m on</w>
issu ing</w>
by tes</w>
hundre ds</w>
an alog</w>
wor n</w>
imp air
repe ated</w>
re medi
cylin ders</w>
ff s</w>
jour n
pos ing</w>
b ly</w>
cru de</w>
ep ing</w>
n ull</w>
coll aboration</w>
log ged</w>
v or
7. 1</w>
metri x</w>
car tri
ai ds</w>
n esses</w>
ex act</w>
gr and</w>
cr acks</w>
consequ ences</w>
electro de</w>
de ser
inv ested</w>
bu cket</w>
accur ately</w>
neu ro
sel ector</w>
holi day</w>
repu tation</w>
af raid</w>
t an</w>
anti cip
v m
6 00
cro ss
transpa rent</w>
engag ement</w>
s wing</w>
electr on</w>
califor nia</w>
pit ch</w>
americ ans</w>
bac teria</w>
s ounds</w>
w is
fil ing</w>
aff ects</w>
as sume</w>
ag on</w>
sym metrix</w>
sil k</w>
cor ri
ph er
contribu te</w>
program mes</w>
bran ds</w>
em bo
gu il
preven ting</w>
arbit r
identi fier</w>
e ther
dit ure</w>
demo cr
kit chen</w>
x y
produc tive</w>
fu tures</w>
uc tu
a tives</w>
jav a</w>
nam ely</w>
bir ds</w>
pro ven</w>
fl ying</w>
expen diture</w>
t ability</w>
g ases</w>
6. 3</w>
bloc ked</w>
profes sion
teri al</w>
spec imen</w>
dat ory</w>
inter n
ne ar
copy right</w>
organiz ational</w>
su red</w>
far mers</w>
ast m</w>
fif th</w>
8 8</w>
demon stration</w>
ear nings</w>
ext ingui
bur n</w>
lan ding</w>
navi sphere</w>
f ai
referen ced</w>
d or
ha ven</w>
m ass
exclu ding</w>
fl uctu
din ner</w>
g ated</w>
ag u
prec eding</w>
ma ker</w>
issu ance</w>
1 10</w>
ca b</w>
ye ah</w>
top ics</w>
weap ons</w>
reco ver
ch u
cre d
po ver
mir r
c .
m ask</w>
indi an</w>
e a</w>
o p</w>
disc ount</w>
bu t
gon na</w>
spher ic</w>
b end</w>
recogn ize</w>
adjust ments</w>
analy tical</w>
wa ters</w>
fra g
ga thering</w>
com bine</w>
g p</w>
trouble shooting</w>
docu mented</w>
off shore</w>
erec tion</w>
thre a
citi zens</w>
see king</w>
s in</w>
tum or</w>
ban k
exc el</w>
out come</w>
fas ten
3 ,
fe el
pover ty</w>
c lock
chong qing</w>
audi ence</w>
psycho logical</w>
d ding</w>
difficul ty</w>
calci um</w>
inter vals</w>
substan tial</w>
am mon
re construction</w>
mathema tical</w>
pre cip
beli eved</w>
configur ations</w>
equi pments</w>
serv es</w>
expec tations</w>
econo mics</w>
vo ting</w>
in direct</w>
escap e</w>
cont amin
arri ved</w>
appro ve</w>
gre y</w>
tex t
eur o</w>
difficul ties</w>
e po
b les</w>
subsidi aries</w>
conveni ence</w>
al ph
s ters</w>
si de
thir ty</w>
in formed</w>
refl ected</w>
optimi zed</w>
sec uring</w>
quanti tative</w>
monit ored</w>
di ent</w>
shi el
propos als</w>
z i</w>
j es
studi o</w>
cen ce</w>
sett led</w>
du m</w>
protec ting</w>
bi gger</w>
recipi ent</w>
constan tly</w>
complex ity</w>
identi fying</w>
agre es</w>
f ted</w>
fil ler</w>
chron ic</w>
sec tors</w>
lo s</w>
ph ases</w>
pa ths</w>
oper ates</w>
n c</w>
ro ta
si r</w>
ul ation</w>
0. 1</w>
en sures</w>
in sufficient</w>
m ex
p t
pa pers</w>
15 0
allow able</w>
ses sions</w>
exper tise</w>
cau ght</w>
ill ary</w>
analy zer</w>
seri ously</w>
le gen
thin ks</w>
) )</w>
plan et</w>
net worker</w>
sou l</w>
real ization</w>
serv ing</w>
199 5</w>
2 nd</w>
equ ations</w>
stor ies</w>
pene tration</w>
im possible</w>
supervis ors</w>
m old</w>
v ou
numer ous</w>
g t</w>
rou gh</w>
br on
ki stan</w>
fur ni
sub station</w>
p to
fail ures</w>
achie vement</w>
thor ou
sen sing</w>
ho ist</w>
9 2</w>
de l
ig no
7. 2</w>
ti ps</w>
gu est</w>
keep s</w>
gu ests</w>
provi ders</w>
cel erra</w>
sexu al</w>
favor ite</w>
jour ney</w>
ener gi
0 x</w>
ap p
s ad
chri st
c r</w>
ske tch</w>
need le</w>
5. 5</w>
oxi dation</w>
marri ed</w>
ha i
coll ecting</w>
att acks</w>
retri eve</w>
gen tly</w>
liqui dity</w>
repl y</w>
at ings</w>
ob struc
mex ic
posi tioned</w>
de par
e e
under taken</w>
res on
pipel ines</w>
don e
desi re</w>
ital y</w>
ether net</w>
cam shaft</w>
har v
conclu sions</w>
moder n
stu ff</w>
pa tho
stre t
am ination</w>
ar m
i di
touri st</w>
ap ar
altern ate</w>
o s
pen ding</w>
nat ur
ici ans</w>
h as
vis a</w>
ath le
p vc</w>
instal lations</w>
lo ver</w>
fir stly</w>
sto ck
tion er</w>
foot ball</w>
ho t
in cl
ti a</w>
pen alty</w>
_ _</w>
light ning</w>
auto desk</w>
prec ise</w>
liste ning</w>
si ster</w>
spac ing</w>
addres sed</w>
telec om
bl ack
promp tly</w>
ex ports</w>
de preci
w rench</w>
fil tration</w>
man datory</w>
le an</w>
3 6
u v</w>
under stood</w>
where as</w>
after noon</w>
al ties</w>
are n</w>
exp nd
e ties</w>
optimi ze</w>
hel p
ca vity</w>
qu an
stri ke</w>
pre view</w>
gro wn</w>
de t
trans mitted</w>
sta ke
ph s</w>
jac ket</w>
invol ve</w>
associ ate</w>
in done
uncertain ty</w>
cen tri
pat ch</w>
won der
mar i
m d
en velo
is lands</w>
la p</w>
op h
cli ps</w>
cham pi
insu red</w>
in spi
direc tional</w>
te ls</w>
d ors</w>
wor ry</w>
ul tra</w>
ali sts</w>
da y
dec ades</w>
refl ection</w>
b low</w>
sur ge</w>
ti de</w>
develo pers</w>
comp rises</w>
licen sed</w>
g li
ob taining</w>
impair ment</w>
am pl
ber t</w>
licen sing</w>
cont amination</w>
g un
du ly</w>
18 0</w>
demon strated</w>
respon ses</w>
ga ined</w>
pos sibly</w>
survi val</w>
x x</w>
monit ors</w>
dec oration</w>
st a</w>
tox ic</w>
mus cle</w>
fil tering</w>
men tally</w>
an i
strong ly</w>
ques tion
ic a</w>
tempor arily</w>
v o</w>
radi al</w>
vi sibility</w>
conver sation</w>
bo tt
expi ration</w>
centr alized</w>
t d</w>
w en
vie wer</w>
woo den</w>
ir ri
ma tically</w>
depen d</w>
milli ons</w>
g ul
appro xim
9 4</w>
initi ally</w>
coll abor
mortg age</w>
indepen dently</w>
fi sh
gover ning</w>
develo per</w>
ab s</w>
collap se</w>
qu al
lat ter</w>
blu e
high light</w>
7 00</w>
perio dic</w>
c l</w>
cor d</w>
spe eds</w>
bo ys</w>
resi dent</w>
wit ness</w>
e der</w>
wat ching</w>
st amp</w>
c ep
ang er</w>
exce eded</w>
g ers</w>
cur sor</w>
clo ser</w>
bat teries</w>
ar med</w>
th ou</w>
b ent</w>
il li
analy zes</w>
bur ied</w>
in ity</w>
constitu tion</w>
col or
me al</w>
asph alt</w>
u i</w>
cur tain</w>
log o</w>
de als</w>
tor que
lo ved</w>
199 6</w>
no se</w>
crank shaft</w>
trans duc
telecom mun
shap es</w>
head ing</w>
circul ating</w>
0 8</w>
consi sting</w>
a viation</w>
near by</w>
up stream</w>
thread ed</w>
whe at</w>
form at
br ick</w>
impro vements</w>
king dom</w>
brow se</w>
rejec ted</w>
wor se</w>
insu lated</w>
bra ted</w>
inter active</w>
m ice</w>
v ili
under take</w>
remain ed</w>
te es</w>
regul ating</w>
limit ations</w>
reve aled</w>
represen ting</w>
adop ts</w>
p si</w>
mas sive</w>
p u</w>
acade my</w>
bud dh
gas ket</w>
gro und
robo t</w>
5. 4</w>
ero sion</w>
clean er</w>
ben ch
and ong</w>
re aching</w>
origin ally</w>
d d
config uring</w>
b n</w>
new sp
nan o
explo sive</w>
201 8</w>
c is
sun day</w>
ad o
priv acy</w>
ic on
shoo t</w>
t b</w>
be red</w>
vas cular</w>
fini shing</w>
inde xes</w>
re views</w>
dec ade</w>
share point</w>
tex tile</w>
de pression</w>
dit ors</w>
ari an</w>
se es</w>
9 7</w>
ke t
stres sed</w>
mat ur
influ ences</w>
bat h</w>
mb ing</w>
issu er</w>
kore an</w>
cataly tic</w>
terr or
clock wise</w>
commission er</w>
induc tion</w>
expnd tw
expan ding</w>
pas sive</w>
o ils</w>
an ol</w>
a us
ang les</w>
wel ds</w>
len der</w>
out line</w>
re min
t z</w>
bl an
thorou ghly</w>
ka y</w>
plas tics</w>
termin ated</w>
larg ely</w>
f ate</w>
zhe jiang</w>
h ence</w>
bo o</w>
architec tural</w>
ad ult</w>
strong er</w>
v ast</w>
soldi ers</w>
st ones</w>
co s
b ai
ge ment</w>
mer chan
zo om</w>
hierarch y</w>
ju mp</w>
as king</w>
0 7</w>
ar ch</w>
met ad
counter measures</w>
ho sts</w>
announ cement</w>
encry ption</w>
sen tence</w>
win ning</w>
tan gible</w>
pi x
ph ili
v acc
light weight</w>
visco sity</w>
pre v
tal ks</w>
mo vements</w>
us er
nur sing</w>
7 1</w>
multi pl
photo graph
sen ds</w>
d m
n the</w>
up dating</w>
dee ply</w>
to tally</w>
vi si
wel fare</w>
h at</w>
phy si
gre w</w>
separ ator</w>
poli tics</w>
p ick
a side</w>
struc tured</w>
b p</w>
conclu ded</w>
ab and
ag ues</w>
correc tive</w>
assemb le</w>
g dp</w>
di oxide</w>
ad ul
we l</w>
8 1</w>
particip ating</w>
pac ked</w>
chro mato
1 2.
s it
bl ast</w>
dela yed</w>
human s</w>
restra int</w>
schem es</w>
qui et</w>
centri fu
4 00
newsp aper</w>
met res</w>
head quarters</w>
br inging</w>
da d</w>
regul ated</w>
regi stra
sedi ment</w>
an xi
org ans</w>
poten tially</w>
li a</w>
fo ods</w>
su ite</w>
fi red</w>
al izing</w>
demo cratic</w>
lam in
te en
ato mic</w>
ac ry
ti te</w>
di rt</w>
sc ar
bin ary</w>
metad ata</w>
atmo spheric</w>
sm ile</w>
p w
per mits</w>
i m</w>
inv est</w>
6. 5</w>
te dly</w>
resul ted</w>
religi ous</w>
attemp ting</w>
mail box</w>
it ability</w>
surve ill
con sen
co he
in er</w>
re tained</w>
enti rely</w>
a ks</w>
ri b
scre ening</w>
bel ong</w>
wash ers</w>
trade mark</w>
ph r
x in</w>
htt p</w>
tis m</w>
pharmaceu tical</w>
eli gible</w>
de br
disclo sed</w>
addi tionally</w>
7 6</w>
7 7</w>
w oul
re tar
syn tax</w>
methodo logy</w>
sul fur</w>
all en</w>
sh a</w>
cam pus</w>
cp u</w>
conver tible</w>
or ange</w>
controll ers</w>
groun ds</w>
reco vered</w>
co atings</w>
sc rat
person ality</w>
be ach</w>
de man
entrepre neur
pil es</w>
nam es
xi a</w>
th ur
mat ches</w>
consul t</w>
- 1</w>
k i</w>
fl am
po cket</w>
cere mony</w>
smo oth
0 9</w>
rang es</w>
b loo
res sion</w>
inspec tions</w>
un loading</w>
dis cover</w>
recommen dation</w>
sw im
ch ang</w>
flow ing</w>
fl y
re fu
yi el
bac ked</w>
coll ec
feel ings</w>
less on</w>
re tain</w>
surveill ance</w>
persi sten
en closed</w>
sche matic</w>
pro spect</w>
fing er</w>
f ice</w>
rec eption</w>
con ce
rou tes</w>
a sts</w>
fi shing</w>
chick en</w>
bam boo</w>
si e
speci ally</w>
pul led</w>
vit am
scri pts</w>
8 7</w>
bas eline</w>
candi date</w>
v ital</w>
bene ficial</w>
assess ed</w>
s ory</w>
sched ules</w>
o de</w>
g an
on going</w>
appli ance</w>
par is</w>
tru ly</w>
bil ls</w>
auth ors</w>
di et</w>
bel l</w>
e ar</w>
ser um</w>
m l
ti lt</w>
dist ingui
correc ted</w>
z ha
ro ver</w>
u re
syn the
con e</w>
nic kel</w>
ne ural</w>
3 2
un like</w>
acqui re</w>
ho tels</w>
con junction</w>
phys ics</w>
sco pic</w>
allow ance</w>
f er</w>
viol ence</w>
bra kes</w>
9 1</w>
jes us</w>
f loo
bank rup
debr is</w>
car cin
tur bo
resi dence</w>
8 2</w>
ge ar
h ong
ol ine</w>
9 3</w>
with standing</w>
le gi
af gh
un t</w>
to il
aim s</w>
ham mer</w>
mis t</w>
ha ul</w>
rep airs</w>
roy al</w>
brief ly</w>
me tering</w>
ca st
har m</w>
20 .
itu al</w>
accompan ied</w>
r mb
publi sher</w>
magaz ine</w>
licen ses</w>
de sc
spo ts</w>
s wa
band width</w>
de st</w>
alig ned</w>
appro x</w>
c ked</w>
bu ck
firm ly</w>
g ab
subjec ted</w>
choo sing</w>
mb le</w>
ch est</w>
b all
imag ine</w>
me ant</w>
copi ed</w>
in tra
as p</w>
ampli fier</w>
refl ects</w>
v ac</w>
co ast
speci fying</w>
preven tive</w>
ess enti
form ats</w>
c amp</w>
ter ly</w>
wor st</w>
inst ant</w>
u ms</w>
a str
be t</w>
em ph
se am
conflic ts</w>
bri dges</w>
any where</w>
c age</w>
a g</w>
synchron ous</w>
ce ments</w>
tu esday</w>
ge ars</w>
fl ush</w>
accumul ation</w>
m t
restric tion</w>
ic ks</w>
o kay</w>
resp ir
po ll
inqui ry</w>
exhi bit</w>
an o</w>
libr aries</w>
t ags</w>
attem pts</w>
on i
plan es</w>
proce eds</w>
ligh ted</w>
coll ector</w>
el led</w>
re im
k es
bla sting</w>
ki d
pos session</w>
re tain
r c</w>
a a</w>
out puts</w>
link age</w>
tian jin</w>
gra dient</w>
ter ri
ec e</w>
cr ash</w>
go od
preferen ces</w>
re venues</w>
deplo yed</w>
emph asis</w>
ampl itude</w>
con forming</w>
vari ations</w>
bir th
stre ets</w>
7 3</w>
vm ware</w>
christ mas</w>
bur den</w>
al arms</w>
the ories</w>
roo ts</w>
zh ong
tra iler</w>
re mark
compar ing</w>
po sts</w>
defin ing</w>
over ride</w>
16 0</w>
iz hou</w>
an c
met abo
week ly</w>
parti ally</w>
ha m</w>
ev acu
ji a</w>
h it
m rs</w>
auto motive</w>
ar o
cushi on</w>
upgra ding</w>
invi ted</w>
tradi tion</w>
ag er</w>
cro wn</w>
8 9</w>
fe wer</w>
colle agues</w>
matur ity</w>
gen der</w>
u ght</w>
voca tional</w>
au tum
tal ents</w>
sen ten
econo mies</w>
att or
min g
oun ded</w>
plu gs</w>
instru mentation</w>
pres sur
cultiv ation</w>
ar tis
u a</w>
f p</w>
mon go
ei gh
fra ud</w>
trac ks</w>
mis sible</w>
paragra phs</w>
fortun ately</w>
5 mm</w>
ve re
ul tra
dis connected</w>
ci g
initi ated</w>
cro p</w>
mis sed</w>
ben ch</w>
, 000
lun g</w>
ca m</w>
behavi ors</w>
sh andong</w>
woul dn</w>
elev ator</w>
favor able</w>
depreci ation</w>
mb s</w>
dele ting</w>
mat ched</w>
ang ular</w>
lo y
igno red</w>
colli sion</w>
r ust</w>
li th
sho w
supple mentary</w>
lu gg
pa ten
hang ing</w>
coupl ed</w>
se am</w>
l. n</w>
modi fications</w>
flu x</w>
trans formers</w>
pri ze</w>
pres sures</w>
infl am
acc ru
sear ching</w>
th row</w>
di scri
mer ge</w>
g ang</w>
ex changes</w>
18 .
gg s</w>
ch er
spir al</w>
lo sing</w>
main s</w>
c it
in teri
inter vention</w>
con temporary</w>
3 rd</w>
cho ices</w>
d d</w>
pen sion</w>
transi ent</w>
bi c</w>
hs bc</w>
v els</w>
braz il</w>
accumul ated</w>
pum ping</w>
ar ab
n i</w>
irri gation</w>
te ach</w>
2 d</w>
judic ial</w>
help ful</w>
cas u
trac tor</w>
ma c</w>
lugg age</w>
cre denti
pro sper
bre ast</w>
expres sions</w>
7 4</w>
discus sions</w>
cri tic
tr uc
re stored</w>
lad y</w>
har den
nan jing</w>
mit ting</w>
se ven
sla g</w>
fro zen</w>
stre tch</w>
ad sor
noti fied</w>
coordin ates</w>
j ing
stra p</w>
3. 0</w>
0 s</w>
speci mens</w>
syste matic</w>
ro us</w>
reim bur
destro yed</w>
po is
autum n</w>
jiang su</w>
7 8</w>
spo ol</w>
advan ces</w>
ap parent</w>
aim ed</w>
sur plus</w>
ho o
no te
tell s</w>
br ate</w>
atten ded</w>
199 4</w>
sci ences</w>
natur ally</w>
rob ust</w>
frequ ent</w>
fin ed</w>
flu ores
or tho
su dden</w>
gener ic</w>
sol ven
p g</w>
m ph</w>
icon tro
cre am</w>
loc ally</w>
wa ve
en ters</w>
bel ong
b age</w>
r h
wal ked</w>
deplo y</w>
br al</w>
pre fer
lubric ating</w>
tro ops</w>
ou se</w>
integr ate</w>
ac tors</w>
per forms</w>
tax ation</w>
concentra ted</w>
va ult</w>
acous tic</w>
water proof</w>
co operative</w>
s day</w>
he tero
w ol
smo king</w>
evap or
foc uses</w>
direc tive</w>
sk ir
grou ting</w>
ag end
sho ts</w>
to b
as ted</w>
end or
read s</w>
w a</w>
hab it
flo at</w>
v an</w>
disp utes</w>
a f</w>
trans verse</w>
em per
1. 6</w>
k le</w>
injec tor</w>
diam ond</w>
chil d
balan cing</w>
le ague</w>
mag n
ob st
fo g</w>
doc tors</w>
fair ly</w>
pul ling</w>
impro ves</w>
guarante es</w>
cri teri
ref use</w>
in forma
8 4</w>
appli ances</w>
u icontro
tw el
compar ative</w>
t all</w>
star ter</w>
lad der</w>
form work</w>
dis charged</w>
ele g
mic ha
cont ing
sp rings</w>
treas ury</w>
credenti als</w>
chri sti
licen see</w>
tra p</w>
wei ghts</w>
di r
m d</w>
harm ful</w>
consider ations</w>
cur ing</w>
our selves</w>
di aph
behavi our</w>
it alian</w>
detec ting</w>
tr y
targe ted</w>
wonder ful</w>
ist an</w>
co pe</w>
u t</w>
sel ec
leg es</w>
tende rer</w>
ref resh</w>
ben z
eff ic
com modi
customi ze</w>
gui des</w>
broad cast</w>
re conc
w ound</w>
in cu
r hy
po ly</w>
pla te
degra dation</w>
den o
limit ing</w>
ira q</w>
expor ted</w>
min i</w>
3 3
se mic
saf ely</w>
precau tions</w>
hur t</w>
gen es</w>
institu tional</w>
st uck</w>
lif ec
tab s</w>
ir an</w>
n is</w>
beli eves</w>
k in</w>
fea sible</w>
eth nic</w>
comple ting</w>
d t
hex agon</w>
san c
ti um</w>
st ator</w>
p au
diaph ra
thur sday</w>
discre tion</w>
bas es</w>
access ed</w>
bro ke</w>
suff ered</w>
quali fications</w>
d in</w>
statu tory</w>
dis per
descri ptions</w>
cool ed</w>
tu bing</w>
ev al</w>
immun e</w>
utili ties</w>
cartri dge</w>
class ical</w>
s ons</w>
necess arily</w>
ner ve</w>
lt a</w>
inv itation</w>
an ni
il itation</w>
sco res</w>
ren dered</w>
herit age</w>
ste re
p y</w>
hol low</w>
break down</w>
bil ateral</w>
ac et
mexic o</w>
inci dence</w>
cur ricul
cle ared</w>
fe eder</w>
com bat</w>
ti l
shel f</w>
puni shment</w>
10 1</w>
ri vers</w>
co ach</w>
indem ni
a warded</w>
or ities</w>
transpa ren
lux ury</w>
acceler ate</w>
radi ator</w>
ten s</w>
meth yl</w>
contrac tual</w>
as m</w>
ra ils</w>
coll ar</w>
w ings</w>
evalu ating</w>
evi l</w>
inter section</w>
destruc tion</w>
influ enced</w>
con vic
tur n
pa kistan</w>
foc using</w>
ur ry</w>
osc ill
hydro power</w>
consci ousness</w>
kni fe</w>
leg ally</w>
perio dic
cr acking</w>
m .
loc ating</w>
co 2</w>
bene fici
suppl ement</w>
carri age</w>
p r</w>
ti mately</w>
m u</w>
ne a
emo tional</w>
slu dge</w>
co ar
cor n</w>
author ised</w>
moder ate</w>
peri pher
ite ly</w>
achi eving</w>
formul ated</w>
quo te</w>
ho mes</w>
n ing
pal ette</w>
fun ded</w>
ap point</w>
ang el
se al
jo ining</w>
yun nan</w>
pref er</w>
every body</w>
inten sive</w>
ar tic
re sume</w>
ac eful</w>
@ @</w>
199 3</w>
equ ili
carri es</w>
? ?</w>
provi sional</w>
ess ence</w>
dev o
brea ks</w>
her self</w>
gra vel</w>
profession als</w>
bul b</w>
answ ers</w>
preven ts</w>
australi an</w>
p v</w>
micha el</w>
conden ser</w>
under taking</w>
tri g
attrac tive</w>
commodi ties</w>
e ing</w>
simul ated</w>
scre ens</w>
fin ds</w>
trac t</w>
class room</w>
ingredi ents</w>
displa ying</w>
col leges</w>
le verage</w>
cre a
re turning</w>
pal ace</w>
effici ently</w>
provin ces</w>
bl end</w>
pro pose</w>
jo y</w>
domin ant</w>
stop ping</w>
schedul ing</w>
ex pe
pro pel
firm ware</w>
y a
net working</w>
deli vering</w>
flu or
gu ards</w>
argu ments</w>
na m</w>
wu han</w>
contain ment</w>
resol u
egy pt</w>
develo pments</w>
str ange</w>
arri ve</w>
bar rel</w>
it ted</w>
thu si
min ent</w>
f r</w>
mess aging</w>
p df</w>
hu ang
bur st</w>
dri ed</w>
el se
stra igh
en thusi
nutri tion</w>
t le
am ine</w>
nor mal
func tioning</w>
mor pho
elec ted</w>
te ars</w>
connec ts</w>
expla ins</w>
re hab
va tives</w>
qu ad
barri ers</w>
assemb ling</w>
pr c</w>
ho pes</w>
8 3</w>
ty re</w>
spa in</w>
not withstanding</w>
m 6</w>
with draw
chan ge
administr ators</w>
el ler</w>
in her
d ul
bu m
agend a</w>
ten dency</w>
low s</w>
feder ation</w>
tell ing</w>
con secu
organ isation</w>
5 5
c u</w>
serv o</w>
ro ds</w>
cru ise</w>
s ick</w>
scen ic</w>
r ank</w>
re volu
see ds</w>
r ant</w>
travel ing</w>
psycho logy</w>
surg ical</w>
opti mis
ar ise</w>
bl ades</w>
ex changer</w>
amend ments</w>
la tin</w>
ven dors</w>
v is</w>
cru cial</w>
wh i
projec tion</w>
all ed</w>
simil arly</w>
bon ding</w>
quo tation</w>
ma tes</w>
bloc king</w>
ti tan
de lta</w>
mo m</w>
0. 2</w>
7 9</w>
si zing</w>
occupi ed</w>
inte ger</w>
ter rain</w>
less ons</w>
heav en</w>
criteri on</w>
distinc t</w>
vege tables</w>
lun s</w>
privile ges</w>
navi gate</w>
gen e
th al
quan tum</w>
over come</w>
preser vation</w>
equ ally</w>
cor on
7. 3</w>
r at</w>
inten tion</w>
g i</w>
de fe
consi ders</w>
indone sia</w>
identi fies</w>
heal th
may a</w>
ran do
pic ked</w>
epo xy</w>
k ings</w>
al titude</w>
micro wave</w>
len ding</w>
wi per</w>
co operate</w>
rec tang
ti ed</w>
pl enty</w>
the e</w>
simpli fied</w>
de ar</w>
3 4
air bag</w>
pe ar
rec re
10 ,000</w>
perman ently</w>
scenari os</w>
6. 4</w>
k n
ce o</w>
j an</w>
diver si
in ations</w>
pe p
p cs</w>
al bu
bri um</w>
syn c</w>
t ong</w>
pos ted</w>
p s
o h
lu min
lu mb
b lower</w>
1 a</w>
we dding</w>
dis assembly</w>
promo ted</w>
ak ama
deli vers</w>
ad option</w>
can a
adap t</w>
me tic</w>
un do</w>
crow d</w>
rep aired</w>
de teri
accommo dation</w>
registra r</w>
pul ley</w>
sh u</w>
har b
m ach</w>
f ang</w>
lifec ycle</w>
w en</w>
illu stration</w>
contr ary</w>
negoti ations</w>
as pi
acc o</w>
substan tially</w>
poly mer
spo kes
as me</w>
poin ter</w>
prec e
decre ases</w>
cha ins</w>
amp ed</w>
e o
effic acy</w>
c tr
dar ies</w>
ic ked</w>
predic ted</w>
shor ter</w>
design ation</w>
sc aff
serv ic
air ing</w>
with stand</w>
summar ized</w>
initi atives</w>
sc roll</w>
un usual</w>
cla uses</w>
a sting</w>
gra des</w>
me te
sul ph
sc ul
avoi ded</w>
f m</w>
mar ker</w>
ba th
pl ating</w>
si um</w>
kno wing</w>
ar ization</w>
pro xim
fre ely</w>
cr an
bon us</w>
sub system</w>
pleas ure</w>
indepen dence</w>
shi pped</w>
ep c</w>
modi fying</w>
flu ids</w>
pol ar</w>
tou gh</w>
fac e
r t
pl ated</w>
gu ess</w>
it ative</w>
s ongs</w>
tun e</w>
bre eding</w>
u sion</w>
fol k</w>
stres ses</w>
perme ability</w>
le e</w>
t ori
interi m</w>
else where</w>
v ative</w>
destro y</w>
sac ri
transpor ted</w>
condu it</w>
quo ta</w>
flang es</w>
to wn
dis man
compla int</w>
c b
tra ins</w>
ro man</w>
tic ity</w>
den se</w>
work space</w>
spin dle</w>
akama i</w>
vali date</w>
ca ve</w>
tob acco</w>
cro ps</w>
mag ni
injur ies</w>
ab solu
pre ference</w>
plan tation</w>
subsequ ently</w>
red undant</w>
ground water</w>
names pace</w>
ti zed</w>
suff ering</w>
suff er</w>
min ate</w>
flo ors</w>
pot assi
ac i
lubric ant</w>
l cd</w>
gu ys</w>
th ri
metr ical</w>
dro ps</w>
kilo meters</w>
pro of
occur ring</w>
pau l</w>
won der</w>
8. 1</w>
a wards</w>
st airs</w>
boun daries</w>
enhan cing</w>
d un
def ective</w>
co g
candi dates</w>
main land</w>
conden s
clou ds</w>
transf ers</w>
sh allow</w>
pl un
y ar
we dn
sh ine</w>
ri g</w>
mer ged</w>
gui ded</w>
regi me</w>
histor ic</w>
o il
comp action</w>
mista ke</w>
def ence</w>
ho ses</w>
faul ty</w>
analy sed</w>
do t</w>
ga ther</w>
off en
inspec tor</w>
ju n</w>
plan ting</w>
ma gic</w>
exc itation</w>
shaf ts</w>
individu ally</w>
t cp</w>
fabric ated</w>
pu shed</w>
dat as
view port</w>
sta tionary</w>
ri ed</w>
s ms</w>
de fic
descri p
spo ke</w>
mi um</w>
ver t</w>
ul timately</w>
treat y</w>
read ers</w>
hi v</w>
h r
m ical</w>
vol can
dis till
sour cing</w>
sh eng</w>
miner als</w>
in directly</w>
nea rest</w>
satur day</w>
on y</w>
es cal
cy to
vap or</w>
solu ble</w>
0 x
attor ney</w>
1 25</w>
yn chron
rib bon</w>
8. 2</w>
trans mit</w>
q in
quer ies</w>
there in</w>
emper or</w>
c and
potassi um</w>
mo bility</w>
do gs</w>
puri fication</w>
cy cl
equili brium</w>
ab use</w>
satur ated</w>
sh ade</w>
o tic</w>
impor ting</w>
fi bers</w>
question n
up load</w>
sk illed</w>
re late</w>
cen t
fore ver</w>
du mp</w>
tim er</w>
secu rely</w>
peo ples</w>
mis sile</w>
co ded</w>
ji e</w>
furni shed</w>
re mun
bu bble</w>
u g
sup posed</w>
wedn esday</w>
depar ture</w>
fol ding</w>
epi de
gen eous</w>
adul ts</w>
im ports</w>
eth ics</w>
soci alist</w>
analy sts</w>
dra gon</w>
in ev
y lene</w>
m ould</w>
1 4.
w ages</w>
access ory</w>
lun ch</w>
h d</w>
deb ts</w>
u mer
hand les</w>
par tly</w>
a x</w>
10 5</w>
stake holders</w>
tun ing</w>
truc ks</w>
inte st
deser t</w>
is ite</w>
cre di
s tics</w>
bin d</w>
vie t
civil ization</w>
so ap</w>
gener ates</w>
fi ers</w>
algorith ms</w>
phosp hor
b ang
v in</w>
real istic</w>
4 ,
perf ec
organiz ing</w>
wis dom</w>
ren e</w>
mal function</w>
produc er</w>
recei vable</w>
insul ating</w>
sol ely</w>
p airs</w>
attach ments</w>
blo g</w>
en ame</w>
3. 6</w>
ten sion
galvan ized</w>
1 1.
han ded</w>
lat ch</w>
ear thing</w>
c v</w>
inter s</w>
def erred</w>
renew al</w>
mil est
ren ame</w>
d ili
high lighted</w>
coast al</w>
eg g</w>
week end</w>
archi ving</w>
gl asses</w>
t r</w>
distor tion</w>
exclu ded</w>
sl urry</w>
speci alist</w>
col lateral</w>
pu shing</w>
p d</w>
ar rays</w>
curricul um</w>
practic able</w>
cumul ative</w>
retain er</w>
ari a</w>
ra ft</w>
de c</w>
b att
les see</w>
d l
ex e</w>
ca tho
vi i</w>
susp ect</w>
cu tter</w>
t cm</w>
r f</w>
sub contractors</w>
absolu tely</w>
vic tory</w>
cancel lation</w>
diab e
hy gi
deli ver
corri dor</w>
c ure</w>
diaphra gm</w>
pe er</w>
bre ad</w>
speak ers</w>
ol y
ec o</w>
out comes</w>
ctr l</w>
trig gered</w>
re generation</w>
ch ant</w>
arti st</w>
pi g</w>
bon ded</w>
rectang ular</w>
or dering</w>
var ying</w>
di alogue</w>
tro pical</w>
topo logy</w>
pur ity</w>
propri etary</w>
back ups</w>
promis ed</w>
process ors</w>
artis tic</w>
ren tal</w>
per missible</w>
de pt</w>
ho i
di se</w>
friend ship</w>
camer as</w>
sm ell</w>
fail ing</w>
deri vatives</w>
go t
transparen cy</w>
wil li
s r</w>
minim al</w>
le d
no body</w>
pac ket</w>
in t
bloc k
im mer
q c</w>
sub ordin
in tr
virtu e</w>
gh ness</w>
comp rising</w>
multi media</w>
p ounds</w>
fif ty</w>
ba i</w>
short cut</w>
propor tional</w>
gen ous</w>
coar se</w>
un available</w>
log ist</w>
agg res
univer se</w>
zh ong</w>
reve al</w>
g c</w>
valu ed</w>
ca y
19 .
un lock</w>
trun k</w>
electro ly
a ys</w>
toler ances</w>
supervis ory</w>
di p</w>
life time</w>
ash ed</w>
com o
bas ket
distribu te</w>
l ing
e ggs</w>
9 00</w>
gui ding</w>
s ect</w>
h il
r m</w>
ou ri
cop ying</w>
notic ed</w>
mal ay
. the</w>
res ort</w>
exten sions</w>
la sting</w>
consecu tive</w>
k un
advis ory</w>
proce eding</w>
shu i</w>
substitu te</w>
199 0</w>
visi ted</w>
fe els</w>
tic k</w>
borro wing</w>
wa ke</w>
us able</w>
vege tation</w>
commun ist</w>
ver sus</w>
sh r
head lamp</w>
dur ability</w>
sum mit</w>
allo ys</w>
geor ge</w>
vie t</w>
swim ming</w>
stre am
pri son</w>
discre te</w>
concentra tions</w>
sp in</w>
dam per</w>
sh im
recycl ing</w>
transduc er</w>
ill ness</w>
colo red</w>
sou thwest</w>
ti red</w>
0 ,
over load</w>
free ze</w>
coo king</w>
mechan ics</w>
foun dations</w>
rat ings</w>
in complete</w>
gri p</w>
vege table</w>
democr acy</w>
assum ptions</w>
ste ri
k o</w>
tic kets</w>
mer ger</w>
/ /</w>
ci a</w>
bu yers</w>
semic on
predic t</w>
bel ts</w>
m k</w>
geo metric</w>
gra ms</w>
execu ting</w>
p ted</w>
diff er</w>
ad ing</w>
hon or</w>
s copy</w>
supervi se</w>
spar k</w>
ten ess</w>
open ings</w>
glo bal
transf erring</w>
trus tee</w>
lo como
utili zed</w>
n ity</w>
mer cur
modul ation</w>
tu i
sou theast</w>
fire wall</w>
to my</w>
up ward</w>
ac ids</w>
th es
bon es</w>
mil d</w>
sett le</w>
pre set</w>
dash board</w>
c king</w>
o ven</w>
vitam in</w>
sou ght</w>
incen tive</w>
basket ball</w>
replic a</w>
il ers</w>
st al
mari time</w>
s light</w>
be l</w>
cap tured</w>
exten ding</w>
ra tive</w>
is tic
xin jiang</w>
weap on</w>
im prison
execu tives</w>
emb ar
pene tr
pe ter</w>
che ap</w>
a ment</w>
ch ol
in tru
t ;
gall ery</w>
z hu
rehab ilitation</w>
re ward</w>
3 60</w>
fel low</w>
lea ks</w>
inver ter</w>
stor ing</w>
ca ke</w>
apar tment</w>
performan ces</w>
resolu tions</w>
prospec ts</w>
cap su
ur gent</w>
here under</w>
advi sed</w>
every where</w>
k n</w>
en de
re active</w>
poly ester</w>
cau tion</w>
ph il
al ter</w>
glu co
beli ef</w>
0 7
conduc tors</w>
tw in</w>
e ure</w>
construc ting</w>
dre ams</w>
attrac t</w>
199 2</w>
th el
ta ught</w>
per pen
v m</w>
withdraw al</w>
semicon duc
bre ath</w>
adop ting</w>
consider able</w>
que en</w>
to ken</w>
deli ber
si ves</w>
enzy me</w>
program med</w>
zh u</w>
ze al
00 00
t f
weigh ted</w>
strugg le</w>
where ver</w>
rele ases</w>
b ance</w>
ple x</w>
li qu
sm ith</w>
cancel led</w>
commer ci
diabe tes</w>
deb ate</w>
accompli shed</w>
perpen dic
ful fill</w>
quo ted</w>
tur bo</w>
v aries</w>
ber ry</w>
hu m
ch i</w>
t land</w>
work place</w>
cardi o
deposi ted</w>
p l</w>
lin king</w>
wor m</w>
prin ts</w>
la tive</w>
even ly</w>
mo od</w>
are r</w>
it ly</w>
n ail</w>
fr action</w>
disclo se</w>
destruc tive</w>
cylin dr
tur no
ali ve</w>
fix ture</w>
rec all</w>
wra p</w>
ash es</w>
precip itation</w>
roll s</w>
prote ins</w>
maj eure</w>
do s</w>
mol ding</w>
in tent</w>
anticip ated</w>
k el
peripher al</w>
got ten</w>
propag ation</w>
he y</w>
cap tain</w>
o le</w>
mou l
cig are
u mb
toil et</w>
con su
6 6
therap eu
surpri se</w>
v dc</w>
wil d
secon dly</w>
compu tation</w>
vir g
m ly</w>
ner v
fru its</w>
g an</w>
fle et</w>
ign ore</w>
vou cher</w>
d ll</w>
harmon ious</w>
ari th
bio logy</w>
soph istic
aes thetic</w>
span ish</w>
in ju
bid ders</w>
bac king</w>
strength ened</w>
accommo date</w>
ef s</w>
sub strate</w>
carcin oma</w>
ri m</w>
fing ers</w>
detec ts</w>
en o
con sequence</w>
9 11</w>
el derly</w>
accoun ted</w>
legen d</w>
recogn ised</w>
ble eding</w>
pro poses</w>
h d
preci ous</w>
im peri
af for
refriger ant</w>
fu els</w>
excep tions</w>
mel ting</w>
ad ed</w>
as ynchron
om ing</w>
re me
ro id</w>
exc iting</w>
j 1</w>
volunte ers</w>
gas oline</w>
terr it
spac er</w>
cx 3</w>
st at</w>
ju ice</w>
impro per</w>
fortun e</w>
cali brated</w>
coordin ated</w>
customi zed</w>
comm it</w>
er ies</w>
mag net</w>
ber g</w>
heav ily</w>
there to</w>
t les</w>
aud iting</w>
by te</w>
an ds</w>
be er</w>
b ular</w>
remun eration</w>
dec lined</w>
any way</w>
su pre
me tro
nor theast</w>
me rely</w>
p ink</w>
b itu
7. 4</w>
commit ments</w>
gra m
access ing</w>
pro d
inv a
ga thered</w>
u le</w>
hin ge</w>
a tile</w>
enhan cement</w>
conduc tivity</w>
was tes</w>
victi ms</w>
condens ate</w>
ta ke
dis solution</w>
confi g</w>
in tangible</w>
ag en</w>
s ary</w>
dic tionary</w>
ba o
3 9
p ouring</w>
be side</w>
n es</w>
tri bun
pur ge</w>
ad minis
extrac ted</w>
poten ti
dar k
recti fication</w>
center a</w>
afgh an
0 8
sub grade</w>
expi red</w>
law ful</w>
birth day</w>
pi er</w>
a 1</w>
projec ted</w>
vol atile</w>
fav or</w>
metr o</w>
re ject</w>
ho ly</w>
bene ath</w>
bench mark</w>
perfec tly</w>
es tion</w>
premi er</w>
ton gue</w>
r is</w>
op tic</w>
cap s</w>
sti r
here of</w>
incre mental</w>
movi es</w>
ro und
notic es</w>
mode m</w>
techn ician</w>
off er
v ine</w>
k ou</w>
hol dings</w>
explo itation</w>
comp ul
reme dy</w>
cylindr ical</w>
c n</w>
p ine</w>
ma ted</w>
ant ine</w>
yl on</w>
illu mination</w>
influ encing</w>
vis iting</w>
renew able</w>
br illi
ra tions</w>
t onic</w>
restor ation</w>
t less</w>
sk i</w>
ref used</w>
turno ver</w>
where in</w>
po s</w>
inter ven
tow ns</w>
r ical</w>
ma pped</w>
re t</w>
v 6</w>
poe try</w>
re no
b agg
afghan istan</w>
% %</w>
reg ression</w>
5. 0</w>
xi an</w>
0.0 5</w>
gener ators</w>
an swe
inclu sive</w>
wi der</w>
centrifu gal</w>
dir ty</w>
cu be</w>
r h</w>
initi alization</w>
sen der</w>
im al</w>
tic es</w>
exerc ises</w>
con fu
confi denti
integr ating</w>
ra inf
bo wl</w>
touri sts</w>
sk i
brea thing</w>
mo s
u ted</w>
remo ves</w>
introduc ing</w>
cog ni
ess ing</w>
hard ly</w>
inci dents</w>
b by</w>
str ings</w>
y in</w>
health care</w>
ass y</w>
fit ness</w>
min ority</w>
d cs</w>
alli ance</w>
dig it</w>
an xi</w>
fl at
concentr ate</w>
z u
resear ches</w>
struc turing</w>
reser vation</w>
mathema tics</w>
liqui dation</w>
ang ry</w>
jam es</w>
answe red</w>
san itary</w>
main tains</w>
pivo t</w>
every day</w>
d amping</w>
inser tion</w>
dividen d</w>
defl ection</w>
wh ic
compli ant</w>
capac itor</w>
fac tories</w>
stiff ness</w>
survi ve</w>
rhy th
re try</w>
promp ted</w>
per for
diagno stics</w>
essenti ally</w>
low ering</w>
al leg
el lip
se ating</w>
exc use</w>
her o
in he
kne e</w>
debu gging</w>
ti mber</w>
y .
re actions</w>
wri tes</w>
numer ic</w>
gen esis</w>
susta ined</w>
pregn ancy</w>
p ads</w>
hospit als</w>
inju red</w>
liter ary</w>
1 30</w>
manu als</w>
h k</w>
standardi zed</w>
inter mit
envelo pe</w>
amin o</w>
t ages</w>
qu alities</w>
protoco ls</w>
p m
gg le</w>
deri vative</w>
sr c</w>
ch ap
bagg age</w>
1 20
cor ners</w>
bro ker</w>
advi se</w>
phosp hate</w>
pro ud</w>
n ame
cana dian</w>
un fortunately</w>
appreci ation</w>
pl ed</w>
f allen</w>
2 m</w>
wo ol</w>
mel t</w>
it ably</w>
compla ints</w>
he x</w>
p cm</w>
li ti
sit u</w>
initi ate</w>
clam ps</w>
gre ek</w>
pre jud
approxim ate</w>
scal es</w>
investig ations</w>
p n</w>
den ied</w>
qu o</w>
brac kets</w>
ab undant</w>
divi de</w>
sk y
vari ance</w>
dec l
confu ci
magn itude</w>
0. 3</w>
defici ency</w>
buil der</w>
oc e
en tal</w>
min es</w>
le ver
develo ps</w>
cab in</w>
but ter
remark able</w>
bi ds</w>
inspi red</w>
ex am</w>
ton ight</w>
ster il
at ories</w>
mista kes</w>
20 20</w>
m at</w>
prejud ice</w>
v ables</w>
preser ve</w>
. .
om as</w>
house holds</w>
ear ned</w>
e ye
lau gh
ven ess</w>
dis order</w>
youn ger</w>
rela ys</w>
periodic ally</w>
ei ved</w>
1 ,000</w>
j or
cour ts</w>
run time</w>
ra mp</w>
li sm</w>
rainf all</w>
vulner able</w>
re marks</w>
gra ding</w>
t ong
sol ic
re sum
fu jian</w>
particip ant</w>
be gun</w>
vill ages</w>
competi tors</w>
observ ations</w>
u k
shor tage</w>
t orial</w>
respir atory</w>
hel ic
logi sts</w>
ad min</w>
shi fting</w>
pe ti
gu i</w>
6 4
v as</w>
standardi zation</w>
she ep</w>
ne ver
le is
alterna tively</w>
quar terly</w>
bid den</w>
tan eous</w>
expi ry</w>
vide os</w>
vi ii</w>
addi tives</w>
so viet</w>
aler ts</w>
hu a
acceler ator</w>
s ink</w>
appropri ately</w>
whol ly</w>
re voc
l p</w>
a tively</w>
impe dance</w>
gu an</w>
ad mission</w>
con forman
over lap
spir itual</w>
re vo
e y
struc k</w>
rang ing</w>
radio active</w>
ro ck
cn y</w>
necess ity</w>
g aps</w>
set point</w>
so vere
my o
ky o</w>
mal es</w>
encoura ged</w>
resi due</w>
confidenti ality</w>
arti sts</w>
1 3.
vo id</w>
can al</w>
6 5
susp ected</w>
ch ose</w>
inten se</w>
lab s</w>
tren ch</w>
pro lif
zeal and</w>
annu ally</w>
leg acy</w>
wel ling</w>
i on
sto mach</w>
prin ce</w>
squ ee
legis lative</w>
char ts</w>
en or
vari eties</w>
pat ri
f its</w>
a ver
bankrup t
th ail
adv oc
1 40</w>
wi shes</w>
in k
geo graphical</w>
hang zhou</w>
sie mens</w>
por o
sla ve</w>
o let</w>
surve ys</w>
da p</w>
" """</w>
un employment</w>
particul ars</w>
po d</w>
mete or
pursu e</w>
boo ster</w>
en rich
sp reading</w>
ne gl
alter ation</w>
2 50
attemp ted</w>
inv ite</w>
cl amping</w>
utili ze</w>
sa m</w>
ar tery</w>
preven ted</w>
de pic
el a
discipl inary</w>
ammon ia</w>
as cen
metr ics</w>
li kes</w>
inf ant</w>
thail and</w>
sever ity</w>
li an</w>
fl are</w>
tri m
sou p</w>
harmon ic</w>
plan ted</w>
spra ying</w>
sle eves</w>
docu mentum</w>
cogni tive</w>
over haul</w>
gar den
ear n</w>
inf ec
im pres
addi tive</w>
mon ary</w>
poss ess</w>
switch gear</w>
fertili zer</w>
exha us
or bit</w>
re payment</w>
religi on</w>
f en
wor thy</w>
remo vable</w>
p se
i e
diff usion</w>
hun an</w>
bac ks</w>
dur able</w>
contribu ted</w>
compe tence</w>
sub contract</w>
rati os</w>
g land</w>
mort ality</w>
compens ate</w>
fil ename</w>
ate dly</w>
down ward</w>
twel ve</w>
de lic
pan cy</w>
reinfor cing</w>
n t
g ang
exci ted</w>
correspon ds</w>
ma ke
edi ted</w>
pe aceful</w>
2. 6</w>
inf ected</w>
leis ure</w>
as sure</w>
design ers</w>
on a</w>
hon est</w>
desi rable</w>
prod name</w>
no minated</w>
gear box</w>
reti rement</w>
for bidden</w>
recei vables</w>
gradu ates</w>
sel ects</w>
di version</w>
electr o</w>
k il
eleg ant</w>
advi sor</w>
5. 6</w>
ri d</w>
curren cies</w>
consci ous</w>
cis co</w>
ma o</w>
cr y</w>
cell ular</w>
slo ts</w>
formul ation</w>
3 50</w>
x p</w>
in o</w>
ra ge</w>
ker nel</w>
emb ry
disc oun
f cs</w>
tri als</w>
seam less</w>
mod ular</w>
tel es
fore sts</w>
inf er
on ry</w>
disc s</w>
stri ps</w>
ri ding</w>
tri gg
dis position</w>
speci alty</w>
mercur y</w>
web sites</w>
deleg ation</w>
extra ordinary</w>
k pa</w>
luc ky</w>
coun try
addres sing</w>
w ill
j agu
sel ective</w>
imprison ment</w>
v at</w>
ir r
combin ations</w>
di verse</w>
at um</w>
so ever</w>
to kyo</w>
consul tants</w>
sto re
the ft</w>
gar bage</w>
free zing</w>
af ford</w>
fla p</w>
cal m</w>
to e</w>
so ils</w>
bankrupt cy</w>
read ily</w>
har der</w>
2 a</w>
1 10
th eless</w>
acceler ated</w>
al d</w>
pur ple</w>
re public
utili zing</w>
na tionally</w>
pri orities</w>
8 8
dupl ication</w>
tribun al</w>
he bei</w>
ag ers</w>
ar sen
never theless</w>
organ is
therapeu tic</w>
xi ao
ver tically</w>
wi red</w>
prefer ably</w>
ra b
par a
e g</w>
decl are</w>
dispat ch</w>
custo dy</w>
al locate</w>
op hy
flu e</w>
br a</w>
hi re</w>
z ip</w>
cent res</w>
p ality</w>
cor p</w>
retri eval</w>
exten ds</w>
carbon ate</w>
gi fts</w>
w is</w>
deduc tion</w>
7 5
ban ds</w>
break fast</w>
ca us
appreci ate</w>
defin itely</w>
ingu ish</w>
re se
un likely</w>
o li
4. 0</w>
there after</w>
dividen ds</w>
persisten t</w>
roll out</w>
assess ments</w>
om al
bu tt</w>
su rely</w>
ref erring</w>
lev eling</w>
power path</w>
li me</w>
suffici ently</w>
cl er
spo ken</w>
loo sen
vit ro</w>
glo be</w>
compu ted</w>
w to</w>
inclu sion</w>
tox icity</w>
a vi
wat ched</w>
pol ye
vis its</w>
jum per</w>
asynchron ous</w>
r i</w>
poin ting</w>
emplo y</w>
mix er</w>
adhe sion</w>
ten cy</w>
econo mical</w>
joh n
bu shing</w>
gol f</w>
inf ring
hor n</w>
im pulse</w>
hen an</w>
out lined</w>
load er</w>
bac terial</w>
mu tually</w>
en trusted</w>
bro thers</w>
dead line</w>
child hood</w>
gh ua</w>
emb ank
a ths</w>
eng aging</w>
hun g</w>
dili gence</w>
r ho
mer chant</w>
condi tional</w>
ul a</w>
chi ps</w>
fac ial</w>
bur g</w>
u m
some what</w>
al ised</w>
sing ing</w>
m ys
att aching</w>
wri ters</w>
qi ao</w>
produc ers</w>
s ad</w>
audi ted</w>
time out</w>
person ally</w>
scul p
fo il</w>
cen tric</w>
ra rely</w>
pse u
mil ling</w>
3 m</w>
for ty</w>
combin es</w>
in corporate</w>
me i</w>
chromato graphy</w>
b our
al tered</w>
air lines</w>
vol ts</w>
st ag
schol ars</w>
foun der</w>
por tra
fe atu
li t</w>
ac compl
na tionality</w>
in spir
elev ated</w>
inter f
199 1</w>
consen sus</w>
compar able</w>
men tion</w>
l ng</w>
spher ical</w>
en coding</w>
titan ium</w>
sil ent</w>
cere bral</w>
appro vals</w>
stre ams</w>
cre ditors</w>
xx x</w>
harmon y</w>
critic ism</w>
requi sition</w>
ab do
— —</w>
spe c</w>
op position</w>
semiconduc tor</w>
ren al</w>
c ker</w>
xi a
initi alize</w>
magne sium</w>
distur bance</w>
ili ation</w>
p 1</w>
c t
h 2
0 m</w>
supre me</w>
munici pality</w>
im pression</w>
serv icing</w>
el abor
resi st</w>
p d
c on</w>
ref re
treat ments</w>
blue tooth</w>
corpor ations</w>
x u</w>
c lic</w>
inve sting</w>
poli tici
out going</w>
reg ards</w>
scan ner</w>
b are</w>
emul sion</w>
ici de</w>
i o</w>
log on</w>
bi o</w>
l uck</w>
guil ty</w>
dis posed</w>
here to</w>
screw driver</w>
representa tions</w>
mo ments</w>
pr on
ali as</w>
un necessary</w>
interrup ted</w>
ou tw
an omal
hab it</w>
gen u
sh ers</w>
s oun
alkal i</w>
on ym
quar antine</w>
al de
perpendic ular</w>
elimin ated</w>
sc aling</w>
questionn aire</w>
p ini
mi gra
gir der</w>
8. 3</w>
c m
wavel eng
a venue</w>
! !</w>
p b</w>
in sec
g is</w>
whol es
tt a</w>
se y</w>
b li
dw g</w>
c ture</w>
ti ce</w>
se ated</w>
repe atedly</w>
expor ting</w>
sha anxi</w>
sor ting</w>
the tware</w>
1 6.
mean ing
rul ing</w>
nerv ous</w>
k illing</w>
to ps</w>
sul fur
dela ys</w>
impl ications</w>
all er
tal ked</w>
purch ases</w>
install er</w>
o 2</w>
lif ted</w>
e ars</w>
et on</w>
2 20</w>
ch op
at able</w>
secre tari
law yer</w>
fore stry</w>
clin ic</w>
war nings</w>
architec t</w>
re viewing</w>
fre sh
simul ate</w>
s k</w>
hydro carbon</w>
gr ass
bas e
six th</w>
c b</w>
sp rink
pe de
sophistic ated</w>
tur key</w>
ch ic
volun tary</w>
ge t
tw ist</w>
or a</w>
cri pt</w>
he dge</w>
s v
e jec
4. 6</w>
promis ing</w>
deep er</w>
ama zing</w>
offer ings</w>
cur ved</w>
b ally</w>
defic it</w>
c as</w>
smar t
illu strated</w>
in sight</w>
rele asing</w>
occup ation</w>
el bow</w>
bus es</w>
4 6
corrup t</w>
contrac ted</w>
back ward</w>
is ely</w>
o be
malay sia</w>
cy clo
gly co
bet a</w>
so y
do w
conforman ce</w>
mat h</w>
hoi sting</w>
s mil
l ingu
car bo
belong ing</w>
weigh ing</w>
atten dance</w>
un ic
ran king</w>
tra u
ac les</w>
reli eve</w>
smooth ly</w>
pleas ant</w>
lou d</w>
poly mers</w>
proto type</w>
out lets</w>
sm el
tigh tly</w>
fas ten</w>
pollu tants</w>
fasten ers</w>
ten ds</w>
re strict</w>
cont our</w>
suppl ying</w>
ow ns</w>
j uni
qu it</w>
al a</w>
categ or
guide line</w>
pas sion</w>
nu mb
so l</w>
decreas ing</w>
virtu alization</w>
en lar
vi al</w>
exem ption</w>
mani f
whic he
rep airing</w>
regul ate</w>
rec order</w>
rejec tion</w>
ad mitted</w>
ca ter
head ed</w>
se min
coun ting</w>
10 2</w>
s age</w>
whiche ver</w>
anni ver
yu n</w>
equi ties</w>
ar c
less ly</w>
col ate</w>
pi g
conver ting</w>
pro py
nor thwest</w>
contin ental</w>
cul tures</w>
trac ing</w>
dum my</w>
at i</w>
re ne
coun ts</w>
surpri sed</w>
co ke</w>
trans lated</w>
pro minent</w>
commit tees</w>
mo vable</w>
indic ations</w>
fi m</w>
po p
gover ned</w>
down loaded</w>
9. 1</w>
s b</w>
rec ession</w>
geo graphic</w>
n est</w>
t ress</w>
ju ven
as ks</w>
n ine
r ush</w>
mas onry</w>
post al</w>
sha ke</w>
bi as</w>
con v
assi sted</w>
work station</w>
fir ing</w>
te ar</w>
se a
def end
rou ghly</w>
xi ao</w>
th ane</w>
do p
viet nam</w>
safe guard</w>
f in</w>
im pose</w>
de position</w>
t als</w>
vari ed</w>
qu en
ast ro
stu d</w>
2 1
u pri
por e</w>
e b
competi tiveness</w>
deleg ate</w>
sustain ability</w>
fi able</w>
r ick</w>
molec ules</w>
m n</w>
fabric s</w>
immun o
hy de</w>
blow ing</w>
valid ated</w>
li ps</w>
shan xi</w>
jagu ar</w>
bron ze</w>
x tender</w>
p esti
high lights</w>
bo ar
sta yed</w>
be ef</w>
n if</w>
liqu or</w>
lab eled</w>
inf ants</w>
regul ators</w>
analy st</w>
l dap</w>
wash ed</w>
sun light</w>
benefici ary</w>
li ve
dri ft</w>
k ick</w>
chri st</w>
lo tus</w>
r ite</w>
public ations</w>
cu t
v .
min us</w>
pri mer</w>
descri bing</w>
formul ate</w>
q a</w>
tol l</w>
invol vement</w>
i ons</w>
au ction</w>
bor row</w>
carri ers</w>
wh at
distingui shed</w>
ch un
bas ket</w>
as ser
e ability</w>
some body</w>
ro bert</w>
u ph
ve ter
in o
trans l
fing er
accumul ator</w>
sion ally</w>
compl ying</w>
4 9
b ou
p ond</w>
explic it</w>
restaur ants</w>
over flow</w>
fle x</w>
clus ters</w>
m acy</w>
formul as</w>
hab its</w>
helic op
por ous</w>
p 0
en umer
contamin ated</w>
e quality</w>
s l</w>
exclu sively</w>
leng ths</w>
elim ination</w>
je wel
2 20
reson ance</w>
ic ons</w>
bal ances</w>
zha o</w>
pl er</w>
aim ing</w>
ma tics</w>
vi olet</w>
persi sts</w>
sequ ences</w>
in i</w>
wh il
disas ters</w>
pri mi
fe ver</w>
ref rac
thre ats</w>
sk el
as ym
so le
respec ts</w>
ol a</w>
gluco se</w>
adap ted</w>
confi dent</w>
mb ling</w>
m m2</w>
o ste
ch im
ff ing</w>
cho colate</w>
li me
exis ted</w>
g r</w>
stri an</w>
h b
terror ism</w>
dis si
at ri
meth ane</w>
q in</w>
cu bic</w>
accompl ish</w>
consum ed</w>
clo sures</w>
hel l</w>
happen ing</w>
oc y
cab ine
sugges tion</w>
ful fil
deb tor</w>
manag es</w>
hand ler</w>
comp iler</w>
par ks</w>
2 40</w>
war ding</w>
sle eping</w>
el f</w>
ac knowledge</w>
g onal</w>
yang t
re use</w>
ji an
comp acted</w>
mu d
shu ttle</w>
swa p</w>
sho wer</w>
ch at</w>
alph a</w>
re new</w>
m asses</w>
gre ece</w>
miti gation</w>
maxim ize</w>
he i
econo mi
sk ip</w>
invo ices</w>
vi sc
mo mentum</w>
atten u
read ings</w>
differenti ation</w>
lin ess</w>
ro l</w>
oil field</w>
adequ ately</w>
m ps</w>
te sti
s w</w>
inhi b
ru b</w>
anniver sary</w>
tra ff
phenomen a</w>
pi one
h ec
ari al</w>
scrip ts
eco system</w>
ap paren
over lap</w>
loo k
adsor ption</w>
shi fts</w>
modul us</w>
intr in
excep tional</w>
ing er</w>
express way</w>
di stances</w>
ro m</w>
win s</w>
soli ds</w>
laun ching</w>
we dge</w>
under ing</w>
ver tex</w>
sec tional</w>
organ isms</w>
hu bei</w>
prec isely</w>
l ag
co ok</w>
bo y
spon sor</w>
corro sive</w>
4 4
t ments</w>
g u</w>
apparen tly</w>
3 000</w>
re structuring</w>
surroun ded</w>
situ ated</w>
0. 00
inten si
per su
b ach
sta ke</w>
h ills</w>
flu shing</w>
hydr o</w>
decom position</w>
f ence</w>
trade marks</w>
id al</w>
ro of
anno tation</w>
forma tions</w>
ar ab</w>
archi ves</w>
re agent</w>
g il
6 8
bur ner</w>
complex scripts
se ed
v ag
initi ator</w>
ax es</w>
whil st</w>
victi m</w>
compe te</w>
tro l
0. 4</w>
cir cles</w>
bb les</w>
m n
adverti sement</w>
pul monary</w>
eth ylene</w>
ta xi</w>
jac k
ab ul
m bered</w>
el ong
preser ved</w>
an gi
condi tioner</w>
enjo yed</w>
crea tivity</w>
fai lover</w>
vari ant</w>
comp iled</w>
legi timate</w>
intermit tent</w>
inter actions</w>
le asing</w>
se man
a ten</w>
p ap
glo ves</w>
wo ven</w>
to oth
slo pes</w>
tur bul
citi zen</w>
ul ated</w>
ri gh
fi res</w>
sig ne
ta o</w>
cabine ts</w>
w h</w>
n ig
i sts</w>
do ver</w>
avoi ding</w>
user name</w>
il le</w>
sa e</w>
h k
f ant
co effici
extru sion</w>
guaran tor</w>
drin ks</w>
liti gation</w>
1. 8</w>
pun ch</w>
sp inning</w>
divi sions</w>
simultan eous</w>
sil ence</w>
intern ally</w>
cl i</w>
explic itly</w>
modern ization</w>
crank case</w>
al i</w>
op a
na vy</w>
prof ound</w>
flav or</w>
pal m</w>
ght ness</w>
wavel et</w>
con tem
furn ish</w>
prosper ity</w>
locomo tive</w>
en force</w>
fil tered</w>
sup pose</w>
modi fier</w>
frequ encies</w>
travel ling</w>
lith ium</w>
it ate</w>
bur ned</w>
a is
vin yl</w>
12 8</w>
re v</w>
tex ts</w>
turbo charger</w>
recep tor</w>
sau ce</w>
elimin ating</w>
consequ ently</w>
pe as
devi ations</w>
2. 7</w>
cater pillar</w>
gr asp</w>
con sor
ci vili
ti bet
sh rink
dig its</w>
pear l</w>
h v</w>
upgra ded</w>
fle x
oper a</w>
0. 00</w>
disper sion</w>
fo ssi
men us</w>
attribu table</w>
el as
bun dle</w>
sen ti
empi rical</w>
trans formed</w>
evacu ation</w>
ener y</w>
dis pose</w>
co ven
met all
li st
an th
l h</w>
el i</w>
break ers</w>
inte ro
d ge
incl ined</w>
sul fate</w>
town ship</w>
gener ations</w>
p ar</w>
pa ys</w>
at or
tari ff</w>
an nex
bi om
assign ments</w>
dec imal</w>
exclu de</w>
cap ital
pic king</w>
enor mous</w>
broad casting</w>
war ming</w>
gr ace</w>
ap ron</w>
p f</w>
conduc tive</w>
pini on</w>
di vor
wor ried</w>
ri ve
refin ed</w>
coeffici ents</w>
lu be</w>
memor an
par c
l c</w>
dis solved</w>
do mains</w>
assess ing</w>
gi a</w>
1. 7</w>
featu red</w>
e sting</w>
aggres sive</w>
ff le</w>
demon strates</w>
groun ded</w>
tem p</w>
sup pression</w>
9. 2</w>
ti res</w>
sk id</w>
anch or
ll a</w>
thy lene</w>
con fined</w>
mus cles</w>
sp s</w>
sh ou
s word</w>
ant a</w>
pe g</w>
spokes man</w>
tor al</w>
en ne</w>
5 8
pursu it</w>
ail ing</w>
z ers</w>
refl ecting</w>
proof ing</w>
man ship</w>
gu izhou</w>
gre e
bi ke</w>
s ap
red und
g t
silic a</w>
optimi zing</w>
public ly</w>
ten ant</w>
interrup t</w>
express ly</w>
co ck
de faults</w>
rad ical</w>
inser ts</w>
format ting</w>
sin o</w>
contro l
telecommun ications</w>
in corporation</w>
ple ased</w>
b alls</w>
anxi ety</w>
clo ses</w>
bo re
embo di
pp m</w>
incre di
accep ting</w>
pi er
cle ar
now ad
correspon d</w>
cen tered</w>
it ment</w>
whe el
deci des</w>
exp ects</w>
ali a</w>
con feren
y ong
ten nis</w>
ol ds</w>
for ging</w>
be ings</w>
1 m</w>
dre w</w>
in verse</w>
horiz on</w>
d t</w>
hear ts</w>
phr ase</w>
nan o</w>
comp rise</w>
pref ec
cu red</w>
4 th</w>
circum stance</w>
5 ,
mongo lia</w>
b iz
tin a</w>
be ds</w>
di al
sa ves</w>
under water</w>
re install</w>
gen tle</w>
es .
ga ining</w>
ma ils</w>
kno b</w>
it ter</w>
is ted</w>
rec k
be ars</w>
vol t</w>
se af
wa y
uni x</w>
suspen d</w>
contro ver
scen es</w>
led ger</w>
di stric
tex as</w>
pp y</w>
gau ges</w>
ro w
end point</w>
resi li
disp ens
ap ps</w>
pesti ci
glu e</w>
d g
en sured</w>
yangt ze</w>
capac it
alde hyde</w>
ill a</w>
gro ws</w>
recru itment</w>
din ing</w>
phys ically</w>
re forms</w>
ari ties</w>
te m</w>
l v</w>
characteri zation</w>
m ile</w>
su ms</w>
com posi
py ro
proxim ity</w>
ur a</w>
quar tz</w>
an ium</w>
po ols</w>
en e
assum ing</w>
pro long
h vac</w>
m v</w>
compul sory</w>
lime stone</w>
ti tles</w>
in y</w>
some where</w>
ple dge</w>
in ti
reci proc
b u</w>
wra pped</w>
sand stone</w>
silic one</w>
plan etary</w>
ori fice</w>
resear ched</w>
y ao</w>
cred its</w>
geo logy</w>
8 00
prepar ations</w>
di stant</w>
li tho
electr ically</w>
od d</w>
spectr al</w>
qu an</w>
affili ates</w>
rou ter</w>
pre val
gla d</w>
bra tions</w>
lo wered</w>
glo bally</w>
gh o
bas ement</w>
plac e
face book</w>
p our</w>
nowad ays</w>
memoran dum</w>
cred itor</w>
h es
inhe rent</w>
ro cket</w>
noti fications</w>
ig nor
li ons</w>
dele tion</w>
hon ey</w>
tab let</w>
pol es</w>
juni or</w>
int act</w>
brilli ant</w>
no tation</w>
li tes</w>
techn icians</w>
public ity</w>
voc abul
6 7
key word</w>
insu rer</w>
tan cy</w>
ma inst
imp eller</w>
er ly</w>
char ter</w>
brea th
itu res</w>
con vin
ch or
abra sion</w>
propy lene</w>
hen g</w>
dres sed</w>
n .
glo ss
requ esting</w>
fi bro
al ge
sanc tions</w>
cy clic</w>
is ter</w>
attrac ted</w>
chro mo
capac ities</w>
deal ers</w>
chro me</w>
cab ling</w>
on es
hygi ene</w>
su its</w>
m ating</w>
ki e</w>
tow ers</w>
fl ags</w>
r s
compres sive</w>
ss l</w>
decor ative</w>
c attle</w>
j b</w>
gor ous</w>
absor b</w>
bre w</w>
hi sto
her o</w>
spl ine</w>
roun ded</w>
la undering</w>
we st
bu ty
assum ption</w>
demo li
log ically</w>
discri mination</w>
memor ies</w>
l as</w>
p board</w>
simpli fy</w>
fri ed</w>
c pc</w>
ep age</w>
sh ak
conserv ative</w>
pregn ant</w>
thef ice</w>
sub mitting</w>
ev a</w>
coron ary</w>
t u</w>
tension er</w>
ex tern
sal es
inter act</w>
fat ty</w>
un install</w>
re am</w>
go s</w>
micro scope</w>
ele mentary</w>
zh i</w>
yu re
5 th</w>
198 8</w>
ad here</w>
analy se</w>
pl en
i re
k id</w>
imperi al</w>
coun ted</w>
flam mable</w>
eth ical</w>
eth anol</w>
por tions</w>
t ches</w>
what soever</w>
fo x</w>
ven tures</w>
te c</w>
r p</w>
as ter</w>
fluctu ation</w>
motiv ation</w>
emplo yers</w>
ep s</w>
associ ations</w>
progres sive</w>
pol yure
ven tric
neigh bor
di m
bal lo
dres sing</w>
kno ck</w>
kid ney</w>
alterna tives</w>
seg reg
respon ding</w>
cardi ac</w>
p assi
a per
roman tic</w>
affili ated</w>
198 9</w>
ma d</w>
liqui ds</w>
it arian</w>
dit ch</w>
repe ti
ash ing</w>
in active</w>
xi ang
stru t</w>
ne o
me ta
gal ax
inser ting</w>
christi an</w>
ca the
di str
sat uration</w>
dat um</w>
w all
bri ghtness</w>
play back</w>
mani fe
ho sted</w>
es h</w>
wide spread</w>
pul p</w>
f 1</w>
metall ur
yiel ds</w>
pass words</w>
par lia
fin der</w>
consum ing</w>
phili pp
f eng
sm tp</w>
far ming</w>
ic e
paten ts</w>
iz ations</w>
p ple</w>
li que
all ine</w>
expen d
comman der</w>
ste els</w>
squ o</w>
re fund</w>
w i</w>
succe ed</w>
six ty</w>
less or</w>
conden sation</w>
1 5.
h ad
tr il
con stru
j v</w>
holi days</w>
broad band</w>
yar n</w>
at uring</w>
secretari at</w>
man n</w>
eng er</w>
in consistent</w>
inven tor</w>
cri mes</w>
ti ger</w>
prolif eration</w>
occa sion</w>
perc eption</w>
swe at</w>
mar kers</w>
gul f</w>
tibet an</w>
fix tures</w>
dan cing</w>
conver gence</w>
fe i</w>
visu ally</w>
wi pe</w>
im migration</w>
dist inguish</w>
qual itative</w>
flash ing</w>
vacc ine</w>
real izing</w>
ini an</w>
deal t</w>
excell ence</w>
m ere</w>
ur ban
fly wheel</w>
ci ble</w>
b ag
star ch</w>
repor ter</w>
embank ment</w>
subscri ber</w>
fi s
earli est</w>
cel lu
dro pping</w>
roll ers</w>
ly m
consisten tly</w>
diplo matic</w>
to ff</w>
ad o</w>
mus ical</w>
i i
fer mentation</w>
5 6
buil ds</w>
o le
ha ir
c 1</w>
sp ic
dis pers
as i</w>
green house</w>
challeng ing</w>
be ans</w>
* **</w>
sa tions</w>
polye thylene</w>
consor tium</w>
v ss</w>
sup port
pa use</w>
eu r</w>
solven cy</w>
cul vert</w>
the at
pri de</w>
im k</w>
electro des</w>
tro pic</w>
un authorized</w>
an si</w>
thor ough</w>
recover able</w>
photo graphy</w>
offici ally</w>
ft p</w>
particip ated</w>
intest inal</w>
es sively</w>
t m</w>
t b
refin ing</w>
r squo</w>
ab bre
war ned</w>
establi shes</w>
adap tation</w>
keep er</w>
dil ution</w>
in an</w>
50 mm</w>
ci d</w>
instruc ted</w>
ama z
thro at</w>
add le</w>
absor bed</w>
win ner</w>
pro spective</w>
petro chemical</w>
distric ts</w>
cou ples</w>
inter nationally</w>
reconc iliation</w>
comp il
rab bit</w>
check list</w>
hi p</w>
en counter</w>
bo x
bach el
expend itures</w>
dum ping</w>
tou ched</w>
photograph s</w>
hat ch</w>
vocabul ary</w>
ful filled</w>
ende av
coura ge</w>
bath room</w>
country side</w>
war rant</w>
impl ic
forec asting</w>
tor x</w>
4 50</w>
hel lo</w>
pack aged</w>
fav our</w>
acc used</w>
wa ist</w>
part ner
shado ws</w>
constitu tes</w>
uni form
ul ate</w>
pen alties</w>
fl ag
swe ep</w>
excav ated</w>
program mable</w>
e motion</w>
direc tories</w>
redund ancy</w>
8 9
op pon
c is</w>
encoura ges</w>
vac ation</w>
swit zer
scra p</w>
g low</w>
illu strates</w>
marg ins</w>
am ps</w>
z hi
duc ts</w>
di shes</w>
ga stri
form ally</w>
bi al</w>
z huang</w>
insul ator</w>
du es</w>
s nu
pro hi
mark ings</w>
coupl er</w>
m one</w>
fe aturing</w>
capsu le</w>
respon sive</w>
poly gon</w>
b oring</w>
un stable</w>
rac ing</w>
b are
cru shed</w>
c ation</w>
op posed</w>
a e
tissu es</w>
terri ble</w>
3. 7</w>
to y</w>
sc enery</w>
correspon dence</w>
revolu tionary</w>
negoti ate</w>
h t</w>
f ou
gu o</w>
zh eng</w>
bo iling</w>
switzer land</w>
nu mbered</w>
ch el
r action</w>
accoun tant</w>
synchron ized</w>
8. 5</w>
h c</w>
wo od
empi re</w>
tran s</w>
l bs</w>
ul ous</w>
has n</w>
dynam ically</w>
de aths</w>
ful ness</w>
d me</w>
boo ts</w>
secre ts</w>
gol d
b en</w>
fi de</w>
eng ages</w>
cli mb</w>
100 0
0. 01</w>
fat al</w>
warran ties</w>
the t</w>
ma d
parlia ment</w>
separ ating</w>
synchron ize</w>
appe aring</w>
b is
re boot</w>
te am
sli des</w>
ver tices</w>
encry pted</w>
x ing
micro structure</w>
cra zy</w>
ec ology</w>
vir tually</w>
ch e</w>
d l</w>
ne ther
vo tes</w>
labor atories</w>
interpre ted</w>
discus sing</w>
in organic</w>
plate au</w>
bud ge
gra ins</w>
as say</w>
ta tional</w>
new spa
sor ts</w>
curren ts</w>
ris er</w>
co ag
dra ma</w>
absor ber</w>
ab u
c z
air line</w>
over ri
an onym
li ang</w>
br ass</w>
aband oned</w>
bott les</w>
un used</w>
through put</w>
wa tering</w>
spo iler</w>
nam ing</w>
mp ics</w>
l as
center line</w>
ligh ter</w>
4. 7</w>
serv ant</w>
privile ge</w>
mis si
ba o</w>
ac ker</w>
10 4</w>
f an
exp o</w>
? ?
ser ver
in sur
bo mb</w>
t angle</w>
mac ao</w>
chlor ine</w>
fluores cent</w>
ire land</w>
ad mi
s ers</w>
no s</w>
col ours</w>
medi ation</w>
chic ago</w>
ty ping</w>
navi g
zh eng
dr illed</w>
mis cel
fro st</w>
floo ding</w>
genu ine</w>
g f</w>
air y</w>
f y
wh el
ur i</w>
po sting</w>
car d
str atum</w>
debu g</w>
aud itor</w>
20 th</w>
coll ections</w>
seal ant</w>
in adequate</w>
emo tions</w>
in fo
coo ked</w>
mul tic
dra matic</w>
bul let</w>
recommen ds</w>
dh cp</w>
butter fly</w>
ambi gu
su zhou</w>
por cel
gran ite</w>
gen tle
zh ang
15 00</w>
tri angle</w>
s ni
angel es</w>
i op
waveleng th</w>
in tui
si ded</w>
surve ying</w>
seas onal</w>
ir regular</w>
m 8</w>
co ver
vi c</w>
chan ces</w>
prin c
pen ing</w>
occa sionally</w>
ll ing</w>
ri dge</w>
miscel lan
y ours</w>
uniform ly</w>
cc er</w>
pa thy</w>
s now
fore ig
communic ating</w>
pra ise</w>
defend ant</w>
str ating</w>
retri eved</w>
reli ably</w>
di electric</w>
expl oring</w>
coun ters</w>
por tu
stra ti
imple ments</w>
foc al</w>
athle tes</w>
p ing
fas test</w>
dt cs</w>
p es
de ed</w>
shoul ders</w>
0 5
am en</w>
st air
so ccer</w>
han dover</w>
el ite</w>
sear ches</w>
work load</w>
newspa pers</w>
af fir
immun ity</w>
mirr ors</w>
dic tions</w>
bor ders</w>
sus cep
pi ano</w>
and re
tu ber
est y</w>
o wing</w>
dra ws</w>
with draw</w>
t ing
stri king</w>
scat tered</w>
n ylon</w>
horizon tally</w>
s 2</w>
d rought</w>
seas ons</w>
ceram ics</w>
cli mbing</w>
ill er</w>
jor dan</w>
f o</w>
sau di</w>
pw m</w>
migr ate</w>
v ec
ten sioning</w>
shi r
im per
ra tion
miscellan eous</w>
che ese</w>
subsi dies</w>
ste ep</w>
reservo irs</w>
fi er
vol ati
provi sioning</w>
or derly</w>
c al</w>
ti lity</w>
reve als</w>
substitu tion</w>
e ag
conc eption</w>
at lan
intero per
j ar</w>
ha w
emer ged</w>
aer ob
pul sion</w>
infec tious</w>
c ade</w>
with drawn</w>
h ing
dis se
graph ite</w>
f d</w>
cay enne</w>
5 000</w>
polyure thane</w>
bad ly</w>
streng ths</w>
tap ping</w>
out sourcing</w>
dis orders</w>
mass age</w>
prob es</w>
bo ats</w>
wei gh</w>
telecommun ication</w>
s as</w>
domin ated</w>
graph s</w>
mo l</w>
he el</w>
ant an
dis charging</w>
cur v
survi v
broad er</w>
summar ize</w>
recei pts</w>
l ment</w>
aero space</w>
qui e
obst acles</w>
transf er
scho ol
avoi dance</w>
af ores
pr u
pix el</w>
m is</w>
k b</w>
weak ness</w>
re st
injec ted</w>
ones elf</w>
fore going</w>
afores aid</w>
work shops</w>
win ds</w>
trol ley</w>
fac ul
db 2</w>
popul ations</w>
hor mone</w>
harv est</w>
compl ies</w>
si tions</w>
car pet</w>
6 ,
tra il</w>
se ve
bo w
willi am</w>
scrat ch</w>
ar rest</w>
wa x</w>
pr iced</w>
ka z
ar rows</w>
d ing
wal ks</w>
ni ght
fil ament</w>
ur ine</w>
remo tely</w>
sa ke</w>
tra in
do ck</w>
guang xi</w>
in den
dr yer</w>
i des</w>
de faul
dr un
ce ase</w>
tri ple</w>
constra ined</w>
o t
abra sive</w>
deduc ted</w>
dele gates</w>
glo mer
ec ho
0. 8</w>
ato ms</w>
cr ank</w>
f lip</w>
skel eton</w>
applic ants</w>
198 6</w>
le tting</w>
v ar</w>
stra tions</w>
rela x</w>
pas sport</w>
milest one</w>
a 2</w>
fl ori
oly mpics</w>
distinc tive</w>
tra ded</w>
hun ting</w>
tou ching</w>
tas k
incen tives</w>
pre fix</w>
k an
ri ver
bed room</w>
dec o
jav as
car t</w>
an hui</w>
f mi</w>
color ful</w>
bin es</w>
m hz</w>
t wi
com m</w>
astr ono
albu m</w>
0 3
s qui
re bar</w>
discipl ines</w>
b ation</w>
con test</w>
sli der</w>
reimbur sement</w>
shiel ding</w>
requ isite</w>
distribu ting</w>
us d
thro wn</w>
pol l</w>
si veness</w>
co res</w>
at om</w>
ci ted</w>
d ication</w>
lubric ate</w>
bil ling</w>
i ron
re mind</w>
merchan dise</w>
de l</w>
cen ts</w>
sr df</w>
harv ard</w>
cal li
for k</w>
develo p
+ +</w>
re ar
par all
ligh tly</w>
de pot</w>
pl n</w>
shr ink</w>
ste pped</w>
stre aming</w>
global ization</w>
can vas</w>
no sis</w>
par a</w>
a di
power link</w>
restor ing</w>
bl ame</w>
recycl ed</w>
thu mb
nether lands</w>
stra w</w>
prof itability</w>
f li
tab lets</w>
run ner</w>
reti red</w>
ultras ound</w>
li ked</w>
ge e</w>
constru ed</w>
is lam
illu minated</w>
aud its</w>
mic ally</w>
mod al</w>
p ad
9 5
bi a</w>
tang ent</w>
st ating</w>
har ry</w>
f lights</w>
cr m</w>
skir t</w>
resi s
human ity</w>
re u
re wards</w>
depen dence</w>
de scen
bum per</w>
s 1</w>
a h
prev ail</w>
i ter
stra ins</w>
gra ve</w>
dispat ching</w>
meaning ful</w>
shrink age</w>
2 b</w>
co ils</w>
rela tives</w>
tu torial</w>
tu bular</w>
medic ines</w>
lik eli
bachel or</w>
tri ps</w>
ble ed</w>
the ater</w>
se ments</w>
ec ho</w>
spec tac
serv ants</w>
our se</w>
morpho logy</w>
comm its</w>
vulner ability</w>
f c
sl ice</w>
poro sity</w>
with holding</w>
porcel ain</w>
ly sis</w>
pe red</w>
sp read
make up</w>
fix ation</w>
7 7
10 3</w>
pal est
ide ological</w>
far m
atten ding</w>
v 2</w>
stu ds</w>
fun ny</w>
chu an</w>
he mor
4. 8</w>
in finite</w>
curv ature</w>
anti bio
incre ment</w>
th ec
lym pho
interf ere</w>
sy ri
replic ated</w>
fran k
nas a</w>
to ys</w>
accep ts</w>
di ode</w>
p to</w>
men d
g mo</w>
ty res</w>
l ds</w>
differen tly</w>
ni um</w>
micro phone</w>
collec tively</w>
teen th</w>
bo b</w>
john son</w>
cham bers</w>
j ade</w>
pain tings</w>
manif est</w>
dark ness</w>
tur k
1 b</w>
se ams</w>
far mer</w>
pa per
nozz les</w>
sequ ential</w>
live stock</w>
titu des</w>
por k</w>
sh en</w>
fl esh</w>
i is</w>
de tention</w>
physi ological</w>
ar gue</w>
zo ic</w>
particul ate</w>
dra ins</w>
after wards</w>
198 4</w>
def end</w>
sta ying</w>
ven e
insul in</w>
ar a</w>
gener alized</w>
198 7</w>
ex emp
vo y
n to</w>
stri ve</w>
po ckets</w>
ji a
ty pe
o em</w>
pro secu
f x</w>
cast le</w>
so m</w>
se epage</w>
me als</w>
10 6</w>
un changed</w>
sy s</w>
b und
plan ar</w>
len ders</w>
sy ll
distribu tions</w>
clam ation</w>
po em</w>
inten ds</w>
assum es</w>
encoura ging</w>
ball ast</w>
pa yer</w>
2 1st</w>
th ful</w>
vol tages</w>
meteor ological</w>
ne g
spac e
revi t</w>
deman ding</w>
aqu eous</w>
eth iop
ne ts</w>
nur se</w>
nor ms</w>
un certain</w>
coun sel</w>
sun shine</w>
promis es</w>
life style</w>
continu ally</w>
al ong
w d</w>
respon ded</w>
communic ated</w>
fran ch
grou t</w>
photo graph</w>
on au
cigare tte</w>
javas cript</w>
sand w
deteri oration</w>
out age</w>
so red</w>
h ba</w>
ch un</w>
seven th</w>
ran ks</w>
shel ls</w>
acknowle dged</w>
transmit ting</w>
ho ping</w>
lau gh</w>
to ggle</w>
is a</w>
1 7.
wai ver</w>
hen ry</w>
enthusi asm</w>
uni qu
constitu tional</w>
cap sul
den cies</w>
com e
pri ori
tril lion</w>
treas ure</w>
prof ession</w>
k nit
group ing</w>
gh ty</w>
compl ied</w>
kine tic</w>
equ als</w>
be verage</w>
protec ts</w>
p ound</w>
b f</w>
complic ations</w>
ric hard</w>
threa tened</w>
co ats</w>
re lic
mo s</w>
upgra des</w>
g ar</w>
boar ding</w>
min ds</w>
regis ters</w>
cali br
trans late</w>
mas ters</w>
arith metic</w>
signe e</w>
or na
tra pped</w>
r pc</w>
te d
atlan tic</w>
clo s
pa vili
la ye
ki m</w>
d airy</w>
6. 0</w>
2. 8</w>
clari fy</w>
poss esses</w>
evi dent</w>
delic ate</w>
tre mend
viol ent</w>
metr e</w>
energi zed</w>
expec tation</w>
wo ods</w>
dissi p
ch at
9. 5</w>
uicontro l</w>
metabo lism</w>
likeli hood</w>
illu min
vil le</w>
com promise</w>
es cence</w>
bio s</w>
so ckets</w>
soy bean</w>
ab ide</w>
inev itable</w>
v t</w>
s ar</w>
pu zz
mus li
en ligh
gra b</w>
seve rely</w>
fif teen</w>
pix els</w>
succ ession</w>
conclu de</w>
initi alized</w>
tri pping</w>
detec tors</w>
law yers</w>
gu id</w>
mb led</w>
in um</w>
reduc er</w>
mi ke</w>
heal ing</w>
prefec ture</w>
9. 3</w>
g ad
refl ective</w>
poe ms</w>
medi an</w>
si eve</w>
mach ined</w>
gen o
commen ce</w>
absor bing</w>
tra des</w>
phosphor us</w>
an alo
poli shing</w>
viol ations</w>
supervi sing</w>
bab ies</w>
interrup tion</w>
wor th
disclo ses</w>
il in</w>
0. 6</w>
oxi des</w>
meth anol</w>
3. 8</w>
cultiv ated</w>
run way</w>
10 8</w>
………… …………
my an
bo dy
politici ans</w>
che mo
preferen tial</w>
net worked</w>
gradu ated</w>
100 ,000</w>
ra y
pla za</w>
fer rous</w>
any ang</w>
20 1</w>
recipi ents</w>
shor tly</w>
accoun tants</w>
sp a</w>
elas ticity</w>
ro me</w>
lu mp</w>
epide mic</w>
stabil ized</w>
it o
inst ability</w>
ris h</w>
ga o</w>
sh ments</w>
subordin ate</w>
up wards</w>
damag ing</w>
alkal ine</w>
w ars</w>
objec tion</w>
in herit
aggreg ates</w>
d amp</w>
busin ess
s ick
tur bines</w>
q u</w>
no ble</w>
re circulation</w>
i v
se mi
fac tor
en closures</w>
d f
wal k
ran ked</w>
le u
aper ture</w>
clari fication</w>
amen d</w>
gran ular</w>
attrac tion</w>
liqui dated</w>
6 9
pro mul
primi tive</w>
c 2</w>
dra matically</w>
de bit</w>
an thro
dy e</w>
composi tes</w>
op ing</w>
run off</w>
resi stor</w>
ch en
hydr ation</w>
exem pt</w>
wholes ale</w>
no min
pac ks</w>
convic tion</w>
mar tin</w>
comm on
ep iso
jo ys
gastri c</w>
laye red</w>
confir ming</w>
r .
defe at</w>
myan mar</w>
g l</w>
f lies</w>
flori da</w>
4 3
p 2</w>
sign atures</w>
fini shes</w>
petro l</w>
isol ate</w>
impl ied</w>
ec h
collabor ative</w>
arbitr ary</w>
1 15</w>
soldi er</w>
ful l
x t</w>
ama r</w>
pr inters</w>
f law</w>
sp inal</w>
scat tering</w>
lin ear
ho ped</w>
c x</w>
benz ene</w>
shoul dn</w>
man g
ec u</w>
b 1</w>
s mu
polymer ization</w>
en co
sw iss</w>
gy p
do sage</w>
cer v
k ai</w>
j 2</w>
war m
rou ghness</w>
hon ey
an es
snap shots</w>
inf ections</w>
coun sel
8. 4</w>
stead ily</w>
senten ced</w>
exam ining</w>
cu lo
cor related</w>
aes the
symp tom</w>
accoun tability</w>
ac ity</w>
6 3
recy cle</w>
pu p
e ther</w>
x ml
sel ls</w>
lap top</w>
acci dental</w>
ace ty
li by
as y</w>
2 30</w>
conce aled</w>
veri fying</w>
small est</w>
ela sto
transpor ting</w>
molec ule</w>
rever sed</w>
pre stressed</w>
pe l</w>
stic ks</w>
loy alty</w>
ar is</w>
rene wed</w>
over whel
inten d</w>
su ited</w>
s lower</w>
s proc
warran ts</w>
oxi di
innov ations</w>
5. 7</w>
lo vely</w>
mol y
o c</w>
mix tures</w>
accru ed</w>
she ath</w>
concep tual</w>
cran es</w>
visc ous</w>
i tes</w>
p oured</w>
gun s</w>
gl ory</w>
bl ad
man eu
exerc ised</w>
cryst alline</w>
appro aching</w>
evap oration</w>
defin ite</w>
customi zation</w>
kil n</w>
diag onal</w>
quali fy</w>
l ings</w>
res is</w>
ortho gonal</w>
ff ed</w>
tun nels</w>
pa ints</w>
lo ops</w>
hyper tension</w>
bon net</w>
un cle</w>
predic table</w>
mu sh
con sign
stimul ation</w>
over sight</w>
san itation</w>
inherit ance</w>
infring ement</w>
gra ded</w>
do w</w>
comple tes</w>
associ ates</w>
acet ate</w>
pu sh
exclu sion</w>
enfor ce
lat tice</w>
w t</w>
ve in</w>
sta dium</w>
ri b</w>
ne ath</w>
sh ri
f 2</w>
- 2</w>
cancel ed</w>
as sured</w>
la tes</w>
do zen</w>
ar g
he res</w>
mor ph
en am
un ci
tion ers</w>
in formal</w>
en tru
cat alogue</w>
syn er
outw ard</w>
s wee
,000 ,000</w>
vir uses</w>
disc ard</w>
comp ile</w>
acceler ating</w>
hor ses</w>
al em</w>
he mo
centur ies</w>
or g</w>
helicop ter</w>
bic ycle</w>
ag it
may or</w>
emplo ying</w>
traff icking</w>
ven ous</w>
aer ial</w>
egy p
7 50</w>
cros sed</w>
adminis tered</w>
divi ding</w>
c vs</w>
as sa
gr ants</w>
fo ster</w>
t z
ga stro
b t</w>
mar ry</w>
pc i</w>
re production</w>
h ull</w>
de w</w>
actu ators</w>
b au
i phone</w>
des per
a qua
pro ves</w>
partner ships</w>
1 11</w>
gen s</w>
acry lic</w>
n es
clos est</w>
tw isted</w>
sun roof</w>
emb ro
rec tangle</w>
con fron
f l</w>
sta ys</w>
tou ch
lumb ar</w>
dy s
refrac tory</w>
50 ,000</w>
sc oring</w>
j ones</w>
dra fting</w>
conve ying</w>
coordin ator</w>
c in</w>
po lish</w>
p its</w>
en roll
clean up</w>
shel ter</w>
ene mies</w>
re location</w>
rac ks</w>
shap ing</w>
s f</w>
dis ability</w>
under neath</w>
re act</w>
compil ation</w>
00 2</w>
… …</w>
k is
na ils</w>
resi sting</w>
repor ters</w>
diversi fied</w>
ph y</w>
man date</w>
jer us
ri sed</w>
n fs</w>
depen dency</w>
premis e</w>
cra w
vic tori
jiang xi</w>
jerus alem</w>
wor e</w>
d ye
the mes</w>
char ge
br icks</w>
s g</w>
ho sting</w>
n in
mil len
fe ars</w>
sel lers</w>
un limited</w>
sp heres</w>
synthe sized</w>
st d</w>
evi den
st ol
perc eived</w>
fil let</w>
oc t</w>
thre w</w>
presen ting</w>
imag ination</w>
p pers</w>
migr ants</w>
da i</w>
rando mly</w>
casu al</w>
accompan ying</w>
parti tions</w>
ex pose</w>
ai res</w>
bure au
scienti st</w>
g age</w>
comprehen sively</w>
ele ph
ra ises</w>
consoli date</w>
am bas
mar x
in land</w>
compu te</w>
am i</w>
v p</w>
impres sive</w>
conc es
4 000</w>
or che
succe eded</w>
geo graphy</w>
dm x</w>
do me</w>
an tic
wit n
ta o
expe di
cele brate</w>
overlap ping</w>
en qui
1. 5
t ale</w>
b ling</w>
str ing
group ed</w>
combus tible</w>
migr ant</w>
hi red</w>
repl ied</w>
sing er</w>
pul ses</w>
pc r</w>
design ate</w>
contribu ting</w>
8 5
industri alization</w>
cou p
targe ting</w>
exp on
198 5</w>
char les</w>
duc k</w>
cl ick
inspir ation</w>
capit a</w>
pi e
te tra
an cho
__ __</w>
jum ped</w>
affor dable</w>
senten ces</w>
spon sored</w>
pur ities</w>
ell a</w>
7 ,
to tal
stere o</w>
sand y</w>
angi o
snap view</w>
lea king</w>
ambas sad
comple mentary</w>
13 5</w>
eff lu
z en
inst antan
av amar</w>
chro mium</w>
6. 6</w>
fasten er</w>
y y
k l
harden ed</w>
flang ed</w>
g w</w>
docu mentary</w>
p ale</w>
ini a</w>
ab sent</w>
merchan ts</w>
de x
h f</w>
dro ve</w>
c mc</w>
pe ts</w>
sel ections</w>
tax able</w>
se ized</w>
popul arity</w>
no tch</w>
19 80</w>
0. 0</w>
qu est</w>
corrup ted</w>
b ite</w>
ru m
t 1</w>
si d</w>
pum ped</w>
isra eli</w>
cat alo
minis ters</w>
dra c</w>
tigh tened</w>
lan es</w>
con current</w>
tec tonic</w>
gas kets</w>
frac tures</w>
telec om</w>
inter views</w>
bl ending</w>
ar i</w>
cerv ical</w>
tex tiles</w>
prolong ed</w>
ar gen
along side</w>
4 a</w>
concer t</w>
car b
am id</w>
it b</w>
cellu lose</w>
yo ke</w>
dan i
le ys</w>
compl ement</w>
th omas</w>
pos sibilities</w>
es co</w>
subsi dy</w>
4 2
ty ped</w>
in correctly</w>
break through</w>
ha ul
im purities</w>
en sis</w>
lia oning</w>
re build</w>
min ous</w>
li ke
photo metric</w>
presi dential</w>
f us
199 0s</w>
cen ti
biom ass</w>
st amped</w>
promo tes</w>
mil e
fl u</w>
em a</w>
plun ger</w>
mainst ream</w>
ac es</w>
refriger ation</w>
note book</w>
2 25</w>
shar ply</w>
en ted</w>
trac es</w>
en i
upri ght</w>
initi ation</w>
ver te
acc red
enjo ys</w>
fon t
d alian</w>
dele tes</w>
jud ges</w>
nucle us</w>
devo ted</w>
cre ep</w>
comp rised</w>
exam inations</w>
f p
commerci ally</w>
stimul us</w>
capacit ance</w>
indem nity</w>
bol ted</w>
6 m</w>
mas ter
gu ang</w>
an gel</w>
rela x
conting ency</w>
__ _</w>
as th
inhib itor</w>
car bi
ar rested</w>
v ol</w>
gradu ation</w>
jo se
down town</w>
dec eler
manag er
str ata</w>
work force</w>
po ta
le ased</w>
gi an</w>
ma bles</w>
an ia</w>
t wit
bu o
py ra
it y
g ong</w>
u d
y en</w>
cont acted</w>
qu asi</w>
m im
in tran
swe den</w>
cour te
ar ises</w>
volcan ic</w>
q ty</w>
mo thers</w>
stabil ization</w>
over lay</w>
form erly</w>
dra ined</w>
inter lock</w>
in visible</w>
fl our</w>
cf r</w>
reci pe</w>
de pressed</w>
cn c</w>
g sm</w>
succ essive</w>
st ors</w>
ch airs</w>
wild life</w>
investig ating</w>
fol ded</w>
dimen tary</w>
bu bbles</w>
tigh tness</w>
is er</w>
evapor ator</w>
substitu ted</w>
shad ing</w>
s ance</w>
affili ate</w>
observ ing</w>
&g t;
sa tel
du tch</w>
pc b</w>
attribu ted</w>
uk ra
ol dest</w>
con gr
as e
bul l</w>
over night</w>
mobil ization</w>
sh un
he mi
boo king</w>
sul fide</w>
joys tick</w>
pota to</w>
wind shield</w>
neighbor hood</w>
cryst alli
down loading</w>
ron g
s f
t su
facul ty</w>
bit ter</w>
ge on</w>
conven tions</w>
volunte er</w>
sh ang
appe tite</w>
st un
n ish</w>
ver sa
la kes</w>
down time</w>
u ter
pro sec
al isation</w>
remedi es</w>
mean ings</w>
ad mit</w>
25 5</w>
sen ate</w>
groo ves</w>
tra ys</w>
si m</w>
fi d</w>
soli di
st ness</w>
extingui shing</w>
pol ation</w>
institu tes</w>
compe ting</w>
certi fy</w>
n y
mat ory</w>
ur anium</w>
terror ist</w>
anc est
syste matically</w>
sa iling</w>
remain der</w>
habit at</w>
fr ank</w>
pede strian</w>
claim ing</w>
mi zed</w>
car to
by e</w>
yu e</w>
who ever</w>
landsc ap
motor cycle</w>
illu strate</w>
anchor age</w>
ess ay</w>
disman t
p anda</w>
be ad</w>
electro static</w>
soci alism</w>
re dem
m f</w>
garden s</w>
bac teri
m all</w>
6 2
inter change</w>
y ards</w>
philipp ines</w>
redem ption</w>
pain ful</w>
a ve</w>
s labs</w>
la dies</w>
iner tia</w>
diagno sed</w>
ac c</w>
le vi
homo geneous</w>
del icious</w>
explo red</w>
on ate</w>
n ested</w>
lo ves</w>
hun gr
scal ability</w>
enroll ment</w>
blow n</w>
prescri ption</w>
stimul ate</w>
cru shing</w>
plas ter</w>
sc i</w>
pick up</w>
er ase</w>
dra ining</w>
ti bet</w>
peri od
be sto
infer ior</w>
cha os</w>
rel uc
fil ls</w>
entrepreneur s</w>
kaz ak
gar ment</w>
gu es</w>
gi e</w>
economi sts</w>
out bound</w>
ra m
ne ys</w>
in bound</w>
distur bed</w>
l r
any more</w>
t x</w>
retro spect</w>
forec asts</w>
recti fier</w>
qu et</w>
jewel ry</w>
prev ailing</w>
over time</w>
miti gate</w>
human itarian</w>
head light</w>
1 200</w>
in sensitive</w>
sum p</w>
si ll</w>
id ler</w>
10. 1</w>
vis itor</w>
author ize</w>
myo cardi
mar s</w>
tac tics</w>
pressur ized</w>
ori tes</w>
con sume</w>
pp ings</w>
le an
h alo
den ted</w>
stabil izer</w>
ro cker</w>
long est</w>
in compatible</w>
t p
pi wis</w>
aerob ic</w>
op tionally</w>
for th
au ditors</w>
so m
over write</w>
clu bs</w>
extrac ting</w>
r ms</w>
re ta
look up</w>
do zens</w>
coordin ating</w>
adequ acy</w>
gar age</w>
o mission</w>
i k</w>
un clip</w>
rota tional</w>
recover point</w>
b iting</w>
assign s</w>
g .
do or
accor d</w>
experi encing</w>
work sheet</w>
scaff old</w>
congr at
: :</w>
interoper ability</w>
es cent</w>
end less</w>
sun g</w>
rul er</w>
extern ally</w>
presen tations</w>
hei ghts</w>
satel lites</w>
j am</w>
7. 6</w>
un qualified</w>
back rest</w>
he dging</w>
eth yl</w>
char m</w>
pat ches</w>
harb or</w>
champi on
ai ded</w>
tremend ous</w>
retar dant</w>
form alities</w>
reco vering</w>
frac turing</w>
re tail
eff ected</w>
k iss</w>
5 ,000</w>
ingredi ent</w>
adap ters</w>
ur s</w>
anti body</w>
re t
audi ble</w>
sp ouse</w>
s ab
g ons</w>
bul le
fin es</w>
replic ate</w>
cryst als</w>
con fusion</w>
t aper</w>
med ication</w>
go ds</w>
posi tively</w>
re ls</w>
&gt; &gt;</w>
perf ection</w>
sco w</w>
hydro static</w>
anc illary</w>
ton nes</w>
anonym ous</w>
wh ist
organ ism</w>
uni ons</w>
pi gs</w>
parame tric</w>
geo technical</w>
finan ci
sal v
al izer</w>
gyp sum</w>
g mt</w>
s ings</w>
fac ies</w>
elec tions</w>
str and</w>
che aper</w>
sh ale</w>
y ing
ine a</w>
re g</w>
commission ed</w>
web sphere</w>
poli shed</w>
shad er</w>
cha p</w>
quie tly</w>
hungr y</w>
30 4</w>
pe d
lun ar</w>
s its</w>
deleg ated</w>
19 th</w>
rul ed</w>
dow ns</w>
gen cy</w>
do sing</w>
si len
d are</w>
aqua tic</w>
a res</w>
g d</w>
foot print</w>
regis tering</w>
ei a</w>
tr ash</w>
5 9
pac kets</w>
fas tened</w>
campaig ns</w>
bit ors</w>
rain y</w>
di v</w>
3 a</w>
b cm</w>
enjo ying</w>
ning bo</w>
tor ch</w>
rup ture</w>
spec tra</w>
sp ine</w>
peri meter</w>
ri er</w>
enhan cements</w>
ventric ular</w>
ste ll
h plc</w>
desc ent</w>
lec ture</w>
n this</w>
rou ted</w>
resi dues</w>
no ting</w>
da te
ammon ium</w>
vibr ating</w>
embar r
cushi oning</w>
assign ing</w>
un even</w>
oste o
fe ree</w>
clean liness</w>
su icide</w>
s our</w>
far ms</w>
prec ast</w>
ic p</w>
un clear</w>
refl ec
4 m</w>
v ine
plat inum</w>
econo mist</w>
ch u</w>
ver bal</w>
mo scow</w>
fossi l</w>
chap ters</w>
ai c</w>
cultiv ate</w>
supple mental</w>
lon ely</w>
inter locking</w>
di sh
zh en
de m</w>
cf cf</w>
vir al</w>
re b
peti tion</w>
b bed</w>
al es</w>
i drac</w>
gu s</w>
influ ential</w>
per pe
trac eability</w>
us al</w>
ultra violet</w>
relic s</w>
w ers</w>
insec ts</w>
la g</w>
organis ations</w>
nation wide</w>
ma tive</w>
sat a</w>
e i</w>
mess enger</w>
t ching</w>
plu gged</w>
ni ghts</w>
2 10</w>
retail ers</w>
phys ician</w>
dis connecting</w>
cap illary</w>
acces sibility</w>
no v</w>
transmit ters</w>
cu ps</w>
ide ology</w>
gu an
h ath</w>
hemor rh
ec lip
divor ce</w>
elong ation</w>
wh is
is y</w>
d sp</w>
tra ders</w>
obli ged</w>
thel ial</w>
bin der</w>
format ted</w>
comp ass</w>
volati lity</w>
de sh</w>
char ity</w>
accred itation</w>
spir its</w>
cri tics</w>
re el</w>
pa ving</w>
na ked</w>
mode lling</w>
acqui sitions</w>
per taining</w>
cardio vascular</w>
loc alization</w>
windo w
dis advantages</w>
tum ors</w>
100 mm</w>
bre e
at y
pr one</w>
ken ya</w>
c ds</w>
do ms</w>
evol ved</w>
pavili on</w>
ep er</w>
aly sis</w>
o zone</w>
n error</w>
cont acting</w>
analy tic</w>
promp ts</w>
hydr ate</w>
mb ed</w>
foun ding</w>
t our
pol and</w>
ye arly</w>
ol ding</w>
su itability</w>
work book</w>
sub way</w>
ili an</w>
compa res</w>
altern ating</w>
buddh a</w>
sour ced</w>
mile age</w>
thermo meter</w>
n sr
ans u</w>
fluor o
indic es</w>
sti r</w>
17 0</w>
wan na</w>
no tion</w>
j en
seman tic</w>
w er
coun ties</w>
aggreg ation</w>
hea ters</w>
jo e</w>
bul k
bed ding</w>
ly wood</w>
comple teness</w>
k ang</w>
th a</w>
ji m</w>
cry pto
sedi mentation</w>
activ ating</w>
sett ling</w>
iner t</w>
reu ters</w>
pho en
cor n
el ect</w>
rhyth m</w>
com b</w>
bo m</w>
la ys</w>
consu mables</w>
sub merged</w>
conver ts</w>
sign aling</w>
in tra</w>
abdo minal</w>
= =
ur ge</w>
pre defined</w>
ach i</w>
replac es</w>
d ine</w>
ste ms</w>
mur der</w>
exerc ising</w>
b es
f .
prof itable</w>
oun ding</w>
f uses</w>
p oul
or um</w>
ste ve</w>
for ged</w>
dra wer</w>
pro active</w>
erec ted</w>
intru sion</w>
constitu ted</w>
al ex
na to</w>
3 16</w>
stra ps</w>
sion ed</w>
1 up</w>
we tland</w>
acc ent</w>
trus s</w>
d ney</w>
7 8
con forms</w>
tap es</w>
syste mic</w>
ero om</w>
de sulfur
co de
ca o</w>
de rer</w>
alleg ed</w>
stret ched</w>
op tics</w>
bu tter</w>
mang anese</w>
har t</w>
dis pos
relax ation</w>
meth yl
v ane</w>
o b</w>
revi se</w>
islam ic</w>
ha inan</w>
sh y</w>
str ang
urban ization</w>
wor ship</w>
s cu
ven s</w>
il lic
b bing</w>
0 4
day light</w>
ab c</w>
sacri fice</w>
qi an</w>
den g</w>
dis ser
co stly</w>
x .
tag name</w>
buck le</w>
mon u
diagno se</w>
pi gment</w>
mem bered</w>
inflam mation</w>
man power</w>
go d
blad der</w>
kun ming</w>
u h</w>
in sect</w>
statis tic</w>
mo ther
sy l
st acked</w>
mb er
theore m</w>
civili an</w>
confi sc
c ers</w>
multi lateral</w>
b led</w>
acqui ring</w>
dra gging</w>
for gotten</w>
attenu ation</w>
sur fac
territ ories</w>
he pa
in solvency</w>
cast ings</w>
sa x
pois oning</w>
mode st</w>
an ism</w>
an i</w>
un prece
ste n</w>
moun tain
sovere ign</w>
si fication</w>
cor ru
distill ation</w>
retri eving</w>
t g</w>
mirr or
sh rou
sh ang</w>
no vels</w>
fol ds</w>
summar izes</w>
sc and
reno vation</w>
conve y</w>
it an</w>
h its</w>
pe ers</w>
da e</w>
sal aries</w>
subscri be</w>
o thing</w>
dec ay</w>
wol f</w>
o v
intrin sic</w>
d ash</w>
g ary</w>
cl arity</w>
where by</w>
person alized</w>
micro computer</w>
fra u
198 2</w>
shi fted</w>
end ur
col oured</w>
multi meter</w>
interpre t</w>
en t
di m</w>
work manship</w>
sco red</w>
di g</w>
clin ton</w>
bud gets</w>
wave form</w>
work piece</w>
pi st
contin ent</w>
den y</w>
g ansu</w>
empha sized</w>
b ail
man ned</w>
disc ar
wh ite
mem orial</w>
10. 2</w>
remin der</w>
rel ying</w>
harden ing</w>
a ked</w>
carb ons</w>
re mit
actu ation</w>
isol ating</w>
du plex</w>
gri ds</w>
g ur
fa ke</w>
trac ked</w>
j ane</w>
colon y</w>
as ci
zo le</w>
o ts</w>
der ness</w>
coo k
na val</w>
exp ecting</w>
check box</w>
z y
ne wer</w>
inva sion</w>
marg inal</w>
ec d</w>
st air</w>
rela xed</w>
qual comm</w>
puni shed</w>
ori ous</w>
acknowle d
mean time</w>
es c</w>
be vel</w>
age ing</w>
to w</w>
qi ang</w>
satis fying</w>
mar ble</w>
in hibition</w>
i fc</w>
gran ting</w>
s q</w>
hi ding</w>
like wise</w>
develop mental</w>
scre wed</w>
k h
ho pper</w>
hierarch ical</w>
thu mb</w>
p ag
for cing</w>
cali brate</w>
c lif
addi tions</w>
stri pping</w>
mr i</w>
kine tics</w>
te ful</w>
ch ester</w>
myocardi al</w>
dis appear</w>
u li
magni fic
galax y</w>
su re
ho mel
sym metry</w>
pro pulsion</w>
foreig ners</w>
er al</w>
x 1</w>
r inging</w>
co in</w>
xi de</w>
r d
ht m</w>
tro py</w>
theat re</w>
termin ology</w>
sor ted</w>
sin c
incorpor ating</w>
tempor al</w>
in hal
hetero geneous</w>
ass ing</w>
8 6
parc el</w>
in gh
disrup tion</w>
counter measure</w>
cong res
co inci
an der</w>
carbi de</w>
l us
wind screen</w>
s n</w>
dis engage</w>
12 1</w>
tr i</w>
stol en</w>
uni formity</w>
hypo thesis</w>
w o</w>
gam ma</w>
sha king</w>
h eng
reason ing</w>
guar ding</w>
tra ge
a v</w>
5 a</w>
wea thered</w>
tern ary</w>
len ec
in comes</w>
convin ced</w>
e ti
1 12</w>
el u
consider ably</w>
au x</w>
instantan eous</w>
vill agers</w>
pay roll</w>
j a</w>
intermedi ary</w>
deman ded</w>
civil ized</w>
champi on</w>
bur y</w>
preval ence</w>
on er</w>
bare ly</w>
swi vel</w>
obstruc tion</w>
visu alization</w>
gly cer
appro ving</w>
ta ted</w>
rail ways</w>
entrepreneur ship</w>
sna ke</w>
cre atures</w>
exhi bits</w>
super inten
at t</w>
pene tra
inst antly</w>
expres sing</w>
over due</w>
n p</w>
μ m</w>
conc ession</w>
metro pol
cri tici
speci alists</w>
9. 4</w>
x l</w>
princ ess</w>
hydro gen
the es
solven ts</w>
reg ret</w>
techn ically</w>
shir ts</w>
spl ice</w>
prob able</w>
res or
pol arization</w>
descrip tor</w>
stro kes</w>
high ways</w>
0 2
st acking</w>
rigi dity</w>
disp en
ar k</w>
hear t
ex changed</w>
se ize</w>
in trac
fiel d
sinc ere</w>
pol ar
ex tin
rever sing</w>
re lla</w>
ad ol
we ren</w>
diame ters</w>
cra fts</w>
ar cha
prec ur
3 ds</w>
gen us</w>
air borne</w>
vi sta</w>
condi tioned</w>
swi m</w>
ref usal</w>
counter parts</w>
fil e
t as</w>
r 2</w>
k al
bat ches</w>
neg ligence</w>
de ple
t ate</w>
integra tes</w>
in ated</w>
hor se
ann ular</w>
sp ill</w>
correc tions</w>
steril ization</w>
it a</w>
w ang
un supported</w>
mo oring</w>
fra gr
argu ed</w>
rever sible</w>
n au
he pati
estim ating</w>
eigh th</w>
d c
acti ve
er p</w>
simul ator</w>
lac king</w>
inven tories</w>
intran et</w>
tr ick</w>
unprece dented</w>
f b
or ly</w>
under go</w>
mi l</w>
conf used</w>
pat rol</w>
mul tin
view point</w>
fi l</w>
fluores cence</w>
dis appeared</w>
j as
pl ur
neighb ors</w>
my steri
counter party</w>
any body</w>
nor th
hol lywood</w>
supple mented</w>
str an
stipul ations</w>
k u</w>
inven ted</w>
recogn izing</w>
pan ic</w>
ho pe
qi an
sl a</w>
emergen ce</w>
d ants</w>
fe b</w>
t ones</w>
se iz
expi res</w>
jack son</w>
for fe
st asis</w>
in scri
biz talk</w>
ben ds</w>
pursu ing</w>
k its</w>
cele br
rein force</w>
jun c
mil i
ir revoc
fran cisco</w>
warm th</w>
up set</w>
thes es</w>
expndtw 1</w>
occup y</w>
7 00
read iness</w>
extrac ts</w>
bu g</w>
un acceptable</w>
le i
authen tic</w>
revi sions</w>
lu g</w>
2 ,000</w>
om itted</w>
l f</w>
wit nesses</w>
execu table</w>
amaz on</w>
op y</w>
inf ar
imp aired</w>
quali fying</w>
numb ering</w>
bo ilers</w>
nutri ents</w>
o yang</w>
symbo lic</w>
gram mar</w>
ri o</w>
chol es
anti oxi
sym metrical</w>
jer sey</w>
shen yang</w>
thef er</w>
gu inea</w>
stere o
calcul ates</w>
up un
in appropriate</w>
cr acked</w>
ma ize</w>
aff air</w>
engine ered</w>
tra jec
subjec tive</w>
s welling</w>
change able</w>
susta in</w>
l r</w>
deci ding</w>
lear ners</w>
en a</w>
v r</w>
tradi tionally</w>
ye ast</w>
8 m</w>
enhan ces</w>
ll c</w>
ti ary</w>
poul try</w>
enco der</w>
co w</w>
tar ily</w>
sur round
3 20</w>
vi er</w>
ti zing</w>
ke en</w>
inter connection</w>
se dimentary</w>
dis ab
mil an</w>
li ver
af t</w>
sil t</w>
un esco</w>
il lo
sc or
inspec tors</w>
can ister</w>
doc tr
cl ero
stri kes</w>
popul ated</w>
coupl ings</w>
ac upun
pul ver
ong jiang</w>
ou rable</w>
phoen ix</w>
resol ving</w>
diff ers</w>
ce ph
shi pments</w>
lubric ants</w>
embodi ment</w>
sh eng
nutri ent</w>
gi es</w>
den tally</w>
see ks</w>
main frame</w>
bul l
stret ching</w>
manipul ation</w>
m uni
m q
air flow</w>
adver sely</w>
sh ear
expo sures</w>
el ap
sc s</w>
princi p
an terior</w>
pe aks</w>
er y
bur ns</w>
mirror view</w>
strugg ling</w>
xi amen</w>
ste pping</w>
ma m
spl itting</w>
mechan ically</w>
un safe</w>
tero l</w>
discre pancy</w>
fe eds</w>
ed it
blo s
ro pes</w>
pro tru
ro t</w>
apo pto
re membered</w>
p eng
wi den
lu gs</w>
trans plantation</w>
syste m
sub mer
hepati tis</w>
clus tering</w>
gir l
de ton
cam bo
refriger ator</w>
tion .
ref uses</w>
gr ating</w>
bott lenec
resear ching</w>
nig er
cos me
hi ring</w>
fle w</w>
tra iner</w>
pron oun
deteri or
perc ep
9 00
stu pid</w>
ir radiation</w>
farm land</w>
some how</w>
so a</w>
lo ving</w>
com positions</w>
k ai
sp ell</w>
mys tery</w>
insi ghts</w>
e pers</w>
reli es</w>
ph an
enfor ced</w>
o e</w>
don or</w>
confir ms</w>
as y
conferen ces</w>
ambassad or</w>
12 3</w>
well head</w>
pres ses</w>
xin hua</w>
blan ket</w>
spi der</w>
o genic</w>
licen sor</w>
work out</w>
vic inity</w>
se wing</w>
man kind</w>
proc ur
mu tation</w>
met a</w>
inde xing</w>
p sm</w>
explo sives</w>
dru ms</w>
air plane</w>
sub tle</w>
fu me</w>
fulfil lment</w>
d al
distribu tors</w>
a 4</w>
tra its</w>
sproc ket</w>
he m</w>
cat astro
explan ations</w>
gu m</w>
. net</w>
sea water</w>
moul ding</w>
le ds</w>
shi p
cc s</w>
bab a</w>
shiel ded</w>
origin ated</w>
n 1</w>
import antly</w>
inflam matory</w>
ho sti
lab eling</w>
rub bing</w>
on shore</w>
l on</w>
impac ted</w>
ob server</w>
comman ded</w>
in ction</w>
an ce
5 1
surve y
pe i</w>
t 2</w>
compres sors</w>
s addle</w>
o on</w>
la m</w>
3 500</w>
vi ties</w>
pi e</w>
trigg ers</w>
soci eties</w>
ari um</w>
obst acle</w>
fier ce</w>
ol ite</w>
to yo
inhi bit</w>
inher ited</w>
under takes</w>
sh er
liber ty</w>
tun g
gra dual</w>
good will</w>
bur nt</w>
re sting</w>
mono poly</w>
en gra
da wn</w>
ap t</w>
ano de</w>
cx 4</w>
endur ance</w>
explo it</w>
arri ving</w>
inspec ting</w>
neutr on</w>
it ated</w>
hepa tic</w>
j ilin</w>
le ep</w>
8 ,
simpl icity</w>
trans forming</w>
5 4
9 7
tuber culo
surround ings</w>
relev ance</w>
plu mbing</w>
decor ated</w>
rin se</w>
be have</w>
g ical</w>
ca tering</w>
af fixed</w>
revo ked</w>
allow ances</w>
un a</w>
de formed</w>
cc b</w>
sh ings</w>
senti ment</w>
fic tion</w>
sh am
ure a</w>
y ong</w>
spa res</w>
illic it</w>
deplo ying</w>
p he
o ms</w>
cal ori
sa int</w>
lock out</w>
lif ts</w>
bit map</w>
re connect</w>
per tin
am ber</w>
m ess</w>
head ers</w>
cr mk</w>
ign ant</w>
cas cade</w>
pe pper</w>
migra ted</w>
lamin ated</w>
t work</w>
crow ded</w>
cou rier</w>
0. 25</w>
st ure</w>
rota ted</w>
us e
ter tiary</w>
p ray</w>
qin ghai</w>
dist inction</w>
al izes</w>
journ als</w>
l m</w>
dy nas
fron tier</w>
dye ing</w>
si gh
activ ates</w>
be ating</w>
m 1</w>
mis match</w>
instruc t</w>
t l</w>
evol u
buddh ist</w>
70 s</w>
10 7</w>
shi m</w>
d x
jose ph</w>
dop pler</w>
su itably</w>
seg mentation</w>
announ ce</w>
sta in</w>
compens ated</w>
co aching</w>
scan ned</w>
k m2</w>
ie ee</w>
arc tic</w>
13 2</w>
pra g
id able</w>
authentic ity</w>
demoli tion</w>
cli pboard</w>
key words</w>
win ch</w>
under ta
198 0s</w>
h our
cat ching</w>
au g</w>
approxim ation</w>
sn mp</w>
la o</w>
educ ated</w>
t ful</w>
r us</w>
me i
4 28</w>
nor m</w>
plu g
ei ve</w>
cycl ing</w>
cu bic
boo lean</w>
commis sions</w>
depen dencies</w>
defici encies</w>
la den</w>
50 m</w>
ste el
indu ce</w>
ra p
ip v6</w>
conduc ts</w>
att acked</w>
can ti
a a
there on</w>
schol ar
scre en
sc m</w>
pi pe
tem p
trau ma</w>
recep tac
lay outs</w>
di r</w>
boo th</w>
re sts</w>
qu in
propor tions</w>
collap sed</w>
bar ge</w>
adjus ter</w>
un il
gi gab
flo oring</w>
republic an</w>
ec centric</w>
disser tation</w>
ti fication</w>
as leep</w>
ren amed</w>
pri est</w>
pep tide</w>
fo ol</w>
bang la
po et</w>
surpri sing</w>
cri min
mar sh
inc l</w>
simil arity</w>
it i</w>
no. 1</w>
bo red</w>
det ach</w>
5 3
witn essed</w>
toyo ta</w>
pun c
figh ter</w>
b ang</w>
plo ts</w>
munici pal
sty rene</w>
c ss</w>
tap ered</w>
inter ing</w>
mu st
fon ts</w>
marke t
bi an</w>
fil es
emb assy</w>
bitu men</w>
at m</w>
bu mp</w>
n 2</w>
cri ed</w>
cler k</w>
sub set</w>
ul arity</w>
occa sions</w>
pal let</w>
and y</w>
mil ls</w>
em an</w>
alph ab
ur i
reli ance</w>
pollu ted</w>
empha size</w>
acupun cture</w>
sur render</w>
spon taneous</w>
p 2
stic king</w>
s ine</w>
ref err
po o
mor ality</w>
dri ve
shor ten</w>
ad den
virg in</w>
remedi al</w>
n please</w>
em itted</w>
ch y</w>
tt able</w>
cataly sts</w>
air ports</w>
! !!</w>
neighb or</w>
illu minate</w>
em en</w>
vari an</w>
m our
l v
compe tency</w>
br ace</w>
z hou
cc tv</w>
bus bar</w>
8 7
k ins</w>
fer ro
hand book</w>
inter nation
fr s</w>
war n</w>
grass land</w>
bre ed</w>
m ast</w>
or th
li vel
ani mated</w>
nar rative</w>
tuberculo sis</w>
lo red</w>
de an</w>
justi fied</w>
vou chers</w>
inc iner
ber lin</w>
2 32</w>
environ mentally</w>
ren min
indemni fy</w>
ap ped</w>
dep ths</w>
contribu tes</w>
und p</w>
si l</w>
bo p</w>
sy dney</w>
arri ves</w>
e go</w>
spac ec
robo ts</w>
pill ars</w>
oscill ation</w>
j et
po ison</w>
en ic</w>
inter polation</w>
incl ination</w>
atten dant</w>
proced ural</w>
m ite</w>
ho st
brow sing</w>
on ia</w>
name plate</w>
co stu
ter ran
per spec
neur ons</w>
gener ous</w>
2 mm</w>
spread sheet</w>
prospec ting</w>
micro processor</w>
ad am</w>
ni ke
ex its</w>
thermo stat</w>
vo ters</w>
swe pt</w>
er up
youn g
simul ating</w>
gra ft</w>
ste er</w>
i f
mes ter</w>
la ter
re tin
len ses</w>
ca i</w>
compu tational</w>
renmin bi</w>
an ian</w>
sub ur
le ments</w>
fluctu ations</w>
f ought</w>
vor tex</w>
nutri tional</w>
borro wed</w>
dic t</w>
consul tancy</w>
sub marine</w>
ni al</w>
har sh</w>
he al</w>
gam ing</w>
dat a
shim s</w>
m bo
j u</w>
electr ons</w>
st amping</w>
overri des</w>
ne at</w>
oh ms</w>
mon key</w>
thro wing</w>
mon d</w>
s man</w>
b roo
tre ad</w>
spac ed</w>
j o</w>
ho c</w>
d 1</w>
back fill</w>
ap y</w>
tern ity</w>
simul ations</w>
sym metric</w>
prosec ution</w>
emer ge</w>
vi p</w>
jud gement</w>
sugge sting</w>
b read
dw f</w>
sof t
pati ence</w>
ha o</w>
17 5</w>
ti des</w>
land fill</w>
to mb</w>
ri val</w>
hal f
cur b</w>
gla zing</w>
arab ic</w>
advan cement</w>
h 2</w>
ach able</w>
ten th</w>
sandw ich</w>
road way</w>
re trac
puri fied</w>
25 6</w>
righ te
commen ced</w>
fav orites</w>
conting ent</w>
ci ve</w>
bitu minous</w>
de v</w>
st all</w>
l end</w>
car ib
manager ial</w>
prop he
di gi
cont actor</w>
k ling</w>
ol i</w>
neighb oring</w>
bun ch</w>
12 2</w>
wen zhou</w>
ra bb
lit re</w>
volu metric</w>
ti dal</w>
po steri
ch on
o od</w>
con currently</w>
recur rence</w>
st at
shu tter</w>
protec tor</w>
ban ner</w>
7. 0</w>
laun dry</w>
dec ent</w>
frag ments</w>
at ric</w>
sc aled</w>
fe tal</w>
refin ery</w>
municipal ities</w>
ear ning</w>
pollu tant</w>
dani el</w>
6. 7</w>
subscri ptions</w>
re started</w>
poly propylene</w>
construc tor</w>
under stands</w>
ten dering</w>
di stress</w>
impl ies</w>
sou th
pro test</w>
ch in</w>
thir ds</w>
th ank
ta ils</w>
shi re</w>
resear cher</w>
q l</w>
ti ered</w>
ye ar
am ong
on set</w>
le x</w>
feed water</w>
ad venture</w>
me a</w>
tra ps</w>
di ar
n ac
incredi ble</w>
fe min
r up</w>
mysteri ous</w>
log istic</w>
gen ital</w>
emergen cies</w>
clus tered</w>
t tes</w>
under writing</w>
dynas ties</w>
pli ers</w>
pen insul
less er</w>
dil uted</w>
view ers</w>
ballo on</w>
tal ented</w>
ph en</w>
constitu ents</w>
un dance</w>
fron t
drun k</w>
threa tening</w>
men tations</w>
projec tions</w>
a ren
e ms</w>
twit ter</w>
r sa</w>
6 th</w>
uicontro l
dang ers</w>
0. 7</w>
re actors</w>
n b</w>
at al</w>
aro matic</w>
trou gh</w>
liter ally</w>
na p</w>
presen tly</w>
dismant ling</w>
assi sting</w>
op ec</w>
al together</w>
diff use</w>
referen cing</w>
the fic
sli p
shu n</w>
at titudes</w>
am y</w>
gi um</w>
millen nium</w>
l oun
ga y</w>
for warding</w>
mol ten</w>
i us</w>
fe males</w>
at f</w>
lo bby</w>
cro w</w>
te ment</w>
sp ill
bo mb
30 1</w>
198 3</w>
pre dec
on site</w>
scal able</w>
tr onic</w>
n ai
as ean</w>
qu er</w>
tac tical</w>
sc ru
mo ses</w>
ji ao</w>
home work</w>
bi ped</w>
lia ison</w>
dat or</w>
competi tor</w>
qu orum</w>
sc ada</w>
5. 8</w>
ch ar</w>
rain water</w>
arab ia</w>
st aging</w>
r al</w>
com ed</w>
h l</w>
fe tch</w>
is ons</w>
c ant</w>
loc alized</w>
deri ve</w>
vol ta
conve x</w>
efflu ent</w>
expi re</w>
e ager</w>
flu idi
ess ors</w>
1 14</w>
fe red</w>
li mb</w>
electron ically</w>
perspec tives</w>
land slide</w>
venti l
su f
e b</w>
b b</w>
ming ly</w>
r in</w>
r hi
cat s</w>
ug ly</w>
rub b
lea p</w>
exhaus ted</w>
electro chemical</w>
ur ged</w>
ma gi
catho de</w>
dis k
actu ated</w>
fri gh
bar code</w>
path way</w>
ght ful</w>
medic inal</w>
finan ced</w>
dec ree</w>
vit ality</w>
he il
fas cin
t ched</w>
tou gh
corru gated</w>
10 9</w>
r ons</w>
n do</w>
egyp tian</w>
pro fici
la sts</w>
c rest</w>
kne es</w>
call er</w>
spacec raft</w>
pre mature</w>
magnific ent</w>
cohe rent</w>
sti ff</w>
f g</w>
&ke t;
p pe</w>
dis bur
abbre vi
zo o</w>
among st</w>
5 2
s ne
manipul ator</w>
bo se</w>
re settlement</w>
an e
stres sing</w>
inno cent</w>
d as</w>
pie zo
nd t</w>
0 9
un paid</w>
o par
d h</w>
our ite</w>
ware housing</w>
choles terol</w>
in sure</w>
emb race</w>
deep en</w>
id ity</w>
hun t</w>
sur round</w>
ow ed</w>
inde xed</w>
tri angular</w>
cosme tics</w>
co s</w>
weigh ed</w>
au c
gu o
missi les</w>
re now
recur ring</w>
infar ction</w>
diff raction</w>
all u
ag ile</w>
da h</w>
wat ch
tac kle</w>
re sign
n ab
mi ghty</w>
le x
head set</w>
bulle tin</w>
courte sy</w>
renow ned</w>
dee pening</w>
sing ly</w>
cu taneous</w>
bangla desh</w>
gho st</w>
lu x</w>
and er
hyper link</w>
clif f</w>
tr ick
boun ded</w>
sub net</w>
pe dest
b 2</w>
7. 8</w>
3. 9</w>
insi st</w>
ic h
al te
ad minister</w>
refl ections</w>
datas et</w>
ti ze</w>
ar ro
1. 9</w>
pl ess</w>
war ri
optimis tic</w>
nur ses</w>
m 10</w>
k ang
bra ve</w>
fant astic</w>
ab undance</w>
acknowle dges</w>
res ins</w>
kn it</w>
hibi tions</w>
vi brations</w>
im s</w>
hydra ul
gh ters</w>
es oph
replac eable</w>
re side</w>
fi xes</w>
earthqua kes</w>
on able</w>
kazak h
fav ourite</w>
dr al</w>
hydro carbons</w>
f uc
respec ted</w>
recogn izes</w>
; &bar;</w>
&bar ;&bar;</w>
wel comed</w>
wa ited</w>
under graduate</w>
commen cing</w>
x r</w>
liver pool</w>
sol der</w>
out lines</w>
sc si</w>
p v
g if</w>
fair ness</w>
a. m</w>
weal thy</w>
e v</w>
x m
mal ignant</w>
rec alling</w>
ti m</w>
ho o</w>
direc ts</w>
a tic</w>
semin ar</w>
resis tivity</w>
p iling</w>
12 th</w>
thermo couple</w>
recre ation</w>
iter ation</w>
for t</w>
h itting</w>
f ame</w>
nor way</w>
facilit ating</w>
enforce able</w>
ji u
hit ch</w>
20 ,000</w>
to wing</w>
serv iced</w>
expla ining</w>
cour ty
wel s</w>
ph on
ste in</w>
an alogue</w>
ris en</w>
pa ved</w>
no d
cle ver</w>
dest inations</w>
chel sea</w>
ar ming</w>
s me
po orly</w>
k ir
f pa</w>
________ ________
at ch</w>
livel i
di ving</w>
under going</w>
win dings</w>
con dem
construc tive</w>
sup press</w>
cre ature</w>
a 3</w>
tex tures</w>
bo t</w>
ac o</w>
1 17</w>
yu an
sp ite</w>
sculp ture</w>
n ap
d is</w>
cy clone</w>
control center</w>
ti d</w>
territ orial</w>
conver sations</w>
a w</w>
recti fy</w>
ob es
dis infection</w>
sum mon
subscri bers</w>
pe el</w>
n r</w>
le th
controver si
carib bean</w>
swi ft</w>
lo t
jud ged</w>
correc ting</w>
phen ol</w>
pol ys
9 6
18 th</w>
op t</w>
form aldehyde</w>
contrac tion</w>
apopto sis</w>
an gered</w>
enzy mes</w>
behavi oral</w>
10 m</w>
elimin ates</w>
s ail</w>
tra vels</w>
dece ased</w>
for warded</w>
architec ts</w>
str on
colle ague</w>
supervi sed</w>
negoti ated</w>
prison ers</w>
analy tics</w>
sr m</w>
kin der
bra ins</w>
es x</w>
beli efs</w>
orien tal</w>
gh e</w>
off s</w>
ac char
prosper ous</w>
metabo lic</w>
k on
harm less</w>
gover n</w>
c g</w>
s ical</w>
sal ts</w>
si te
jur y</w>
em itting</w>
9 001</w>
polic y
so oner</w>
sun der
discoun ts</w>
bree ze</w>
e ternal</w>
ali baba</w>
back bone</w>
viol ate</w>
obe y</w>
autono my</w>
ji ao
g n</w>
up loaded</w>
shel ves</w>
real m</w>
hoo ks</w>
3 1
2 70</w>
silic ate</w>
cr ying</w>
cl ad</w>
ver sa</w>
proc ure</w>
pist ons</w>
id sp
sett lements</w>
gl ance</w>
re ra</w>
p. m</w>
obes ity</w>
lan ded</w>
am ide</w>
19 0</w>
ono red</w>
¡ ¡</w>
venti lated</w>
le sions</w>
sper m</w>
sacri fic
el der</w>
cor ps</w>
w ounded</w>
un locked</w>
portra it</w>
li u
1 2.2</w>
s ong
pres ti
li po
wel der</w>
pol arity</w>
equival ents</w>
advan cing</w>
motiv ated</w>
cad res</w>
continu ation</w>
alli ed</w>
fragr ance</w>
ba king</w>
re pay</w>
conf erred</w>
rela tional</w>
glyco l</w>
and roid</w>
lu o</w>
ed itable</w>
mol ded</w>
law suit</w>
j ar
inci dental</w>
ma tions</w>
ra dic
ni e</w>
mon ster</w>
liber al</w>
hur ry</w>
dau ghters</w>
am bul
linear ity</w>
inva sive</w>
repe ating</w>
n ate</w>
min ded</w>
kinder gar
ter re
l ant</w>
in fin
di etary</w>
* *
g ating</w>
volta ic</w>
in box</w>
gas eous</w>
discar ded</w>
transi tional</w>
tim ed</w>
stor ms</w>
bl ended</w>
promo tional</w>
q d</w>
co c
al lies</w>
enz a</w>
eclip se</w>
der y</w>
bore hole</w>
elec tri
cu is
tai lored</w>
gor ously</w>
med al</w>
invo ke</w>
altern ator</w>
ali ke</w>
ty ing</w>
posteri or</w>
re clamation</w>
produc t
g in
susp icious</w>
spectro metry</w>
cl adding</w>
# #</w>
sla u
peninsul a</w>
compar isons</w>
sd k</w>
e aten</w>
rhe a</w>
mu ff
vi g
re productive</w>
applic ability</w>
inter cep
cl oning</w>
pen cil</w>
con notation</w>
authentic ated</w>
dec entr
predic ting</w>
credi bility</w>
electroly te</w>
defen sive</w>
bu zz
sin ce
ukra ine</w>
o ecd</w>
il a</w>
condu its</w>
hor mon
evalu ations</w>
c aching</w>
back filling</w>
0. 9</w>
hai er</w>
3 mm</w>
ve sting</w>
loosen ing</w>
bio chemical</w>
h all
no ises</w>
guar dian</w>
spra yed</w>
10 mm</w>
oblig or</w>
co lumb
2. 9</w>
re pro
nit rate</w>
magaz ines</w>
girl friend</w>
cr ust</w>
power train</w>
mar t</w>
fav ourable</w>
ev o
2 s</w>
ing ness</w>
t at
sear ched</w>
lou d
co ck</w>
ch al
transi tions</w>
mid d
inst inc
vi able</w>
th ai</w>
success or</w>
d g</w>
pay load</w>
u ous</w>
rac es</w>
un load</w>
t lement</w>
argu es</w>
ple dged</w>
mini ature</w>
gr as
198 1</w>
sc o</w>
s anta</w>
lo id</w>
20 2</w>
enlar ged</w>
min d
de g</w>
org es</w>
sd d</w>
had n</w>
fa thers</w>
tax payer</w>
hon or
flo ods</w>
a ur
batt le
v 4</w>
ch r
n ick
de serve</w>
coll ects</w>
lo ses</w>
l ang</w>
aff ection</w>
im pressed</w>
insi sted</w>
emplo ys</w>
empha sizes</w>
0 6
wra pping</w>
si g</w>
manu al
sol aris</w>
appoin ting</w>
s lic
exten sively</w>
advis er</w>
ton y</w>
sp elling</w>
sh ame</w>
quen ching</w>
lo vers</w>
a unt</w>
tra iling</w>
power house</w>
gan try</w>
pe ace
f ade</w>
queu es</w>
up coming</w>
moder ately</w>
k p
d ams</w>
te dness</w>
econo mically</w>
resign ation</w>
v 1</w>
so da</w>
ru shed</w>
k at
arm or</w>
ga us
smu gg
exemp ted</w>
chlor o
ado be</w>
h .
cong estion</w>
3 ,000</w>
l pg</w>
dig estion</w>
4 80</w>
200 mm</w>
0. 5
buddh ism</w>
squee ze</w>
pla inti
pen n
conduc tion</w>
arti facts</w>
s intering</w>
the fici
moly b
capac itors</w>
me ga</w>
q s</w>
justi fication</w>
premi ums</w>
ac qua
dec lining</w>
meas ur
deplo y
counter fe
ur ious</w>
regul arity</w>
practic ing</w>
dis missed</w>
fig .
col i</w>
jum ping</w>
el a</w>
sd l</w>
s no
kazakh stan</w>
iz able</w>
tim eline</w>
c ous
w p</w>
p b
liber ation</w>
consi sted</w>
ang u
ra tic</w>
heil ongjiang</w>
se at
statu e</w>
vap our</w>
predic tive</w>
dispos able</w>
f m
1 13</w>
o ak</w>
contem plated</w>
b ital</w>
10 th</w>
shear ing</w>
mal aria</w>
sc c</w>
r ds</w>
du ci
cele bration</w>
so s</w>
o k
ban ned</w>
7 9
broad ly</w>
mid night</w>
swe eping</w>
man t</w>
dis abilities</w>
co ali
thri tis</w>
f used</w>
le i</w>
argen tina</w>
e mails</w>
pu mp
o varian</w>
gener ative</w>
con t</w>
progres sion</w>
he ap</w>
virg inia</w>
n el
g cc</w>
so y</w>
polys acchar
stri a</w>
al istic</w>
3 g</w>
25 mm</w>
15 th</w>
cre ator</w>
mat s</w>
h lor
ven ting</w>
fl ora</w>
figh ters</w>
tex tual</w>
en rich</w>
super market</w>
da vi
60 s</w>
tr o</w>
juris dictions</w>
dispat ched</w>
t ines</w>
key pad</w>
ja w</w>
indi genous</w>
c v
multipl ied</w>
land lord</w>
l en</w>
z n</w>
ci e</w>
cli matic</w>
chemo therapy</w>
her bs</w>
ell ular</w>
con ju
tung sten</w>
teles cope</w>
tou ghness</w>
no x</w>
dig nity</w>
pra yer</w>
metal lo
k or
12 7</w>
trou bles</w>
sq l
j on
down loads</w>
bro kers</w>
trajec tory</w>
theore tically</w>
ambi tious</w>
implic it</w>
h g</w>
il i</w>
ter ror</w>
vari ability</w>
sing ular</w>
pl y
be e</w>
to ma
m my</w>
photo voltaic</w>
pe an
h ash</w>
doc king</w>
den mark</w>
ethiop ia</w>
anch ors</w>
- 3</w>
psy chi
lo ess</w>
ass ed</w>
instruc tor</w>
geor gia</w>
respon dents</w>
alle vi
me l</w>
re p</w>
spon sors</w>
propel ler</w>
g ono
reduc tions</w>
je an</w>
al ga
deliver ables</w>
20 mm</w>
ver b</w>
sto ch
sh rin
revol ving</w>
nee ding</w>
squ ares</w>
musli m</w>
weak er</w>
plan ets</w>
endor sement</w>
as tern</w>
de vil</w>
r f
immer sion</w>
mon ies</w>
hydro xy
fra gment</w>
spe aks</w>
do ts</w>
toler ant</w>
inten tionally</w>
el iz
anno tations</w>
p age
bar rels</w>
x en
sud an</w>
d ad
origin ating</w>
archi ved</w>
app xtender</w>
sta ffs</w>
gi bility</w>
schol ar</w>
inher it</w>
com a</w>
roun ds</w>
no vel
mer its</w>
edi ble</w>
pil low</w>
m q</w>
ph ony</w>
work flows</w>
scra per</w>
h onored</w>
appro ached</w>
p and
anes the
quo tes</w>
pro position</w>
wor ries</w>
thefici als</w>
jun k</w>
g ru
10. 3</w>
ve t</w>
s ling</w>
promul gated</w>
adap tability</w>
hand ic
for wards</w>
ten ded</w>
er ic</w>
d ull</w>
astr onau
as besto
recep tors</w>
don ald</w>
y in
k an</w>
incorpor ates</w>
pre treatment</w>
16 8</w>
rota tes</w>
exci tement</w>
v ations</w>
tox ic
di gging</w>
win ners</w>
ste al</w>
yiel ding</w>
lu s</w>
f da</w>
f ancy</w>
7 6
phr ases</w>
nar ro
jam ming</w>
mil it
d dle</w>
elabor ate</w>
adverti sements</w>
ac company</w>
buty l</w>
endor sed</w>
occu pancy</w>
bid ity</w>
time finder</w>
rever sal</w>
inter c
vari ants</w>
repl eni
peas ants</w>
chang ers</w>
trouble shoot</w>
u pli
ri gorous</w>
ba ked</w>
active x</w>
ac etic</w>
20 4</w>
nine ty</w>
replic as</w>
sil o</w>
subscri bed</w>
i od
c src</w>
ge o</w>
st le</w>
bil lions</w>
dis assemble</w>
tic a</w>
stri pe</w>
stran ded</w>
hang er</w>
demon strating</w>
ax 100</w>
vill a</w>
si sters</w>
journ alists</w>
dispens able</w>
shor ts</w>
de watering</w>
be ac
aus ten
h mi</w>
comp ress</w>
turbul ence</w>
co ins</w>
car ved</w>
pseu do</w>
cap e</w>
im f</w>
hy per</w>
se m</w>
par ity</w>
cl ine</w>
ch ute</w>
rail ing</w>
qu isite</w>
pestici de</w>
kno cked</w>
pli er</w>
b ill
surve yed</w>
intui tive</w>
bi ble</w>
mes o
sli m</w>
sen g</w>
de f</w>
r r</w>
n ou
ment als</w>
ma iling</w>
configur able</w>
1 1.1</w>
wri st</w>
sp ur</w>
prac tically</w>
9 8
adju sts</w>
smil ing</w>
gy m</w>
es te
coven ant</w>
umb rella</w>
spectro scopy</w>
anthro po
hon esty</w>
cook ies</w>
ap pa
wh ar
win es</w>
bri gh
inf low</w>
com pos
anne aling</w>
qi u</w>
in filtration</w>
bio diversity</w>
underta kings</w>
ti tled</w>
sen ses</w>
ch a</w>
ann e</w>
197 9</w>
prospec tus</w>
mb a</w>
loc ker</w>
jac king</w>
f loc
e yel
@ @@</w>
vo ices</w>
sp c</w>
sil ty</w>
iso to
ac kers</w>
manipul ate</w>
bel lows</w>
ab rup
buck ling</w>
fashi onable</w>
convic ted</w>
rabb its</w>
od les</w>
harb our</w>
assemb ly
infl atable</w>
induc tive</w>
gr ille</w>
frag ile</w>
pro ving</w>
nar co
de x</w>
comm u
sac red</w>
aesthe tics</w>
accoun table</w>
2 c</w>
deci sive</w>
ank le</w>
resi des</w>
a ties</w>
n aph
lad ders</w>
car rera</w>
vi vid</w>
pec uli
du p</w>
co bal
hor ri
ch ris</w>
sc ans</w>
potenti ometer</w>
micro bial</w>
00 0.00</w>
to wel</w>
compan ion</w>
au stria</w>
arrang ing</w>
tra ine
tour na
thees sional</w>
sin o
s b
re organization</w>
jud ging</w>
8. 6</w>
deduc t</w>
asth ma</w>
20 5</w>
sedi ments</w>
el le</w>
pass ages</w>
di o
cli mbed</w>
occa sional</w>
jo ke</w>
inver ted</w>
ca ine</w>
asci i</w>
asbesto s</w>
terran ean</w>
s ch</w>
preser ving</w>
im g</w>
fish ery</w>
mo on
7. 7</w>
4 s</w>
mo z
milest ones</w>
i tis</w>
tab le
ster ile</w>
pertin ent</w>
injec tors</w>
hel met</w>
g us
vec tors</w>
segreg ation</w>
ful fil</w>
flow meter</w>
ex quisite</w>
sh ining</w>
cambo dia</w>
ver ts</w>
me g
hand some</w>
he pat
war fare</w>
confuci us</w>
sub systems</w>
cal ories</w>
pre paid</w>
boy friend</w>
phys ic
dis gu
teri zed</w>
gra teful</w>
do ses</w>
ener ge
e h</w>
sr i</w>
to pi
saf er</w>
la the</w>
impor ter</w>
succ essively</w>
l acks</w>
k iller</w>
fun eral</w>
ip o</w>
dissip ation</w>
weak nesses</w>
li pid</w>
lever aging</w>
abu tment</w>
em ma</w>
anomal y</w>
nas al</w>
pharmac o
tran sc
she et
9 ,
y on</w>
li en</w>
in habit
stake holder</w>
cl icked</w>
disab ling</w>
ri bs</w>
p dp</w>
an ato
con ical</w>
enligh ten
braz ilian</w>
real izes</w>
pi lots</w>
hospit ality</w>
hum or</w>
ho lo
fra ming</w>
at tained</w>
stoch astic</w>
negoti ating</w>
ne pal</w>
in version</w>
d 2</w>
contamin ants</w>
bro ker
hon our</w>
degra ded</w>
la tency</w>
desulfur ization</w>
perfor ated</w>
uncertain ties</w>
po ol
p k</w>
ba y
w r</w>
ul ations</w>
ban kers</w>
democr ats</w>
sp r
cor ne
cartri dges</w>
attrac ting</w>
trim med</w>
ken ne
b mw</w>
mal icious</w>
a ters</w>
tox in</w>
antic or
4. 9</w>
un fair</w>
compla in</w>
in line</w>
1 18</w>
gg les</w>
ob tains</w>
o live</w>
hu an
sam pled</w>
power point</w>
ar thritis</w>
spo il</w>
om ed</w>
extingui sher</w>
es p</w>
er ad
bankrup t</w>
6. 8</w>
respon dent</w>
prohi bit</w>
assi c</w>
glo ss</w>
dem o</w>
ac ies</w>
viol ates</w>
ann ul
topo graphy</w>
satis fies</w>
in ward</w>
sprink ler</w>
ancest ors</w>
d der</w>
for got</w>
portu gal</w>
dis ables</w>
construc tions</w>
wid get</w>
revoc ation</w>
mo d</w>
j s</w>
cen sus</w>
tt i</w>
advoc ate</w>
sub mit
197 8</w>
du s</w>
nin th</w>
influ enza</w>
membran es</w>
a qui
sin king</w>
doub led</w>
suppor tive</w>
suppor ters</w>
lau ghter</w>
franch ise</w>
enrich ed</w>
cz ech</w>
s 1
under stand
cur ative</w>
strong est</w>
do mic
ma mm
li mbs</w>
cl icks</w>
ra tionality</w>
r ally</w>
mobil es</w>
justi fy</w>
no table</w>
log ger</w>
ap ping</w>
low ing</w>
inev itably</w>
hy dri
fron tal</w>
bar ack</w>
lun gs</w>
alumin a</w>
00 3</w>
da tive</w>
sen sory</w>
mi sunder
ide ally</w>
xi e</w>
niger ia</w>
iod ine</w>
in ate</w>
ch ile</w>
victori a</w>
v om
in dispensable</w>
de em</w>
conveni ently</w>
plu gging</w>
sal i
bo ws</w>
expan ds</w>
deceler ation</w>
advant ag
sulph ur</w>
deli mi
ab a</w>
mb les</w>
la h</w>
har bin</w>
ur inary</w>
store y</w>
de er</w>
an n</w>
red ness</w>
be hold</w>
ag ger
lad ing</w>
home town</w>
f s
ag o
00 00</w>
d fs</w>
din o
cre dential</w>
rubb ish</w>
be ads</w>
adhe rence</w>
trigg ering</w>
ss d</w>
o 3</w>
desc end
tre aties</w>
n f</w>
l 2</w>
dead ly</w>
bri an</w>
jin ping</w>
dr ills</w>
market place</w>
x 2</w>
con cave</w>
v ested</w>
thresh olds</w>
en coded</w>
conver ters</w>
on ous</w>
aff inity</w>
12 6</w>
ten ders</w>
o ids</w>
pl a</w>
hydro xide</w>
ge ous</w>
cy ber
transi stor</w>
te st
pre domin
phar macy</w>
unci ation</w>
attrac tions</w>
suff ers</w>
oppon ent</w>
hun ger</w>
mi r</w>
ch an</w>
ag on
th at
sub contracting</w>
stabil ize</w>
counter clockwise</w>
teles co
so p</w>
since rely</w>
poly gons</w>
k pa
dis solve</w>
300 mm</w>
we ed</w>
ho ods</w>
dre dging</w>
b ale</w>
r l</w>
man dar
desi res</w>
asym metric</w>
dig it
qua ternary</w>
ho p</w>
ef f</w>
19 70</w>
hemorrh age</w>
ab eth</w>
wr ink
the astern</w>
den um</w>
chr ys
ri vals</w>
no isy</w>
dro w
ph p</w>
other apy</w>
sp ans</w>
deter gent</w>
trans ac
swe ar</w>
smel ting</w>
on to
eleph ant</w>
ar y
w ing
frau dul
aband on</w>
toma to</w>
te ur</w>
it ating</w>
es d</w>
com ra
ed i</w>
descrip tive</w>
ap hy
vo ted</w>
surviv ors</w>
se mester</w>
out break</w>
nur bs</w>
courty ard</w>
ch ess</w>
asi an
cha otic</w>
ven ts</w>
shor ted</w>
ist or</w>
fer ry</w>
ch ase</w>
spec ulation</w>
propag anda</w>
h rs</w>
cs v</w>
ca kes</w>
sun ny</w>
ob sole
150 mm</w>
not ably</w>
im mobil
eag le</w>
th ic</w>
p ha
communic ator</w>
stri al</w>
hel ical</w>
col on</w>
b ps</w>
aero dynamic</w>
acci dentally</w>
ancho red</w>
offen sive</w>
at ro
sco tland</w>
reta iler</w>
repl istor</w>
dol ph
bas ins</w>
far ther</w>
conven ed</w>
accumul ate</w>
bel gium</w>
sp y</w>
simpl er</w>
0 1
r 1</w>
liby a</w>
f ty</w>
pre sum
tol u
l ash</w>
h int</w>
bas ics</w>
statu te</w>
spectac ular</w>
bulk head</w>
coup on</w>
wave guide</w>
mu co
frac tal</w>
acc redi
2 40
ig ni
cor tex</w>
alk yl</w>
pl s</w>
coali tion</w>
phosp h
gl aci
interven tions</w>
to se</w>
re ed</w>
di vine</w>
&ket; &ket;</w>
synchron izing</w>
n um</w>
geo logic</w>
end angered</w>
cy ber</w>
st ur
here after</w>
gam bling</w>
en ium</w>
dro p
short cuts</w>
le ases</w>
le aching</w>
se p</w>
r na</w>
facilit ates</w>
ex agger
doctr ine</w>
con spic
se tu
be ver
sa il
scaff olding</w>
un loaded</w>
per fusion</w>
pay ers</w>
hi p
elap sed</w>
tradi tions</w>
ti ers</w>
pedest al</w>
od ds</w>
ven ge</w>
dispers ed</w>
bel ly</w>
od or</w>
erec t</w>
me lo
bur ial</w>
disse mination</w>
elev ations</w>
advantag eous</w>
16 0
no bel</w>
link 13</w>
cat ch
cad mium</w>
ite rative</w>
ec s</w>
prece dence</w>
er gono
shiel ds</w>
conserv ancy</w>
bo d
t xt</w>
go at</w>
classi fy</w>
bl essed</w>
go tta</w>
ferti lity</w>
tren ches</w>
oper and</w>
3 80</w>
accredi ted</w>
sub paragraph</w>
ed ent</w>
e o</w>
gra v
chromo some</w>
500 ,000</w>
no odles</w>
h en</w>
el iness</w>
lou is</w>
auto mate</w>
prepar atory</w>
he l</w>
disrup tive</w>
can opy</w>
diab etic</w>
correc tness</w>
poss essed</w>
mi di
sh it</w>
wi ves</w>
ab norm
superinten dent</w>
ejec tor</w>
appoin tments</w>
on y
i shed</w>
sovere ign
pen dul
cali per</w>
au dit
at tain</w>
atten de
gl ands</w>
appe als</w>
controll able</w>
arsen al</w>
mon om
la i</w>
je ans</w>
susp ici
path ological</w>
paten ted</w>
invo ked</w>
ic bc</w>
cobal t</w>
anxi ous</w>
roman ce</w>
poll en</w>
appa rel</w>
rec alled</w>
mer it</w>
lubric ated</w>
floc cul
der rick</w>
4 85</w>
superi ority</w>
c ated</w>
ro se
pp p</w>
len ess</w>
w c</w>
text font</w>
reli eved</w>
in ability</w>
alig ning</w>
tsu nam
as cer
ca sts</w>
any time</w>
r as
de pri
transl ator</w>
spl ash</w>
de pres
bi op
un reasonable</w>
shu ang
palest inian</w>
func tion
asian textfont</w>
fortun ate</w>
di mini
un wanted</w>
stri ker</w>
stri es</w>
sto ve</w>
jo y
glo ve</w>
bro ch
si us</w>
laugh ing</w>
earth ed</w>
co al
enlighten ment</w>
che er
boun ds</w>
multi plier</w>
main tain
direc tives</w>
conflic ting</w>
en na</w>
ve ins</w>
k g
incre ments</w>
thro mbo
liter acy</w>
effici encies</w>
13 th</w>
syri a</w>
sovereign ty</w>
grin d</w>
c af
champi ons</w>
funda mentals</w>
trage dy</w>
tor sion</w>
2 60</w>
ya hoo</w>
gri ps</w>
flo tation</w>
transp on
mirr oring</w>
i ded</w>
20 3</w>
ir respective</w>
will ingness</w>
oli go
n pt</w>
el and</w>
consul tations</w>
8. 0</w>
t pm</w>
multin ational</w>
water proofing</w>
rou tines</w>
answ ering</w>
initi ating</w>
co gnition</w>
ali en</w>
2. 5
descen ding</w>
milli seconds</w>
ful filling</w>
sor ship</w>
roy alty</w>
negl ect</w>
wat t</w>
5 50</w>
wel comes</w>
lique fied</w>
h p
escap ed</w>
co d</w>
choo ses</w>
al tar</w>
h n</w>
dil ute</w>
can s</w>
t to</w>
ed a</w>
multic ast</w>
car ing</w>
micro scopic</w>
du bai</w>
disc ou
cultiv ating</w>
mar row</w>
pos ter</w>
pe di
i tic</w>
hand set</w>
anti gen</w>
li vely</w>
suscep tible</w>
shri mp</w>
indic ative</w>
cul tured</w>
surpri singly</w>
h2 s</w>
sh ru
fore seen</w>
c ac
val en
install s</w>
coag ulation</w>
i onic</w>
gar lic</w>
13 1</w>
oc curren
met amor
sc ared</w>
cos metic</w>
10. 5</w>
un lawful</w>
super se
mb h</w>
loc ale</w>
sel dom</w>
ad or
to es</w>
thy roid</w>
priv ately</w>
actu ating</w>
b mp</w>
ou l</w>
electro mechanical</w>
si e</w>
hour ly</w>
fl ed</w>
xx xx</w>
pseu do
cur ious</w>
minim ise</w>
f ang
ad en
turbul ent</w>
the ficial</w>
o cular</w>
l ite</w>
char style</w>
. @
utili zes</w>
survi ved</w>
dr i</w>
di alo
shad ed</w>
sa g</w>
per oxide</w>
eli gibility</w>
pneu mon
i a
wea ther
ris ky</w>
coll agen</w>
organiz er</w>
o metric</w>
mark up</w>
contra diction</w>
b ery</w>
propri e
f all
terre strial</w>
per tur
fra med</w>
z ir
no where</w>
de eds</w>
post ure</w>
la tex</w>
infra structures</w>
dri p</w>
si p</w>
r ile</w>
pa ul
gen eva</w>
ori sts</w>
solic itor</w>
over speed</w>
obsole te</w>
histor ically</w>
cou gh</w>
bru shes</w>
1 1.2</w>
trac tors</w>
sta ining</w>
mountain ous</w>
gen ome</w>
e 1</w>
mer ging</w>
hit achi</w>
controversi al</w>
ab il
pan or
es tive</w>
b ap
ti p
photo graphic</w>
audi ences</w>
embry o</w>
j d</w>
ev able</w>
sc r</w>
read able</w>
mis leading</w>
ty pho
lumin ous</w>
period ical</w>
pe king</w>
episo de</w>
char ming</w>
ta res</w>
smo othing</w>
pre requisite</w>
in operative</w>
un ve
compar atively</w>
c ached</w>
re v
la titude</w>
geo metrical</w>
uni fication</w>
un expec
pu rely</w>
hy ste
po res</w>
orig ins</w>
deduc ed</w>
brea the</w>
tw ine</w>
100 m</w>
wal let</w>
r as</w>
multi ply</w>
differenti ate</w>
g st</w>
c .</w>
for give</w>
di ve</w>
clean ness</w>
us eless</w>
sen ator</w>
s sed</w>
mandar in</w>
m organ</w>
k ens</w>
invi tes</w>
tra der</w>
shor test</w>
andre w</w>
2 30
thir dly</w>
sk in
sick ness</w>
cu te</w>
columb ia</w>
che que</w>
cam bridge</w>
antibio tics</w>
remit tance</w>
bri g
bo eing</w>
8. 8</w>
frame works</w>
loun ge</w>
champion ship</w>
l ace</w>
canti lever</w>
r fp</w>
portfoli os</w>
cra ft
20 30</w>
occurren ces</w>
moun ts</w>
shu toff</w>
exer t</w>
ar ma
mat r
cor al</w>
pr s</w>
amor tization</w>
evolu tionary</w>
gra pe</w>
dor mit
hydro lysis</w>
anticor ro
analy sing</w>
19 70s</w>
smil ed</w>
bo iled</w>
ep a</w>
ar res
jud g
base ball</w>
. exe</w>
tem pered</w>
off ences</w>
hydro chloride</w>
wea ving</w>
sp reads</w>
pop up</w>
p est</w>
methodo logies</w>
intern als</w>
seed ling</w>
don ors</w>
com ings</w>
x 4</w>
eliz abeth</w>
2 80</w>
14 5</w>
sal ad</w>
illu s</w>
apo logi
se pt</w>
par asi
hal t</w>
up side</w>
crystalli zation</w>
bo ston</w>
ten sions</w>
g le</w>
broker age</w>
re forming</w>
gen ius</w>
or bital</w>
travel ed</w>
inde b
inste in</w>
en er</w>
ed itors</w>
head ache</w>
h m</w>
ex o
cuis ine</w>
g orges</w>
tan dem</w>
s tering</w>
meth y
break age</w>
ax les</w>
1 2.1</w>
0 10</w>
predic tions</w>
custo dian</w>
z able</w>
plen ary</w>
intel li
cin ema</w>
cher ry</w>
brief ing</w>
50 1</w>
negl ected</w>
cl ai
was ted</w>
under side</w>
inv iting</w>
inter fer
. com/
sh at
la wn</w>
plainti ff</w>
inten tional</w>
acry late</w>
stra iner</w>
insul ators</w>
dam pers</w>
mu t
loy al</w>
lympho cy
ma ternal</w>
en acted</w>
k not</w>
alga e</w>
achi eves</w>
suf fix</w>
inter sec
down wards</w>
survey or</w>
termin ating</w>
can e</w>
ar id</w>
voy age</w>
unexpec tedly</w>
re inst
op ath</w>
man o
kin dly</w>
k hz</w>
br un
te s
resum ed</w>
pra ised</w>
ph thal
fair y</w>
alcoho lic</w>
d ability</w>
stan ts</w>
persisten ce</w>
man chester</w>
in touch</w>
le m</w>
kar st</w>
bread th</w>
ro ses</w>
e ting</w>
w mi</w>
pro state</w>
spl en
sh unt</w>
pot ato
juven ile</w>
graph ically</w>
dis placed</w>
ware houses</w>
supple ments</w>
man s</w>
embro i
14 0
ul ture</w>
k t</w>
ascen ding</w>
uniqu ely</w>
skir ts</w>
treat s</w>
publi shers</w>
cand y</w>
ten tly</w>
evol ving</w>
o val</w>
im balance</w>
7 th</w>
terr ace</w>
r v</w>
mer cy</w>
non conforming</w>
en rolled</w>
charge able</w>
vi vo</w>
gentle man</w>
st ment</w>
port land</w>
substan tive</w>
mi ao</w>
g mbh</w>
99 9</w>
string ent</w>
st amps</w>
p ity</w>
liste ner</w>
differenti ated</w>
architec tures</w>
th under
colo mb
yo ga</w>
tan e</w>
ac tress</w>
metallur gical</w>
sim ile</w>
potato es</w>
constitu ent</w>
author isation</w>
fi gured</w>
extingui shers</w>
capit alization</w>
bri bery</w>
ber ries</w>
6 mm</w>
hero es</w>
evol ve</w>
cigare ttes</w>
classi fications</w>
co tt
pre fabricated</w>
l 1</w>
15 5</w>
co axial</w>
cas ino</w>
sk ull</w>
50 s</w>
slow ing</w>
pan cre
pestici des</w>
un successful</w>
tri be</w>
re con
para dise</w>
laun ches</w>
schedul er</w>
recur rent</w>
ol in</w>
mo tions</w>
liste ned</w>
bloo m</w>
1 16</w>
place bo</w>
n eling</w>
cor ds</w>
boo sting</w>
str a</w>
m ming</w>
d us
rin ge</w>
migr ating</w>
gaz ette</w>
constan ts</w>
ob s
vap or
head ings</w>
strate g
pa tes</w>
ox ford</w>
day time</w>
tor so</w>
resi ze</w>
cho ke</w>
cen tering</w>
par sing</w>
trim ming</w>
pu r</w>
opa thy</w>
happ ily</w>
dis charges</w>
k va</w>
hun ter</w>
tic als</w>
er able</w>
republic ans</w>
so ver</w>
p n
imper ative</w>
ad or</w>
y o</w>
to s</w>
pro hibition</w>
complex es</w>
ob sc
deliver ies</w>
spectro photo
bl essing</w>
shrou d</w>
desper ate</w>
bo il</w>
sac char
restra ints</w>
gra ined</w>
blow out</w>
le y
dr y
bri de</w>
ann y</w>
fr actu
calli graphy</w>
wea thering</w>
tran sax
sub committee</w>
spec ul
kindergar ten</w>
d ment</w>
si vity</w>
pois onous</w>
po ts</w>
le af
ge ophy
3 30</w>
pow ders</w>
ori um</w>
is chemi
hur ric
pro vo
lith ic</w>
anim ate</w>
200 0
li ang
cul verts</w>
assa ult</w>
tic ism</w>
t all
seaf ood</w>
refu eling</w>
je wish</w>
acqua in
submer sible</w>
so ak</w>
n age</w>
in adver
gy m
cri m
be ast</w>
abo ard</w>
lam b</w>
de hydration</w>
sta ffing</w>
i re</w>
fi b
bai du</w>
loc ates</w>
jo ins</w>
earth work</w>
minim izing</w>
a or
ira qi</w>
enrich ment</w>
197 6</w>
fe m</w>
consign ment</w>
k ur
deliber ately</w>
bacteri um</w>
re tains</w>
penetr ating</w>
i rish</w>
6 a</w>
pru dent</w>
pri ming</w>
ed ward</w>
mo ist</w>
c of</w>
bo res</w>
11 th</w>
oc clu
hea vier</w>
da q</w>
cro sses</w>
ar terial</w>
wi z
se ab
laugh ed</w>
gene ity</w>
n ouri
di pped</w>
cap turing</w>
6 50</w>
syll able</w>
do cs</w>
immer sed</w>
hu midi
att an</w>
trac ed</w>
fin land</w>
alte rations</w>
ap is</w>
al an</w>
w sdl</w>
vi gorously</w>
re building</w>
flam es</w>
don ation</w>
transax le</w>
q r</w>
investig ators</w>
sal ine</w>
poll ing</w>
over heating</w>
fluidi zed</w>
ref r
chec ker</w>
squ ad</w>
de tained</w>
comp iling</w>
af ore
ten tative</w>
m cc</w>
sc is
o o
compart ments</w>
back wards</w>
smart phone</w>
rub ble</w>
ration ale</w>
lu m</w>
appreci ated</w>
straigh t
ischemi a</w>
grin der</w>
c ash
zheng zhou</w>
tas tes</w>
shoo ts</w>
reli ed</w>
k ok</w>
disclo sing</w>
stic ky</w>
receptac le</w>
p inch</w>
feren tial</w>
oper able</w>
n ag
en tropy</w>
ge es</w>
comp elling</w>
8 th</w>
, ltd</w>
loc ator</w>
her bal</w>
s ag
par aly
flash es</w>
diversi fication</w>
normal ized</w>
metallur gy</w>
destro ying</w>
xi an
wh ir
prison er</w>
l g</w>
cl ones</w>
swe dish</w>
de tri
15 1</w>
v est</w>
i ri
hel per</w>
b d</w>
ya w</w>
op acity</w>
midd le
fu zhou</w>
eigh ty</w>
di a
sp ring
new s
chim ney</w>
b l</w>
hec tares</w>
challeng ed</w>
pen g</w>
pro m</w>
j ets</w>
four teen</w>
duc tile</w>
hi d</w>
an tar
at c</w>
z z</w>
stir ring</w>
q 1</w>
par se</w>
man tle</w>
pyra mid</w>
ma dri
cr ush</w>
peas ant</w>
neu r</w>
gu it
as a</w>
pla ins</w>
su ture</w>
str ands</w>
fai thful</w>
ph ased</w>
depart mental</w>
auto mobiles</w>
i b</w>
dest iny</w>
war p</w>
str anger</w>
es cor
che e
re a</w>
flu oride</w>
stimul ating</w>
l ily</w>
j az
finger print</w>
car ol
applic ation
fl ask</w>
f w
ad mir
oce an
let t</w>
de activated</w>
am y
remark ably</w>
ju dah</w>
hormon es</w>
athle te</w>
1 19</w>
less ness</w>
ba tes</w>
ind ul
hi des</w>
unic ode</w>
tail gate</w>
advis ers</w>
versa tile</w>
repeti tion</w>
practi tioners</w>
roof s</w>
magi strate</w>
contra ven
py ri
u. k</w>
stand alone</w>
new est</w>
fish eries</w>
. com
met aph
sor row</w>
ment ality</w>
dec on
am ple</w>
prog nosis</w>
penetr ate</w>
ess ly</w>
sign alling</w>
sim on</w>
pal eo
fish er
re work</w>
dis advantage</w>
ben ign</w>
il legally</w>
gra vit
sm en</w>
perme able</w>
nor mative</w>
ti tis</w>
sli pped</w>
om y
sol ves</w>
inf opath</w>
bu shings</w>
s ans</w>
men t.
ply wood</w>
th reading</w>
c es
sho t
1. 0
ra ins</w>
open ness</w>
k wh</w>
defe ated</w>
re starting</w>
ir anian</w>
euro s</w>
dev ast
fr p</w>
extru ded</w>
condu cive</w>
calcul ator</w>
u z
plas m</w>
ma ppings</w>
dro ple
execu tes</w>
epide mi
rever t</w>
refl ector</w>
marx ism</w>
inst or
et tes</w>
at l
in n</w>
conden sed</w>
circum ference</w>
re stores</w>
ax 4</w>
re bel
nec ro
insu rers</w>
ca ten
st r</w>
abo li
y y</w>
sl ack</w>
fin s</w>
tar ies</w>
pione er</w>
d 0
post operative</w>
m v
r ong</w>
clear ances</w>
seven ty</w>
wor lds</w>
vi gorous</w>
gloss ary</w>
occup ant</w>
mongo lian</w>
. 1</w>
et ts</w>
p aired</w>
an na</w>
3 b</w>
t ably</w>
tan ker</w>
ine quality</w>
afore mentioned</w>
sco tt</w>
gar ments</w>
fac simile</w>
re treat</w>
rail road</w>
h l
centr ally</w>
v tune</w>
ir m</w>
i pod</w>
ex hibitions</w>
den ial</w>
cc d</w>
tsunam i</w>
sho cked</w>
memb er
inter sections</w>
co co
ex hibited</w>
20 m</w>
18 00</w>
s ally</w>
$ $</w>
trans feree</w>
radi ant</w>
we ars</w>
un de
ca v
ac s</w>
re bound</w>
po se
phen yl</w>
re ign</w>
floo ded</w>
ref ine</w>
30 ,000</w>
t m
amoun ted</w>
tun ed</w>
o z</w>
ai x</w>
sam sung</w>
referr al</w>
par k
dis connection</w>
5. 9</w>
o tc</w>
je ws</w>
para dig
mechan ic</w>
enti ally</w>
thin ner</w>
muni tion</w>
direc ting</w>
cu cu
short comings</w>
tr an</w>
sh alt</w>
sa i</w>
seed lings</w>
ste p
ri dic
comm a</w>
cau tious</w>
sho cks</w>
materi ally</w>
grand father</w>
ex changers</w>
im pregn
convey ors</w>
share holding</w>
remin ded</w>
inqui re</w>
enam el</w>
aci dic</w>
ed dy</w>
sym posi
no mination</w>
bo c</w>
vo red</w>
sc ape</w>
g d
arbitr ator</w>
pi ers</w>
cy an
car ton</w>
tran scri
lin col
ir d</w>
fe u
duplic ated</w>
an iso
25 00</w>
jac kets</w>
cal c
separ able</w>
pro tests</w>
rear ward</w>
re y</w>
bor on</w>
revo ke</w>
re vel
organ ised</w>
kin dness</w>
for g
bu gs</w>
mic hel
mass ach
ma id</w>
fractu red</w>
mp 3</w>
lin en</w>
eno te</w>
ba ffle</w>
weigh ting</w>
expres ses</w>
v w</w>
ti ve
molyb denum</w>
gold man</w>
bio technology</w>
travel ers</w>
sub division</w>
f laws</w>
discoun ted</w>
counter part</w>
pup ils</w>
cli pping</w>
su e</w>
pre determined</w>
philosoph ical</w>
mas ks</w>
identi fiable</w>
fro g</w>
b as</w>
convey ance</w>
won dering</w>
see mingly</w>
massach us
lo u</w>
6 000</w>
[...]
