<pad>
<eos>
<unk>
的
，
。
和
在
、
了
是
）
（
中
“
.
或
”
-
：
将
为
对
与
)
我
上
(
并
一个
/
有
,
；
%
1
使用
进行
不
到
他
可以
时
我们
你
该
以
2
应
"
系统
及
可
会
年
其
人
从
也
公司
提供
如果
:
\
您
下
所有
后
都
通过
就
而
被
3
工作
这
等
要
任何
他们
研究
第
要求
但
安装
文件
可能
选择
其他
以及
n
—
需要
没有
方法
包括
地
信息
所
来
这些
它
由
已
控制
设计
设备
于
必须
用
请
问题
数据
项目
本
？
内
此
新
根据
4
情况
技术
说
服务
管理
显示
时间
她
影响
分析
月
向
中国
你们
设置
则
规定
更
5
产品
个
能
还
》
《
用于
相关
一种
使
操作
把
连接
检查
具有
?
这个
当
主要
采用
有关
安全
部分
给
位置
过程
多
应用
至
是否
很
发展
标准
着
前
然后
10
性
让
!
处理
6
计划
作为
无法
试验
或者
之间
_
=
自己
已经
执行
方式
指定
用户
功能
国家
运行
程序
不同
开始
0
支持
对于
美国
企业
以下
因为
结构
里
确定
好
如
材料
值
工程
按
类型
完成
存在
s
日
r
报告
活动
创建
A
号
客户
测试
发生
条件
一些
得
去
结果
做
组织
装置
人员
高
点
区域
环境
生产
图
状态
未
这种
不能
同时
那个
范围
最
一
单击
;
确保
服务器
出现
重要
输入
能够
但是
压力
大
目标
市场
并且
配置
实现
型
8
产生
协议
由于
式
保护
内容
者
表
包含
记录
对象
出
按照
！
且
7
a
获得
经济
计算
每个
两个
名称
条
模式
认为
工具
说明
方面
什么
有效
法
机构
提出
现在
自动
业务
们
发现
质量
测量
性能
就是
能力
12
这样
最大
&bra;
若
大@@
&ket;
区
过
利用
错误
正在
增加
表示
承包商
及其
不@@
合同
中心
关系
风险
之前
因此
B
带
其中
器
不是
模型
参数
适用
投资
一@@
网络
均
水
比
不会
之
基于
非
20
添加
作用
中@@
符合
提高
mm
故障
C
基础
允许
调整
如何
关于
需
国际
想
'
知道
线
组
存储
地区
打开
政府
无
超过
成为
它们
建立
又
子
删除
帮助
9
例如
得到
车辆
检测
选项
属性
应用程序
各
施工
吗
模块
定义
开关
固定
导致
小
m
较
直接
B@@
资源
目的
评估
温度
再
板
为了
世界
应该
实施
成本
所以
时候
期间
事件
日期
之后
不得
传感器
单位
30
表面
原因
发动机
*
机
正确
更改
费用
组件
软件
建议
空间
保持
当前
法律
考虑
管
只
启动
内部
现场
开发
水平
处
T@@
信号
变化
访问
继续
化
非常
像
重新
+
数据库
移动
决定
位于
那
量
外
11
价值
介绍
速度
列表
交易
达到
部门
…
方案
D
b
类
批准
生活
一次
15
社会
确认
而且
地址
行为
本文
负责
尺寸
特性
修改
通常
F@@
通知
接受
更新
·
R@@
银行
数量
无@@
小@@
地方
关闭
仅
希望
计算机
委员会
命令
M@@
了解
任务
D@@
保证
支付
规范
主
每
完全
措施
价格
按钮
造成
进入
代表
资产
满足
许多
低
即
P@@
人们
目前
段
集团
这是
减少
另
形成
需求
H@@
100
会议
50
版本
解决
以上
限制
针对
提交
其它
管道
最后
至少
因
L@@
比较
头
正常
部件
基本
销售
维护
经
实际
建设
一样
混凝土
电缆
注意
多@@
治疗
方向
一起
率
拥有
层
有限公司
输出
准备
上@@
间
保存
&gt;
须
全球
必要
城市
代码
员工
因素
标记
更换
步骤
一般
教育
还是
各种
降低
N@@
C@@
特别
应当
恢复
E@@
自
之一
度
水@@
工艺
位
约
整个
理论
页
形式
看到
供应商
来自
合作
G@@
参考
作业
方
制造
级
运动
名
总
政策
多个
指
查看
成员
面
长
只有
d
电压
调查
上述
电源
行业
部
以便
视图
S
成
车
成功
小时
高@@
行
项
学生
x
W@@
相同
一定
站
适当
空气
K@@
受
规则
S@@
#
件
&amp;
验证
改变
三@@
电路
效果
文化
t
资料
3@@
起
油
特定
相应
请求
V@@
下列
消息
最终
那么
却
节
单元
V
门
道
持续
平台
专业
A@@
很多
16
数
申请
看
I
增长
Windows
才
分配
学习
处于
拆卸
领域
文档
特征
力
O
体
见
轴
设施
证明
检验
T
4@@
螺栓
讨论
现有
条款
可@@
L
数字
策略
路
全部
天
F
25
款
编辑
快速
汽车
从而
阶段
个人
培训
泵
健康
参见
责任
i
网站
~
阀
发布
描述
建筑
X
集
事
一直
孩子
自@@
对话框
启用
制定
下@@
物
解决方案
家
权利
EMC
患者
期
14
注册
探讨
联系
不要
那些
生成
E
•
电子
有@@
系列
起来
组合
组成
如下
2@@
接头
外部
P
正
大学
O@@
卡
还有
新@@
复制
流
R
作
机器
采取
c
结束
格式
评价
市
源
实验
程度
失败
这里
13
找到
指示
附件
40
高度
表明
分
人@@
单
文件夹
螺钉
停止
图像
未来
5@@
只是
长度
呢
内@@
进一步
热
备份
经营
团队
简单
J@@
这一
授权
稳定
机械
结合
斯
传统
光
经验
M
零件
受到
颜色
反应
语言
喜欢
无效
拉@@
作出
运输
防止
编号
插入
工业
对@@
分别
特殊
地@@
流程
转换
详细
之@@
具体
片
6@@
维修
仍
可用
历史
距离
学
独立
诊断
米
然而
详细信息
引起
节点
收入
综合
避免
损失
块
同意
24
目录
识别
焊接
东西
随着
获取
金属
大小
室
带来
经过
工程师
双@@
N
金额
特点
循环
图纸
18
资金
来说
证书
损坏
分@@
我国
业主
窗口
孔
合理
某些
采购
元
加工
大量
强度
美元
英国
库
辅助
除
驱动
吧
告诉
拉
规划
参与
良好
7@@
关键
才能
单@@
细胞
60
搜索
盖
优化
场
表现
观察
过去
取得
菜单
收到
制度
000
天@@
相对
接口
定位
基金
明显
通信
的话
严重
不可
两@@
分布
返回
电流
外@@
所述
出口
剂
电话
e
山
G
尽管
次
测定
通道
一项
边
走
购买
平均
涉及
调节
电机
旋转
改进
口
–
列
虽然
元素
台
接收
发出
&bar;
所示
s@@
出来
安排
灯
发送
贷款
提升
9@@
查询
先生
出@@
危险
三个
预测
类似
p@@
扩展
e@@
制造商
1.@@
8@@
拆下
一切
三
模拟
此外
马@@
轴承
机会
路径
默认
m@@
不断
岁
二
保留
不过
行动
解释
西@@
甚至
原则
c@@
加强
模板
气体
体系
X@@
事情
卷
心@@
参加
b@@
一部分
连续
完整
曲线
链接
匹配
变更
d@@
热@@
道路
海@@
重@@
达
函数
设定
ID
全@@
依据
气
加@@
除非
接触
网
许可
前@@
长@@
远程
首先
二@@
一位
同
开展
n@@
同样
花
U
标签
流量
权
监控
此类
开@@
电@@
课程
I@@
一点
x@@
0@@
本地
手
当地
面板
杆
发@@
控制器
取消
比例
支架
°
欧洲
创新
股份
特
Microsoft
含量
战略
最佳
端
意义
U@@
商业
动态
克
页面
卡@@
密封
直到
图形
磁盘
德
尔
跟
供应
制
盘
足够
学校
土地
仍然
容易
书
17
种
生
选项卡
代理
本@@
包
框架
键
混合
最近
货物
日本
另外
状况
四@@
入
只能
Server
努力
权限
称
尝试
些
制动
义务
清单
高级
监测
机制
主@@
t@@
构成
端口
一份
侧
80
认证
制作
h
住
爱
促进
21
今天
承担
朋友
属于
更加
收集
费
资本
金@@
审查
形
动力
字
白@@
开
人类
一条
h@@
平衡
总成
共同
生物
知识
双方
最高
阿@@
特@@
法规
频率
分类
下降
自由
最小
屏幕
等级
缺陷
利益
接地
共享
手动
o
带有
实例
角度
光@@
－
分钟
长期
在线
一下
域
H
响应
两种
而言
版
局
改善
股东
物质
放置
曾
90
相@@
国内
进
安@@
科学
打@@
成@@
有些
厚度
重复
角
打印
运营
液
19
占
请参阅
系
转向
清洁
将会
几个
指导
例
即使
唯一
如此
适合
最好
2.@@
Web
动物
包装
同步
吃
线路
员
理解
心
算法
自然
风@@
i@@
条例
找
IP
一致
主机
工厂
加入
22
为什么
料
感觉
后@@
选定
f@@
0.@@
排放
觉得
指标
董事
遵守
警告
一家
关联
合并
品牌
钱
】
y
环
现象
【
文本
正@@
订单
监督
其@@
用@@
角色
先
大于
日志
为@@
非@@
电子邮件
相
终止
修订
级别
螺母
1.
风
31
电
给出
重大
以@@
效率
一名
全面
临时
立即
时@@
燃油
飞机
液压
事故
专家
g
地面
支撑
标志
下面
拧紧
架
和@@
国
否则
小于
斯@@
200
K
色
明确
花@@
单独
密码
低于
交流
3.@@
实体
最新
香港
er@@
邮件
北京
传输
及时
$
球
转@@
差异
加
审核
除了
没
视频
紧固
配备
再次
箱
分离
手册
南@@
合格
指南
写
意见
交付
大型
州
标识
大多数
付款
利
石
释放
编制
家庭
基
直径
复杂
指令
以前
电气
清除
发
4.@@
报警
关注
做出
尤其
副本
全
办公室
帐户
队
升级
类别
生@@
驱动器
指出
in
产业
阀门
钢
表达
重点
联合
32
登记
几乎
膜
座椅
亚@@
实践
经理
强
套
增强
政治
导线
许可证
证券
平面
压
柱
双
流@@
协调
y@@
五@@
2.
k@@
容量
商品
站点
500
上海
结论
红@@
整体
石油
10@@
县
万@@
气@@
游戏
5.@@
系数
或@@
2010
从@@
儿童
声
称为
酒店
感到
槽
广泛
当@@
回
客户端
主题
买方
动
媒体
断开
70
集成
放在
转移
这@@
W
文
更好
金
垂直
规格
视为
不到
座
低@@
应为
Z@@
a@@
不再
植物
声明
应力
贸易
河
训练
第一
变@@
加载
运用
预期
用来
er
引用
集中
结果表明
概念
数值
附录
便
v@@
预计
最低
有权
核心
23
使得
经常
应@@
病
禁用
保险
短路
表格
覆盖
想要
老@@
财务
控制系统
优势
同@@
以后
周期
跟踪
罗@@
章
激活
身体
离开
年度
钢筋
状
书面
履行
重
某
重量
似乎
列出
食品
德@@
硬件
所@@
头@@
变量
谁
面积
比赛
化学
布
容器
变得
污染
附近
真正
2000
业
拒绝
现代
咨询
发行
含
叫
投标
原理
负载
附加
地点
电脑
请单击
顺序
仪表
回@@
指数
●
额外
Y
巴@@
听
临床
英寸
以来
疾病
波
轮
样品
Y@@
美@@
每年
如@@
未能
合成
手@@
金融
快
35
．
玻璃
异常
28
01
城
g@@
利@@
日@@
潜在
合适
时期
属
燃料
2008
事项
性质
应对
压@@
思想
论
意味着
也许
中间
总是
我@@
电阻
艺术
登录
根
显著
收益
法@@
弹簧
管@@
相信
担保
普通
@
林
物理
树
厂
账户
码
旅游
基@@
一年
统计
董事会
创造
的@@
第一个
办法
承诺
签署
油@@
充分
比@@
示例
能源
空@@
过@@
效应
能量
抗@@
监管
打
比如
行@@
事务
消除
音乐
具备
门@@
世纪
不仅
正式
w@@
该@@
自定义
装
语
而@@
提示
反@@
规模
下载
掉
资格
电池
认识
准确
墙
照片
交通
冷却
秒
性@@
平@@
2015
适应
公共
方便
线束
酸
部署
山@@
布@@
6.@@
当然
高压
各@@
船
进口
每@@
一天
死
大约
多少
样式
展示
振动
来源
问
机@@
电影
装配
锁定
符号
品
l@@
验收
货币
变形
只要
℃
点@@
东@@
实验室
药物
通用
生命
约束
相比
会@@
负荷
修复
卖方
r@@
成立
连接器
形状
顶部
注
行政
某个
干
导入
制备
改革
桥
领导
p
受@@
科技
机组
1@@
塔
财产
反映
竞争
转让
专用
黄@@
边缘
质
on
亿美元
大部分
共
26
手机
精神
防护
木@@
英语
动作
万
构建
各个
总@@
索引
印度
可靠
很大
点击
齿轮
面@@
视
未@@
背景
巨大
补充
怎么
300
字段
价
每天
调用
功率
职业
给予
底部
f
全国
空
2011
社区
进程
ECM
国@@
化@@
in@@
补偿
周围
工
统一
纸
文章
半@@
声音
投标人
积极
马
小组
禁止
土
深度
意识
教学
挑战
梁
虚拟
预算
格
波@@
投资者
原@@
原
配合
当时
文@@
发电机
45
定期
乙方
2009
.@@
7.@@
消费者
公@@
西
总统
医院
推动
电力
通@@
甲方
一旦
介质
智能
令
趋势
防@@
进@@
逻辑
2012
IT
界面
清@@
底
证据
科
多种
债务
对应
黑@@
破坏
么
地震
Q@@
好@@
同一
四
融资
试图
提取
在@@
新型
供
食物
深@@
浓度
词
’
死亡
大家
2014
无论
±
切换
感
那里
摘要
估计
不足
校准
原始
u@@
圈
元件
合@@
话
几@@
配件
软管
仪
面临
十分
宽度
仪器
液体
微@@
有人
十@@
法兰
第二
公开
子@@
锁
中央
审计
越来越
自身
右侧
含有
字符
医疗
女性
此@@
向导
机油
协会
o@@
报
扫描
密度
起@@
取
绿色
来@@
27
铁路
2016
这么
物品
德国
2007
尔@@
生效
那@@
构造
遇到
华@@
编码
违反
管理员
典型
「
鱼
3.
─
啊
an
al@@
若要
农业
时代
体验
壳
船舶
较大
罩
00
变
隔离
损害
本合同
主管
带@@
稳定性
接
名@@
举行
销
转速
清楚
干@@
桩
医生
在于
压缩
持有
常规
人士
接近
人民
」
继电器
加热
超@@
天然气
取决于
选
交@@
以外
近
方@@
左侧
一系列
图标
文字
北@@
应急
现金
据
股票
保障
2013
塑料
基因
毫米
入@@
出售
力量
完善
房间
组@@
协助
之外
计量
迅速
审批
买
四个
有助于
纤维
材质
故事
左右
利润
井
构件
维持
差
丰富
困难
人口
展开
l
从事
沙@@
厚
报表
数@@
联合国
族
石@@
古@@
上升
得@@
型号
替换
神
决议
推荐
今年
样
作品
调试
群
调@@
家@@
传递
期限
蒸汽
ing
储存
过滤器
替代
读取
图片
u
150
J
六@@
认可
×
29
定@@
早期
泄漏
海
19@@
布局
证
合
身
螺纹
铁@@
第三方
排@@
映射
18@@
两
各项
分子
计
於
无需
培养
短
表@@
真的
格@@
股
素
端子
填充
空调
顾问
照明
制动器
广告
放@@
直@@
冲突
经历
SQL
用途
土壤
高于
太@@
红色
脚
尚未
清洗
车@@
太
建筑物
到达
拿
是因为
分包商
高效
每次
蓄电池
水泥
8.@@
包@@
结算
宽
冷@@
左
万元
流动
达@@
脚本
绝缘
法院
技能
严格
人民币
变压器
酶
倍
机场
首次
予以
尼
战争
始终
投入
初始
间隙
fc
右
阅读
即可
环@@
内存
下来
相当
收@@
科@@
款项
穿
税
池
报道
上面
主席
这项
皮
设立
决策
75
存储系统
等于
本身
查找
官员
药
ch@@
明@@
里@@
仿真
反馈
部位
细节
职责
有限
排除
百@@
张
维@@
提@@
房
随
零
1000
参照
塔@@
钢@@
神@@
单个
界
除外
公路
会计
工人
而是
待
愿意
手术
法国
学院
1.5
场景
an@@
粉
铁
损伤
放
CD
权力
平
年@@
顶
地球
2005
st@@
布置
副
传播
手段
信
事实
成果
寻找
导出
飞@@
光纤
开放
集@@
筛选
辐射
真@@
松开
实际上
确实
假设
观点
曲面
总体
儿
400
间隔
王@@
el@@
体@@
变速器
制@@
导航
或是
获
安全性
口@@
用作
普@@
局部
安
等待
约定
纳
克@@
插头
岛
成分
连@@
蛋白
云
建造
en@@
样本
尼@@
33
商
木
选中
cm
叶
倒
框
复合
2006
派
沟通
披露
涂层
冲击
轮胎
有着
这次
地位
对比
合作伙伴
精度
曾经
k
工@@
管理器
并非
具
控件
一步
有时
哈@@
变成
外壳
力@@
扭矩
整合
定
夫
经@@
亚洲
村
02
it@@
旨在
生长
装饰
处置
牌
自动化
专门
交换
板@@
36
作@@
伤害
皮@@
店
居民
驾驶员
理想
XML
顾客
均匀
支出
扩大
13@@
离合器
操作系统
接@@
病人
火
轨道
精@@
第一次
误差
岩
授予
分区
火@@
亚
八@@
通讯
做好
分为
权益
壳体
半
名字
公众
威胁
填写
es
处理器
终端
办理
利率
将@@
免费
润滑
橡胶
距
美
荷载
哪些
省
管路
干燥
不应
优先
点火
燃烧
采集
清理
鼓励
回答
中断
磨损
主义
复@@
纳@@
命名
卫生
先进
电视
链
警报
主体
理由
公告
指示灯
00@@
身份
绘制
条@@
负责人
皮肤
先@@
边界
随后
腐蚀
注释
那样
推@@
转动
初步
攻击
思考
真实
教师
备用
眼
连
开启
坚持
既
干扰
丝
明
取@@
母亲
ed
别
怎样
独特
看起来
字符串
五
‘
遵循
骨
缺乏
爱@@
跑
吸收
183
实@@
紧急
风格
犯罪
冲@@
图@@
脱@@
加速
结@@
新闻
要素
宣布
实时
物料
一只
张@@
标题
核
font
别人
模
现状
此时
代@@
白
为此
预@@
任
转
互联网
改造
strong
享受
乘客
及@@
基础设施
档
延长
鼠标
逐渐
活塞
一张
拆除
电磁阀
防
行驶
PC
集合
ST@@
白色
阻止
眼睛
收购
病毒
圆@@
Z
迁移
强@@
噪声
浏览器
盒
额
所在
份
画
最@@
臂
超出
脉冲
操作员
推进
不锈钢
读
弯曲
反
al
强调
常见
第一@@
签订
核@@
场所
排
立@@
做法
相反
楼
新建
供电
声@@
出错
消费
GB
指@@
相互
招标
监视
弹性
租赁
车轮
序列
达成
回到
塞@@
动@@
送
退出
任意
总结
红
可靠性
网@@
学@@
飞行
2003
师
公里
高速
镇
引导
远
放弃
传动
48
军
预防
父亲
依照
女人
加拿大
战
意
re@@
抗
公式
路线
球@@
三维
到@@
往往
编辑器
600
直至
难
进度
任何人
en
体积
完
过滤
Exchange
债券
4.
ar@@
预
感染
9.@@
所选
解
回收
重新启动
修理
赔偿
外观
v
如有
酒
随时
该项
于@@
引入
所需
保@@
更@@
吸引
想法
港
令人
伊@@
报@@
满意
呈
妇女
短@@
打印机
多年
作者
轻@@
情形
库存
房地产
超
抑制
看看
试@@
颗粒
要@@
修正
儿子
微
永远
奥@@
盐
配@@
草
教
提前
男人
可见
澳大利亚
锅炉
换@@
土@@
95
吉@@
少
他@@
64
组装
Q
看见
很快
回路
Internet
焊缝
保养
旧
去年
发挥
由@@
55
担任
判断
通
得出
栏
2017
净
雷@@
离
HP
偏差
架构
他人
失去
突出
管线
委托
形@@
写入
活性
深
通风
翻译
含@@
签名
阐述
自我
渲染
承认
极
检索
驾驶
人工
欢迎
听到
12@@
34
激光
营销
象
精确
血@@
恩
路@@
芯
股权
音
LUN
65
配置文件
额定
Ch@@
未经
基地
on@@
选@@
担心
故障诊断
米@@
塞
载荷
小型
身上
教授
失@@
装@@
动画
女@@
帮
®
2.5
我会
发票
年代
03
吸@@
刀
隐藏
黑色
律师
罗
缓存
引@@
氧
早
铜
一场
左@@
还原
室内
对此
票
父母
伦敦
可是
探索
基准
华
Manager
俄罗斯
负债
姓名
诉讼
线@@
起动
莫@@
大会
向@@
突然
满
异@@
后面
发表
赛
力矩
圣@@
沿
滑@@
风扇
周
at@@
整@@
进展
公布
地板
贝@@
索赔
场地
小心
研发
中国@@
森
术
年龄
共@@
14@@
概述
剩余
争议
原料
老
床
外国
绩效
接线
入口
垫圈
kg
浏览
里面
千@@
38
各自
壁
速率
移除
告知
关
17@@
著
肯定
丢失
夹
海洋
相似
推出
色@@
舒适
尽可能
讲
班
右键
网格
记忆
案例
触点
领@@
监理
列@@
绝对
37
非洲
之中
溶液
已@@
常@@
龙
冷
托@@
林@@
情
论文
变速箱
队列
生态
is@@
人才
我方
百分比
制成
科学家
车间
情@@
设
卫星
零部件
机关
地图
总线
装备
切@@
一套
RE@@
代
or@@
转化
16@@
15@@
各国
李@@
真
120
42
可能性
碳
切割
日常
农村
危害
南
延迟
胶
于是
充满
SP
一件
2004
产量
车门
种类
工作人员
信@@
cf
这位
前面
王
步
导@@
线性
压缩机
气候
转子
一组
渠道
磁@@
0.5
胶@@
兰
面对
签字
博@@
老师
Nike
运作
苏@@
软@@
ii
肉
升
播放
私人
准则
天线
各类
远@@
女
凡
症
团
治理
神经
子公司
研制
图表
衣服
活@@
运@@
必需
七@@
体现
指明
实行
展
眼@@
人数
纠正
真空
j@@
满@@
II
IN@@
掌握
物@@
钥匙
以色列
反对
危机
流体
中有
罐
运转
萨@@
仅仅
代理人
岩石
因子
引发
变动
能@@
寻求
在内
事实上
冷却液
失效
亦
ra@@
聚@@
环保
身@@
建@@
所用
态度
极@@
亿
龙@@
分享
雇员
品质
独@@
袋
事业
理念
工资
会话
术语
信用
专@@
火灾
她们
途径
越
航空
细@@
简称
常用
刺激
太阳
柜
不管
断路器
单一
制品
例子
脑@@
或许
排气
主动
适配器
高温
图案
几何
靠
初始化
表达式
减@@
定制
至@@
近@@
轻松
电动
04
星
除@@
合金
冰@@
有机
没@@
耶和华
妈妈
公园
按下
到期
最初
随机
万美元
横@@
民@@
CO@@
上市
寿命
粒子
输送
km
et@@
ro@@
艾@@
总额
20@@
标
再@@
完美
案
强大
报价
旅行
然
症状
奖
低压
碰撞
快@@
无线
永久
磨@@
供@@
编程
台@@
邀请
信贷
ic@@
往
年轻
后续
周@@
限于
更为
氧化
井@@
托架
穿过
军@@
仲裁
键入
支行
因@@
倾斜
江
铝
前提
松@@
对策
05
协商
m3
障碍
传送
房子
针
瓦@@
补@@
鉴定
兼容
贵
横向
血
团体
简化
国际@@
配有
欧元
章节
菜
所属
垃圾
为主
z@@
本人
院
联@@
驱动程序
密@@
贡献
巴
后来
44
51
联邦
房屋
速
现实
演示
毛@@
离@@
看@@
我要
街
经销商
id
煤
规律
le@@
开挖
as@@
当局
延伸
85
另有
爆炸
鞋
如今
姆
方程
排水
炉
河@@
有所
ISO
地下
走@@
试样
杯
专利
此处
首@@
道@@
52
800
意大利
青@@
存放
会员
职能
书@@
理
欧盟
增@@
熟悉
申请人
下方
建
莱@@
心理
发射
滤清器
信任
云@@
评审
第三
置于
行使
切
特色
强制
极限
忽略
250
湖
坐在
常常
电动机
推广
中的
落
上方
雇主
召开
span
→
划分
转变
间接
天气
加密
普遍
药@@
向上
控制台
届
轮@@
来看
施加
MS
月份
温@@
首席
1.2
安装程序
加快
课
著名
解@@
值@@
跨
ad@@
对齐
易
产@@
节@@
证实
偏@@
角@@
网页
kV
意外
并@@
缺少
联盟
西方
套管
正是
退@@
来到
显示器
婴儿
士
交叉
检修
汉@@
英尺
杂志
挂
CLARiiON
福@@
蓝色
标注
载
产
SA@@
列车
测
盘@@
公约
使@@
断
其实
孔@@
正如
软
棒
理@@
侧@@
底@@
垫
等等
伤
期望
民族
上帝
一方
分解
SP@@
酒@@
官
变换
叶片
求
选举
阵列
API
违约
&lt;
森林
还要
运
箭头
机理
化合物
态
依赖
编写
CA@@
10.@@
国务院
地质
清晰
根本
快照
狗
41
奇
圆
即将
传@@
静态
主任
06
拟
最多
按@@
索@@
隧道
密钥
二次
代替
混@@
做到
树脂
难@@
am@@
缸
职位
意思
减小
耐@@
依然
快乐
引擎
考试
本条
竣工
AS@@
黑
暴露
死@@
加上
组成部分
导管
区分
落@@
灵活
LED
利息
消防
晚上
St@@
线圈
教@@
天然
不受
上涨
涂料
ed@@
IC
物流
增大
应由
提到
负
和平
武器
附属
成熟
习惯
取代
麦@@
需@@
硬
有点
建模
承受
就业
中所
乐
有用
管理人员
曼
风机
加以
施@@
消耗
翻@@
与其
名为
字母
牛
谈判
形态
乐@@
次数
测@@
随@@
两年
沥青
轴@@
东
丝@@
很@@
车身
明白
纽约
单据
ol@@
党
记者
兰@@
调
零@@
气缸
是从
交
护@@
国外
透明
妻子
笑
档案
数目
一块
估算
URL
三种
享有
不少
模糊
笔
46
质@@
两侧
群集
激励
学会
战@@
本次
干净
导向
查@@
矩阵
诺@@
顿
润滑油
車辆
其他人
这类
虫
初@@
部队
解除
纳入
接合
出去
母@@
食
暂停
截至
库@@
SC@@
世
糖
警察
已有
配
各方
一半
耳@@
2002
深入
叶@@
活
应付
踏板
英里
高兴
博士
联系人
英@@
说明书
事@@
物体
非线性
不想
求@@
右@@
音频
直线
杀
粗@@
43
动力学
被@@
全局
关@@
留下
加热器
人物
援助
宣传
好像
49
ab@@
分行
对方
很少
第二个
洞
重要性
回来
并用
修@@
ent@@
不错
优点
亲@@
紧@@
易@@
装载
收费
了@@
保密
39
六
SE@@
呈现
5.
哪
有效性
重试
向下
事宜
视觉
改为
泰@@
传真
食@@
钻孔
足
开口
劳动
卸载
必@@
截面
60@@
撤销
es@@
灰@@
错
编@@
触发
伯@@
位@@
洗@@
菌
em@@
规程
护理
1.1
法庭
绑定
靠近
56
血管
间距
感受
赢得
托
勒
付
存
部@@
毛
值得
AC@@
树@@
兴趣
美丽
货
ar
草@@
融合
品种
矿
香
情绪
焊
骨@@
几年
吨
海外
形象
评论
08
收
72
司法
不用
第三@@
根@@
索
处@@
比率
详情
难以
IP@@
优质
管理系统
2.2
充电
本发明
喷@@
缝
車
发电
房@@
程
立
好处
奥巴马
el
余@@
层@@
设有
公差
联
标@@
数学
2.1
成长
采@@
号码
峰
居住
瓶
结
别@@
印刷
2001
一台
将来
由此
女孩
枪
砂
跳
亮
密封圈
筒
军队
合法
因而
说@@
行程
广@@
耦合
凭证
敏感
鲁@@
盖@@
过度
病@@
群体
迪
侧面
煤@@
上部
药品
强化
为止
机器人
义
坐标
路面
断裂
PS
BS
安全带
所有权
直
半径
试
练习
表单
打算
杂@@
中华人民共和国
後
强烈
香@@
论述
技巧
案件
IS
投@@
消失
船@@
name
九@@
美国@@
游@@
富@@
办事处
控制阀
il@@
作战
54
呼吸
附表
清
面前
抽@@
新增
47
史
事先
im@@
配套
DC
梅@@
排序
陈述
大脑
表中
SAN
一段
时刻
腿
成都
矿@@
罚款
ap@@
每月
怀疑
窗
边@@
银@@
星@@
举办
支@@
节目
农@@
当事人
瓦
营业
条目
卷@@
光学
涡轮
暗@@
花费
陈@@
电子@@
肿瘤
断@@
鱼@@
欧@@
尾@@
亿元
网上
越@@
66
3.1
顶@@
一座
液@@
请@@
ri@@
税收
停车
非法
打造
温
记
印
男性
可行
前景
常
改@@
原来
造@@
牛@@
威@@
收取
尾
齿
仓库
味
帧
z
停机
多次
境内
业绩
自行
体育
IS@@
AP@@
选用
可用性
裂纹
沙
俱乐部
全新
过渡
诺
感@@
校正
观测
SAP
汇率
滑动
一层
多数
财务报表
更大
模具
发育
id@@
朝
商标
冲洗
官方
氏
存@@
答案
以为
大陆
想@@
黄
平行
吊@@
黄色
管理层
人群
电厂
酸@@
月@@
元@@
大气
.com
键盘
园
观
道德
摩擦
洛@@
优秀
3.2
提
ion
对话
污水
余额
出版
重视
催化剂
电子地图
抵押
韩国
帕@@
取样
彻底
言
户
流行
辊
伏
公平
之日起
离子
贴
便于
大鼠
紧
有趣
重建
总部
99
财政
探测
扣
操纵
迪@@
三年
众多
弹
接下来
现@@
预定
纵向
un@@
早@@
文件名
注入
ot@@
升高
散@@
脸
硬@@
做@@
某种
诺基亚
指向
康@@
束
成绩
腔
车型
63
定价
DS
旁边
商店
鸟
管理局
破产
Sh@@
去@@
字节
下跌
波动
进步
反射
依法
窗格
工具栏
所得
4.2
假
桥梁
换
Al@@
cs
采样
星期
一致性
脚@@
拍摄
磅
co@@
十年
兹
Active
伦
涵盖
废水
98
61
所有人
得以
头发
节能
区别
钢板
公民
类@@
江@@
办
MA@@
之内
器@@
法案
IBM
水泵
or
第二@@
进气
法定
玩
合约
烟@@
／
53
西部
AR@@
人体
日历
纸@@
哪里
厂房
卖
出席
标高
藏
并未
见@@
4.1
噪音
创作
一级
倒@@
合规
铜@@
封@@
厅
说道
费@@
存款
宗教
充@@
伟大
刚
沟
输@@
曲
剂量
等@@
文明
3.5
语音
住宅
顺@@
评定
存档
字@@
垫片
有利于
可选
直流
纹理
指示器
ST
le
致
希@@
机架
复选框
底座
松
语句
个@@
小说
DVD
提醒
赛@@
50@@
醇
AC
易于
乳@@
两次
量@@
AT@@
所谓
图书馆
拉伸
舱
仪表板
服
福利
配方
湿
谈
港口
粒
汇总
若@@
合伙人
开支
偏移
防治
Directory
凯@@
废物
us
去除
沿着
膨胀
犯
聚合物
维
吹@@
静@@
密封件
修
追求
医学
音@@
蛋白质
丁@@
阳
商务
绿@@
应有
简@@
不得不
端@@
穿着
疗效
调节器
62
男子
看来
30@@
城@@
调度
再生
势
sh@@
领先
iSCSI
停@@
经典
浮@@
短期
所有者
意@@
计@@
坐
与@@
网络@@
控
解析
mg
想象
CT
致力于
沉@@
兴@@
商@@
ag@@
茶
一边
出发
雪@@
泡沫
截止
固体
承@@
冷却器
EC
阿
同事
检
喷嘴
长时间
尽快
升@@
行李
订阅
催化
保
浆
Re@@
雨
公允
票据
甲@@
克隆
电极
总数
DTC
客
望
过来
110
3.3
IT@@
名单
上下文
磁带
降@@
弗@@
层面
存储器
屋顶
插@@
时尚
实
成型
留@@
f16lang1024
军事
围绕
副@@
考察
后果
女儿
计数
重置
苹果
服装
高校
射线
封闭
事物
不够
ation
封
薄
材
水位
class
步@@
市@@
注册表
致@@
论坛
86
1.3
坏
前后
套件
任命
听@@
项下
CA
油箱
痛
68
遭受
新加坡
不利
营养
25@@
宝@@
ER@@
季度
96
58
控@@
疲劳
目
视@@
停
归@@
广播
兵
海上
min
球员
晚
申报
算
效益
下去
就要
痛苦
马达
位移
奖励
烟
轮廓
像是
_@@
沉积
大规模
罪
下部
坡
产物
不良
AL@@
斜@@
约翰
送@@
07
柴油
埃@@
推
娱乐
灰色
螺旋
雅@@
面向
油缸
不必
层次
客户机
肉@@
SA
灯@@
金属@@
原子
AD@@
消@@
谱
农民
发放
嘴
Name
插座
SE
67
细
文件系统
日子
减轻
桶
色彩
本书
此次
记@@
财富
背@@
订购
持有人
整理
烧@@
说话
否
59
互@@
出于
表演
民
每日
氮
衣
尽量
支
免疫
6.
世@@
飞
乌@@
折@@
助@@
北
细菌
经济@@
父
游客
女士
协作
别的
国家@@
不论
止
生存
57
下午
先前
逐步
地层
伙伴
考@@
阳光
为准
ac@@
2.4
ic
帽
接通
11.@@
雷
移民
降
社会@@
跳@@
息
参与者
同等
成就
加注
国内外
炎
向前
种植
馆
印@@
每周
交货
et
职工
漆
教堂
陶瓷
起重机
2.3
写@@
只@@
考核
读数
堆
br
凸轮轴
雷达
普
ut@@
下述
EM@@
破@@
使用寿命
假@@
司机
用水
缓慢
弄
河流
钻
粉@@
接着
12.@@
领导人
六角
当中
缓解
贴图
永@@
防水
灯光
脑
身份验证
1.0
何@@
现
检@@
奇@@
SO@@
后部
28@@
投票
期@@
落实
92
倾向
薄膜
灾难
几种
/@@
扩散
甲
In@@
标准化
其余
文学
显示屏
扳手
蒙@@
管理体系
幸福
灰
给定
信心
海关
低温
本质
镜像
显然
供给
较为
埃及
ul@@
旅客
数据源
分层
ur@@
EN@@
影
野@@
地形
看着
砖
近年来
本节
源@@
EC@@
登@@
记住
太阳能
思维
紧张
打击
尽
牵引
知识产权
区@@
送达
现行
用户名
两者
家里
理事会
血液
暂时
分包
人生
回顾
轨
观念
空白
铺设
EN
班@@
居
无论是
客@@
署
排列
权@@
注明
击@@
必
使用者
图层
控制@@
照
os@@
梁@@
果@@
金融机构
种子
填料
连杆
杜@@
衡量
斯特
累计
回报
西班牙
光盘
本法
and
职务
5.1
us@@
娜
流动性
系@@
运动员
洗
劳@@
卡车
评级
一片
记得
污染物
默认值
如图
w
交换机
填@@
举@@
种@@
学科
警@@
伊
跨@@
霍@@
SS
字体
开采
前进
剪切
现代化
用品
真是
极大
度@@
CH@@
干预
at
片@@
五年
甘@@
ing@@
酯
对称
移@@
交易所
巴西
切断
博物馆
装运
一类
围@@
过高
急性
雨@@
研究所
章程
持
管制
弹@@
出生
PLC
蓝@@
果
田
锁紧
较@@
衣@@
品@@
即@@
is
部长
所得税
有限责任
控制面板
手柄
皮带
货@@
福
重组
缩短
探@@
英文
呼叫
备
聚集
瑞@@
创@@
绳
移植
物资
电网
上诉
76
丈夫
丽@@
已知
0.1
总经理
台湾
溶剂
到位
托管
裂缝
藏@@
下游
涂
计入
镜
若干
行星
归档
断路
27@@
芯片
圆形
子系统
心脏
传
竞争力
岗位
胡@@
领
织物
人民政府
以使
足以
观众
1998
吃@@
含义
聚
复制到
磁
No
邦
收缩
2.0
务
完工
零售
依@@
取出
阈值
分散
鸡
计数器
体内
牙@@
示意图
脂肪
饮料
滤@@
不变
语法
RO@@
耳
PC@@
装有
加固
回家
09
未知
CS
张力
蒂
锌
对手
固定资产
少@@
哦
愿
尽@@
相结合
限度
Oracle
换档
队伍
喝
南部
辆
受伤
麽
监视器
这件
ia
堂
全世界
条文
分支
绘图
料@@
信托
注射
94
宝
型@@
古
详见
批
银
歌
88
查
贴@@
询问
研究进展
言@@
之上
餐厅
厘米
it
追@@
占用
末端
股市
湾
氢
任@@
句
广场
旁
感谢
纯
终于
关节
税务
审
至关重要
完整性
什
航
硬盘
钢管
回复
闭合
而定
火焰
猪
往@@
钩
函
幅
七
之处
油漆
IEC
渣
克斯
核准
防火
有效期
校@@
立法
差@@
LE@@
1.4
住房
五个
显得
依
碱
感应
GE
内置
风险管理
保险丝
探测器
恩@@
MP@@
乱
分组
锁@@
挂@@
sp@@
技术规范
Office
体系结构
男孩
借款人
鉴于
地上
阻力
扣除
备件
滚动
齐@@
href
DNS
估价
汽@@
提议
游
放入
头上
相连
赋予
哪个
一段时间
思@@
硅
交通@@
总监
景观
曲@@
坐@@
段落
曼@@
pl@@
奥运会
彼此
93
认真
家人
诗
MPa
奥
省@@
环节
减
勘探
TC
咖啡
止@@
捕获
OS
明天
尊重
180
71
社会主义
应以
隔@@
智慧
翼
卸下
协定
伤@@
电线
养@@
混合物
di@@
销@@
悬挂
自主
瘤
热量
蓝
柱@@
萨
钻井
参@@
黄金
CAN
压实
赫@@
路上
临@@
之下
正面
化学品
分发
追踪
一部
套@@
汉
盐@@
资
武@@
依靠
见到
排出
散
超声
纳米
分开
认知
相当于
讲@@
型式
到底
毒@@
≤
缩放
街道
存货
插件
革命
充足
SS@@
线程
扬声器
提及
订立
出色
看法
惊@@
肌肉
700
劳动力
CP@@
交互
符
置
巨@@
坑
负@@
辛@@
伯
发明
油田
纯@@
净化
一周
麻@@
桥@@
硬度
40@@
CD@@
家具
苦@@
胸@@
卓越
还@@
其次
穿@@
木材
马上
很难
DNA
拍
终@@
首
此项
击
负债表
对外
LO@@
私@@
前往
97
5.2
用以
而成
SD@@
诸如
职
一侧
刀@@
准
焊@@
搭配
帐
om@@
路由
针@@
​
一根
射@@
电路图
北部
胜利
买@@
车站
杰@@
雾
主管部门
恰当
走向
电站
茶@@
急@@
负担
屏蔽
弱
浇筑
宁
相邻
梦想
平等
保修
相关性
陆@@
积@@
雪
不好
生命周期
81
就@@
夜@@
证@@
乡
顶点
时应
颁发
001
群@@
秘密
钻@@
还会
保证金
休息
末代皇帝
NAS
DE@@
柄
钙
无线电
法人
应向
数据表
邮箱
二级
最为
-@@
ON
涂@@
手工
旧@@
画@@
母
老板
雅
矛盾
1999
Navisphere
公用
冰
73
文献
优先级
牢固
日益
工况
迹象
大学生
委
物种
srt
办公
清算
曲轴
粘贴
ft
民主
绝@@
HSE
牙
AutoCAD
想到
CL@@
载@@
工程量
损益
天空
渗透
潜力
Co@@
会计师
胺
球队
关心
读者
镀锌
积分
坝
1997
互动
报纸
予
23@@
工序
http://www.microsoft.com/contentredirect.asp
^
挖掘
安全阀
养
RA@@
忙
那种
手续
观看
热情
斜
USB
归
八
刘@@
不适
成品
敌人
观@@
GPS
对照
资助
司
天内
速@@
礼物
宽@@
集体
放电
航@@
船只
77
不久
仔细
通知书
委任
彩色
定量
股东大会
阴@@
青年
预先
液位
这场
应变
这儿
码头
玛@@
预览
借款
导
82
猫
境
投诉
原材料
um@@
某@@
期待
Symmetrix
暴@@
硅@@
隐@@
Linux
紧密
春@@
个体
少量
目的地
闪烁
热处理
放大
出具
变为
维度
固@@
论@@
吸附
年轻人
大幅
高速公路
信息@@
刚刚
蚀
冲
戴
还应
最大值
篇
NET
增量
情感
AN@@
将要
轴向
容@@
季
套筒
发動機
砂@@
摆@@
缘
守@@
节省
装入
size
成像
筋
性别
薪酬
完毕
所说
刷
远离
映像
起到
例外
磨
91
法官
毒
拖动
四川
附
高达
as
朝@@
15.@@
频道
机柜
但@@
伊拉克
分辨率
以此
总量
洛
地下水
中文
彩@@
不仅仅
機
友好
87
铝@@
氯@@
延@@
梦
NA@@
DN@@
修建
素@@
景
bold
模@@
家族
博
应收
有害
批评
炉@@
的确
营
峰值
MO@@
客人
4.3
69
扩张
显@@
指挥
频
限额
糖@@
气动
画面
今后
二十@@
母线
堵塞
布线
集装箱
嵌入
官@@
冗余
义@@
标书
综述
回归
轨迹
聚合
变送器
丁
头部
平均值
机具
从来
纵@@
设计师
水分
支承
创意
展@@
遵从
不当
RAID
假如
田@@
水中
刷新
径
待@@
效力
毕业
至今
假定
语@@
插
夹@@
这家
保管
转到
78
ig@@
综合征
受损
睡
简要
目@@
要是
AP
拖@@
堡
提起
能否
恒@@
ate
拧
支柱
光谱
铺
命令行
联机
■
合伙
士兵
搅拌
治@@
刺@@
顺利
湖@@
技术支持
详图
响
上次
购@@
伊朗
如同
CR@@
放到
阴影
储备
减值
脱
配电
党@@
车顶
超级
□
刀具
上游
备@@
盈利
运营商
修补
相位
为例
绕组
PL@@
着@@
夜
放大器
刻@@
洪水
癌
电梯
概率
回应
标识符
饰
支座
谷
可行性
旋@@
£
84
残@@
驻车
FC
振@@
面料
勒@@
数据中心
认定
動
紫@@
耶稣
图元
89
慢慢
上的
佩@@
ASTM
UN@@
信用卡
学员
Celerra
外面
温度传感器
双击
校
ID@@
标定
灵活性
光源
造型
技术@@
跑步
4.5
剖面
多么
空中
找出
卖@@
影像
前端
约@@
加大
体制
词@@
契约
债权人
闪@@
广州
红外
PO@@
CM
签发
基层
看上去
审议
商业@@
洋@@
绿
书面通知
麻烦
诱导
PA@@
NetWorker
异
分割
累积
禁@@
移
滑
录制
安置
复位
信道
车道
谢谢
自行车
对待
m2
吹
每种
分数
喷射
地理
疼痛
SC
发展中国家
投
优惠
生物@@
执行器
命
底板
汽轮机
作家
SD
IM@@
杆@@
盆地
化工
前部
精神@@
份额
供水
反向
纹
Autodesk
新兴
导轨
开路
发起
缴纳
剧
泥@@
微生物
服务@@
160
化学@@
楼梯
滚@@
贮存
CE@@
境外
水库
岩@@
qu@@
生产线
贵方
时间表
样@@
歧管
汁
后者
光线
当作
网关
发光
活跃
近期
1995
环境保护
华盛顿
互相
屏
乙@@
适宜
诗@@
轻
男@@
插槽
人力资源
iii
坡度
寄@@
〗
静
印象
〖
参观
共和国
实用
影片
东部
柔@@
2018
重新安装
ent
唐@@
影@@
几天
演讲
力学
成形
24@@
一体
号@@
国王
古代
分公司
反应堆
问@@
雇佣
74
地基
慢
社
偿还
泡
Center
查阅
漂亮
夏@@
睡眠
倾@@
up@@
限值
TS
盛@@
算@@
沃@@
超越
水管
附@@
依次
以往
密
CC
粗
for
丹@@
汽油
平滑
玉米
系统@@
从中
厨房
哲学
可供
划@@
携带
复合材料
扎@@
错@@
火车
時
笔@@
棉
饮食
册
思
83
延期
变电站
接到
糖尿病
然@@
座位
继承
学者
处罚
初
容
th@@
氯
上市公司
斗
μ
熔@@
5000
项@@
紧固件
促使
无关
阻碍
包裹
灵@@
从未
足球
外侧
室外
废气
露
lo@@
IA
公寓
安全@@
7.
ml
有限元
检查和
袭击
突@@
机遇
3.4
`
巴基斯坦
涂抹
储@@
沿@@
声称
兄弟
威
磁场
太多
起始
高性能
稀释
士@@
信息技术
尖@@
足@@
洪@@
同一个
次@@
纪录
悬架
™
积
佛@@
MB
合计
分级
花园
引进
亿@@
CO
RS
求解
谨慎
是不是
上下
玩@@
鼓@@
救
举
名义
认@@
电磁
十
题
矩形
Service
蔬菜
葡萄酒
打电话
背
航空公司
高程
挡
瑞
一道
穿越
汤
添加剂
13.@@
放松
和谐
助理
寄存器
期内
进而
破裂
叫做
事务所
史@@
OR@@
多样性
缓冲
接入
青岛
背面
Dell
氢@@
体重
行车
SI
3000
浅
煤炭
宇宙
一个月
中将
条约
购
全体
酮
买卖
中部
不了
大概
重命名
克服
220
一辆
个人@@
艺术家
CPU
供应链
英特尔
这时
女子
收回
吸入
分布式
饼
另一方
CI
结婚
少数
治
产品@@
血清
爱情
这座
承包人
变革
可为
令人@@
导弹
另一方面
时钟
署长
Hz
占@@
项目经理
知@@
裂
可变
退休
仪式
肌@@
鼻@@
仅@@
计算方法
玩具
灌浆
um
罪行
小鼠
数据类型
何时
泥
判决
桌面
主张
富有
极端
忘记
所列
是@@
气流
丽
二氧化碳
周边
ers
早上
感兴趣
79
慢性
黑暗
6.1
指针
扫@@
缩
晶@@
报酬
浅@@
削减
素质
AS
照@@
动机
技术人员
社交
SharePoint
湿@@
電@@
夫@@
样子
证明书
选取
80@@
重叠
相机
误@@
跳闸
航班
均衡
巴黎
ph@@
矿物
and@@
政@@
抓住
他说
电器
工件
策划
散热器
爸爸
资质
教育@@
水质
订@@
连续性
1.6
透@@
发生器
丧失
中等
频繁
虚@@
呼@@
灵
惠@@
厚@@
纸张
希腊
一支
略@@
玉@@
工作组
原油
各级
持续时间
卢@@
区内
内侧
有利
休闲
箱@@
尼亚
汽车@@
杨@@
创业
破
单词
疗法
个别
工作站
借助
带宽
病例
ion@@
舞
简介
川
链条
锤
多边形
草图
Outlook
虚拟机
代价
厂商
900
1996
阿富汗
二维
损耗
201@@
铸造
雨水
级@@
乱@@
肝
差别
附带
暴力
水果
脂
学家
海水
摩@@
错误代码
0.0@@
平板
租金
昨天
钢结构
钉
务必
触@@
电子商务
湿度
CM@@
评@@
环境@@
美好
Services
出版物
阀@@
衍生
以免
精
剪@@
千
秘书
弯
end@@
0.2
注意事项
疫苗
6.2
应立即
糟糕
节约
裁决
竞争对手
遭到
景@@
摄影
IR@@
重力
搬运
项目管理
这份
TE@@
有无
SH@@
预订
管理者
青少年
供货
闭@@
上限
手指
溶解
这条
亏损
桑@@
救援
称@@
婚姻
人权
方向盘
宏
吉
PVC
采访
屋
ow@@
哈
油泵
百
移交
一体化
期权
同学
建成
工业@@
泵@@
隆
§
棉@@
尖
抓@@
务@@
激素
羊
作物
末
集群
18.@@
害怕
漏
胜
险
动脉
金融资产
of
保险公司
拷贝
签
自从
却是
流域
净@@
粘@@
救@@
地铁
有时候
我能
天窗
设定值
签@@
迷@@
这方面
卫@@
3.0
拧下
嘉@@
该国
这会
外汇
碎
捕捉
瑞士
IC@@
边坡
投影
战斗
癌症
预防措施
遗传
折扣
撒@@
核算
改
链@@
雄@@
州市
学术
激发
射
125
度量
形势
浸@@
高端
齐
单元格
效
q@@
碳@@
等效
像素
li@@
业@@
油管
一款
器件
保函
伦@@
影响力
候选人
style
Ma@@
自由@@
立刻
铅
气门
镍
拓扑
爆发
蒸发
TA
职员
PA
你@@
滤波器
淡@@
一同
ure
床@@
汇@@
收件人
电信
拟定
积累
分段
BO@@
处长
这款
荷兰
牌照
活力
登
便利
PT@@
平方米
CP
弹出
宪法
利用率
乘
漏@@
信用证
ay@@
AD
产品质量
200@@
ell@@
盖板
管辖
友
缩@@
iv@@
唱
超声波
失
岸
制造业
呆
周末
批次
柔软
菲@@
原有
Excel
免@@
一次性
总理
钳
难题
那时
流入
基金会
M6
夹具
大楼
到来
认购
法律法规
本行
购物
造
铝合金
数额
运送
广
26@@
接线盒
演@@
断面
US
针脚
客观
团@@
夫人
起点
System
用法
新鲜
扣@@
FS
政
程序@@
默@@
总计
国会
科目
第十@@
摇@@
心里
自然@@
卫生@@
基本上
怎么样
一对
仓
判@@
限定
朱@@
莉
焦点
ir@@
溶@@
阿尔@@
年底
电位
文书
III
载体
SM@@
伴随
演员
间@@
数字化
域名
进出口
共有
关税
TO@@
成员国
玻璃@@
灵魂
数字@@
甲板
协同
餐
整
浪费
初期
痛@@
脱离
请勿
审@@
更正
排名
注@@
说法
万吨
增压
期货
发送到
优@@
废@@
缺失
饱和
按住
放射性
草案
﹑
古老
议会
季节
路基
MW
用地
衬套
Sp@@
氧@@
纳税
受益
IN
吸
喷油器
改性
本章
留在
上午
受体
ib@@
相互作用
知
贵@@
姆@@
碎片
内在
齿@@
镇@@
维生素
实质
菌@@
幼@@
海岸
限@@
露@@
恐惧
悬@@
容许
续
补贴
甲基
磷
组分
深刻
采
气候变化
苯
HTML
老化
14.@@
敷设
转型
肺
课题
启@@
荷@@
双向
ch
DS@@
精密
中心线
5.3
尚
101
eg@@
晶体
光标
显
话题
ak@@
般
ip@@
招@@
VMware
朝鲜
解决问题
各地
给@@
CN@@
突破
转换器
都@@
耐
硫@@
Pro@@
幅度
北京市
墨西哥
罗马
机床
营@@
发言人
宜
谢@@
场@@
沉降
径向
鼠
逆@@
激烈
An@@
od@@
ex@@
严@@
下表
鲜@@
Le@@
圣
接缝
高质量
铺@@
以内
一生
预制
只读
Java
av@@
豆@@
留
损
光滑
后方
差距
斑
工作@@
注重
具@@
展现
尺
折旧
歌@@
秒钟
缩小
贸易@@
一百@@
争@@
灾害
潮
Data
硬化
域控制器
荧光
恶@@
弯@@
舞@@
核实
挤压
应能
实在
加速度
灰尘
联络
底盘
宫
静脉
富
获@@
债务人
公正
人民法院
喜爱
托盘
即便
羊@@
ec@@
電路
迹
年前
Un@@
平面图
拓展
牛奶
环形
丰@@
毒品
首都
警方
地说
囊
款@@
脱机
NO@@
身边
茨
序
油气
潜@@
扩@@
胆@@
薄@@
文中
施行
呀
阻@@
谈话
17.@@
略
英
拍@@
数组
思路
水量
运算
ls
无限
居@@
生产商
PP
缓冲区
偷@@
商业银行
PE@@
墙壁
对准
康
分隔
玛
为何
摄像机
组中
粘度
驻
统治
基本@@
管理@@
以太网
以供
水资源
螺丝
创
害
感情
城镇
大众
平稳
出厂
两国
两端
良@@
凝@@
养护
MS@@
毒性
聪明
工程设计
小孩
PE
激@@
≥
5.5
通电
出资
喝@@
用户界面
实力
持@@
www.@@
先导
政治@@
写作
个性化
爆破
属@@
担忧
征收
中期
久
冬季
可使
驾驶室
透过
卡箍
预设
发给
DI
大卫
一群
收益率
准确性
乳
志愿者
承载
逃@@
侵蚀
交给
燃气
反复
住@@
夏季
泰国
最少
经济学
幻灯片
面上
卡片
愉快
DM@@
骨料
式@@
当代
1994
输送机
关键字
确立
任一
冠军
防腐
珠@@
苦
润滑脂
器官
基础架构
公
受托人
太平洋
过于
挺
TB
新闻@@
预应力
幕
机箱
一面
uicontrol
揭示
九
折叠
偏离
重型
Access
众
劳
整数
懂
固件
限
欣赏
借@@
竹@@
缔约国
座@@
吸引力
NE@@
象@@
博客
依赖于
钠
专注
如需
批量
Th@@
临界
量化
珠
哪@@
灯泡
首选
派@@
镜头
顺
汇报
双重
单价
PR@@
传达
连接件
氧气
便@@
秋@@
戴@@
内外
日前
窗户
导体
术后
师@@
all
储罐
场合
患
拆@@
定向
靠背
优良
科学@@
书面形式
微型
持久
滴@@
第四
隐私
两条
研讨会
蒙
Ar@@
ard
世界各地
保险@@
列入
16.@@
深圳
ME@@
发包人
欧
欺诈
1500
分析方法
主持
树木
回转
不幸
支票
气压
补
老人
付@@
停用
招聘
―
背后
晚@@
外形
替
€
8.
数据@@
三相
墙@@
渴望
绕
永久性
菜@@
胶带
狂@@
执行官
液化
肌
透露
控股
刚度
置@@
财@@
韦@@
陷入
酒精
不确定性
判定
GB@@
壁@@
所作
最优
DB
后期
超时
后视镜
扶手
价@@
履约
20.@@
收音机
融入
金钱
石头
莱
探头
SR@@
备注
丹
家伙
税@@
分离器
耶@@
即时
安裝
六个
制订
增补
杀@@
塑
规例
发电厂
阻
豁免
秘书长
选择性
有力
窗体
近似
剩下
粉末
要点
阵
子女
答
密切
pro@@
庆祝
词汇
喷涂
刚性
本周
矢量
隆@@
固化
受欢迎
搭
特许
电话号码
相关联
啦
势@@
推导
预留
某人
am
有个
太空
快捷
斗@@
4.4
膜@@
穆@@
HTTP
委员
建筑@@
神经@@
讲话
PM@@
以防
标称
中央@@
蒂@@
片段
脉
一句
话@@
调制
一把
梦@@
故
中国政府
手中
冻结
氧化物
科技@@
锻炼
冒@@
105
生物学
电气设备
簿
极其
演出
∶
介于
分析师
南非
奇怪
硫
mm@@
折
环境温度
TR@@
一流
营运
偶@@
味道
GDP
入库
割@@
须@@
出血
便宜
序列号
信息系统
增压器
19.@@
备案
兵@@
斑@@
董事长
方可
350
展览
0.3
1993
复杂性
要么
乘@@
秩序
温暖
代谢
照顾
免
繁荣
保温
中止
善@@
阀体
最早
成人
宗
自愿
爬
签证
混乱
资@@
喜@@
版权
人为
录入
ff@@
体育@@
ME
拖车
赤@@
贷款人
拿@@
Explorer
定子
疑问
课@@
下文
TP
理性
侵犯
环境影响
蛋
借鉴
舍
130
第二次
梅
除去
遗@@
主人
亲
售
物业
焦@@
凡@@
微波
微笑
Cl@@
多功能
当天
手套
大道
读@@
ov@@
日至
SM
哥
遥控
车窗
抢@@
70@@
闸门
看出
行政@@
工会
业务流程
财年
刮@@
为空
人力
电容器
透
集团公司
lb
妨碍
破碎
逐@@
DM
防火墙
文化@@
具体@@
铰链
供方
躺
11@@
工程施工
操纵杆
听说
注意力
汉语
下次
什么样
递交
那儿
Pl@@
阳@@
提名
延误
①
不可@@
增
起吊
减速
服@@
流向
视野
7.1
痕
甜@@
以下内容
肥@@
示范
进来
扬
权重
微软
澄清
柔性
BR
叫@@
按键
所在地
乡@@
税款
围
牵@@
相等
7.5
接收器
爆@@
胃@@
DR@@
CE
检测仪
泰
水流
轻微
现金流量
弄@@
裁定
UV
个性
附着
版@@
鲁
浮动
示@@
谷歌
征@@
扭曲
q
把手
抛@@
all@@
坦@@
氟@@
惯例
GE@@
地带
Ex@@
分析仪
承租人
拼@@
系指
状@@
拔出
ASME
Max
占据
此等
的人
答复
冠
屋@@
完@@
民众
芯@@
虚拟化
海军
起诉
质量保证
资源管理
兴
串行
COM
猛@@
举措
研究者
油位
扮演
连同
半导体
大厦
肠
睡@@
兼容性
此基础
细分
防爆
北美
世界@@
稍后
DL@@
提案
桌子
免除
明细
食用
群众
垂@@
灯具
枪@@
AR
DO@@
发生变化
流速
接管
钟
灵敏度
一本
少于
140
处理@@
谷@@
施
泛@@
隔
New
魅力
准@@
线条
信仰
DB@@
农场
寒@@
透明度
一批
嵌入式
小麦
谈论
帕
教练
费率
断层
刻
开工
Ac@@
均@@
混
期限内
平整
1990
发展趋势
第五@@
医@@
容纳
行走
账
一篇
区间
股@@
重庆
发酵
职@@
粮食
编译
编
腹@@
PT
评分
坏@@
当期
必然
j
废
震@@
En@@
家长
发行人
尿@@
合资
240
乡村
圈@@
股本
正时
PD@@
钟@@
分裂
至于
处在
寻@@
怀@@
肌肤
复苏
高频
缴
IL
产能
对接
一行
马来西亚
礼@@
水下
特权
试剂
龄
向量
凭据
抱
付出
藉
宜@@
百万
刺
严禁
冬@@
锚
刚@@
弥补
验@@
Maya
打破
发货
ER
啤酒
上周
储量
纪
进去
MM
录
受益人
腐败
装修
礼
撒
所指
委托人
暗示
该值
楼@@
曾@@
器具
意图
煤矿
专用工具
无人
概况
二极管
用量
批@@
欢@@
青
个字符
宣@@
6.3
局@@
象征
工程@@
保护装置
争论
众@@
植被
用电
志@@
喷
很小
电容
DP
故@@
明星
港@@
工地
钾
飘@@
当日
擦
骨折
久@@
无损
汇丰
滑阀
911
撞
耗@@
对抗
ment
LA@@
未找到
何种
讲述
火箭
歌曲
Media
课堂
佛
360
四川省
抱怨
币
它会
男
OK
阻抗
菜单中选择
斗争
这部
解锁
to
尔斯
席
志
一个@@
变矩器
地表
南方
聚乙烯
发电机组
行事
水箱
凹@@
晶
装卸
為
中应
ind@@
而已
丙@@
玩家
夏天
最长
汤@@
露出
ob@@
ay
Mar@@
杂质
终点
CF@@
备忘录
尘
指引
叙述
生理
室@@
灭火
IE@@
压缩空气
增值税
加权
拉线
见证
22@@
不可抗力
三次
粘土
催@@
艾滋病
餐@@
3.6
推力
摄像头
敏
门户
视角
提述
离散
引线
son
润滑剂
汇
测试@@
ity
墙上
一路
校验
op@@
流通
横梁
基线
轴线
全球化
端部
9.
豆
36@@
租
税率
远远
TM
拨@@
IB@@
婚@@
柴油机
闸
TCP
衰减
熟
中学
ong
只会
销售额
抓
剧@@
爬@@
天花板
指控
砂浆
贝
界定
松动
AM
日起
砂岩
DA
表决
覆@@
彩
钱@@
时会
保时捷
任何一方
之时
抵达
不同于
航行
合同规定
账面
de
伺服器
Copy
数学模型
菲
一颗
電压
复印件
CR
样板
券
厂@@
心中
力度
赫
肩
ang
所致
施工现场
之类
恶化
第二天
被动
退
制约
前方
四周
多余
一间
唱@@
谈@@
TF@@
昂贵
面包
领袖
进化
幸运
走廊
赶@@
镁
该类
回填
强劲
35@@
乐观
振
勘察
佳@@
本来
高层
年间
本国
东方
亲自
教学@@
第四@@
CT@@
书籍
扇
暗
酚
故意
ABS
截@@
拖拉机
2.6
蛇
城区
收藏
诉
迭代
开车
孔隙
智@@
监督管理
今日
参
分成
规
设@@
决@@
7.2
舞台
统@@
目视
拆
艺术@@
底层
荒@@
链路
缺@@
探针
新西兰
可调
ang@@
稳@@
碎石
业界
仅限
想起
铬
可怕
走进
缺点
缴付
暂@@
命运
β
明细表
滴
冷却水
可爱
汤姆
租@@
办@@
额度
英雄
遭遇
指派
总裁
两位
前照
送到
议员
公认
开发人员
自治区
容积
告@@
上报
奖金
J1
三角
洞@@
消毒
债权
大大
抗体
取下
护套
防御
生产力
情景
惩罚
堆@@
诸多
Ro@@
例@@
稿
one
反应器
注销
A1
采矿
百分之@@
戏
对照组
99@@
IL@@
服用
宁@@
差额
邻@@
烧
加州
此种
服务提供商
IM
调配
旁@@
有益
到处
油脂
神经网络
Net@@
率@@
不时
锡@@
商定
亮度
考
lt
海底
音乐@@
铸件
剑
门锁
货运
酒吧
市场@@
山区
帝国
当今
得分
ce
诚信
标明
联轴器
两人
充分利用
膏
ET
二进制
ge
住宿
psi
犬
儿@@
卸@@
发送给
一人
梯
愤怒
守
下滑
占有
饲料
心理学
价值观
ev@@
株
腰
1992
供货商
浓@@
5.4
组建
更是
标准@@
甚@@
联锁
仙@@
周一
产权
休@@
概要
般的
將
5.0
秀
阶
Type
正交
麦
DR
评
夜间
燃@@
ds
降解
管件
质疑
违法
标的
刑事
流量计
院@@
熊
岭
MP
PDF
WS
卡子
有没有
CX3
产出
压力表
轮毂
雇用
农
前期
朗@@
皮革
票@@
一笔
胎
预处理
过期
搞
胃
客房
工作日
450
客户服务
贫困
4000
BA
水电站
设想
伸@@
沙漠
籍
多重
AM@@
拖
0.4
SW@@
人均
烟气
把握
尚@@
款额
历史记录
复
相符
处理程序
欲
展望
潮@@
土耳其
Centera
母公司
亲爱
接待
开心
洁
弧
抱歉
无疑
叶轮
中方
翻
念
既有
童@@
封装
自信
发达国家
猎@@
APP
凭借
电视@@
呼吁
没收
杆菌
se
兴奋
计算机@@
鸡@@
励磁
颁布
记载
源代码
科研
主流
氨酸
埋
墨@@
够
波形
此前
¡
顶级
累@@
闻
AT
炮
地块
機@@
肥
磁性
充气
弗
漏洞
频@@
摩托车
扬@@
皇家
Visual
演
塑@@
播
急
主导
园区
2020
符合要求
经济体
杰克
管理工作
监狱
衬里
北京@@
凭
法令
广东省
板块
吸烟
RT@@
纠纷
不安
示
下图
颗
许@@
高强度
偏
点亮
自动@@
信息化
喀@@
脸上
撞击
韩@@
一处
开头
给水
越南
便携式
待遇
TV
多媒体
了吗
码@@
刷@@
心灵
助
②
生态系统
阻塞
斜坡
某一
车速
饭
驻@@
03@@
采取措施
最小值
溢出
凸@@
当年
广泛应用
挖@@
NS
一方面
川@@
劳动@@
骨架
冷却系统
工期
CAD
也就是说
优异
并行
几分钟
随意
优于
纪念
巧克力
6.5
过多
残留
夏
民间
饭店
架@@
浅谈
磷@@
体外
底漆
知名
PI
攻@@
承运人
art@@
泄@@
议程
盒@@
欠
焦
高等教育
ud@@
大纲
粒度
北方
小姐
站@@
int@@
苏
kW
固
额定值
扭转
约会
板材
DA@@
学位
罐@@
入侵
凝胶
降至
十二
扭@@
苏联
导电
乘坐
脸@@
厂家
骨骼
触摸
结果显示
规@@
朗
肾@@
致命
ant@@
调控
虎@@
审判
灭
岗
徒
现金流
结晶
肠@@
适@@
抵抗
述
遗产
缓@@
停车场
央行
碗
争取
图中
执@@
38@@
不但
极为
增长率
哭
恶劣
演变
开发商
CC@@
iz@@
大门
常数
绒
像@@
拼接
端的
他会
29@@
柯@@
改良
茎
NT
李
内涵
光电
主轴
繁@@
氟
端点
键@@
text
着重
据@@
静止
管子
邮@@
桃@@
潮湿
股息
中性
康复
og@@
地产
大致
子宫
出版社
领导者
原型
钢材
南京
移到
金融@@
@@@
着色
盛
不停
年款
BP
汇票
多项
设法
法测定
上级
IV
刹车
差速器
定性
灌@@
mL
BC
磁盘空间
庞大
满意度
苯@@
立场
粒@@
ad
减去
数据包
鼓
os
升降
抗震
与此同时
工作者
102
承包
传奇
相互@@
ist@@
大多
坛
天津
大街
探伤
每位
更快
不知
俩
PS@@
man
对本
疏@@
透视
Documentum
价格@@
砼
est@@
一会儿
比重
Project
尺度
沟@@
死亡率
UR@@
累
1.8
爱尔兰
艰难
度过
污泥
决心
1200
乙醇
泄露
监察
鞋@@
鬼
监@@
受理
早晨
选择器
f2
来源于
上去
車@@
齐全
波长
水面
干涉
较少
cl@@
专有
本手册
绘画
轻轻
開關
泥浆
吴@@
而来
促销
枝
优
停留
bar
失望
回忆
pH
效@@
生意
ter@@
车载
之日
段@@
庄
棚
更高
财务@@
首选项
钢铁
UI
妥善
找@@
强制性
机械@@
0000
热点
液压油
沉积物
径@@
望@@
氧化@@
火山
经济学家
窗@@
0.05
跨越
图示
太太
机车
S5
应从
不愿
Vault
无缝
毫无
坡@@
州@@
梯度
目前为止
艺
兼
4.0
Cat
为期
PCM
有毒
媒介
街@@
狭窄
村@@
拔@@
里程
两名
核对
分支机构
地毯
神秘
肯@@
赢
医师
ter
拜@@
户@@
奶@@
惊讶
支援
执行机构
后台
UPS
摆脱
三十@@
人民@@
粘合
滩
楼层
衬垫
设计规范
嗯
衫
IR
增益
耳机
乔@@
Storage
国民
锡
帮@@
眼镜
多层
瓶@@
年初
专项
游泳
经济效益
枝@@
编译器
凹槽
细胞@@
年内
稍@@
塑料@@
方针
敏感性
绕@@
利亚
稀@@
跑@@
锥
婚礼
虎
论证
今@@
加油
广东
各位
酸性
α
明年
一端
不大
研究院
口袋
精力
Management
播@@
烤@@
实用新型
此后
制動
量子
拔
Se@@
杰
沉
医药
ms
人会
宽带
失业
0.8
便是
存取
沉淀
今晚
协@@
残余
起重
阻尼
杠杆
奈@@
莎
专员
深化
回流
既然
过热
公共@@
Web@@
热水
安全气囊
灾
老鼠
执法
梯@@
里程碑
崩溃
气囊
能耗
器材
染色
避@@
庆
去世
哥@@
伸出
听见
横
淀粉
风力
甲烷
空心
横截面
串@@
主页
护士
保守
饮用水
致使
Express
公司章程
挑选
分量
怪
新疆
使用权
双手
抛光
始@@
第@@
父@@
57@@
输电
如图所示
大坝
简便
村庄
束@@
交谈
带到
教会
营养@@
锦@@
洲
he@@
窄
串
锅
按规定
MA
ie
联接
定时
并购
外科
河道
保健
合成@@
保单
简直
人口@@
钢丝绳
AB@@
一期
闲@@
ma@@
上传
这张
曲轴箱
Pa@@
好好
肺@@
吊装
肩@@
铅@@
230
档位
碰@@
感知
硬盘驱动器
队员
刀片
风暴
de@@
冒险
对不起
紧急情况
赖@@
押
压力容器
布什
电能
NS@@
胜@@
45@@
楼板
湿地
无须
值为
涨
英镑
美联储
DI@@
户外
Mo@@
代理商
源于
阀座
分析法
内心
HBA
称之为
中毒
se@@
切削
每秒
输
PowerPath
竞@@
高中
瑞典
盆
答@@
HT@@
实质性
估值
滑块
Met@@
忽视
汽
疯狂
Qu@@
局面
锥形
台上
地域
缅甸
熟@@
广阔
派遣
一页
会计准则
备选
CB
手臂
流出
加压
恒定
制冷剂
并联
防范
EX@@
直升机
忘
脚手架
控制室
伺服
病变
参阅
英语@@
转矩
LE
mA
黏@@
刻度
装饰板
乔治
撞@@
诚@@
过大
尿
弃
P1
森@@
余
抽样
滤芯
宗旨
Sch@@
西南
ine
教程
遵照
似的
恶
戈@@
选手
Po@@
节气门
缺
遗憾
慢@@
季@@
植@@
聚会
水域
预警
旁通
钴
CV
薪
脱硫
睡觉
年级
责
贯穿
随附
仿@@
讯
捕@@
锁止
上海市
104
CO2
计提
控制电路
群岛
IF@@
几
验
三角形
配额
门口
市民
暖@@
图例
纹@@
虚假
泡@@
保罗
路由器
所能
确切
令@@
征
回去
裤
希
ik@@
温室
中东
债
水力
8.1
迷
個
静电
扶@@
设在
培育
创造性
不如
尸体
摄影机
补救
另@@
情报
GS
度假
128
铸铁
整改
挡板
过载
醒
发达
有序
会谈
国有
订
Be@@
约束力
上载
搭@@
繁殖
100@@
广告@@
33@@
试运行
ts
单体
CB@@
拍卖
证人
开发@@
竞赛
微观
通行
最大化
勤
叉
拉出
贴合
可视化
受控
pp@@
一声
油门
英格兰
免受
屈@@
床上
货车
落后
经费
时段
仿佛
历@@
之所以
研磨
夹紧
通话
水源
裙
奶
可达
京@@
两倍
秘书处
一大
日后
年限
安静
录@@
相匹配
究竟
eb@@
抗议
萃取
诸@@
RC
时光
别名
球场
公斤
尤@@
池@@
吞@@
专题
age
笑@@
铭牌
四年
欠@@
物件
规章
拉斯
拿到
遮@@
NC
不必要
机械设备
90@@
ard@@
扫
矿床
生气
节日
卫
灵感
洁净
二者
主意
外交
船上
Comp@@
代表性
织@@
倍@@
舒@@
靠@@
ub@@
氨
心情
格式化
淡
周年
味@@
纱
莫
ws
东京
退回
空档
切除
棕色
Su@@
孙@@
敲@@
1991
○
次级
投资人
管理制度
排放量
研究生
从前
同比
译
印尼
调研
所知
氮@@
短暂
拨
滚筒
霜
Tra@@
制剂
期刊
魔@@
涡轮机
实物
挖
确@@
营造
护
腹
书写
肽
Agent
生活@@
气氛
浓缩
推迟
国家标准
大豆
粉尘
34@@
PID
本机
效能
赛季
锐@@
鉴别
ian
姿势
Porsche
豪华
阳性
舞蹈
艇
動@@
患有
核查
IO
ator
缝@@
艘
全身
广义
枢纽
椅子
破损
充电器
控制措施
MC
粘
IO@@
珍@@
皆
Akamai
建筑师
焦虑
AL
太大
看作
碱@@
天数
ie@@
野
平均@@
建议书
EPC
多元化
完好
MT@@
大厅
电力系统
上海@@
春
重新@@
寒冷
枯@@
预付款
表征
景区
冷冻
佣金
投标书
空格
口中
广大
左边
校园
格局
初级
小学
讨厌
炮@@
屑
颈
染色体
串联
椅
终结
园@@
构筑物
账款
基底
提供商
XP
UT@@
Nm
愈@@
概括
买家
卸
徐@@
马克
拉杆
系統
平原
意愿
ss@@
杀死
水池
人身
海滩
财政部
DE
Live
裂@@
层级
骑
腰@@
谐波
种族
ort@@
伴
本体
没什么
开放式
旅馆
腐@@
难度
波兰
股价
软件包
一节
限位
陶@@
ry
嵌@@
mm2
750
灾@@
矿山
第五十@@
长大
址
默认设置
储蓄
外径
牙齿
Bo@@
凸轮
制裁
微粒
毁
勤@@
谢
经由
阐明
1.7
07@@
2.7
食品@@
准许
太阳@@
联网
成因
搞@@
ot
迎@@
GA
文本框
ass@@
差不多
肯
勾@@
时间段
邻近
难以@@
任职
55@@
牺牲
演化
撑
假期
等离子体
IG@@
坚固
承
空气@@
温和
计算结果
益
伸缩
轿车
逊
AA
涌@@
竹
瓣
西门子
返@@
历史@@
健@@
什@@
安全壳
迫使
统
铸@@
惊人
商务@@
工程项目
轻型
塑性
燃
声誉
机电
触
控制程序
销量
弦
测试方法
偶尔
水性
FO@@
amp
舍@@
拱@@
练
聚焦
ill@@
合同条款
育@@
抵@@
染料
Ctrl
外币
绿化
仅限于
舒服
支护
阵@@
中标
否认
跑道
年期
EL@@
时机
骑@@
右边
无权
粘合剂
贫穷
吊
困境
劳工
被迫
特有
异步
立柱
顺时针
并发症
不带
稍微
照射
储层
溶
RM
st
财政@@
院校
同类
启动器
销毁
隙
切勿
Con@@
EF@@
气味
两组
阳极
分歧
滤波
全年
板上
移至
行动计划
il
免疫@@
的是
性格
撤消
注册资本
败@@
漫@@
监事
准备金
流程图
系统管理员
开设
研究@@
续@@
距@@
灌溉
PM
开裂
螺@@
付费
实用程序
最快
零售商
ran@@
佳
筹@@
毕业生
使命
它@@
带领
庆@@
麻
尊敬
悬浮
带动
预热
刚才
资讯
互感器
发射器
担保人
摊销
碱性
肝@@
三分之一
扎
泉
任期
低速
裁@@
邻居
无形资产
老年人
预报
从此
夫妇
每当
冬天
贝尔
香港@@
账单
冷凝器
脂@@
怕
桌
成效
助手
对冲
受力
商品@@
布朗
顶端
房产
气泡
问卷
De@@
RT
见表
一日
发生率
震动
直观
不满
从不
年份
钢丝
一所
ED@@
主权
变异
按时
渔@@
电源线
诚实
进场
沃
再生能源
受限
宏@@
千克
滥用
飞轮
武汉
穴
遭
专业@@
量程
锯@@
预案
正极
热带
玉
怠速
罪@@
献@@
试件
辩论
不易
宾@@
婚
曝光
干部
普通股
石墨
着手
巡@@
微小
急救
同期
拟合
LS
劳务
走出
处所
妈
第三个
口头
往来
激情
研@@
顿@@
宏观
周二
钛
分化
延续
每台
防盗
掌
收获
庭
LDAP
宝宝
缺口
GC
墙体
借
三级
承载力
外界
光伏
沿线
So@@
争端
0.6
块@@
断电
LD@@
鱼类
默
愿望
腐蚀性
英国@@
交易@@
餐馆
Di@@
领土
pt@@
大桥
Cont@@
客车
兽
豪@@
敌
栅
缺省
指责
候@@
叠@@
津贴
适应性
gt
坎@@
短缺
应收款
总督
煮
国债
盖子
轻易
螺丝刀
觉@@
显微镜
Studio
氨@@
处理厂
潮流
Ⅱ
宣称
挑@@
银行业
凉
航空@@
数码
际
面试
斯特@@
诱@@
仓@@
Res@@
前排
跃@@
苗@@
可编程
聚氨酯
Me@@
界限
友谊
推行
原本
交往
辅@@
最具
洛杉矶
拱
制冷
不动产
采取行动
结构设计
头脑
权威
绝缘子
促
可疑
必要性
能源@@
SL@@
圆柱
厕所
难道
框@@
毕竟
蓝牙
风景
ProdName
玛丽
荣誉
拯救
鸟@@
电脑@@
四种
铃
调制解调器
碎@@
up
ust@@
周五
企业@@
第五
8.2
关键点
名叫
痕迹
奖@@
光束
族@@
正好
液相
赎回
隔板
库中
昆虫
立体
水稻
偿
姑娘
0.00@@
吃饭
抵消
析
so@@
通往
检疫
船长
衬
妥
宠物
最终用户
民族@@
電
府
联合会
人工@@
冰箱
突变
东北
冻@@
夺@@
葡萄
填
印花
网络连接
应是
保持架
六个月
末@@
操作@@
翼@@
送给
金融危机
栏杆
基座
调速
堤
幕墙
切口
涂装
if@@
介@@
善
济@@
抽象
坚@@
救济
主义者
将军
透镜
浪漫
告
进出
节奏
直流电
上来
矿石
拆解
转换成
NT@@
介入
陷
步行
翻转
重心
中为
把@@
友@@
财务报告
热电偶
电台
企业家
C1
菲律宾
气管
兑换
孤@@
我行
炼@@
废弃物
建设项目
高血压
扔
售后服务
酱
朝向
心理@@
齿轮箱
出示
坦
局域网
年末
HS
灭火器
迁@@
喇叭
风化
双层
鹿
镜@@
转发
end
程@@
强迫
爪
舌
易燃
飞行员
电视台
紫外线
冬
源自
功@@
实证
照灯
净额
一代
市场营销
激光器
脏
矿业
碳钢
搬@@
概@@
国际标准
图书
校长
球形
健全
增多
able
变频器
三十
调解
寺
吸收@@
浅析
RAM
宾
锚固
早餐
出租
耐用
增值
冠@@
陆地
一杯
盆@@
创始人
月球
彼得
机型
烟雾
秦@@
旗
天使
递延
RP
延时
十字
同行
iv
埃
千年
商人
坊
逆
衰退
认同
项目部
触摸屏
敬@@
氨基酸
竞选
贫@@
上网
洋
阿拉伯
明亮
苷
轴上
再也
缔约方
加剧
堆放
传入
两天
平静
云南
公司法
.exe
适于
掌@@
受害者
He@@
埋@@
音量
优雅
重启
出库
石油@@
SV@@
综合性
检查@@
散射
谈到
跟着
滤网
05@@
欲@@
变频
岩体
88@@
战术
精彩
US@@
家庭@@
廊
怪@@
Car@@
遍
污@@
迈@@
烃
公顷
宣言
哪种
险@@
换热器
诞生
仪@@
工艺流程
旁路
生产@@
氮气
玫瑰
气缸盖
各种各样
喊
Ad@@
乐趣
随之
衬衫
脱水
样条
路段
Data@@
继@@
保护@@
体会
荣@@
扩建
减震器
功能性
固定@@
摆动
洁@@
教室
滚
衬@@
箱子
测验
Am@@
oo@@
一幅
中小企业
转至
配送
经纪人
疏散
财务状况
M8
怀孕
己
帽子
网址
钻机
夜晚
View
管网
舰
触发器
纳税人
47@@
废弃
沿海
鲍@@
缩写
律
救助
设计方案
销售@@
6.4
4.6
先后
益@@
两家
确信
石化
吻
运算符
肾
浪
进攻
ler
不予
回购
白宫
妮
the
每隔
渐渐
测井
护罩
高峰
正当
时才
氛围
管理部
信号@@
经营者
恋
机房
位数
描绘
改正
ix
原件
探
异议
联合@@
DCS
val
市区
踏@@
偏好
啮合
筛@@
ET@@
F1
ant
恐怖主义
涉@@
耳朵
理论@@
多达
细则
多久
外包
烟草
鹰
投保
皮带轮
7.3
Group
关键帧
0.0
局长
怀
数据处理
野生
聊天
大修
自我@@
企图
很长
色素
警示
老年
炸弹
节中
垫@@
车子
胸
以其
贮@@
DV@@
血浆
贾@@
下属
扰动
胎儿
浪@@
dB
王子
剥离
案@@
语义
射频
气象
鬼@@
摆
烧结
适用法律
气温
前缀
司@@
哪儿
皇@@
多元
MR@@
纺织
单纯
条纹
实习
单片机
心脏病
抽
配电盘
渗@@
模块化
引
软件@@
领取
rpm
几次
误
B1
优选
海拔
分部
杂
机动车
议@@
只不过
句子
吐@@
大写
摩
副总裁
电力@@
1988
ES@@
La@@
按摩
维尔
Tr@@
风速
恒星
置换
ou@@
中介
螺柱
闭
SSL
ner
手里
报废
苗
农业@@
发言
弓
设计@@
货品
数百@@
姿态
绵@@
贷
电荷
高品质
寒
内径
琴
井口
前述
收款
历
内核
序@@
配偶
不含
噢
几何图形
imk
初探
做成
进料
PRO@@
con@@
数控
计算@@
净值
浮
逾期
矿区
SAE
ver@@
PR
Per@@
RS@@
委会
挪威
万人
桌@@
西北
括号
智
充分@@
撤@@
春天
跌
ation@@
粗糙
精细
亮@@
PD
外资
.com/@@
高新技术
伟@@
功能区
启示
勇气
每股
据说
那天
汞
缔造
辞职
106
程式
苏格兰
融@@
鼻子
ate@@
小节
尽力
消化
盖章
促@@
有所不同
犯罪@@
重大@@
耐磨
SMTP
丸
台阶
002
千米
控制权
检测器
消防@@
冷凝
发病
hr
变速
戈
复原
捐赠
菜单项
低成本
八个
病理
证明文件
简易
S7
树立
专业知识
法则
所处
模仿
歧视
高科技
写道
设为
选民
大地
收据
DN
化石
驶@@
ES
恢复@@
计算公式
家中
棉花
大声
毫秒
测量方法
室温
酸钠
污
AN
狼
烤

其后
侵@@
爆
316
AV@@
To@@
染
笼
交替
高精度
兆
集中@@
伴侣
固有
报销
擦@@
错过
惠
民主党
lin@@
套装
草地
共识
灌注
高管
分泌
法律责任
出行
We@@
国际化
态@@
诗歌
坚定
数据文件
中药
等到
总和
天堂
醛
黑人
胶囊
得知
振幅
更具
届满
试点
环绕
健身
泽@@
庄@@
测试仪
气田
生日
电子设备
rat@@
废料
抹
管接头
压入
无法访问
白天
粒径
计价
赤字
预见
VA
宝贵
下拉菜单
甲醇
行人
103
OR
充
定理
序号
ray
印度尼西亚
尽职
ai
盒子
1989
震
称重
美国政府
据此
机密
架上
Visa
ort
升起
恨
杭州
汗
通信@@
CH
Sa@@
运动@@
面部
多于
操@@
凉@@
稳态
短信
信念
具体情况
商用
MI
新一代
业务部门
洗涤
不足以
改动
塑造
划
Sc@@
郡
召集
周四
情节
钻石
大师
油液
控股公司
退化
条中
还款
罕见
跟随
拆分
旋钮
线索
蒸@@
连锁
遇@@
Fl@@
Pre@@
干旱
武装
进口@@
倡议
神经元
韧性
挤@@
CS@@
拿出
转运
岛屿
范畴
115
恰@@
期满
标示
用到
代表团
说服
责令
ite
一带
大学@@
决
巩固
挡风玻璃
议题
账号
class@@
跨度
法律@@
上将
原子@@
堆栈
活顶
ell
风管
动臂
ice
乐队
旅游业
拜
范@@
全方位
胰岛素
Control
峰会
己@@
栋
委@@
门槛
挤
表层
未指定
智力
2.8
电平
ra
篮球
无线@@
201
FMI
笔记本电脑
分摊
县@@
琳
脆弱
三大
不动
旅@@
渗
谋
柏@@
史密斯
不出
就此
HO@@
第一条
会员国
应答
钢制
命@@
适用性
生产工艺
粘结
壮@@
抽取
犹如
瞬间
阳市
边框
奠定
快捷方式
补给
国际贸易
借贷
不断@@
不符
蛋@@
烈
涂漆
起飞
铲斗
一遍
周日
碰到
功
栏@@
词语
ions
俗@@
文件格式
查明
熄灭
被告
雕刻
鸣@@
现已
精简
终
腾
额@@
服务业
止回阀
OFF
信封
活动状态
0.01
一经
多样化
撰写
生态环境
提取物
绝
ce@@
仁@@
带给
日内
随机@@
职权
理财
农产品
工作量
花岗岩
第一步
纪律
跟@@
SMS
佩戴
数据链
营地
结构化
320
分销
饰面
管辖权
跌@@
牛肉
件@@
俄@@
非凡
喜
蛋糕
碎屑
MM@@
创立
定律
相关者
CLI
可怜
兹@@
教训
ker
被保险人
金融服务
戏剧
螺杆
附有
行政部门
醚
诗人
信誉
县级
有意
66@@
刑
稳固
真理
矿井
首要
弱@@
变性
减速器
政权
现代@@
过量
108
撤回
丹麦
持股
反转
护照
此事
ug@@
入境
ly
ROM
卡尔
巡航
刊登
另行
硫酸
蓄電池
边境
力学性能
水电
这点
Pro
机动
就算
次要
证件
按压
石膏
授@@
墙面
研究成果
若有
咨询服务
逮捕
退还
宝石
团结
照相机
血压
窝
银行@@
胚胎
饭@@
靴
船员
种种
oc@@
稍
尔顿
通路
关键技术
质量标准
改装
联动
〕
伞
制药
資料
LAN
深处
修整
脱落
GIS
VDC
宫@@
甜
钻头
专为
Log@@
电量
FL@@
午餐
市场份额
霉素
不规则
赞助
〔
荡
两台
单向
拟建
坐标系
时要
Replication
ue
隔热
松散
选出
SL
TE
已损坏
鼓风机
仅为
统计数据
预约
袭
偶
褐色
特此
社@@
顾@@
科学技术
亭
工作台
几何体
胎@@
迟@@
疑
唐
界@@
黎@@
施工图
碰
陆
code
抚@@
恐怕
纺织品
工时
DME
FR
Win@@
自然资源
较长
SU@@
逆时针
Ca@@
比较@@
点焊
构@@
附上
军事@@
咬
晚餐
结构@@
档@@
安保
EB@@
相对@@
数据传输
AG@@
减压
修改器
剥@@
基质
蜂@@
04@@
涂覆
著@@
兼@@
纽@@
旋
缠绕
ens@@
非政府
FCS
分配器
溪
确保您
仁
盲
恐怖
构
共用
言语
环氧
税费
传说
ey
昌
离婚
兔
山东
Na@@
几十年
看待
周期性
继
耐心
Power@@
农药
燕@@
餐饮
氨基
熟练
长达
殿
210
公交
滞后
刊
国防
推理
外国人
拟@@
化妆品
方位
摊@@
载入
信件
印章
屋面
通货膨胀
受让人

猪@@
紫色
3.7
DHCP
导演
ory
布尔
漂@@
削弱
演奏
目光
申@@
过低
浙江
秋
逻辑@@
8.3
中央银行
决策@@
警
扫描仪
乘以
职能部门
浴
更換
A2
修剪
毫无疑问
之地
纤维素
预防性
议案
SRDF
Cayenne
发作
氯化@@
艾
乙烯
氣
牌@@
对系统
外商投资
本土
薪资
补助
须知
不可避免
合理性
摧毁
怎么办
中未
叠加
1984
互连
html
缆
转弯
合规性
LCD
市政
解散
FF@@
yn@@
考验
起草
通胀
特种
上班
劲
排队
以至于
觉
偿付
访
发送至
保护区
革
kPa
鸟类
Bl@@
拨打
较强
漆@@
澳门
部落
民主@@
航线
多孔
欺骗
挥@@
美食
ert@@
ANSI
VM
分流
列为
尾部
③
总共
立面
土壤@@
DIN
积极@@
延
监禁
OP
区段
经营@@
普及
诉@@
伸展
利比亚
拾取
到期日
管理程序
行李厢
激动
铁矿
环球
电镀
1986
不清
疑@@
盐酸
开发区
接器
拨号
运费
柳@@
视口
凸缘
渗漏
说出
基督
奥运
刮
来讲
倾
俗
强制执行
上文
每项
ast
保险人
困扰
染@@
要约
平坦
微米
仪表盘
星期五
服从
核电站
耗
帮忙
最小化
迫@@
镀@@
发动
基坑
逾
千斤顶
执照
弯头
遇
车厢
附注
Ⅰ
搭建
量表
http://www.@@
0000@@
压缩@@
顶板
家用
超市
伍@@
环路
缩减
不行
化学成分
许
App@@
佐@@
鸡蛋
VSS
小区
振荡
精致
磷酸
早已
石英
返还
那位
山脉
丰
怒
瓷砖
光栅
掉@@
阶层
Mat@@
颜料
钻探
椭圆
温度计
生产率
干细胞
表情
开销
荣
圣诞节
更长
每一
执业
交接
培@@
侵入
新生
生化
统计学
8.5
市长
昌@@
枚举
见图
37@@
政府部门
特异性
会见
狼@@
主管机关
惯性
高档
减弱
泽
见面
杨
共同@@
Word
基督教
禁
伦理
重申
敏@@
瞬态
邮编
售@@
比尔
草原
CL
缸盖
乙
望远镜
养殖
谋@@
IK
廉价
结尾
历程
内向
童
公共汽车
展会
宗@@
就位
EP
偶然
建议您
眼前
卡入
市场经济
绝大多数
Ph@@
冶金
在场
异物
晚期
宇
棒@@
硕士
闪存
bo@@
播放器
XX
排水管
互换
尽管如此
NIC
Rover
仰@@
稳
自杀
驱@@
2.1.@@
打磨
地貌
巧妙
烈@@
译@@
会计@@
签约
三条
决赛
一门
哀@@
运输@@
数据保护
无数
眉@@
NO
传感
住院
SR
支配
委派
est
因其
卧室
拉动
文件类型
CF
定罪
藻
UP
人格
半岛
矿产
技师
野生动物
层次结构
罗伯特
迷人
ho@@
中是
千万
审美
接种
波浪
PV@@
临
出台
扰
毕@@
道理
这使
Sol@@
作用力
per@@
孔径
技@@
一头
ft@@
麦克风
On@@
岩土
扰流板
在家
西亚
桑
线缆
渔业
单项
小镇
期末
瞬时
ary
管理机构
迈克尔
3500
欧元区
穆斯林
障碍物
und@@
突
燃油泵
光泽
溜@@
9.1
之路
想想
果实
135
组态
可信
嵌套
瑟
应用@@
联合体
砖@@
潜水
固态
io
馆@@
Revit
血糖
仍@@
热交换器
伍
高出
UNIX
门窗
唑
堵@@
检定
步伐
陷阱
宽松
阶@@
申请书
礼品
邮寄
39@@
Caterpillar
江苏
混合@@
64@@
AX
本期
DF@@
尘@@
业务@@
成套
鞋子
之际
昆@@
美观
导流
1987
郑@@
反弹
密集
摄@@
芬
开立
Air
点燃
这笔
表述
传染病
无机
美学
反而
开具
才@@
轨@@
况
等候
让@@
金融市场
工作日内
关联方
囊@@
外表
赞@@
乔
代号
光子
咱们
尊@@
标本
ast@@
内衬
时所
合资企业
Trans@@
分类@@
并于
臂@@
计时器
Powerlink
浇注
C2
LC
一阵
信赖
人文
公司@@
蔓延
客运
氏@@
卫生间
布置图
光缆
拉力
支持者
水泥砂浆
锥@@
色谱
表决权
负面影响
辐射@@
伪@@
针对性
File
瓜
里斯
抬起
我司
380
倾角
初次
柜@@
車门
ric@@
忍受
堆积
2500
墩
are
球迷
蜡
伴@@
压差
议定书
type
录音
生态@@
村民
火星
铵
剪辑
避开
医
粮
糟
xAE
多家
整齐
钢琴
戒@@
挂钩
转入
For@@
az@@
圣经
废除
冲压
HD
ram@@
刮水器
旗下
芽
踢
祈祷
列举
强有力
懂得
缓
侧向
銆
IIS
Intel
生产能力
美洲
肥胖
腹部
覆
RD
录像
维修@@
浴室
邮政
闹
便捷
海域
道德@@
捕
渣@@
大西洋
经济性
Torx
失误
月底
泄
3.1.@@
咖啡@@
残疾人
ro
坐下
ru@@
RPC
塘
威廉
两周
年来
地段
富裕
P2
敢
6000
酷
杰出
卧@@
笔记本
总价
独自
请问
J2
摄氏度
筛
监事会
盗@@
西安
QC
星期一
聘用
伟
世界银行
润
to@@
可控
可持续性
會
色谱法
0.00
负面
鼻
方应
根源
辉
型材
并发
导师
纷纷
赠@@
600@@
手持
伏@@
迎接
ED
后勤
披@@
慈善
无力
屏障
质押
奋@@
林业
偏心
联合国@@
胸部
自动控制
伤口
盯
真相
养老金
浙江省
光度
不太
DLL
成都市
旗@@
纯粹
1980
EA
勇敢
对付
Facebook
开发者
配制
nbsp
纵断面
PH@@
hs@@
相交
DL
蒸发器
透气
ack
万用表
科研@@
接触器
受雇
EE@@
LP
消费@@
过后
DT@@
系统控制
芝加哥
Co
IF
依托
这段
Bu@@
纪@@
著作
ION
隧洞
人家
米兰
耐久性
BI
不上
不见
旅程
威尔
轧制
6.0
呈现出
核武器
开拓
170
比如说
逆变器
Or@@
推入
掺@@
筋@@
绳@@
日常生活
省级
途中
长期@@
外来
欣@@
窑
联赛
推测
锚@@
冒
发展@@
液晶
离职
试着
祝福
挺@@
张紧
428
卖出
su@@
拾
ISO@@
员@@
杯@@
修饰
10.
疏忽
盈余
解读
这台
ASP
挡@@
連
猫@@
生育
镜子
克里@@
十个
编织
UT
车上
丢弃
笔者
包围
缘@@
申请表
迄今为止
过时
Φ
工程建设
预估
Inc
气孔
长江
KB
侵权
水文
颈部
TO
柱塞
立方米
除此之外
ive
抗原
出租车
HB@@
Inst@@
总之
神圣
他用
明智
淬火
起源
王国
sc@@
放下
日元
水解
油道
3.8
电弧
独立@@
人造
溪@@
愿@@
捆
陈
瘦
种群
儿童@@
大胆
粘性
栅格
储
111
复合@@
字样
包装@@
基本原理
建筑面积
总会
污水处理
充当
滞@@
少数民族
辉@@
葡萄糖
多名
视力
有机@@
轻盈
4.8
HS@@
困@@
燃烧器
莉@@
Gu@@
亨利
似@@
国防部
梯子
退休金
255
肯尼亚
阿里
过分
多维
搜寻
气瓶
res@@
FE
耶
法定代表
组长
裔
修正案
剧院
将近
箍
超高
不敢
糊@@
汀
承担责任
在外
映@@
滑坡
亩
抹@@
油压
建筑工程
抽出
Foundation
几点
超速
报导
百分点
第二章
奉@@
淡水
仓储
降到
围栏
引领
较差
意志
羊毛
ton
控制点
线型
锯
交互式
视作
时限
炸药
第六@@
正文
凝固
祖@@
ann@@
保安
岛@@
打包
從
大小写
巷
灭@@
握
Man@@
努@@
愚蠢
服饰
一览表
圆弧
另存为
实测
罪犯
尼龙
月度
陆军
CEO
不合理
消灭
瓶颈
有望
鉴@@
丢
败
战场
液态
CRM
学到
平衡@@
酸盐
SAS
似
编组
LNG
柏林
文稿
无论如何
欲望
Enter
水准
虽
劳动者
pt
脉@@
DW@@
2.2.@@
植入
瘦@@
轉@@
这名
再循环
频谱
ick
开来
5.6
7.4
封面
精英
不准
卤@@
唇@@
成年
募集
ppm
入住
企
全文
毒素
短时间
惨@@
闭锁
CN
兑
真诚
举升
变质
盐水
酌情
幻@@
搜索引擎
润@@
人人
传热
舵
账簿
GMO
环氧树脂
柜台
保险费
信函
背部
S4
走到
ATA
营业执照
重定向
炭
Work@@
储液
引出
服务中心
氣@@
幻想
职业@@
用力
简
银行业务
喂
稀土
享
全额
宾馆
景点
电工
哥哥
课程@@
第八@@
住所
＝
电场
罗斯
詹姆斯
锰
四分之一
平移
log@@
两大
砾石
伙伴关系
Do@@
高原
肿
加盖
85@@
渐@@
跨国
用手
画家
核电厂
绞@@
Gb
大国
屈服
穿透
软件开发
Id
aw@@
技
更少
违@@
麦克
出租人
首个
正向
办公@@
撬@@
放射
方形
材@@
对面
Ne@@
创伤
北约
管控
DMX
配料
32@@
妊娠
小波
祭
填补
fil@@
一番
链轮
调节阀
132
後@@
感激
学术@@
男女
框中
畅@@
章@@
作用域
永恒
LU@@
降低成本
集成电路
时间@@
伊斯兰
ld
夹持
房价
油井
上层
通报
TT@@
大力
规章制度
众人
周六
价款
0.25
极性
组织@@
车队
连接点
送交
登陆
公称
依旧
第二条
妹妹
气相
经纪
化学物质
44@@
听力
氢气
烷
erv@@
煤层
UL@@
剪
赚
Avamar
乎
取向
毛发
信息中心
夹点
手法
提供者
PO
教徒
1985
操作规程
燃油箱
绞车
凝
细化
涨@@
交割
整洁
谈谈
典
泉@@
co
共和党
计时
Ste@@
同志
泥土
渡@@
现存
脊
诚
足迹
NFS
察@@
武
狗@@
e.@@
化学分析
签出
匿名
外套
公元
TB@@
淋@@
扩展名
RA
小小的
简短
虾
KV
引脚
早就
TM@@
局势
宿舍
生成器
瓷
磨机
自治
趣
性状
耶路撒冷
DD
act@@
公共交通
舱@@
eRoom
uc@@
城市@@
空气质量
胶片
9.2
乐器
习@@
势力
开门
曲率
OEM
深圳市
油墨
狂
选型
强力
医学@@
走过
严重@@
热爱
预付
传导
蒙皮
寻常
脂肪酸
内地
几周
汽缸
疾@@
鼠@@
304
XXX
议
可向
丛
S6
SnapView
第三章
AI
唇
当选
FTP
腺@@
弃@@
ML
舌@@
化物
测定方法
ign@@
雕塑
9.5
微机
溢@@
可视
紧缩
数据流
远处
肝脏
沮丧
控制中心
真菌
空闲
保护层
闪
DF
山东省
监控器
辨识
巴士
弧@@
86@@
碾压
德尔
违背
尔德
煤气
骂
中子
工具包
厄@@
一架
上学
分配@@
动态@@
不间断
坑@@
葛@@
野外
Sk@@
Sy@@
商务部
物理学
不让
CX
阴
教材
新能源
江苏省
醇@@
sk@@
幼儿
另一端
欢乐
本月
节流
峰@@
记录器
重构
名词
战士
高水平
ber@@
Get@@
神奇
为本
午@@
安全措施
大海
活化
闪光
宣告
沉默
一股
FM
篇文章
段时间
获利
乌克兰
法团
货币政策
iDRAC
凯
羟基
息@@
倾听
遥感
临近
聘请
升降机
单相
油价
第六十@@
色调
喷漆
世界杯
工程质量
勘测
宣传@@
国家级
放缓
发射@@
好友
悲伤
载有
真实性
同位素
降水
剖@@
穿孔
兴起
一度
工业化
辅助@@
Mc@@
遗漏
仆人
下限
存量
ex
95@@
HR
深层
胀
免税
卵巢
坚硬
http://@@
广西
拥@@
洪
不论是
地质@@
挤出
编码器
地理位置
残疾
枚
螺旋@@
和平@@
智能化
正义
烟囱
音响
本金
淹没
韦
ash
退火
3.2.@@
添@@
GM
竟
叠
气象@@
转基因
分光
降雨
记账
out
冲刷
Cr@@
所载
本款
球阀
宿@@
开关设备
通量
两层
照相
自助
衍射
特许权
玻璃纤维
视频@@
裙板
井场
新生儿
军官
传统@@
坝@@
揭@@
三通
中以
ah@@
敞口
流失
猜
PN
水体
何处
供油
所订
场馆
铲
否定
GM@@
嘿
保护措施
文物
支助
锂
两类
PWM
带电
十二@@
墨
大使
周三
相对湿度
卓@@
工程图
灌
转账
三天
趋@@
乘员
涵洞
盲@@
ance
学期
桂@@
锻@@
伪
通告
电路板
优美
日程
CI@@
人行道
着陆
补救措施
递@@
两项
射击
看不到
七个
次序
碟
朝着
矫@@
骗@@
旋开
自由度
中时
自豪
电视节目
自有
四条
个案
现状及
cfcf
ley
近代
植物@@
赛事
max
辩护
垫层
占领
企@@
切实可行
直辖市
高位
平方@@
精确度
锋
受试者
国有企业
排空
虹@@
平时
戳
ics
扑@@
摩尔
含水量
归还
研
C++
切线
带上
法语
传动装置
弓@@
致动器
成年人
益处
腺
本科
战略@@
08@@
冻
分析器
骄傲
10000
退货
跨接
256
戏@@
配对
题@@
原位
树林
精心
脏@@
Ω
拟议
电气系统
辽@@
申诉
双边
角落
中会
栽培
不起
娱乐@@
孤立
隐
RF@@
全自动
增殖
Turbo
kN
巧
遥@@
标有
四十@@
此参数
跨境
分销商
妙
查看器
前者
颈@@
缸体
Si@@
击败
民事
后排
存储设备
存活
機油
徒@@
徽标
是非
换句话说
烷@@
拉链
育
抵
不住
东南亚
提问
遗址
匠
enn@@
8000
夸@@
ow
政党
两只
AI@@
ms@@
工作温度
电报
街上
机票
显微
比值
潘@@
横断面
视网膜
崛起
抗生素
冲程
灵敏
供热
智能手机
没人
生产总值
聚丙烯
露天
争
会同
军人
十五
答应
攻
相处
瞄准
GUI
PH
流场
蓄能器
麻醉
Google
VM@@
苏丹
简洁
埃塞俄比亚
通向
SF@@
主机名
amp@@
可不
城堡
字典
月亮
保险杠
凹陷
牢@@
私有
要用
RecoverPoint
乏
拨款
弥@@
石灰
医疗保健
阻燃
Set
非正式
液压泵
质保
坠落
ess@@
牧师
后退
定期检查
活着
炸@@
保险单
分辨
前沿
Comm@@
院长
摄入
珠宝
配线
PCM2
跟进
0.7
貌
ct@@
膝盖
自检
瓦斯
ak
发病率
set@@
奇迹
应用软件
是否是
PCI
剪裁
孤独
篮
随即
坯
驱
休假
恤
炭@@
轰@@
HC
使人
毁灭
商户
成份
两边
拜访
4.7
光度法
授权代表
指纹
V2
im
发起人
El@@
盾
礼貌
径流
辈
词典
会议室
暴雨
植
比利时
骨头
202
一大@@
从属
烦@@
大宗
离心
格栅
系泊
准确度
溢
以致
震源
摘@@
撤离
鸣
粗糙度
促成
烹饪
交通运输
浦
火花
加仑
申索
星球
览
皇帝
浆@@
二是
本部
公主
过失
韩
立式
一艘
服务质量
押@@
硫酸@@
并须
LT@@
保持一致
小齿轮
或非
关键@@
浩@@
采纳
65@@
熊@@
擅自
阿根廷
增添
辉煌
DT
干线
极化
ATE
因数
范例
拐@@
瓜@@
函@@
X1
做些
信息安全
木质
铀
没能
针织
秀@@
市中心
河床
遥远
马尔@@
可行性研究
犯@@
行李箱
地下室
岸@@
GUID
带式
湖泊
衡@@
ect@@
区块
抱@@
跳舞
穷人
R2
中华
杂交
鞋面
星系
活性剂
罢工
線
征税
浴@@
犹太人
信号灯
适用於
航天
切实
iPhone
加速器
审理
幽@@
抑郁
社会保障
竟然
ma
币种
诊
轧@@
逸
分项
蜂
112
CMC
VO@@
订明
Pack
接纳
ara@@
赔偿金
轻质
密切相关
流感
古典
司法@@
成千上万
谴责
用药
V6
PIWIS
净利润
PI@@
伯格
七年
抑制剂
粉碎
令人满意
某项
海运
Jo@@
DB2
纷@@
spanspan
君
000@@
喷水
沉重
参数值
定额
顾
AB
不止
勃@@
喷雾
原点
推移
裁
高密度
亿英镑
大熊猫
微量
加工@@
密封胶
拥挤
广州市
晋@@
辛
纤@@
授信
晓@@
远期
仅当
详尽
一双
恒
欧姆
欧洲@@
ron@@
买入
放行
高可用性
Exp@@
账@@
金融工具
减缓
贯彻
摸
批注
拘@@
迟
車身
信用风险
召回
副作用
奔@@
荣耀
虫@@
MHz
水晶
纯化
解决办法
福特
自费
题目
let
吓@@
商场
普通@@
SATA
外出
RF
纸板
账目
89@@
不宜
国籍
忠@@
经验丰富
面层
品位
nm
前轮
只好
浸
途
态势
Business
CU
TT
辅导
67@@
man@@
不像
磁粉
双面
怒@@
每条
CID
Editor
助力
版面
HT
始
投产
游离
com
一眼
十分@@
爱好
革@@
危险品
捐@@
舟
Inventor
共计
审阅
全球性
工作室
一副
MV@@
高分子
上年
注册@@
吓
忠诚
炉膛
策
胜任
for@@
一般来说
外墙
心血管
前置
澳洲
一并
个人信息
医用
制造厂
夹层
轨道交通
ial
用户@@
ML@@
嘴@@
狮子
大自然
少年
都市
某种程度
金色
汇总表
A4
ps@@
晶体管
der
街头
URI
坏账
莫斯科
＜
Dis@@
降级
夹克
计费
腾@@
处以
违规
探究
端面
车内
車轮
敏捷
arg@@
基体
生于
全套
危险性
访问控制
起步
需求量
ATI
吊车
虽@@
松弛
SB@@
Team
PV
占地
混沌
炎症
涌
美味
句@@
释
服务费
程序包
系列产品
款式
190
结构性
候
MR
出口@@
全都
善于
高风险
安娜
屏@@
雄
光明
头痛
会上
前来
新颖
条所
紧紧
产品开发
起伏
绳索
园林
操控
第七@@
读书
定位器
蛇@@
D1
主办
酵母
来临
明确规定
群落
肢
佛教
减振器
凸
解雇
证券交易
锻造
雾@@
试论
折算
浸泡
烂
试验报告
整套
死者
陪
PL
操
凤@@
海湾
灭菌
参和
移位
抄@@
MAC
休
车架
QA
SI@@
资本主义
SB
专人
发现自己
因特网
平安
简历
罚
凝结
首相
忧@@
增进
共振
帘
假人
壶
AG
列明
富含
庭@@
卵
镀层
凋亡
奥地利
斯坦@@
模态
歌手
121
PCR
桁架
丙烯酸
降落
页岩
MT
正本
外汇@@
应于
Arial
危@@
赵@@
战胜
f25
笼@@
ert
后轮
將@@
敌@@
死去
赞成
天下
镶嵌
net
NA
乃至
登上
手表
标牌
研究员
ure@@
碧@@
Ab@@
国产
深深
女王
架空
堵
DO
空隙
ECU
始于
长期以来
漫长
砌块
充填
之旅
再现
妮@@
百姓
订货
充分发挥
好象
切片
分期
排水@@
甲醛
Ag@@
帽@@
截断
严
机体
翅膀
叶子
优先权
精美
飞行器
稻@@
洒
Com@@
密闭
巢
役
123
大城市
戒指
下车
渡
Del@@
一分钟
净资产
Ho@@
见解
接收机
上时
声学
可追溯
吞吐量
好吗
服务器@@
铆钉
菲尔德
车灯
不然
CAS
何
清扫
﹐
彭@@
沙发
功效
帝
纵
正确性
返
175
听众
极具
排水沟
笔记
除以
OLE
代理行
在一起
狄@@
牢
套期
这块
Enterprise
GR@@
ase
寄
峡谷
杂物
登记册
锛
好莱坞
ence
金刚石
游览
重写
一是
上个月
焊条
发出通知
Open@@
蒸气
家乡
招致
MAX
ies
int
不及
外围
微调
最有
联想
洞口
激
严厉
负极
呈@@
鸭
冷却剂
数据分析
无误
解答
搭接
铸
优先股
口服
BOM
严肃
球体
270
ok@@
习
WTO
右前
笑声
ap
中继
导热油
第六
em
悲@@
淘汰
记号
招
牧@@
遗传算法
马丁
丰田
湿润
滑轮
界线
称作
调动
页码
剧烈
Process
飞船
文学@@
Ap@@
跳过
酷@@
实地
河北省
图象
宿
My@@
口腔
新款
电视机
早些时候
隐患
EL
min@@
口径
国家有关
七条
换算
压制
珍贵
涵
纠@@
乐意
监测@@
航道
HA
前应
委托书
报送
聆讯
hs
汇编
伽@@
可处
分担
爱好者
停工
敦促
创造力
诊断系统
6f16lang1024
擦除
桌上
诱发
替@@
燃煤
职业生涯
投入使用
相一致
蓄@@
中压
鲜明
垢
短语
祥
107
多边
移动电话
Time
上衣
消极
访谈
路堤
身份证
ia@@
葬
入手
空载
别墅
1982
履@@
擅长
多糖
工作面
幽默
肋
硼
暴
离线
多样
猜测
合作@@
消耗量
马克思主义
莲
极度
局限性
挠性
身分
480
ity@@
拒@@
Sun
通气
阅
225
ight
俄
固定装置
奋斗
皇
Ge@@
自制
97@@
国民经济
综合@@
114
法学
化疗
工具箱
拼写
奶粉
Fe@@
交联
叉@@
PCB
公务员
闻名
试用
海洋@@
养老
后代
咬@@
话语
贫困@@
可扩展性
隔膜
Ter@@
收敛
和解
所称
遥控器
识
水轮机
Ra@@
华尔街
吐
开通
那边
主持人
電機
撕@@
und
联邦政府
成交
三角洲
闩
SH
人道主义
释@@
以期
关键词
喷砂
惩@@
灭绝
限期
除尘
内有
232
并经
恶意
安放
硬币
GT@@
P0@@
酰胺
旅行社
ick@@
忘@@
长远
饮用
处方
测得
神话
预后
XX@@
独家
祭司
邦@@
插图
言论
Text
心态
境@@
生命@@
葡萄牙
GSM
特殊要求
记入
MI@@
加重
后端
悲剧
有名
reg
形容
王朝
实验@@
芬兰
Col@@
归属
衣物
发热
喷洒
排气管
ph
凌@@
难民
中风
发性
井下
看过
LA
关机
学习@@
百年
衬板
吻合
进水
ern@@
栓
大幅度
祝
贩运
血症
越大
修订版
蜜@@
调查结果
谱@@
购置
6.6
工作效率
PTO
基点
系统故障
复核
这片
500@@
市政府
资本化
IV@@
加班
ke
决定性
CV@@
Set@@
BizTalk
PW@@
新区
秤
护栏
调速器
批处理
电子表格
郁@@
伪造
根本原因
Retrospect
凶@@
裸@@
视线
嫩
包覆
增速
接点
XL
烦恼
高亮
B2
抵销
操作数
可燃
星期六
磋商
Auto@@
PU
愿景
BIOS
阻挡
地下@@
地表水
辩@@
借用
假日
电动@@
陵
迁
第四章
卵石
裂隙
.dll
蒸馏
驳船
澳
该文
ash@@
急剧
脖子
坚实
英国人
雕@@
Fin@@
亦可
辅
抵御
橙色
如属
致电
转录
ill
呼
反思
源性
快递
运行状况
ol
努力@@
有何
坚决
表面@@
专业化
报文
滤
希尔
穷@@
管壁
保障@@
艺术品
指挥官
占地面积
香味
巾
称号
十三
安慰
4.2.@@
悟
最高@@
试验@@
资深
叙利亚
钢铁@@
低频
捷
控制柜
油藏
线性@@
手上
kg@@
浓
礼服
时常
ff
φ
祖国
必不可少
放射@@
混淆
移动式
几率
乌
动词
压力计
肖@@
货单
1.1.@@
serv@@
发件人
Ver@@
耕地
四大
视属何
磨削
存储管理
平方公里
您@@
信息管理
即属
A3
兆@@
臭@@
售价
基因组
清洁剂
缺损
店铺
滚轮
硫化
网球
专用@@
发音
雌@@
BREW
桥面
PB
耐火
诊所
过剩
NG
PLN
聚氯乙烯
有待
全程
电力公司
姿
适度
下一代
法线
醉
娅
镉
丧@@
归纳
补丁
代数
厂区
吊销
意向
缓和
射流
泥沙
中国人民银行
弟弟
收割
专业人士
捆绑
左前
卵@@
拌
无意
日本@@
专属
利物浦
堂@@
旺
计算机系统
谷物
摇
核心@@
新年
罚@@
切除术
小车
法典
瓶子
踢@@
保费
跳动
认
芳@@
侵害
第三条
贿赂
下级
帐@@
48@@
喉@@
戊@@
劳动合同
守则
FD
亡
念@@
艺@@
地向
螺塞
CFR
景象
MD
动物园
开关柜
暖
防尘
FT@@
一点点
克莱@@
帝@@
援@@
1800
散热
隐蔽
骗
水压
受过
桃
清偿
重复使用
魔法
主观
沟槽
火炬
烫
很强
执行@@
机翼
条形码
阀杆
难点
遗嘱
1600
今
剥夺
MirrorView
日报
0.9
EM
斯坦
尔特
第九@@
钙@@
列示
熔化
be@@
昨晚
沈@@
行情
垄断
协调员
邪恶
辣
簇
继续执行
营业@@
郊区
IX
超链接
追加
桥架
捐款
全过程
器械
胡
M10
一般性
杰克逊
一封
每份
請
Av@@
分拣
姐姐
掌控
这部分
存储@@
梭@@
消
名人
布料
重现
CX4
严格遵守
序列化
109
拒
无可@@
统计分析
测算
we@@
下层
土建
胆
圆角
衍生物
霍
49@@
©
金属材料
锚杆
耐受
旱@@
优越
安培
融化
负有
孟@@
Add
不能@@
气阀
瑕疵
焚烧
穿戴
完全@@
忍@@
步进
比起
衷
变迁
失业率
纯度
荣获
散步
油量
上半年
名册
多普勒
RNA
仍旧
推断
学历
三层
众所周知
俱@@
时空
T1
会面
反洗钱
源文件
crmk
一线
或者说
吵@@
阶级
Utility
升值
8.8
Bold
危及
饲养
69@@
密封垫
基板
土方
制图
宋@@
性感
Start
下拉
弯管
版本号
海尔
003
域@@
季节性
汇款
薄板
传输@@
后侧
高低
高速@@
霍尔
一员
流经
渐变
电解
巨头
电化学
第三次
缝合
赛车
土地利用
实心
槽@@
秋天
鲸
灌木
愚@@
DSP
前所未有
着色器
预备
波段
绒@@
下调
矫正
贪@@
FA
贷@@
同性恋
FF
沙滩
赴
我来
等离子
贯@@
传动系统
者@@
显著性
钳@@
零点
68@@
值班
對
计划表
询
8.4
例行
农田
构架
箱体
art
前言
拉丁美洲
阿拉伯@@
不明
丛@@
解放
判
奇异
惊奇
胆固醇
Sim@@
此值
比特
人事
口味
毁坏
老虎
陕西
芽@@
震惊
薪水
公积金
羽@@
功能@@
勇@@
损害赔偿
来回
¬
乳液
亨@@
set
原先
中得
胚@@
现值
过敏
所要
踩
ge@@
家园
传媒
放进
SN@@
抛弃
污垢
越过
亚太地区
祖先
Net
大理石
存储阵列
帅
活动@@
苏州
垃圾@@
方程式
壁厚
破坏性
清水
容忍
气息
太长
mp@@
唤醒
风味
肥料
全面@@
机身
散发
碳纤维
辞@@
末尾
描述符
美妙
辨@@
高尔夫
M1
ah
显式
空军
保值
帐号
管理工具
排水系统
茨@@
奉
总局
执政
独一无二
损@@
一倍
SOA
分析表明
浦@@
民用
藤
焊工
Te@@
Val@@
推到
证券公司
钼
夫妻
绝望
队长
EB
行业标准
普尔
语文
阔@@
手机@@
畸形
117
尺码
ur
干什么
股东会
讯息
CG@@
奖学金
SNMP
一口
卢比
公制
土层
东南
拒收
胞@@
触及
售后
已为
牲畜
六年
ach@@
巴勒斯坦
惠普
络@@
剪贴板
压裂
线上
43@@
log
国有@@
庙
回避
多人
多方面
角膜
收支
PB@@
同情
两根
号线
重复性
股利
CX@@
光照
终身
租用
瀑布
社团
篮@@
虚
克林顿
医疗保险
敲
道歉
存入
蒙古@@
贼
饮@@
PG
span@@
筹资
泳@@
体量
泪@@
Hyper@@
PIN
粉煤灰
资金@@
颇
拳
人造@@
斯顿
俯@@
陷@@
店@@
正规
空间@@
墓@@
火花塞
享@@
此刻
箭
芬@@
子弹
咽@@
圣诞
淘@@
SET
如该
牛顿
自然灾害
保修期
区域性
fl@@
单向阀
枕@@
海事
Value
承包方
肩膀
攀@@
调拨
SO
悠@@
头寸
祝@@
详述
彼@@
抗压强度
Min@@
中华@@
城乡
知晓
施工单位
商学院
蜡@@
转为
铝制
º
汗@@
尼日利亚
遇见
分工
回报率
氧化铝
老挝
囚犯
誉
紧急@@
营业日
有线
递增
AW@@
mo@@
电影@@
赚钱
结局
出入
摩西
华丽
句柄
工商@@
经理人
预言
生病
tr@@
出境
盈@@
组成员
裤子
间歇
行为@@
280
装船
Part@@
科学研究
管材
Series
烧伤
红利
达成协议
锈蚀
闹@@
碘
同业
AU@@
枢轴
水温
调谐
雄性
霉
游行
un
插孔
经受
赞同
轧
中医
倡导
血流
填筑
開@@
昏@@
不佳
山谷
幻
形圈
扁@@
本着
渗透@@
赏@@
Sub@@
原谅
微处理器
PSM
EV@@
ain@@
fi@@
les
nsr@@
生动
述@@
9.3
Gra@@
每名
黄铜
Command
无菌
瞧
取值
美军
技术创新
激活状态
FT
年纪
停下来
参考资料
竖@@
尾巴
籽
涡流
逆转
260
二十
脑袋
评标
5.7
om
前款
MB@@
天才
清盘
生涯
铁路@@
原则上
鸿@@
中美
请在
113
技术参数
革新
LT
子句
捷@@
解剖
4.1.@@
me@@
手续费
误解
SSD
ach
Jaguar
T恤
律@@
蓬@@
思想@@
西藏
铲@@
防滑
令牌
参议员
柔和
饥饿
利用@@
纺@@
星星
你好
地处
运载
既@@
智利
牵引力
入学
右手
建设工程
起初
坦克
晒
use
抽屉
训练@@
low
轧机
半球
操作过程
loc@@
写下
合法权益
唯@@
哥伦比亚
衔接
底下
北极
变暖
印度@@
差值
IPv6
困惑
对账
架设
演习
星期二
细致
会为
钢轨
rac@@
东北@@
11.
网点
蒸
停堆
严密
电话@@
磁铁
空缺
金矿
梳@@
棍
精准
ail@@
幸存者
相适应
一首
旅游@@
水槽
电阻器
平民
抬@@
KPI
承保
间歇性
开机
崇@@
概
入门
眼中
禁令
卷影
派生
适用范围
一时
标准规范
束缚
钱包
ec
原理图
又@@
氯化
衬砌
防护@@
中心@@
用具
重金属
技术标准
筒@@
FP
察
贬值
这事
防守
高级@@
散装
湖南
计算机辅助
［
两点
割
垂直于
拥抱
无条件
分理处
KW
盎司
一新
农作物
发挥作用
膝
阴性
制止
批发
栖息地
臭氧
差分
诸
204
650
现任
HIV
亚太
路边
对数
络
严峻
DWF
偏见
启发
永磁
模拟@@
爵士
TH@@
卢
留出
滞
信箱
搬
犹@@
纤维@@
尼泊尔
有过
臭
ip
特质
大连
型钢
估@@
弹药
浮点
Link
汉字
尖端
讲解
对流
财
实用性
木板
减肥
履带
总面积
显而易见
粘附
基因@@
完备
二元
星期三
肢体
饰@@
这句
乃
没错
邻
稳定@@
交通事故
氰@@
乾@@
治愈
符合规定
550
不去
天赋
ung
量级
63@@
tt@@
拖曳
讲座
重合
兔子
再度
吩咐
NAME
携手
海报
Ti@@
收集器
高等
op
拔下
河南
折弯
滨@@
京
总公司
恋@@
控制技术
奴隶
毫无@@
白人
饮
逢
Times
健康状况
税法
寿@@
从来不
折磨
鹿@@
一刻
德拉
状态@@
长城
雀
SY@@
中国银行
疯
辖区
非洲@@
1983
乙酸
赞赏
Land
咸@@
突发
Pol@@
亲密
冲动
胺@@
菌株
认真@@
履行合同
柬埔寨
计算器
旅
传动轴
事后
座垫
君@@
日光
大面积
极了
的吗
违约金
愈
苍@@
ore
加元
瑟@@
不该
人性
呆@@
帆船
灰岩
磺@@
窗玻璃
乃@@
在此期间
整流器
多级
截止阀
溢价
电子产品
ND
管理模式
背书
药剂
届时
文化遗产
洛克
罚金
驾@@
绘
84@@
Client
宿主
提单
Mon@@
本地化
甲状腺
醒@@
霸@@
strong@@
使用费
可拆卸
仙
祖
脉动
遗失
全长
奶酪
泵送
闸板
馈线
Ⅲ
红细胞
协议书
硫酸盐
Cor@@
均须
物理@@
匹@@
政治家
宝贝
加深
刑事责任
堪@@
访@@
Bro@@
工资@@
ir
该软件
很棒
dis@@
害@@
平面布置
主板
支撑@@
设计标准
走上
］
BR@@
件事
内饰
归类
交错
建筑材料
毫不@@
观察@@
MQ@@
下达
审慎
尼亚@@
服务水平
烘干
DWG
O2
口岸
醉@@
合金钢
两岸
第一天
天然@@
干燥器
竖向
阴极
ks
蓄
330
利斯
十足
对比度
戒
溢流
诱惑
卷筒
向外
困
张贴
传送带
数十@@
磁盘驱动器
识@@
ition
冰川
Int@@
喷淋
人力资源部
学习者
炎@@
现今
OM
幕@@
缓冲器
互联
叛@@
合营
收货
朴
永不
琴@@
参议院
反光
執行
橡胶@@
Server@@
前提条件
公元前
建构
聚酯
Des@@
Mail
大容量
获益
运动鞋
简述
紫外
缠@@
食品安全
教导
晶粒
洞穴
红外线
咨询@@
遍布
冷水
冷静
显现
福建省
钉@@
咽
项目@@
抬头
生殖
城市化
撕裂
福建
肠道
re
亚马逊
典礼
演练
环境污染
书签
时效
糊
阿拉@@
减排
密封剂
变体
女生
平常
萎缩
每人
消费品
注册商标
等同于
RSA
粮@@
预算@@
在建
蛋白酶
赖
感谢您
开业
委托方
必备
GP@@
古巴
有机物
电阻率
硝@@
构想
裁判
朝鲜@@
油封
加利福尼亚州
发布会
河南省
附图
听取
郎
205
情境
石棉
奢华
数年
钻井液
岁月
缝隙
一月
依赖性
哺乳动物
奶油
站台
cf@@
固结
建筑设计
改革开放
享用
烷基
防雷
ControlCenter
美金
错误信息
便会
经济衰退
ide
星期四
杖
扩充
留存
装满
文摘
监护
硬质
N1
慈@@
熔融
语言@@
122
硒
音频@@
景色
标题栏
漂移
下雨
自動
即为
涓
车库
gra@@
旧金山
接地线
ab
三分之二
检出
源头
顶层
晓
四处
定时器
婆
市值
我用
挪@@
锅@@
忙@@
滤器
米尔
轻度
产业化
双方同意
连接@@
LD
器中
寡@@
山羊
排斥
再试一次
男士
渠
尔森
视察
拍照
電子
切尔西
核销
测量@@
风雨
心率
机上
鞍@@
错误@@
利润率
岩层
搜集
狭@@
欺@@
联结
资源@@
雾灯
展出
打断
医疗器械
指导方针
唱片
关乎
Roman
投射
方言
mental
孔洞
提请
跳线
aut@@
临床试验
互操作性
必将
提出申请
58@@
人选
厉害
雕像
交际
人心
指甲
申请@@
绝不
购买力
Wh@@
售出
ara
腔@@
贵州
SDK
Script
扣留
途@@
以备
动力@@
精品
紧凑
万向节
流过
电磁@@
抵押品
逗号
ATF
ESX
ISP
主角
倘若
遵@@
公路@@
袖@@
衡
闸@@
麦克@@
H2
宴会
寨
管段
開
各个方面
丘@@
参数设置
每分钟
剩
深受
生存@@
法对
绳子
译者
肺癌
合同@@
廉@@
热门
掩盖
缓震
一堆
仲裁员
燃烧室
伯特
半个
山地
炼
游泳池
EG@@
她说
炒@@
ld@@
关节炎
高分辨率
操作程序
树枝
海盗
规范化
77@@
詹@@
po@@
纱@@
Ed@@
Mac
敬
飓风
黄河
雕
RPM
个月
复发
病情
解码
审视
心肌
驰
SIM
④
涅@@
瓷@@
电力电缆
眼泪
PF
税额
算是
脆
二期
逃避
丢@@
分隔符
看似
样式表
idspn@@
孕@@
收件箱
³
反射@@
动员
吊架
复兴
方框
试验机
已于
袋@@
form@@
独有
薄层
赋@@
边际
io@@
md@@
织
与否
中型
减压阀
势头
增幅
指望
毫升
肉类
疮
订定
UL
习俗
帆
报警器
人能
家庭成员
砌
继承人
软化
ERP
培养基
涂敷
近来
带走
活性炭
罩@@
CW@@
合作社
税务机关
试试
五月
倍数
第四条
203
近日
BS@@
变化规律
亲属
外露
身后
发動
草坪
存储空间
摔@@
烯
原告
特征@@
其所
公交车
有害物质
电价
Rob@@
46@@
产值
耕@@
芭@@
7.0
M3
ace
得多
感冒
载明
青铜
Framework
呼吸道
地为
奏
繁忙
纲
联邦@@
固定式
net@@
消音器
特区
Clo@@
age@@
突发事件
粉丝
跨国公司
1.9
先决条件
畸变
纽约市
Bar@@
Cl
莎@@
动植物
大麻
网络安全
3.9
供选择
纸质
葡萄@@
创办
化学反应
克拉@@
卧
套房
清醒
face
喉
当量
矮
范
贵族
TR
刘
左后
淋巴细胞
随访
EMS
ee
帐目
抵制
派对
遮阳板
宫殿
推销
音节
56@@
The
ne@@
一個
猜@@
注水
上课
大赛
崇拜
粮食@@
IEEE
S1
剖析
搬迁
卑@@
拇指
轮轴
载重
卸货
追溯
镶@@
ond@@
太小
担@@
排污
无比
水井
授
斑点
矮@@
再试
脊@@
随便
决策者
差动
相片
1100
火车站
系统性
焊机
第一章
Mac@@
倾倒
栓@@
检验员
衰老
窃@@
提倡
驾车
MD@@
引号
模量
涉
醋
帐篷
通知单
管内
质地
稳健
讨@@
Har@@
伴有
之用
AppXtender
战役
祷告
脚步
详
du@@
则@@
海啸
越高
迦@@
单层
VI
整天
椎@@
臣
γ
六月
外加
投资@@
line
垂
外交部
常量
竖
耗材
进球
LR@@
墨水
箱盖
出价
分散@@
家属
温度控制
第一阶段
解密
高炉
xx
勘查
谨@@
刑@@
闲置
1970
冈@@
大选
栏上
美容
骨髓
公共卫生
天上
征求
溅
详细资料
环境因素
不便
折射
留置权
凿
带入
捣@@
一章
热力学
购物中心
fs@@
专辑
交通工具
尼斯
制服
燃气轮机
猴
非常@@
举动
规避
山上
1981
夯实
引水
肺炎
茶叶
内衣
香烟
004
』
笑话
退款
Shift
严格执行
嘛
持牌
断开连接
运河
选址
痰
前任
谐振
54@@
私营部门
荡@@
恶性
水印
SOAP
微分
file
兑现
线段
SCSI
三角@@
Sw@@
三月
中小型
五十
有价证券
第一位
遏制
同伴
滑行
精华
HD@@
免于
典@@
温柔
10.1
DC@@
Inter@@
检验@@
邮政编码
M2
好事
私营
HE@@
融
降温
ration
去掉
尼克
靶
流化床
花朵
铠装
Basic
出水
包装材料
既定
照明灯
战略性
车主
Power
墨盒
湾@@
半年
铬@@
放心
正常值
沾@@
离子@@
这幅
锻件
插值
FI@@
动荡
底壳
颤
使用率
内陆
现浇
扣押
ING
乳腺癌
责@@
重用
pr@@
郭@@
服务员
海峡
翅@@
过渡@@
供气
奖项
程序员
获胜
美的
SID
Update
奥斯@@
Design
奔
辞
按揭
格林
棱@@
测绘
不合格品
壹@@
队@@
填入
尘埃
液面
逼@@
一小
孔中
气化
布拉@@
烘焙
驱動
圆盘
互补
岩性
方差
鞭@@
ket@@
殖民地
Solaris
『
公共服务
寸
怪物
桩@@
烦
监测器
微分方程
闸阀
mail
杉
SDD
站立
其为
多大
操作者
数学@@
118
刚好
匙
检查表
土地@@
存续
水道
装载机
发售
符合@@
硅酸盐
郊
合格证
标段
anc@@
坚强
db@@
装上
ong@@
摆放
招募
骑士
擦拭
留有
讽刺
访客
变色
拖到
GO@@
搭载
轴承座
鼓舞
are@@
工艺品
躁
隔开
Rec@@
后缀
青春
钨
系统配置
读出
钎焊
问道
告警
获准
GL
Portal
于此
扶持
看不见
受限制
嘉
姓
彰显
模拟器
电气@@
会议记录
居然
ABC
下行
承压
As@@
公报
有期徒刑
珍
木头
筑@@
贾
居民@@
珍珠
阳离子
隔间
02@@
服装@@
变换器
揭露
部份
兼职
军方
剑@@
得不到
扁平
新工艺
组策略
疟疾
FA@@
崩@@
127
中午
漫游
皮质
ue@@
跳跃
TCM
無法
留给
迪拜
外交@@
配电箱
世上
并重
幼儿园
赐
OP@@
不太可能
处分
独立性
踩下
住户
喜悦
市场需求
柴油发动机
船体
伸
哈利
堆芯
安装@@
幸@@
忧虑
抹灰
熵
心肌@@
聆听
船用
蓋
评判
逃
高速缓存
Sm@@
膜片
Ba@@
低下
写出
要说
完全相同
接触面
Ev@@
挣扎
滑移
燃料电池
省份
翔
ors
关键因素
减免
处境
待机
虐待
足球@@
闪电
集会
流畅
背板
尽早
参考@@
夹子
承载能力
拦@@
此举
选装
雀@@
亮起
密实
打印@@
流水
共同体
尽量减少
拘留
土木工程
畅通
靶@@
amb@@
水头
胁迫
香料
妥协
赌场
关键问题
奥氏体
妙@@
柏
哮喘
复印
导航系统
芳香
标价
观光
AX100
循@@
想像
无法@@
油罐
ement
填土
高处
扁
虚拟@@
eng
SCADA
准备就绪
碼
压电
热力
适量
Vista
水上
略微
ath@@
书记
周期@@
疏浚
总收入
内六角
冠状动脉
离岸
尴尬
晕@@
血小板
仟
祥@@
秋季
膳食
赫兹
点钟
闲
4.3.@@
NURBS
out@@
乳化
当下
门外
一枚
骚扰
魏@@
个人资料
南北
平方英尺
批判
探析
气球
开玩笑
生产者
耗尽
萧条
往返
该处
机密信息
胞
ps
术@@
杜
货币@@
att@@
发掘
山市
效用
整流
未定义
相比之下
造价
授权书
返工
除尘器
Bas@@
例外情况
哈萨克斯坦
偏移量
偷
郵件
龄@@
降下
LM
指挥@@
SRM
交流@@
上司
墓
大腿
底面
血栓
高职
代理服务器
内膜
精子
调频
Tech
再用
品尝
组和
租约
就绪
不已
中去
地理@@
ings
哪怕
长久
144
多条
姜@@
连通
by
mb@@
人工智能
116
尿素
嵌
施工进度
留意
蜜蜂
表皮
宋
可知
头顶
开创
袋子
防洪
作业@@
学费
增高
注视
质量体系
OT
产品设计
公安机关
办公楼
宏观经济
矿物质
0.
数字式
利益冲突
身为
龙骨
ActiveX
适
漏油
触头
Mer@@
吸气
曲柄
雌性
开发署
良
ica
就业机会
州长
愈合
水利
西斯
宁静
模糊@@
Cal@@
Par@@
烯@@
知识@@
风电
嘴唇
点数
肆@@
1979
叹
事务处理
大批
eng@@
惰性气体
推杆
摇臂
測量
谋杀
响@@
妇
换热
並@@
征服
颜@@
搅拌机
TimeFinder
奥林匹克
精神病
围岩
這@@
喊@@
评为
连线
reg@@
严重性
集料
信纳
所含
行长
位图
发行@@
集体@@
GA@@
体检
再见
匀
受托
斯蒂@@
温泉
日止
裸露
吃惊
尾气
收藏夹
树叶
注定
湍流
F2
托马斯
自然人
身高
QU@@
羽毛
sp
th
必填
信号处理
滑雪
软骨
unt@@
卡拉
席位
浇@@
褐@@
褶皱
额定电流
影子
黄金@@
︰
OL
GP
拖延
关切
Br@@
直立
余热
机能
水土流失
铁矿石
升压
悉尼
济
结合@@
中起
例程
一届
浑@@
受压
市政局
后轴
多点
ART
传来
做事
寻址
硝酸
R1
专
停放
承办
普查
6.7
old@@
子集
条码
湖北省
忽然
乐园
用人单位
管理费
贴现
锌@@
Def@@
功率因数
奎@@
RH
扰@@
无所@@
有效率
海豚
强行
还原@@
送入
2.9
62@@
专利权
谅解
妻
祂
Fo@@
GD
一轮
排量
拆装
岛上
空运
索取
解放@@
Pat@@
开会
纺
7.6
感动
酶@@
乙二醇
扭
积水
弱点
概览
保证@@
昨日
竞争者
衰
观赏
质量@@
与会者
却@@
好奇
身材
里亚
抗菌
河水
限制性
孙
衍生品
Kh@@
借口
办学
外语
澳@@
勃
反应@@
顶盖
S2
失踪
无聊
肾脏
关怀
监督@@
VIN
掩@@
财务部
金牌
不良反应
中文@@
加利福尼亚
有意思
眼光
十四
患@@
漏电
熔
聘
贫
出众
裸
zh@@
吊索
阴道
一列
冈
安全系数
曼联
阶梯
µ
区域@@
裤@@
87@@
ect
热线
era
情报@@
该行
适时
多用途
美术
錯誤
门诊
勾选
边上
打结
接受@@
凹
前瞻性
此人
充分考虑
同名
抢
走路
升至
屋子
汽机
裙子
进口商
工单
遮盖
饼干
孔子
板式
第一款
豪
ical
弧形
椰@@
藤@@
诠释
读写
酚@@
126
下班
中世纪
统筹
还给
131
倒车
引人注目
驻留
yl@@
不定
开发利用
流动资产
深远
甚
公职人员
同步@@
挥发性
悦
班组
知情
拆迁
继電器
于本
砸
菜单栏
需在
所在国
猪肉
连续@@
script
停运
参看
质检
真空泵
整治
超级@@
Carrera
TRA@@
习近平
惊喜
湖北
交叉口
撑@@
日记
疆
开式
满载
腰部
八年
医疗@@
持续性
一会
全市
天生
测试程序
溃疡
疗@@
锭
ord@@
不高
项目名称
User
口令
小女孩
法治
Cre@@
inst@@
帘@@
聊
蠕变
与非
政客
焊接@@
熔断器
盘式
蜡烛
上空
汇集
膨胀@@
遣@@
知识库
五金
刑法
尤为
监
党员
恐慌
CON@@
升温
耕
1978
不多
东亚
倒角
井架
头枕
废水处理
照亮
被告人
TP@@
col@@
摄影师
痒
读卡器
12.
开辟
电感
自觉
躲@@
身心
喝酒
就让
防护装置
155
出差
博览会
精灵
中国证监会
主控
功耗
立体声
10.2
城里
喧@@
挂车
59@@
MAP
春季
芦@@
ware
原文
文本文件
陌生人
异构
时为
祭@@
有所@@
清新
石灰石
运气
喂@@
挖掘机
机加工
度计
第五条
综@@
腕@@
人才培养
博弈
挣@@
Key
蜂窝
挑战性
放气
水土保持
系统管理
远距离
有源
客户关系
炒
财政年度
迟到
忠实
签订合同
LB
公章
安全可靠
真实@@
耻
胳膊
覆盖率
辐照
风量
发电站
宁波
总金额
脊髓
of@@
果汁
PN@@
ATM
ents
根部
醒来
重新配置
东盟
查尔斯
缆线
尊
结实
首歌
Box
壳牌
淮@@
毛细管
增生
解释@@
公开@@
席@@
大臣
狮
描写
摸@@
行进
一圈
谐@@
UM
栅栏
第六条
接口@@
魔
Security
两份
Plus
借方
岩浆
腹板
记录@@
使用@@
反过来
报名
泊
钻杆
音乐会
偏转
引力
杀害
泛
营业额
Biped
一贯
上线
WW@@
IDS
cr@@
出让
砷
規定
铰接
剖面图
145
Key@@
售卖
箱内
维亚
财物
屈
恶心
加长
或本
Li@@
孕
批复
残
银行家
Notes
天体
自动更新
不利于
积聚
统一@@
输入您
前锋
受访者
客厅
航运
预示
src
放空
SK@@
祝贺
出卖
前台
厌恶
毛刺
相差
荷
激酶
载波
马克思
前途
吉姆
少女
星期天
落地
袖
鲜
业务部
小儿
沙特
电动汽车
达标
高潮
中要
编录
010
转储
魂
事务@@
肚子
先知
版权所有
阻断
xr
坎
盘点
一号
數
缺血
驯@@
Configuration
坚信
投放
池中
七月
周转
损益表
485
MC@@
武装@@
GW
玻@@
ave
其应
好多
音响系统
Settings
抗拉强度
权证
滚子
草稿
壁垒
激光@@
粘接
当成
第一项
调色板
8.0
援
高度@@
十一
漂浮
演绎
联系方式
自行决定
财务管理
死刑
乎@@
胶粘剂
输出@@
唱歌
车床
辣@@
选择@@
ns
毛巾
PDP
kPa@@
mod@@
yt@@
后备
推翻
潜能
深入研究
用户手册
通用@@
用户组
精制
胖
腰带
蒙古
纤
赌博
理查德
砌体
福音
减震
孕妇
澳元
刃
外层
漏斗
Em@@
低廉
嗪
2030
FLARE
蜂蜜
面具
.html
拢
热带@@
系统地
至上
In
创造@@
肘
分子量
黄油
坪
庫
空压机
难以置信
卡住
套餐
改建
裁剪
匈牙利
等价
丝绸
发展前景
清空
贯
阐释
三位
毛病
积极参与
笛
FD@@
ers@@
本年度
做过
岸上
检查员
俄国
忽@@
SG
前侧
印制
压出
机械性能
转盘
搏@@
映
杯子
管辖区
Options
商誉
计划@@
P2@@
年度报告
番
5.2.@@
善良
舰@@
发明@@
娃
调查@@
迈
香港特别行政区
凝聚
销售量
绕过
link13
下发
格尔
活门
珀
精炼
09@@
12.5
旺@@
Player
清洁@@
爷
病患
直播
督促
53@@
HK@@
Is@@
树中
海绵
装在
造影
门票
回收率
弦@@
沃尔@@
备受
＞
仔
年均
私募
空气压缩机
马车
丝网
ax
定义@@
喜剧
开孔
脚下
专利@@
克里斯
围墙
境界
声波
也@@
总体@@
皱
f6
登记@@
论点
ace@@
互利
交易商
精选
四月
青睐
人事@@
矩
轮辋
168
握@@
溴
雷斯
MQ
◆
法例
相近
逃离
平价
请用
连接处
顶尖
丘
截
营业部
内部@@
分形
右后
重庆市
TPM
vi
全资
工艺@@
巧@@
绝佳
芳
迎来
局限
yp@@
一顿
亏
压降
轮询
ire
刑事@@
维多利亚
itt@@
快捷键
集成@@
自行@@
苹果@@
中外
交易日
Attribute
莲@@
额定功率
全职
大象
朱
泥岩
递
镀
最低@@
犹大
税务局
MRI
荣幸
Lin@@
sec
抑@@
炼油厂
紫
裁处
逼近
V1
千瓦
地壳
消化@@
端盖
true
原发性
大使馆
掷
沉积@@
Direct@@
抗氧化
挂牌
119
3.3.@@
xml
坐落
奏@@
comp@@
学士学位
楚@@
电控
电热
东北部
暨
联络@@
脊柱
主教
工程技术
当前@@
维也纳
预埋
WA
法在
第一批
复用
感官
扣减
规划@@
工业用
海南
石材
哈佛
失控
Mpa
RepliStor
排入
涨幅
竞争性
粪便
风口
Ser@@
太高
好消息
毗邻
蝴蝶
展览会
山西
悦@@
斯托@@
盘子
BI@@
如表
小男孩
我家
童年
高昂
内存@@
盈
转角
图形@@
壮
沸腾
辨别
铂
DH
NG@@
溴@@
开出
总体规划
商会
DH@@
並
嘉宾
采办
流式
赞美
下沉
胰@@
〉
咳嗽
结构图
防锈
对角
该组
法律顾问
长江@@
停电
后会
审计师
硕士学位
Out@@
凡是
控制策略
门店
act
本例
机舱
格斯
不平
专门@@
ont@@
迄今
传出
债@@
值得注意
施工人员
直觉
脲
越野
阅@@
梨
爆炸@@
Fre@@
Paint
侯@@
斗杆
能为
贷方
驳回
大大提高
椭圆形
移出
Host
肤@@
轭
me
低估
削@@
各大
积极性
锚定
防喷器
全力
Level
高效率
Application
分派
疼
纽约@@
倉
听觉
山顶
恐龙
盖茨
高山
显示@@
由该
超额
Controller
戴尔
产地
传到
后盖
拳@@
树上
过长
＋
301
FIT
扯
插入式
一千@@
失真
方向@@
互联@@
沈阳
法兰@@
省略
CharStyle
垃圾邮件
斥
暖风
糖果
封闭式
脓@@
菊
檢查
股票@@
ade
划线
古怪
最高法院
试车
算子
App
劫@@
子项
挑
记忆@@
绑
共聚物
商家
恐怖分子
的呢
数个
饱@@
争夺
人员@@
干式
猛
電缆
病房
经济社会
臀部
领先地位
候选
Al
Flash
晚会
格外
纶
RDS
世卫
传承
算术
腹泻
TG
上图
下周
死于
轮子
化器
卡扎菲
球面
会计年度
工程学
楼宇
训@@
二战
奉献
抑郁症
招标人
这套
放样
前门
街区
劲@@
定为
柴@@
爱因斯坦
server
系统工程
BB@@
低位
弹力
画布
脾气
轻轻地
Ros@@
add@@
ult@@
头盔
巨型
弯矩
筹备
迈克
天地
女式
活塞环
06@@
asiantextfont
页@@
哇
抑制作用
亮点
检测@@
率为
仅供
潜艇
程序设计
忠
整机
基数
塞尔
配比
立管
设计者
首位
RE
万英镑
明确@@
div
拾@@
课税
重设
»
料斗
时长
膀胱
削
逐
加盟
宁愿
保持@@
昂@@
皱@@
回滚
定量分析
忙碌
攠
施工工艺
服务供应商
熊猫
SW
一身
夏威夷
批号
门户网站
OH
番@@
疑难解答
续期
满足要求
真皮
女孩子
信號
第一百@@
致密
这边
会员卡
低音
打败
波导
非常适合
航空器
醒目
D2
不为
予@@
右击
操作手册
茂@@
Add@@
古典@@
快速增长
检查点
横跨
清真寺
短裤
中国共产党
2.3.@@
新的
热烈
连接线
CK@@
上岗
新车
全国@@
第七条
逼
ress@@
帖
三倍
波纹
热轧
舒适性
进一步提高
重载
总行
细小
xx@@
外地
牙膏
簧
商贸
利性
耐火材料
lock
一小部分
反腐败
赔偿@@
五十@@
交底
复方
甘油
中说
韵
攻击者
泵站
篷
职业病
厦门
耐磨性
间谍
電磁阀
Fran@@
雨季
香蕉
图像处理
富集
心理健康
细微
Mot@@
暂定
pe@@
津@@
奴@@
时代@@
V8
爽
牛仔裤
苹果公司
会长
媒
矿产资源
缴@@
过早
变电所
畔
.d@@
人间
并入
高中@@
姐妹
结石
送往
本能
绩
组委会
货架
地狱
销售收入
天天
高斯
﹝
曲线图
责任人
防抱死
产业@@
含水
绑扎
自然保护区
预审
Point
整车
点儿
老婆
董@@
高铁
勾
电加热
鲜花
蕴@@
警惕
不堪
你方
項
151
9.4
bl@@
凿@@
没法
百万@@
绝大部分
磷酸@@
立方体
钻进
VC
ett@@
客观@@
搏
白皮书
白细胞
筹集
考量
IE
流变
工程地质
弃权
GMT
企业级
癌@@
贸@@
刹@@
封锁
第九条
前面板
航空航天
雾化
霞
九个
云计算
合法性
大片
救生@@
江西
温度场
炎热
煎@@
结转
驾
Content
晨@@
Inf@@
Ltd
南海
波特
禽
5.8
全天候
尊严
楔@@
珊瑚
施用
窗帘
专题@@
变现
抗性
柱子
后窗
未曾
禽@@
稍候
不良@@
上调
人才@@
六条
谦@@
顺便
健
圆圈
人来
蕾
强壮
注射液
耗费
一事
梳理
高空
185
屈曲
法律效力
进度表
保护器
嗨
大人
新娘
key
市场部
数据交换
1400
交点
交通量
晒@@
极高
农村@@
劣
内阁
热能
124
刨@@
高大
赋值
ON@@
Select
T2
双头
妇@@
电泳
碘@@
卧式
笑容
让步
试验台
電气
File@@
列表框
无人机
蓄水
1.25
1300
水深
懒@@
涡@@
维护@@
运维
地中海
想着
肺部
呈交
年月日
当初
校核
潭
百度
中国建设银行
刻录
208
mol
仿
记下
選@@
mp
ull@@
外贸
媒体@@
模特
渗透率
自如
财务会计
孟加拉国
沿岸
犹豫
计画
165
花纹
Connect@@
滨
等价物
ain
土工
蚂蚁
4.9
准时
地被
幼
肤
lu
弧焊
月初
白血病
搅拌器
晕
杰夫
陆上
HMI
PP@@
分娩
商业模式
聊@@
训
搅@@
浸渍
症@@
并列
昆明
昭@@
非金属
Pe@@
PowerPoint
TER
与众不同
中线
作好
秘@@
公益@@
沙特阿拉伯
经济危机
9000
圆锥
微弱
抛
伐@@
耐压
Visual@@
化剂
卸料
金属板
尝
个数
过电压
CHAP
L1
own
世人
数据仓库
穗
荆@@
表列出
uk@@
缩略图
束带
免责
泰勒
花生
饱和度
中控台
洗钱
专家组
家禽
德斯
东南部
主线
兽医
复习
恢复正常
期初
立法会
InTouch
On
运动会
后处理
海里
車顶
更新@@
畜@@
饿
Adobe
SPS
开放@@
按本
ACE
应激
烘@@
勘@@
陕西省
否决
土豆
受众
气质
理化
设计图
防潮
可逆
外层空间
奶奶
工作岗位
用例
门框
ICP
假装
反演
宾客
昂
猴子
赶上
陵@@
鼎@@
土建工程
通讯@@
AF
IFC
PK@@
卖家
多长时间
捐助
Open
导入到
彻
波纹管
着火
Wor@@
不可或缺
这本
单身
关上
场外
来电
池塘
犬@@
鞘
十大
天平
常务
建材
徵@@
第八条
三名
原产地
曹@@
1976
sch@@
体力
台风
情人
控制杆
更强
电信@@
艾滋病毒
ier
动性
数据管理
滋@@
另一@@
命中
品牌@@
居中
性能指标
捉@@
看成
翻新
ek
平均水平
补偿@@
贮藏
入口处
琼斯
设计阶段
布里@@
起着
厨师
马力
佩
毫不
羞@@
乳酸
DFS
花键
走势
ao
概念@@
疏
系统对
付给
嗜@@
粉红色
96@@
构造函数
派出
蹄
Sal@@
WMI
tra@@
乳房
CAM
C3
Loc@@
散布
黑洞
万个
覆盖层
Object
特别@@
被称作
风向
P0
丑闻
工程部
统治者
院子
花钱
000.00
22.@@
ITB
△
升降@@
娘
熏@@
击中
疫@@
裁判官
趋于
GR
ice@@
克拉
劝
尖锐
用语
警戒
坡口
安慰剂
密封条
首批
if
公用事业
悬臂
中度
克尔
大型机
威尔士
搜@@
Disk
压紧
回放
水溶液
遍@@
并行@@
税前
艾伦
降雨量
VTune
WebSphere
九月
实施方案
杀虫剂
用餐
LV@@
Pr@@
叉车
第五章
管径
侧板
涤纶
空气污染
给水泵
UN
明示
陪同
ub
一维
选票
偏置
缺席
Drive
专职
面包@@
廷
拉德
液压缸
称赞
反抗
高压@@
AX@@
吕@@
噪
智能卡
逃生
SCM
cont@@
世界卫生组织
围堰
缘故
高等@@
RMS
业内
瑜伽
股份公司
评述
铅笔
或用
活塞杆
生长因子
疲软
社会保险
缅@@
不可思议
指标体系
褪色
固定器
报复
装货
da
低迷
半成品
气源
网络适配器
able@@
二十年
参考文献
初步设计
填满
恒温
砾
薄弱
金字塔
300@@
稀
the@@
卡钳
成本@@
掺杂
翅
关掉
标头
Administrator
HART
收于
邓@@
钓鱼
侦察
5.1.@@
IG
ana
叔叔
ASCII
弹性体
敞@@
肥皂
闷
卡特
木制
管理软件
web
严格控制
人文@@
文件@@
UR
一向
增至
疹
回火
計@@
John
以南
娃娃
布设
ac
人际关系
伙
猎
辣椒
题为
IRM
二百@@
税金
衰竭
货款
免疫系统
后应
库房
藉由
纬度
Pa
丙酮
更能
压阀
口感
AX4
地球化学
花粉
赔@@
透气性
兼顾
SK
形貌
搜查
立法@@
舌头
110@@
力求
外国@@
碳水化合物
G1
伤亡
内燃机
极致
心轴
第二阶段
解开
导则
心理学家
意味
说来
防水@@
99.@@
家居
尽头
获奖
赞扬
133
沟渠
2019
子孙
总成本
牵头
打扰
日语
丝毫
出席会议
转身
Ret@@
删@@
安全检查
热塑性
AA@@
之道
样例
灿烂
1.00
好转
开端
总工程师
特拉@@
备有
宇航员
投票权
核证
极少
软件产品
黑白
堆叠
约翰逊
支气管
数百万
伸长
后卫
坡道
左手
日内瓦
静压
搁置
那条
850
有效值
民航
油轮
残酷
毫克
不算
捷豹
无功
网路
楚
海平面
崭新
棍@@
选购
印刷@@
无线网络
GN
InfoPath
user
兽@@
气道
电源插座
直接@@
直流电源
线槽
这篇
SQ@@
保健@@
列中
小规模
时有
统称
股票市场
自由基
茅@@
译文
玄武岩
端接
TD
海滨
狂热
管理中心
储能
实业
曲目
油器
参展商
152
换向
歌唱
硅胶
Viewer
仅供参考
商机
榴@@
监护人
GT
丙烷
打入
星形
Vis@@
剂@@
吸取
恋爱
择@@
病因
温州
纳德
IB
铲刀
万平方米
凝汽器
坟墓
尽情
ll
云南省
副总经理
区中
深厚
爱德华
符合标准

SAM
山坡
Max@@
书中
市场化
穷
追
单线
涛
违法行为
img
密封面
肝癌
哑@@
恰好
举例
十六@@
经常性
爆震
剧本
微量元素
渗流
询价
运至
Range
放出
植株
皂@@
财产损失
顽@@
先天性
环境变量
相连接
面粉
sm@@
喂养
尝@@
爆炸性
被控
趣@@
静音
预紧
作废
傻@@
精矿
起见
仆
公益
系带
不得@@
数据结构
结构钢
记录仪
TL
构思
经济损失
巨额
机油泵
轮椅
线形
党派
ut
循
敦@@
流传
電阻
MOST
眼球
风光
寓@@
熟知
肾上腺素
.j@@
暴风雨
治安
RO
斯基
榜
胡子
超标
Pet@@
SQL@@
呕吐
输出功率
146
一丝
伤心
宝马
留学
裝@@
阁
高产
防护罩
处理过程
砍@@
紊乱
美国联邦
二年
理论依据
组合@@
闭环
工装
循环@@
Mobile
培养@@
水泥@@
定点
薄壁
优秀@@
嘲笑
法定人数
蓝图
追究
ric
学生@@
当地政府
迷你
发运
应付款
接线图
毡
内蒙古
挽救
接地系统
领导力
价钱
正确@@
ans
后门
抖动
格里@@
守护
水泥浆
矢@@
礁
良性
拆下@@
海面
HVAC
ages
山西省
开阔
自发
领导小组
235
孢子
数字签名
本届
回顾性
事业部
全景
庭院
接字
移走
竖直
地方@@
知觉
第十条
另一侧
四季
芝
城市规划
香水
光芒
勇
成本低
热水器
粘稠
6.8
契
得益于
Edition
port
上行
肆
VAC
布鲁@@
浸入
演说
详@@
发出@@
尔曼
窒息
谁@@
以为@@
鲨鱼
WINS
娶
光亮
可执行文件
热源
符合条件
Tool
false
伊丽莎白
均值
英亩
封口
绝缘@@
苯胺
中华民族
数据量
根据上述
二阶
投资银行
试验设备
IPO
产业链
信贷风险
意识形态
战斗机
贡
九条
侍@@
供款
共同努力
鹅@@
13.
吊顶
每组
状态栏
班级
等式
障
桥墩
轿厢
举起
尾灯
接获
搣
测评
不知@@
倒塌
凸起
召@@
暂
取得成功
屋里
布斯
经营范围
临床意义
价值链
偿@@
务实
合一
敏感度
西南@@
阻尼器
CAT
可观
并不@@
物理学家
磨料
资本@@
颅@@
ark
三类
同轴
软弱
五种
储存@@
患病
浊
分页
正值
登机
歪@@
超临界
8.6
挨@@
本会
效率高
洒@@
硫磺
遮挡
Pri@@
SF
ag
可惜
场面
局限于
棚@@
难过
Channel
三点
布莱@@
惟一
摊铺
进气管
Fi@@
实务
逆向
问卷调查
体型
十月
德语
贸
中欧
值时
压迫
SEC
开展业务
笔划
蜘蛛
身体健康
坠@@
填报
标度
番茄
接合处
栏中
躲
平面@@
收率
Publisher
内存不足
洽谈
经贸
顾及
GW@@
pa@@
恐@@
河谷
锁扣
锁闭
教育部
美分
艳@@
Dynamics
mo
再说
出自
端口号
铃声
高尔夫球
Gre@@
内圈
加氢
学分
而后
Je@@
存储模块
心跳
智能@@
民事@@
率先
組@@
龙头
・
占位
橘@@
罗马@@
重度
屠@@
春节
玩耍
前列腺
嘴里
强烈建议
造纸
音译
下令
呼吸器
递归
锦标赛
21.@@
创业@@
取自
征得
阳台
二层
回调
极好
二十世纪
碳氢化合物
诊@@
休克
差错
马拉
世行
坠
婚姻@@
Image
善意
承重
招股
深水
西班牙语
005
999
定型
巨大@@
开户
有线电视
林地
烯烃
硫化物
二人
女朋友
导游
就是说
机动车辆
湖南省
疗
Edit
引爆
UX
comm@@
开办
增长速度
氏硬度
河北
起动机
｡
10.5
KS
出线
归属于
技术性
知悉
第四十@@
图样
操纵器
Not@@
bu@@
时请
豹
儒@@
失调
水平面
高通公司
旦
水龙头
独资
11.1
患儿
拉姆
涩
科尔
袜
发生@@
理赔
甲苯
管状
购买者
协调@@
雄厚
港元
色泽
这辆
门上
票价
药材
字幕
栓塞
目测
代码@@
朵
生产成本
公用设施
刑罚
大酒店
耸@@
DMA
tw@@
当做
柯
检波器
枕
车轴
饲@@
大米
帆@@
执
须经
黄土
AE
勒斯
愁
拦截
鈥
get@@
水阀
两级
移動
雅虎
香气
交流电
看电视
艰苦
面对面
5.3.@@
上应
口语
标出
泊位
民间@@
爱人
Corporation
医学院
播放机
第二种
肿@@
裙@@
选件
206
complexscriptssize
乔布斯
对外贸易
小孩子
黑客
ICE
河口
交由
振荡器
温差
个人电脑
移动@@
三项
国旗
基岩
放映
治疗师
越多
前轴
右上角
科学院
磷酸盐
发电量
起床
包装箱
京东
SEQ
lbs
ys@@
华为
哭泣
本品
条带
火警
自然界
醋酸
投资收益
逃跑
回波
眼神
砂轮
站场
角钢
且@@
质性
转接
org@@
前线
添
首页
Mem@@
八月
换成
橄榄@@
湘@@
隐含
雷电
面值
综合症
publisher
膝@@
高清
²
控制板
淤泥
稻
质子
领导@@
她@@
录取
温升
通风口
X2
doc@@
下水道
中间轴
诡@@
iss@@
上演
仑
壮观
庞@@
时区
服务公司
清晨
疏水
NULL
保卫
整整
架子
热稳定性
耦
桨
礼仪
Read@@
栽
长长的
COOEC
List
时装
结构件
腿部
透明@@
顶面
.com@@
Hot@@
商业化
深入@@
發@@
稿@@
舞会
坏死
x2122
不肯
控制箱
科威特
背心
苔@@
Rem@@
哲学家
弗兰克
电源开关
陌生
黄酮
Network
青岛市
AH@@
六十
遗迹
承租方
棒球
噪声@@
密集型
成矿
涵义
141
幅@@
恐怖@@
沙子
申请单
社会科学
落下
回事
尸@@
全省
第三节
股东权益
闻@@
ry@@
临界@@
公平@@
好看
调查报告
VPN
主梁
任务@@
感应器
杠
网状
进水口
圆柱体
求得
组织者
连结
口号
握住
侧边
当地人
核苷酸
百分@@
Path
value
通讯簿
饰板
高盛
ari@@
包容
捧
连接起来
Quick@@
子网
弟
筹
遗留
阔
平方
特里
钓@@
钣
cess@@
义务人
停下
印有
小屋
漫步
软盘
三星
使用量
子板
per
sh
应计
符合规范
等值
OneNote
交所
公会
复查
轴颈
雅典
发电@@
核能
角度看
不列颠
M12
分立
标志性
在意
惜
愉悦
摇摆
整体@@
暂时性
通风@@
BL@@
最先
渴
第一种
精通
路线图
Back@@
MP3
中空
单井
发证
收发
檐
毕业@@
化工@@
责任感
iPod
摊
身体@@
人应
巷道
钒
心室
挠度
第十一条
夹杂
拧松
箔
紧接
线图
冰淇淋
耗时
质量检验
尤
赶到
佛罗里达
制動@@
根本@@
生态学
草药
关键性
热浸
inter@@
大火
学士
岗@@
碑
双眼
缴费
附加费
严谨
价格上涨
食堂
加纳
理智
船级社
98@@
P3
ict@@
悬浮@@
档案@@
棵
沙拉
涉嫌
证券市场
上会
悲
西北@@
冶炼
纱线
谓
complexscriptsfont
好几个
未决
解体
512
ove
新华社
泪
满足@@
一点儿
公安@@
建于
手轮
中产阶级
审计报告
锦
420
Bra@@
体温
防渗
吊钩
权衡
终极
衰@@
该款
辽宁省
全是
压盖
造就
大灯
带状
javascript
博士@@
性行为
来宾
x1
彻@@
.c@@
Ha@@
卜@@
承担@@
构成犯罪
棋@@
竖井
逛
不成
啉
第二十@@
310
42@@
封存
根目录
ECS
ations
fer@@
启
外形尺寸
摩根
油污
行者
52@@
停滞
十八
品味
起计
鸭@@
跌落
Group@@
上锁
创新能力
谎言
降压
伐
绝对@@
西南部
奴
安妮
捕捉到
牢牢
蓬
追逐
医疗机构
奇妙
砌筑
0.75
IDE
偶像
翠@@
虑
共产党
担保@@
构型
毛泽东
气量
滑轨
薇
蟹
NP
顺畅
不远
喷头
契@@
恩斯
第七
修理@@
冷藏
ket
贮
Imp@@
一九@@
手提@@
Twitter
一到
活泼
被害人
LH
txt
强势
直角
误导
和谐社会
复审
倒入
幸
攀升
转化成
郊@@
LIN@@
总的来说
标准偏差
车体
ABB
火力
第十二条
脂肪@@
质感
银色
EP@@
侦查
十五@@
持有者
握手
闪光灯
E1
一棵
护板
考古
蚕@@
FR@@
图像@@
社会学
舷
薄片
万一
收拾
汉堡
大类
油画
玄@@
VR
津
NPT
VER@@
ale
熟练@@
苯基
饰品
劝@@
大笑
所持
疏松
辰
鳞@@
One
标准规定
del@@
事件@@
名声
后悔
负责管理
通过@@
H2S
划定
权人
照度
盟
制动液
压路机
市场竞争
恭@@
栏目
烂@@
给付
菊@@
超载
隐瞒
齿条
6.2.@@
从没
毫@@
道岔
HR@@
ODBC
可谓
存储容量
征地
损毁
日间
穿刺
自来水
风景@@
事儿
农户
文凭
身处
中立
判别
安定
image
ll@@
中间@@
女神
巴斯
马路
原装
漫画
羽
询@@
cm2
婆@@
茂
魔鬼
plain
会晤
出任
结核
综合利用
任务栏
会议@@
加热炉
启動
路虎
迅@@
erg@@
exp@@
胜地
邮票
Default
神经系统
详细描述
MW@@
http
万物
几百@@
客运@@
管理费用
约翰@@
绣
证券商
进气口
ium
留言
预料
N2
大事
梢
出口商
天后
建设性
开标
西北部
0.15
JB
使该
出场
应予以
敷
河岸
蘑菇
1972
FM@@
压机
塔利班
小时数
抵触
AP1000
去过
对价
旗帜
深海
磺酸
酰
封头
已满
担
检察官
泸@@
捕鱼
动用
开源
打扮
秘鲁
书店
出国
吡@@
存储卡
石油化工
过敏@@
骤@@
Can@@
ui
海地
层状
总管
分析@@
急需
悠久
时说
缺氧
锐
皆@@
篮子
ax@@
中非
复议
奈
拓宽
渗透性
煮@@
磁盘@@
覆盖范围
进线
保暖
克鲁@@
海鲜
祸
索马里
rid@@
下划线
吉尔
宋体
工业区
忧
报告书
►
工位
特殊@@
硫化@@
鐨
＿
上移
奇特
张紧器
皮层
眠@@
自动检测

产品线
侦@@
保留@@
好评
敞开
斯里兰卡
法制
第十三条
绝热
内战
分动箱
原产
躯干
CG
多项式
心电图
斜面
最优化
水坝
裂解
轻便
份@@
前行
整定
7000
OM@@
中用
必然@@
知名度
GB50@@
争吵
复数
持卡人
收发器
渐进
192
SLA
公吨
慷慨
极小
核电
桌面上
献
鍗
7.8
ute
司令部
增长@@
尼尔
招生
预置
军用
扇@@
换挡
数以@@
门前
雅各
ual@@
贝克
ial@@
仔@@
应使
浆液
进食
流行病学
锯齿
两张
请求@@
相变
翁
凳
牛仔
甲乙双方
第八
韧
饮酒
雨刮器
CU@@
不需
丰厚
体育场
充斥
发誓
百叶窗
eta
供暖
电解质
籽@@
行列
问候
待定
忌
注浆
绘@@
136
云母
卡路里
得出结论
不着
公积
出门
筛查
粘膜
同心
地线
安德@@
熔体
理事
1973
L2
众议院
信徒
圆周
涂上
该笔
近距离
关闭@@
拉紧
概率@@
绝缘材料
饱
充实
技术员
柳
電源
ish@@
ref
从业人员
睡着
超大
交织
亦@@
全国性
参展
橱
窑@@
过往
锋利
驰@@
134
纵横
购单
兰德
更佳
第十四条
巨人
幢
餐具
化肥
惹@@
油温
海员
清洁度
见过
WSDL
lex
传染性
洋葱
遗传学
铃@@
主导@@
兴建
末期
桩基
款单
洗衣机
送风
FO
凭@@
协
复合物
太空@@
想象力
星期日
离心泵
ection
估
喷射器
摩擦力
梨@@
线管
cs@@
对立
典范
块状
支线
群组
跃
FDA
敦
高点
Hel@@
在职
计算机上安装
赞
cel
哭@@
抽水
日程表
桂
武汉市
走私
会用
基站
屡@@
巴塞尔
旅途
杀菌
电导率
遗传@@
Reg@@
代理@@
分校
常见问题
广播@@
時@@
棕@@
重塑
ery@@
一一
乐于
各向异性
度假村
承接
风门
三是
先锋
多地
学业
情愿
核定
灶
边界条件
首饰
Vo@@
ns@@
佛罗里达州
相似性
铜矿
髓
一整天
掠
斜率
Syn@@
会以
正直
宇宙@@
寻
装设
蹄@@
遗忘
HSS
储藏
地球@@
掉落
数月
流行@@
苑
计量@@
陶
政府@@
晚饭
盟@@
马铃薯
EU
备份文件
时序
格兰@@
身穿
乙炔
内含
友好@@
敷@@
献给
动式
浇
重点@@
ual
从小
冷却塔
划痕
失衡
波士顿
ite@@
一式
定居
扩增
承销
Ele@@
中级
玉米@@
相容性
远程桌面
权威@@
海边
耐热
設定
可溶性
道路交通
root
中标人
单机
布满
抢救
有钱
皱纹
通用电气
s.@@
舰队
邀
风险投资
Ex
公关
各州
大众@@
UD@@
国民@@
浮选
漏水
负载平衡
选择权
其间
稳定器
IEC@@
分红
叙事
陪审团
陶瓷@@
ment@@
级配
酿@@
反恐
德克萨斯州
莱斯
无害
略有
风挡
美术@@
被捕
钛@@
ENTER
mph
工商
信用@@
结构调整
共存
北极@@
替代品
理想@@
蓉
ive@@
琥珀色
oot
之久
人须
甘
管上
刊@@
水器
浪涌
眼里
管柱
Du@@
广播公司
得起
民国
相继
石块
赌@@
Tel@@
下半年
圆柱形
报关
皮肤@@
ou
内壁
网络化
邻国
0.001
近几年
DEF
ine@@
剪切@@
如要
战斗@@
报告@@
通风管
ESD
梯形
安徽省
拉克
磁带库
land
碟@@
TER@@
加装
手势
排气阀
有史以来
照明设备
癫痫
秉承
称呼
高地
Console
PCIe
rig@@
不起作用
养成
核酸
绑@@
偏低
同胞
货物运输
AV
或经
面罩
厌@@
土体
完全符合
沉渣
不下
中央政府
拖欠
污物
第一年
赛场
ng
压板
赠
NR@@
打交道
榜样
压头
基督徒
能效
证券@@
远方
163
MCC
Part
ail
安徽
排泄
贪婪
酬金
方便@@
系统软件
ver
双脚
天文学家
环状
箭@@
麻醉@@
fe@@
出版商
塞子
必定
que
薪金
old
好运
1974
咒@@
打桩
证券化
互相@@
填列
抢劫
舞弊
形态学
而异
图像文件
大肠杆菌
机械化
主键
机器@@
监理人
75@@
半小时
封信
锥体
156
no@@
外圈
学说
揽
资金来源
赶
珍惜
联营
市政@@
环保@@
礼拜
锻
公司债券
Dri
br@@
养分
各不相同
失灵
解放军
邮轮
题材
138
pe
害虫
机械加工
装订
赞助商
78@@
三明治
佰
剔除
叫声
听从
民营
南极
名誉
惟@@
生产厂家
祸@@
ete
举止
发动机舱
废液
十二月
姑@@
415
一共
海岸线
美景
艳
大写字母
福德
竟@@
记录表
my@@
棘手
1000@@
乘法
光灯
橙@@
用油
之人
定位@@
梵@@
嫁给
几十@@
播出
航海
MF
专利法
四次
承包@@
税项
Status
万亿美元
狩猎
迭@@
VE
动脉@@
疫情
1975
夜里
德国@@
技术改造
无知
申报表
盘管
相干
聚糖
PPP
ond
妹
宇@@
Lab@@
功能表
欢
苛刻
els
null
嫩@@
特殊性
首领
输出模块
音符
余量
几位
实用工具
带回
监管局
重整
ank@@
纽约州
ENT
名片
展位
174
东南@@
晶格
1900
SAT
多行
灰度
叹@@
拌合
改写
目睹
结账
UNC
htm
决不
国际货币基金组织
沼泽
ster
潘
称量
非常简单
arch@@
就业@@
时髦
ger
数据挖掘
闷@@
专利申请
中途
卫生部
场上
夸张
如上所述
微妙
谜
light
回头
壳@@
早于
蒙特@@
STD
分手
妄@@
巴尔@@
表面积
霸
com@@
先行
探险
脉冲@@
镜片
推向
椒
汽車
队友
7.7
ht@@
传染
方块
比喻
眉
长途@@
颂
Rel@@
ook
不饱和
宽容
潜
管理信息系统
SCC
封堵
工艺技术
总账
激进
热泵
现货
台面
爱心
多台
夺
拓@@
转而
HF
WH@@
ina
水溶性
测点
上以
结核病
五大
究
难忘
FOR@@
SOP
非法@@
Alt
传播@@
渍
从根本上
北韩
螺
超出范围
ject@@
假名
利亚@@
多种@@
数千@@
方案设计
δ
乃是
卷上
富人
腐
主体@@
定值
讲师
料器
清漆
OC
卷入
挥发
断言
肤色
腿@@
增减
欣
该区
鏈
亚历山大
爵
侵袭
副产品
一氧化碳
圆筒
螺旋桨
Gl@@
单点
时分
服務
牙科
福利@@
布尔@@
挫
′
亲切
高度重视
11.2
Cache
出入口
牧场
网络服务
获得最佳
All
工业园区
琳@@
身子
高浓度
RV@@
出名
绿地
偿债
加工厂
妇人
孢
琼@@
薯
飞往
高强
ding
举例来说
前缘
始终保持
抽烟
服务部
访问@@
305
CAT@@
伊斯兰教
操作符
示意
第一季度
诉讼@@
SG@@
哥伦比亚@@
步入
胶合板
颁@@
win@@
几家
奔驰
气垫
萨拉
问问
交付给
扰乱
木工
饰件
176
★
优先@@
总干事
法国@@
渝
起源于
销钉
VI@@
ane
修道院
化验
盏
绝缘层
CCD
剪力
小伙子
惰
按计划
提升机
辨认
锋@@
事业单位
绵羊
采油
利润分配
平方英寸
未成年人
大奖
登记簿
通配符
分之一
募@@
DOS
了不起
指导书
犹太
自然环境
赠送
ri
公证
堰
画廊
石油气
确
1023
图解
温度@@
重症
凯特
奥斯卡
纵梁
鸡肉
Unicode
坝址
纺织@@
蝶阀
emb@@
哈里
培训师
降临
闪亮
Module
世界级
商标@@
愤@@
焊丝
筏
扶梯
黏土
her
入选
著作权
作风
减低
在位
大衣
淋浴
鍒
Go@@
毅
花卉
逊@@
VIP
休眠
打滑
盗窃
FC@@
掩码
网卡
今年@@
囊肿
时起
音调
黛@@
＂
Cat@@
DAE
客户@@
宪报
国际奥委会
宅
各种类型
回合
水压试验
關闭
从动
晋升
月末
该表
出版@@
地势
指导@@
行中
配电@@
咪
此页
AIX
专业技能
两块
依法追究
净收入
固体废物
投保人
笔刷
丝绸之路
婴
工程进度
校区
热器
而生
跑车
开幕
技术开发
搁@@
林肯
水肿
简报
John@@
挫折
评选
限速
够@@
沧@@
浓郁
经验教训
英文@@
递减
不妨
选配
True
ds@@
中介机构
挡土墙
永
渲染器
计划书
NASA
挖方
清洗器
面孔
判处
字形
年版
宪章
菇
遭@@
风情
Dat@@
应先
无形
符@@
纸箱
元器件
助剂
双边@@
异性
策略@@
137
奔跑
奶牛
耐腐蚀
陪伴
10.3
只用
合闸
氯化物
猛烈
0.02
凸显
和表
引渡
旋律
未见
CCS
分离@@
勉强
滑板
设计院
umb@@
一看
技术指标
栖@@
阁下
驾驶@@
不通
即期
贺@@
MF@@
UTC
屏幕显示
开花
淋巴结
㎡
中场
在我看来
动量
系统集成
锤@@
Android
余下
受到限制
温馨
两套
单调
授课
晚些时候
生物质
蚀刻
Discovery
一瓶
三元
勘
取水
吊环
每层
HY@@
接头处
申请者
病害
af@@
四肢
等同
路易斯
长石
76@@
交叉点
全民
迷宫
低收入
功能测试
悔
斯州
残留物
亲戚
多媒体@@
嫌@@
拉开
敲击
育种
试验装置
Tri@@
宗教@@
帐单
柠檬
丹尼尔
出院
屁股
抵扣
拟订
管式
菲尔
sel@@
位点
社会化
垫板
枕头
聚类
凉爽
办事
基部
备品备件
恶魔
自旋
乡镇
孵化
浓缩@@
语言学
NetApp
多为
折断
新城
正弦
眼部
第十五条
临界值
分析模型
常识
树种
粉色
小孔
绑架
转向架
5.9
app@@
ESC
340
Source
到货
排污@@
欧美
流产
面貌
CAL
km2
乙基
其他费用
实施细则
循环泵
援引
滞留
管理水平
纬@@
釉@@
侧壁
匀@@
招待
眠
非对称
面向对象
馀
亏@@
刺绣
磁化
编排
选择开关
1977
CVS
一连串
喜好
钠@@
顺着
FrontPage
百万美元
ASE
Fil@@
台湾@@
吴
指着
流动资金
十进制
地脚
捕捞
产业园
反对派
哨
容错
装机容量
钡
KE@@
低端
千兆
渗入
这样一来
锈@@
1960
滴定
田间
采取任何
风能
MSB@@
TI
醋@@
彩色@@
试管
Text@@
些@@
周围环境
最强
间断
ECT
前项
濒@@
现实意义
蔡@@
ASM
DIS@@
hlink
买到
基材
服役
样机
蛋白@@
质控
隔离器
事故@@
怎
摄取
钢带
动摇
宽敞
温器
装箱
Oper@@
人有
水平@@
沸@@
au@@
主营业务
十六
十六进制
合法@@
就诊
尾门
担当
解码器
1971
一旁
两面
多态性
斯塔
刚体
透析
领地
DFI
sub@@
ux
原生
培
布什总统
禅@@
间隔时间
当月
國
复活
杉@@
洒水
示波器
致死
该条
语境
年里
科比
不许
位居
复制@@
防腐剂
动手
管道工程
节水
颗粒物
IMF
mi@@
保护性
没事
联轴节
RAC
字符集
归因于
合营企业
社区@@
立体@@
下水
乘车
交出
回升
留下来
简单@@
UCS
栗
jian
从头@@
小狗
烘烤
级联
蝶@@
裕@@
助力器
嫌疑人
弟兄
性价比
测试报告
激起
硕@@
以人为本
分期付款
缠
腹腔镜
RSS
ig
小企业
材料@@
条形图
若干@@
名录
ISA
中点
并处
框图
濒危
终端用户
韧带
风道
冠心病
即刻
周到
搁
聘@@
锆
黎巴嫩
利于
接触@@
耽@@
飞行@@
应用领域
扑
相间
met@@
坍塌
慕@@
现阶段
一律
中转
孵@@
忠诚度
框架结构
防范措施
召唤
有轨电车
″
丙烯
宴
网络设备
脱开
馈电
NE
ody
创下
午饭
底线
武力
脚趾
ire@@
可折叠
普京
标尺
隔音
雷诺
ATC
光辉
控制站
资料@@
兄
喷气
悬崖
收购@@
橡胶套
签入
箭头键
运动型
阴离子
大气层
指示@@
钩@@
已过期
敏感@@
栽@@
996
Windows@@
充满@@
岸边
Mod@@
主管人员
手腕
每张
砂砾
罪恶
耐力
鸟儿
黑龙江省
link@@
填埋
耀@@
负压
Map
Ass@@
time
供电系统
医药@@
单位@@
遮蔽
低碳钢
加油站
娇@@
数次
着力
蚁
豫@@
项链
Store
一般而言
以求
体制改革
回油
更进一步
追溯到
酸酯
ta
动能
审讯
波音
Ke@@
RCS
车祸
预防犯罪
巴拉克
打扫
母乳
适中
但应
咖啡因
扳@@
撑杆
供水系统
保持良好
台式
太过
有色金属
普遍存在
服务态度
杜绝
格林@@
球蛋白
辩
声响
学术界
柴
生长@@
跌幅
邮局
阿森纳
375
iPad
匆匆
宣誓
输送到
陈列
侦听
叮@@
史蒂夫
烟道
经合组织
AWS
多多
收货人
新世纪
病症
BE
乳糖
在此之前
多路
残渣
短时
离去
第十六条
资源量
迫切
防空
G2
不全
保持稳定
异常情况
托运
漂白
畏
红线
喘@@
快点
达尔
TW@@
灾难性
矿化
肯尼迪
驻車
List@@
教皇
矿工
纳粹
ha
开票
维斯
详细情况
Sync
河段
课堂教学
動機
杀人
肖
pm
℉
中亚
产品组合
可操作性
吉他
每件
华盛顿@@
确认书
data
atch
OE
娜@@
動力
容差
隆起
再来
发泡
中所列
厨@@
提款
水手
油水
电子邮箱
稍稍
赚取
HPLC
her@@
家电
Global
节段
蚊@@
ACL
勺
外底
提供@@
虚弱
闭式
几项
新近
有形
循环水
逝
危
撬
晃动
肩部
ens
ext
近乎
Mag@@
料机
罗马尼亚
贵金属
辛苦
PET
uan
坚果
太好了
结肠
通用汽车
需方
TA@@
td
大都
支管
纪念@@
纲领
际@@
借助于
控系统
改编
特尔
竞标
落入
KN
一整套
中西部
电击
箱梁
组合式
陀螺
PHP
外籍
没想到
美女
长短
承兑
申
肋骨
花序
高架
瘫痪
OD
动物@@
216
79@@
Connect
交流电源
尿道
杀手
瞩目
编辑@@
6.9
character
凌晨
掌声
推广应用
泊@@
悔@@
支流
测量仪
厌倦
厢@@
日渐
极限值
一切@@
互
儿女
大雨
感性
振兴
教学方法
每季度
观察员
Class@@
link
参赛
畅销
舱壁
触电
迁徙
鲜艳
坦桑尼亚
岁@@
星座
贡献@@
HI
亟@@
好坏
尤指
断点
监管部门
放开
皂
规范性
不定期
例中
禽流感
经销
营养不良
akamai
双语
响起
彻底@@
捆@@
涂刷
调节@@
Lab
掘@@
杆式
轴瓦
凹凸
安全装置
面漆
150@@
B16
MTA
午夜
召
二月
凌
包中
地平线
系统分析
背包
釉
ise
λ
快要
男式
航路
船东
刊物
占空比
客服
灼@@
狐狸
直通
茫
警官
辆车
这样的话
遥测
鳍
十字@@
吸水
婴幼儿
种植@@
非标准
风电场
ank
十年代
国际法
教科文组织
暖通
机载
浪潮
防腐蚀
LL
Mode
巫@@
暂行@@
硝酸盐
不稳定性
卓
征用
牛排
符合国家
重返
T4
ov
剧场
大战
慢速
疯@@
聘任
F3
切断阀
发包方
拍卖@@
Delete
ss
中均
氧基
滚翻
由本
葫芦
张开
联机帮助
鑫
BF
卡尔@@
叙@@
RV
医疗卫生
参数@@
税收@@
驴
龟@@
数据通信
炸
第十七条
逐年
ich@@
投票@@
CAP
乙烯基
支持系统
测定法
鎖
凸出
博士学位
拐角
磁力
肚@@
那次
物价
草莓
袍
Backup
ys
二个
亚太@@
对称性
本田
湿气
源地
警报器
鉴
隔绝
IPT
als
四十
杆件
冷战
旋风
栅@@
Shell
张家@@
沐浴
破碎机
VS
li
ron
扇区
技艺
杏@@
剩余@@
装配@@
长得
高能
冯@@
提高效率
BU
put
ret@@
弹性模量
竞技
两者之间
尖叫
集聚
14.
二醇
亡@@
投机
準
色散
And@@
NDMP
config
上皮
入账
地面@@
稀疏
129
ase@@
列报
塑料袋
残忍
生锈
男生
舱盖
苍白
调和
Post@@
园林@@
Char@@
GHz
ish
笋
裹
证券交易所
冰岛
恶性肿瘤
磷脂
UML
ery
公共设施
剃@@
巡逻
递送
Advisor
EX
ature
优惠政策
佐
到场
S14
不禁
主导地位
奔腾
数十年
雷德
23.@@
爷爷
罢了
AAA
CDMA
吸收光谱
Limited
一下子
质谱
Cu
体质
增设
委内瑞拉
掌管
曰
CDATA
保险业
安全设备
电视剧
Config@@
der@@
ere
target
工业生产
片状
ADS
At@@
ary@@
密切合作
有罪
142
QR
傻
摆在
消声器
混溶
电池组
科室
窗外
pa
一例
对角线
新一轮
洗涤器
窦
不一
彩虹
盖住
穆
赶紧
又称
实际@@
裁员
轮式
优越性
嫁@@
尘土
电讯
花瓣
ne
sq@@
告别
拽
窦@@
蝇
Micro@@
User@@
天气@@
掺
认出
介
台北
塌@@
机壳
注塑
电影院
米勒
莎士比亚
重新分配
4.2.1
截然不同
扶
沪
生日@@
空间站
活性@@
采样@@
Display
PCS
印第安人
厘定
国土
巡视
行之有效
不小
分会
培训@@
计量单位
Dep@@
Nort@@
第十八条
卫星@@
各有
呃
存有
学报
税后
采取有效
阴谋
领带
Tiptronic
东方@@
分明
多段
湿法
溃@@
目标@@
碗@@
侧重于
执行者
贰
配色
长沙
文件大小
爪@@
男朋友
系统资源
获批
表达@@
负值

器皿
填埋场
大方
斩@@
颜
161
admin
接触不良
无穷@@
液压@@
瓦尔
订单号
威尔@@
楔形
演唱
电商
退税
AQ@@
中底
制导
制造@@
殖@@
立方
OL@@
制卡
采取相应
充满活力
反之亦然
嫉妒
棘
REF
ader
au
中来
储油
叁
合力
报收
抬高
表现@@
骨盆
电磁场
501
个子
交换@@
仍会
场内
采集器
风范
title
抬
甜蜜
调压
迫
ote@@
反倾销
潮汐
瘤@@
人力资本
天主教
甩
窃
大功率
我说
最佳@@
NOx
拉索
灌装
C2@@
伞@@
原始@@
常驻
服务器端
海藻
高新区
硫化氢
自营
weight
发型
栈
熔断
超前
颇@@
2025
专线
价格表
纸浆
贫血
电液
橡皮
硝基
试块
SFP
万能
下侧
孔板
晴@@
独
空洞
豪华@@
下端
所见
案子
涂布
纲要
补偿器
重要@@
Lo@@
同级
堆焊
年产
泳池
的值
苏珊
预扣
DSC
Line
图谱
沃尔玛
赋
长官
SupportAssist
嗡@@
岳@@
所学
节假日
魔术
一致意见
亨
前列
推土机
第二十二条
篡改
路透
PDM
eB@@
人生@@
优缺点
筛分
HA@@
减振
抽查
第十九条
〜
泼@@
煎
祖父
赐给
Rev@@
动力系统
折现
远端
width
堡@@
找个
物业管理
接枝
肋@@
轨枕
阿尔斯通
C4
System@@
丙
兜@@
冷凝水
含水层
小写字母
.xml
ule
低级
弹头
方程组
洲@@
价位
总长
房屋@@
篮球@@
315
付清
传给
吉利
滩@@
辐@@
门徒
鹅

保险合同
岩溶
本性
确诊
中小
保湿
患上
本级
油品
虚线
青年@@
dia
赐@@
连衣裙
﹚
Pack@@
安市
无用
算器
σ
冷轧
准入
游艇
磁体
苦难
配重
LIN
杂草
消防系统
瞬@@
马德里
鹏
Stre@@
地震@@
姐
拼
无水
950
S3
情节严重
电子邮件发送
盲目
紧器
下拉@@
如实
宰@@
尾矿
废墟
提示@@
热电
转变成
退役
12.1
8.7
NBA
RR
出力
斐@@
枪支
环境署
食管
上校
小额
示威
责任@@
僧@@
怡
无情
生理@@
睁@@
低价
点头
鍙
400@@
HV
尺@@
恕
武术
电磁兼容
153
GI
孔口
推荐@@
相较
不曾
绿色@@
表示@@
New@@
亚伯拉罕
可比
现时
系列@@
外加剂
女友
工具@@
抗剪
拖放
中性点
灯丝
篇@@
输送带
出租方
前体
客户群
尤为重要
这话
ya
姜
Ni@@
其内
室内@@
应经
沃尔沃
焦炭
葬礼
软件设计
遍及
可取
怨
点上
IPv4
体育馆
廓
拿走
朋@@
测温
碳酸
轮船
4.2.2
BCM
告诫
片刻
电离@@
背上
转回
143
DD@@
ood
专栏
149
ano
ora@@
厨
持久性
收听
歌剧
注油
钝化
复杂度
薪@@
过流
enc@@
举报
人性化
出路
垒
未必
未有
造林
Pal@@
下巴
乘用车
可乐
图上
汇兑
翘@@
ProductName
命题
增加@@
报价单
措
泪水
解剖学
贡@@
髓@@
呈请
商讨
曼哈顿
洛斯
空中@@
BT
冰冻
天津市
水务
煤粉
选档
關@@
Buil@@
CSA
HL
sy@@
霉菌
83@@
敏锐
登录名
Builder
Opt@@
信号线
克莱
延缓
调谐器
餐桌
EE
GF
二世
详细分析
Logic
世博会
中端
亚当
壁画
排行榜
服务商
朴@@
Create
表头
西屋
超细
Type@@
时域
标准值
肿胀
172
RFID
传动带
卖掉
播放列表
燥
猎人
诵
单次
妻@@
志愿
电子束
过错
造船
高层次
BU@@
off@@
尿液
开枪
播种
涵@@
漏气
甩@@
Sport
其余部分
安全事故
田野
银行贷款
隐性
box
供应@@
动器
哈希
慌@@
施工期
棋
用处
职业道德
行为准则
光学@@
小船
惹
拉斯维加斯
深色
优惠@@
差压
总资产
阵容
一夜
Arch@@
下落
产品销售
孢@@
教学模式
整体式
最坏
测控
转会
妖@@
现成
疑虑
158
162
Class
丛林
前桥
林中
纯净
老年@@
耐药
飙升
Kn@@
乙烷
商品价格
休息室
化解
审定
星级
炼油
历时
调查表
赏
驱动力
Cli@@
击穿
寂寞
资格证书
适应@@
Time@@
一则
光彩
大额
渔民
LG
卡拉@@
WP
代表处
这时候
InControl
中等@@
价值@@
基石
希拉里
请见
进给
PER@@
ris
⇒
逃脱
一辈子
大块
宽阔
肮脏
进取
逐步@@
馈@@
WD
引致
运输工具
高技术
Guide
Wat@@
可收回
兰州
比为
肉体
获悉
预装
下放
出生@@
点处
相遇
肚
防静电
My
sor
一排
侯
信息处理
規@@
两相
临床@@
兰人
基本概念
硬质合金
缆绳
闭塞
Us@@
滥@@
电费
相对论
ADC
let@@
影视
畅
蚊子
贤
轧辊
原创
图画
多播
总能
法定@@
物质@@
生计
脑部
芒
采暖
⑤
凝结水
小册子
未付
本年
滚柱
西欧
计划生育
JavaScript
吉林省
壁纸
茫@@
九年
伤性
改用
Standard
嘴巴
幅值
路程
FI
兑@@
奢侈品
旱
裂变
轮流
釜
乐团
伸长率
曼谷
期货@@
来访
绒毛
高阶
Sur@@
推介
旅行者
构筑
檔案
稳步
cc
nd@@
与会
二次@@
兰特
祖母
索具
赢@@
严格@@
发送@@
地去
调出
Port@@
Tool@@
ull
共享@@
念头
析@@
混合器
爸@@
减慢
失稳
强硬
斯克
生物体
堤@@
马拉@@
真空@@
素质教育
Dev@@
MV
以较
吊耳
工频
开放性
式样
手写
最新版
人际
尸
浴缸
147
三人
史上
同盟
慕
正方形
母语
法国人
非常高兴
准予
半数
图形卡
外螺纹
威力
徐
掘
橙
脱扣
9.0
Title
大体
寄生
建筑业
更糟
回国
楔
车桥
华人
微动
打发
秦
9.7
ORT
ly@@
住院@@
发射机
敢@@
白云@@
Apple
ass
宪@@
小小
露点
MSC@@
三者
下垂
曲折
特制
病理学
皇后
颅
Pop@@
手枪
甘肃
著称
豆腐
雨林
The@@
奢侈
成正比
溜
肝炎
预先@@
Ig@@
String
eck@@
人机@@
压痕
村子
织带
遂
陆续
SAR
三家
另一台
同性
创新性
卑
周边@@
开关站
留学生
Sel@@
塑胶
梅花
级数
装箱单
oper@@
倒闭
可藉
同意书
均匀分布
淫@@
温家宝
网络管理员
英制
该方
黄瓜
Win32
力图
海港
热值
蒂斯
过境
Pi@@
推送
无穷
时数
电邮
车票
铁芯
color
下表中
土著
摄影@@
关键在于
十九
污染源
致敬
说明@@
开发新
数据模型
确定性
辖
共产主义
战后
生物学家
繁多
舆论
重音
钉子
field
一国
发包
胜过
荧光灯
74@@
dat@@
own@@
五金@@
基准面
方在
淫
演进
stat@@
层间
必要条件
细长
GT3
Nam@@
不同之处
全体会议
半部
卡环
周刊
寺庙
歧@@
膏@@
镀铬
马桶
171
2100
共和党人
毁@@
竭@@
统计@@
9.6
Auth@@
Boxster
E2
书本
分子筛
总有
相配
隔热板
PU@@
不在乎
卢森堡
打捆机
携@@
ization
细腻
补强
贝尔@@
鹰@@
rom
〈
分录
喔
实收
磁带机
第二节
营业税
逐个
频段
Sam@@
XT
传票
剥落
商业秘密
大大降低
宏伟
水渠
至此
關
大陆@@
每一项
血红蛋白
陈旧
骨质
SCR
国道
好吃
折叠式
胚
自带
酒店@@
sa@@
离子交换
雇@@
24.@@
Messenger
侠
宴@@
Info
一团
良好@@
齐平
ile
就象
绩效考核
试验室
303
在世界上
arg1
印记
新鲜空气
躲避
Bur@@
Her@@
少许
展厅
数千
秘
紧迫
袜子
三方
俊@@
保护膜
历经
意象
流转
照料
路口
高层建筑
低密度
注射器
甲酯
白炽灯
指导意义
难得
发卡
发展观
收缩@@
职称
自控
郑州
随时随地
DER
御@@
感器
3.2.1
UC
原始数据
孟加拉
驾驶者
威尼斯
已久
悬吊
渔船
确保安全
而出
需用
不合
含油
水污染
绍@@
work@@
本分
罩盖
小朋友
或组
手持式
格鲁吉亚
苯酚
Eng@@
ook@@
ton@@
傳@@
网民
Color
历史数据
地下水位
头衔
挂起
听证会
投资方
腹腔
148
1950
CSV
Mark
USD
仗
律法
无与伦比
粪
频带
ESP
Mart@@
VP
十字架
并会
执法@@
本地@@
约瑟夫
路肩
Dra@@
停泊
公交@@
土方工程
成熟度
水利@@
运到
乐曲
圆顶
废止
拓
软键
实体@@
手下
006
370
五分钟
保险金
注射@@
液晶@@
载人
关门
测试数据
葵
182
农业部
冶@@
星号
海浪
牌号
责备
207
TD@@
多变
工商行政
控告
盟友
线粒体
过氧化物
青蛙
頭
馏@@
254
Form@@
停顿
兆瓦
庙@@
淡化
现实生活
第二季度
诊治
喷雾@@
字节数
岭@@
接待@@
橡皮@@
酬@@
南亚
垮
电动车
發生
租户
躯体
365
供应量
表上
139
Kg
wen
前一天
大风
火山@@
Stat@@
ack@@
ul
保育
切尔
定心
寂
建设@@
涌入
电波
178
Hand@@
人孔
蜜
贵州省
这起
陪@@
177
妆
开拓@@
扣件
膝关节
自在
Support
抗拒
株@@
格雷@@
殿@@
结冰
Start@@
仔细检查
健身房
飞溅
ated
ool
不良影响
人寿保险
喷油
很久
模型试验
630
内控
几秒钟
收紧
吸毒
焦油
返回值
饵
ND@@
前身
单车
折合
不作
南路
地幔
搬到
业务范围
口气
客机
总则
第四个
答辩
花园里
Application@@
冥想
切开
线宽
Jordan
受阻
另一边
所附
洗衣@@
革命@@
声道
打捆
热管
盘中
穴@@
Remote
卫队
条线
楼面
滴定法
疫
试行
预埋件
鹤@@
eld@@
之情
仰
关联性
施工@@
更深
汪@@
全美
吨位
左键
拉丁文
痉挛
跌倒
540
BD
不育
学徒
ACC
乙酰
事例
加以@@
球头
音乐家
ake
一分
南美
喘
悬
贤@@
适配
FIM
ep@@
摩擦系数
磨耗
身着
近海
除草剂
两座
固定点
昧
甸
策@@
绘图仪
分流器
医务人员
摩洛哥
林木
皮瓣
勿
多伦多
孟买
排烟
摇晃
ext@@
卷材
秃@@
行政长官
过氧化氢
不顾
佰@@
侮辱
各个@@
基础知识
总值
招商@@
狱@@
维奇
避雷器
针刺
Platform
泊车
腐烂
装机
输入输出
馈
压器
反驳
盛行
运动学
FG
Gener@@
LU
右岸
研讨
410
H1
VLAN
买下
切割机
可回收
Visio
舒适度
项目组
Acc@@
悉@@
窥@@
凤凰
有效途径
脆@@
LR
Stor@@
内螺纹
厢
孔内
层层
康普
归于
软硬件
Im@@
堑
祝愿
缴款
霉@@
驱逐
产品名称
各处
油耗
筑
被盗
GO
HDPE
处理机
开锁
必要措施
曝@@
雏@@
十八@@
回声
白内障
竭力
管理条例
衔
饮水
饮食@@
ORD
国有资产
外观设计
开幕式
第二十条
长寿
NF@@
庄园
测量点
滑入
肉眼
配线架
family
天文
小鸟
底图
感到@@
歇@@
钞票
use@@
其上
媒@@
左转
幼虫
持续增长
晶状体
猜想
耐高温
追赶
波斯@@
监听
與
Query
T3
mm0
一九九@@
丧生
低碳
左上角
烧烤
趋向
kHz
从文件
韦尔
ey@@
mt
学时
欧洲人
用房
贬@@
防撞
Cisco
web@@
主席@@
殖民@@
湿式
痴@@
功能强大
反之
循环系统
捷克
流中
极佳
胖@@
辙
慧@@
柔
衰落
里奥
ational
乙醚
体育运动
手掌
挡住
格雷
知识分子
通讯录
制动@@
城墙
此图
绅士
长途
喷出
增强型
开关电路
欢呼
起身
开度
语气
loy@@
sec@@
分选
国家队
960
Δ
从主
分批
塔架
汇聚
第三季度
给排水
PRO
ga
中学生
历史性
吊杆
完后
流动@@
电抗器
着眼于
除锈
风景区
一性
半自动
压载
巢@@
槽内
生产性
艰@@
送货
6.1.@@
克劳@@
危险废物
哈佛大学
无声
禾
4.1.1
Analysis
炼厂
陡峭
顺利进行
鹤
DXF
冰雪
发觉
收盘
VB
cm3
分阶段
十二个
审判@@
已向
忙于
有利@@
老式
寄送
无辜
砍伐
量规
15.
count
√
苯乙烯
讯@@
长距离
=@@
CK
后座
拮@@
特征值
自重
规定值
不及@@
功夫
周长
带子
敬畏
时装@@
登记表
磁共振
解说
Effects
Null
排风
辛格
非正常
丑@@
塔尔
子目录
建立健全
CSS
农民工
水生
流器
该死
采购部
Storage@@
受热
氦
纽约时报
罐车
马萨诸塞州
Cod@@
劣势
四川@@
多方
放宽
858
回落
图形文件
境地
拉美
毂
波斯
洗澡
脾
里克
Smart@@
中旬
体操
侵略
小子
缆@@
肇@@
起落架
0001
Resour@@
jo@@
作证
易趣
考试@@
腺癌
逐一
Fi
施肥
杂项
货运@@
kadov
全球@@
发生冲突
基团
安全隐患
履行职责
掩饰
指令@@
损失@@
磅@@
秸秆
转移@@
Cam@@
ess
受到@@
否@@
轉
FL
IDC
works
措辞
玲
中共
中心点
关系@@
半透明
电源@@
茄@@
蚀性
資@@
Search
坐落于
形变
相册
诱人
起泡
辩解
隔套
万名
军团
卡罗
最差
轮机
Service@@
与此@@
兼并
卒
沉浸
奸@@
扇形
民生
测距
Bi@@
Library
就职
并不需要
拌和
授权人
比照
终生
Run@@
伊利诺@@
国务卿
埋设
庆典
脆性
责任制
轴封
Intern@@
with
各项@@
追讨
阿联酋
PAR
SIS
be
区划
尔多
平直
桔@@
简约
选拔
Pan@@
业余
关爱
带帽
換
期货交易
购物@@
迈进
免提
劈@@
层序
气井
酰基
SST
安全策略
异地
浙@@
蓬勃发展
递给
val@@
推定
椎间盘
墓地
店里
推进器
水文地质
网友
World
单选
抽吸
日立
译本
EGR
审计员
甸@@
第二十一条
12.2
希伯@@
最短
用水量
荐
金属表面
SimSun
傻瓜
接线板
斯堡
服务项目
殑
Gen@@
aa
list
口盖
库区
技术水平
碳酸@@
窝@@
International
亚洲@@
代为
增资
棕榈@@
细粒
路透社
运往
交通管理
啥
填方
浸出
练@@
说服力
零售业
25.@@
Custom@@
參@@
波束
缕
冰冷
巴拉
延迟时间
敌军
格子
第二十三条
ins
低电压
卡通
噻@@
拼命
聚苯乙烯
Lotus
ini
乌干达
哄
延展
艺人
FB@@
FPGA
Mill@@
偏振
已用
抄
絮凝
进近
集中式
静力
哈尔滨
小组@@
托管人
显眼
混杂
矿体
肘@@
起动器
CRF
写信
Courier
侨@@
保护环境
停靠
空氣
行李@@
三份
壳聚糖
访问者
NW@@
SCA
no
值班@@
动漫
新人
生理学
羟@@
赶快
野蛮
内嵌
护坡
谱分析
7.2.@@
可卡因
园艺
控制棒
烟尘
病毒@@
两颗
舵@@
阿拉斯加
CON
xxx
克里
林斯
航天@@
葡萄园
325
其时
口处
国情
熟料
舟@@
蹦@@
阀盖
d0e@@
hmk
ji
市价
徽章
换料
筒体
首字母
彩票
总重
雪茄
Sec@@
Trac@@
各组
喷发
排汗
纤维化
一口气
不以
两国@@
催化@@
编目
虹
誉@@
选择对象
隐形
B3
不断扩大
夸大
特异
谐
阅读器
HU@@
Suite
对外开放
我院
溺@@
瑞士@@
位器
导热
救护车
来往
水产
高素质
01@@
ints
space
成绩@@
摄入量
汇流
特纳
瓦特
莱特
拥堵
移开
营销@@
逾@@
重物
乏味
新闻稿
查验
猎物
人以
全息
双胞胎
平米
第一节
这支
钾@@
交易类型
亲吻
俄罗斯联邦
凭藉
星云
遮阳
IK@@
S8
出货
换取
消息@@
燕
RTD
cript@@
互通
係
南瓜
小岛
:@@
ATP
ific@@
伙计
伺服电机
怀特
折射率
捆扎
镁合金
F8
FE@@
SPE
从业
凑@@
制動器
参与方
往常
球墨铸铁
砍
UDP
上皮细胞
太阳系
虐
金融体系
AWG
决算
增强@@
欧洲央行
激增
虚构
Mg@@
仔细阅读
基准点
州政府
棘@@
璇
精度高
偏向
非营利
ror
外交政策
盘车
颚
da@@
速度@@
加工过程
参量
外购
橱柜
浜
珀@@
节流阀
范式
IMS
Si
TRUE
plan
出手
刃@@
卫生保健
商议
招商
甘肃省
State
姆斯
寄给
眼下
诈骗
AASHTO
一个点
丁基
私人@@
索尼
饮品
St
壮大
收单
视听
195
喂食
规划设计
陡@@
交易量
幼苗
护理@@
火山岩
男友
竭
经济区
西路
通则
BK
Leg@@
研讯
芝@@
ZK@@
拆开
腰椎
晋
處理
電机
哈哈
展品
电子版
遮罩
骨干
哲@@
喻
算出
組
脊椎
葱
远景
As
No@@
support@@
剪刀
卡塔尔
好比
拿来
日益@@
续订
美国公司
美好@@
该机
附加值
土库曼斯坦
榆@@
附加@@
Software
Works
berg
挡圈
无源
樱桃
相加
Dom@@
垂直@@
扬程
油层
绵
菜肴
铣
82@@
Item@@
多层次
绣@@
趣味
违约责任
傍晚
周岁
时报
測
牧
VGA
ide@@
封盖
床垫
直达
识别码
轴心
还好
Cent@@
一世
干燥机
水里
疲@@
骆驼
PK
书法
唐代
较弱
鳄鱼
片式
牛米
罐头
网上@@
量值
do@@
睾丸
wit@@
全权
在实践中
夏日
新股
本项
瑞克
腊@@
靠着
Sing@@
名牌
平均数
恰恰
楼上
环比
20000
CY@@
企鹅
可不是
含硫
小时候
戴上
根系
水汽
第一家
防锈@@
唯一性
枫@@
脚踝
被誉为
马拉松
Secure
ose
乳腺
虫病
这为
双臂
另一人
银行卡
ans@@
亿吨
日趋
牡@@
辱
克利
孝@@
有色
港区
管沟
红军
给水管
耕作
背叛
不服
抄送
教科书
桥台
源泉
羧@@
金斯
209
DU@@
余地
傲
友善
果树
精油
线或
货船
Analyzer
SPA
旬
玻璃钢
诉求
EHS
印发
没关系
察觉
巡检
斯塔@@
讲习班
迈出
隐喻
94@@
停止使用
宗教信仰
端头
谋求
Systems
和阀
支腿
有所增加
经验@@
般@@
傲慢
冷冻@@
圆环
梗
比例尺
第条
萧@@
这门
青春期
分法
班次
美德
航天器
规格书
集气站
顶峰
颠覆
全家
第二款
胶结
装车
该种
霜@@
MO
Nike@@
Shar@@
cre@@
八条
参加者
国度
孙子
拥
驳
客户经理
引人@@
板中
纪念碑
解法
Willi@@
共生
电阻值
脾@@
迈阿密
金融业
驾照
不管怎样
來
安德鲁
排放物
海马
直销
聚酯纤维
肾上腺
自律
迪士尼
BH
kA
彝@@
技术部
模样
粗略
附着力
专家@@
使者
所受
标识号
树状
版次
胎盘
阿布@@
GH@@
哪些@@
弱势
抚养
注解
淋巴
突起
隔离@@
高级别
Corp
一对一
时速
萤@@
贵宾
这颗
透平
NB
uo
xs@@
三峡@@
低点
纪录片
航程
XXXX
公共部门
在乎
垂体
夕@@
快速访问
素养
缝线
藉@@
转轴
DK@@
压力@@
叔
实践证明
少数@@
气溶胶
胶水
SSC
bur@@
外汇储备
密封环
收藏@@
放款

DIMM
一般@@
会议纪要
公安
帆布
红十字会
一回
三峡
原讼
土石方
弗朗@@
证券法
Ni
sr@@
尚无
机械手
次日
毯
迦
震荡
刷子
压低
标準
此地
解脱
身旁
020
X4
主场
喉咙
怠
情况@@
汽水
脸部
154
冲击波
标的物
测试计划
除本
cn@@
实验性
干嘛
提炼
滤液
琐@@
琪
美元@@
节能@@
GPRS
LLC
esp@@
kn@@
双线
小球
彩信
贯通
趾
三个代表
片区
用过
纸盒
编码@@
酸奶
高等学校
出身
尾管
等待时间
下肢
产业结构
锂离子
167
user@@
上端
中小学
忌@@
樱@@
清晰度
计算机网络
证监会
软件系统
陨@@
go@@
一个多
内应
再造
帖子
收音
赤道
长春
GST
指挥部
正当@@
通行证
驼@@
Table
悲哀
透射
10.0
gre@@
nCloth
保全
分型
学派
最远
梯级
爬行
病原体
的事
Mult@@
ws@@
六十@@
崔@@
油气田
荒谬
酰@@
四级
团结@@
官方@@
寿
拉登
趟
频率@@
1.3.@@
初中
惰性
泥石流
莓
行政处罚
迫切需要
预热器
way
实用@@
常务@@
慰
旅行@@
渐近
砾岩
采购商
3300
BBC
ight@@
lex@@
德勒
摄像
时滞
校对
行数
铁素体
ILM
华氏度
啤酒@@
小计
微博
晚宴
留住
病菌
便携
约束条件
胃癌
获得成功
边界@@
db
上门
单方面
秒@@
考生
莱德
阿里巴巴
Michael
三十年
并存
微孔
成岩
支路
数码@@
皮带@@
舷@@
血性
體
302
仲裁庭
多位
据称
浓厚
消防安全
石灰岩
隔墙
2200
Help
哨@@
坚
徘徊
操纵@@
蒲@@
输送@@
迹@@
邓小平
写明
批量生产
數@@
规矩
质量检查
Size
文字@@
核磁共振
红酒
胎压
酸化
首尔
Bank
Rich@@
丁二烯
平凡
应得
1969
KG
Off@@
tr
加沙
府@@
烤箱
膜炎
重重
陀
双腿
受害人
好玩
工种
电信号
节理
丘陵
人民检察院
俊
盖上
要花
东风
浸润
色情
评论家
RAS
VE@@
十五日
应适当
成套设备
服务提供者
本市
肖像
DK
之初
教员
离心机
被判
讼费
降水量
166
利息收入
加劲
完工后
常温
自然科学
依法@@
刨
如是
技术培训
用心
矿渣
Information
ading
古城
粉末@@
运输系统
中山
区块链
托运人
资源配置
顶上
Develop@@
na
买受人
止动
兼具
匆忙
查理
碳酸盐
雌激素
EIA
内科
冕
合理要求
垫块
墨西哥@@
按期
看好
系统安全
钮
中英文
小巧
暑
跟上
人次
尼奥
左岸
法是
白酒
GMP
专家系统
出资@@
描@@
散文
每批
深刻@@
百货@@
瞎@@
航站楼
走动
出资额
救灾
无尽
油机
洗净
电压表
辽宁
香草
主动脉
孕育
无毒
28.@@
亚麻
利害关系
济南
灌注桩
镍@@
13.1
7.9
冷器
出发点
合剂
合理化
回归@@
床单
猴@@
缔结
超重
funct@@
height
ist
公示
贴纸
辨
通性
饶@@
pre@@
下个月
电流@@
进军
401
cho@@
−
思念
生命力
美术馆
通风机
驱使
麻管局
交响@@
减速机
制定者
地物
歌声
溶于
输电线
cor@@
get
撒谎
无色
疲惫
贿
SIP
克罗@@
创新型
基础教育
强健
舰船
RGB
Wil@@
ste@@
括@@
间接@@
ve
分局
急速
文件共享
第二年
돨
Civil
TOP
ark@@
塘@@
弊
正试图
汲取
生物降解
迷惑
MAPI
不可分割
克利@@
噪@@
归咎于
抨击
水流量
热心
花旗@@
亮相
冲浪
归入
.b@@
仲@@
再保险
合同法
外科手术
应税
报告期
收养
第一层
视点
390
一致同意
主编
危险源
如因
岩心
法老
窖
魂@@
IFT
分析家
力争
十分之一
慰@@
空调@@
职工@@
嬉@@
带钢
狱
轰炸
遥
锤子
Cle@@
万年
原状
最高点
老龄化
质素
集输
丙烯酸酯
阴极保护
黑夜
Hy@@
嗒
塌陷
接插件
沦@@
电势
腋@@
逼真
VT
之星
极力
石料
9001
PowerEdge
人中
费力
路灯
191
275
东路
书面@@
力气
常态
晶体@@
汽油机
申购
胡萝卜
脚部
近年
125@@
上述情况
山水
抗氧化剂
撤出
棒材
概念设计
类型信息
丑
光临
国际性
总长度
时能
贝拉
CTRL
奥迪
洗手间
粤@@
颤抖
dc@@
债券市场
履行义务
布里
抑或
牢度
绝不会
踏上
Cr
内幕
办人
大堂
撇@@
洗衣
缓缓
酸洗
主干
估计值
励
脂蛋白
银行存款
高压泵
Next
不相@@
消火栓
甲基@@
离不开
蠢@@
Wal@@
不容忽视
影院
橡木
绿灯
规限
财产@@
转交
不均
加倍
历史学家
Core
全天
外衣
宅@@
断裂@@
无故障
流逝
缺省值
会因
大气压力
斯科
互助
各异
错位
Tools
农夫
复制品
宫颈
希腊@@
心动@@
热解
犯人
过热器
两件
之心
之物
二氧化硅
公共关系
历史悠久
徽
整顿
起因
麦当劳
.org
ike
临时性
信噪比
墙板
差点
究@@
逗留
函件
古迹
圆满@@
拐
结节
肃@@
交配
初始值
匹
打出
点心
碟机
罐体
金子
169
cent@@
一切都是
伏特
印花税
含水率
律师@@
成功@@
推进剂
数据格式
管束
绝缘体
赵
ender
凯瑟琳
反击
小数点
缩进
連接
中间体
卡因
好人
掀起
斯科@@
熔炼
矩@@
道琼斯
高贵
OT@@
伸缩缝
欧文
百分之十
管理体制
约瑟
纯洁
网络接口
荫
调试器
鲍勃
290
MBA
PCC
一大堆
个世纪
凝聚力
工作电压
想念
13.2
Ins@@
低水平
嗜
妆@@
开除
椭@@
測@@
警示灯
173
抛售
放线
AE@@
its
一词
先进@@
反正
大为
独占
跟踪@@
ASS
html@@
la
wor@@
扫描电镜
瓷器
航天飞机
试运
ka
mRNA
内镜
凄@@
庸
美化
裕
驱動@@
164
一步@@
出现异常
卡上
当场
怨@@
有误
法郎
记名
说谎
酯@@
之余
储蓄@@
抗议者
沾
鸽子
BB
ech
南美洲
可笑
娘@@
残骸
Active@@
仅能
仇恨
日程安排
注册处
缝制
警察局
Smarts
后裔
地盘
萨尔
该市
铣刀
饱满
ct
ree
动向
华州
紧张@@
超导
镇静
Ber@@
dev@@
pol@@
仅次于
单证
向着
Batch
ISO9001
Targ@@
ik
内分泌
呼吸@@
模件
水准@@
甲状@@
铭
wh@@
小腿
某事
硅谷
地步
選擇
left
写成
愤
战略目标
晚于
河边
环流
电车
立面图
金相
齿轮泵
同上
怎么回事
珠海
生殖@@
甲酸
罪名
行政许可
转動
这才

中段
堆场
处理工艺
失速
宽恕
相色谱
饶
720
Vol@@
去年同期
发烧
国防@@
深深地
红灯
纬
阴茎
颗粒@@
EMP
Rot@@
倒退
区位
峡
并不一定
开槽
暇
每根
熔点
纳斯
骚乱
Wi
unit
会儿
活检
MK@@
卷曲
唔
形体
统计局
重新装配
金融中心
11.3
73@@
一阵@@
介导
哥本哈根
构造@@
看守
闯@@
Clear@@
汉姆
爱上
生长发育
合物
真空管
钛合金
4.1.2
动感
塞浦路斯
外围设备
小写
就行了
归功于
涡
目的@@
落到
资源分配
金银
1967
国民党
腻
七天
侏罗@@
保有
关断
勤奋
吨@@
投降
排在
揭开
更多地
秉@@
能以
软组织
部门经理
212
保证书
厕
报刊
挡泥板
第九
股款
梭
法人@@
点子
畜
纠缠
表现形式
僵@@
文件柜
殷@@
液力
牙医
社会效益
聚四氟乙烯
英语教学
16.
dw@@
入睡
外资企业
暖和
氧量
纪念品
统计表
阻滞
面谈
颠倒
Fe
SERV@@
SN
嘎@@
四轮驱动
太平
打下
阿曼
韧@@
高尚
从那@@
利息@@
西侧
铁道
鞋底
￥
BT@@
Direct
INE
右转
总重量
空白@@
下料
晃@@
股骨
萨尔@@
颤动
10.4
POS
psig
奥林匹克@@
水蒸气
空腔
one@@
协商一致
振捣
搭档
操作步骤
料到
窄@@
胶体
茜
常开
成功率
火鸡
电力供应
铜合金
OF@@
fontcolour
压抑
垦
译员
投资额
无障碍
简明
高雅
LL@@
SMB
交会
加满
测线
深部
芳烃
NTFS
cur@@
上表
单人
启亮
平铺
廉
椒@@
比亚
积雪
纽
3.1.1
GD@@
Virtual
五次
哑
橇
毛皮
田地
荷尔蒙
褶
邪@@
防御@@
193
Ben@@
Det@@
px
卤
正压
解冻
轴套
镇痛
克拉克
再生@@
届@@
流利
清代
督@@
脚板
钮@@
项中
2400
公爵
励@@
帷幕
意见书
砂石
算例
钝
锁住
变化率
是谁
水洗
浇铸
湿性
熄火
第二十五条
Page
align
不开
倚@@
双侧
外伤
外接
疾
专用章
之家
变化趋势
年会
意向书
虔诚
157
CLR
f1
傳
气候@@
第二十四条
纽带
限量
ITS
TOPIx
姿@@
质询
AK@@
听听
吸尘器
簇@@
结点
责任心
1961
Online
PAR@@
Test
不用说
向本
大夫
植入@@
电离
345
page
产权@@
净水
就读
括
生物量
经济体制
脚注
XY
二氧化硫
切成
姓氏
社交@@
葡聚糖
跳转
阶段性
鞍座
TC@@
斯科特
本币
游说
火炉
署@@
膨@@
道具
PMC
Report@@
双倍
谓词
Scale
下半@@
倍体
新药
月光
稳定剂
能级
藻类
该段
跨文化
伊斯
柠檬@@
画出
第一部
网络管理
86.@@
Tab
企业法人
卡斯
滨海
现场@@
生机
罕
过得
骑马
勇士
欠款
风采
三聚氰胺
会展
出口处
相距
LPG
MG
工程造价
德国人
户外@@
正当理由
步长
泛滥
物权
盗
砂土
肩上
驳@@
LY@@
历来
第二十六条
青年人
专长
个人所得税
八十
强奸
水系
烧毁
葛
贴近
世代
划伤
前向
卡梅@@
沙龙
立足
粒状
誓@@
INT
WPC
体面
信度
时用
晨
模数
走开
防卫
中国人民@@
堪称
斥@@
邮
驱动@@
鳞
mon@@
冥@@
导数
拟用
爽@@
社群
缩回
付诸@@
指在
捡拾
方法论
碳化@@
致病
费城
野兽
饿@@
使用方便
层楼
苯二@@
葱@@
All@@
仇
创性
原住民
标号
超限
Auto
oid
trade
中频
人类@@
呼唤
扇门
提要
王室
科医生
端到
继电保护
腓@@
金黄色
隔壁
非常感谢
如是说
怜悯
毋@@
筹划
车外
Rep@@
下移
亲近
巴格达
脆弱性
贩@@
贵司
钻具
铰@@
九十
变流器
洗手
洗涤剂
自体
输入@@
CMP
Communications
Fly@@
ency
传动比
吞
急诊
扣缴
无法控制
日益增长
渠@@
翻译成
艰巨
vers@@
崎@@
理学
裝置
银河
BN
IPC
上周五
分子结构
商品房
备胎
新闻报道
珥
男女@@
锥齿轮
SO2
入职
江西省
褶@@
黄素
007
全开
十几@@
督导
窗框
等高线
舱内
食谱
围巾
开着
轻轨
迟于
011
GCC
万辆
住宅@@
母细胞
牵引@@
窜
立项
肝细胞
节约@@
转轮
镶
养生
忧郁
渐
讨论会
责任人员
赢取
不怕
专心
切面
怎样才能
星际
棱
油口
贺
188
port@@
伸手
增产
所涉
正要
状物
第六章
萃
西装
选区
世俗
摩擦@@
模糊控制
線@@
自锁
公司股票
布鲁塞尔
惊
想过
接听
趁@@
零星
低功耗
异步电动
浮子
Lun@@
WH
共鸣
意大利@@
赌
辅料
错误报告
长于
隶属
靴子
Setup
小数
承运
校园@@
概算
病历
谣言
限制器
黎明
Item
ault
spacebefore
临床表现
各界
心肌梗死
悉
歇
消化道
画像
砞
粥样
蚊
铁路运输
随身携带
ura
十字路口
周转@@
实现目标
排除故障
蝙蝠
高标准
215
也门
伤员
共轭
凸耳
埋葬
墨尔本
那家
SRS
Stev@@
复选
沥青路面
迪克
加勒比
反射率
吃掉
目标值
缸@@
Product
ari
捌
胶质
nParticle
作文
反面
夹板
无偿
离心@@
車型
锈
Ko@@
摘录
桅杆
款中
病灶
211
同一时间
太低
州立大学
痕量
锁销
事态
公共场所
合格证书
已故
形图
抗力
晶片
表观
诈@@
邮递
配电网
Port
gro@@
inf@@
供应方
减灾
回弹
天性
扼@@
挂接
教学质量
自治州
一栋
中间件
师生
车手
采石场
uster
保持联系
模具设计
液位计
酿造
钢质
..@@
Product@@
习惯于
井筒
受益@@
崖
手术@@
操作方法
舱室
鎖@@
1700
崇高
年龄@@
悬停
起码
A5
EVA
健康@@
咯@@
已获
排查
牢记
百分之
黏膜
Link@@
Sport@@
可可
理工大学
遣
预知
高音
x2
促进作用
压气机
参考点
宠@@
密切@@
干粉
急救@@
收割机
明显提高
歌词
租车
第一百
計
264
Az@@
个体@@
保税
消防泵
电枢
第页
航向
雪佛@@
Act@@
Buzzsaw
Elect@@
KM
Window@@
ance@@
亚特兰大
作法
傲@@
实惠
楼梯@@
电刷
绝对值
麻痹
Alpha
乘积
半角
埋藏
检讨
洼@@
脐@@
Code
Gen
pi
人体@@
单面
教学改革
柠檬酸
物流@@
白蛋白
附于
Ext@@
寄生虫
无意识
诈
量身
t1
传授
军事行动
录用
插销
违章
钨@@
Number
ata
struct@@
如果说
电炉
看一看
类比
粥
职守
视镜
邀请函
首府
PPE
心思
水化
短片
讯号
达尔文
一扇
促进@@
学年
平整度
整形
最合适
朵@@
iD
服务设施
行业协会
风洞
PX@@
墨西哥湾
工程机械
最低点
水区
笛@@
谨
Ang@@
MIL
小事
布雷
斯图@@
肛@@
蹲
防线
养老保险
以下几点
内皮细胞
打死
笼罩
道教
页眉
飞翔
571.@@
K1
NB@@
加水
厥
大力发展
接入点
该法
1949
sol@@
别忘了
台车
吸附剂
大叫
线材
郎@@
ATS
NR
交纳
菱形
代表@@
当有
派驻
西雅图
计算机程序
雪花
181
Air@@
妥当
小路
当今世界
压接
奥尔@@
年收入
政司
本段
气动@@
气隙
砌@@
租借
钾盐
静下来
610
Hol@@
一百
东欧
剑桥
普森
着装
食物@@
COD
ipp@@
传動
有限元法
¨
上场
交叉@@
无视
颊
ud
停业
发送器
和子
拌@@
捐
新加坡@@
航天局
高差
动人
北美洲
断定
有种
第四季度
邮报
三轴
十一月
向往
机长
血脂
159
La
off
南京@@
对阵
小偷
期中
溶解@@
爸
胶原
被困
2.2.1
Off
iaf
两性
互锁
夹钳
救治
疤
碳纳米管
精湛
耐久
较高
长裤
26.@@
M5
SIM@@
不休
仔细@@
可信度
基准线
浪费时间
针织衫
钯
震撼
韵@@
return
兄@@
及本
托尼
灾区
牛津
相切
紧身
车里
伊朗@@
伍德
微微
象限
Sn@@
form
丙烯酰胺
乳胶
内力
华北
拉特
新陈代谢
消费量
牌子
防护用品
SSHE
line@@
上车
价目表
监察@@
荣誉@@
赞比亚
1939
Event
WR
加勒比海
卸车
不至于
引流
联运
start
大蒜
展现出
差异化
数码相机
村落
津巴布韦
生存率
约旦
触针
亲人
出新
夺取
小吃
扩
抗辩
特工
芙@@
马达加斯加
2.2.2
fs
减税
哈特
ote
tt
牠
199
Flex
压力机
句话
姚明
我爱你
环境监测
软篷
CICS
rob@@
一手
交易员
意见@@
戶
疲倦
离心式
精明
经理部
重伤
IAS
over
压强
打捞
接触点
树干
结清
车程
riv@@
儒家
卫浴
扫描@@
皇室
铁塔
高温@@
440
EPA
君主
囚@@
外商
掉期
旷@@
暑假
杭@@
沙丘
能见度
試
降价
Tim@@
ification
之事
子程序
態
揽胜
电气化
做饭
劫
参考价值
抑制@@
森林@@
求助
行为能力
view
合金@@
小型@@
据悉
枣
滚珠
签收
糟@@
袭@@
颇为
事前
其一
其他@@
国营
情侣
梓潼
注册号
清册
组织学
说起
3.2.2
Equ@@
嘧啶
嘲@@
夹角
支付@@
故乡
暂态
泌@@
第二十七条
长方形
199@@
Med@@
幸存
清点
网络系统
Art@@
下个
半轴
盛大
穗@@
表土
RR@@
加气
基础@@
搭乘
第二层
CCP
Lu@@
养殖@@
堕落
感恩
气态
BCV
NIKE
抒@@
电话线
着迷
自私
酸度
Fir@@
WIN@@
abled
ates
store
会场
修筑
向东
灯座
玩笑
石蜡
联合王国
自尊
虚拟目录
装甲
阵地
3D
中华人民共和国@@
勃勃
厂址
城市交通
外延
审计工作
微不足道
效性
老是
考勤
NEMA
导板
普通人
江南
浮雕
琼
白垩
聚光灯
节制
转发器
铜线
Filename
ral
女士们
已婚
戏剧性
消耗品
港币
蕊
觉醒
送至
鼎
人民代表大会
內@@
工发
本案
油路
鲸鱼
乳制品
APT
Autom@@
世间
人大
出土
塞尔维亚
安全帽
新手
煤炭@@
粘结剂
BE@@
Phot@@
一时期
可更改
名列
悲观
本表
流率
碾@@
移植@@
置入
老朋友
送回
1024
SV
ression
当事方
焊后
版权@@
英文版
除霜
风筝
S10
part@@
币@@
干燥剂
来得
bs
ress
中枢
冯
熨@@
细胞膜
脱颖而出
CIFS
上用
保证体系
加里
古希腊
弄清楚
羡慕
螺丝@@
情人节
Page@@
一角
以东
前盖
海量
艺术作品
RTU
安哥拉
开户@@
戴着
旺盛
普通话
有意识
滑稽
电磁波
腈
较快
0.03
8.9
ARM
JMS
emc@@
搭设
新版
无刷
标语
缺水
Dig@@
Domain
民营企业
背景@@
量计
项目区
Monitor
Save
之力
债项
全体@@
再也@@
快餐
拒绝@@
表面温度
转售
追随
集中化
面条
骗子
EEC
PF@@
体积小
国立
接触式
柱上
私钥
空前
聋
MMC
取而代之
年龄段
烙@@
继而
规管
货舱
赛道
迎合
AEC
Media@@
微风
exe
unt
会员@@
可见光
地用
墩@@
处处
安宁
局部@@
平头
毛衣
焊剂
纪念日
集线器
中仅
各层
电解液
该页
选矿
TI@@
乙酯
动产
实践经验
顾虑
Cap@@
太少
测度
淤积
SPC
低压配电
兔@@
格拉
溢洪道
自助@@
麻醉药品
Kerberos
ha@@
媒体报道
能量@@
阿尔及利亚
革命性
也好
先用
化妆
喷管
塔楼
契据
打分
投掷
持平
控制算法
无锡
桥接
硼@@
196
产妇
储备金
判据
命令提示符
量度
戈尔
才华
清洗剂
稀有
蒸汽@@
读入
Integ@@
LOCK
厌
巴比伦
得来
能源部
郁
面向@@
首脑会议
高时
Calibri
右下角
堡垒
契机
帐簿
忍
无线通信
比利
浅层
超音速
钢厂
齿形
Serv@@
对焊
所有制
沸
Sco@@
为人知
偏远
合格率
地球物理
暑@@
油嘴
经营权
Rainfinity
TiO2
bin
医保
吞噬
深圳@@
热工
镇压
顶住
tim@@
一滴
公牛
公钥
居住@@
屈服@@
年报
排气口
罗德
CRE@@
Sen@@
Show
rator
令人兴奋
偏航
内皮
减至
外长
多种多样
拱顶
测量范围
角处
遍历
四元
客舱
表笔
记帐
这间
186
删除程序
打孔
扶贫
环境保护@@
都是
Master
ning
德里
接替
身影
194
Base
sour@@
下线
倾斜度
公共利益
时值
溪流
而行
ower
后背
放牧
海伦
蒸馏水
sv@@
光荣
国人
多元@@
太快
数据项
第四系
过压
避孕套
重工
齿轮轴
LV
丽莎
合乎
百分率
人格@@
侦测
公务
增加值
师范大学
氩@@
王星
稀少
7.1.@@
不太@@
另一家
就近
漩涡
93@@
ials
会计报表
伪装
喷丸
定期@@
透水
隐式
ox
五分之一
小肠
热闹
硅烷
纸币
China
GPO
Install@@
乔治@@
切入
医嘱
堵住
外交官
多德
平息
应予
政策@@
熬
猿
硬顶
荔@@
DOT
不前
十四@@
疲劳@@
裂谷
论者
透支
CSP
urn@@
争辩
五金件
厄
双工
可口
师傅
干管
式化
摔倒
未获
机电设备
漫
钢梁
陀@@
SF6
倍增
垃圾桶
有助
死后
ALL
Desktop
H2O
Over@@
sc
吸湿
拥有者
文斯
显微@@
水机
特大
磨床
膛
蔗糖
迷失
David
单行
另一半
痘
发行股票
弊端
致辞
分布图
台架
常压
应变@@
换言之
有功
水厂
洞察力
海关@@
湄公河
炫耀
破解
规格@@
颁奖@@
三菱
争执
性爱
没用
缔约
01.@@
1968
Ti
吁请
埋入
时尚@@
甜点
ONE
top
尽量避免
德曼
户口
攸关
測试
背光
观察者
Ak@@
SEM
倡@@
海洛因
清澈
环境质量
第二十八条
管中
粒细胞
粗体
精神分裂症
菌素
酵@@
香肠
AMS
CMS
安东尼
应仅
旷野
著名@@
颤@@
5.1.1
RESS
a.@@
主办@@
分配利润
文体
有益于
青海
AF@@
Home
ULT
下为
俄亥俄州
疑似
CRR
hel@@
圣灵
天花
搞好
更多
检察@@
水冷
油流
Ma
Reference
刻画
宁夏
宠
家务
对非
捍卫
文件传输
无人@@
购物车
公司员工
另一名
小行星
敲打
水工
沼气
热衷于
违规行为
降噪
11.5
乍@@
布莱克
比拟
社会福利
词汇表
调整器
1965
匡
后勤@@
密封性
少见
异形
显出
血管@@
9.8
SCA@@
一朵
劣化
哈尔
巴塞罗那
旅游者
生育@@
Att@@
md
shi
主教练
全名
同步器
密性
当该
总署
打開
放射性物质
朝下
聚物
长袖
.cn
Cro@@
Node
idd@@
咯
机电@@
瘾
系统化
较慢
Performance
load
反渗透
四方
密码@@
摔
结余
羟
耙
零配件
人员伤亡
以上学历
号召
土质
教师@@
游戏@@
UE
侧梁
全线
商业活动
断開
胡锦涛
脂质
试压
重量轻
1958
DPM
屑@@
庇护
怀着
现年
男孩子
进货
Char
发育@@
挑剔
描述性
本协定
溶胶
甫
直线@@
药用
西班牙@@
首届
三维@@
上取
匮乏
绞
营救
诅咒
资产阶级
达斯
防护服
驾驶舱
02.@@
5.2.1
sect@@
vs
一体式
基准日
夷@@
差异性
得上
电灯
页面设置
View@@
ply
东侧
买进
人身@@
保加利亚
假说
插脚
最受
极其重要
水合物
燃机
购买方
4.3.1
date
次生
电图
硝化
非常低
顺应
魔力
Tivoli
仪器仪表
休闲@@
原地
摇滚
改性@@
泳
紧邻
造出
Create@@
WLAN
人用
先驱
揬
Up
原木
喷泉
头来
晶石
栖
汕@@
流媒体
滋润
PSU
座圈
显示方式
相隔
终端服务器
设计变更
调查局
14.1
GS@@
TYPE
上映
先进性
大大@@
弹塑性
213
222
Pent@@
rid
储气罐
闪耀
0.10
ster@@
即时消息
层中
晓得
氢化
汇入
相容
稳压
蜗@@
铝箔
X3
­
游标
滋养
肝硬化
长约
ECC
ada
一再
出生日期
匪@@
热键
證
0.50
堰@@
屏蔽@@
申明
表彰
返修
info
明知
问题解答
520
乞@@
切削@@
嫁
德州
懈@@
放回
欧盟委员会
率领
碳化
联通
诲
转炉
问世
rix
代谢@@
坡面
封建@@
棉布
浮力
签定
继续@@
460
Euro@@
12.7
312
8482
Gro@@
北欧
哲学@@
穿梭
紧急制动
转过
BOT
gif
加宽
大会@@
自由主义
锑
Coll@@
NetWare
之多
思索
是指
有点像
汁@@
集成式
ize
全厂
国内@@
岩石@@
焊道
页脚
css
一职
中国科学院
千万@@
應@@
硬件@@
AX100@@
土星
外科医生
照着
电子显微镜
胱@@
讲究
领事
Main
Tom@@
ich
s2
不足之处
做生意
問題
建筑施工
慎@@
收录
疚
紧接着
读取器
运移
颇具
Capt@@
Factory
NM@@
地形图
浮式
肺结核
踪@@
CPP
NTP
Spe@@
下均
仁慈
导员
繁华
back@@
不吃
不来
冰块
审计@@
张拉
衬底
重于
探险@@
教学法
榜@@
虾@@
议定
OSS
ero
host
厚厚的
岩相
工业园
平缓
日记帐
烹调
BAM
今天下午
可否
圣地亚哥
操作前
海军@@
环境空气
鞋款
HSSE
Tran@@
ala
临时文件
每晚
粉质
轮罩
GY
SSO
ign
夥@@
探寻
更为重要
犀@@
理所当然
社保
第二项
试用期
ViewCube
ug
下会
建有
收款人
民俗
综合体
诀
NH@@
path
吡啶
套头
巨星
拉拔
耀
萌发
魄
Ul@@
不信
具体内容
大通
惊叹
愁@@
泻
流水线
资产负债
僵局
厘@@
岂
抛出
电话会议
蛮
分布式@@
性命
感应@@
提供数据
流道
熔岩
直射
细砂
MEP
NPS
SPI
jav@@
刚果
卡罗@@
居所
护目镜
民事诉讼
江市
直肠
閫
RL
Star
USE@@
下单
亲和@@
刹车@@
屋子里
懒
暴力@@
毯子
筹措
腌@@
BPM
NV
ational@@
ype
一分@@
二十一
借此
寿险
封建
晶硅
杏仁
流血
画笔
120@@
以该
咔@@
嚼
常年
敢于
明代
深层次
邓
惯性@@
捏@@
维他命
酱@@
隶属于
北路
当心
拼装
.htm
Menu
SY
中值
大大减少
废品
愧
水滴
课时
资本金
锁上
防火@@
conn@@
一年@@
国标
管有
缓释
运载@@
tran@@
下压
但会
布兰@@
批予
抽头
擦伤
本赛季
殖民
民主党人
电器@@
缺血性
非常复杂
前列腺癌
往复
挠
棕榈
氣囊
评测
隔振
高额
Identity
expndtw
te@@
两分钟
亚热带
侦探
先是
工党
涌现
糖浆
ARC
ution
zhi
基础油
征集
水坑
浠
脑子
里亚@@
CBM
Requ@@
alt
五条
及第
失敗
如上
斧@@
架飞机
素材
线框
英国政府
仪器设备
多处
手動
智商
档次
狀@@
罕@@
酗酒
人身安全
攀登
日产
籍@@
边缘@@
避免出现
高龄
13.5
PTFE
刺激性
槟@@
球状
类产品
解除合同
钢笔
黄昏
展示@@
矽@@
设防
奎
居住区
巫
气液
罗斯福
美国市场
财务总监
By@@
Info@@
ony
凶手
地质灾害
成本法
木星
示威者
角形
560
CCTV
专用设备
玩游戏
财政部长
電動
620
Sun@@
事由
二甲@@
停产
强国
汉族
趋
镇上
Ga@@
MSD@@
SYSTIMAX
Snap@@
不合@@
几何@@
因该
焚@@
签章
缺乏@@
Yes
墙纸
底特律
慧
捡
斯卡
漠化
MAX@@
OpenManage
lin
堆肥
照看
睫@@
管炎
经营性
落叶
螺帽
跌至
加尔
国际金融公司
214
LSI
Regist@@
押金
换能器
条形
滑道
漠
炭黑
神经细胞
蒙特
语法错误
赌注
集市
430
FONT
Free
水密
浇水
臣@@
远光灯
一站式
专营
侵略@@
出产
反射器
实际操作
弯道
民用@@
癌细胞
避
防控
阳光@@
3.4.@@
中路
夏令@@
犯罪行为
电子系统
碳酸盐岩
磨光
行政区域
轻柔
零位
颅内
高级官员
鸡尾酒
DVI
IA@@
eck
包容性
开放系统
电汇
脉搏
蕴含
雇
一束
我校
配售
酿酒
静脉@@
NF
VII
亚伦
修养
冷漠
安全标志
密码保护
幽灵
放油
新式
服务器时
物性
筒仓
见于
防水层
需求方
Secur@@
Show@@
read@@
努
合肥
日照
监督员
船队
解聘
5.2.2
三重
不介意
光洁度
厌烦
发生意外
空地
笼子
纸盘
绿洲
耀眼
舒适感
计量泵
242
690
LCC
下的
些许
写字楼
压井
参考值
因果关系
插口
测试步骤
灌溉@@
车辆段
Edge
V3
fer
大程度
廷@@
接收@@
防震
NM
悖@@
掠@@
机率
第二百
纳斯达克
财团
需要@@
«
中速
中长期
二氧化@@
亦须
付款人
口音
多相
扎实
泥浆泵
精加工
II@@
关键作用
唯有
守卫
屠杀
易用
为限
区政府
怪异
放慢
械
步枪
管家
住处
克莱斯勒
受精
大中型
里尔
光谱仪
基因型
所定
无序
朝上
汽包
温水
电镜
皮质@@
穆罕默德
这有
Spec@@
border
丰富多彩
乘数
应付账款
急于
罐子
超强
达州
骄@@
SPEED
内窥镜
几条
地方性
悲惨
拉斯@@
摇摇@@
荒
通讯器
3.1.2
FID
Snap
办公桌
取得联系
学界
战略规划
普通法
笨
茅
EI
中枢神经
低时
允@@
承建商
更衣室
画作
突尼斯
肾病
里奇
铣削
2O3
PERC
sys@@
掘进
正则表达式
绊@@
魏
5.00
ROI
光驱
克雷@@
卵泡
布拉
戴维斯
根基
漠@@
秘诀
美国银行
麦凯恩
Mbps
do
传输数据
医务
慕尼黑
来时
热备
珊
胰腺
高手

TF
大大的
定位系统
总包
替代@@
熔炉
福州
ory@@
米歇尔
萝卜
设备@@
该书
put@@
三十日
不胜@@
专科
产率
光合
居住地
本厂
集气
Site
保函@@
分枝
喷枪
性能参数
擅@@
湛@@
短期内
酬
陡
Python
ani
再次出现
农用
吱@@
呼声
复古
宛@@
巡回@@
据估计
格栅@@
踪
隔断
人称
則
原水
咳
并不知道
惧怕
紧靠
踏步
辱@@
Files
一幕
僻
四位
浸没
過
ICS
nam@@
xml@@
孜@@
曝气
腔室
览@@
走近
魁@@
OI
UltraScale
东海
兴奋剂
剖
募
化水
广大@@
护面
本应
金星
Eclipse
General
Verdana
化妆@@
妳
第三代
第二代
虚拟现实
逸@@
钚
门控
XPath
def@@
ga@@
佣@@
市内
打着
沉淀池
非常规
228
别处
响声
喃
整型
新高
稽核
足额
Cmd
Light@@
TCO
入场
公共政策
有点儿
竞争@@
缩水
黯@@
221
九龙
交通部
产于
客体
工作服
接洽
普遍认为
极为重要
灰泥
空转
系统结构
细心
联系电话
课件
邑
铺筑
BH@@
RW
剪力墙
名额
百货
竹子
综合治理
美国国会
调试@@
JPEG
To
ams
一队
乾
伺服系统
安全感
您好
蛾
入位
号楼
溶剂@@
石家@@
邀@@
镜面
A0
作响
小提琴
差速
干活
挺杆
第二步
谜@@
資訊
2.4.@@
?@@
Check
Connectrix
Dem@@
加密@@
只得
家畜
小心翼翼
差旅费
巴菲特
溶性
罢
脑海
那场
问及
Alias
Coun@@
KO@@
不等式
但愿
大都市
就餐
弹道
恤金
灰分
襟
镀金
雨量
面体
1250
中铁
伊斯兰@@
另一只
备用@@
摇动
救护
明火
甜美
第三十一条
作弊
储蓄所
党的@@
山峰
意想不到
振奋
棱镜
球菌
美洲@@
膦
过滤@@
配置管理
14.2
2.1.1
万亿
仇敌
匿
合作项目
国土@@
就医
帅@@
扭力
测试运行
脊椎动物
起火
部长级
酸钾
010@@
上位
德育
感恩节
拉尔
日电
椅@@
欢喜
祈求
翻滚
表扬
ative
受制于
复杂@@
孤儿
租船
245
Space
一无@@
内脏
安德森
投资性
日落
游击@@
绰@@
記錄
高通
Amer@@
ye
二甲基
分度
劳工@@
时而
点火器
眼科
肿块
调平
510
LINK
mess@@
五天
偏高
患病率
扔@@
板条
神庙
音器
几小时
嗅觉
大地@@
开罗
思科
抽象@@
提纯
目击者
西红柿
Mil@@
埋深
拿起
效果@@
此表
每桶
渗水
生活区
车用
Thom@@
iver
县城
同种
岔@@
收纳
棕
痴呆
装到
龟
gu@@
伊德
圣地
大气污染
溯
纳米@@
飘
bps
丢掉
显示信息
电弧焊
瞬变
移入
第二十九条
耐火@@
自上而下
营养素
装料
顶棚
三国
主办方
储备@@
冲销
埠
大力支持
能用
陡坡
CW
kVA
乙烯@@
他妈的
更易
点位
爆裂
私下
财经
领事馆
271
Model
NZ@@
Phil@@
做个
動車
地理信息系统
录音@@
很多年
救生
无功功率
消息传递
消防员
短短
达到最佳
AND
FAST
Pos@@
V5
事实证明
司令
德森
易用性
检视
水平线
测器
畏惧
知识经济
绿茶
XF
trac@@
一匹
后桥
塌
怕@@
总裁兼
探查
某种意义
浑身
犯下
破产法
贸易协定
中拉出
借入
分管
加号
十分钟
庞
沉没
高涨
http://www.Microsoft.com/contentredirect.asp
停留时间
性别@@
新值
第一届
裝
起動
预制@@
v2
信贷@@
发表@@
同居
浮游@@
零售@@
昏迷
析出
点云
LO
撒哈拉
斑块
涉足
滚动轴承
职人员
苍蝇
运输机
前走
引诱
影像学
昔
让方
负数
锰@@
顺利完成
03.@@
Andre@@
WA@@
仿真@@
动脉瘤
工匠
扔掉
欲了解
皮特
省市
禁区
科普
粉体
航空运输
里德
1966
251
AX150
Administ@@
MEA
借给
值守
堆内
抗肿瘤
正常人
沉思
起义
钞
Adv@@
BL
Scope
入站
定金
恳求
方能
更名
程控
鞋跟
cookie
主人公
乒乓球
商界
声速
彗星
心力衰竭
管板
上任
壹
格拉@@
硝
编程语言
饰条
198
pp
〇
任何理由
假冒
净重
在校
天基
我刚
最新@@
狗狗
猩猩
盘旋
让人
UNE@@
mann
临到
之差
改制
状况良好
诚挚
里昂
Heal@@
互惠
咀嚼
开箱
整体性
根除
毒药
牢固地
相接
解压缩
333
ore@@
免得
城乡@@
失眠
斜角
新品
显性
灯罩
说是
髋@@
供需
动火
厄瓜多尔
导电性
机顶盒
线下
联合国教科文组织
蜗杆
裁军
谱仪
tern@@
一楼
中原
代表大会
单级
固性
巡回
投票表决
族群
杏
檔
窟
Company
压碎
奴隶@@
始建
安防
宾夕法尼亚州
拳击
极易
氧化剂
电传
稀释剂
紧身@@
亚特
凯文
国防部长
天鹅
指称
无处不在
淹@@
滋味
炉子
若为
GB500@@
使馆
平和
广播电台
标量
泵房
熏
行政局
车削
erson
Ⅳ
俄语
光镜
往前
得意
步兵
竖立
金正日
008
QuarkXPress
巨
行政处分
誓言
野餐
Bluetooth
Book
GU@@
两处
内所
地道
外语@@
干酪
扯@@
挣
淋巴瘤
澳大利亚@@
焰
祭祀
输尿管
龙门
IST
全能
分贝
各式各样
新奇
栩@@
计算机科学
超压
QID@@
riter
列于
可口可乐
定标
慌
激动人心
灰浆
电动工具
盼望
过夜
银河系
项目编号
鲁棒性
入院
年长
应可
弹簧@@
第三十条
药房
袖口
Gal@@
og
单色
咖啡馆
外周血
峡@@
捏
浮现
生代
蜿蜒
Hold@@
Vision
ama
kt@@
均会
技术开发区
无奈
機构
经皮
耐用性
送来
领导层
高峰期
17.
HZ
IFRS
architecture
党内
卡扣
明信片
温哥华
莲花
蜗轮
装饰品
元音
寂静
形夹
征兆
斯托
渊源
筛网
1964
QM
ene
ode
pdf
可得
多米@@
小径
数据字
龙虾
不加
中向
仕
剥削
小费
恼@@
无子
漫反射
省政府
自由化
路径名
转换开关
BM@@
CRC
Field
上拔
世界贸易组织
两用
京都
内未
威士忌
开关电源
彭
教养
SKI
WebSphere@@
不成@@
井底
另行通知
开工日期
注塑@@
珍珠@@
用车
粗鲁
胆囊
象是
顶篷
XL@@
lev@@
ok
之比
唤起
图块
女演员
篇章
萍
表示法
评估@@
12.3
主力
各省
疗程
Document
etc
双相
售前
标杆
派出@@
测出
管理学
糕
鞋带
Control@@
SeaRay
主动@@
好奇心
平齐
标线
激怒
片剂
硅橡胶
鸥
HP@@
RI
不久前
劣@@
明尼苏@@
贞@@
集中管理
.p@@
APC
Window
一揽子
必需品
悲痛
找寻
服务器上安装
现实主义
脱脂
電池
itor
只见
干爽
承销商
投资决策
牵引车
讲授
321
Object@@
ere@@
不经@@
唤
母乳喂养
边界层
高价
Zh@@
极低
菩@@
覆盖@@
账龄
234
ename
大家庭
市级
心目
技术规程
来信
227
WS@@
ner@@
ock
中层
串口
举个
保密性
偏爱
停车位
台式机
恐吓
拿破仑
滑动轴承
ius
不容
储物箱
圣诞老人
在短期内
芳香@@
菲利普
装饰@@
输液
鞍
Radi@@
SPN
bc@@
sl@@
值应
关注点
其值
单元测试
应聘者
新密码
此款
灭亡
造纸@@
H2@@
上半
圆柱@@
波动性
私营企业
管理策略
见下文
二号
井眼
供参考
电子书
稳压器
说完
184
Render
动力装置
拧开
欠缺
老实
草场
4500
世纪末
乔木
应聘
弗吉尼亚州
文化产业
生命科学
类型@@
考评
页数
高等法院
189
Nov@@
Ob@@
为人@@
凝析油
变型
巴尔
睡衣
讽
说过
鸭子
mmol
两步
主演
以至
分叉
压印
厦@@
对吗
幕后
求出
特斯拉
脸颊
诊断@@
购入
转播
P4
ock@@
国务@@
存活率
强烈@@
硼酸
私
蠕@@
轴流
邪
阻燃剂
Address
刀刃
反应时间
导引
重装
重要环节
640
参和者
徒步
蠕虫
衍
饱受
攻击@@
最能
沸点
管理权限
迟缓
DAB
Tur@@
base
业已
凤
多种不同
胆碱
胸腔
节省@@
ARD
Asp@@
assword
dll
两段
现出
碳酸钙
访者
赢家
阿波罗
Mont@@
ith@@
传球
制得
抓取
水利工程
血统
try
弗洛@@
怡@@
扑灭
清关
越好
钢瓶
镇流器
197
CCB
OD@@
僵尸
公债
家族@@
手术室
文艺复兴
轻触
铭记
饰演
ANSYS
乌兹别克斯坦
厉@@
喷油泵
层压
工商管理
座舱
微波炉
戒烟
摘
晃
晚间
检查程序
浆料
第二次世界大战
糊涂
饥@@
cat@@
ling
丑陋
串行@@
出庭
曞
海军陆战队
闽@@
靡
http://go.microsoft.com/fwlink/?Link@@
佛罗伦萨
况@@
叛乱
无故
期望值
测试用例
玛利亚
盗版
票房
颠@@
mt@@
number
全国人民代表大会常务委员会
妇女@@
年金
戴维
持证
支持@@
核桃
稽@@
联系@@
视觉效果
连贯
销售价格
179
Hi@@
典雅
各人
珍妮
百分数
芒@@
软件程序
CMB
JA@@
NN
stra@@
zz@@
上升@@
文艺@@
梳
海事@@
液滴
煤层气
燈
紧贴
胡椒
蓄水池
近视
C5
侦听器
保卫@@
元首
冲头
动议
宁市
支持性
求职者
浓密
身份证明
鸿
Select@@
mbol
冲孔
协同工作
太阳光
弧度
水沟
滚珠轴承
演讲@@
烘
网眼
转台
阿司匹林
马歇尔
Super@@
价格指数
住宅区
十二条
捞@@
日出
民族主义
灭失
热镀锌
穆迪
考虑一下
超微结构
50000
EV
时点
现金@@
荫@@
需水量
SYSTEM
作業
小康社会
汛
汽车行业
透视图
闻名@@
食者
Manag@@
一阶
万桶
中西@@
人类学
最低工资
油膜
膨润土
衷@@
Jon@@
Mal@@
功能键
承保人
栖息
氙@@
狂欢
选为
GN@@
JVM
Tou@@
他的
嘘
广泛@@
意外事故
接收者
攀爬
油料
离体
粘连
金属结构
EDI
Kar@@
Log
人手
可控@@
坏事
客流
酰亚胺
高速铁路
Modbus
Om@@
fn
la@@
充分性
利润表
实验教学
捻
搅拌@@
水剂
肥皂@@
芥@@
配筋
酸碱
our@@
rem@@
一条@@
作曲家
模组
资历
领先@@
万人次
双赢
夸
弧线
时延
版本@@
监造
看做
聚酰胺
问到
27.@@
Bal@@
EPS
NIST
fe
包络
同类产品
斤
比赛@@
热插拔
缩略@@
销售部
阵营
ACK
Er@@
Message@@
inc@@
不怎么
体征
倒置
数以千计
每套
罐装
触动
Program
中小@@
低调
坤
有机溶剂
栈@@
正则
焦距
风俗
份数
原样
同年
孩儿
寺@@
榨@@
法拉@@
簧@@
顺序排列
30.@@
Tem@@
免费@@
印第安
复合体
新进展
柱状
锶
Task
冻土
劳伦斯
按鈕
机械式
销售商
SSP
不容@@
巴德
无关紧要
普林@@
特人
聚合@@
金币
Energy
Lifecycle
res
卡瓦
學@@
橄榄
水疗
特拉
砖块
阜@@
C4@@
SELECT
any
体燃料
北京大学
图书@@
屯@@
战时
有机质
极值
流派
看清
长方体
香槟
021
夹住
总泵
成本计算
橄榄油
涅
萨科@@
跳水
鹦鹉
IVE
只为
多岁
夺得
普斯
热情@@
驾驭
231
Af@@
僵硬
小汽车
性生活
林业@@
毁掉
沿途
特曼
航母
车牌
Ax@@
ITY
便利@@
保温材料
输水
闹钟
ital
ord
伯爵
剂量@@
婴儿@@
小学生
改成
放疗
比例@@
雷击
医治
变小
外人
展览@@
标准配置
沉淀物
瞧@@
笔直
雪橇
一如既往
俯瞰
分离出来
客商
差旅
贝壳
频域
上诉人
内部结构
多路径
富于
小幅
母材
缔@@
主宰
以北
崩
年轻@@
烫@@
谎@@
走来
路况
运输车
乡下
印度洋
多发性
并非如此
沫
记录下来
谢谢你们
244
mV
外罩
期盼
板坯
留置
警卫
雪地
DHA
Mi@@
PSI
不良贷款
人道
凝血
大力@@
害羞
自主@@
舒缓
饥荒
187
B4
YL
子类
扉
藻@@
蚕
贪污
野心
DSA
一趟
亭@@
传输线
制取
地里
拣@@
推算
甘油@@
蓝天
阿拉伯文
除率
雷曼
回想
整修
栽培技术
点缀
警报@@
轰炸机
高校@@
bit
sof@@
前人
奖杯
威斯康@@
恶意软件
感测
手提
氮氧化物
瓦解
砰
B2B
别无@@
巴克
数字电视
毁损
特效
盼
立方@@
號
行号
衬衣
502
product
匪
卜
基本特征
文件名称
滔@@
自称
乘务员
交通系统
偷偷
出口国
回执
大幅度@@
异味
报警信号
摇滚@@
时向
松树
模压
热潮
瑞典@@
肢@@
裕度
触觉
Pb
ability
两国关系
夹头
斌
欢迎您
脚踏
黑名单
位列
妃
改革@@
深感
示范@@
ValidatorAttribute
一季度
之作
六种
富翁
感染@@
推论
锚索
405
GF@@
Go
Op@@
上半@@
悄悄
新星
权益法
烃类
除掉
Gran@@
Microsoft@@
TK
py@@
下设
修订@@
圈子
晶闸管
消融
现实@@
相通
私有化
试制
赫尔@@
风貌
麻疹
Catalyst
Zoom
mat@@
四分之三
心智
汇丰银行
种族@@
自由贸易
迈向
制作@@
早日
生境
镁@@
韩国@@
SSH
lx
告诉您
姊妹
提振
核反应堆
石膏板
4.3.2
ALT
上扬
新书
求职
热膨胀
萨斯
高危
660
WC
业务管理
人要
代表人
地坪
旦@@
时须
计算机软件
RB
WiFi
ino
侄@@
党委
再融资
参会
受约束
布管
干脆
床位
总图
整平
柜内
标配
沸石
甲氧基
突破性
米饭
遗弃
MEL
esh
our
发芽
声望
微球
成交量
未经@@
氢氧化@@
漿
INI
ind
共产@@
归来
拖鞋
毛细@@
流阀
碑@@
背离
lis@@
Ј
休息@@
城镇化
宣扬
带出
形容词
无缝钢管
核数师
补助@@
验资
高空作业
Volume
个州
公共安全
出演
宫廷
直管
礼拜@@
能源消耗
Tor@@
其能
外部环境
大洋
批发@@
深入分析
瘫
第一级
股票价格
自负
酸酐
ke@@
一笑
加拿@@
器上
大气@@
岳
影视@@
托收
深切
第四次
肉瘤
胰腺炎
身份@@
VIII
干扰@@
收费@@
最深
电表
第二届
原子能
所罗门
无污染
游乐
看重
裸体
阳性率
1962
Loctite
克朗
印刷机
接送
擦洗
螺旋弹簧
颂@@
一个个
丰满
听器
投资信托
无机@@
梦幻
电杆
病史
缓冲@@
透射@@
高跟鞋
29.@@
py
一无所知
人机界面
围着
数控机床
旋转轴
紧凑型
补充协议
防冻@@
黑猩猩
Mob@@
SOC
两地
冶
斗式
算起
类化合物
细胞因子
躺@@
面团
3051
CDP
Running
二十四
很漂亮
林区
Hg
MDS
arm@@
头疼
庄稼
找回
撤退
明暗
有幸
电火花
白俄罗斯
认缴
贩
贯彻落实
Top@@
system
为首
哼
换乘
木地板
Lync
万事@@
乖@@
动态变化
即会
弗吉尼亚
恶人
惩
标准差
第三十二条
经济运行
荷兰@@
一如
交互作用
体细胞
湖区
胃肠道
输送泵
这艘
15.2
8.1.@@
伦敦@@
全国人民代表大会
树皮
浇灌
理会
电磁干扰
规划署
迎
E3
TS@@
WAN
nb@@
不景气
基建
泄压
集中精力
HTTPS
PSA
制動盘
因本
批准@@
救生艇
新品种
水平井
缓蚀剂
高光
｣
cri@@
体液
泉水
生态旅游
425
人工神经网络
密封@@
暮@@
桐@@
获得者
阿姆斯特丹
附例
TED
世贸
举足轻重
兵团
初创
团聚
国家机关
尼古@@
牟@@
甙
车辆@@
且经
余年
友情
变电
年度@@
故事@@
昼夜
木箱
株式会社
消极@@
眶
茱@@
表体
赴@@
防尘套
Capital
Fortran
yan
千分表
口译
居家
我该
服务体系
极强
武士
用尽
疑惑
色度
迪斯
闻到
RAL
卫生标准
天气预报
引物
往后
榨
相關
置信@@
蒙德
西瓜
限流
262
值来
分析员
单轴
布莱尔
总统@@
染色@@
火腿
管理处
des@@
乌龟
公义
形环
断口
脉宽调制
良心
观测@@
露面
ANI
XYZ
体能
公民@@
太久
怀念
水带
火山灰
蔬@@
误导性
财力
酒类
BY@@
Samp@@
悟@@
情事
施压
滑雪@@
激励机制
给与
维克
蒙特利尔
REM
SHA
Sl@@
侵占
分拣机
副经理
宽大
至多
药典
银团
马里
二零零@@
技术转让
投递
拿下
水利水电
熙@@
第一台
谈及
这天
镶边
PSD
作出反应
击球
国会议员
奉行
抉择
披
数位
氢氧化钠
硬拷贝
羧酸
Test@@
互操作
禁忌
胸前
､
ape
堪
延伸@@
术前
索要
肠炎
EJB
共创
关系人
分机
初学者
午
单晶
喋@@
存储单元
寡妇
对讲机
庄严
慈善机构
或多或少
明显降低
难于
Associ@@
mi
世贸组织
既能
昏暗
流浪@@
王后
风压
马来@@
黑莓
BSM
propert@@
多用户
心房
接合@@
通航
阿拉伯语
5.1.2
AML
Electrical
dom@@
冲击力
制片人
听证
游玩
细菌@@
規
ISC
深夜
爱国@@
赤
已达
座谈会
掩护
求值
烟火
盛会
iao
吸管
异型
每笔
炖
监视系统
结构特征
进修
218
DDE
Fire@@
uss@@
中较
入门级
打碎
煤机
等奖
选举@@
◎
优质@@
但须
儿科
新任
月经
清晰可见
秆
葬@@
语言包
长线
997
Colum@@
NikeFuel
endash
丙基
吟
商量
式起重
忧伤
敬意
有氧
盾构
碴
胜者

Bran@@
Normal
zip
不具
出风口
壁上
安检
抵押物
无常
昆士@@
村里
致力
覆盖物
飞到
中信
同仁
坏消息
实际成本
小溪
油尺
砖墙
芬芳
CMOS
嚮
堆积@@
DGN
DTS
Indust@@
LF
new@@
uel
光度计
图片@@
场区
寸@@
懒惰
所在位置
拖缆
文本编辑
甄@@
衰变
黏度
OUT
ous
出站
因為
圆满
开发工具
精馏
蜂鸣器
覆层
Ger@@
OPC
help
伏安
学问
截图
浊@@
第一件
维修保养
群众@@
耍
详情请
通关
信息管理系统
垂直面
安全套
己烷
应选
成对
接受方
選择
ith
之举
兰花
是吗
科院
网眼布
若该
载货
顺从
大型@@
每侧
继任者
贱
长者
首家
Blo@@
ining
会费
关系式
发式
哲
帝国主义
游戏机
私立
网络地址
FBX
Gam@@
shell
小微
测序
消耗@@
霞@@
Compon@@
Professional
万象
克制
千分@@
售货@@
回馈
字号
棘轮
民主共和国
消费税
米亚
肥沃
252
乳头
时性
温控
澳门特别行政区
灯塔
许诺
赛跑
难受
PHA
主控@@
冒犯
发亮
可供使用
恨@@
本植物
特意
轮班
顽固
Luc@@
一秒
巴拿马
干膜
建国
投机@@
拒绝接受
拘役
渴@@
火炮
西亚@@
骑兵
鲍
龛
3.3.1
人为@@
垮@@
扮演着
指导思想
服务器之间
沿海地区
浅色
浦东
淀@@
皮鞋
连带责任
难者
#@@
BOP
Detail@@
RFP
Rol@@
icy
一来
壁炉
如前所述
异构@@
母体
渺@@
点对点
煅烧
狐
记忆力
轮齿
轻而易举
13.3
万达
们@@
加之
抹布
洼
物项
调换
违约方
音质
高岭@@
一氧化氮
产后
口腔@@
同轴电缆
国产@@
基金@@
大气压
家兔
居留
平板@@
总人口
暴跌
精益
蔚@@
一月份
专项@@
交车
代币
例会
协会@@
海豹
监测仪
矿场
422
phas@@
光体
再次发生
圣母
工具集
火箭@@
玻璃窗
线性化
Optim@@
yy@@
两极
冲积@@
吸血鬼
填充物
崩塌
彬@@
斐济
旧式
精密度
18.
CJB
交通标志
多万
模拟计算
维系
西方人
跪
uter
一两个
不断完善
两部
中能
平等@@
得克萨@@
总结@@
煤油
常设
票数
粘着
线电压
Designer
nav@@
优劣
几分
南京市
精心设计
诉人
足部
集管
首件
Christ@@
力拓
反射镜
基本功能
山路
护者
推崇
撰@@
最低水平
检查一下
此字段
法制@@
特征分析
电导
稻草
295
Brow@@
TCS
下摆
不好意思
亲身
多用
战线
有如
获得@@
讨论@@
追随者
钢架
illa
play
三线
伤残
光机
入驻
布鲁斯
投运
折旧@@
无可
肩带
院士
GL@@
ema
云层
净空
发行版
总价值
打个
打赌
报关@@
第三十三条
蛛@@
调入
锅炉@@
集合@@
3600
Cu@@
ORE
PLS
Tag
ump
决定权
分步
君子
市场占有率
并在
意料
收入@@
斯洛伐克
湖人
草本
超高压
雨天
Local
NSR
ities
不锈钢管
不难
周边地区
垃圾箱
得名
时需
漆膜
补充@@
間
随著
NFPA
Red@@
cept
出料
弯曲@@
蜀@@
被测
贩卖
软土
通畅
防病毒
ser@@
产区
内心@@
切割@@
夫斯基
手推车
执行局
抽汽
苯甲酸
霍华德
Mark@@
一顶
主要@@
冷却@@
向性
培训中心
枣@@
深信
福克斯
竞价
联查
脸色
茵
趾@@
Input
ublic
产科
佬
垫子
塑料管
宠物@@
巴里
平均温度
应力场
相关系数
符号@@
罗兰
408
Transp@@
s1
呋@@
昼@@
机头
表型
1945
Enginuity
K2
Mor@@
五百
传闻
印第安@@
厌氧
固井
接触网
羁留
远远@@
采购计划
ETS
侵权行为
健身@@
四舍五入
因果
图形用户界面
子目
极点
经贸@@
舰艇
蝶
sw@@
主合同
地理学
埃尔@@
犁
程序开发
笨拙
花瓶
荒野
计划署
风吹
高考
C20
Property
ato
双金属
外力
技术手段
招投标
氯乙烯
狐@@
硫酸钠
触感
闯入
MSM@@
MU@@
催缴
反感
垄断@@
寨@@
展台
恐
敌意
旋下
昆
機上
白云
稠度
该次
TIF@@
ices
亲眼@@
哈马斯
四点
地砖
砸@@
类中
缉获
载重量
1850
CNC
Figure
MPEG
VIMS
gong
乏@@
会令
创业者
发球
嚣
坊@@
宜人
恐怖袭击
技工
收受
方格
杰作
电动车窗
蔓@@
Cookie
Doc@@
RD@@
cd@@
三期
之夜
二楼
德罗
挠曲
暂存
用工
篷@@
精确性
罗纹
羊群
耐药性
财政司
陕@@
570
Auth
ep
中继@@
人质
关键设备
在线@@
大屠杀
庸@@
最优@@
比分
病性
终端@@
荧光@@
豚鼠
601
Qual@@
业务员
交通安全
从未@@
伞齿轮
住址
倒数
十七
发现@@
回旋
坚持@@
外星人
妄
房间内
新月@@
方方面面
松软
腕
苏黎世
血清@@
辞去
通孔
静静地
Id@@
JIS
ribut@@
倚
姨@@
家用电器
砜
组别
经济合作@@
转换@@
2050
War@@
kWh
一晚
传记
大体上
层上
弹道导弹
旧版本
有不同
氯丁橡胶
电晕
耶稣基督
花边
車窗
248
Smith
前额
多巴胺
水闸
电路设计
Java@@
NV@@
五角大楼
保质期
列名
异丙@@
接线@@
无泄漏
汹@@
理应
甾@@
直方图
11.4
PROM
VEG@@
ract@@
专卖店
及时处理
发酵@@
字段名
杆上
桶@@
科学性
簿册
精髓
设計
阻塞性
人脸
变通
尊贵
技术咨询
每家
無@@
租客
精良
而应
获知
贝克@@
连通性
追寻
Firefox
万圣节
代尔
光器
套利
巴特
打字
繁重
耕种
联名
铜管
CIM
Tier
共建
养育
厖
女童
提早
槽钢
正态分布
老太太
脱除
迷信
铺砌
But@@
Mu@@
Tab@@
cess
iew
tem@@
史诗
商号
射孔
海洋生物
满负荷
立法局
譬如
遗
Report
保守党
信托公司
巨噬细胞
店主
毁灭性
洗车
输血
DDoS
Mechanical
Ultra@@
ehicle
全会
圈闭
挥舞
族人
蜀
西岸
这所
门板
领用
PATH
rc
佼@@
南侧
橡树
舒
虱
进路
Technologies
二手
区系
图斯
复杂程度
思想家
氯化钠
类药物
襟@@
钙化
铁丝
開始
骚
288
专业性
凝剂
刮板
十条
名稱
大专
大连@@
所起
模塑
纽扣
适宜性
选育
鎵
G20
OV@@
ons
一串
例证
公共事业
变大
栏位
每平方米
红素
诺言
CPI
Hyper
保险业务
哺@@
堆垛
定于
新风
旋流
科夫
药店
躯
门将
0.35
主开关
之列
创新@@
品目
很久以前
惯
潜意识
焊料
电子元件
经久@@
1.2.@@
GPU
ility
体重@@
截面图
投向
炮弹
逆变
鸽
Da@@
Maker
SP1
VH@@
point
ronic
不同寻常
兼任
凶
商船
帐款
收件
收敛性
氏菌
激进@@
瑞斯
磨煤机
葡萄球菌
计划外
谚语
购买@@
遇难
C3@@
MAN
TMR
先端
加热@@
城镇@@
樟@@
氧化锌
灶@@
球赛
甘蔗
通风孔
默默@@
Cy@@
产品目录
先天
凹痕
征询
憩
接地装置
有偿
泵体
浆果
润湿
经办
节省时间
DATA
单边
抓斗
排水管道
水份
第一行
自闭症
训练有素
质量部
锁片
非常容易
预备役
Ka@@
MID
Ol@@
Rad@@
util
咕@@
学习型
暗淡
森林公园
毛坯
污渍
法兰克福
盲人
逝世
里根
LCO
ins@@
中年
从源
学龄@@
常闭
新疆@@
管口
逛@@
1963
572
ECO
一家人
不善
实用价值
惧
挂号
转速表
传真@@
响应@@
意在
片断
罗伯@@
这首
Integration
½
小块
弥漫
所行
摩托罗拉
查出
表示感谢
计息
轮胎@@
Soft@@
Xtender
air
公司总部
哌@@
接管人
溶解度
PPA
产品价格
创建者
售票@@
有效@@
版本控制
相互影响
自用
马氏体
217
DIN@@
冷态
参观者
平底
第三十四条
msnap
不快
供其
保管人
坐标轴
尼罗河
拉丁
熬@@
自家
中东地区
千伏
发声
发改委
护圈
新生代
矿层
耗散
脚跟
脚踏@@
连任
连接性
银监会
交通管制
手感
料场
梗塞
毫安
病学
达到@@
酿
鲨
Run
丙烯腈
充電
冗长
屠宰
戳@@
换气
毫无意义
滤池
职场
苦恼
茸
葡萄牙@@
严酷
中国工商银行
二酸
依存
借着
喜马拉@@
天桥
宽广
幻觉
新南@@
果断
滚柱轴承
装药
高容量
FQDN
NL
主动式
力场
印制@@
悄@@
摸索
毙
治疗@@
装饰性
西安市
Lay@@
厚重
得当
支点
文艺
硕
紧跟
罗盘
羞愧
角落里
逝@@
配体
体式
内层
协力
合作者
团伙
大意
天文台
微细
杀伤
软体
采光
铸钢
随之而来
驻地
OF
写到
几内亚
压裂液
多份
德里@@
秀丽
絮凝剂
羔@@
胶原蛋白
衣柜
袖子
针灸
镇定
口罩
岩屑
时变
电影节
系统文件
避险
KA
付钱
储物@@
塞尔@@
大麦
女郎
腰围
著作@@
袁@@
2022
RCP
Wiz@@
全屏
全权负责
吸收塔
女装
爵@@
皮毛
相爱
第一名
腊
贴身
转化率
驴@@
BA@@
active
lie
┈
作业区
各个领域
奏效
展馆
巴西@@
施加压力
毛里@@
焙烧
直属
该名
变态
各种因素
客气
宪
海区
液压阀
百合
终端设备
罐中
聪明@@
CDN
lo
东道国
会计核算
创纪录
喘振
室内设计
待命
粉状
词组
运行机制
量子@@
0745@@
Bre@@
Document@@
She@@
TECH
ck
ram
wt
书目
地质学
大有
太棒了
平顺
悠
拟备
短波
章中
蛙
谈起
那人
金砖
一时间
三日
不限
中学@@
之行
加息
匠心
慈善@@
掏@@
片麻岩
迭
完好无损
小型企业
手部
油气藏
流体力学
点时
装配图
试品
BitLocker
ures
一幢
不尽
华尔街日报
嚷
天文学
居于
底端
手电筒
漂流
炉渣
电力线
篇小说
cli@@
之王
了吧
信贷业务
怠@@
盟国
相互之间
突出@@
第一代
织机
色差
15.1
Advanced
MX
WAP
些年来
利多卡因
化为
孩童
射门
形式@@
服务器进行
通用性
问答
265
回车
坝体
得主
无罪
槽口
汽化
神情
美联社
耗能
财政政策
那一刻
黏
TX
分值
自燃
蒙受
中医药
印度人
山姆
查核
涉外
班子
约合
联剂
过快
过敏性
一株
一段@@
一辆车
主题公园
之手
手头
批核
摩天@@
敌对
方对
润滑@@
瀹
连锁店
键槽
Database
Lif@@
SCO
刻意
弄清
惯@@
想一想
挽@@
描绘@@
无级
第七十@@
繁琐
高高的
⑥
励磁机
师范@@
情绪@@
数据线
研制@@
老百姓
锂电池
Current@@
Ethernet
华南
思潮
湿热
羽毛@@
贵重
镖
4.2.3
6.2.1
DPF
pos@@
兜
升华
受访
徽@@
止血
用纸
网络资源
FluidFS
制造者
北面
名下
安裝@@
截取
赞誉
鄙
C#
QoS
Sphere
VBA
上台
充电@@
北侧
房租
服药
说实话
近似值
铀@@
David@@
ham
不向
共同点
冠军@@
刑事诉讼
发展局
打动
文化交流
新旧
檢@@
绕线
见识
规模@@
ACT
Priv@@
mode
九十年代
佛山市
傅里叶
光学系统
子网掩码
弘扬
投入@@
敬请
烈度
花岗@@
陶器
Gbps
交互@@
人气
具体实施
应急照明
开证
所在@@
明显改善
桥涵
正弦波
气密性
营养成分
锤击
Collector
以本
伴奏
净现金
劫持
单片
威尔逊
格线
浅议
爱沙尼亚
积压
脑子里
隔器
DWFx
JS@@
vCenter
买卖双方
假若
内联
員
心想
想出
拉长
老公
飞速发展
馅饼
14.3
TAB@@
hom@@
vii
不朽
人居
剥
动物模型
基本法
妓女
宏大
扁钢
文明@@
这人
阴暗
FCC
WOR@@
一封信
介意
加料
商用车
弗里
断力
昔日
模拟信号
电缆沟
零序
颠簸
Admin
亚吉
内毒素
双人
外贸@@
奠@@
心爱
抽样@@
明珠
畜牧业
萌@@
述明
Aut@@
两個
交代
俄勒@@
十字头
协调一致
卤素
各家
固有频率
地标
安心
年增长率
店员
忍不住
成就@@
清爽
烘箱
资源库
顾问公司
625
BG
HSBC
TFT
XML@@
ef@@
pc@@
人寿
传质
关卡
取胜
支派
新泽西州
盾@@
美容@@
芙
诞
3.3.2
ICA@@
UG
出入境
海床
灌区
病毒感染
纸巾
行动@@
被忽视
跤
Funct@@
全球定位系统
效应器
浊度
测功@@
申办
负相关
转折点
钓
Ta@@
中控@@
俯仰
共性
划拨
大树
完整@@
平滑肌
广度
庇@@
开火
成文法
本所
等距
首发
Lang@@
Mo
吊起
按着
昨@@
狮@@
580
sn@@
仍要
宝座
西伯利亚
陵墓
隙@@
Que@@
RMAN
二十五
仇@@
刹
垛
子项目
核糖@@
箱中
谊@@
Hu@@
config@@
厅@@
干涉@@
总体设计
我省
纺纱
经典@@
该校
象牙
BAS@@
hr@@
亚地区
价格调整
印刷品
广播电视
店面
最低标准
派发
滋生
话筒
預@@
1930
下坡
仍能
四倍
建工程
有效载荷
迟延
黑板
休斯顿
受限于
吵
搓
潜水员
精巧
观者
铝板
DOM
x0
七日
人员培训
咖@@
应用服务器
数周
每個
混合气
观光@@
计算机技术
GET
一大批
保鲜
充足率
分块
参赛者
启闭机
安全员
旅游局
爱国
稀土@@
芯线
讯问
酮@@
飞跃
食欲
MID@@
PMI
TeamName
app
read
一站
加法
单侧
实实在在
宣读
常务委员会
普遍性
民用航空
消散
看护
称职
起重@@
迂@@
開路
治国
端口@@
结为
DiskXtender
ico
单品
厂用
同源
品格
嘶@@
坦白
官僚
年满
所获
旋转@@
流通@@
稻田
缀
罹患
股份制
荒凉
起居室
鍚
OA
Sched@@
三分
做点
定单
旋塞
正以
波及
结成
远东
钢绞线
阱
307
倒下
取回
止动@@
石英@@
表面质量
Glob@@
开环
拖累
揉
时差
普鲁@@
看不@@
铌
Action
ora
主泵
奖品
射程
或电子邮件
指南针
探索@@
散落
旋转式
海拔高度
火柴
禅
精心@@
转出
颈椎
公文包
妥为
实益
封套
白金
進@@
金融公司
Communic@@
中所含
五倍
好几@@
打字机
捕食
提货
渡过
羊肉
讨
车底
频次
226
GOST
ko
rite
人物@@
失落
工艺设备
弱势群体
梦境
畏@@
翠
装潢
褐
越是
里程@@
Cur@@
信令
反对党
开采@@
未受
消退
爬升
玛丽亚
薄薄的
2.1.2
Connection
Nav@@
位差
偷窃
契合
最美
烫伤
百计
细胞核
赢利
车斗
逃走
NU@@
上千
严寒
之美
停机坪
压铸
尼加@@
捡@@
摘自
狠狠
病假
009
Paramet@@
Summ@@
中的@@
四天
扩容
支气@@
检修孔
远地区
防松
阿斯@@
餐饮@@
冠脉
国际公约
工人@@
建行
推车
砂质
Na
description
eth@@
兄弟姐妹
均等
太平洋@@
慈爱
无铅
未满
污秽
清华大学
特洛@@
HPC
O3
SU
不息
会计制度
便士
发展潜力
哄@@
复活节
平行@@
往复式
料仓
时节
热应力
班车
0.000
下表@@
交回
决不会
常见@@
挖出
生产量
该点
超低
AMD
vol@@
东莞
优惠券
商城
教义
模式@@
缪@@
调制器
门市
防爆@@
STAT@@
偶数
死因
永生
海龟
犁@@
15000
308
公开市场
剩@@
地雷
场址
士气
干法
弹奏
心头
日圆
易碎
检控
油阀
狭小
生物医学
祭坛
阳县
.org@@
Bri@@
MIME
Rub@@
ify
借记卡
光谱法
巧合
平壤
或子
掩
方位角
福岛
胡同
自该
薄荷
IRS
Up@@
人权@@
免遭
四项
工商行政管理局
怯
感染性
浮标
真心
钻井@@
铭@@
ITT
产生@@
入射
十二五
复合型
如意
烹@@
盈亏
维数
网络通信
认知@@
Poly@@
任何@@
升级@@
堤坝
抗冲击
版式
类固醇
越发
需经
Disk@@
ield
ij@@
升力
外交部长
投影仪
搬家
苏里@@
调味@@
越长
Date
Don@@
Gold@@
QT
册@@
初级@@
加到
半天
处理单元
太原
存储资源
快门
那份
飞过
手稿
探明
犯错
相传
美利坚合众国
美国陆军
量具
Univers@@
pat@@
保存@@
各式
寥@@
惊恐
油槽
混蛋
澄@@
皿
监管者
磁带驱动器
筷子
纯正
色彩@@
规制
该列
140@@
para@@
right
亿年
保护主义
反常
发表意见
喃@@
喝水
图集
旋回
消防设备
谊
酷刑
.gov@@
Ref@@
两半
圣保罗
地名
护盖
纳米材料
通径
集结
高尔夫球场

四分
在生活中
场中
宏观调控
待办
按入
日本政府
灌木丛
犯有
短期@@
联手
蒸汽轮机
遗体
钦@@
Q1
ector
一百一十
乙酰@@
内为
化酶
培训班
德利
忍耐
折叠@@
担保物
模拟输出
泡沫塑料
病毒性
範圍
超滤
路网
预测值
Mir@@
leg@@
不感兴趣
单模
库克
港务局
球轴承
竿
连带
連@@
Bullet
CrossFire
Device
举例说明
后冷器
君王
外来@@
扩张@@
排球
插接
斯蒂芬
钳子
SQLServer
➥
凑
调解@@
黑龙江
x4
二甲苯
反对者
后置
壮丽
存托
山体
开朗
我必
抱负
格森
炬
21@@
5.3.1
Inv@@
Mas@@
uri@@
保险箱
常有
捷克共和国
推开
早产儿
橄榄球
滑车
等温
近几年来
Hum@@
MVA
bas@@
七十
交通流
光导纤维
延性
拦
明朗
石坝
积极主动
采煤
金属丝
面纱
404
一代人
入射@@
标普
翩@@
＆
MATLAB
TZ@@
中外合作
国际商会
复印机
斧
神父
稳定杆
第四节
网线
赠与
311
ung@@
乌斯
保温层
手边
楼房
沉头
涝
系统启动
迟钝
酒精@@
间质
Full@@
MH@@
介素
偿付能力
卡盘
暂估
流线
看书
箱式
缴交
诚意
超长
辩证@@
银子
之选
伙@@
允
巴勒斯坦@@
布拉格
防晒
431
Pres@@
s/@@
xm@@
出品
屁
提出异议
标准溶液
江河
适应能力
首脑
FX
ni@@
传言
官僚@@
强盗
旨@@
橡@@
水基
碳化物
长久以来
LC@@
V4
对模型
想得到
此类推
若干个
针头
A3@@
ision
中日
人参
伤者
体上
光圈
卵巢@@
基本一致
天府
嵌板
抢险
焕发
焰@@
莎拉
铁轨
麻布
2.00
DSL
SoS
具特色
功能块
宝钢
断裂带
本科生
残值
涂膜
焊点
焦化
班加@@
草皮
这么@@
刻度盘
加利@@
南北@@
备忘
尼日@@
片中
自动识别
阁楼
metaLUN
window@@
发散
台账
圣诞@@
巴林
微信
炫@@
珊瑚礁
英雄@@
资产@@
赚@@
EMI
Jos@@
不知不觉
中间人
以向
保佑
再有
十多年
告示
基类
看管
粮农组织
营收
贯入
遇上
避孕@@
须予
CIP
RNS
Ut@@
两道
人及
供应品
凡有
地热
定做
模制
灰石
缴税
西非
透性
BAS
ault@@
ring
变种
放坡
电气控制
矛@@
米拉
罪孽
胶卷
贴片
违法@@
预告
T6
lot
上床
多彩
属实
有机硅
湖水
索尔
肝素
药业
D1@@
L3
ian@@
启动@@
室盖
录像机
消解
特此@@
电气工程
肌腱
诞@@
资信
1.2.1
14.5
ayer
chSmart
书院
压下
吉米
犹太@@
电缆线
線束
羁@@
胃肠
脱扣器
语用
骇@@
ba@@
一环
住房@@
克罗地亚
具体措施
军舰
农村公路
参保
国库
扩展卡
核心技术
治安@@
洗涤液
盛名
长效
Ess@@
PDA
之声
保姆
准确率
图形化
抚
粉红
诺贝尔奖
跳出
一惊
亚州
哥特式
普罗@@
真空度
衣着
视距
该车
踢球
電话
低档
呜@@
回收站
旅游区
暴发
机会@@
段线
测试环境
灭火剂
灵性
纤维板
耐受性
肺动脉
GSC
JLR
Lim@@
Park
不切实际
安装文件
巴萨
弟@@
疲力尽
糕@@
视频文件
非金融
ating
ba
ring@@
θ
围板
源码
组上
蜥蜴
超凡
LI@@
Properties
三组
化身
及早
担负
捐献
推动力
法师
热压
瑕
膀@@
评委
鼠标@@
2300
Hen@@
吾
日常@@
果糖
棱角
每块
水样
测量误差
甚少
突触
终审
诽谤
谢谢您
防风
集成商
颈动脉
FIN
row
si
严重后果
五名
光面
可读
岔
油类
海内外
登记证
第三者
管道@@
装甲@@
酐
AK
VTS
不经
千元
少年@@
扫描器
遮住
门廊
License
cd
olog@@
system@@
不大可能
内墙
分泌物
受管
司长
师资
洞察
虚伪
起升
越南@@
逆流
采购@@
錄
镀镍
Cons@@
Initial@@
世界纪录
另类
可在
急性@@
成形术
百分之五
缎@@
跺
钢球
馏
Ja@@
PRE@@
RMB
信奉
单台
夯
悬垂
按此
每行
磁碟
辉石
1940
403
5.4.@@
HB
两款
位子
信中
发布者
备存
尔夫
战机
智库
楼下
檐@@
混纺
疤痕
节律
英超
负重
Intranet
fontcolor
交易市场
坠毁
层叠
报警装置
清洗液
纸面
英勇
西区
货量
轨道@@
运营@@
SDS
Ur@@
italic
亦不得
击打
嘈@@
回访
宁波市
成品@@
枯竭
每一件
灵顿
爆炸物
登山
盎@@
笨@@
耐腐蚀性
背压
自学
辅以
运通
Sant@@
pl
wa@@
关岛
如未
对外@@
微晶
德克萨斯
洗脱
聊天@@
零食
402
如本
挽回
掠夺
有空
梅尔
窗子
远见
Kon@@
主营
前去
吸纳
无家可归
样本@@
植物油
水文@@
续约
羞辱
联营企业
防雨
6.2.2
START
WinRM
table
卫生设施
双色
拖船
秃
绽放
AME
Lan@@
丘脑
如遇
异位
拉夫
放上
星体
每吨
窃取
筒式
识别系统
他州
借记
哈里@@
喊道
察看
忠告
楔子
油库
较低
Soc@@
不致
医护人员
基督@@
基础性
悬浮液
数学家
明晰
河里
消亡
淤
玛格丽特
电源模块
砂纸
神秘@@
这要
760
Bel@@
ences
交收
单件
压计
域网
如此@@
打折
无能
洽@@
燃料箱
脑梗死
铝质
音箱
骑车
SUV
phone
一块@@
万分
十天
卷收
口市
控制线
暴乱
矛
矿物油
美感
辐
颌
颖@@
0.04
Li
下台
中外合资
共聚
可维护性
司法部
唾@@
固然
基本知识
守恒
杭州市
比亚@@
氮化
测压口
结婚@@
药学
诉讼法
钱财
Interface
flo@@
ude
之于
做梦
儒
光环
全日制
出租@@
叨
安抚
展期
数为
普拉
维拉
胫骨
蓄能
预张
ade@@
iTunes
信息量
借出
垒@@
塑像
备查
字型
标识@@
磁极
空军@@
通车
雹
髋关节
530
B5
MySQL
ena
group
下颌
橱窗
特种@@
程序运行
脑海中
那座
铁质
HDD
Out
land@@
乳剂
他家
危急
受不了
头皮
开曼群岛
弱电
慎重
有条@@
本篇
灯笼
球衣
直流电机
睾@@
结垢
钟表
0.95
19.
Aj@@
BAR
Mus@@
一票
例行程序
列车运行
单数
国际劳工组织
射手
干燥@@
抗干扰
接手
插管
浩
不利@@
回转窑
病原@@
第三十五条
紫外光
资讯科技
逐级
高得
Gar@@
夕
密切联系
富豪
并排
最高级别
波特率
海市
瓣膜
科特
稠@@
胸围
迅猛
金枪鱼
阴阳
鲑鱼
1A
31.@@
PG@@
乌鸦
叫作
喉管
富有@@
左下角
很差
挡块
无不
朝阳区
炼钢
矸石
粉砂
自备
253
CEL
QP
Research
一遇
三周
会展@@
出纳
另行规定
可比性
喇叭@@
宋代
投融资
极端@@
柏拉图
若想
观赏@@
证词
识别@@
重要途径
Architecture
信标
减退
同义词
地主
拨付
本图
相伴
责任保险
铋
BM
POP3
坳
妥善处理
实施@@
本子
流感病毒
竭尽全力
网布
莫桑比克
警务人员
销孔
马其@@
service
卷轴
取暖
收尾
泻@@
276
309
Domino
cher
上路
事实@@
交易者
后用
纳米技术
联营公司
预想
Ref
不懈
分解成
功能模块
品牌形象
多线程
开发阶段
招牌
某处
猝@@
玛丽@@
运行@@
静脉注射
Premi@@
坚守
消毒剂
纤维细胞
缎
见证人
SIL
nsr
体形
做爱
公立
搪@@
格里
热效率
盟军
蕾丝
警察@@
F4
Request
cm@@
map
以致于
奇数
实习生
拨号@@
拱桥
挪用
极地
螨
论据
跨过
Dial@@
对人
左翼
我市
新德里
板条箱
核动力
浇口
滑落
滴水
花旗
花样
补焊
Ker@@
ql@@
丰盛
人行
同化
地铁站
姑
媲美
左旋
幸福感
所得额
攻击性
渊@@
腺炎
该州
资质@@
道工序
风雪
9.9
QQ
不由@@
写着
发炎
奥古@@
年老
末日
欧洲联盟
滚轴
第三十六条
萎@@
锚链
呼吸困难
此行
热风
祖父母
软件应用
逗@@
1959
Hal@@
WI
ula
光片
嗓@@
多种形式
福祉
离地
UA
YY@@
address
inder
代人
卡滞
多肽
小城镇
架式
瘟疫
麻木
GV@@
MAR@@
load@@
发动@@
回转@@
备料
息息相关
振动筛
栗@@
笙
进样
铁路线
喷墨
早点
母版
特殊字符
班机
肥胖@@
铆接
ars
csf
http@@
一定量
丁酯
传真号码
危险@@
地缘
敌方
有效期限
热流
熙
环氧@@
行销
降档
&amp;@@
43.@@
Sym@@
一班
五岁
利士
哩
坚韧
奖赏
开动
易懂
枢@@
玫瑰花
绞线
翻修
腈@@
表演@@
调查者
辅机
铂金
顽强
ISI
MODE
ception
ubl@@
保税区
安全部
心律失常
新形势下
服务平台
第三十八条
罗杰
联用
腺瘤
蔽@@
露营
new
催化裂化
建筑群
接线柱
相撞
祛@@
科技成果
租契
第一份
赞助@@
除氧器
预备@@
Activity
Ru@@
XJ
传送@@
十二指肠
年人
总要
拔掉
文具
文化背景
有效成分
法分析
準@@
碳罐
置业
药效
012
ww@@
专制
北海
央@@
完井
机组人员
流层
浦东@@
蒋介石
避难所
配以
酱油
附在
OECD
出水口
制程
劳动法
南通
城县
对吧
幂
恒温器
惑@@
放过
检查报告
牛津大学
盘上
相识
着急
空袭
胃口
质粒
造血
ASN
Id=@@
KD
Process@@
同情心
挡墙
接上
腾讯
阶跃
麦片
master
一等
于世
以待
利昂
吼
尚有
我想
投篮
摩根士丹利
无礼
有太多
烟煤
疲弱
自大
较长时间
JSP
产业政策
修好
史蒂@@
无限期
横幅
生根
翻译@@
钦
Ent@@
PDC
eh@@
oth@@
会计信息
内外部
发抖
可再生
商谈
拱形
搞定
电线@@
痊愈
绪
腾出
行使@@
镀锌@@
雷特
EBS
一击
如为
富兰克林
排放系统
无味
汗水
灌输
生殖器
诊疗
陛下
Attribut@@
平安@@
所在区域
游荡
甲壳@@
美国宇航局
萨克
设于
面子
高架@@
cover
前夕
助于
压具
德黑兰
楞@@
火源
牧草
碧
缬@@
职权范围
izer
pliance
凋@@
发展部
后院
尽可能减少
层流
氨纶
演唱会
落在
路过
DG
咆哮
唾液
气藏
火力发电厂
爱丽丝
白菜
金融时报
D3
G3
圆头
塞进
奇偶校验
截止@@
提高@@
枯
波特兰
混合型
溯@@
购房
重大事件
OPGW
Print
sys
ush
上要
交战
内审
发言者
满是
特色@@
破旧
驭
ional
接驳
早先
昏
氩
消防栓
温带
轩
285
Rail@@
人去
伊尔
共事
城市道路
天鹅@@
普利
服务期
模拟量
水路
渡轮
让你在
跨距
NMO
下应
事务部
什叶派
做起
教学内容
木马
火电厂
爪子
装回
骚@@
124@@
ITE
MTS
义务教育
天主
忘掉
摇篮
文集
时未
硬性
美国股市
脑缺血
虫子
长老
888
T5
cstyle
十九世纪
古董
商业区
失明
晖
粘滞
评税
降低@@
Cab@@
OBD
储水
免征
关系密切
同步电机
地价
姬
巡查
弥漫@@
很感兴趣
拳头
海岛
组为
蓄意
IQ
偷走
可调式
固相
性交
效仿
果然
模范
白痴
穿行
跋@@
迷路
223
C7
Dec@@
dian
不绝
制冷机
唉
外资银行
指尖
本票
朴素
滑動
澜
货柜
趁
转过身
近光灯
306
mso
三岁
凸舌
卿
图则
多模
完结
宫颈@@
斯洛@@
杀人@@
第七章
BIM
ping
五星级
亮丽
凭单
已付
弥散
有别于
沉着
泥质
防务
2.3.1
B2@@
Pas@@
分动器
原料药
增效
大众化
市场推广
帮助文件
急切
挨
斜度
盯@@
科学依据
680
Ag
pg
二十八
健壮
发怒
应尽
新闻媒体
第三种
粗暴
网络共享
複
较佳
铰
预测性
FRP
MIN@@
ti
列车@@
包层
层压板
帝王
恭喜
打球
无毛
西海岸
页的
1.50
B6
DAS
Flex@@
Message
PDK
SCS
ink
iy@@
储藏室
光碟
吉尔吉斯@@
地基@@
孤单
瑞德
维吾尔@@
腑
芯片组
钢琴@@

1.10
Init@@
SMP
为生
啮@@
完全一致
工学
报税
替代性
检出@@
熔合
特利
苯丙胺
防尘@@
阻隔
马州
.config
AJ@@
Event@@
Micro
NH
Sav@@
Smart
ison
一元
代收
几张
分节
嫌
永续
瞥
裂开
跻@@
1948
3.2.3
HK
star
一式两份
事是
以西
修身
冷淡
口碑
坚定不移
多年生
屯
摩托
校董
油酸
试验区
远程教育
阀室
骸
CIF
FH@@
ridge
如其
拦污栅
欢迎@@
正数
民法
补水
解决@@
路缘
钩子
集装箱@@
零售价
风冷
AES
Conver@@
Spec
Video
一千
合理安排
工伤
总而言之
执着
朗读
气机
氧化酶
测深
热液
环绕@@
田纳@@
红花
英美
趴@@
阿尔卑@@
雄心勃勃
零售店
Ind@@
aS
归零
机械系统
毛利
沉箱
衷心
讳
调到
青霉素
Exchange@@
Fram@@
功能障碍
北区
取证
可予
呼气
土器
大王
杞
果子
正确处理
管汇
缁
茅斯
茬
酪
佛山
圣人
房东
沿用
滚动条
萘
蕴
这周
铺面
龈
4.10
Diag@@
GmbH
SourceOne
WPS
Wo@@
产卵
十日
咸
澡
激波
玛瑙
皇冠
省长
確@@
莉亚
难免
黄铁矿
BW
Deb@@
cu@@
sa
刍@@
到访
断线
时不时
水罐
火药
经过培训
铣床
Collect@@
HIK@@
可执行@@
告终
员工@@
大笔
奥利
威廉姆斯
弃置
旨
火烧
维基
蘸
青光眼
颖
len
卢旺达
卦
打击@@
拉到
振器
机车车辆
条件@@
欧亚
独裁者
电池板
突击
至该
镰@@
鼓风
OLAP
健康检查
发展史
因由
好些
换上
日为
船闸
里尼
572.@@
C30
FILE@@
PSC
ze
中式
丹尼
主动性
加药
劳力
塔里@@
抖@@
新世界
水银
洛夫
短距离
等国
蒋@@
附着@@
雅加达
AST
SMC
YouTube
cl
不负责任
五日
供水管
变焦
外债
机械故障
氯离子
淀
玻利维亚
缝纫
肾功能
调度员
224
xxxx
取土
基尔
慢性病
收起
时时
瞍
稠
继承@@
耳环
该图
越小
进行谈判
错觉
CSR
HomeBase
dit
max@@
丁烷
亚型
复仇
弱化
感觉@@
淤@@
瞄@@
药剂@@
这能
远光
802.11
aya
msg@@
丸@@
低声
危害性
厚板
实践@@
差价
成本核算
所长
承受能力
Monaco
二线
公私
利润@@
块体
基本相同
引信
待售
木料
汶@@
粟
颌骨
Version
主题@@
加尔@@
小贩
模型@@
淋
瞳
积分@@
继续下去
End@@
Jet
ical@@
key@@
人头
信号源
北非
嘟@@
家庭作业
成败
排水口
新英格兰
流泪
浅水
纯棉
资料库
鞋垫
12.4
374
810
Tre@@
rom@@
上下游
伸缩性
半夜
布伦@@
摄
模式识别
炽@@
物理性能
环境卫生
硝酸@@
聚碳酸酯
配管
铸币
驶入
C6
CRT
书面报告
交易成本
发起@@
平均气温
應
数据库系统
科斯
航迹
郑
里士@@
飞越
Config
Total
University
估价@@
初稿
叶绿素
合理@@
姚@@
封电子邮件
岩芯
市委
扒
扬尘
挫败
文物保护
生产日期
胱氨酸
膨胀阀
自动测试
致癌@@
3200
三台
不在此限
东区
僧
全部内容
八十年代
复验
年产量
截面积
抑
斯德哥尔摩
旋翼
旗舰
本页
煽动
电话机
疯子
病原
确有
花儿
铁合金
219
Extens@@
SDM
之子
停车@@
公升
决不能
坦诚
失败@@
批评家
拜托
提速
泛型
爱护
硬盘@@
范本
议事规则
费尔@@
赔付
轻巧
陋
霍乱
BusinessObjects
KY@@
伯明翰
出借
吼@@
存器
密切关系
成群
无助
桂林
界别
白银
装式
路易斯安@@
轻薄
000000
6.1.1
CNN
一粒
书架
双绞线
德里克
晴
点到
牢靠
疆@@
较量
远程管理
铭文
0.005
Engine
FALSE
M4
Recover@@
init@@
不解
主旨
制冷系统
嘎
年终
扎克
日到
焊件
猕@@
睹
該
调整@@
过账
那件
顺差
＃
CDR
HE
业余@@
处处长
开到
极有
水杨@@
洗礼
行政区
设备设计
IMO
Lev@@
ush@@
⑴
一瞬间
付款条件
函数调用
初始状态
向来
吟@@
快速@@
掏出
浣
禁止@@
过山车
邸
飞快
鸦片
Activ@@
EmailXtender
丁烯
公职
冰山
匡@@
层析
工夫
帐户名
怎@@
换油
整条
水轮
海外@@
珠宝@@
种质
融为一体
贴花
追回
酚醛树脂
龙门@@
EF
Get
IPS
SEL@@
UID
lon
以利
低合金钢
内时
劝说
合同期
慎
战区
打工
散发出
数据备份
星巴克
有多@@
看望
瞭@@
绞盘
边线
过户
近光
高功率
ICT
VIE@@
发泄
消逝
空虚
贺卡
超负荷
2600
mk
从后
别致
原油价格
年的
收银@@
破坏@@
租赁期
维修服务
贯彻执行
走访
EMA
之门
刮刀
原厂
坝基
天津@@
對@@
萌芽
觅
身心健康
过氧化
2.10
内件
利得
剑桥@@
宁可
房门
植物园
特徵
璁
省去
简而言之
装填
视频会议
误用
走道
Cit@@
Wiki
che
ille
保住
區
南非@@
唯物@@
四角
恍@@
松開
油油
深加工
清算组
焚烧炉
眉毛
跪@@
这批
20.1
BDS
Eskom
WHO
quo
丰收
副教授
安全控制
执行命令
欣慰
法术
破灭
腺体
进式
钢纤维
麓
20.
CONT@@
J2@@
一堂
亚美@@
低效
大豆@@
弗里@@
敤
电流表
脱盐
赡@@
转向灯
输卵管
pd@@
之乡
充油
减到
即插即用
国家一级
孔眼
安理会
应由@@
排布
敬业
本区
砷@@
茧
规模化
馈赠
Adap@@
Sign@@
Stage
Street
Vi@@
ina@@
事事
付息
参和@@
扁平@@
梁上
污染环境
淡淡的
淹
第三十七条
粘弹性
脐
采伐
Sales
show
个星期
伤亡@@
几句
办公区
存根
导率
憎@@
政体
棺材
汇编@@
结识
缤纷
聋@@
自治@@
转向节
预防@@
JS
PRI
School
uth
丹尼斯
固执
外置
批发商
拆借
排他性
斯大@@
显像
李克强
筹建
車速
防冻
ELISA
HDMI
not
ren
不尽相同
充沛
分心
分析程序
变数
密封材料
对华
年时
很远
截留
无私
椎体
气密
油性
油炸
港湾
经济指标
要紧
3.5.@@
乳化剂
伤病
卡斯@@
卷绕
垃圾处理
扑克
气象站
瞄
脱掉
观望
赋存
Index
中共@@
书上
周内
夋
无担保
热忱
照管
目錄
露西
.ini
Groove
上星期
奥秘
异丙醇
必須
招标书
歧义
的士
石板
科技进步
自下而上
辞退
达拉斯
505
Are@@
ESB
Hist@@
INF
PMS
Task@@
ineering
rate
井控
录音机
性能@@
生物化学
程序控制
致癌
BMS
CCC
Font
MSN
低层
右翼
外缘
怀抱
抬升
毛虫
清管
溶血
煌
管理性
蒜@@
豌豆
进口产品
连铸
Person@@
Sign
不实
净化器
受邀
对内
扩散@@
雁@@
风湿@@
华东
惯用
感染者
放贷
流到
男子@@
直尺
非正规
1956
247
STP
chu
刚果@@
劣质
大号
成组
所供
手提式
招收
松脱
示范区
芒果
萎
该层
除湿
cmd@@
less
rag@@
司法机关
山庄
本构
金属漆
J2EE
RADIUS
伤人
加速度计
吗啡
啶
埋头
基化
热敏电阻
熨
祈@@
第一类
艰辛
语调
贵阳
高超
麻省理工学院
32.@@
Load
丙方
低头
侧门
切碎
和尚
商标注册
岂@@
操作台
朦胧
泡剂
網@@
芭蕾@@
蝴蝶@@
602
OG
Prog@@
不齐
弗兰@@
村镇
海洋环境
电解@@
省钱
茉@@
远比
通信协议
饭菜
马克@@
Bar
RM@@
发扬
基调
安全级别
扣款
探测系统
筹备@@
约书亚
邮件@@
钻取
CBR
lib@@
中石化
叔@@
回收@@
居留@@
德兰
总体而言
政策性
油菜
渭@@
游乐场
筐
翘
跟前
蹲@@
Cayman
NK
SiteScope
hm3
一栏
习性
共赢
嘌呤
壤
已然
措@@
海口
脱碳
舍入
酯化
天主@@
开口销
心底
泰山
混凝
清管器
班长
MG@@
lip@@
加薪
南面
境况
尼克松
带材
排卵
渗碳
管理机制
织造
腮@@
面片
分供
动静
巴布@@
废旧
渗出
管局
米处
缆索
裁断
卡罗来纳州
外貌
宿费
层次@@
抗压
无一@@
有害@@
正中
液中
物理性质
闪闪发光
雅各@@
End
IMM
dev
处方药
复式
第三十九条
进站
送料
降幅
mg@@
业态
之年
今年夏天
傅@@
免疫力
哈尔滨@@
实时性
崇
帕金森@@
犯规
素食
螂
责任险
Black@@
Case
Fed@@
Mgr
Sil@@
te
侧重
全称
公害
即兴
历年
市场准入
快感
恋人
成型机
所得@@
此域
比方说
消遣
终点@@
聚合酶
肝病
运会
阿美
1920
BD@@
SLS
umber@@
主要职责
包扎
可见@@
回用
埃德@@
失重
往事
扩展@@
服务台
标志@@
硅酸
編@@
自治县
调味
金价
长安
鞣@@
驻扎
Blade
Land@@
Tech@@
不太好
中美洲
期末余额
机座
物价@@
盥@@
翔@@
营业时间
Xml@@
三百@@
中日@@
典型@@
农历
勤勉
启迪
暴力行为
污染@@
波尔
淇
滤膜
第一期
线性关系
而须
草拟
蓄热
血腥
资格@@
首席@@
AMG
rect@@
亚洲开发银行
亲手
使劲
去向
商业性
地区性
承兑@@
武器@@
热烈@@
砌石
非银行
318
Edit@@
RPO
https://@@
yst@@
奥克兰
宵
富士@@
居室
山县
德纳
抓好
放大镜
望去
羊羔
胆汁
采摘
靶标
HEV
Multi@@
iOS
乳胶漆
出人意料
原生@@
将阀
测速
电话簿
链式
闭路
隔热@@
青藏高原
470
主要参数
优质服务
保温@@
修辞
光谱分析
冲出
咀
咪唑
快速反应
数据完整性
根本性
气室
盐度
神学
空客
署名
轴对称
限定符
電腦
鼓掌
2021
5500
Km
农场主
印染
各部
国家电网
孔隙率
安然
晴朗
暴动
未激活
深渊
烃@@
财产权
错综复杂
AH
plic@@
‰
上一年
不锈@@
回位
固定架
建筑风格
惯量
歉意
洛克@@
盛开
芋
转帐
0.20
ULD
USA
亿立方米
同行业
图文
填塞
密西西比@@
弛@@
找平
捷运局
支取
文学作品
桥式
罢免
老大
肽@@
辩护@@
重述
野生@@
面朝
Red
ible
劳埃德
匿@@
卵形
度假区
水率
清算@@
苜蓿
邮政@@
黄石
U2@@
ney
string
两党
后缘
失责
完成@@
抗干扰@@
最新进展
果园
立足于
躬
银行帐户
长着
门把手
Nod@@
幽默感
心脏@@
抵免
架构师
现金管理
腻子
舞蹈@@
车头
酋长国
需对
False
Provider
TEXT
TH
close
四边形
抗病毒
槟
橡胶垫
比作
特斯
绷带
观众@@
隘
靖@@
GEN
JP
二手@@
四是
奥利@@
委书记
安全网
导通
当代@@
排氣
散货
有制
污点
测试点
热传导
股指
KE
ights
一条线
中型企业
减速@@
千里
建在
弗雷
料理
明细@@
消防车
粉刷
长发
骨髓@@
AO
Flash@@
TPS
Ty@@
marg@@
主妇
人时
保持清洁
头像
奖者
将在
廊道
悼
民居
狡猾
知名品牌
血液循环
调理
象棋
这组
迫害
锉
集团股份
SCP
cn
tab
war@@
主义@@
印版
工场
憎恨
抵押权
放着
瘀
移动性
经贸合作
缺勤
袋鼠
长春@@
GRO@@
专门从事
以示
估量
助长
原定
合上
命中@@
喇嘛
婉
成瘾
控制能力
校友
父级
特设
现代主义
现代性
盲点
碰巧
等效@@
红外@@
红葡萄酒
组内
NACE
Switch
jpg
nt@@
scape
临时@@
執行@@
換@@
民意调查
睿
磁阻
绷@@
诱因
赦免
镲
青海省
3.10
不稳
交汇
划出
功率@@
四轮
崇尚
建设部
番茄@@
瘘
血管病
读取数据
调压器
重重@@
EMC.com
air@@
util@@
utions
ward
东海岸
劳动保护
古镇
咒
圣洁
并报
怀里
汞@@
混凝土@@
生产厂
电子装置
病态
磁头
空值
象征性
这一@@
违
Assemb@@
mer
伏特@@
另一面
奸
庸置疑
氧化铁
热熔
眩
神经病
精算
考古学家
莽
转染
一棵树
以法
大吃@@
小数位
干草
救赎
此字
石脑油
第四十二条
融洽
解调
过半数
金山
铺装
键值
Template
Vel@@
买主
作一
坩埚
大屏幕
惰轮
柱头
棋盘
物理化学
眨@@
经营商
综上所述
超人
H5@@
dc
fre@@
oop
中称
为数不多
儲@@
分类器
北爱尔兰
名城
多克
夺目
常会
模版
泄压阀
病虫害
着想
篱笆
网格线
蛮@@
起爆
阑@@
阿拉
17.5
BMP
LCI
Velocity
事长
合线
回忆起
息肉
日用
机械工程
每辆
漂
缅
苛@@
补足
许多年
该病
锥度
S9
UPD@@
led
今天@@
回水
圆心
夜空
寝@@
尖瓣
抑菌
数据安全
照样
粕
脱氧
践@@
轮廓线
1.0@@
MCR
別
加索
勿@@
只想
大大增加
才智
滇@@
电池电量
继任
表达方式
较之
防腐@@
clo@@
传单
保安@@
可于
壁面
承台
热风@@
登记处
睁
自已
自杀@@
芦荟
貌似
通用汽车公司
Operations
SET@@
ors@@
伊斯坦布尔
伦理学
前导
呈报
大小@@
工行
心肺
扩大@@
新界
显露
极富
缝纫机
胡须
舱口
苦苦
视窗
豁免权
那年
Current
Gi@@
hu@@
中心区
于小波
叹息
基尼
民办@@
禄
第二位
脑卒中
芪
软性
边形
驾驶执照
HIS
oC
一席之地
先例
光纤@@
寄出
带电@@
抗争
故障率
本领
标准型
热水@@
焦炉
罂@@
试探
踝@@
鞭
RAP
做工
化学家
取款
四面
壁板
季风
核细胞
流行病
热点问题
电子政务
置评
莉莉
采矿@@
GT2
Paul
cp
写给
呵呵
律师费
急忙
抵挡
法式
溅@@
生产流程
组名
贞
郭
bgt
一岁
休斯
受试
嗓音
定常
山丘
慨
洪灾
海关总署
盾牌
督察
纳州
聚醚
角色扮演
钟形
113@@
WG
不复存在
均质
多通道
指导性
明渠
相冲突
荚
读过
Driv@@
HO
arm
ays
了个
公安局
关键部件
凹坑
割台
外包装
批评者
择
波罗@@
流淌
滥用@@
瘢痕
种族主义
紧密联系
结晶器
罗斯蒙特
腹膜
调用@@
Mn
fir@@
portlet
内裤
出海
切实@@
动因
十五条
参谋@@
取水口
密度@@
射器
巴巴
年华
球场上
百分表
矢
纸上
纺丝
续签
背景色
载于
配上
埃尔
小猫
悼@@
打仗
捷径
揉@@
有机体
消防设施
省会
童鞋
签下
线虫
耐热性
至终
过重
道格拉斯
EXE
分系统
动平衡
圣诞树
思维@@
新几内亚
暗中
朝阳
柜子
登记注册
跳到
预售
额头
DAC
tu
内罗毕
可用@@
吊具
尉
应许
懂@@
抗拉
曲子
果酱
示踪
离析
空域
纯水
获取信息
蓝光
通行@@
齿圈
刚刚开始
功用
南极@@
台站
接收站
改进型
滑行道
读完
长岩
5.3.2
ASR
CX700
Count
Target
Techn@@
单程
回扣
圣彼得@@
塑性变形
层数
市场前景
明胶
研究课题
第四十四条
罗宾@@
脱色
薛@@
行权
试驾
通货膨胀率
鄙@@
重新考虑
Dynam@@
名胜区
后天
在座
强加
挤出机
振型
气旋
窍@@
结构紧凑
绚丽
美孚
老爸
舔
33.@@
俘
信使
凸面
剧情
均衡器
失去@@
常见故障
扔进
数字信号
毛利率
淑@@
爱尔@@
白板
试剂@@
路障
转包
GJ@@
High
NY@@
ford
iD@@
ument@@
古人
室内空气
带进
手脚
摩擦片
数天
无人驾驶
杂物箱
班上
简易程序
缮
舱门
苔
菌体
蜘蛛@@
财务数据
黎
Ca
乔丹
匝道
原体
另加
如期
实时@@
实训
惬意
操守
杠@@
测值
环境中@@
相互连接
磁盘阵列
较晚
辊子
陷入困境
黔@@
NAT
切入点
杂货店
欧姆@@
此为
滚压
玻璃杯
甜菜
藏族
请假
Navigator
Technolog@@
hm2
ucle@@
公路交通
喜剧@@
四名
弯板
截流
投影@@
抚摸
擦干
新世
牡蛎
眼睑
移转
蜗牛
血吸@@
这比
迷恋
長
防疫
预警系统
首创
239
Gold
动乱
压泵
档案管理
横杆
消毒@@
磺
第四十条
等位基因
英格兰@@
ission
一谈
一键
乔纳森
圃
失常
巫师
开始运行
招呼
新政府
查处
淋浴@@
确认@@
苄
谦虚
马可@@
16.5
336
BV
人意
传递@@
演讲者
特种设备
科学基金
纤细
网管
蚁@@
认证@@
请以
闪点
BC@@
Cour@@
distance
两国人民
保人
小巷
源源@@
百万富翁
700@@
dro@@
text@@
不同@@
中后
举倾
从容
修饰@@
反叛
感光
捉
攻读
程序执行
米长
510@@
Model@@
Patch
勋@@
参数表
变化@@
單
大得多
性分析
斯敦
日军
照耀
融通
诺贝尔@@
质量方针
闭环控制
類@@
NS20
Vdc
action
化工产品
协同@@
台地
叶酸
囊括
意外事件
接收数据
有毒气体
测量法
生产实践
用人
结晶@@
肌肉@@
课本
轮换
Cert@@
IHO
NC@@
Sand@@
di
交叉路口
低剂量
恼
拥护
最终目标
残奥会
残障
每半年
献上
疣
石油价格
紊流
联苯
西湖
讨价还价
转接器
迪斯尼
那块
难看
352
FAT
Instance
丈
创建对象
向北
大有@@
寄存
收看
枪手
米制
维和
退还给
酪氨酸
驱车
高新
0.08
AUTO
PAT@@
Panel
cal
lbf
保监会
吝@@
家居@@
渤海
襄@@
连云@@
SOD
之城
几步
分子生物学
巴赫
挤满
沙地
瞳@@
翼板
配电柜
麦隆
San@@
uro@@
一格
乌鲁木@@
人大@@
国别
塑料制品
安全局
就会
性地
支撑力
解析器
顿时
Card
FILE
RIM
V7
ile@@
办公厅
地站
埋地
妒@@
尿酸
怨恨
悄悄地
惧@@
惨
意大利语
接力
接续
放射性核素
易损@@
最常
榜首
正达
汽轮发电
狮子@@
紧急事件
经营场所
绸@@
车流
魔术师
319
Protection
drive
两位数
两旁
互信
仍为
作出贡献
内以
四通
奥尔良
把戏
抓地力
机器设备
豆类
销售业务
首要任务
NAS@@
apse
csv
二手车
修女
充裕
制度化
双歧
外向
廊@@
总分
文人
新郎
机械制造
电子信息
聚酯@@
量子力学
默示
241
Error
希特勒
意欲
挑衅
每页
爵士乐
生成@@
胀@@
该卷
这两项
項目
各点
搜救
訊息
议付
金华
铸模
闭路电视
ces@@
udio
俄罗斯@@
千人
呼吸系统
坚称
是在
次年
环保型
申领
自攻螺钉
踏
逗
饷
马尔
FW
a1
一年一度
克森
化学工业
实地考察
招待会
提示符
携带@@
旋入
旋流器
沃斯
稚
繁育
翘曲
足球队
迪亚
造访
酒杯
键盘输入
阻挠
PAU
Proxy
TLS
⑵
主变
制浆
尤文@@
废渣
慑
所言
最迟
毛毯
相称
私家@@
窘迫
筹集资金
致富
誓章
适航
220@@
SNS
men@@
上瘾
二叠@@
光速
太远
孤岛
底片
报请
拧上
活動
禾@@
網域
自主权
诺夫
酌
重油
鳞片
Var@@
nov@@
object
交易系统
南市
变压
叠层
抽检
振动器
普立
绝地
耗电
说些
读物
谋生
馏分
高可靠性
16.1
une
人因
便笺
券商
历代
原稿
哈马
引燃
怀有
改变@@
管理法
累加
纵轴
羚羊
资源类型
邵@@
鲁棒
.gif
LOC
REG
bm@@
ules
分队
吉布提
建设期
挥
毛孔
药用@@
该词
Sess@@
Touch
Tun@@
XI
ruct@@
修课
受灾
广告宣传
排版
易爆
星光
有所提高
桨@@
火锅
碳刷
變
铁氧体
Machine
SYMBOL
塔拉
定会
总有一天
抓紧
是如此
片子
玖
第四十六
给料
322
IPSec
NI@@
back
ls@@
吻@@
头骨
寮
州区
放射治疗
本港
盲板
端子板
译注
输入框
领养
高耸
NP@@
Tag@@
仿生
内尔
前先
受聘
古罗马
哈利@@
基面
安迪
尽享
并网
投行
松鼠
燃料油
眩晕
自变量
说得@@
资源共享
1001
Clone
受训
嗅@@
基准利率
总产量
掩埋
榫
沂@@
管制@@
该字段
鍏
镀锡
阿尔法
CHEC@@
万亿元
不见@@
出式
口香糖
可图
哒
啦@@
意指
昵称
楔块
特派@@
白光
百分之五十
花色
莹
西蒙
调味品
还须
1953
Map@@
Prov@@
Sequ@@
Wol@@
ZE
var
何况
便秘
前臂
反洗
巷@@
广州@@
照护
第四十一条
轴系
FIFO
FX@@
万向
吃水
拉曼
法学院
洗发@@
生物碱
相吻合
第四十三条
船尾
菊花
薯条
虚拟环境
避难
魁北@@
14001
335
alk
三号
不耐@@
值得一@@
光年
单单
商事
如其@@
妥@@
捞
昨天晚上
有损
未成年
氯气
真是太
第二轮
误区
贴膜
软件工程
髯
Cuenca
中山@@
乌拉圭
光合作用
光斑
加州大学
振动@@
控制软件
既要
檀@@
民事责任
沉闷
混合液
盛装
陀螺仪
马戏@@
Dist@@
IBM@@
SAC
TDC
ki
under@@
侣
保守@@
可定义
哈萨@@
固化剂
垂直线
小姑娘
放水
泌尿@@
潍@@
理财产品
皮下
窗台
类似物
粘液
赶走
遂@@
静默
韵律
Graph@@
ISE
MIG
克孜@@
启闭
孕期
席卷
忽略不计
提前@@
產@@
立陶宛
素描
约旦@@
饺@@
Cel@@
Environ@@
Insight
MMI
pper
伦斯
划算
同一天
新浪
氨基@@
水柱
激光束
脱下
转鼓
造福
釆
JV
固定化
排定
最难
澜@@
烧蚀
花生@@
設@@
说不定
谷氨酸
赔
金刚
鉴证
颗@@
258
Invest@@
地震波
堤防
恳
改道
时间延迟
普顿
杀菌剂
某物
殴打
畅销@@
百科
耐穿
西面
覆盖面
调料
贩毒
鄂@@
Browser
两场
乞丐
刮片
卫星通信
寄宿
应征
愈来@@
改组
新月
潜伏@@
琥@@
电子签名
碱度
类型定义
节俭
诸如此类
越来越@@
Wind@@
fa
专利技术
叙
大幅@@
婚纱
数控@@
残留量
涸
爱丁堡
积蓄
血肿
裁减
输入法
造船厂
5.2.3
Jan@@
习得
产品类别
声明书
形象@@
戮
摒弃
自然而然
装扮
酪@@
重新安排
阿斯
Exec@@
ty
交融
俱
凯利
啟@@
外部设备
导性
小丑
必行
摩斯
文本格式
期为
滑出
轻按
选活动
醌
金融风险
非现金
9999
ISR
ces
内设
受潮
家庭网络
导致@@
尼特
屎
把头
撕下
灰烬
登记手续
相器
空间结构
负债@@
辍@@
进化@@
释放@@
金发
难怪
Kid@@
yi
关押
勇于
安腾
引资
标志物
残余物
求婚
监护@@
经度
芦苇
证书编号
轰
铝土矿
鲜血
277
case
host@@
ime
化成
匣
坞
抗癌
数据系统
洁净室
石榴
磨掉
纸条
萝@@
落户
蝎@@
衰弱
议院
配饰
随同
马匹
525
ACK@@
Mail@@
Radeon
Replicator
Yo@@
ence@@
ets
一小块
信息流
公子
减损
叛军
城中
大梁
护送
排水阀
最高人民法院
水壶
立方英尺
藓
蜕@@
谬@@
MIF
wire
一试
劝告
危险物品
合用
惜@@
本位币
水合
缴存
网络游戏
老旧
胸腺
能动
脏污
记分卡
身亡
遗传性
10.6
Center@@
Force
LOW
NetBackup
Silver@@
WL
kw
mail@@
中叶
乖
件套
失业@@
始终如一
开关@@
打架
找平层
根州
活塞@@
涨价
滑环
牧羊@@
石英砂
笔画
草机
衰减@@
阿克@@
Assistant
XSLT
bb@@
分散剂
国集团
坚持不懈
市场运作
斋@@
经常出现
绩效@@
行径
转向器
轴端
RFC
Reader
伯恩
减半
哈拉
平衡点
文献资料
新来
机和
波里
留心
稠密
赶出
连接数
韶@@
123@@
AW
oug@@
传递函数
六大
关停
切屑
外协
多发
巾@@
水冷壁
水星
涂鸦
礼堂
系统可靠性
落地@@
416
Filter
刺激@@
区域合作
坟@@
天真
安大略省
归一化
归口
捐助者
整合@@
细度
经济型
脑血管
DES
HDS
ense
scripts
不堪@@
不敢相信
值得@@
公尺
华氏
厂内
厘
婴@@
小说家
扩散器
理工学院
第二类
终了
赎@@
邮政信箱
问责@@
1955
Central
使用性能
储运
全场
单根
卵子
复垦
未遂
环上
线路板
练习@@
老妇人
老子
越来越少
陪审@@
1954
4.4.@@
hod
ider
互不
加强筋
句法
喷射泵
戈登
挨着
時間
标志牌
活体
空气调节
脑组织
语音@@
驱散
高纯度
509
hp@@
work
中美关系
传输速率
假想
博彩
受让
奖牌
密歇@@
封闭@@
尽全力
手性
扼要
止水
瑞安
真诚地
美国空军
美方
请教
躁@@
运动场
高等院校
鱼雷
STI
倾覆
制表符
反响
变差
多一点
奥委会
对焦
或应
烟花
环保局
电子学
病床
第四十五
答道
经济特区
统计数字
起誓
转载
进驻
镯
286
701
HF@@
TaskSpace
亚利桑那州
从业@@
副局长
加厚
变动@@
和弦
扣环
易斯
璐
科罗拉多州
管理应用程序
节拍
裹@@
试运转
醛@@
铸机
ECE
MAT@@
MDA
Mess@@
三只
噩梦
基因突变
夜总会
拨出
暗器
淋巴@@
眩@@
短袖
薯@@
补编
许可权
运营部
通訊
露台
非同@@
验算
490
Length
Shape
UI@@
eting
人则
拉克@@
汇率@@
浪漫主义
科技股份
蒂姆
超薄
酸乙酯
销售费用
门闩
阿替
鲸@@
025
IAM
ken
ola
ship
一模一样
仲
保守派
冀
向南
喷气式
土工布
大洲
套用
挖泥船
接过
柒@@
欢快
电流密度
移居
竖起
精力充沛
至下
船运
谋杀@@
貌@@
质心
随心@@
stream
云端
参与@@
扮@@
接壤
格列
检漏
氟化@@
法律援助
科幻@@
细部
网上银行
蓝宝石
警觉
运动衫
重大事故
鏂
CX500
GBT
WO
aces
add
吹灰
尼古丁
折价
況
波顿
篱
维持@@
蒸发@@
踪迹
邯@@
鲁迅
Xp@@
不入
争斗
兼有
奥运@@
理发@@
管癌
育苗
脚架
裂片
调优
超车
近红外
违反@@
钦佩
ACH
Forms
STAR
ber
gloss@@
传奇@@
前要
卷尺
很慢
我见
煤气@@
自发性
议论
调校
越少
追索权
面价值
0.45
3.1.3
FAT@@
Prof@@
Stand@@
content
dir
dit@@
que@@
udi@@
上天
交汇处
仲裁@@
别说
可燃性
新途径
母牛
笨重
纳金
Installer
SEL
俯冲
参股
国家统计局
寓意
币厂
惶@@
摂
数据恢复
斯坦福大学
旱地
款待
英俊
萨达姆
铸就
锯片
长满
门禁
上作
休止
刻有
吸烟者
呵护
埃克森
引述
怎能
投资总额
接轨
洛特
物价指数
百老汇
结存
若能
都市@@
钢化玻璃
355
ARP
well
主站
全封闭
全文@@
土壤水分
头等@@
孩
征求意见
战车
打来
新思路
测定仪
相似之处
CAB
Load@@
Prot@@
asp@@
一路上
保险金额
分给
工会@@
彼此之间
怒气
抵押权人
旋涡
根深蒂固
每间
没见
洗手@@
紧迫@@
联合国安理会
色谱仪
鄂尔多斯
非传统
bmp
下一阶段
两支
体外@@
充注
全行
共同利益
凸台
出现意外
反作用
多哈
学科@@
寿命长
文件属性
沃尔特
泰晤士@@
背着
补遗
角点
讫
足量
268
AMP
DAT@@
MBTA
OB
TF25@@
ifi@@
勾缝
处死
推销员
政务
梗阻
知名@@
碎裂
能干
谣
赛马
马里兰州
313
508
CZ@@
Cs
Fail@@
Nm3
v1
下有
低落
入狱
发展壮大
型腔
外周
无能为力
梃
棉质
氧烷
满时
烛光
玩偶
益生@@
舒张
负担@@
通话@@
酝酿
防火门
集体合同
龙卷风
zi
准备@@
拂@@
新台币
更多@@
柜门
牛皮
特写
玩意儿
票证
耐克
视同
认股权证
边角
陷于
13.4
Navis@@
SMA
Wire@@
东非
劳资@@
息税
成熟@@
拷贝@@
旧版
暖气
替补
标准件
第二级
自由贸易区
转介
n2
uage
全力以赴
写信@@
创设
包装机
性关系
新开
新鲜@@
牙买加
胜利@@
观主义
远高于
钢丝网
销往
GHQ
PROF@@
Portlet
TNF
不仅如此
发送数据
品名
型机
所测
承包合同
掩蔽
摄动
曳
避孕
马来
801
MES
Ps
ration@@
井站
倦
催眠
十七@@
单板
卡尺
响应速度
地役权
战略伙伴
演奏@@
狭义
瞪
精液
翡翠
臀@@
芬奇
设备组
该片
财政部门
转动@@
造山@@
雷管
1234
SuiteVoyager
已登记
思绪
控器
攻势
明市
氣门
江县
流行性
浮筒
清洗机
炙@@
琉@@
皮炎
站长
纪律处分
蒿
读到
電流
LM@@
SP2
eTrust
test
个别@@
内政部
发電機
增塑剂
头晕
审查员
尾端
布鲁克
电泵
虚拟仪器
补充剂
言不@@
路标
过程中将
迥@@
257
ADR
Profile
complexscriptsbold
enrich
令人震惊
公平竞争
内部网
卷起
奋力
妇科
岗位职责
峭@@
情报局
拉里
明媚
爱情@@
现役
用时
盛宴
编入
置式
质量第一
镍合金
闪长岩
陆路
青铜@@
control
start@@
亵渎
允诺
动作@@
坪@@
增加额
恶臭
拴
易受
毒理学
牺牲@@
粱
统计资料
虚拟内存
钥匙@@
骰@@
PTC
中东@@
便器
城市居民
头人
子午@@
并称
潜伏
电解槽
着重@@
碎屑岩
秒数
第三款
脊髓@@
臭味
药理学
袋装
言辞
识别方法
黄土@@
COS
NSN
font@@
mar@@
ower@@
¢
上涂
传教士
停车灯
原子核
地漏
大时
失火
安全门
宕@@
宽泛
崎
开水
易燃易爆
易行
机密性
流氓
点火装置
生出
种植园
笠
草酸
西尔
1.75
Bat@@
FP@@
不管@@
克里斯@@
冤@@
出口量
剧中
华侨
厨房@@
國家
字词
导航@@
扫帚
找矿
数控系统
杩
芹
蔑
财务费用
骨质@@
41@@
ARE
CFD
F5
Reporting
世界性
事务性
余人
光电@@
全民教育
办公用品
导者
帕尔@@
徙
汽封
混入
煮熟
睫
而过
若需
238
PPM
xiang
业者
兴旺
外皮
履
平仓
悬置
曼彻斯特
种族歧视
胜出
践踏
钽
铝业
防晒@@
高估
16.2
Invista
上尉
侏@@
好后
布莱恩
录像带
本地用户
死区
白鼠
记项
709
Gb@@
一点@@
二氧化钛
关系数据库
发货人
启动子
大便
定期维护
客场
射出
平地
性化
森特
满怀
薄弱环节
随处可见
kh@@
令人信服
停靠@@
入世
凭着
异氰@@
挫@@
爱国主义
电子器件
矿用
粘度计
荒唐
药物滥用
进行@@
243
NDT
cha
dl
不分
俘虏
发明专利
变桨
对表
房地产业
旅游景点
未注册
白云石
膨胀系数
该域
趋向于
链球菌
Print@@
Snapshot
不设
二甲
介绍@@
四十八条
密歇根
彼
懦@@
挑战@@
此类情况
男装
盔甲
直肠癌
笨蛋
菲尼克斯
银联
ca
za
令人担忧
可视性
响亮
在技术上
均匀@@
常州
干扰素
归档文件
指头
早饭
段长度
没有响应
玷污
白兰@@
股数
脱氢酶
蔡
订户
赖特
较轻
通勤
门厅
隐私权
集中度
不理
亿人
副会长
复本
得体
德意志银行
打得
摊铺机
政变
方为
权利义务
甘草
矗立
链接@@

273
LI
default@@
ments
一个组
三届
主管机构
他于
俗称
受害
库尔@@
拉脱@@
据点
水泵房
特里@@
翼型
述评
1957
840
Error@@
NetBIOS
Nev@@
bran@@
opt@@
保持平衡
傅立叶
克罗
利害
喻@@
悍
执行程序
栅极
模拟实验
氦气
温州市
穹顶
誓
记事本
误诊
边值问题
Low
先于
凝视
嚏
小结
时俱进
某位
流离失所
消减
绝不能
联产
能谱
节食
重生
299
332
Nok@@
佑
动画片
可作
哎@@
大部份
巅峰
微创
性好
打猎
排泄@@
控制性
校车
癣
英语口语
赎罪
防止出现
Apache
CX300
DMS
HEL@@
TEC
产税
光敏
啟動
少有
散热片
文丘里
机动性
此列
漆黑
烧瓶
理解@@
维特
胆管
胡萝卜@@
表演者
分接
抽气
比特@@
毛重
水族@@
珍稀
经文
缭@@
记录在案
ners
一具
印迹
带头
平衡器
应受
抗击
机械设计
流星
由此可见
石子
纪念馆
运输成本
运输设备
通胀率
释义
阿姨
风险@@
FAS@@
HREF
Station
作出@@
依存@@
公历
几千年
化粪池
名牌@@
哎
斯本
灵长@@
熔丝
电弧@@
臭氧层
萨姆
走高
6.1.2
Rap@@
低浓度
图号
坯@@
德雷
显卡
果皮
柱式
桩体
煤器
现金支付
申报单
粪@@
茂密
計算
1.1.1
14.4
DSM
James
dell.com/@@
lang
亿万@@
内生
反垄断
哈拉@@
埔
打火@@
甲基化
逮@@
钢丝@@
随机性
雨淋
Tom
cf1
play@@
不相容
利差
回退
堕胎
年头
戏曲
流浪
能比
边沿
默克尔
autodes@@
ota
介电常数
功课
卷烟
安东尼奥
实实
影剂
所应
斯利
比色@@
疼@@
睿@@
精确定位
节约能源
菠萝
Cra@@
Dani@@
eF@@
lob@@
世界观
光强
加成
参与度
发言@@
含铁
多半
应设
性欲
抛物线
杰出@@
水母
灵活@@
电磁辐射
石器
硬脂酸
紧密结合
船坞
行将
要塞
赔款
通信网
静置
骨细胞
ANG
LAS
SARS
TG@@
burner
chron@@
par@@
ust
前移
办事@@
哈德
商铺
地址@@
埃里克
大肠@@
早上好
旷
本站
术语表
汛@@
珠江@@
菌群
触犯
诺德
路试
靶向
SES
bar@@
一等奖
万台
交货期
出乎@@
团队精神
外边
承诺书
李先生
滚针轴承
漆面
独特性
绳线
越低
蹒@@
雷诺数
默生
281
6.3.@@
ICC
M20
Mig@@
NRC
Pac@@
SRC
ban
conf
乙型肝炎
你家
劳拉
危险区
又名
夥
数据服务
比较复杂
生子
结盟
试用@@
露天矿
领会
飞利@@
BCT
C0@@
PAS
PCA
Partner
交还
信任@@
倒霉
光顾
发车
坯料
塔式
安息@@
已成
德尔@@
检入
消防队
理科
监督机构
读性
量瓶
锚栓
4.7.@@
ATEX
Hig@@
cal@@
si@@
主干道
五分
保护法
喝咖啡
心绞痛
护岸
斜杠
核燃料
细胞质
角速度
评论员
贫民窟
转租
金融监管
Dyn@@
一动
买来
函数@@
圭@@
基本权利
塞内@@
引言
性格@@
新兴产业
时该
柑橘
牦@@
科大学
试生产
该局
送出
266
DBMS
UAP
XRD
gn@@
一桩
凝血@@
单轨
及时发现
品德
商业中心
弘
支撑架
文献@@
渐开线
生效日
生物力学
稳性
羰基
蹬
陶醉
7500
LS@@
Office@@
SYS
Whist@@
ander
ston
ume
世界遗产
在读
席前
并作
弟子
当务之急
打印输出
时刻表
海淀@@
焓
用该
离子水
系紧
胎面
许用
资企业
邻苯二甲酸
首都@@
1911
Change
Lock
MSDS
TN
XA
丘陵@@
关键所在
北纬
史蒂芬
城市污水
度角
廉洁
或仅
扬州
接至
放炮
火电
维尔京群岛
绸
聚变
4.4.1
Alarm
七八@@
事迹
公诉
其父
列祖
单位名称
南斯拉夫
圣者
太晚
忆
放手
春秋
柱状图
核发
横穿
过冷
迴
链中
4.1.3
DELE@@
Geor@@
PAC
Phys@@
不丹
令人吃惊
入学率
度假@@
惯常
有所改善
期初@@
沼泽@@
版图
瞪@@
而知
职业培训
DSD
NEC
ink@@
人流
允许值
利落
力量@@
卸荷
多芯
妊@@
小心@@
峨@@
库存@@
打招呼
打过
托克
晾干
癖
磨合
罗列
诀窍
鞋类
590
NW
PQ
Pay@@
RACADM
下降@@
二乘
亮显
冉@@
准确无误
可辨认
多夫
大到
波音公司
画画
疱疹
百科全书
短于
硝基苯
药品监督管理局
药物@@
菠菜
觅@@
课后
远古
逻@@
高高
050
117@@
740
VA@@
lect@@
万亩
不言@@
交接@@
优良@@
公司债
勋章
多边@@
我厂
新泽西
期末@@
某型
痴呆症
许可@@
诺斯
40.@@
WT
eon
即便如此
定线
干吗
年鉴
捣
社会各界
票人
网格@@
芝麻
E3@@
KOC
sing@@
二甲基@@
全员
凯蒂
坍落度
宫内
度表
建立联系
成膜
斜盘
明清
洋洋
皮埃尔
直升@@
记述
长袍
236
323
script@@
侧视图
保证期
嗅
工程学院
彝语
恶作@@
技法
昔@@
权法
汉代
电力设备
电涌
看得见
脂质体
贷记
近几个月
门限
Blue
Broker
COM@@
FuelBand
万维网
东地区
伤痛
分级@@
北美@@
布鲁克林
希腊人
游动
片机
用户数
突发性
聲@@
IPP
QI
hl@@
传送器
低等
动车组
咬合
固体废弃物
场站
大帝
安全部门
很重
接线箱
本杰明
水力发电
照明@@
生死
蜂窝@@
連線
ju
中国移动
予以@@
实际意义
布袋
恒压
批出
拉桥
方将
欧洲委员会
毫米@@
污水@@
洛阳
点点
田园
磕@@
私自
简体中文
组在
衣领
通讯社
阿肯@@
CAE
SEC@@
prep
内需
利用效率
单上
大革命
委外
定居点
恼火
成名
木瓜
空间数据
除雾器
驱逐@@
VR@@
ball
cat
iva
ues
单是
即食
名言
在下文
外汇市场
子民
工效
挂号@@
明显增加
格调
毛囊
磁带@@
要件
2.3.2
Name@@
doc
erial
hi
亮光
信号系统
凯恩
外型
孤独@@
岐@@
希腊语
底蕴
慢跑
掺量
放学
整夜
法中
等量
聚类分析
蒜
螃蟹
阀组
鼻腔
UVW
onclick
不足为@@
共处
双人@@
基础理论
幂@@
机构名称
水塔
烟台
皇宫
肴
车位
Opportunity
RAP@@
Read
hod@@
list@@
ost
一盒
克隆@@
内华达州
失事
妨@@
安全意识
掠过
直到现在
西格玛
酋长
金融管理
阿迪@@
ALM
Hitachi
RTS
TCC
业内人士
任选
俘@@
偿还债务
内环
哥特
国家税务总局
库容
执政党
挥发油
曙光
本土化
款人
海上@@
申述
畜牧
芜@@
规律性
铈
隔热层
预压
Jul@@
不负
椎
沙星
洲际
海中
灼伤
牧民
短信息
碳原子
随以
100000
DSS
IDE@@
Ital@@
Jack@@
Sci@@
fc@@
一百万
伯南克
具体操作
哗@@
国界
开窗
环评
矮小
螺线管
财政收入
质量事故
长出
2.11
PW
井组
仰望
向西
塑料薄膜
实验组
幸运@@
所欲
拉丁语
搜索@@
普及@@
有钱@@
滑冰
潭@@
烤炉
疏远
矿泉水
纳米比亚
耻辱
诊室
豪斯
贰@@
阅读@@
EH
where
倒车灯
光泽@@
如若
扫罗
教派
柚
機械
microsoft@@
不因
中之@@
代用
传动@@
借钱
年利率
拼音
正常@@
殊荣
毅力
民兵
磷酸酶
神殿
螯@@
邀请@@
防伪
.as@@
12000
730
AFS
Asset
HQ
何等
军事力量
出物
多出
奥斯汀
就任
帕特里克
拨叉
旱季
权责
流水@@
盐类
睦@@
缓冲液
酮类
阳性@@
BHICS
RADEON
SCI
rel@@
上风
书房
会想
大山
奇怪的是
成本增加
拘
杂乱
桔
欺负
正线
电容式
相当@@
贝叶@@
遵行
198@@
CDR23
MPP
V0@@
ese
ument
侵
单宁
声调
截获
抗静电
楞
活性污泥
烟叶
置身于
羹
耗电量
药片
钝@@
非晶
高锰@@
TIA
pc
公立学校
半导体@@
宾夕法@@
平均价格
攻丝
教练@@
灯亮
玻璃板
稚@@
窄带
试卷
转折
还清
鍔
475
Form
JDBC
Modif@@
一文
业务人员
两片
中间层
休息时间
冲进
准直
同等@@
房顶
批判性
潜入
煤田
犹
生产国
磷酸化
税制
稠油
苛
MDB
urn
傳送
分子@@
千瓦时
开发计划
才行
溅射
疝
经纪@@
调低
赫尔
铁锈
镶板
.g@@
36.@@
Audi@@
Moz@@
STR
之源
之神
产品规格
卢布
喜乐
并拔
我吗
政协
瓦纳
硅酮
组织培养
软垫
轿@@
酥@@
Curve
IOM
Lee
NETGEAR
Peter
SiO2
gen@@
一心
人际@@
会厅
使用手册
前卫
危地@@
基本面
声器
大都会
好似
宪政
干事
毒者
界处
纹身
而作
表示同意
识字
读写@@
阿塞拜@@
马赛克
Wa@@
ult
公正@@
套圈
奥兰多
威斯@@
媚
尘暴
所作所为
日均
涡旋
热气
稳步@@
美人
脑膜炎
踩踏
铁道部
马尼拉
澳门@@
灏
评语
倦@@
脲@@
酥
lb@@
恶性@@
沈
编程@@
眷@@
耻@@
EG
※
哟
喹@@
忏@@
毗@@
漱@@
這
П
箔@@
rit@@
С
涟@@
蔑@@
镓
沪@@
級
蛤@@
谘@@
颌@@
妖
撰
燔
岖
死亡@@
繁
舅@@
颓@@
向阀
彼得@@
签订@@
纂
ange
性病
鐢
睦
碍
祁@@
观设计
Flu@@
太平@@
扩展性
邱@@
惑
桐
鎴
露天@@
怜@@
霹@@
胍
包商
毕
丫@@
哥伦@@
搅
萘@@
部门@@
ran
丧
斯达@@
次世界大战
ync
懊@@
农民@@
爹
ame
΅
蜷@@

業
澶
跚
辟
Virt@@
缔
楠
菲利@@
隅
音速
頁
强制@@
糯@@
耿@@
筏@@
天晚上
麝@@
仑@@
位计
排放@@
淄@@
ering
事业@@
异常@@
前列@@
噬@@
癈
利益@@
娴@@
瑶@@
臼
氡
碎机
菁
近似@@
伽
麟
吧@@
霓@@
携
涕
妈@@
没有@@
退休@@
Dav@@
某种@@
楣
吉尔@@
茄
redi@@
▶
一次@@
幸福@@
爷@@
迸@@
唠@@
石灰@@
菱@@
钼@@
雌
芜
Jam@@
磐@@
豫
Lib@@
炖@@
糠@@
腺素
仆@@
耖
蔬
蚤
裁判@@
锆@@

formation
蕨@@
Lot@@
各种@@
徵
结核@@
bo
动画@@
ache
啸
普遍@@
科罗拉@@
赣@@
道路@@
囤@@
加斯
挚@@
新西@@
yc@@
玲@@
丈@@
砝@@
鎏
巩@@
恪@@
榻
睛
肠癌
苞@@
輸@@
吏
嘗@@
曹
辗@@
選
靓@@
船厂
蔷@@
苟
Valid@@
勺@@
lang@@
一小@@
廓@@
w.@@
关节@@
羞
腱
南省
戏剧@@
掀@@
变速@@
峙
dd@@
悖
劈
VW
各样
弊@@
標
皮书
糜@@
剔@@
愧@@
設
孪@@
蚀@@
蛙@@
葡@@
:/@@
兮
恳@@
药性
拙@@
新华@@
主持@@
氏体
藐@@
遐@@
同性@@
寫
汶
ontrol@@
吱
啪
氰
集团@@
土耳@@
巿
泞
烁@@
琢@@
蔓
上安装
异化
黛
湘
状体
钎@@
操作性
苷@@
師
绢
聪@@
荧@@
毫
镑
拧@@
牲@@
鲤@@
气罐
ε
個@@
数据库@@
泼
聪
谎
亚利桑@@
輸
吾@@
桁@@
旭
璀@@
全部@@
孩@@
拭@@
細
虑@@
婉@@
斟@@
礁@@
鱿@@
expnd@@

內
哺乳@@
Datab@@
漳@@
vi@@
烛@@
狠
芥
赊@@
辈子
宙@@
对照@@
弹性@@
▪
倾销
猖@@
磊
宣
疟@@
茎@@
踩@@
仕@@
喙
瞎
葵@@
定书
肼
二烯
信托@@
冲击@@
饱和@@
交换器
水层
血液@@
谘
ject
辫@@
流体@@
忿@@
胰
频器
尔多@@
伸缩@@
噜
调器
敚
象征@@
pport
不计
娃@@
枸@@
Fr@@
朽
碌
妹@@
閱
Solar@@
关联@@
高层@@
rial
¥
中性@@
瘠
想不到
提取@@
僚
创建@@
油站
蟹@@
那州
嫌疑@@
揍
喱
梗@@
馅
EED
纲@@
尔文
谭@@
鹏@@
戚@@
花板
ption
伊斯@@
加强@@
經@@
西州
雁
÷
意志@@
水口
盂
瞻
Style
eR@@
无论@@
蕾@@
铵@@
镗
丙烯@@
形资产
捻@@
歪
紧密@@
逢@@
障碍@@
魁
Source@@
催
悚@@
柚@@
璧
罢@@
翰
狠@@
苄@@
呐
歹@@
电子邮件@@
昼
蒲
霾
修改@@
夷
姬@@
鸦@@
炊@@
祠

谱法
叁@@
根据@@
結@@
间歇@@
线路@@
坛@@
煞@@
滕
制片@@
兴奋@@
彰
折射@@
煲
荤
哀
桉@@
棠
盏@@
绪@@
蔽
随身@@
197@@
博会
厉
吸附@@
呵
芹@@
犊
缉@@
裂化
夾@@
朋
吕
烩
警示@@
适用@@
Mach@@
SYMBO@@
席会议
疹@@
第三十@@
需求@@
激活@@
玫瑰@@
宵@@
搴
滋
唯
吉林@@
撮
控股@@
淬
阈
匝
役@@
毅@@
网膜
aract@@
荟@@
¦
初始@@
务局
旳
铢
受人
恰
桦@@
赎
电阻@@
ont
⑶
壤@@
撤
泣
鞠@@
亚历@@
回忆@@
目表
Upd@@
同于
旭@@
豁@@
踝
雍@@
soc@@
殆@@
裳
汪
行道
Propert@@
姩
梧@@
萦@@
produ@@
ª
殊
潇@@
障@@
苣
♦
多尔
易燃@@
朔@@
显著@@
物业@@
珊@@
路易@@
靖
取得@@
哇@@
夯@@
不在
相关@@
开始@@
載
锗
咨@@
哗
拣
箍@@
Bus@@
买卖@@
沁@@
猿@@
租赁@@
通货@@
idth
寎
特勒
蟾@@
孟
冀@@
憎
绷
负责@@
外部@@
會@@
薰@@
实地@@
宰
秤@@
粹@@
雳
持续@@
骂@@
矾
砾@@
崖@@

峻@@
淬@@
珂
视觉@@
咄@@
获取@@
ift
虏@@
蠢
酗
俺
地力
招待@@
搐
维多@@
阂
抖
獗
簿@@
耐磨@@
峻
點
Sett@@
瑙@@
蔼
蟑@@
漪
阻尼@@
亢@@
奥会
蹭
避雷@@
侨
放大@@
桡@@
镗@@
各向@@
所为
波罗
滄
狄
慨@@
狙@@
Applic@@
Α
Hom@@
勬
瘙@@
辑
渥@@
羌@@
发布@@
挥发@@
潜水@@
灼
璨
疸
確
穹@@
考古@@
颞@@
可燃@@
瑰@@
〃
蝗@@
辖@@
产阶级
公用@@
捧@@
匆@@
呻@@
唑@@
完好@@
痤@@
舆@@
谓@@
屿
沥@@
玖@@
糠
聲
董
合器
淮
在此@@
微结构
铯
殡@@
绊
Men@@
提琴
气口
焉
萼
如说
屁@@
瓣@@
辊@@
干道
琛
者之间
斓
柑@@
耍@@
org

裨@@
铟
青春@@
order
勫
焕@@
跛@@
髁
鹃
秧@@
Ф
弘@@
殉@@
莞@@
删
呔
殖
Fact@@
汾@@
bus
呐@@
ube
骼@@
凳@@
驿@@
ublis@@
芝加@@

orm@@
矿物@@
窜@@
鑫@@
Fu@@
勋
燃烧@@
高高@@
娠@@
續
膈
咏@@
蜗
匝@@
噶@@
寰
汽车公司
禧
笆
辟@@
屹@@
杈
苟@@
镦
圭
燃气@@
轻重
邃
協@@
渔
鳗@@
习惯@@
兢@@
泡沫@@
绚@@
陇@@
兄弟@@
提出@@
晦@@
Desk@@
Prox@@
分解@@
帕特@@
讥@@
骇
ω
人民代表大会常务委员会
朔
牵
茴@@
Micha@@
不相同
絮
ρ
垢@@
夾
ror@@
很久@@
茵@@
⑦
幔
新兴@@
意味@@
速器
喇@@
薇@@
豹@@
Business@@
孚
彬
梧
鳕@@
別@@
嫨
身于
Frame@@
以太@@
阪
收益@@
斋
澎@@
絮@@
问题@@
but@@
ital@@
澡@@
Mich@@
眸
置疑
糙@@
羚
庐@@
榷
沼
ator@@
扮
蔻
铂@@
厦
悯
漓@@
驶
Team@@
凰@@
总的@@
辜@@
暮
贿@@
rist@@
妥善@@
矣
绯@@
拂
牛仔@@
精确@@
迪斯@@
oot@@
啸@@
瀚
铐
分布@@
置图
辫
content@@
税务@@
褥@@
二条
wind@@
赦
音响@@
嬪
绥@@
子里
布什@@
颐@@
额定@@

俏@@
冗@@
夼
叩@@
掳
涯
锣@@
Nik@@
晾@@
阴极@@
徇@@
總@@
丨
喷射@@
窘@@
崽
世纪@@
奄@@
成交@@
楷@@
蓖@@
逍@@
Band
埋件
琅
腥@@
訊@@
Bit@@
Orac@@
齿轮@@
决权
毡@@
菱
克斯坦
外光
坐标@@
文本@@
蒽@@
鸠
Share@@
偌@@
琅@@
娱
婷
經
岌@@
帜
开发银行
突破@@
立学校
瑙
臀

伊利@@
匍@@
实话
尼克@@
波器
蚓
饲
嘱@@
文法
侍
實@@
活率
火器
爱德@@
Dan@@
Rom@@
沂
连锁@@
熄@@
煤灰
翌@@
助者
忆@@
砟
缉
邢@@
探测@@
气站
除此@@
‐
娟
寄生@@
谛
PEG
icro@@
中介@@
比利@@
遴@@
琪@@
痢@@
跨国@@
魅@@
御
脯
Press
伺@@
幽
铣@@
檩@@
洁净@@
arch
面图
伶@@
侥@@
奢@@
挚
谍@@
︹
故障@@
咳@@
標@@
熠@@
蓋@@
ange@@
克力
夊
妾
庚@@
揽@@
豚
馨
ustom@@
冕@@
秈
紝
阻燃@@
茸@@
請@@
∅
亚特兰@@
单号
妓
涤@@
珈
缀@@
翱@@
Perform@@
TY@@
妪
佇@@
嘻@@
査
琢
绩@@
进制
钵
eld
碍@@
眨
EMC@@
Stor
土矿
景气
權
畸
轩@@
俚@@
啾
姻
瘾@@
孝
缪
疽
顺序@@
睬
诱
電器
匣@@
耆
顺利@@
督
芸@@
金刚@@
入式
崔
迫切@@
撳
沽
纾
娇
慈
捅
沼@@
莺
议事@@
钥
行业@@
剽@@
姓@@
π
☆
玻
隧@@
佔
蜍
构成@@
蛹
nn@@
oom
揣@@
摧@@
格鲁@@
阿姆@@
А
锉@@
告人
τ
寡
既往
翁@@
异步@@
骋
交道
煽@@
驗@@
斐
砧@@
击者
孰@@
恶意@@
洛杉@@
x2@@
丽丝
加利福@@
掸@@
杭
炔
脓
舅
Vers@@
惟
鍖
铆@@
绍
瀛
率高
當
茁@@
滃
粤
鎸
骷@@
切尔@@
妞
彷@@
範
NET@@
屡
描
插拔
枫
鹭
咧@@
疲力@@
備
约束@@
养老@@
啼@@
彦
記@@

遞
架构@@
矶@@
言之
識@@
诫
現
眎
统治@@
西西@@
單@@
廖@@
楂
激动@@
蜻@@
铍
Support@@
传染@@
哝
哼@@
icle
闯
注意@@
痕@@
而上
骏
pli@@
骏@@
垩@@
巍@@
教士
當@@
鳄
stance
残疾@@
粗糙@@
莅@@
漾
粘结@@
鍑
NIK@@
pha
二零@@
哉
槌
槐
蟀
不好@@
咕
好了
擻
置信
肟
褒@@

滕@@
保税@@
瑜@@
笃@@
颞
吩
權@@
緊
诅
委员@@
擎@@
锹
Ⅴ
務@@
耘
侠@@
峦
洱
Vide@@
濆
疱@@
硐
赘@@
鏍
irt@@
夐
哈佛@@
委托@@
淳@@
篝@@
袱
计数@@
着色@@
轿
邹@@
ited
涛@@
燥@@
狭
痣
谭
沉淀@@
满意@@
阈@@
拉圭
叼
拷@@
氚
沒@@
疵
压表
銮
姚
眺@@
瞥@@
苍
侬
民意@@
浪漫@@
混凝@@
渤@@
痂
扒@@
們
吲@@
捂@@
熄
蜓
唛
狡@@
琵@@
¶
唬
Objects
彦@@
敗
狸
疡@@
土工@@

俑
固体@@
搟
攀
党人
峪
蔗
Site@@
哚
維@@
umm@@
範@@
過@@
不起@@
搀@@
渍@@
骆@@
分辨@@
叽@@
恭
窥
耦@@
虫害
у
不大@@
俭@@
溃
由此@@
紊
卟
國@@
谅
Anal@@
镂@@
以上@@
壑
.co@@
应急@@
葫@@
隋@@
蔗@@
鏃
敛
怯@@
蚀剂
谧
鳃
鸵@@
亢
沐@@
滅
解除@@
邓小@@
讼
釜@@
憧@@
柒
罗斯@@
蒋
屬@@
电缆@@
柬
炫
疱
瞻@@
重庆@@
璃
Ray
婿
绉
褪@@
俏
帧@@
怜
瞌@@
糜
胳@@
运算@@
閲
勪
谕
学金
岷@@
撼@@
榫@@
武汉@@
葡
霆
.microsoft.com/@@
ormal
啬
绠
罗拉
非营@@
呮
咪@@
寝
恢@@
码器
信服
庇
挝@@
潦@@
砺
驹
%@@
Templ@@
obe
青岛@@
全力@@
敞
歼@@
猥@@
CLAR@@
地面积
夭@@
惭@@
Configu@@
电性
窿
統@@
荨@@
疮@@
绌
铑
咐
报价@@
本科@@
秨
竿@@
绎@@
西洋
Trust
▲
◄
彼此@@
憬
柿@@
电池@@
稀释@@
繼@@
脯@@
诫@@
缄@@
†
詹
Ident@@
合板
幕式
格兰
肱@@
诵@@
扳

Goog@@
匕@@
秽
花园@@
︽
东道@@
基准@@
櫓
殊@@
渚
热性
荇
Fort@@
不论@@
中海
秸
踵@@
畸@@
禀@@
號@@
媚@@
扦@@
极管
赘
髅
伎@@
髌@@
桦
湃
臻
单元@@
垦@@
姐@@
涓@@
瘪
闽
保修@@
威廉@@
慷@@
期徒刑
議
志愿@@
恙
ias
自来@@
幼儿@@
娥
惰@@
鞘@@
黔
Б
汰@@
渎@@
現@@
克兰
话说
悴
疙@@
酌@@
镧

腭
颁
戊
涎@@
分泌@@
剪贴@@
湮@@
理查@@
許
В
壶@@
林顿

呵@@
嫉@@
導@@
蜚@@
阁@@
Pers@@
cription
亚马@@
復
搂
撕
識
闺@@
吸烟@@
穹
针织@@
饼@@
写字@@
吠@@
桅
外商@@
盼@@
腌
邂@@
鍜
镊@@
SSE
ii@@
κ
佣
辽
房地@@
编译@@
腔镜
钇
刪@@
寐@@
橥
西门@@
初步@@
呕
枉@@
矾@@
重复@@
顯@@
榔
赃@@
鑰
撮@@
艰
菌剂
元法
瓢@@
祢
Py@@
兮@@
鳄@@
Servic@@
灿
灿@@
砧
萸
戛@@
掐@@
衍@@
莴@@
虞@@
纪律@@
蜱
Ў
立足@@
诧@@
鄂
报警@@
攒
製
顾问@@
Τ
即用
巯@@
憔@@
石方
逅
aracter
全书
忽
遮
汝@@
珐@@
㎜
殴
流感@@
躬@@
TEC@@
内华@@
嗦
棵树
詳@@
轶@@
诙@@
芦
触摸@@
鼹@@
Refer@@
屽
巴马
牧业
芩
骞
⑷
华尔@@
琐
痫
经理@@
蚯@@
不尽@@
世贸@@
克林
琶
嘟
痘@@
纳米管
貂
酣@@
嗣
义词
媳@@
梗死
珑
勭
浣@@
色金属
驮
岸线
蚌@@
遮阳@@
霖
Catal@@
У
來@@
惚
箴@@
沽@@
筿
印度尼@@
庐
皖@@
威士@@
展商
榕@@
模块@@
粟@@
Energ@@
恬@@
文物@@
發
瞒@@
吡
妃@@
热油
行
年生
看得@@
荐@@
骡@@
Lic@@
丅
呭
渊
藜
鐩
枢
緊@@
贱@@
密集@@
瞅
erra
原则@@
寂@@
帷@@
当今@@
荆
钕
钣@@
屾
棺@@
http://www.microsoft.com/@@
俾@@
瘩
均衡@@
新生@@
氙
聚力
Typ@@
宙
獭
综
亵
傍@@
嘀@@
型肝炎
岚@@
惶
涯@@
厮@@
滴定@@
焖
负载@@
所罗@@
纪要

纭
蒸馏@@
资讯@@

unic@@
侃
入学@@
袤
鏀

Medi@@
札@@
跆@@
aul@@
注目
锭@@
➣
一体@@
iki
О
濇
爵士@@
癜@@
眷
睑
踱@@
ager
啊@@
孤
合格@@
榄
萜
LAB
М
娴
柴油@@
處
唆
迩
啃
绘图@@
蟋@@
皙
馒@@
amil@@
加勒比@@
挛@@
迅
拎
焙@@
鞣
倘@@
鏄
麋@@

介电@@
員@@
坷
闃
阿姆斯特@@
plication
厩
溺
衫@@
裘@@

参加@@
孳@@
槐@@
Joh@@
吁
皈@@
颐
▼
毛泽@@
袜@@
闵@@
攫@@
立大学
臆@@
Replic@@
坟
媛
栎
莽@@
即时@@
叧
宏观@@
巅
格拉斯
膺
類
Admin@@
妍
寇
换器
蹈
锢
亚胺
盔
囚
巴基@@
掣
洽
膳
娲
溧@@
統
缚
К
利尔
审查@@
蘖
ml@@
眯@@
谣@@
牋
艏
視
驼
厕@@
嶅
斯通
瘀@@
扛@@
搜
浏览@@
It@@
占有@@
咫@@
郝@@
奋
㈡
潼@@
One@@
shot
巴拿@@
拙
舶@@
啁@@
從@@
回顾@@
寰@@
水冷@@
髂
ength
工商银行
曳@@
清晰@@
目镜
菅@@
路由@@
蹈@@
博物@@
吠
阳区
峪@@
惫@@
蛀@@
褪
Talk
遠@@
inu@@
崂@@
愕
懈
推进@@
核素
莹@@
靴@@
藕
黝@@
反对@@
尹@@
瀵
織
oli
人道@@
盹
解析@@
땡
噬
疑难@@
埃德
姗@@
癫@@
陕
NetW@@
羁
衔@@
谟
扛
還@@
暧@@
滇
绅
茜@@

嚼@@
龋
呜
大理@@
悸
酞
镐
骰

依赖@@
心病
务人员
渝@@
瞒
艘@@
Jav@@
ontro@@
吋
婊@@
撩@@
虐@@
Produ@@
周围@@
瞬
闫@@
静静@@
外线
秩
↓
琦
摹
然不同
翰@@
嚎@@
奕
靡@@
Bul@@
咱
害性
扉@@
碌@@
㈠
撇
楷
璶
讽@@
足轻重
选人
鎺
鏉
阮@@
독
呕@@
忡
斷
特许@@
荚@@
涪@@
贻@@
躏
逞
﹕
僵
协商@@
瘸@@
祺
菁@@
郫@@
姥@@
弈@@
扪
橘
洱@@
竞
腭@@
蹦
铎
spect
加州@@
篪
萝
斡@@
涎
烛
蝉@@
報@@
撌
椤
电路@@
Wi@@
Р
低压@@
嚷@@
歉
瑜
胁@@
荞@@
萼@@
货物@@
蹂@@
咏
嬗@@
岗位@@
η
姘
沧

iPh@@
十九@@
畴
关注@@
蒿@@
讬
镆
SDL
冷凝@@
唧@@
娄@@
对比@@
蕃@@
蕨
语法@@
轮廓@@
伦比
孟加拉@@
美利@@
虞
⑧
销商
rich

会者
勉@@
戟
欺
聂@@
词汇@@
馁
Navig@@
瑶
瘟@@
鸽@@
oog@@
rect
啄@@
嘶
壕
外资@@
＄
入量
机动@@
殅
缕@@
铛
不敢@@
俨@@
土机
硉
Calib@@
忡@@
栋@@
樊@@
诋@@
钍
＊
吁@@
鼬
獾
xi@@
挽
睾
糙
蚜@@
鍊
字符@@
弥
挪
萧
俄亥@@
承诺@@
碇
蕉
藜@@

stre@@
ULL
erp@@
无缝@@
FQ@@
侗@@
便携@@
剃
喹
讼@@
鏁
順@@
哮@@
普勒
曦
枷@@
模具@@
确保@@
胭@@
韭@@
喽
录名
倪
灸
Σ
拉丁@@
掳@@
梓
甫@@
癫
胶原@@
蝠@@
啪@@
垣
妓@@
描述@@
焚
憾
海地区
节性
贯彻@@
踌@@
僻@@
匐
匠@@
踞
¿
冤
匈@@
涧
碲
继任@@
苞
You@@
不复@@
切断@@
券@@
矽
方程@@
涤
弛
捷克@@
艉
蛤
俞@@
序列@@
意外@@
憑@@
有线@@
粽@@
郡@@
雍
鹫
呯
唤@@
嗤@@
旅费
缇
藏室
炬@@
璜
铒
马克思@@
世界大战
为一体
毂@@
汀@@
DMP
克萨@@
分卡
婶
筵@@
認@@
徑
掷@@
轴箱
鳖

Conso@@
word
棺
涝@@
畾
窍
Qo@@
叶绿@@
建议@@
指标@@
漓
荼
萌
誌
部长@@
锄@@
Т
咱@@
笺
威特
氖
浑
結

不
恿
檀
祘
膳@@
誉为
遏@@
揚@@
浙
蛛
蝙@@
长的
崟
档文件
玄
Enterpr@@
攒@@
耙@@
蜥
酞@@
傀@@
禄@@
课堂@@
﹜
嫂
巡
掏
榛@@
皓@@
篓
血红@@
鍥
agu@@
爲
纾@@
ther@@
〞
哆@@
哈尔@@
愚
施加@@
诬@@
∠
总表
暹@@
闪闪@@
亥@@
谦
ycle
≈
♫
决定@@
参赛@@
瑰
隧
鳌
Hyp@@
兖@@
怂@@
挟@@
槛
辰@@

孜
尽可能@@
开展@@
最大@@
湍@@
纳税@@
蚴
邱
靛@@

gram
刁@@
惋@@
渥
炽
骶
奥林匹@@
阐@@
XY@@
乌兹别@@
力器
娆
螟
郸
雄心@@
颚@@
嘿@@
祟
紨
联机@@
褂
閒
鳟@@
嬭
恢
拴@@
缰@@
罔@@
蓟@@
麦当@@

凛@@
嗝
腋
钜
龚@@
야
惮
破产@@
粺
菉
Fire
一下@@
壬@@
尽量@@
搓@@
Pad
不觉
事会
娓
峨
癸@@
薰
贼@@
饺
Tot@@
禺
啃@@
埗
瞩
负面@@
鍐
Cloth
SYST@@
伫@@
挟
谈会
一十
倔@@
抛物@@
灵敏@@
碾
蚜
调度@@
阉@@
下一@@
之为
攘
斤@@
焗
粹
安大@@
揭
柑
诣
全权@@
昭
闫
鲈@@
噁
萜@@
鑒
锂@@
俐
并非@@
庚
淌
潺@@
眺
维尔@@
缃
語@@
鸦
麝
ht
煌@@
蝎
偎
绗
人力@@
瑁
蝉
鸠@@
⁄
啰
禹@@
始终@@
汰
煞
璋
冊
建设银行
傣@@
囧
堕@@
萃@@
Manage
摩托@@
沫@@
町
锣
犀
绀
靛
马斯
髋
义务@@
制冷@@
寧
呱@@
砰@@
膨胀率
蝠
郁症

ф
天文@@
洄@@
臼@@
蓉@@
cover@@
啟
啥@@
喀
寥
氘
续费
苓
葺
褥
轴承@@
鹑
丫
宸
彪@@
泾@@
苎@@
揑
桁
绱
黨
啜@@
挖掘@@
明显@@
濮@@
牲
瞰
秩@@
评论@@
麒@@
yle
嗡
袁
┪
全民@@
司令@@
柬埔@@
貂@@
陋@@
鼾
Μ
埠@@
钧
馨@@
嗗
禹
蔼@@
踊@@
龋@@
么@@
沥
煨
盢
秧
萍@@
袒
麸@@
龈@@
印花@@
嵴
贫民@@
蹊@@
阑
嚎
胛
腆
魇


Note
岚
崭@@
拈@@
瘟
私有@@
艮@@
酵
階@@
則@@
樻
鹊
Found@@
и
朽@@
泥浆@@
環@@
記
蹩@@
痹@@
絋
攘@@
楠@@
粘剂
紧要
胫
蓟
谤
clas@@
以色@@
原油@@
技术上
祷@@
¤
剿
吮@@
莆@@
鳗
帖@@
枇@@
梓@@
裴@@
鄱@@
土墙
潼
蝇@@
aLUN
压口
斯勒
縮
鍘
鹌@@
嘻
愉
撷@@
笃
忒
穝
裱
试者
青藏@@
Plat@@
晟
評@@
名胜@@
歉@@
辙@@
р
啡@@
嚣@@
绯

yz@@
俸
分隔@@
坍@@
歧
霄@@
驗

汽轮@@
箕
絏
羡
闰@@
度高
贪
蹋
¾
廿@@
濡
粳@@
◇
体中文
ooth
‑
☐
内政@@
呢@@
徕
攥
炳@@
癜
監@@
贲@@
跷
鑑@@
圬
绾
能性
预测@@
升机
占有率
咚
姻@@
选框
鈕
ramet@@
咎
械@@
泗@@
篡@@
蕉@@
遵
鹃@@
加速@@
卯
瀑
犷
管器
蚪
證@@
噩@@
实习@@
呤
填充@@
家用@@
悍@@
祠@@
窟@@
翩
虱@@
蚌
骶@@
出人@@
揣
因于
愣
燧@@
箴
鲱@@

勉
期付款
烧炉
郸@@
馅@@
架结构
臃@@
蛭@@
х
´
伅
嘱
胛@@
포
㎝
兘
讀@@
钴@@
隼
彪
斩
示威@@
苷酸
訂
鑳
阎@@
雯
鲁棒@@
鸳@@
傅
鎮
¼
玻利@@
閿
帳@@
邋@@
霄
燈@@
嘘@@
对性
水力@@
種
薛
袍@@
資
뵨
witch
停机@@
国主义
对称@@
斛
椿
瞶
钞@@
青海@@
˙
丆
渺
苇@@

岱
脖@@
舒适@@
蹑@@
务员
哂
惺@@
拰
楦
樾
诩
鎻
И
倘
吉布@@
命令@@
琌
辈@@
乓
擬
邑@@

汾
特网
Enter@@
亚历山@@
儡
哌
土库@@
疵@@
稱

Tas@@
份文件
彤
絡
间隔@@
饥
麼
密西西@@
昙@@
涮
理工@@
茧@@
远程@@
遢

堇
痔@@
竚
醣
剁
埔@@
壕@@
姥
Analys@@
虔@@
赈@@

Effect@@
佃@@
推广@@
漱
煦
⑸
條@@
钌
克逊
據
話

唧
娑
陌@@
咋
正比
珊瑚@@
跷@@
Xt@@
о
昧@@
榆
燃料@@
疲
菲律@@
視@@
兀
痒@@
祷
芭
赣
踉@@
铱
Cross@@
沱@@
腱@@
高峰@@
鬃@@
巍
詢
轭@@
鎬
廖
时刻@@
肱
镌@@
麻省@@
共和@@
叮
喳
孀
撚
栀@@
棰
秙
ista
履行@@
桅@@
粄
藩@@
蟒
麸
Unic@@
垛@@
堕
癟

Conn@@
Email@@
uic@@
痔
認
铠@@
阿里@@
偵@@
芮
BRE@@
Eff@@
佸
勮
噼@@
沒
蝌@@
衢@@
轼
醛树脂


桡
蛔@@
丰富@@
昊@@
琥珀@@
秽@@
蹤
躞
迄今@@
DoS
容性
擒@@
敝
槑
痰@@
谙
Г
嗘
幺
戎
猬
箝@@
阜
囦
度盘
癖@@
曙
沛
阋
摧
枉
铤

暨@@
火力@@
義@@
配置@@

汜
產
砚
郵@@
酗@@
鹦@@
吮
挠@@
流板
虛@@
金正@@
高新@@
鲶@@
麂@@
Invent@@
啄
啤
徜@@
禧@@

Corpo@@
χ
史密@@
戚
檗
沦
Box@@
務
惘
搂@@
杞@@
桓
珩@@
粒体
腼@@
契
isor
婶@@
鍛
钕@@
雷诺@@
xt
芾
防喷@@
伎
位角
缂
蛭
凝析@@
奥林@@
忑
或多@@
晦
烨
积金
螈
裘
辘


怦@@
￠
庵
悊
炯@@
瓿
觑
闄
離@@
俯
光度@@
嫖@@
明尼@@
痴
穧
缚@@
资源部
軟@@
集器
颠
増
尼泊@@
microsoft.com/@@
制度@@
婢@@
菲特
魄@@

Н
嚭
岃
柞@@
瘘@@
膀
а
寓
皵
苯丙@@
讓


匾
灸@@
遺@@
饵@@
首要@@

乒@@
仗@@
倩
劾
最终@@
淑
荪
鸡尾@@
colour
焉@@
瘫@@
貫
打字@@
橡
股权证
葆
葩
匈牙@@
屏幕@@
捶@@
堝
怎么@@
狒


兢
呎
嫦@@
熷
熻
褰
高尔@@
几内@@
嘲
国际劳工@@
定居@@
时针
滓
讹@@
侃@@
修正@@
兩@@
叆
姨
娓@@
微波@@
沁
矶
硈
↑
椹
運@@
马萨诸@@
Ⅵ
∞
厞
掸
莨@@
装载@@

Д
巳
敏电阻
斯拉
镭@@
顷@@
鲾
Particle
佹
撟
欷
甬@@
说家
俭
晾
潺
際
‧
←
不合格@@
作用@@
例行@@
冽
尿管
憶@@
独裁@@
亇
湪
营企业
钎
呴
泾
痷
礴
給
芋@@
鹿
е
垠
姊@@
桉
疽@@
螯
褛
铆
朊
锲@@
寫@@
嶇
憩@@
茹
踵
合众国
稰
镫
坨
護
鬣@@
人节
件箱
奕@@
稽
蛟@@
乒乓@@
傛
分裂@@
摳
焙
芸
闆
鳌@@
샀
dell@@
佤@@
妩@@
孚@@
衙@@
變@@
霭
頭@@
为数@@
杷
裆
五角@@
哺
憨@@
懋@@
歹
濮
掐
机密@@
激励@@
狒@@
痹
縮@@
褴@@
质体
適@@
鲤
﹒
悄悄@@
憋@@
浼
篦@@
罄
Exch@@
付款@@
哔@@
啡
岿
菖@@
蛀
赝@@
鄞@@


幔@@
桠
逆变@@

偕@@
前所@@
呷
哽@@
基苯
摺
樊
氪
禺@@
踹

Ω
備@@
绞痛
舜
驯
噱@@
戎@@
胴@@
載@@
主机@@
报单
沓
袅@@
解调器
調@@
鲕
enger
中美@@
冢
坍
娱@@
巴比@@
椇
聯
胞胎
屿@@
澄
腻@@
镝
交汇@@
圍
在我@@
壑@@
崽@@
揪@@
猩@@
唆@@
嗙
夠
櫒
泓
谬
姣
玫
佯@@
忓
榛
经过@@
证书@@
鏇
剌
筝
節@@

佺
叨@@
对话@@
岀
庫@@
摞
灉
蓓@@
蜇
註
赭@@
路易斯@@
鲨@@
供电@@
徨
潴@@
粇
耿
蜢
闂
会社
加勒@@
多巴@@
捲
瓯@@
˚
呛
夏威@@
枚@@
漕@@
股份@@
锄
㈢
寧
漉
玺
蟒@@
誊@@
贬
WIS
業@@
琩
笅
羌
陷入@@
一览@@
坿
姊
平层
徉
疟
蚣
修道@@
劵
戝
殃
眒
蟆
遨@@

區@@
髻
啼
夎
懋
阿富@@
黍

垄@@
恣@@
炊
糖尿@@
邵
铕
颧@@
鳍@@
鹊@@
넋

塑性@@
榭
烬
籼@@
萇
圖
朦@@
霎@@

ivers@@
ў
∑
皑
芘
馥@@
嵩@@
炙
篱@@
蜈@@
躇

倪@@
小的
岬
砥@@
谑
醺
喵
嚓
妨
擂
榉
疡
螨@@
№
三聚@@
咧
幌
搽
检察院
求职@@
演唱@@
鎼

坦桑@@
尧
竺@@
莘@@
镭
역
Sea@@
尋@@
抵押@@
暇@@
榕
沛@@
糅@@
项式

⊙
凈
尧@@
捍@@
灌木@@
皑@@
蒴@@
鑷
頂
倇
巴勒@@
拭
方人
谚
蹴@@
车组
吞吐@@
慵@@
梵
清华@@
網
蛾@@
鬃

俟
匹林
挎@@
角色@@
蹼
斯坦福@@
蕃
辄
返回@@

fig@@
侪
喳@@
嬫
惦@@
瀚@@
膛@@
芍@@
莠@@
赃
遏
铊
墋
爹@@
篦
aco
泣@@
螳@@
违规@@
ｬ
Π
⑩
埂
弩@@
杅
杵
槭
气式
涘
豉
跄
髙
thon
孽
睢
⑹
囨
夭
烽@@
牒
窘
肯尼@@
밑
媳
摫
擘
旂
痫@@
礛
鎭
马里兰@@
主人@@
孰
绫
缜@@
诿
谔
鸯

利
亦然
樱
樿
為@@
羲
腮
.asp
cook@@
Θ
谄@@
谆@@
є
卫生组织
歇尔
监视@@
讷
踮@@
鲟

咋@@
嬷
簽@@
醯
屉@@
殷
荀@@
都会
Wh
幌@@
意向@@
掀
槲@@
汲@@
涔
腓
Biz@@
摈@@
滀
皓
舀
萋
譬@@
骺
鸢@@
Cube
啶@@
嶄
讹
鍨
雏
播放@@
昵
私营@@
虻
遛@@
annel
楀
皚
醚@@
dif@@
fore
呦
唷
変
檔@@
淅@@
砼@@
菸
饯
unity
姝
帕金@@
怓
旎
瞠@@
紑
阌
飙@@

仪表@@
啧@@
妯
昊
湁
癳
躯@@
嗕
囔
岑@@
岫
懦
樟
莠
袒@@
诃@@
践
靓

合伙@@
撋
磞
芷
苋
蒽
豇@@
镳
颍
묏
옵
京群岛
傢
撵@@
监管@@
腩
默德
Quark@@
痦
绰
翟@@
藓@@
规性
过程@@
马尼@@
속
Ό
哩@@
垄
害人
煅@@
线器
维吾@@
芍
谏
量分析
娼
峒
扢
篩@@
負@@
跋

包方
卡罗来@@
專@@
惴@@
挎
殓
测定@@
滦@@
濡@@
烙
碼@@
脭
蚝
鎷
т
中外@@
仟@@
坚定@@
場
袄
額
콘
趸
铉

⑨
岖@@
庡
撘
槎
滁@@
而下
脖
讪
鼾@@

摬
爱好@@
精力@@
绦@@
傍
彻斯特
椂
疝@@
荃@@
骸@@

嫣@@
悳
滆
窈@@
菏@@
進
錯
鞠
鹈@@
吗@@
娣
寇@@
構
汊
竴
絬
蚚

丁堡
宇航局
帛
摽
淘
滥
痢
茗
頻@@
垨
撓
斯拉夫
柿
瀅
耆@@
蛆
阄
roid
tw
〝
壅
彰@@
芎
鄂尔多@@
陆战队
›
姟
机构@@
濯
蟛
偅
忻@@
樣
蜃@@
辜
鐗
鞅
鲷
elop@@
htt@@
枞@@
汲
漉@@
碉@@
葆@@
辘@@
遁@@
理
с
尼克斯
損@@
摹@@
膊@@
蠯
基亚
奂
揪
簲
绛
绢@@
蚱@@
鍦
閉
叽
恤@@
恺@@
振荡@@
栽培@@
澈
羯@@
艇@@
铖
阪@@
鹳

兀@@
央
挞
搔@@
柠@@
籠
﹀
佔@@
忐@@
湰
撅
樉
籁
義
芮@@
达姆
顷
骤
＇
如一
弋
矜@@
芎@@
鍓
驟
梏
炜
犳
用性
祗
荽
蓦@@
鲫@@
乍
亘
岱@@
拗
毯@@
筷
篆@@
粼
邛@@
基金组织
壬
嶆
电偶
眯
聚氨@@
胯@@
钒@@
microsof@@
亳@@
呒
枭
汝
總
妒
擷@@
桎@@
特兰@@
箫
羰@@
蔚
剁@@
奚@@
學
熹
甥
藩
锪
飙
dex
▄
二甲酸
咖
嗎
坂@@
恃
擒
无家可@@
汕
耶稣@@
耷@@
诽@@
麟@@
￡
墅@@
尹
授权@@
胼@@
腥
莪@@
跖@@
辆@@
nap
姞
敖@@
樺
白血@@
蚂@@
魅
僅
可口@@
婺@@
掰
㈣
战队
户名
状况@@
胫@@
舾@@
锇
梢@@
焕
电筒
蝗
Discover@@
Vie@@
岬@@
慑@@
採@@
浒@@
箇
绮@@
蜊
郴@@
钹


因果@@
皖
聯@@
能器
處@@
說
鹬
Cook@@
丶
亘@@
岐
徒刑
決@@
湎
铷
amily
怖
檢
見
谩@@
钆
默认@@
RADI@@
Ί
叟
屠
惇
有者
绉@@
茹@@
項@@

比克
瞟
﹞
撊
有限@@
笋@@
舜@@
镕@@
閘@@
韬

冥
捎
甯
谤@@
呗
泮
绦
议者
蹇
Assist@@
娶@@
掖
磋
粼@@
茯@@
菪@@
袂
骛
圖@@
埌
報
弩
捎@@
粏
┮
不久@@
偌
咀@@
摁
有点@@
枃
森堡
溯到
熠
鱗
佝@@
俩@@
暫@@
淖
濋
牍
瓮
粑

Blu@@
摰
爜
莺@@
袅
豺@@
冼
怅
皗
绽
绽@@
蒺@@
蝽
衅@@
锑@@
鳅
믈

Э
倩@@
刽@@
屼
礚
羯
保质@@
始人
柟
璝
砑
秸@@
鐘
除术
震器
峋
开工@@
恸
惆@@
憋
擂@@
桓@@
榔@@
無
瘁
磐
脊椎@@
诟@@
н
世界贸易@@
亥
亵@@
允许@@
呱
嶙@@
当事@@
油厂
矸
磊@@
試@@
越性

︾
儲
是说
沐
鲎
⏹
嗖
嗣@@
悚
放射性@@
璞
睑@@
臱
蝾@@
讀
阿尔及@@
增值@@
氛
洿
置权
详细@@
鞑@@
‍
偿还@@
卞
地亚
塬
掣@@
机车@@
眈
钐
堟
摴
達
鐥
｜
帚
揃
旖@@
权利@@
绋
흙

TRL
喇
姤
癸
础
稼@@
窒@@
轮驱动
FIF@@
叢@@
嫂@@
杳@@
柊
椽
輯
郪
锾
itect@@
╱
吭@@
垣@@
忑@@
栧
用表
繫
鎶
凝结@@
地铁@@
寞
岑
峈
庢
庣
胄
赦@@
ﾄ
￣
Prod@@
╘
三明@@
埛
旌@@
歼
糔
習
限制@@
髙@@
„
倭@@
冼@@
戶@@
暄
loss@@
宕
帶
猁
胨
舔@@
藕@@
look
佽
昴
热点@@
犊@@
給@@
綅
缈
脂酸
豚@@
佛罗@@
刈
璧@@
相比@@
碛
通知@@
阿根@@

原料@@
咭
愉@@
戾
訊
門
閾@@
彿
橼@@
紡
颏
鳝
ψ
侮
嗏
溥@@
胬@@
芰
调式
冨
吭
坤@@
埼
娄
婢
性气体
憝
扮演@@
沙特@@
眤
穆斯@@
薹
蚧
遲
땍

伺服@@
婧
延迟@@
淳
襞
酊@@
随地
麾@@
ASC@@
Ⅶ
巴塞罗@@
栉@@
牦
砚@@
祫
繚
约瑟@@
聆
駕
冗
咔
垚
奠
楁
硄
綋
綍
考虑@@
ECD
Ώ
Ч
儴
妳@@
戟@@
搔
涕@@
滔
療
綔
胝
蘑

Ⅷ
实在@@
嶈
巽@@
庶
榀
膊
转化@@
铮@@
鲭

冠状@@
曝
湮
苹
Λ
恕@@
憷
批评@@
波士@@
穦
芫@@
迳
馍
骄
例
･
摒@@
水系统
異@@
笞
绺
蚤@@
鹉@@
Ή
卉@@
姗
懵@@
昕
枋
汹
睲
讳@@
鏈@@
飒@@
髂@@
샙

懇
橱@@
獒
膈@@
钡@@
锩
雉
鹭@@

帴
弿
戍
攸
突发@@
罹@@
鍣
鹕
點@@

Mic@@
嵁
愣@@
掃@@
櫎
湄@@
笉
脒
莎白
菠@@
郴
嬬
氳
维护性
閒@@
鳕
http://go.microsoft.com/fwlink/?@@
΄
厎
圩@@
复印@@
札
瓢
痿
絕
蠊
议书
郝
音机
題
伙伴@@
扪@@
藿@@
鲈
Libra@@
一氧化@@
宇航@@
气性
洪道
胯
镰
陲

件人
俺@@
投标@@
极其@@
记卡
鬓@@
돕

isco
viron@@
丽特
寿命@@
忖
揚
瓮@@
腙
蛊@@
驿

IPv@@
pert@@
乞
侄
囀
娼@@
嶂
炕
盞
碴@@

拗@@
濑
癋
福建@@
維
胁
臻@@
莱坞
觎

狈
穨
蒩
論
钊
饬
Explor@@
夙@@
妗
楄
泰晤@@
缥@@
蟾
術
觊@@
鐪
上万
圜
承载@@
撴
本位@@
淆@@
淼
矗
簡@@
蛰@@
鍵
镂
顽
骐
Hit@@
м
ц
咘
抠
滈
帇
格达
燎
狸@@
甾
窥镜
缦
菇@@
蓣
衩
蹟
酊
잿

Sec
к
∕
搪
撔
火花@@
瞿@@
莪
谿
钬
黝

Assist
acebook
inity
劃
揤
満
维加斯
年
Pow@@
匐@@
尘器
接头@@
躇@@
销员
册子
擤
曙@@
水土@@
約
緵
繃
纖@@
邻苯@@
鎹
颔

叩
吉尔吉@@
啬@@
恺
愪
湍
矫
逮
随者
體@@
DMI
≡
圩
殃@@
磕
侮@@
士们
婃
婷@@
寚
斯里兰@@
晷
滅@@
燎@@
贵州@@
隶
鲆
쇌
click
傞
地亚@@
墦
心律@@
恃@@
柩
璃@@
石膏@@
莓@@
铿@@
馋
龚
懟
玮
鐞
鲑
Front@@
叱@@
炳
疥@@
瘸
癎
祀
秖
限定@@
險
꼇
삶

喱@@
奇偶@@
婀@@
彲
擞
斯洛伐@@
枷
楝
獲@@
眸@@
胥@@
萬
Curr@@
利害@@
墟
嬷@@
決
洰
狩@@
虔
还价
酩@@
Γ
一想
受性
场主
姹
濂
灞
盂@@
蘑@@
跖
髌
哧
律性
微分@@
拇@@
掬
腘
螅
裴
讷@@
饨
伶
佈
呀@@
嗛
多伦@@
棂
正弦@@
着眼@@
糯
蒐@@
藿
鍩
勐@@
嚴@@
埃塞@@
盐岩
粯
阙
鷍

﹍
习班
亚伯@@
偻@@
噺
涣@@
淸
钧@@
Ο
发器
宦@@
竺
肃
膘
黜
Eclip@@
в
僭
匯@@
姛
工后
愬
祟@@
蛟

witter
⑺
偻
扈
撐
撼
改进@@
毀
熸
瞰@@
研讨@@
硒@@
缛@@
蛉
计值
離
렘
◦
四氟乙烯
撝
日内@@
杓
樵@@
解剖@@
遁

併
泥板
瑕@@
皎@@
筘
醺@@
髹
☑
峭
戍@@
曜
漯@@
犸@@
狀
瑾
盅
眖
禀
翱
芴
衍生@@
钗

娩@@
德意志@@
戠
次于
祇
窕
角落@@
跺@@
媨
时器
晏@@
濑@@
瘖
荟
蹶@@
郘
阮
鳐
Fx
Ё
∙
摯
攞
栨
犸
笔记@@
龊
턍
产儿
侦
姏
惭
欄@@
裱@@
鎿
隊


Veloc@@
∈
佷
咩
弬
忔
氬
滦
煡
祯
超出@@
陌
馄@@
凝汽@@
垪
拚@@
排除@@
搡
擀@@
翡@@
觫
辽宁@@
酉
隽@@
霰@@
꿋

勯
噎@@
孑@@
形态@@
憳
揝
棿
鈕@@
锏
锵
ascript
咂
嘅
囪
晌
最小@@
碁
讣@@
辑@@
辕@@
银河@@
Fig@@
Jagu@@
俞
屬
棩
毙@@
煜
绅@@
費
趸@@
阆@@

力
∆
塞性
姢
娈
謅
路器
鹚
ｵ
Bip@@
仄
可靠@@
吆@@
寐
撐@@
擁@@
暟
癞@@
致于
荂
법
흔
unct@@
丄
妲
汐@@
消火@@
涩@@
牟
篾
簬
贸易区
铤@@
anced
Ά
厤
拢@@
樹@@
睛@@
纠
萨诸@@
葞
诏
閰
骁@@
尰
岺
沓@@
纰@@
地利
奥兰@@
宁波@@
小康@@
嵘
捶
棗
洘
羹@@
舀@@
龌@@
狼
ｹ
匾@@
卿@@
寅
寅@@
崴
或缺
救护@@
楸
榻@@
硷
禂
節
職@@
陂
ｸ
ﾐ
佗
俑@@
厥@@
嗷@@
涮@@
肛
鲵
哔
墍
彳
忒@@
挳
摷
莼
裥
钪
陂@@
刍
啷
嗑
意识@@
畲@@
笂
箕@@
通公司
逞@@
≧
┄
不移
佢
倌
妫
強@@
惕@@
椰
槃
浏@@
狈@@
瑞拉
畗
難
馔
SLT
剿@@
发挥@@
垎
埃塞俄@@
塊
塞浦路@@
壓@@
悸@@
捋
犒@@
生人
磾
窖@@
竣
簸@@
膨
费时间
锟
≦
噎
录像@@
淙
牡
衄
跛
镱
혤

呸
拄@@
沱
皤
蚋
針

WebS@@
嘧@@
奀
巴嫩
摺@@
淖@@
炯
甑
臭氧@@
醫@@
쇱
asi@@
▽
佘@@
噗
摄像@@
斿
无处@@
涢
濈
皢
等高@@
筵
羿
艮
迢@@
隶@@
齡
嗚
宄
彸
摩根@@
梆
氦@@
涫
胂
胧
舶
诏@@
隅@@

soci@@
忚
斯加
洙
狰@@
证明@@
调制@@
谒

⌀
╰
墨尔@@
弭
承受@@
抡
柘@@
湄
狞
畫
笈
紙
芷@@
蕈
颀@@
鬓
鲷@@
닸
청

佶
夌
愫
燊
璐@@
篈
訂@@
邹
錄@@
闇

伯利亚
僰
愭
捩
撏
檥
狝
珲@@
眶@@
绔
缤@@
臊
蓓
骅
Civ@@
瓊
赛克
閽
齌
金
phere@@
哈根
妞@@
峁
攣
敓
栾@@
棣
榴
理所@@
甬
路径@@
踱
轨电车
镖@@
驮@@
鸪
친
폘
Ї
僚@@
固醇
悗
愯
浒
湴
潞@@
潤@@
皋
鹧@@
벌

啻
寜
層@@
澗
物箱
獺
瞷
萝卜@@
襄
許@@
說@@
货商
鐮
chan@@
厈
猭
琦@@
脍@@
莼@@
可视@@
咦
渲
湛
瀑@@
瀷
珨
阡@@

丞@@
偍
吖@@
婂
彝
旯
歷@@
瓦时
筐@@
籼
聘者
荏@@
蝓
辕
周知
層
恫@@
揂
桢
氖@@
犻
迢
限性
Л
咙@@
垭
奢
戌@@
摲
濬
薏@@
蹬@@


umber

冉
效应@@
涜
濠
瓧
癘
秘书@@
节数
蓼
过氧化@@

亩@@
呛@@
堀
核数@@
清洗@@
澘
瘿
稃
耸
茛
螢@@
记事@@
邢

colo@@
他命
剔
尉@@
熺
玛格@@
缝纫@@
聆@@
荤@@
蛞@@
蟠@@
诮
飚
饕@@
鳏@@
鸢
儆@@
樽
繑
缰
聂
衢
货人
铮
骅@@
鲟@@
一化
咨
噶
实现@@
汩
生素
蔫
辍
郯@@
镣
不足@@
侗
俪
唉@@
娉
悯@@
毗
玳@@
綌
纳森
缫@@
茏
钥@@
锍
馐
숭

Sour@@
kad@@
pport@@
│
佇
噻
娌
婓
玂
羧
蘸@@
Autodes@@
IMAX
d0@@
ξ
傚
惺
敼
椴@@
椽@@
氓@@
氲
璇@@
祛
籃
翎
袢
诘
详情@@
金字@@
鑽
闈
З
中枢@@
劤
噩
掰@@
曼哈@@
槄
炔@@
犄@@
簮
类似@@
胥
褫
镘
響
吏@@
咎@@
團@@
媾@@
終@@
褓
谙@@
蹿@@
銮@@
뫘
Ж
倭
偞
形势@@
愆
戞
摶
濒
産
硶
蜁
西格@@
赅
镨
빈



¹
Έ
上而下
亄
分之二
咝@@
塾
珩
礹
紇
딨
묘

fw@@
Κ
丝绸@@
咆@@
挛
江苏@@
浘
浚
狾
璞@@
痦@@
稷
紊@@
蜥@@
镣@@
객
똚
Ц
不用@@
佟@@
偃@@
彗@@
接地@@
栬
炴
癔@@
蟓
近几@@
钰
隽
頂@@
넣
凇
拷
擩
栲@@
桀@@
珐
罡
苋@@
萬@@
萱


冩
嗒@@
弈
減@@
湟@@
潰
珞@@
羡@@
胱
长率
鹜
｢
ζ
体制@@
優@@
卡人
坂
嬩
帷
形术
掑
瘴@@
经常@@
讴@@
诘@@
轻轻@@
高尔夫@@
黑龙@@
북


Tube
lang1024
囩
庶@@
摱
烁
痞@@
等价@@
粍
鏋
阙@@
隨@@
韬@@
鲔

┦
佑@@
嘹@@
安大略@@
怔
沥青@@
潔
畷
糤
羚@@
铼
隋
鲫
麇
똑

Ρ
匈
宥
对点
怅@@
掂@@
敛@@
星人
浃@@
睪
蒡
蕺
衮
覽
钵@@
卦@@
嵩
彤@@
捌@@
氫
牛津@@
瓨
矜
苑@@
蠹
衣裙
餮

↵
✓
嗖@@
嗽@@
揄
晏
栎@@
槲
泌
深深@@
清器
羲@@
胧@@
诚地
較
避免@@
隍@@
隘@@
鬈
RADE@@
咚@@
問
埕
夔
嬮
扺
更衣@@
氭
红十字@@
遛
铪
⑻
叭
寘
悎
拖拉@@
欐
汩@@
渭
痉@@
筱@@
簪
緮
辗

啕@@
墒
峦@@
彁
揩
檫
殇
蛏
駭
鲢@@
벎
igner
傜
獵
睹@@
粳
肟@@
荞
蚱
鏻
cript
Е
Ⅹ
乯
呰
屍@@
屹
怏@@
滂@@
瀛@@
玫@@
該@@
骡
밗
즈

雷
和谐@@
国际货币@@
在案
嫔
寤
悓
抗压@@
捂
撲
槸
畦
籁@@
蹿
鐜
鼩
佻
叻
呇
婕
手持@@
擎
椿@@
瘍
简易@@
績
衝@@
鑑
铛@@


д
乌鲁@@
体积@@
体系@@
娩
幵
懑
摿
撂@@
敖
槿@@
澈@@
營@@
砥
稞
穥
耢
让你@@
铽

enne
僮
南克
嫡@@
沣
箅
除氧@@
SYM@@
Ύ
婄
存为
尨
峥@@
弹道@@
撗
沅@@
珇
珞
礎
茆@@
茚
ｺ
‖
乮
孽@@
我爱@@
橄@@
眈@@
稼
腴
茆
诀@@
诶
鍥@@
雯@@
黉

制定@@
烊
绥
苒
葯
诂
責
鳟


ﾔ
aceb@@
█
嘀
庝
怆
摪
攸@@
蕙@@
蠡
觐
趴
뵀
僅@@
崲
瘻
砻@@
肓
鳃@@
鸲
﹖
力学@@
唬@@
噬细胞
嵊@@
恁
恹
波特@@
缙@@
詳
铧
靳@@


‎
佃
厄瓜@@
呬
憨
欏
纶@@
罝
苇
蚾
診@@
郧@@

Ether@@
NUR@@
伺
及时@@
嘭
埚
壓
戦
掂
毓@@
蛰
賈
预警@@
鳝@@


凛
地平@@
外科@@
巅@@
螫
诧
速表
針@@
츱

DBC
QuarkX@@
б
佤
倰
卟@@
坉
巴塞@@
幄
憾@@
柄@@
樵
瀏@@
獠@@
瓙
盃
盹@@
蜷
鸫
黠
꾸
Β
弃物
棣@@
泯@@
砘
豢
雹@@
든
Suite@@
mmet@@
plor@@
彂
搀
遽

AAS@@
╁
傈@@
出发@@
囫@@
擇@@
攄
書
玡
绫@@
襁@@
角度@@
課@@
门户@@
靥
≠
丕
孱@@
巻
揶@@
无关@@
昱
权益@@
樼
氰胺
皋@@
缨
舆
蝮@@
語

嗬
婁
幡
榉@@
槁
沔
澧
甥@@
聽
逵
﹤
仃
卯@@
哞
宦
快捷@@
成千@@
玥
睐
纗
翎@@
舫
起落@@
遠
갛
傣
囿@@
捉到
毽@@
猳
琶@@
科罗拉多@@
簌
荠
谗@@
度
咛
土木@@
執
屐
惆
撥@@
方药
椁
榧
淞
煸
犲
祅
蛄
谵@@
鑱
閸
阿森@@
鲽

參
擅
爣
睽@@
硌
蠓
遺
邝
鎏@@
雳@@
鼯



Ϊ
ν
套设备
強
戗
渌
簡
補@@
身心@@
镏
镧@@
領@@
꼬
틱
❑
價@@
啫@@
态性
晤@@
泯
洩@@
渶
盄
罗拉@@
蒎
虫剂
鍞
鲡
Tunes
┖
上述@@
不在此@@
埋场
墅
嫄
安徽@@
家宝
捷运@@
柱状@@
櫌
氝
氱
砣
箐
翳
茬@@
蜉@@
诛@@
配线@@
钰@@
锃@@
靼
驍


﹔
Υ
嗤
嘛@@
崙
帑
换句@@
梡
槨
秷
笢
購
蹉@@
颊@@
놔
횅

ｻ
amar
佚@@
嗷
墠
壒
忽略@@
托人
敹
栫
潯
甭@@
異
绀@@
苁@@
謺
谀@@
镬
颀

俸@@
元前
吝
姣@@
媾
嫉
掔
撎
渎
渚@@
簭
绮
落于
讶@@
读卡@@
谛@@
闅
顧@@
몸
壅@@
恻@@
於@@
條
槿
裡
醅
깻

fig
丁橡胶
仪器@@
啰@@
夈
悕
悜
正则@@
獐@@
諉
蹭@@
酴
霏
風@@
왠



倏@@
值问题
偕
复活@@
導
怦
揇
朕
棴
殆
聿@@
誹
銀@@
閱@@
飕
헹
俾
嗽
噸
尋
抠@@
抿
痧
粱@@
荑
菟@@
衅
谍
費@@
싱
쳄

inuity
啜
婵
崃@@
稔
苫@@
颉
ﾊ
Fluid@@
л
伱
刂
叾
噯
徳
捅@@
方体
桤@@
梾
棶
沭@@
瓤
睽
绶@@
缢@@
胤
诃
豉@@
转折@@
遊
钽@@
鳢
Ctr@@
rive
尔蒙
岄
敕@@
潇
痨
腢
舐
蛆@@
谀
货期
颦
鹋



ﾖ
偎@@
嘌@@
忿
梆@@
瞩@@
芯片@@
뎃
╂
傝
妏
樓
珙@@
瘪@@
糗
蒰
谟@@
鐘@@
鹘

﹁
廣@@
撀
敮
熳
荥@@
菀
键盘@@
镘@@
꿎

Ie
Symmet@@
Worker
啤@@
嘈
恪
戌
挃
敱
旬@@
曜@@
槺
氤@@
狦
石场
砒@@
籔
觐@@
闳
馀@@
쏵
훙
Rese@@
下而上
唁
垅
情节@@
摮
殒@@
瑛
璹
畨
皲@@
脘
舛
茭@@
華
袨
阖@@

▆
卞@@
啧
墈
奘
岢
怙@@
报率
捺
捺@@
敁
猞@@
礶
稅@@
芞
苕
茼
菘
薩
蹙@@
镊
需品



Х
ч
∮
⒉
傩
厝
墿
煲@@
篆
緒

立
倡
嗥@@
噔
或少
揅
立陶@@
竣@@
簌@@
綷
结果@@
胰岛@@
虏
谕@@
赂@@
鏖@@
锵@@
锺
飑
꿴
늪

出现@@
另行@@
孪
庘
柠
玴
理财@@
秉
竻
羸@@
莳@@
衙
鍋
镯@@
顢


Mirror@@

侵权@@
價
噙
噜@@
垩
彡
痍
笖
绻
茢
西省
跆
连串
먁


励磁@@
呃@@
呋
嘣
堢
曆
曚
浉
畕
秭@@
蛴
蝣
觞
诡
銷
魔术@@
鱿
鼹
COO@@
利多@@
叏
囬
嫭
張
枳
沌
沏
泸
玄武@@
舊
色板
貉
週@@
钜@@
闵
靰
骊@@
骥
dana
一对@@
掮@@
涿@@
獢
眦
蘦
讧
質
辦
霆@@
鲅@@
鹞
렅
剐
喏
帼
棵@@
楹@@
洮@@
焘
盎
舢@@
蛳
陇
鹂
麓@@
뻣

剌@@
小伙@@
拻
搧
撍
氐
瘠@@
蓬勃@@
蕊@@
薑
鍟
鸸@@
쾨

odes@@
Ⅸ
亊
収
埘
孺@@
宮
彀
撜
晌@@
湇
电所
蘖@@
蠖
雉@@
鹞@@
不负@@
固有@@
壂
岫@@
流程@@
滿@@
痲
礄
祜@@
舂
荻
蚬
訓
踽@@
鲣@@
鼬@@
듐
Ш
㈤
俳@@
創@@
囹@@
外围@@
庤
庨
忛
掛
斁
柽@@
榓
樣@@
潸@@
獭@@
痉
皎
篙
簕
菙
裆@@
財@@
跄@@
醪@@
锨
阉
霓
靼@@
돛


之急
作曲@@
冭
咻
垱
埆
幷
朞
殰
珛
疃
瞑@@
礂
紪
货店
馋@@
髡
헝
ﾏ
ⅰ
✔
汴@@
磬
苏黎@@
莒@@
譢
诨
迼
钅
飛@@
馥

律
万向@@
可比@@
徹
忕
痞
舉
荜
荧
葚
衲
鑺
锝
飕@@
骠@@
뇹
퍅
품
complex@@
complexscripts@@
Ψ
佾
厚的
嶉
搎
撵
斨
泔@@
灭火@@
爿
猾
瓯
粜
诰
跗@@
鎯
骈@@
髅@@
鳖@@
黾

Buzz@@
Pod
⑽
㏑
入门@@
叛
嗉
壆
宒
应付@@
拄
格鲁吉@@
毓
涙
湡
狞@@
璸
荼@@
蚝@@
路机
鳎
퀭

ranet
ο
匙@@
圄
娥@@
憑
昙
栉
榭@@
氹
瘮
癨
祢@@
谩
赝
達@@
鏌
黴@@
꿨


eBase
≯
丹利
僳@@
垀
實
掖@@
揩@@
樘
烽
環
瓒
町@@
疖
瞭
箨
羔
荔
迄
郯
骜@@
髯@@
鸮
땔
쌈
쨌


率
і
匦
压裂@@
帜@@
忪
揟
晔
沏@@
洩
瞅@@
粲
細@@
纷
跎
鍛@@
霐
驅@@
샴
⊿
书亚
佬@@
吿
孵
忎
掓
斟
曠
欎
淌@@
營
甧
絪
芡
預
額@@
驹@@
섟

ﾃ
Tiv@@
illar
凄
分之@@
利物@@
咿@@
團
屎@@
嵂
彇
承租@@
散热@@
敽
煅
疖@@
禱
箩@@
苊
蓥@@
螟@@
鸬@@
훉



ｨ
Ζ
Η
ς
拇
摝
摻
擀
栭
橹
殡
法兰克@@
漑
潦
睚@@
稅
緩@@
繘
纂@@
缮@@
职能@@
舯
運

ｼ
achi

Ι
⁰
一席@@
冇
巤
柬@@
楦@@
泱@@
澹
疚@@
砦
笌
笏
笫
腧@@
苜@@
褚@@
诒
財
跚@@
颍@@
颡
飨
굶

綠
余物
垭@@
幽默@@
恻
抿@@
揿
楝@@
浠@@
涟
潡
炵
犰@@
笺@@
緻
茉
茱
訇
谴
阿塞@@
颓
饕
鲢

Brows@@
Cay@@
吩@@
嗔
弑
暣
枨
氘@@
犺
琨
祁
窆
艽
蝰@@
蠡@@
诌
谅@@
蹙
무

盧
佚
凫
婊
嬴
揙
擴@@
斾
晰
暀
棠@@
祈
練
羛
翟
蔺@@
輪
還
醱
醴@@
鹩
勰
唏@@
囵
妍@@
慊
扼
曷
桧
溇
濉
燮
狳
玑
疤@@
直流@@
真是@@
筁
翹
肪
规范@@
諒
锔
凜
ﾍ
Indu@@
伲
台币
啮
奻
幻灯@@
惴
撈
旀
暐
楂@@
殚@@
浐
潈
焮
犍@@
祺@@
稗
窨@@
購@@
跤@@
踟@@
酉@@
鞴
鹳@@
댕
홍


下角
偣
劑
嫣
廠
弼
怔@@
掇
桀
淞@@
璺
皟
納
絳
美联@@
芨
荠@@
蝁
覃
郥
錾
龉
э
俄亥俄@@
卉
協
嶝
怂
扈@@
揊
晢
曩
枰
樺@@
橋
涚
砐
祌
窋
籤
終
绛@@
缟
蜕
衾
裾
靘



ϊ
г
ฃ
停止@@
剜
嗳
圍@@
地区@@
堍
宛
挡风@@
撛
敳
敵
椐
毁灭@@
泗
澧@@
秢
竤
綦@@
纨@@
苀
蕙
钋
鲂
쳔
충



ﾋ
☒
叵@@
喧
坷@@
岘@@
幢@@
挲
楃
獥
玷@@
砭@@
祦
联轴@@
荸@@
責@@
运人
醪
龇@@
구
슥

Voy@@
п
儚
呲
噤
在实践@@
堑@@
堜
幇
愕@@
懿
敕
晗
朊@@
枳@@
浔
涞@@
潤
疸@@
調
铠
阎
馕
鹬@@
ｷ
ﾓ
++
Electric@@
丗
俚
冪
刁
唟
噌
嬖
崧
嵇@@
帻
慮
揯
朮
椋@@
涧@@
粨
興@@
薄薄@@
阖
馊@@
吒
哆
尓
庖
恙@@
汨@@
滄@@
瘯
盤
碲@@
苡
趄
轶
迵
酐@@
铨
铱@@
麂

ы
∧
乳胶@@
侀
嵃
揜
湔
漩
漩@@
畿
痼@@
百科@@
監
筠
荜@@
薮
趔@@
邝@@
銷@@
鐒
锲
韶
飒
코

｀
｛
CDR@@
FAL@@
yst
咝
埸
墖
惈
杮
澳大@@
菪
谪
豢@@
颔@@
飨@@
적

ฤ
仝
冰淇@@
咂@@
噾
尯
師@@
忸@@
摯@@
晥
桕
汇丰@@
蓿@@
蠟
褫@@
邤
鄄
闾
鲶
齣
균
뚤

｝
Ξ
华德
囿
无功@@
暧
樷
湞
溝
熶
琜
砀@@
磡
私权
筑物
護@@
谢谢@@
逻
酣
醴
鍢
須
鲇@@
鹮
좆
‹
上角
呫
嫖
彙
斪
炲
狟
璀
盡
秕
窠@@
聒@@
菅
謹
谏@@
賫
電磁@@
鲼
鸨
닒
죕
푐



ｲ
ά
ต
⑼
⑾
一式@@
光合@@
勐
咩@@
塓
嬉
期日
杷@@
祀@@
粽
缄
貼
迤
铥
렴
셸
커


ﾈ
∣
侣@@
俜
娅@@
寔
干达
扣器
抻
撆
方方@@
檄
檩
疥
艿
蛽
誤@@
陰@@
鳔
롸
멕
ontrol
专卖@@
俐@@
剓
孛
徘@@
必不可@@
毘
灚
犵
狡
眕
筮
管人
缬
舭
虬@@
螃
讥
钶
骈
鬟
냥


ﾒ
‌
三个@@
委内@@
廠@@
掴
擢@@
擷
淇@@
稊
西雅@@
誤
鎰
除草@@
鲻
鸣器

ΐ
中型@@
傧@@
免权
厮
廑
所作@@
晤
淙@@
粣
舊@@
豇
貨
赈
驭@@

ｽ
唰
埧
姹@@
徊
悄
斒
涠
滗
绐
缛
肇
蜒
裟
酢
뒤





￼
呤@@
唢@@
啐
姸
彛
愠@@
擢
曟
檓
焱
皌
肄@@
蜇@@
蝥@@
訑
随时@@
묩


易
ｱ
Tune
ⅱ
哉@@
噗@@
噤@@
天候
寋
恹@@
悌
抗拉@@
捱@@
揘
撓@@
晖@@
椋
氏度
泅@@
泖
洏
淡淡@@
玢@@
疊
艼
邡
鎓
锒@@
骆
鹑@@
龜


ｿ
Esk@@
━
┰
亞@@
仨
啭
嚦
在生活@@
帛@@
弑@@
撷
橛@@
痙
碜
粬
芨@@
葜
買
鲀
鲹
麛
뺄
제
數
唳
噰
囗
堇@@
年月@@
批判@@
斞
欄
珮
甘肃@@
瘂
祐
税务总局
糅
蚶
蛲@@
詞
诳@@
谲
遑@@
配器
镥
隱@@
馗
鷶
괏
깃
휑

Syst@@
匍
可供@@
咤@@
孺
寤@@
惎
淩
湫
猊
畚
萦
蒌
鋈
铄
鞞
颉@@



Firef@@
stron@@
І
剡
哐@@
嘤
弋@@
摼
撉
渲@@
濅
瀯
琊
癰
睨
胳
至关@@
蓑@@
蜆
訓@@
迳@@
邏@@
闺
雾器
극
GEAR
₂
⑿
〓
仈
合众@@
宓
岙
掕
朦
渤
璨@@
畈
缔约@@
遊@@
饪@@
鹄
黒


⏵
佯
凋
哒@@
夛
忤@@
忱
掱
橫
檬
珆
甭
筳
臬
蔺
蠑
蠕
装机@@
觇
輛
階
된

仝@@
倜@@
加利亚
壞
小板
幫@@
彉
恲
戽
挓
敶
歩
牸
琚
盔@@
聩
菂
講
谝
迄@@
里叶
长久@@
阋@@
鸯@@
맷
페


﹗

ร
凃
姘@@
懿@@
抟
揕
撁
敾
毽
湭
炝
竦
笭
臧@@
藥
蚩
鍘@@
鍝
锕
鸵
뒈



ｴ
Ѕ
佘
全日@@
噘@@
巩
惚@@
敭
昀
晁@@
栦
椼
涴
滿
炱
畿@@
硎
粡
茔
莫桑@@
菝@@
蜣@@
补救@@
衿
褂@@
赡
辄@@
逶@@
镏@@
鲇
鳙@@
鹗

♪
仞
厝@@
墒@@
壽
廪
愎@@
撂
撶
桫@@
游乐@@
綾
缒
臵
詈
贽
轱@@
连带@@
鹪

﹣
saw
˜
Χ
┯
俬
剜@@
墨西@@
妁
屉
崃
嵋@@
惛
戜
捩@@
环控制
笆@@
罅@@
趵@@
釬
鐧
难性
雙@@
鹪@@
쉥
앴



︿
⏴
伉@@
伊丽@@
受害@@
埝
属何
岿@@
嵯@@
忘了
怮
怼
擺
歙@@
歲
殴@@
泦
浜@@
玮@@
琉
瓴
盱@@
瞿
窒
菰
袈@@
覃@@
觀@@
讦
谌
貨@@
铁道@@
铍@@
间盘

✪
偾
卻
坻
垸
娈@@
庾@@
影响@@
彶
息息@@
撹
根深@@
稗@@
稣
積
袛
襻
辖市
辦@@
郵
鈹
髭
鱇






ΰ
亚利@@
俴
咺
崍
攷
溟
滚动@@
澍
炁
煙
篑
肮@@
臨@@
苹@@
菸@@
葶
藬
謘
鉆
鍍
鐑
铢@@
镅
門@@
颃
麒
龃@@
눈

來
料
+@@
ј
丞
亍
从来@@
住民
呓
娑@@
愮
揗
撃
椾
琰
秶
纣@@
腦
蕲@@
蘩
蜓@@
裏
邬@@
郏@@
限内
领事@@
깊
댔


ˋ
Ν
∨
乇
劢
匮
匮@@
哧@@
埭
姪
安哥@@
峓
崆@@
形容@@
拉图
沤
熲
珉
眥
睇
穃
繚@@
绎
罔
耱
臧
蒑
蚩@@
镎
韪
馑
鲐
뙝


ˉ
╃
儡@@
劧
圳
埲
弼@@
忻
恸@@
搷
敝@@
栾
椴
溫
滘
濾@@
珑@@
眔
硪
膧
衪
谥
適
鐏
鲳@@
할


ｳ
ﾎ
¯
Ε
力于
幡@@
弇
心力@@
拯
柇
歆
焯
硚@@
磥
稜
篾@@
绡
臆
茚@@
蛹@@
謇
謠
輪@@
轲
邈
馱
긍
맣
믐





┑
啕
奚
妭
幾@@
旺达
書@@
楊
楹
橄
燴
甄
簋
緥
編
肈
苴
茭
茼@@
蓁
蠹@@
锕@@
闰
面面
鸾
랍

Analyz@@
syst@@
儂
刪
卡扎@@
同意@@
娟@@
帓
徊@@
怵
拎@@
捆机
槠
牝@@
瑌
皯
盿
砗
稱@@
笙@@
笤@@
糍@@
紅
美利坚@@
萄
蛿
覽@@
谴@@
貘
饋
鳜@@
鸻

﹪
ｶ
ɑ
ї
า
➢
制表@@
啀
噴@@
奪
孓
庵@@
怏
悻@@
拋@@
桄
歷
濠@@
烹
犫
痲@@
矪
礿
簳
簺
者说
耘@@
胗
膑
舳
萤
蘇@@
謢
轫
迸
遒@@
遞@@
郔
陳
隹
魟
鲮@@
죄
틔



ﾗ
ﾚ
♀
偈
効
坩@@
房间@@
抺
撩
欓
氓
濊
獶
碹
窕@@
簥
糴
緫
譯
诓
郅
鍵@@
镟
閭
頸
餍
饽
马铃@@
髦
量
ｾ
ﾌ
HTO
偏移@@
傥
剡@@
哥本@@
安东@@
審@@
旃
昨
毎
瘆
績@@
苤
藁@@
诜
醍@@
鲱
괩




phere
儏
厓
娊
桳
濛
熼
牆
琏
璟
萱@@
郫
阗
靜@@
鲦
찜
토



ก
侩
俇
勵
受制@@
同情@@
喆
嗄
嘞
悱@@
抯
拫
損
樯
橈
溼@@
璣
繍
芊
茗@@
褒
褡
觳
詢@@
鍧
锷
陔
颦@@
쐐





ϕ
⒊
◊
剰
增塑@@
幺@@
弡
揦
棤
檺
瑈
箟
粠
蛐
螽
袷
補
讪@@
豌@@
貴
跗
躅
邛
霰
뜩
훨


列
︱
อ
卅
同位@@
吤
垯
墽
壜
掗
朐
杖@@
樨
湟
獙
篓@@
翴
荃
虺
褡@@
覕
谶@@
軘
輕@@
釋
铿





ｩ
Mechan@@
不足道
偃
坭
塍
懵
摾
欒
沲
泓@@
浯
煜@@
瘉
絞
绔@@
而言之
臾
舾
莆
菥
蓿
豺
钏



仃@@
冢@@
圾
恅
感恩@@
晱
桧@@
棫
樂
毬
沭
溞
烩@@
爰
猗@@
猾@@
珋
疣@@
痨@@
碚
籴
缱
膥
蛎
跹
辋
醮
錶





ﾉ
⒈
丕@@
以人@@
卅@@
吖
問@@
啵
噘
囔@@
堣
妠
峥
忋
恬
指南@@
摵
擔
斌@@
旮@@
昑
昶
欞
潟@@
炕@@
瑅
疭
素体
脣
芡@@
证会
豔
踯@@
邳@@
鄯@@
鄶
隴
須@@
鲛
鲲@@
鲳
黯



賈
︒
＼
ﾆ
rera
й
щ
ⅲ
亞
佲
嚓@@
圊
奁
奄
娾
審
怩
惋
挞@@
攢
槻
氾
潵
獴
瓑
祜
稞@@
籵
膘@@
艛
芑
诠@@
赭
轎
鏡
靇
魆
鹦
龇
엇







久性
凰
嗟
嗟@@
垝
埨
婦
忱@@
恫
无能@@
昉
柢
棬
浔@@
濾
灦
癬
癿
砻
笁
簱
绂
蛊
賬@@
醣@@
鑼
饽@@
뻔


clip@@
υ
Є
ё
代之
勨
唴
啲
嘁@@
埽
壇
岆
峇
忏
摳@@
擱@@
渰
猂
猡
皮细胞
瞟@@
矸@@
綱@@
縐
腑@@
荇@@
虜
赽
邺@@
霏@@
韭
鼢@@
龅@@
련
윱
혐
횔



句
論
﹙
ｰ
ύ
产资源
亾
侈
侈@@
咗
奢侈@@
媛@@
憧
抒
拞
揖
撿
擊
条箱
枑
犟
痱@@
砒
砺@@
紶
薦
論@@
逖
邨
铳
铻
顯
驌
겼
덜





Jord@@
з
ิ
么样
倏
儹
凍@@
勖
喽@@
嗔@@
噞
囤
圹
堥
崾
採
搰
斘
橐
沅
畦@@
畴@@
矍@@
碝
綇
罗河
脹
菔
蒻
蛐@@
跡
違@@
髻@@
魑
솥





Lifec@@
Ы
ะ
⒁
┱
儆
嗥
棟
泮@@
淄
濄
熱
獲
窠
絚
脆弱@@
臔
芛
苓@@
蒴
蛱@@
褚
見@@
诛
豁
赁
邡@@
鑿
钸
防范@@
陣@@
骊
鲲
뇨
팹



￭
Docum@@
Fuel@@
⒀
他性
俋
俶
債
匯
嗦@@
嗲
囟
尻
尼亚州
平整@@
憰
揢
撙@@
晎
栌
洜
獨@@
珂@@
瓆
稹
篡
鞯
颏@@
黧@@
츌


ﾀ

Ь
⒔
亳
仫@@
公文@@
加达
叭@@
嗓
嚥
囡
墜
嬧
嵼
帀
帚@@
悻
拚
挖泥@@
斠
暱
棄
椭
榾
漕
澎
炜@@
牯@@
猷
瓠
疄
病率
益于
穓
胝@@
腧
臺
莰
訪
谒@@
跶
迡
铡@@
頻
首脑@@
鳀
죗



更
ﾁ
Profess@@

❖
㎏
卒@@
啖
峒@@
开线
撸
東@@
杻
桷
槌@@
段性
洮
減
琮
瑭
硂
禰
紱
罴
苫
莞
葖
蓇@@
薷
蛌
蛴@@
辇
逑
醐@@
鎽
鐐
铩@@
隍
雖@@
됴
촙




Ϋ
ر
乜
侑
加剂
嗉@@
囯
堋
奧
婅
容式
岷
崌
拈
拉罕
揋
汆
涣
溏
溝@@
牱
犱
狍
礜
竊
笱
纛
纡
缤
蕤
藨
虮
螽@@
赳@@
骛@@
髛
댐
륩
Locker
ί
ป
ฟ
ว
‡
⌒
宯
惕
懽
溘@@
煸@@
煽
燧
珏
疳
瘽
磴
窣
續@@
罅
胪
莜@@
評
诖
输卵@@
迂
逦
鐡
锱@@
霎
颢
黨@@
났
부








了
ﾕ
t.com/@@
น
ส
⒌
亓
佟
償
冧
呪
四氟@@
坨@@
婍
尕
崡
忾
旒
晰@@
樽@@
泠
浚@@
滹@@
狨
瑪
痈
眭
硑
箅@@
箸
縣
耄@@
蓴
蛸
袧
課
讅
诲@@
贲
鍪
锶@@
闀
陣
飞速@@
馍@@
꽝




⁺
Ⅺ
⒂
丌
凖
咣@@
喺
娗
媫
孀@@
寲
峴
庀
戣
捱
教科@@
斈
晟@@
曡
波纹@@
涞
潞
猔
瑟琳
相似@@
眰
約@@
緭
羰
羸
蕈@@
螬
轫@@
辎@@
邊
铈@@
髷
鼣
갭



╳
卣
咣
咤
婵@@
岈
庑
彊
恚
收敛@@
杓@@
杰明
标题@@
栲
欹
热衷@@
獎@@
獠
瓄
砆
硁
祉
禖
穩@@
竷
粦
罟
聃
肮
艹
蔻@@
蟥
誘
議@@
逡@@
逤
郦@@
铙@@
閉@@
閾
雜@@
鲌
鴗
鸶
댄
랑
학




ѕ
入到
凼
刎
叱
囗@@
崛
并发@@
庖@@
徭@@
微量@@
愛@@
搒
榄@@
欤
洌
涗
灞@@
琊@@
竽@@
笟
糸
絲
缨@@
華@@
营公司
葳
赜
週
鋽
钿
鞫
鰯
龅
븈
숩
쒔
헥






乬
刈@@
可行@@
哐
嫔@@
孔隙@@
嵘@@
徉@@
戕@@
攫
昇
晁
杵@@
樹
氅
牢固@@
猝
秆@@
紡@@
絕@@
繷
耒@@
萁
軉
轳
邬
錾@@
鑴
饴
驷@@
鷺
鸩@@
鹟
鹫@@
뉲
릿

ﾂ
ม
侊
圪@@
婀
屮
帶@@
彍
徳@@
恍
惁
扲
摓
撥
斏
歿
淝@@
溫@@
炸机
爱沙@@
猼
畲
盶
眹
祴
箩
簪@@
舦
荻@@
谡
賽
跏
軞
邊@@
重量@@
雎
餘
鰙
떱
츰





Pors@@
ι
圻
堦
孖
嵋
巯
徃
憡
摻@@
斯德哥尔@@
楮
榖
歡
氫@@
泞@@
滟
牰
猵
瘿@@
皠
眦@@
笔记本@@
笵
粥@@
缶
翦
菏
衞
訴
謝
诎
锛@@
镡
阛





enca
倔
僳
冞
剕
劾@@
匼
叕
垃
堀@@
壺
奇怪@@
屪
峎
崯
彧
彮
枭@@
楫
橫@@
水压@@
沬
砭
箫@@
紋
罽
蔟
薴
蝴
蝼@@
討@@
談
诠
鋧
鍋@@
阓
際@@
靳
颧
養
송



若
ｪ
ж
⒋
╀
╦
債@@
儋@@
劭
匆
咁
唁@@
寁
帼@@
幣
忠诚@@
愎
懆
枆
棹
橛
沆@@
漳
猗
瓟
瓫
瘑
皬
盽
睢@@
碣@@
礅
種@@
築
簽
絔
药品@@
藋
螫@@
蟠
迺@@
邕@@
鐤
锎
闾@@
颛@@
飓
饔
鼱





陵
流
留
﹥
ﾇ
Loct@@
־
℅
∽
⑪
♂
値
埙
堿
塯
嫙
宍
帳
惘@@
憶
捨
棆
楤
檮
湀
澶@@
疒
眳
睌
硓
磠
粩
紀@@
缢
缷
罘@@
耋
膠
芄
訝
賦
赀
辏
酢@@
隈
霁
餂
饴@@
鸾@@
黩@@
뤠
목
베




ﾜ
pportunity
Щ
ฑ
ท
ผ
↙
乒
乭
俱乐@@
喟
嗳@@
恁@@
惬@@
抲
挝
挹@@
枓
柸
汜@@
洵
洹
瀣@@
甡
瘨
眪
瞋
簩
繀
绨
羆
耶路撒@@
薤@@
蠃
觥@@
賭
趟@@
迤@@
送器
飓@@
骜
鴶
鸷@@
잚
헙



﹡
beros
я
≮
➔
一站@@
伥
傢@@
儉
兒@@
叢
喁
喑
嘗
圮
垃@@
帄
暈
棎
榍
沌@@
畻
箬
索权
緞
繳@@
缱@@
罄@@
臄
蒡@@
藝
觀
賊
邗@@
鑻
镒
镙
闃@@
阨
鲠@@
눠
썩



Й
剢
嗍
寖
崄
彨
承建@@
洊
獯
琵
瑊
甅
畚@@
睥@@
窨
簨
苈
葭
角线
譙
谑@@
蹼@@
钺
防止@@
马达@@
骁
髍
魤
鸥@@
龄化
뫇
섦
쒐
욋




切
itle
ь
ึ
⒄
千计
厩@@
娿
富兰@@
峽
暫
曐
椪
浏
状及
玟
玢
眾
睐@@
碚@@
礗
筲@@
糁
膻
蓍@@
蟑
訪@@
谌@@
負
赉@@
跀
邕
邸@@
雒
饯@@
黺
섞
옘





說
ｫ
ฯ
ำ
≙
佶@@
侞
俀
冋
化床
吇
呣
咃
啣
岜
峤
崵
嶲
式表
恧
慕尼@@
揈
揌
攝
梣
櫥
正态@@
汔
泶
涑
渳
濉@@
濟
獹
砱
碓
禬
積@@
竒
粰
綆
耧
肂
肷
與@@
莘
诤
躍@@
靈
颭
관
누
세
휄


﹂
ﾅ
CADM
Я
叵
啉@@
啋
嗐
嗵
囱
妈的
庋
庯
廣
徙@@
憐
昫
梫
淕
炷
玸
瑗
痀
癹
硔
粧
绶
舉@@
莅
蕹@@
蝥
蟮
赀@@
辔
辚
鑰@@
雛@@
館
骼
黃
랙
풂




/?@@
arget
~@@
∗
┅
俣
俨
哋
坶
嬨
崋
嶌
彆
怍
惂
愰
擱
斂
晠
标人
橇@@
氶
泱
洖
潁
炻@@
煊
瓿@@
睘
稷@@
筝@@
筠@@
緖
縻
蓐
蛑
螖
衲@@
覺
讃
跜
蹰@@
邺
郓@@
锺@@
镐@@
頁@@
늚
던



路
參
ґ
└
㏕
再试@@
劇
哦@@
墏
婇
崗
怄@@
恖
掼
断器
東
榹
櫆
殮
汐
涔@@
溱
潃
爻
犍
狍@@
璓
瞯
祚
綠@@
緱
罘
膦@@
舨
螤
諾
賭@@
軟
顼
饩
鮫
鱷
鲑@@
눤




益

⒃
┒
丐
仡@@
傷
内障
劅
嘬
囟@@
埥
怛
斚
旇
枞
枡
枥
構@@
湜
濞
牴
特式
獐
硖
簏
納@@
紗
絲@@
耽
蓊@@
趼
輕
遄
鄢@@
銄
錢
铧@@
閹@@
閺
闶
阡
霁@@
風
髑@@
鸬
갞
욥
쪽






Retro@@
ϋ
ฮ
ฺ
丟@@
写字母
卮
堞
場@@
墥
婘
屌
巽
廿
愠
戮@@
掛@@
敎
柘
柺
栝@@
楸@@
槦
毀@@
溆@@
烨@@
煺
瑩
甶
监会
箋
绁
臌
舼
蒗
蝈@@
行之@@
觸@@
诔
賈@@
迩@@
鎚
镛
鬣
鳙
경
늴
쀼
쉔
옹
왕
힛





Ъ
▬
伯明@@
億
嗲@@
囵@@
宾夕@@
嵛@@
怩@@
怴
惗
搽@@
擁
擔@@
擘@@
枟
歡@@
滌@@
煶
牴@@
猩
瓾
甯@@
砏
紀
维也@@
聰
芫
茛@@
蔷
藥@@
蠳
覜
託
諷
诹
谖
谢您
蹰
过身
郢
鎢
霈
鲃
黍@@
긴
랬
빱
훰



¸
ώ
ฝ
↔
偓
垵
岽
崮
巃
帤
慷
敍
枱
極
榈
樂@@
欑
汊@@
海洛@@
滏@@
爛
獨
珘
疴
癢
窳
筱
箣
箷
粲@@
糌@@
肅
谯@@
賴
赓@@
邰@@
铡
陨
鳉
麴
뺏
젯
첼
홧








菉
ﾘ
ษ
乓@@
厍
呓@@
咄
姒
婞
嬗
屑岩
岙@@
崝
开口@@
弁
挘
揥
搡@@
曢
曱
楅
浍
熴
熹@@
爾
牾
玳
癓
眬
磴@@
簘
簸
纪录@@
聍
腦@@
舛@@
萇@@
蒯@@
蠮
覩
賦@@
达成@@
鄄@@
閬
馊
黴
鼯@@
끽
밧





旅
類
⋯
╊
价比
偖
傖
傩@@
剛
壙
奪@@
嫒
尬
巼
杲
檎
炀@@
炶
燭
珲
电保护
畫@@
筄
締
縶
臊@@
舠
艸
荬@@
诂@@
賓
遽@@
邯
錯@@
鍎
霭@@
靑
飧
骝
鲛@@
鸨@@
鹎
齑@@
齴
렷
췽










﻿

ɡ
·
พ
⒖
┉
倨@@
儀@@
兒
圓@@
堙
奘@@
媞
崱
幀
悒
悭@@
據@@
斀
斯德@@
斱
旻
桠@@
楣@@
樸
橋@@
汒
泠@@
漾@@
潎
瘢
碞
穑
窸
篁
粪池
糑
脤
荎
蒓
薽
螂@@
谆
賬
迥
遜
酋@@
釐
钫
陓
頫
鼗
뇜
뗍
뺷
솰







分之三
勢
同轴@@
呶
喌
嗫@@
噫
婺
嬴@@
帙@@
恽@@
摭
敿
旈
有素
涫@@
淠@@
湳
焖@@
獌
用人@@
瘩@@
瘴
硏
粎
肫
蚐
蟳
衆
诙
質@@
赂
赉
赳
鎾
铙
镞
驟@@
髭@@
넞
덤
똥
접






ธ
บ
ล
⊥
ⓩ
┐
伫
囹
夆
寧@@
尴
屣
嶇@@
廳
彃
捠
暸
李克@@
椆
檯
潛@@
濓
琍
眙
祑
笠@@
絛
纥
缂@@
膻@@
菽
薜
虢
親
誧
趙
軌
铗
镕
閣@@
饜
馬
驸@@
鹀
봤
젬







冷
จ
∫
┿
侶
俎@@
去年@@
否是
哥尔@@
嘌
嚗
嚜
妊
婕@@
嫦
尅
尮
嵬
張@@
怹
拿破@@
捍
捭@@
揳
撻
敗@@
昢
曗
曽
柢@@
渑@@
溼
滌
潲@@
燄
爧
畬
痪@@
癞
禳
秈@@
竽
笥
粛
纨
缭
臓
茲
蕯
蛞
蛩
術@@
表框
要性
譚
贻
赧
鍠
鲎@@
鹈
굳
댩
렝
워






￮
ณ
⅜
┏
㈥
上市@@
些时候
側
墉
姌
嬶
岣
崅
嵖
懡
揆
揹
摦
擭
枒
栚
毋
淏
潋@@
潫
焜
珺
盪
碛@@
磋@@
磎
礙
祏
秣@@
笤
笮
糨@@
糶
繧
翊@@
耄
臨
薅
蠓@@
貅
醫
鐭
阝
颸
馐@@
髀
鲥@@
鲮
맴
못
배
튤











ฐ
ศ
◣
乜@@
亟
众所@@
伦萨
信片
儘
卒中
厛
发改@@
嚅
埴
婥
安慰@@
尕@@
巊
幫
弌
悵
撪
擇
方说
沮
浗
璖
石流
筷@@
箶
糍
紅@@
繼
翌
耵@@
聽@@
葳@@
蓁@@
蕼
螭
衴
訧
诓@@
蹩
鑹
铨@@
镴
靄
驽@@
헷






﹠
₅
⃝
┥
丂
創
唠
唾
坞@@
埭@@
堠
墸
妤
婪
屙
峙@@
帏
彳@@
必要@@
恵
惫
懠
戕
扌
抸
揠@@
撽
敵@@
旎@@
昞
曒
曛
曪
棌
槹
樑
沣@@
洞察@@
溲
濯@@
煿
燊@@
爻@@
珯
癣@@
硵
祡
競@@
繳
纕
绗@@
膺@@
苡@@
莨
菹
葎
葑
蚨
蚬@@
蜃
蝻
蟋
蠔
袼
裢
親@@
诅@@
诳
说服@@
谗
赓
邴
郞
鐕
閮
險@@
鞑
魑@@
럽
뻠
샘
셕
소
솖
쉪
쒸
튬
팃








累
＠
ฌ
ห
∪
为力
乩
倬
僋
入点
出机
啾@@
喚@@
喟@@
坽
堎
姦
悇
惉
掃
搐@@
斄
斡
梿
檄@@
氵
煳
熱@@
猥
珈@@
珿
疠
的物
皴@@
礬
粿
純
紙@@
綉
締@@
罂
翼翼
臫
艚
茕
藝@@
蠲@@
觛
觥
買@@
赻
跎@@
農@@
鈧
銛
鑸
阗@@
陻
饡
鷠
鹇
꾌
욇
큐
헌








έ
ด
∂
∥
偰
儀
兌
兩
分裂症
劍
叟@@
唏
啓
嗞
嘧
圧
埂@@
埢
塱
壛
媦
孬@@
岘
巳@@
廋
弻
懘
揾
撺@@
擲
教科文@@
敺
晔@@
暝
杳
椄
浈@@
渀
滙
潔@@
焗@@
片麻@@
狩
疔
眻
秣
稫
穐
粶
紹
繃@@
缋
缙
蒹
蔨
藷
蜴@@
蠼
謗
谄
趿@@
跬@@
蹚
辔@@
逬
钇@@
陉@@
韌@@
魈
魉
鳜
黟@@
鼐
齒@@
꺄
맡
밟
쏭
였
텿








弄
ื
┟
俳
冮
剞
喑@@
嘆
嬁
尴@@
岪
峏
幰
愷
懃
扞
抧
晞
晡
晹
杶
柰
検
楑
橀
汴
潍
焓@@
燐@@
爺
琯@@
璎@@
疪
盓
碣
穩
竘
縺
繖
缫
翕@@
肭
臌@@
苎
苝
菠
蛎@@
蛏@@
裉
觸
詩
诟
诤@@
谶
貿@@
賣
踅
迀
鈣
鎬@@
闱
阚@@
雜
餘@@
饪
馬@@
와






聯
ｧ
ｭ
Caterp@@
ا
╄
乂
傑
傘
僣
勶
医护@@
和华
咻@@
嚯
囥
塞州
奧@@
婧@@
媪
嫘@@
孮
尦
当地@@
態@@
扦
扽
揧
搆
搦
擾
敃
暌
殒
殘@@
沖
煊@@
猢@@
瓞
碳氢@@
笕
綎
舖
芶
菴
萄@@
蒟
藁
蘿
虳
蚵
谂
赊
酽
锸
魯
鷂
꼍
끓
떼
뙡
쏜
캕
캥






ั
≌
佥
儵
卍
垡
垤
堚
墁
妧
孻
幙
幟
弗吉@@
彷
慵
拦污@@
捼
擟
昱@@
暘
暾
朐@@
桿
槩
殁
涪
淦
溉
滢
潖
濛@@
瑷
砬@@
礋
窈
笴
繨
缡
而然
芊@@
苁
茕@@
蓠
蜿@@
袞@@
褊@@
褔
診
諗
豸
跣
迖
迚
鉗
镌
顶盒
颻
餓
魃
麼@@
龌
귑
꼈
돤
써
절
케








連
ﾙ
ό
Ѓ
ฒ
ย
‒
‬
不切@@
为重要
主管@@
丼
仠
剒
勍
厑
吲
喾
囷
対
尢
嶱
忖@@
惀
想象@@
憬@@
抅
抉@@
晄
朿
枩
槓@@
洓
淨
炆
炰
犤
狙
琬
畹
疊@@
盍
禮@@
竡
筯
簾
繇
缍
耋@@
膂@@
臁
舸@@
茴
虛
虬
虴
蚂
螃@@
讵
谰
趕
輔@@
逍
邧
鄯
鐣
阊
雒@@
頓
顔
鸱
鹱
됪
셬
잼
퓋












ⅳ
⑫
☉
㎥
乊
伊斯坦@@
佞
侥
儃
円
剼
勞@@
哂@@
唵
堃
头键
妀
專
嵛
嵯
幆
弽
悢
掇@@
掍
撙
擖
昜
曘
柞
栀
梌
氽
浈
涹
溥
灑
炻
燂
牖
狯
狲
獡
琿
痩
砩
碶
穔
章制度
絫
綜@@
織@@
羣
職
茇
荨
莖
菖
葉
葦
蓥
薏
蚺
蛔
蝈
襦
誠
誰
诨@@
貔@@
賸
遙
鄞
鄢
鄹
鏊
饫
鬄
鬲
鸲@@
麵
깎
낚
큑
홈










ﾟ
ข
ถ
∷
⑬
⒍
⒐
〒
儅
叿
哮
啎
嗰
垟
埄
崛@@
帺
惡@@
敊
柦
梴
極@@
樓@@
櫋
殧
淅
潌
潛
潪
瑀
甪
皴
睆
睥
瞀
硬质@@
竛
筚@@
箼
粐
粓
糷
纣
羅
翊
耨
菔@@
菟
行了
贏
較@@
郜@@
酋
锴
阐
顧
鮰
鲠
鵌
꽃
데
볫











︺
ｯ
Busin@@
Repli@@

ฉ
Ⅻ
⒆
♣
➘
伢
凼@@
壔
媸
嫡
屻
嶏
帵
徇
悈
愙
斷@@
旌
旤
枧
栖息@@
栢
棓
槾
橼
殉
溧
烏
爗
痐
痳
砃
砉
祎
祧
笳
管辖@@
篊
繕
纡@@
翑
翮
聿
莸
薜@@
蘭
蛘
褓@@
諳
这样@@
迶
邗
酃
酝@@
醵
鈇
鈴
鏅
鐝
闼
阕
陉
頗
顏@@
饑
骟
鼋@@
뎠
딧
뵪
쐴
앎
웣
윅











mbH
ฦ
⒓
俅
倛
偆
卝
喎
嗭
嘚
噪比
嚌
嚟
圜@@
埜
塗
婦@@
寕
岋
岞
嶺
恇
憜
搙
擞@@
斫
晻
歛
段名
沔@@
沮@@
況@@
浬
漪@@
爨
爾@@
犦
畇
畹@@
盡@@
磢
祔
笓
笘
笷
絃
菡
藙
蘅
衛@@
裡@@
褔@@
誹@@
诒@@
谪@@
貉@@
踮
鄣
雠
飲
骥@@
骧
高空@@
鬆
鸰
龍
뙤
몽






Voyager
spn@@
ш
Ө
∩
∼
一如@@
丏
丐@@
仄@@
俎
俣@@
償@@
删除@@
喅
嘐
壊
壽@@
巉@@
忥
愛
愨
戢
拯@@
揖@@
搑
斝
曰@@
杊
杧
椣
樗
涐
瀮
災@@
爞
爭
狎@@
猓
琥
痈@@
癛
皛
祻
窐
筧
糬
緣
缏
缟@@
罾
羿@@
芗@@
荩
菈
菾
虼
裎
谥@@
貊
蹓
醹
釘
間@@
閹
鞔
鲚
鹨
黢@@
꾼
렀
멍
직
콩
콱
폐
퓻












異
ﾝ
CLARii@@
icrosof@@
ɕ
ี
倶
傷@@
嗫
圣地亚@@
塾@@
島
崀
崁
怙
恀
憟
懊
戥
挈@@
昕@@
櫴
欴
歆@@
氛@@
洄
滂
猢
玎
玷
畉
瘛
白炽@@
砛
碉
磙@@
稈
窮
立叶
筆
簗
糪
紩
綑
縗
纰
翡
耒
脈
膿
荀
荾
蓱
蔸
虿
衽
講@@
譚@@
譬
诬
貴@@
賨
踊
輯@@
辚@@
逹
遯
阆
鞒
順
饠
馓@@
鲉
麋
龆
글
멩
셨
숑
쥴
쯤
쵱






屢
ﾑ
ﾞ
redirect@@

⒎
⒒
㎞
丟
侏
傾@@
内人士
卷风
喔@@
噧
噼
圏
坻@@
垆@@
埵
墭
如前@@
媺
寶
尒
岢@@
崗@@
嵇
帯
懪
戲
斢
柃
楋
槊
槛@@
檬@@
欖@@
燮@@
牳
狷
獎
玺@@
珷
瑥
璉
瓃
瓠@@
砹
穕
窡
等待@@
粝
縀
绚
缐
翋
胤@@
胭
胲
臟
菓
萆
衝
觏
觚
詞@@
豕
跫
跸
蹊
軌@@
轟
逯@@
遴
醡
釔
钔
閵
閻
随之@@
雋
雛
領
顸
飛
麩@@
黜@@
랫
사
쐤
힘






﹢
￐
ฬ
ⅴ
ⅹ
亣
僮@@
刮器
剋
呑
咿
哙
哿
啿
嘁
嘹
埪
墀
夙
娉@@
宆
宸@@
嵎
帏@@
幃
幓
庥
廀
廻
彈
徚
恏
慤
戛
搋
摩洛@@
昳
氧体
泺
狹@@
狻
玆
珹
瑍
甮
疳@@
癏
眇
碭
練@@
繙
缥
羘
肴@@
苘@@
蕻
藠@@
蚣@@
蜪
蝰
蠵
褁
西红@@
覧
討
赕
赩
迨
遒
鐓
鐵@@
钤
锃
闿
阍
雲@@
飻
駐
鶖
鹡
黥
鼋
녞
뷩
쯩
칫











ช
⒏
☞
仅如此
俖
共和国@@
剺
劃@@
哏
啫
嘢
垴
埅
堈
塬@@
妯@@
婖
嫃
嬤
孬
尽可@@
屄
徬@@
懓
戰
戰@@
抎
搃
搳
擠
攝@@
斖
斣
昰
棄@@
槁@@
槓
檵
殛
泭
泷
洃
津巴布@@
洺
漣
澽
焐
爴
牂
瑄
癥
稬
簎
粷
綱
緟
繐
纖
罹
苌
苣@@
蒐
蓖
蘤
虍
蝮
蠟@@
袗
裨
裰
讫@@
賑
賠@@
踼
躍
逄@@
邋
錦
阒
阢
飲@@
饣
饧
骓
鬻
궁
끝
빵
삔
섴
쳬
츠











兩
ｦ
http://go.microsoft.com/fwlink@@
ъ
׀
ค
┕
乌兹@@
倮
僝
利班
刳
勂
勻
土方@@
坜
坳@@
娛@@
婏
嫱
存者
寯
屌@@
峊
崂
崑
帠
帰
廒
愦
慡
戆
戡@@
拡
挈
掅
摍
攜
旓
晳
枥@@
桄@@
棼
樃
湲
潢
琛@@
瘝
瘡
癀
百叶@@
皈
盧@@
睨@@
瞈
瞽
矬@@
祆
秞
穖
笝
筇
篩
紗@@
縊
纔
罃
罨
脅
膤
舸
茯
蓍
蓑
螵@@
衮@@
諮
賞
赟
軍
輋
遑
鐙
锓
锢@@
锫
閣
閨
靈@@
韁
駍
骘
魚
鮠
떓
뙈
흡













凉
⑭
┍
☛
一无二
俪@@
唿
囍
囝
園
垌
埮
媴
屆
岟
崚
巜
幛
弝
忝
忤
思议
恽
扥
提条件
搿
擛
攡
杼
枋@@
栩
洗涤@@
炷@@
熀
爭@@
犚
璁@@
璘
畒
痡
皐
睝
砝
砵
祄
窭
笪
箎
箝
籡
続
綪
縫
繦
纫
羇
羼
翕
脑油
脷
菩
薩@@
虼@@
蟆@@
蟊
貫@@
逅@@
郃
郣
钤@@
铐@@
铩
鞲
願@@
魍@@
魚@@
鲅
鲧
龢
되
뤔
리
싹
촄
횐















略
︼

ɸ
ή
ю
ו
م
ภ
‏
⒅
┺
╅
╋
═
伓
伧
伹
佛罗里@@
侾
傦
冦
剀
厲
叚
圪
堛
塚
嶁
庠
庾
廇
怵@@
愩
慣@@
憖
拮
拽@@
搉
攔
朄
柧
桲
棪
楊@@
檷
残留@@
江省
泫
泷@@
洇
浞
淼@@
滓@@
灣
灪
火装置
牺@@
犮
琁
畖
痪
瘰@@
眅
眏
睜
硊
禯
穆罕@@
竵
篧
絊
緒@@
聖
茷
葫
虢@@
袺
裑
譽
逋
釋@@
錓
鑷@@
闁
隱
鞥
髑
鳳
鸩
麙
麯
黢
것
귰
꼝
낀
뉐
돔
뚝
랗
룀
류
셥
훑













􀁸
ת
ง
ุ
ไ
้
⅔
㈦
㎠
亴
决于
刲
匕
匚
厜
叄
喕
嚧
址@@
垓
塄
娂
嬪@@
嶙
幹
廸
忄
怣
惌
惡
愐
慉
戔
拸
揰
揷
擬@@
敻
斆
暄@@
杪
柁
樨@@
氥
沩@@
湊
潬
澹@@
獽
畛
癯
癶
眞
硗
祚@@
禣
禦
絯
綦
腍
腚
舡
茺
莂
葺@@
蒈
蟷
袓
褙
誊
誠@@
豿
趄@@
酝
鈰
隰@@
靤
鶲
鹄@@
鹩@@
龀
눼
루
뭔
봄
샣
즛
폦










省
urier
Ю
؛
๘
‟
↖
┬
丘里
侑@@
僖
僖@@
億@@
劬@@
勩
厣
向于
嗪@@
坫
垜
堉
塿
墉@@
墬
婪@@
媮
嫆
嫫
屘
崭
嶃
巌
廃
慍
手架
挸
揺
揿@@
摨
明书
柂
柰@@
栺
棗@@
楬
檠
殺
氠
沢
漭
澚
焺
狺
獅
珄
珉@@
珜
畀
瘗
眞@@
瞴
稛
緇
脢
臃
芃
芈
芢
茀
荌
葶@@
薢
藍@@
蛲
蠛
蠲
讣
趵
跻
踫
蹴
蹶
转向@@
鍈
鎝
钭@@
铄@@
陬
雧
馱@@
麾
띤
삠
쉭
쩌














樓
歷
﾿
TimeF@@
contentredirect@@
http://go.microsoft.com/@@
ع
ل
๊
℗
丠
倜
冓
吸血@@
噸@@
圃@@
奜
好奇@@
妁@@
娲@@
嫬
屸
峄
崙@@
嵄
巟
巠
帩
彈@@
悧
悩
愀
懅
懚
戙
摈
敫
昁
暥
暺
杌
楍
槔
歃@@
歙
殍
汨
泐
淃
淠
滾@@
漈
潏
潽
炤
煇
熘
熵@@
燠@@
牻
玦
瑪@@
畛@@
皒
盱
瞑
硷@@
秫@@
秴
等离子@@
篶
籀
粞
紬
綛
綴
纳斯达@@
绲
缜
羜
耜
聅
腬
膽
艋
芟
茌@@
蓦
蕺@@
蠋
袮
裼
谇
谲@@
賓@@
跟鞋
跹@@
蹠
軸@@
轾
逄
銅
鎧
鐖
鐟
陟@@
骃
髒
鬧
鼙
齬
냊
뇰
룐
뻘
셻
흴














Bluet@@
itecture
́
د
┎
├
✩
佞@@
先决@@
凫@@
割机
勳
吔
咥
喋
囮
坼
塡
妶
嫠
寬
幹@@
彗
恣
悭
慄
慠
憲
挜
揻
旄
暹
曈
望值
柾
桤
梃@@
榧@@
榮
橦
歸@@
涸@@
瀥
炅
炩
煋
犟@@
獵@@
瓹
痤
瘌@@
癒
砀
砟@@
硭
箇@@
箧
簟
紒
絑
繛
纜
缇@@
缧
羝
聒
聞
芚
菡@@
蒾
蓂
蓼@@
蔘
蜆@@
蜊@@
螋
衹
褲
谠
豐@@
貸@@
贏@@
趼@@
趽
踉
迕
逯
酆
釱
鉄
鐐@@
鑾@@
镪@@
陸@@
隊@@
隳
霠
養@@
骱
鬻@@
魯@@
鲩
鲭@@
鳽
鶨
鷉
귟
댎
덫
마
좃
쥐
폅
휭
휽



















念
่
๚
伆
会议员
伛@@
侽
内罗@@
冿
凵
厠
厰
吆
呖
哝@@
唿@@
噴
垹
埻
壩
嫲
孑
崤
庲
庹
彔
徠
恂
恛
悒@@
惍
挢
掾
搈
撯
斔
时俱@@
晑
暸@@
杄
栒
案设计
椏
椤@@
樍
沤@@
泒
淝
滠
滲@@
濃
濕@@
焹
煕
爐
狎
璽
畠
疋
痋
癊
癕
眙@@
礌
笹@@
筇@@
筌
筡
絵
縵
繸
缣
翀
胡锦@@
脎
腎
苺
茌
荭
萏
萩@@
藦
蘼
螢
螲
褦
覺@@
説
謝@@
诽
谫
貝@@
赧@@
轸
轹
迗
适宜@@
郏
郧
郩
鑲
阊@@
難@@
韫
馒
骀
骋@@
骷
鳊@@
鵟
龃
겘
섬
실
영
쫴
츛
탤
















丹
令
識

ˇ
ּ
๎
๖
๛
‥
∏
∴
∿
⒘
◢
亓@@
仸
伒
伢@@
伩
僦
剤
劇@@
勝@@
咴
喈
嗨@@
囯@@
圳@@
夠@@
妎
妴
姳
婎
婜
媰
寳
尬@@
峄@@
嵆
嵈
嵊
嶒
帙
帹
彴
悅
拋
拝
挐
挕
挙
搮
搾
撈@@
斅
旃@@
旸
昵@@
枘
枙
枧@@
梠
棻
樆
橈@@
渼
湫@@
炀
焳
煦@@
牆@@
牝
理人
瑾@@
璠
瓵
瘰
眾@@
瞜
砙
箂
粵@@
紐@@
紮
絡@@
緷
缌
缑
罜
羥
臾@@
苈@@
蕞
蛺
袪
裔@@
觔
訾
谚@@
豊
貝
賃
賴@@
跣@@
避难@@
邙@@
郇@@
酏
酡
錟
鑵
钖
铖@@
锘
閃@@
閘
闚
阇
陛
陟
靜
骐@@
鯏
鱹
麥@@
鼍
齒
곹
닓
댑
도
됧
뒯
몰
방
볟
서
센
션
죫
튿
틙












便
六
降
️
ﾛ
Tipt@@
http://go@@
֦
ب
ة
็
ນ
⋅
⌦
⒚
┼
╗
❏
乛
伀
佼
俦
元区
冴@@
别于
厗
吒@@
吽
嘏
囡@@
圞
奺
奿
媄
嫘
嬛
嬣
宓@@
寬@@
峿
嵗
嵮
嶷
嶹
幏
幐
幒
彟
徼
忊
忣
忸
恠
惔
惬
懫
懷@@
戡
搛
攜@@
斊
旆
昝@@
晷@@
暱@@
椻
樾@@
殢
毈
氤
注桩
洫
淛
湓
湯@@
溿
煩
犏
犭
玹
珪
瑚
痊
瘎
瘳
礄@@
禸
籹
粵
級@@
繞
羶
翦@@
而易@@
胊
脍
芏
苤@@
蘇
蘭@@
蜉
螳
褞
觯
誡
謔
謞
谯
賤
趺
跦
違
郗
鐔
钗@@
钭
镒@@
阒@@
陛@@
陸
飾
駕@@
駬
骢
髮
魨
鮸
鲯
鲿
鳊
鸚
鸷
鸸
鹣
齖
齧
깺
꼿
맒
밤
빳
쑹
엃
엄
움
쥼
츣
혼
흼













ﬁ
ｮ
􀁹
https@@

ש
ت
س
⅝
┳
仛
倓
側@@
僕
僱@@
兌@@
冣
冴
剎@@
勝
卺
喚
噱
圣节
垡@@
壘
夵
媶
嫹
宎
屳
屵
岒
崆
嶷@@
底特@@
忭
忮
悘
悝
憷@@
戬
抗器
抱死
攛
斎
斦
枹
栊
栝
桿@@
椡
檣
櫃
櫍
殚
殤
氳@@
沵
泂
淦@@
漃
瀽
灏@@
灣@@
煉
猶
獚
珅
琝
甏
痍@@
瘔
癃@@
硃
磙
祙
禊
笞@@
笲
笸
箪@@
篼
緩
縠
缗
聖@@
臜
艄@@
苕@@
苚
茋
菫
萊
萊@@
蕖
蚍
蛁
談@@
諾@@
诼
賩
贁
酹
鋅
钄
钲
镪
饷@@
驺
髟
鮟
鸊
鸹
鹛
黠@@
齊
龍@@
궐
꾢
넆
넥
덟
새
슉
썽
졏
쭈
출
켓
툭
























狀
￨
ˊ
ח
ל
ฏ
າ
ⅵ
∝
┗
◯
乻
侓
侔
優
冊@@
勳@@
千斤@@
吥
啘
嗌
嗝@@
嘡
垓@@
埰
妘
妸
姰
尥
屺
廈
廢@@
弶
徂
徧
徭
徹@@
忈
悫
悷
慜
扃
扠
揔
揵
擄
攤
敯
斂@@
斕
新加@@
斺
暠
暯
有价@@
柊@@
桢@@
桯
椊
椹@@
榅
氕
淪
渲染@@
滉
漸
潢@@
潸
瀏
灕
炘
煙@@
爍
牎
獬
琤
琨@@
甲乙@@
疍
瘕
癗
癰@@
皝
皹
睍
禷
穞
競
笣
箜@@
篌
糾@@
罟@@
耎
脔
脫@@
興
舐@@
茁
茍
萋@@
蒛
蔍
蠅
誏
誕
譯@@
诋
谳
賹
踡
蹁@@
軸
迪士@@
邴@@
郐
郗@@
鄚
酩
金枪@@
鋼
铏
铹
顖
飏
飯
餬@@
駗
驪
骪
鲗
鲣
鲴
鴷
鷿
黙
꺗
꿍
넓
뙉
륜
섯
왯
잒
퀼
폭
퐕























聾
﹟
˝
ר
ي
ھ
ซ
เ
ใ
ํ
๙
⅛
∟
⊕
┓
┝
┾
々
亸
亻
仳
侐
倈
倫@@
偁
偟
傭
儊
儦
剛@@
劑@@
咹
哤
啝
団
圓
壥
夔@@
娠
孥
宀
尥@@
岎
峕
嵝
巕
庹@@
彜
忷
悆
惝@@
愍
拺
捄
搥
攵
斻
昃
星期@@
晩
暈@@
暔
朓
柝@@
栱
桕@@
桼
梕
棙
椠
歐@@
毐
汚
洳
浄
済
溆
滁
潗
瀬
猖
猧
璜@@
瓩
疙
瘃
療@@
皚@@
眀
睼
砫
砬
碡
礉
祍
祓
窿@@
竰
笄
笏@@
笾
箓
簍
籐
紭
経
絾
綫
縸
繵
羅@@
翥@@
自攻@@
芗
苻
薊
表水
衵
袚
詝
諦
貸
貿
輔
郖
郜
郤
醢
鈦
鏆
鐫
鑾
钏@@
锒
闳@@
阚
阿密
隨
雩
霖@@
餵
骞@@
骹
魮
鰕
鵝
鸪@@
齟
국
녵
놓
뗥
릎
몜
뷴
뺍
뻑
쭅
허





















漏
讀
︳
Stora@@
แ
๐
๗
ᵒ
‚
⃣
℄
ⅸ
⒕
┲
╯
➤
゜
仮
俓
倥@@
倫
光眼
剝
単
卽
叡
呖@@
咫
哓@@
唅
唗
噢@@
圠
垚@@
姙
嫟
嬅
嬦
嬲
孛@@
寶@@
屺@@
嶄@@
巒
広
廛
廨
忳
悛
惝
懌
懱
扴
抜
捋@@
搕
撫@@
旻@@
暡
枸
柉
柗
桘
榘
橢
橹@@
檛
櫧
欌
欍
沕
泏
涖
涿
淆
淐
渾
溾
潰@@
瀧
煭
燴@@
牉
牙买@@
琇
琬@@
瑛@@
畓
畢
疬
痱
痻
眢
矗@@
砗@@
硖@@
祯@@
祼
秏
秪
稉
穉
穌
筦
築@@
絶
緬
纟
绲@@
罰
罱
胙
胩
芵
荦
菗
葭@@
蒥
薤
藺
蘋
蝋
蠔@@
裣
觜
証
誘@@
謹@@
讟
豐
貣
贊@@
轱
迓
远镜
逖@@
邾
郄
郢@@
郾@@
鈂
銹@@
鋆
鐾
鑲@@
険
鞌
顒
願
颱@@
饨@@
驷
驽
鮈
鮮@@
鳇@@
麥
鼽
꾣
녷
눗
뢴
볆
삣
운
좋
척
캐




















車
錄
︻
􀂉
amai
f16@@
fwlink@@
˗
מ
โ
๒
້
‵
ⅷ
∵
ⓨ
┃
▫
▷
佴
倉@@
倽
偈@@
傀
傗
儋
儸
刖
劂
劼
匢
厲@@
呁
哓
唸
唽
嗾
噚
噣
噯@@
垳
堅@@
墻
売
夂
如图@@
妲@@
姝@@
嬥
嶼
廔
廢
彫
徑@@
恔
扂
拊
掮
擣
攃
敂
斍
旖
晬
曅
柌
桽
棃
棒了
椥
槼
檝
檞
歎
殍@@
洐
浛
淨@@
湯
滖
漯
漶
濫@@
珤
瑧
瓤@@
甔
畍
畑
畩
痿@@
癝
癠
盚
盪@@
睚
瞓
礐
礡
礸
秕@@
租人
竆
笀
笩
箙
篃
紓
紦
絓
綈
翥
翲
耪
腩@@
膨润@@
舄
茏@@
莶
莶@@
蒂固
蚰
蜚
蜞@@
蟛@@
訏
謷
豨@@
貳
赍
踽
輓
醆
醐
釦
銂
銑
鋒
錨@@
鍮
鑮
闊
隻
韓@@
題@@
顓
鮀
鱗@@
鲋
鲞
鸆
鹉
麗
검
꺢
꼽
냔
녶
돀
뗌
띨
띸
삿
쒼
욜
잤
저
졍
켖
탬
팀



























駱
卵
索
離
TOPI@@
ָ
ֻ
و
๓
ດ
₃
ℓ
≒
⒑
▅
▎
㈧
㈨
乼
仂
佪
修孔
偽@@
傭@@
儗
匏
卡路@@
厙
叀
咛@@
坒
堺
壗
夀
夝
奅
奭
媲@@
嫚
尷
屲
岍
峩
崠
崦
嵴@@
巗
幣@@
庳
弢
弣
弱势@@
忢
总有@@
愆@@
憮
指肠
挼
捯
搇
撻@@
擨
斲
旮
曌
杴
枇
柝
栕
桖
棯
様
槪
欙
歴
汎
汙
洧
洸
浥
滲
漢@@
煆
爮
狓
猲
玕
畬@@
痄
痄@@
瘞
発
盅@@
睭
矣@@
矬
磌
磔
礞
禒
窪
篙@@
粴
紐
絹
綼
緛
緬@@
縣@@
罍
耶路@@
聱@@
肪@@
膕
舴
芠
茞
茠
萁@@
萛
蓳
蘋@@
蘗
蚥
謀
謦
讛
语表
踐
踔
蹀@@
軍@@
迮
遐
邽
郚
郛
釬@@
鈎
鈡
錠@@
鍫
鐵
钘
铫
陴
陽@@
雲
韜
髎
鯨
鯸
鰤
鹁
齑
긁
긱
꼼
녜
됐
딪
땜
띶
렛
롤
몹
뭉
뱀
앭
앮
약
양
에
엥
옰
초
춼


















療
://@@
ɣ
ב
צ
׳
ق
ๆ
⃒
⒇
┛
╪
▁
不列@@
丿
乆
俰
偛
傧
僛
兂
兖
刿
剗
剽
劉@@
勰@@
勻@@
卐
厒
咲@@
哕
哽
啞
圌
執@@
塭
嫳
孟加@@
崷
嵏
嶰
帔
廾
忾@@
怖@@
惦
憗
懔
戋
挩
挷
捙
损益@@
掊
掞
掭
揸
撅@@
撱
擡
擴
无家@@
枂
栥
桝@@
桴
棑
椑
椢
榈@@
榦
欸
欽
殻
毞
気
氢酶
氺
涍
涑@@
淉
漲
潟
潳
澷
濟@@
瀞
炪
獗@@
玑@@
玭
珣
琯
瑆
瓘
痠@@
瘡@@
皻
盞@@
盥
眍
瞏
碻
磲
禆
稲
窣@@
純@@
絞@@
緝
緪
羮
耩
胬
胴
脫
膞
臗
芲
苧
荖
莳
菝
菥@@
葉@@
蒁
蔹@@
蘧
蛷
蜞
蜮
蜾@@
蟊@@
蠁
衖
観
觃
觋
觌
詠
譜
譫
讶
貔
貭
賡
賽@@
赒
躐
躜
輛@@
農
遲@@
邿
郇
郾
醍
醑
銊
鍕
鍭
鍯
鏙
铎@@
镢@@
閃
馔@@
魍
鮨
鮮
鰡
鹽
齠
龠
꿉
낄
넷
뢛
릴
맂
묾
벵
붤
붷
붺
쌤
썅
쎍
쏨
쟁
좁
춡
킹
텬
푀






















女
簾
履
﹛
􀁺
ˆ
ְ
ה
י
נ
ฎ
๕
⅓
⎯
⑮
♥
〆
与众@@
丒
仒
代皇帝
俍
俠
俵
偬
処
匉
卩
叓
唸@@
喓
噹@@
回阀
圴
堔
堬
墷
夘
奬
姵
婁@@
媵
嫋
嫰
孳
実
寃
岌
峁@@
峘
峯
崞
嶕
巬
庛
廤
恆
悃
愍@@
慣
憭
懍
抉
抨@@
拲
掋
揓
揫
搖
搚
搧@@
搨
擊@@
擠@@
擰
擻@@
攣@@
斃
昇@@
昝
昶@@
楩
楮@@
槗
檙
欒@@
欖
殣
殭
毖@@
毳
汫
泔
洅
涳
涼
淯
渉
濂@@
烚
焼
煴
牁
牼
犽
狅
狲@@
猸
獇
獍
珙
珮@@
珶
璡
瓻
畋
疰
瞵
硇@@
硙
祉@@
禜
禤
穎
穰
笊@@
筈
筴
篜
籃@@
粙
紤
纭@@
聼
肀
肞
肶
能见@@
腳
膚
舥
舻
芐
苧@@
蒌@@
蓊
蕆
薁
薄弱@@
蛱
蜴
蝕
蝴@@
蟈
蠑@@
蠶
衛
裀
西班@@
訾@@
謂
譭
踞@@
踬
踺@@
遝
郦
鉬
銀
銅@@
銹
鋒@@
錫@@
鏽
鐠
钂
钷
锬
镔
镔@@
関@@
閤
閥
闸管
阏
阰
陊
隹@@
靬
飔
餽
饹
髁@@
髦@@
鬯
鱀
鳠
鴢
鹓
黻
鼑
겜
겯
꺣
껸
늽
뜔
릤
쀦
셌
쇸
썹
쐙
쐼
즘
쩀
췄
켗
휨




















零
見
Validator@@
contentredirect.asp
ϭ
ִ
ד
๋
์
ວ
ັ
┠
㊣
㎲
东省
両
五入
亜
亻@@
仵@@
伛
侪@@
俟@@
倂
們@@
倨
偄
偵
僱
儭
冪@@
剎
勠
唥
圉
圻@@
垏
埇
埒
塎
塗@@
墊
墣
壍
夢@@
夲
妫@@
妵
婬
宮@@
屦
岡@@
峃
島@@
崘
崥
崻
帮助@@
幾
廍
廚@@
廯
徘
总裁@@
憃
憸
懯
戯
戾@@
扞@@
抔
挬
捈
捤
搊
擮
旰
昹
昻
暿
曋
曽@@
朳
栵
梷
棔
棷
椟@@
楽
榇
榼
樫
檻
櫨
殘
毊
毖
氇
洁度
浂
渖
漿@@
潆
澉@@
濕
瀣
炅@@
燐
燒@@
牺
獄
獊
玠
琕
琲
瑚@@
瑯
甁
甕
甛
痴呆@@
瘜
瘭
盤@@
眊
県
瞋@@
硇
碏
祿
禛
秫
稶
穸
窵
竜
筭
箞
箪
箵
簙
簾@@
粢
紵
綠
綮
綺
緘
緣@@
緾
网眼@@
罙
翍
聰@@
肄
肏
脩
腠@@
腫
臝
舢
舺
芤
荏
莜
莩
萚
萣
葑@@
葸
蒯
蔫@@
蔯
蕲
藍
蚘
蜘@@
袂@@
袞
袟
袪@@
觳@@
訣
話@@
讠
貍
趺@@
踭
蹒
迠
遨
酎
酕
醌@@
鋼@@
钯@@
锔@@
镈
镝@@
镠
镤
闕
闩@@
靺
鞨
韫@@
顴
颽
颾
馇
駭@@
騖
騷
骠
鱲
鳘
鳳@@
鸺
鹖
鹾
麗@@
麿
黃@@
鼷@@
게
겠
굛
돠
됮
룾
미
븀
뺝
뻐
뿭
숨
썮
쑴
씩
옜
우
짇
찮
컴
훅
































亮
Rainf@@
ֶ
ֹ
׃
ن
ⅶ
↘
⑯
⑰
⑲
⒙
┞
┩
┶
╧
➮
亂
亶
人寿@@
伃
佥@@
侸
俆
倬@@
倮@@
凊
凱@@
劭@@
包人
印第@@
厶
呶@@
哢
喥
噠
圝
垧
埏
埞
埤
堌
堏
堐
堶
壸
夢
夣
夤
夤@@
夬
失所
妿
姉
媽
孱
宬
寛
尪
屍
屛
山车
崐
崕
嵐
嵫
幨
影像@@
怎样@@
怱
愶
愾
慓
慬
憤
戃
戸
抨
挹
掆
掬@@
揎
搖@@
摀
摉
撲@@
攺
晊
晍
暼
曉@@
曦@@
朢
柕
桾
梤
棟@@
檈
欬
殄@@
殏
氆@@
洨
浯@@
淚
滏
滐
潠
澤
濃@@
烆
煐
犇
狹
猇
猏
猕
珽
琘
璂
畑@@
畝
畢@@
畱
瘣
眭@@
矩器
础@@
硠
碦
碩
礞@@
礽
祼@@
禮
秳
秼
穢
竑
笎
筆@@
筍
箮
篭
簞
粆
紛
絳@@
緉
繰
缲
翵
耞
聚类@@
肣
脈@@
臚
艄
艨
茑
莊
菽@@
萑
葀
蔥
蔵
蚳
蝨@@
螵
蟲
詩@@
諮@@
譴
讴
谰@@
豖
賠
贈
趨@@
跞
跡@@
輻@@
辭@@
遘
遷
邰
郄@@
郋
鄱
酘
酲
鉻
銎
鋮
錀
錠
鏃@@
鐎
钃
锗@@
镞@@
長@@
隗@@
隸@@
鞷
飣
馄
馓
驚@@
魙
鰗
鵰
麈
麚
끾
녇
념
닷
뒫
디
뙇
뙟
뿟
섀
성
셰
쏟
쓱
애
재
주
쫠
체
툽
틣
틪


































領
︵
eFuel
spaceb@@
ַ
ֺ
ײ
ؤ
ฆ
ລ
‣
⒗
Ⓐ
ⓧ
┌
╜
◈
♭
❝
❤
仴
佗@@
佝
倆
倻
偊
偱
僬
公河
凍
凑型
刭
刽
剳
卻@@
厭
叝
咙
営
嘇
嘠
噹
嚴
囓@@
囶
圯
坁
坲
埶
堊
塵@@
塼
墝
士丹利
奃
奓
娒
孒
寀
尙
岲
岵
峫
崮@@
嶸
巉
巐
巹
帗
弪
怢
怿
恎
惃
惓
懇@@
懸@@
戓
抻@@
拶
揍@@
揾@@
搘
搠
摚
擜
擵
攤@@
攩
攴
敔
斮
方图
晈
暩
曻
柨
柵@@
梊
棊
椙
樋@@
櫞
歳
殌
殳
殼
毚
氽@@
沺
泅
泺@@
洎
洑
浃
渫
湎@@
溽@@
滹
漴
漸@@
潋
澍@@
澗@@
瀅@@
瀹@@
灑@@
烔
烕
焱@@
燭@@
爺@@
牘
牯
牷
犠
狻@@
猠
瓛
瘧
皕
盉
眽
瞌
瞞
瞮
砎
砯
磃
磬@@
礦
禘
禫
秾
稟
稩
穏
窛
筊
篝
篥
絜
綒
緃
縩
繎
纐
缳
羕
翈
翉
習@@
翛
耷
聞@@
脹@@
腎@@
腫@@
腳@@
自闭@@
艶
芅
苘
苜
茩
荥
莒
莯
萆@@
蒺
蔌
蔣@@
薮@@
藐
蘅@@
蚰@@
蚶@@
蜿
蟀@@
衇
褴
覦
觹
訟
訽
譎
诩@@
诰@@
豷
賙
趑@@
跐
跩
踣
蹉
蹾
輥
轄
轺
辶
遼
邁@@
邐
鄰@@
醭
鈅
鈡@@
鉤
鋥
錢@@
鍌
鏖
鐽
锊
锜
锼
锿
镄
镋
閬@@
闉
闊@@
陑
陳@@
隣
隼@@
雞
霧
靿
韡
響@@
餮@@
餽@@
饸
騠
髖
魈@@
鳥@@
鵎
鵼
鸫@@
鸳
麩
겟
겹
깿
뉑
대
뤷
맏
맨
뮌
뵷
쁈
솴
신
염
작
죙
지
쬠
취
췻
펹
한
혜
홱
횻
훈




































奈
露
北
臨
神
﹎
􀀀
􀄼
˘
ֳ
א
ץ
ญ
ู
๑
ຊ
ມ
ຫ
ອ
ი
℡
⇔
┘
┙
┢
┤
┨
┫
╝
╨
▇
◀
✘
㎫
㏄
乣
亀
侜
侩@@
侶@@
俢
倕
倠
倢
傾
兎
円@@
剟
功于
勄
勅
勞
发达@@
呙
呾
嗑@@
嗮
嘖
嚇
嚑
嚒
囘
圾@@
坰
塝
塵
墜@@
壦
奣
妢
妣
姮
姶
娕
娛
婼
媟
嫍
嫚@@
嬒
宥@@
専
尻@@
屨
岝
岡
峉
崟@@
巶
廫
弅
式机
当务@@
彖
役权
徕@@
徜
忐
怃@@
恞
悱
悵@@
惤
慁
慝
慾
憛
懏
懷
拑
掽
摒
撖@@
撫
撺
擼
攪@@
敉
时捷
晫
暌@@
暦
曁
朣
枱@@
枵
枾
柶
栍
栟
桎
桵
梋
棸
棽
楜
榥
櫄
櫤
欀
歸
殀
氹@@
汃
泙
涾
淓
渋
湊@@
湧@@
漖
漥
漼
潯@@
潱
潲
澐
澯
濸
灠
烜
燒
爙
牀
牭
狁
狺@@
猱
獾@@
玾
珝
珰
理图
琮@@
甓
甦
畧
疰@@
癐
癔
癴
眃
眄
眣
睒
瞙
瞠
瞹
瞻性
碩@@
磻
礟
礠
礤
礻
禠
稔@@
穀
穂
窅
窎
窞
窪@@
窬
竝
笊
筻
箬@@
簣
籈
粔
絣
絻
綻
纒
纻
缵
罀
罡@@
翚
翧
翯
耑
聡
胣
膩
膽@@
臩
舎
舕
舳@@
舽
苐
荦@@
蒗@@
蓮@@
蔠
蕋
蕓
藇
藑
蘆
蚅
衃
衊
衶
袈
諧@@
諸@@
豌
豕@@
貳@@
賜
賺
跽
輝
轄@@
轵
辭
迺
逕
逺
遷@@
邠
郅@@
郿
鄰
酙
釁
釐@@
釴
鋁@@
錞
鍴
鎈
鎌
鎔@@
鐦
鐮@@
钊@@
锦标@@
锽
閡
阭
陜
陽
隗
隰
隲
靣
靨
靭
顆
駃
骻
魽
鰍
鱆
鳔@@
鵙
鶀
鶪
鶿
鸱@@
鹵
黼
각
곈
교
기
껃
꾡
꾥
뀽
낍
나
뇽
뎐
뗦
뚖
뜹
램
뤺
뭽
밦
볠
뵙
빊
쀨
삞
선
쑍
쒎
쒜
업
엹
이
좐
쭉
췢
팁
펭
폶
훵






































拉
蠟
老
良
林
粒
都
ﾺ
􀂃
􀂾
Microsoft.com/@@
̀
̅
ֱ
ֽ
ס
ף
װ
ج
ص
ط
ࡊ
ກ
່
‗
⁴
Ⓓ
Ⓔ
▉
❍
㈩
㎚
乀
亁
亽
介石
以赴
侂
侉
侉@@
俁
倁
倖@@
偲
僟
儙
儰
冏
务人
劯
匸
匽
厭@@
叞
吀
吣
呂@@
嗚@@
嘊
嘋
嘔@@
嘦
噷
嚦@@
囑
垆
垤@@
垻
埾
堊@@
堷
塈
壇@@
壈
壏
壠
夞
妦
婲
媼
嬖@@
嬠
嬰@@
嬻
屜
岦
峋@@
峽@@
崪
嵷
嶂@@
嶾
帊
幮
庴
弮
弾
徦
忲
怍@@
悅@@
惄
惞
慒
憔
憿
懗
懝
扆
抳
拃
挿
捚
掎@@
排行@@
掲
揨
揮
揶
搶
摃
擆
擧
擺@@
攬
旕
暅
暤
曠@@
朕@@
朩
杽
枘@@
枬
柖
柲
栤
梻
椖
楛
樸@@
橾
櫃@@
櫔
櫙
殺@@
毬@@
氬@@
氿
沄
洤
洬
洭
渃
湅
溷@@
滝
潧
濞@@
濿
災
煑
燦
燹
燿
爛@@
牬
猀
獀
獟
玃
玎@@
玱
珏@@
珒
瑺
瓚
瓥
畎
畐
畔@@
痁
痺
瘌
癍
皞
睃
睟
睱
睺
瞉
硚
磭
祕
禎
秂
窀
窺
竀
竄
笍
箋@@
箐@@
篘
簻
籊
籌
籪
糏
綊
緙
緢
繋
繜
纇
级社
缯
罷@@
聾
胪@@
腄
腖
腣
腤
腸@@
舣
艟
艱@@
芴@@
荛
荬
莮
莿
菛
菜单@@
葇
葙@@
蒨
蕰
薦@@
薨
虷
蚯
蝌
螠
蠎
裈
裶
褀
訴@@
譲
讚
诿@@
豳
貼@@
賣@@
贊
赑
赜@@
趎
趕@@
踺
蹂
蹯
輠
辂
迻
邳
郈
郉
郓
酦
鈴@@
鈻
鉅
鉢
銉
鋋
鋤
鎅
鎳
鑃
鑠
鑪
铦
铺机
锖
锞
閼
阏@@
阾
雎@@
雙
霣
霹
鞡
韋
頞
顏
顗
顥
页面@@
颙
颛
颟@@
颩
颯
颱
饈
饒
駛
験
驕
驩
骍
骯@@
鬘
鬧@@
鯢
鱣
鱵
鲏
鲘
鳑
鴥
鴵
鶵
鹁@@
鹆
鹜@@
黵
鼢
굇
꾜
꾤
뀁
뀲
날
뇟
뉩
당
댛
덞
뎀
됭
똫
똬
뛊
뜒
뜮
럿
로
룟
멀
멨
모
뭐
백
뷘
븐
뺌
삇
샌
샯
섇
섹
쉰
쌧
썼
쎾
쐣
쓴
씭
얻
왝
윜
을
준
쪄
쫀
춻
컇
크
탱
퍜
폼
풏
하






































復
葉
掠
輪
里
︶
﹌
ￚ
alse

̃
̊
ׁ
ז
ק
ء
أ
ش
ฅ
ງ
ະ
ີ
ᄋ
ả
⅞
⒛
Ⓛ
┆
┚
┭
❷
㎎
一模@@
丵
亶@@
仧
佂
侺
俔
倝
倧
偝
傑@@
儠
儼@@
冨@@
剀@@
剝@@
劊
劋
劌
卬
吳@@
咆
咜
啁
啯
喍
喪@@
嚄
嚙
嚸
土化
坌
坵
埬
埯
埳
堄
塊@@
塋
塍@@
墚
墺
奮
妋
妛
娆@@
婭@@
媲
媽@@
嫈
孃
寈
岥
峚
峣
崴@@
崺
嵬@@
巎
巭
巻@@
幟@@
幠
庈
庠@@
庻
廌
廧
廩
廴
弎
彎@@
彘
徤
忉
忦
恝
惢
惻
愅
愼
憍
懭
懼
扐
払
扱
抇
抈
抦
拤
捀
揼
搌
摗
撢
擝
擳
攇
攔@@
攢@@
斉
斎@@
斸
旜
旝
昐
昤
昦
晗@@
暢
暻
曉
曊
朜
朲
朼
杤
杲@@
柙
柤
栻
梑
梒
梺
棁
棐
棭
棲@@
棳
椀
椨
椩
椫
椺
楯
槊@@
槍@@
櫓@@
櫠
氎
泃
洇@@
洵@@
洷
浡
涒
淎
湧
溁
溽
滮
漁@@
漢
漷
潁@@
潙
潴
澌
澪
灘
灱
烀
烇
焅
熘@@
燁
燉
燙
燠
爰@@
牍@@
牤
牪
牽@@
犛
犛@@
犷@@
狽
猶@@
玍
珎
珧
珻
珼
理处
琋
琚@@
琞
琣
瑋
瑨
璈
瓊@@
甑@@
畯
疋@@
疨
瘅
瘋
瘺
癃
皁
皊
盧
眛
矓
硋
碓@@
磚
磧
磯
礙@@
礦@@
祮
禇
禔
禟
禲
稤
稴
穋
穘
穫
笿
箄
箖
箻
簅
簖
簤
粖
粫
粻
糈
糢
絢
緄
緞@@
緱@@
縤
繪
缧@@
罞
羑
羾
翃
翐
翫
翬
翹@@
老汇
耔
耪@@
耴
肁
脇
腇
腡
臘
臟@@
苌@@
苬
苸
苾
茈
茺@@
菀@@
菕
菻
葠
蒃
蕔
蕣
蕤@@
蕩
薐
蘚@@
虉
蚍@@
蚨@@
蜄
蜩
蠖@@
衖@@
袤@@
袶
裵
褠
褩
襖
襯@@
覚
觱@@
詐
詴
謸
謻
譈
譍
豛
貢
賂
賋
贓
贠
赱
趿
跂
蹻
輘
輭
輿
迣
郲
鄭@@
酤
釔@@
鈦@@
鉓
鉻@@
銌
銘
鏊@@
鐉
鐌
鑽@@
铇
铓
锱
长国
闍
闭机
阄@@
陎
陰
隴@@
靏
靸
韓
頒@@
顕
飼@@
餦
馹
騙
驒
马达加@@
髀@@
髧
髫
鮡
鮭
鰲
鰹
鲥
鳁
鳆
鳇
鳚
鳥
鴞
鴠
黧
鼷
齡@@
龊@@
龤
갰
곁
궧
꼌
뀌
뀬
끻
낁
냘
넹
녑
녕
뇛
는
닑
뒀
뒪
떨
뚧
뜲
뜻
띴
띺
렉
륙
먳
멊
명
별
볽
뵉
뵻
삯
살
쇔
싦
쌓
쌘
쑉
씐
얍
옻
윗
융
의
일
장
쟻
정
쩡
탰
툇
툗
폤
퐅
퐋
퐪
환






















































喇
樂
落
練
裡
精
ﾰ
􀀁
ə
ɛ
˂
̈
љ
џ
Ґ
ׂ
،
ح
ف
ه
ๅ
ຜ
ິ
ຸ
ົ
ა
შ
ᴑ
‪
‫
₵
Ⓑ
Ⓒ
Ⓙ
┵
┷
╟
▌
▣
❒
❶
❸
➡
㈱
㎩
㎼
上好
丬
乚
仏
仡
以下@@
仯
仵
伋
佉
佧
侅
俉
偉@@
偤
傕
傥@@
傺
僇
僤
儤
光导@@
兲
刋
刓
剅
劄
劬
占空@@
厍@@
吙
呡
咼
唎
唣
唦
啱
喆@@
喏@@
噊
噍
噐
噦
嚅@@
嚏@@
团队@@
囫
圗
圱
圵
圸
坋
垠@@
埍
埓
埣
埤@@
塚@@
塨
塸
墊@@
壀
壄
壎
壞@@
壯@@
夑
奮@@
姷
娍
娷
婋
媖
嫕
嫢
嬾
宂
屢
峜
崳
嵟
嶋
嶔
巣
帱
幍
幬
庁
庒
庰
庼
廟
弴
彺
忨
怳
悤
悪
惣
愗
愜
慇@@
慏
慶
慶@@
慺
憲@@
懛
懞
懲
懸
扡
扷
拏
挀
搸
擯
擸
攪
攲
敄
敇
敘@@
敨
斉@@
旣
晇
晛
暍
暭
曃
曣
曵
杛
杸
果说
枴
柃@@
柅
柮
柵
栄
栳
桟
梄
梽
棅
棝
棨
椧
楱
榚
榮@@
槅
槚
槧
樁
橽
櫩
櫼
殁@@
殄
殇@@
殪
氈
氷@@
沘
洧@@
淰
渑
渟
湃@@
湹
溉@@
滾
漬
潻
潾
澔
澥
澱
瀕@@
灓
烬@@
狆
猤
獮
獻
玓
瑒
瑱
璎
璗
璟@@
璿
甍
疌
疐
痊@@
痖
痬
痸
痼
瘢@@
瘵
癇
癩
皘
盜
盜@@
真寺
眲
眿
睄
睰
矂
矇
矑
砕
砳
祰
秎
秺
稂
稓
稢
稣@@
穬
穰@@
窊
窩
窾
笳@@
筂
筜
筼
箏
簦
簰
籠@@
糇
糞
糨
紉
紏
紹@@
絖
絠
綘
緲
縂
縄
縧
繄
纩
绖
绡@@
罈
罠
罣
罣@@
罰@@
羙
羬
羭
羱
翣
聃@@
肅@@
肜
脕
腂
腃
腜
腟
膣
臖
舂@@
艙
芀
芧
芰@@
苳
茲@@
荑@@
菑
萡
落度
葙
葝
葰
蒄
蒚
蒭
蓆
蔴
蕞@@
蕪
蕭@@
蕹
薆
薥
虧
蜒@@
蜭
蝀
蝟
蝨
蝪
蝼
蟃
蟄
蟪
蟲@@
衂
衤
袴
訰
詛
詮
詰
誃
誰@@
諁
諧
謠@@
謫
譇
讓@@
谮
豋
豎
豨
貓
貓@@
貧@@
販@@
賛
贇
贍
贗
赗
趨
踇
踌
蹍
蹵
躉
躝
軀
軛
轪
近平
透社
逡
逨
逶
遙@@
邉
邙
鄉
鄉@@
鄲
酆@@
酫
醷
釣@@
釭
釵
釺
鉨
鋂
鋗
鋪
鋰
鍍@@
鍾
鎊
鎧@@
鎮@@
鏡@@
鑌
铉@@
铘
锳
锹@@
镮
閝
閼@@
陏
陝
陝@@
隦
雖
雞@@
雰
霌
霪@@
霺
鞏@@
鞚
韟
顐
颢@@
餗
餚
餫
餺
饇
香糖
駛@@
駿@@
騵
騷@@
髃
鬥
魣
鮊
鮞
鯻
鰮
鲬
鳓
鳦
鳯
鵡
鶩
鷟
鸚@@
麴@@
黩
黹
齊@@
곕
공
괵
귛
꼴
뀉
끀
끿
내
녺
녻
놂
댆
덃
델
동
둬
땟
뙁
뚨
띹
렎
룡
릮
림
매
맺
머
멱
몇
뫄
뭅
바
벅
빅
뺐
뽫
삻
삼
삽
샑
섋
셩
수
숯
스
싧
쑯
앳
어
옖
왁
요
응
쟘
즳
짧
쨋
칵
컸
쿡
텻
툔
틢
퍨
펌
퐬
픍































































勞
諾
戀
硫
宅
ﬂ
﹨
﹩
ﾩ
𝑇
𝜎
Microsof@@
http://www.Microsoft.com/@@

ʼ
ϑ
ϒ
ϛ
Ϭ
ϵ
Њ
Ћ
ט
ך
כ
ע
פ
ױ
ظ
ك
฿
๏
ຍ
ຳ
ແ
ໜ
ე
‴
⁵
↗
↪
∯
≅
⑱
Ⓕ
Ⓖ
Ⓚ
║
╓
╛
╬
╮
❹
➄
丷
乗
乸
亂@@
亠
仉@@
仨@@
仩
伥@@
伨
佄
佴@@
侘
価
侷
俿
倖
倞
倹
偲@@
僙
僩
儉@@
儔
儼
兿
冂
冸
凅
凱
刎@@
刼
剘
剙
劖
劻
勖@@
勥
勸
北省
厼
取而@@
吢
告诉@@
呺
咑
咠
咡
咲
唃
唼
啍
喬@@
喲
嗱
嘖@@
噉
嚆
嚐
嚢
嚶
囓
囖
囼
圉@@
圫
坩
垬
埖
埜@@
堅
堨
塜
塩
墟@@
墮
墲
壌
壝
壢
壺@@
奂@@
奌
奍
奞
妺
姇
媕
媜
媤
媬
媸@@
嫀
嬝
嬤@@
嬰
孲
宧
尌
峆
峝
峴@@
崣
崼
嵒
嵕
嵚
嵡
嶍
巇
帡
帾
幩
幪
庩
廐
廚
廳@@
弉
弫
彌@@
彵
彽
彾
徬
忞
怄
怆@@
怤
悺
悽
愇
愔
慇
慞
慮@@
憇
憙
懐
懢
懼@@
戆@@
扙
扵
抐
抔@@
択
抮
拀
挅
挴
掙
揽子
摅
摕
摙
摠
摡
摢
撧
擋
擪
攉
攟
敀
敆
敥
旰@@
昮
晅
晉@@
晸
暉
暋
暎
暢@@
暪
暷
曶
朶
杇
杕
杼@@
枊
枴@@
枻
柈
柷
桺
梖
梜
梶
梼
棡
椃
椌
椔
椚
楗
楫@@
榱
樠
権
橍
橿
檵@@
檸@@
櫘
櫡
欻@@
歺
殂
殠
殶
毪
汭
沋
沨
沩
泧
洙@@
洟
涏
淂
渿
湶
湼
溚
滢@@
滪
漁
漣@@
潥
澂
濤
瀭
灗
烜@@
焠
煖
燗
燙@@
燚
燻
爘
爝
爢
牐
牗
牚
犑
犒
犴
狥
狰
獅@@
獸
玒
玼
珺@@
琂
球墨@@
琎
琔
琖
瑃
瑇
瑯@@
璩
璪
璱
璽@@
甌
甐
甕@@
畄
畠@@
畤
疁
痃
痚
痠
痺@@
瘊@@
瘐
瘓
癉
癙
癩@@
癱
皀
皺
皿@@
盷
睷
瞊
矍
矘
矰
砮
碇@@
磂
磉
礓
礖
禗
秄
稙
稦
稧
稪
稭
穇
窂
竓
笐
笕@@
笚
笰
筅
箒
箜
篗
簚
簵
簷
籌@@
粚
糧
糵
紱@@
絛@@
絨@@
綁
続@@
綜
綢
綽
縈
縊@@
縐@@
縢
縫@@
縱
繆@@
繝
繺
纏@@
纘
纜@@
纫@@
缼
罁
罌@@
罏
罫
羉
羗
羳
翄
翏
翺
聱
肐
胼
脁
脄
脞
脩@@
腨
腸
腼
膄
臉
臉@@
臏
臥@@
臮
舁
舄@@
艨@@
芘@@
芟@@
苶
茘
荓
荕
荳
荸
莕
莛
莤
莴
菢
萩
萮
萳
葩@@
蒉
蒧
蓴@@
蔔
蔕
蔥@@
蔩
薈
薬@@
蘚
蘜
虲
蚏
蛂
蛝
蜘
蜰
蜻
蝤@@
螕
螚
蟌
蟻
衱
裖
裧
褊
褝
襀
襯
覂
览会
詌
詮@@
誇
諂
諍
謎
譊
譓
譠
譥
譫@@
豬
貙
貢@@
貮
賀
贛@@
贶
跘
蹑
蹕
蹠@@
躱
軑
輙
輞
輻
轝
轟@@
辇@@
辎
辯
迻@@
通配@@
遀
遄@@
邃@@
邏
邶
郳
醂
里兰@@
鈉
鈺
鉀
鉍
鉛
鉬@@
銥
鋁
鋐
鋬
鋻
錨
鍡
鎱
鏘
鐧@@
鐬
钁
钲@@
钺@@
钿@@
锟@@
镚
镳@@
閙
閞
閟
闕@@
闖
阃
隃
隝
雃
霨
霽
鞜
韋@@
韌
韢
頃
頸@@
顅
颥
飽@@
餅
餵@@
饋@@
饍
饞
饦
馃
馗@@
馞
馮@@
駁
駱@@
騰
驍@@
驚
驢
骖
髄
髪
鬖
鬲@@
魋
鮋
鮑
鮑@@
鮣
鮶
鯀
鯙
鰂
鰭
鰴
鱘
鱙
鱚
鱯
鲒
鲖
鲰
鲺
鳏
鵐
鵬
鶰
鷵
鹌
鹠
鹽@@
麆
黪
鼔
鼪
鼫
齁
齧@@
갚
걜
곗
곤
곫
곳
굡
궍
귄
귚
꺮
꺼
꺽
뀯
놪
뉏
댁
돥
돬
됬
둅
뒣
드
듿
떽
뙞
띈
띌
롇
뢿
료
뤹
륫
말
뫆
묈
묛
뮬
믓
믯
받
밝
뵳
뷜
뷸
븅
븚
빎
빜
빻
뽬
쀥
산
솮
쇾
숂
시
쌔
썓
쎅
쐏
쐦
쓰
씁
씌
아
앙
없
욄
울
육
은
자
젃
졾
좈
줄
쥦
쭛
쭤
츐
컙
쾀
텃
튌
팎
퍏
펤
퐤
푶
훭
흽








































































蘿
爛
壘
殺
陸
蘒
﹏
ﺎ
𝐸
𝑚
􏰁


ɴ
ˈ
Џ
ѐ
ђ
ֿ
ם
خ
ز
ߦ
ि
ຄ
ຕ
ທ
ບ
ູ
გ
თ
რ
ფ
ា
ᶾ
ṃ
ạ
ế
ố
ồ
´
ⁱ
⁸
₪
℠
⇓
∇
≪
≫
⌘
⑳
Ⓗ
Ⓜ
ⓐ
┣
┧
┴
╈
╒
╤
▨
☏
☤
♠
♩
♯
✌
✠
✤
✮
❁
❚
➀
➁
〤
㎽
丮
丯
丳
乕
乽
乿
亅
亼
仉
仐
伉
伝
侖
俛
俠@@
俤
俲
俹
倗
倞@@
倯
偂
偢
傒
僑
僸
儐
儓
儱
儳
兇
兠
冖
冱
凓
凪
刉
劄@@
劏
动箱
勔
勲
勸@@
卄
卨
厫
厬
叴
吅
吳
吶
呍
呗@@
员国
呻
咇
咾@@
唝
唢
啅
啨
啩
喞
喪
嘍
嘒
嘜
嘣@@
嚬
図
園@@
圛
坙
垞
垺
埚@@
堃@@
堧
塉
塞浦@@
塥
塮
塲
墰
夗
姵@@
娣@@
娸
婑
婭
媧
媿
嫜
嫥
嫪@@
嬀
嬑
嬿
孫
宨
宭
寊
寑
寢
寢@@
层气
屃
屆@@
屇
屓
屴
岕
崦@@
崰
崿
嵞
嵥
嵦
嵽
嶢
嶴
嶺@@
巔
巖
帣
幄@@
幋
幞
幤
庉
庱
廂
廈@@
廎
廪@@
弍
弲
弸
彯
従
忂
忬
怃
怫
恈
恓
悌@@
惖
惪
惵
意儿
愜@@
慩
憐@@
憓
憕
懜
懮
懲@@
懴
戀
戲@@
抂
抃
抩
抭
挊
挗
挱
捑
捖
捜
捥
掁
掝
掟
掦
掫
掵
揞
搆@@
搢
搫
搼
摐
摑
摜
撨
擃
擥
擶
攊
攐
敉@@
敟
敠
斃@@
斫@@
新泽@@
旍
旔
旛
无与@@
旼
昀@@
昅
昺
显而易@@
晝
晧
暲
曀
曂
曄
曇
朌
朏
朚
朧
朷
杪@@
枔
柍
柡
柽
栃
栆
栐
栔
栠
桊
桍
桴@@
梈
梱
梹
棦
棧
椕
椘
椞
楇
楒
楻
榋
榎
槍
槨@@
槱
槴
樐
樞@@
橐@@
檃
檗@@
櫈
櫚
櫟
櫥@@
櫻@@
櫽
歃
歋
歐
歔
歲@@
殤@@
殫
殽
氀
氲@@
汄
汣
汸
沆
法论
泝
泲
洌@@
洦
浕
涼@@
淥
淧
淵
淺
渒
渓
渦
湣
溂
溦
漤
漲@@
潑
潕
澒
澤@@
濶
瀎
瀧@@
灬
炟
炾
烝
烿
焛
焟
焯@@
煄
煏
煠
熤
燬
燿@@
爀
爐@@
爨@@
牮
犋
犎
犼
狢
狶
猒
猟
猷@@
獂
獻@@
玈
玚
玥@@
珔
珗
珧@@
琰@@
琻
瑩@@
璄
璅
璚
璯
瓁
瓸
甗
甴
畊
畋@@
疻
痗
痙@@
痾
癆
癲
癲@@
皏
皦
皪
皰
皳
盋
盌
看器
眡
睜@@
瞆
瞼
矅
矚
矧
矻
砢
砪
砲
硾
碔
碠
碮
碷
磝
礯
礳
祆@@
祐@@
祤
祲
祹
祾
禪
秹
稲@@
窇
窢
窰
窽
竂
竦@@
竲
笄@@
笇
笥@@
笫@@
笹
筢
筢@@
筽
箉
箘
箰
篋
篐
篕
簃
簰@@
簹
籖
籣
籥
籬
粁
糐
糓
糱
糺
紈
紋@@
紓@@
紳
紸
紺
絅
絎
絙
絽
綝
綯
緑
緘@@
緰
縁
縎
縳
繕@@
繞@@
组成@@
缊
缵@@
罊
罋
罤
罵
罶
罻
羀
羍
羏
羪
羻
翂
翤
翽
翾
耊
耝
耥
聤
聨
聾@@
肧
脨
腛
腪
腴@@
腶
腽
舙
舧
艙@@
艦
芄@@
芣
芩@@
芼
苖
苪
荅
荛@@
莊@@
莵
菋
菧
萢
萰
萵
葈
蒱
蓏
蓚
蓮
蓰
蓷
蕗
蕡
蕭
蕻@@
薊@@
薙@@
薣
薸
薺
蘆@@
虓
虸
蚖
蛥
蜈
蜝
蜮@@
蝃
蝘
蝭
蝯
蝲@@
蝾
螓
螦
蟈@@
蟟
蟫
蠂
袱@@
裋
裦
褆
褍
褛@@
褼
襍
襬
襲@@
覑
觕
觟
觼
觽
訐
訒
訚
訲
訹
詈@@
誩
読
誼
諳@@
諶
諸
謀@@
謖
謙
謾
讔
讨价@@
诌@@
豰
貒
貪@@
賤@@
贑
贛
贳
赙
赟@@
趱
趶
跥
跰
踹@@
蹃
蹅
蹋@@
蹐
躔
軒@@
軽
輒
輦
輾@@
轢
轸@@
辂@@
辯@@
邁
邲
鄜
鄧@@
酜
醬
釸
鈞
鈤
鉉
鉗@@
鉮
鉼
銇
銈
銤
銧
銨
鋅@@
鋯
錐@@
錧
録
鍆
鍇@@
鍰
鎌@@
鎗
鎗@@
鏗
鏠
鏣
鏪
鐀
鐊
鐚
鑛
鑩
钀
锠
镚@@
閥@@
閩
闡
闡@@
闬
阼
陞
雑
雠@@
霈@@
霤
霫
鞢
韜@@
韻
頓@@
頗@@
頰
顛@@
顩
顫
颋
颣
飄@@
飐
飯@@
飽
餅@@
餠
饧@@
饾
饾@@
駄
駫
驨
驫
骒
骧@@
骫
髈
髵
鬚
鬛
鬠
鬨
魭
魹
鮄
鮭@@
鮻
鰒
鰭@@
鰺
鲊
鲙
鲽@@
鳋
鳡
鴦
鵖
鶅
鷂@@
鸤
鹘@@
鹣@@
鹻
麤
麹
黱
齪
ꂚ
ꂛ
ꂜ
ꂝ
ꂞ
ꂟ
ꂠ
가
감
겉
겨
곎
곮
궸
긅
긮
길
꺅
껭
꽉
꽨
꿔
뀶
끼
낂
녘
눋
눛
눣
늬
니
다
닽
댍
덂
덷
됦
뒦
듣
딀
똿
뙃
뙌
뜞
라
렒
롥
롮
룰
뤇
뤶
릉
릡
링
만
먩
메
멪
묑
문
뭇
뮴
믄
밭
벗
벴
복
봺
비
빰
뼙
뽩
뽪
뽭
뿴
뿶
삥
삭
상
샬
솝
쇘
쇤
쉍
쉽
슊
슝
슬
슴
싩
썄
썲
쎑
쏘
쏙
쑶
쓺
얩
얰
여
완
용
위
윈
있
잌
쟀
전
젝
졆
존
줴
쫄
쫩
쭁
쭹
쮮
찐
찡
첍
첨
춉
카
칺
캠
켬
퀸
트
퍐
펣
폀
폏
퐲
퐳
풆
풉
풘
퓘
핀
항
해
행
휠
흀
흩































































































滑
羅
邏
蘭
魯
壟
菱
拾
驪
烈
寧
嶺
尿
倫
糖
暴
逸
︎
ﻟ
𝑊
𝑎
𝑖
􀗳

ʃ
ʺ
ʻ
ː
Ϛ
Ѱ
Қ
Ӧ
ӧ
ֲ
ג
ן
ِ
٪
٭
ं
द
ह
ी
๔
ຖ
ພ
ສ
ຮ
ື
ຼ
ຽ
ເ
ໂ
ໄ
ვ
ნ
ო
ს
უ
ქ
ყ
ᄉ
ត
យ
ល
ិ
្
ẩ
ộ
ụ
Ὠ
‛
⁔
⁯
⁻
₄
₹
⃰
↨
⌧
⌱
Ⓘ
Ⓝ
ⓑ
┊
┹
╆
╠
╭
▃
▍
▐
▸
▾
◘
◙
☎
✖
✦
❺
➃
ⱡ
〦
〨
〮
㎤
㎪
㏝
丩
乤
乧
亖
亙
亰
仞@@
伈
伕
伬
伾
佮
佱
侲
侹
俅@@
俙
俥
俵@@
俷
俽
倀
倆@@
倢@@
倣
倥
倲
倳
倸
倿
偉
偭
偸
偽
傎
傯
僔
僜
儇
儕
儺
儻
兊
兕
兛
兟
冑
冚
分支@@
剚
剣
剨
剾
劍@@
劐
劒
劓
劮
労
劼@@
勀
勁
勢@@
匏@@
匧
匵
卲
厔
厙@@
厷
厾
叜
叻@@
吘
呂
呄
呅
呥
呿
咓
咵
咷
哘
哠
哥华
哱
哳
唪
唭
唰@@
唶
啑
啞@@
喐
喛
喤
喦
喨
喬
喾@@
嗠
嗩@@
嗿
嘆@@
嘍@@
嘤@@
嘮@@
嘸
噭
嚕
嚚
嚫
嚿
圁
圅
圡
圥
圷
圼
坢
坣
坧
坬
坱
垰
垲
垶
垼
垽
埈
埒@@
埫
埱
堯
堯@@
堸
塃
塆
塛
墁@@
墐
墘
墡
墫
墮@@
墳
墼
壚
壼
夒
夻
夿
奝
奵
奾
妐
妑
妘@@
妝@@
妩
姂
姠
姱
姺
娞
婛
婸
媝
媢
媪@@
嫛
嫝
嫮
嫵
嫷
嬐
嬡
孈
孉
孞
孭
宼@@
寛@@
寞@@
寪
寭
寵
寷
尐
尞
尠
尷@@
屔
岣@@
岧
岶
峀
峍
峧
峹
崁@@
崏
崬
崶
嵓
嵭
嶡
巓
帬
幁
幑
幚
幦
廁
廂@@
廆
廘
廹
弨
彏
彥
徆
徍
徔
徖
徝
徠@@
徨@@
徯@@
忺
怉
怊
怗
怫@@
怺
怾
恉
恌
恥
恦
恴
恷
悙
悶
悾
惷
意大@@
愽
慥
慯
憁
憂
憚
憤@@
憮@@
懀
懄
懎
懙
懣
懧
懳
懶
懶@@
懺@@
懻
懾
戀@@
戅
戢@@
戫
戭
戱
扖
扨
抍
抣
抾
拹
挋
挶
捔
捽
掙@@
掴@@
揁
揆@@
揠
揮@@
揳@@
搗@@
搵
搶@@
撄@@
擽
攅
攋
攍
攕
攦
效日
敒
斛@@
旄@@
旉
旯@@
旴
昩
昲
晀
晉
晙
晼
暶
暽
曮
曺
朇
朠
朸
杁
杣
杬
杹
枏
柀
柋
栘
梂
梞
梮
棈
棲
棾
椉
椏@@
椓
椟
椬
楕
楨
榩
槙
槶
槻@@
樗@@
樞
橑
橔
橞
橠
橧
橪
檁@@
檊
檑
檚
檨
檪
櫣
櫦
櫹
櫺
櫻
欫
歁
歓
歯
殩
殳@@
毉
毌
毜
毦
氚@@
氼
汋
汍
汙@@
汱
汻
沇
沠
沴
泿
洀
洂
洚
洣
洶
涽
淒
淚@@
淢
淪@@
渇
渌@@
渏
渖@@
渷
渹
渾@@
湱
湷
溘
溠
溵
溷
溻
滬@@
滯
漄
漅
漒
漡
漮
漰
漻
潀
潄
潅
潶
澁
澆@@
澬
澾
濘
濩
濰
濳
瀍
瀕
瀘
瀝@@
瀠
瀩
瀺
瀼
灐
灝@@
灡
灲
炇
烏@@
焂
煍
煷
熖
熛
熜
熣
熾@@
燘
燫
爇
爤
爼
爿@@
牅
牞
牶
牽
牿
犂
犗
犰
狃
狛
狫
狴
狴@@
狷@@
狿
猃
猄
猈
猋
猍
猞
猽
獬@@
獯@@
玁
玐
玙
玝
玶
珓
珟
珦
珳
琀
琄
琈
琑
琓
琫
琭
琸
琹
瑐
瑝
瑤
瑬
瑸
瑼
璋@@
璒
璠@@
璩@@
璴
璻
瓂
瓍
瓒@@
瓖
瓬
瓼
甉
甿
畂
畵
畼
疉
疓
疶
痀@@
痌
痝
痵
瘙
瘥
瘼
癇@@
癬@@
癷
皺@@
皾
盝
盨
眚
眝
眥@@
眮
眴
眵
睤
瞓@@
瞢
瞺
矖
砄
砅
碐
磚@@
磧@@
磰
磻@@
礊
礑
礥
禚
禥
禩
禳@@
禼
禿@@
秝
秱
稈@@
稘
稝
稨
稯
稺
穣
穯
穱
窩@@
窻
竉
竪
竾
笒
筎
筲
箆
箌
篏
篠
篫
篳
篴
簍@@
簒
簔
簠
簼
籇
籓
籮
籱
粂
粅
粆@@
糀
糝
糹
糼
糾
紆
紣
紲
紿
絍
絨
絺
綁@@
継
綣
綴@@
綵
綽@@
綾@@
綿
緙@@
緝@@
緼
縒
縕@@
縛
縡
繅
繈
繊
繤
纃
纏
纝
缑@@
缞
缹
缾
罉
罒
罭
罷
罸
罺
羂
羃
羐
羥@@
羨@@
羶@@
翝
翞
翳@@
耇
而易举
耵
耹
聓
聴
肐@@
肑
肫@@
肾上@@
胄@@
胈
胦
脅@@
脠
脣@@
脰
脶
腀
腉
腒
腗
腝
腷
膆
膇
膐
膚@@
膠@@
膹
臇
臞
臥
臯
舗
舩
舫@@
舲
舴@@
艱
艾滋@@
芔
芤@@
茥
荍
荗
荙
荪@@
荴
莎士@@
莢
菃
菐
菘@@
菦
菼
萠
萫
葨
葷
葷@@
蓕
蓽
蔇
蔊@@
蔞
蔣
蔭
蔲
蔾
蕎
蕚
蕮
薌
薒
薖
薙
薞
藖
藘
藞
藠
藪
藳
藴
蘊@@
虆
虧@@
虶
蚉
蚔
蚷
蚼
蚽
蛒
蛖
蛠
蜎
蜨
蜺
蝄
蝳
螘
螮
蟅
蟏
蟝
蟡
蟢
蟨
蟯
蠅@@
蠇
蠝
蠦
衎
衠
衧
衳
袉
袝
袴@@
袷@@
裒
褋
褖
褟
褢
褣
褰@@
褵
褹
襁
襑
襲
覈
觊
觖
觚@@
觞@@
觤
觨
觭
訮
詁
詣
詧
詨
誀
誑
誔
誕@@
誖
誥
誮
諍@@
諝
諥
諦@@
諲
諴
謄@@
謏
謐
謑
謮
譁
譙@@
譟
譱
譵
譽@@
讉
讙
谉
谞
谧@@
豗
豻
貆
貎
貶
賄@@
賑@@
賒
賞@@
賢@@
賿
贈@@
贒
贖@@
贠@@
赍@@
赸
赿
趑
趙@@
趛
趥
趪
跏@@
跫@@
跼
踦
蹏
蹜
蹞
蹣
躨
躾
軗
軚
軝
輝@@
輶
輾
輿@@
轂
轍
轎@@
轒
轷
辀
辮@@
辻
辿
迋
逇
逌
逥
逭
遜@@
遡
遹
邅
郙
鄒@@
鄕
鄘
鄨
酻
酾
醏
醜
醤
醬@@
釗
釩
釳
鈩
鈪
鈳
鈷
鉀@@
鉊
鉐
鉑
鉛@@
鉸
鉹
銏
銑@@
銚
銜
銦
銴
鋕
鋙
鋪@@
鋭
鋳
錐
錒
錛
錬
錮
錳
錼
鍬
鍳
鍶
鎔
鎨
鎲
鏒
鏛
鏸
鐻
鑀
鑄@@
鑞
鑬
钑
铞
铷@@
锴@@
镓@@
镼
閏
関
閦
閨@@
閴
闖@@
闢
阷
陚
隠
雈
雊
霝
霱
靋
靦@@
靯
鞏
鞳
鞺
鞿
韁@@
韪@@
韲
頌
頛
頠
頣
顆@@
顎
顚
顢@@
颟
颫
颬
飃
飖
飜
飝
飠
飷
飾@@
餃@@
餉
餔
餟
餡@@
餰
餾@@
饢
馉@@
馘
馯
馵
駁@@
駉
駐@@
駨
騒
騧
騪
騰@@
驅
驣
驵
骒@@
骕
骙
骣
骭
骿
髏
髖@@
髣
鬅
鬌
魡
魫
魾
魿
鮹
鯈
鯚
鯞
鯤
鯬
鯱
鯵
鯷
鯺
鰉
鰏
鰪
鰶
鱄
鱉
鱊
鱎
鱽
鲋@@
鳈
鳒
鳴
鳶@@
鳿
鴃
鴉
鴨
鴩
鴬
鵄
鶄
鶞
鶤
鶫
鶷
鷗
鷸
鷺@@
鸉
鹂@@
鹧
鹲
鹵@@
鹹
麃
麈@@
麎
麫
麭
麰
麺
黑兰
黟
黦
黾@@
黿
鼴
齄
齉
齋
齕
齰
龑
龕
ꂡ
ꂢ
ꂣ
ꂤ
ꞏ
간
갔
갤
거
결
겻
곦
곩
괌
광
귝
김
깥
깩
껂
껆
껐
껼
꼰
꿈
꿺
끺
냈
넒
넘
눎
닇
닻
덄
덐
뎬
뎵
돻
됸
뒥
뒵
듕
듾
딁
딸
땄
땳
떖
떪
떻
뗤
뙍
뙷
뚠
뚩
뚫
뜀
띄
렟
렵
롣
롦
롧
롼
룉
룒
룧
룹
뤁
률
를
릢
맵
먧
먨
멋
며
뫁
묉
묌
믹
밖
밯
뱉
벋
벨
벼
볘
보
볶
봎
봘
뵈
뵰
뵸
붶
븃
븞
빌
빽
뻼
뼝
뼭
뾽
쀤
삄
삸
생
셍
셴
솀
솅
솫
솳
쇯
숌
순
쉈
쉴
쌉
쏃
쏠
쐿
쑐
쓎
쓢
씎
씰
씹
씽
앶
얝
엌
엫
연
엽
옙
왱
욱
웩
윥
윳
으
읓
읨
인
잇
잉
잏
좄
좔
죔
죠
죽
중
진
짱
쪼
쭊
쭏
쭓
쭝
챘
처
천
촁
촉
최
추
츎
칡
캡
컦
컨
컬
켐
켱
콧
콰
콴
쾢
퀡
큉
클
털
텋
텍
툖
툙
툣
퉀
퉱
튁
튄
튈
특
틉
틘
틞
틦
틳
팼
퍡
펩
평
폋
푌
푤
푯
풌
퓱
퓷
프
픕
필
핌
햤
혈
혓
혹
혻
확
흗






















































































































































串
藍
朗
虜
稜
綾
麗
曆
裂
龍
阮
隆
泥
淋
什
輻
廓
﨑
晴
福
鶴
ﬀ
﹄
﹘
﹦
ﺍ
ﻣ
ﾪ
ﾮ
￑
￦
𝑄
𝑏
𝜇
󰊱
󰊲
􀂷
efore
ublisher


ɔ
ɗ
ɪ
ʊ
ʌ
ʹ
˃
˅
ˑ
̂
̒
̓
͞
ͷ
Ђ
Љ
Ќ
њ
ћ
Ѵ
қ
ҫ
ӓ
ө
գ
ֵ
״
ئ
ض
ى
ْ
١
٢
٧
ٴ
ߪ
ब
म
ल
स
ा
े
ఁ
ൠ
ປ
ຢ
ໆ
ბ
ლ
ხ
ቀ
ነ
ក
ជ
ទ
ន
រ
វ
ស
អ
័
᧕
ṅ
Ṽ
ầ
ậ
ặ
ể
Ố
‭
‮
⁂
⁎
⁮
₁
₩
₴
⅟
↕
↩
⇐
⇠
⇢
∀
∎
∡
⊃
⊗
⊠
⌃
⌈
⌉
〈
〉
⏐
␢
⒴
Ⓞ
ⓒ
┋
┽
╥
╲
▥
▴
▹
◂
◃
◌
◐
◻
☓
☺
♁
♬
♮
♵
⚠
⚡
✱
✿
❉
❞
❼
❽
❾
❿
⠀
⡷
⧠
⸺
〡
〢
〣
㊀
㎍
㎕
㎬
㏒
㏘
㏛
乁
乄
乪
乫
乷
亐
亝
仫
仹
仺
仾
伄
伔
伡
伻
佁
佌
佒
佭
侇
侫
侭
侰
俈
俫
倃
倄
倎
倐
倱
倴
倵
倷
偑
偒
偠
偦
偺@@
傋
傌
傐
傔
傪
傮
僀
働
僕@@
僞
僠
僾
儈
儍
儕@@
儫
儺@@
兇@@
兗@@
兙
冃
冄
冘
冮@@
冹
冾
凴
刄
剉
剦
剷
劀
劁
劉
劕
劗
勵@@
勷
匔
匘
匛
匜
匟
匰
匱
匱@@
匳
匷
卋
卙
卹
卼
卾
厀
厐
厡
厧
厵
厹
厺
厽
叅
反之@@
叐
叶派
吶@@
呌
呏
呩
咅
咎于
咦@@
咰
咴@@
咷@@
咾
哅
哖
哜
哿@@
唌
唚
唜
唡
唫
唲
唹
唻
啇
啈
啗
啛
啠
啴
啺
喣
喫
喯
嗀
嗆
嗬@@
嗵@@
嗶@@
嗹
嘂
嘑
嘓
嘔
嘥
嘫
嘯
噀
噏
噫@@
嚆@@
嚇@@
嚍
嚨
嚰
嚶@@
囑@@
四舍@@
圙
圤
坄
块链
坜@@
坸
坾
垁
垔
垿
埿
堞@@
堫
堮
堹
堽
堾
塂
塅
塒
塕
塙
塢
塽
墄
墇
墑
墔
壋
壚@@
壩@@
壷
夦
奦
奩
奭@@
奷
妗@@
妝
妡
姀
姍@@
姫@@
姭
娀
娚
娡
娪
娯
婐
婮
媆
媊
媣
嫅
嫑
嫓
嫗
嫤
嫧
嫶
嫺
嫿
嬆
嬊
嬢
嬿@@
孊
孋
孌
孎
孠
孫@@
孴
孹
宊
寠
尃
尟
尫
尭
尵
屜@@
屢@@
屦@@
岓
岴
峔
峤@@
峲
峳
峷
崈
崒
崜
崢
崤@@
崨
崸
嵑
嵺
嵿
嶀
嶎
嶞
嶠
嶦
嶨
嶳
嶽
巘
巪
巵
巺
帿
幘
庂
庅
庌
廕
廝
廝@@
廦
廬
廰
廱
廵
廼
廼@@
廽
弒
弤
彋
彐
彐@@
彘@@
彠
徏
徢
徾
忘录
忝@@
忟
忼
怇
怚
怞
怷
怽
怿@@
恄
恆@@
恊
恾
悏
悐
悰
悶@@
惙
惱
惲
惻@@
惿
愄
愋
愥
愫@@
愴
愷@@
慂
慆
慖
慚
慱
憀
憂@@
憊
憍@@
憞
憪
憯
憴
憺
憻
懌@@
懤
懨
懩
戁
戤
戩
戻
戼
扅
扊
扚
扝
扤
抁
抆
抶
拣机
挄
挌
挍
挢@@
挧
挻
捁
捇
捒
捝
捭
捿
掄
掚
掹
掼@@
揀
揎@@
揲
搄
搗
搩
摀@@
摑@@
摖
摛
摟
摤
撄
撖
撢@@
撾
擄@@
擋@@
擏
擕
擗
擰@@
擿@@
攆
攈
攌
攏
攑
攰
敘
敩
斓@@
斬
斲@@
旐
旘
日程@@
旲
旽
旿
昄
昉@@
昋
昍
昒
昖
昡
昽
昿
晲
暁
暃
暆
暏
暐@@
暒
暚
暳
暵
曔
曫
曬
朂
朅
朆
朾
杍
杗
杢
枈
枍
枖
枠
柎
柛
柣
柪
栂
栄@@
栰
栿
桜
桝
桞
桬
桻
梘
梬
梶@@
棂@@
棖
棰@@
椈
椗
椝
椦
椵
楓@@
楳
楺
榁
榃
榇@@
榠
榤
榶
榺
槏
槜
槢
樇
樯@@
樶
橖
橶
檏
檡
檤
檰
檳
檳@@
檶
檻@@
檾
櫉
櫊
櫛@@
櫟@@
櫪
櫶
櫾
欋
欦
欳
欵
欶
歀
歈
歊
歒
歬
殎
殐
殕
殙
殝
殞@@
殫@@
毆
毆@@
毹
氃
氄
氊
氍@@
氜
氷
汅
汈
汑
汘
沍
沎
沷
泀
泆
泇
泎
洉
洍
洝
洳@@
浧
浶
浹
浿
涬
淍
淜
淲
淶
渕
渙
渦@@
渮
渱
湋
湢
湨
湬
湽
溡
滚珠@@
滣
滧
滯@@
滼
漍
潆@@
潚
澀
澆
澉
澋
澏
澣
澦
濁
濁@@
濙
濫
濰@@
濱
濱@@
濹
濽
瀉
瀉@@
瀝
瀤
瀨
瀨@@
瀾@@
灄
灒
灛
灝
灺
炡
炤@@
炥
烒
烴
烺
焆
焲
焽
煁
煓
煚
煥
煪
煵
熇
熐
熦
熳@@
熾
燀
燏
燞
燨
燩
燯
燰
燾
爊
爎
爕
爚
爡
爳
牜
牨
牫
犓
犕
犖
犘
犜
犝
犞
犢
犣
犪
狉
猨
猬@@
猯
猹
獃
獏
獑
獓
獕
獛
獣
獩
獰
獷
獸@@
獼
玔
玘
玜
玵
玿
珚
珫
珵
琇@@
琏@@
琒
琗
琠
琱
瑉
瑠@@
瑢
瑣
瑫
瑳
瑷@@
瑻
璆
璉@@
璊
璍
璏
璕
璥
璲
瓀
瓓
瓚@@
瓝
瓞@@
瓰
瓽
甀
甃
甋
畀@@
畃
畊@@
畝@@
畞
疂
疇
疢
疺
痌@@
痜
瘋@@
瘏
瘝@@
瘹
癟@@
癮
癵
皃
皅
皉
皍
皥
皭
皰@@
皷
盕
盙
盠
盫
眐
眑
眘
眧
睋
睏
睗
睙
睞
瞁
瞇
瞇@@
瞞@@
瞤
矀
矊
矯@@
矱
矹
砋
砓
砣@@
砨
硆
硞
硢
硧
硳
硴
硸
碃
碕
碙
碢
碥
碪
碫
碫@@
碯
磄
磈
磏
磩
磱
磳
磽
礆
礎@@
礘
礝
礧
礪
礵
祩
祱
祵
祶
禋
禍
禍@@
禎@@
禑
禕
禚@@
禢
禿
秇
秐
秓
稂@@
稐
稡
稵
稸
稾
穁
穚
穜
穤
穼
窤
窫
窯
窯@@
窶
窹
竃
竅
竇
竊@@
竐
竕
竢
竨
竱
笮@@
笸@@
笻
筃
筚
筞
筥
筸
筺
箃
箚
箠
箥
箦
箯
箽
篂
篅
篒
篖
篢
篲
簄
簈
簑
簫
籆
籑
籒
籛
籩
籾
粀
粈
粊
粋
粌
糉
糌
糒
糛
糦
糿
紂
紃
紇@@
紉@@
紎
紖
紘
紥
紴
絁
絆@@
絢@@
絭
絰
絷
絹@@
絿
綃
綄
綏@@
綟
綢@@
綩
綰
綳
綶
綺@@
綻@@
綿@@
緂
緈
総
緜
緤
緳
緹
緿
縇
縥
縱@@
縴
縷
縿
繂
繅@@
繆
繏
繡
繢
繩
繪@@
繴
繶
繹
繻
纀
纊
纎
纮@@
绂@@
维网
绹
罖
罛
罦
罧
罯
羒
羖
羝@@
羠
羢
羴
翇
翗
翜
翢
翭
翶
耚
耣
耤
耾
聀
聁
聄
职权@@
聟
聮
肻
胀率
胐
胑
脃
脋
脱颖@@
脿
腁
腅
腏
腞
膃
膍
膟
膬
膾
膿@@
臘@@
臚@@
臠
臢
臷
臸
舘
舿
艓
艭
艷@@
艻
艽@@
芇
芺
苂
苙
苨
苮
苵
苻@@
苿
茐
茒
茡
茣
茤
茦
茪
荄
荈
荊
荊@@
荘
荢
荵
荿
莙
莟
莭
菄
菳
菵
菷
萂
萑@@
萓
萔
萞
萲
萸@@
萹
萹@@
萺
葋
葍
葥
葦@@
葪
葲
葸@@
葿
蒇
蒍
蒘
蒞@@
蒤
蒪
蒫
蒬
蒼
蒼@@
蓅
蓌
蓒
蓜
蓡
蓪
蓭
蓸
蔂
蔆
蔈
蔧
蔮
蔰
蔹
蕁@@
蕂
蕅
蕑
蕦
蕧
蕱
蕷
薓
薗
薘
薠
薬
薱
薳
薺@@
薾
藊
藯
蘄
蘌
蘍
蘕
蘘
蘘@@
蘢
蘨
蘽
虀
虅
虒
虨
虯@@
蚆
蚇
蚑
蚓@@
蚗
蚛
蚪@@
蚸
蛍
蛚
蛣
蛺@@
蛼
蝍
蝕@@
蝖
蝙
蝝
蝬
蝱
蝲
蝸
蝸@@
螔
螩
螱
螹
螻
螻@@
螾
螿
蟎
蟐
蟖
蟣
蟯@@
蟴
蟵
蟶
蠏
蠧
蠨
蠪
蠭
蠱
蠶@@
蠻
蠼@@
衕
衭
衿@@
袔
袕
袹
袾
袿
裊
裚
裣@@
裲
裻
褕
褘
褤
褲@@
褻@@
褽
襃
襉
襌
襒
襛
襱
覇
覘
覠
覬
覴
覸
覾
覿
觓
觗
觧
觱
觷
訛
訠
訩
訯
詐@@
詑
詘
詛@@
詶
詷
誅
誑@@
誳
誷
誸
誽
諎
諒@@
諕
諛
諪
諫
諵
諷@@
諺
謆
謊@@
謎@@
謒
謕
謱
譋
譒
譔
譕
譖
譗
譜@@
譞
譨
譪
譮
譺
讄
讈
讑
讕@@
讝
讦@@
讻
诎@@
诖@@
谂@@
谐器
谠@@
谺
谻
谼
豎@@
豝
貇
貐
貞
販
貪
貯@@
貶@@
賀@@
賁
賃@@
賄
賅
賊@@
賍
賗
賟
賢
贍@@
贐
贓@@
贖
贚
赆
赬
赯
赲
趂
趇
趈
趔
趖
趞
趦
趧
足率
跬
跼@@
踤
踨
踴
踴@@
踶
蹀
蹇@@
躄
躈
躋
躋@@
躭
躶
軀@@
軃
軋
軎
軔
軛@@
軠
転
軧
軩
軱
軼@@
輚
輩@@
輰
輺
轚
轡
轲@@
辒
辧
辷
辺
辻@@
込
迆
迍
迮@@
迾
逈
逋@@
逦@@
遌
遤
遧
遶
遼@@
遾
邂
邇
邞
郉@@
郒
郟
郱
郷
郼
鄍
鄐
鄛
鄧
鄮
鄴
鄷
酃@@
酔
酟
醄
醈
醙
醞
醰
醲@@
醳
醸
釀
釀@@
釓
釣
釥
釮
鈀
鈊
鈍
鈒
鈓
鈔@@
鈙
鈛
鈠
鈮
鉏
鉑@@
鉝
鉤@@
鉧
鉫
鉵
鉽
銎@@
銗
銠
銣
銲
銲@@
銳
銳@@
鋍
鋎
鋏
鋑
鋓
鋘
鋝
鋟
鋥@@
鋯@@
鋶
鋸
錏
錘
錡
錦@@
錩
錫
鍀
鍉
鍤
鍽
鍾@@
鎐
鎘
鎪
鎵@@
鏐
鏝@@
鏞
鏟@@
鏤
鐄
鐫@@
鐳
鐸
鑄
鑢
鑣
鑤
鑶
鑿@@
钪@@
铔
铚
锞@@
镢
镩
镹
镺
閑
閜
閠
闗
闝
闥
闦
闼@@
阘
阹
阺
陁
陒
陖
陦
陧
陿
隄
隢
隩
隬
隯
隸
雂
雚
雥
雫
雱
霑
霙
霢
霯
霳
靆
靉
靚
靝
靮
靹
韀
韐
韘
韙@@
韨
韱
韺
韻@@
頊
頍
頑@@
頒
頔
頜@@
頤
頪
頲
頵
頷
頼
顉
顒@@
顝
顠
顡
顫@@
顱@@
顸@@
项卡
颎
颒
颶@@
颹
飁
飇
飗
飡
飢
飢@@
飧@@
飼
餈
餒
餞
餡
餧
館@@
餬
饁
饔@@
饚
饤
馎@@
馛
馪
馫
馮
馴
馶
馿
駓
駔
駝@@
駟@@
駾
駿
騇
騈
騋
騍
騎
騎@@
騐
騑
騙@@
騝
騞
騣
騫
騿
驊@@
驌@@
驏
驐
驕@@
驸
骢@@
骲
骳
髕
髜
髶
鬊
鬥@@
鬦
鬩@@
鬯@@
鬷
魀
魎
魛
魦
魴
魷
魷@@
鮁@@
鮃
鮆
鮌
鮏
鮘
鮴
鯁
鯆
鯊
鯓
鯔
鯖
鯡
鯣
鯥
鯩
鯫
鯮
鯰
鰆
鰈
鰔
鰧
鰫
鰻@@
鱸@@
鳤
鳩
鳰
鳴@@
鳶
鳾
鴒
鴭
鴴
鴻
鴻@@
鴿@@
鵀
鵁
鵆
鵏
鵑
鶆
鶏
鶗
鶦
鶴
鶴@@
鶹
鷇
鷋
鷖
鷚
鷫
鷹
鸁
鸄
鸎
鸑
鸝
鹍
鹐
鹸
鹼
鹼@@
麀
麄
麉
麐
麑
麞
麮
麽@@
黇
黈
黐
黡
黣
黻@@
鼈
鼉
鼐@@
鼕
鼟
鼡
鼵
鼸
鼺
齆
齋@@
齔
齞
齢
龐@@
龔
龜@@
ꂥ
ꂦ
ꂧ
ꂨ
ꂩ
ꂪ
ꂫ
ꂬ
ꂭ
ꂮ
ꂯ
ꂰ
ꂱ
ꂲ
ꂳ
ꂴ
ꂵ
ꂶ
ꂷ
ꂸ
ꂹ
ꂺ
ꂻ
ꂼ
값
강
갖
개
갠
갸
걍
걫
건
격
곔
고
곡
곭
과
괜
괬
괼
굔
군
궓
궤
궶
규
귞
그
긔
긷
깓
깗
깹
깼
꺂
껅
껇
껍
껝
껨
꼑
꽈
꽍
꾎
꾫
꿀
꿇
꿘
꿧
꿩
뀇
뀓
뀜
남
납
낮
낸
냑
냠
냼
냽
너
널
녠
녽
뇝
뇧
뇩
눔
뉒
뉓
뉔
뉨
뉪
능
닗
닮
닶
덁
덅
덖
뎨
뎸
뎺
돌
돢
돧
뒛
뒹
득
듦
딂
딃
딭
땐
떵
뗏
뗧
뗨
똽
뙑
뙸
뚜
뚦
뚪
뛔
뜌
뜸
띾
랏
랐
래
랩
랸
럇
량
럩
런
렇
렌
렬
령
롁
롐
롒
롬
뢘
룋
룞
룣
룩
룬
뤍
뤘
뤸
뤼
뤽
름
릅
릪
릫
릭
릹
맹
먼
멧
묇
묽
뭘
뭡
뮢
반
발
뱚
버
볐
볜
볣
볧
봛
뵐
뵟
붚
붲
붹
뷕
뷪
뷰
븼
빔
빚
뺞
뺟
뺡
뺱
뼏
뼶
뽨
뿍
뿥
쁑
쁨
쁾
삡
삤
삺
샐
섆
섐
설
셔
솩
솽
쇄
쇋
쇗
쇿
숏
쉢
쉬
쉹
슭
쌍
썸
쎀
쎓
쏂
쏕
쏴
쐨
쑋
쑑
쓦
씈
씊
씨
씬
씮
안
앱
앵
얏
얕
억
얼
엠
엷
예
옳
외
욅
웁
웍
원
웝
윕
윤
읃
읊
음
읏
익
잊
쟱
젥
져
젼
졌
졸
졺
졿
좟
좡
좧
죱
줍
줏
짤
짭
쨪
쨭
쩍
쩝
쪡
쬈
찔
찝
창
챗
챰
챿
첬
쳦
쳵
츆
츍
츖
츞
측
층
칮
칳
칼
캅
캞
컛
컫
켠
콪
쿨
큇
큔
킀
킔
킕
킵
택
탠
탡
탩
탲
텈
테
톨
툒
툓
툜
퉥
퉳
퉽
튉
틀
틥
틨
틩
파
팔
팟
팥
패
팬
퍍
퍔
퍗
퍘
퍢
퍼
펏
펞
펱
폣
폴
퐈
퐦
퐧
퐰
표
푭
푷
푾
풃
풓
풚
퓗
퓧
퓰
퓳
픪
함
합
핫
헒
헵
현
혠
혭
혮
혳
호
회
후
훗
휃
휮
휿
희
힐



































































































































































































































































懶
螺
欄
鸞
浪
郎
鷺
牢
勒
糧
勵
濾
黎
漣
煉
蓮
鍊
捻
聆
鈴
靈
惡
李
隣
茶
刺
拓
洞
﨟
﨧
飯
館
喝
︸
﹃
﹊
ﺑ
ﺔ
ﺗ
ﺧ
ﺻ
ﻘ
ﻝ
ﻥ
ﻭ
ﻳ
ﾡ
￻
𝐶
𝐷
𝑆
𝑒
𝑓
𝑛
𝑝
𝑠
𝑥
𝛂
𝛿
𝜂
𝜃
👻
😍
𢣷
𥚃
𩽾
𩾌
􀀓
􀂅
􀂑
