<pad>
<eos>
<unk>
the
.
of
,
and
to
in
a
-
is
，
for
)
(
be
on
with
'
or
"
that
as
:
by
you
are
this
s
it
not
from
at
an
shall
i
;
/
can
will
was
have
if
all
%
1
has
system
which
your
any
one
when
2
we
but
he
other
time
?
\
its
no
more
they
new
may
up
control
use
out
their
such
data
t
3
into
been
than
so
his
there
used
also
after
information
were
only
do
should
must
!
two
n
high
water
company
about
each
under
set
management
work
between
these
china
power
4
test
type
some
then
design
service
our
using
first
through
what
people
project
my
process
value
..
b
development
make
number
had
method
5
who
based
application
part
see
r
over
name
during
following
would
like
group
business
equipment
well
where
said
them
file
how
before
line
level
made
pressure
operation
construction
click
=
right
c
section
year
area
m
her
could
quality
order
me
most
&amp;
air
she
oil
d
select
us
same
server
analysis
requirements
including
required
because
change
current
within
off
end
10
support
good
check
different
performance
three
years
now
6
way
party
study
&bra;
state
&ket;
both
according
case
long
many
model
position
take
down
very
material
technology
open
table
while
back
world
point
main
need
0
un@@
site
being
just
product
does
get
provide
standard
re@@
day
contract
safety
general
unit
article
provided
products
low
temperature
""
e
production
paper
want
key
cannot
services
without
user
list
side
market
results
him
report
life
storage
research
form
specified
view
field
those
chinese
n@@
per
date
available
period
network
non
valve
materials
remove
o
surface
conditions
systems
rate
less
re
place
gas
contractor
x
access
circuit
person
box
supply
8
error
even
create
7
structure
code
effect
local
go
speed
_
protection
total
financial
security
steel
machine
above
device
plan
t@@
engine
industry
risk
flow
full
important
l
function
help
cost
vehicle
–
city
know
international
start
please
found
public
every
example
means
ensure
switch
technical
size
—
government
left
body
top
small
light
installation
large
special
software
amount
much
bank
last
parts
law
single
another
relevant
related
front
next
content
necessary
class
assembly
able
working
computer
agreement
$
due
still
s@@
e@@
k@@
energy
d@@
accordance
man
page
in@@
however
center
don
include
b@@
connection
result
display
days
p@@
environment
property
selected
space
mode
national
p
load
add
source
against
mm
document
department
co
account
drive
methods
+
20
second
f
changes
object
etc
price
range
whether
building
customer
own
operating
address
inspection
pump
works
here
lower
complete
specific
free
12
head
around
contact
i@@
program
treatment
v
g@@
9
board
maintenance
given
install
run
m@@
policy
country
investment
economic
show
office
voltage
manager
too
great
o@@
put
since
did
30
problem
c@@
until
below
module
ground
a@@
plant
possible
status
best
road
team
short
g
documents
properties
maximum
sensor
land
database
find
event
room
reference
enter
files
base
pipe
r@@
again
think
transfer
times
15
components
areas
health
least
concrete
panel
capacity
old
windows
four
testing
term
give
fuel
de@@
fire
training
foreign
cable
increase
action
upon
location
measures
always
v@@
figure
once
configuration
home
heat
signal
installed
present
condition
l@@
item
subject
hand
message
engineering
h
press
motor
values
rear
internal
capital
output
shown
further
setting
u
3@@
sales
higher
cover
resources
distribution
come
h@@
real
electrical
problems
provides
force
global
*
tool
better
mr
human
meeting
let
2@@
web
default
points
either
apply
station
4@@
wall
procedure
education
making
active
100
text
sub
image
activities
f@@
door
exchange
standards
existing
series
command
cause
meet
keep
little
approval
basic
might
items
settings
5@@
close
become
effective
sure
&gt;
major
look
y@@
window
review
id
return
11
normal
note
social
already
countries
processing
volume
plate
50
additional
loss
version
turn
x@@
refer
growth
button
self
basis
called
phase
various
length
tax
client
states
k
.@@
enterprise
appropriate
together
applied
common
experience
regulations
drawing
step
solution
red
electric
companies
say
payment
member
users
details
option
terms
types
6@@
personnel
transmission
running
applications
stop
school
trade
ll
taken
damage
designed
operations
record
failure
minimum
1@@
assets
several
move
face
along
failed
y
strong
food
parameters
w@@
ve
color
read
responsible
wire
component
million
says
children
going
natural
interest
monitoring
communication
family
course
input
few
resistance
members
layer
future
united
interface
organization
characteristics
whole
rules
added
u@@
approved
third
filter
rights
request
five
joint
improve
among
ltd
port
environmental
ability
includes
away
never
house
car
defined
impact
features
screen
students
parties
brake
lines
limited
procedures
located
money
16
dialog
having
scale
am
ring
pay
copy
target
media
notice
share
effects
addition
costs
hard
central
bearing
style
al@@
emc
menu
block
original
job
measurement
external
options
certificate
often
fixed
14
customers
card
tools
therefore
8@@
al
7@@
call
weight
cases
needs
kind
direction
activity
continue
shows
z@@
°
associated
industrial
strength
ii
credit
try
why
applicable
forward
directly
•
connected
channel
bar
25
multiple
save
manual
online
legal
automatic
fully
issue
specification
respect
outside
element
levels
remote
created
implementation
units
j@@
individual
#
big
objects
university
tests
things
love
later
13
di@@
devices
goods
stage
frequency
disk
net
frame
direct
region
evaluation
carried
developed
primary
metal
allow
clear
hours
men
prior
book
language
final
limit
theory
perform
certain
age
9@@
objective
average
practice
correct
specify
role
white
column
today
er
guide
income
functions
release
otherwise
response
connector
an@@
memory
schedule
fault
platform
search
prevent
double
agent
co@@
known
choose
path
inside
factors
months
done
ate
automatically
led
core
mechanism
delivery
far
en@@
internet
early
ar@@
province
economy
wheel
&bar;
connect
director
purpose
planning
bottom
hydraulic
provisions
included
determine
demand
lead
charge
groups
seat
sheet
selection
contains
parameter
written
tank
relationship
w
projects
potential
history
cut
floor
reduce
got
completed
hot
supplier
really
patients
similar
branch
link
play
others
month
across
act
established
ted
to@@
cross
upper
distance
clean
physical
facilities
easy
map
gear
cylinder
south
ts
electronic
digital
mainly
enterprises
half
backup
river
balance
40
women
committee
index
determined
chemical
makes
zone
proposed
emergency
tab
care
soil
insurance
yuan
taking
english
microsoft
valid
de
received
staff
18
anti
lot
via
culture
authority
mechanical
0@@
description
resource
knowledge
administration
influence
particular
er@@
actual
assessment
instrument
enough
beijing
housing
elements
ed
held
shaft
seal
ro@@
percent
uses
spring
opening
dynamic
sample
described
foundation
simple
medical
24
stock
measure
situation
pre
something
multi
battery
replace
increased
welding
progress
ti@@
ms
task
vehicles
suitable
performed
displayed
hold
folder
lock
post
allows
considered
unless
personal
issues
earth
fund
greater
issued
es
week
directory
expected
terminal
built
engineer
sub@@
caused
purchase
shares
plug
driver
scope
except
height
efficiency
feature
screw
transport
host
reports
decision
traffic
si@@
recovery
-@@
green
log
update
especially
north
fit
needed
heart
significant
build
sets
follow
carry
employer
approach
coal
yet
overall
owner
ma@@
middle
commercial
court
format
controller
paid
domain
transaction
allowed
reason
ra@@
10@@
collection
black
mail
stress
listed
preparation
store
matter
records
repair
pre@@
cell
statement
longer
accounting
video
as@@
calculation
avoid
specifications
supported
liquid
president
thus
alarm
17
laws
ratio
the@@
safe
cash
live
writing
near
li@@
determination
waste
bit
60
displays
dis@@
came
principle
enable
advanced
american
angle
mass
lo@@
instructions
closed
sea
employees
delete
annual
corresponding
require
master
feel
factor
sent
develop
mo@@
nature
administrative
traditional
past
thought
compliance
adjustment
detailed
obtained
removing
removed
shanghai
clause
manufacturer
send
acid
science
previous
bus
minutes
film
strategy
hong
~
se@@
monitor
drawings
sound
events
child
manufacturing
chapter
profile
usually
art
private
wind
tube
operator
te@@
professional
cooperation
measured
steps
entry
king
z
integrated
words
installing
changed
initial
wide
difference
district
cold
processes
thickness
glass
ship
cooling
controlled
phone
mobile
six
ch@@
solutions
vertical
registration
immediately
paragraph
started
night
le@@
virtual
maintain
blood
rule
understand
ab@@
introduced
recent
over@@
ing
cycle
controls
fine
requirement
sign
currently
pin
thing
dry
diameter
edit
teaching
completion
edge
character
export
modern
young
invalid
stability
attention
securities
starting
ways
ting
degree
registered
insert
positive
package
medium
hardware
requires
es@@
node
society
ation
●
mean
directors
domestic
although
follows
transportation
21
took
fact
write
bridge
grade
though
council
shape
tell
secondary
regulation
unable
ers
chain
asset
en
kong
hole
carbon
word
plans
resolution
fields
fast
compared
instead
fluid
responsibility
19
receive
developing
true
critical
cells
prices
learning
is@@
track
drop
quantity
belt
on@@
studies
ating
travel
county
0.@@
complex
offer
plastic
acceptance
warning
seen
q@@
22
leading
valves
regional
combination
ac@@
son
measuring
park
noise
went
recommended
community
instance
steering
yes
at@@
j
skin
1.@@
likely
survey
ad@@
models
technique
comprehensive
consumption
generation
rock
beam
con@@
persons
policies
leave
generator
rates
reported
letter
urban
contain
bed
heavy
representative
question
east
creating
unique
bolts
torque
license
war
presented
inter@@
no@@
import
focus
st@@
simulation
ip
game
manage
separate
solid
appears
verify
doing
looking
calculated
variable
mark
living
attribute
bring
generally
forms
or@@
be@@
connections
so@@
god
billion
daily
setup
ri@@
ever
width
guarantee
90
entire
per@@
deep
soon
library
query
learn
cultural
31
detail
finally
80
purposes
funds
ated
disease
piece
west
depth
supervision
prepared
investigation
establish
proper
pass
plane
continuous
ok
steam
th@@
structures
independent
providing
ic@@
detection
sh@@
rather
…
am@@
attached
identification
sp@@
bad
occurred
ma
2010
iron
he@@
screws
thermal
wear
studied
pull
±
session
identify
political
train
factory
pattern
equal
handling
ask
brand
movement
ten
takes
finance
benefits
u.s
layout
bo@@
stored
contents
conducted
inner
fan
do@@
music
placed
¡
markets
evidence
characters
expression
difficult
agreed
told
me@@
secure
actions
e.g
ter
nothing
improved
im@@
pro@@
workers
fill
harness
itself
cleaning
accounts
it@@
ready
32
password
template
shift
programs
adjust
match
claim
mind
structural
tree
association
america
numbers
lost
properly
examination
sun
idea
handle
implement
criteria
whose
referred
moving
discussed
relation
produced
submitted
almost
rest
poor
bid
improvement
scheme
23
produce
achieve
centre
reporting
meter
combined
clinical
infrastructure
audit
rmb
discharge
driving
actually
messages
soft
relative
roof
hotel
conduct
ds
horizontal
category
2008
comes
appear
trying
death
behind
extension
ball
manner
adopted
sequence
won
marketing
reduced
benefit
protect
gold
mother
deal
quickly
profit
identified
indicator
corporate
2.@@
commission
consider
iii
print
indicates
sense
respectively
names
questions
comply
reasonable
max
innovation
cap
auto
ap@@
fc
definition
generated
civil
risks
submit
round
micro@@
negative
visual
signed
involved
reading
eyes
28
mi@@
saw
18@@
blue
obtain
changing
removal
000
ecm
title
news
ic
indicated
supports
replacement
behavior
km
entered
reach
po@@
friends
curve
bi@@
equipped
pe@@
increasing
modify
wave
algorithm
turned
temporary
didn
loading
cutting
concept
reduction
cluster
town
sale
integration
operational
believe
supplied
late
el@@
car@@
easily
seller
tested
fall
12@@
summary
modified
axis
containing
ac
pipeline
scientific
beginning
equity
street
ho@@
rubber
square
dc
min
equivalent
custom
operate
01
cement
notes
q
sections
execution
sources
sides
200
onto
font
sand
2015
heating
tic
showed
banks
employee
density
zero
analyzed
japan
discussion
moment
technologies
affect
compensation
rich
lamp
bolt
corporation
turbine
2000
dimensions
european
tv
lift
samples
00
ago
causes
passenger
labor
stand
tasks
covered
dimension
exercise
hour
surfaces
organizations
expansion
latest
college
provision
70
population
expenses
assigned
getting
ly
ge@@
finished
500
push
magnetic
string
exist
currency
trading
partner
rise
plants
35
stone
non@@
affected
ps
ne@@
paint
regular
radio
military
nations
se
completely
facility
19@@
flat
cm
documentation
promote
asked
occur
buy
register
cables
prevention
serious
ine
man@@
settlement
loan
connecting
understanding
ag@@
rod
fastening
2011
appendix
remain
chief
firm
sufficient
relay
opened
indicate
exhaust
pc
26
2009
reform
western
agency
holding
optical
successfully
formation
liability
visit
break
grid
configure
fiber
woman
entity
auxiliary
administrator
li
buildings
vibration
background
rail
debt
obligations
picture
outer
feed
th
choice
ec@@
quite
reasons
experimental
europe
supporting
began
principles
drug
asia
et
buyer
kinds
45
raw
inlet
le
define
hope
everything
configured
sites
corrosion
duty
adding
hu@@
patient
3.@@
protective
seconds
met
2012
proof
sometimes
skills
nuclear
wiring
diagnostic
kept
enabled
2007
extent
kg
rated
images
returned
coating
anything
span
wood
gives
talk
conclusion
officer
dust
motion
shareholders
executive
efforts
recorded
bill
ling
highly
lighting
brought
filled
transactions
concentration
st
accuracy
finish
pipes
static
ous
named
20@@
2014
limits
father
railway
vi@@
root
december
reached
official
largest
fair
departments
articles
27
places
practical
sc@@
functional
doesn
sql
accept
injection
advance
specifies
trust
delay
treated
authorized
marked
mounting
coming
stay
exceed
2016
shared
instruments
typical
police
tape
servers
hands
ba@@
ta@@
authorities
aircraft
becomes
®
ex@@
confirm
cd
mar@@
13@@
institutions
formed
tu@@
ad
camera
arm
someone
da
container
ar
cs
goal
characteristic
touch
forces
insulation
15@@
replaced
wizard
carrier
fig
stable
diagram
lifting
interests
calibration
replication
throughout
utility
als
towards
2013
successful
xml
techniques
outlet
quick
beautiful
clients
prepare
exists
ant
hospital
themselves
experiment
statements
14@@
da@@
sector
architecture
ni@@
gate
classification
16@@
te
receiving
constant
mentioned
go@@
division
provider
label
reaction
pool
owned
thereof
linear
beyond
fish
larger
occurs
ator
published
losses
qualified
effectively
drilling
saving
framework
opportunity
us@@
verification
lu@@
op@@
books
pi@@
accident
lord
route
mounted
mine
programme
gu@@
mining
driven
republic
email
views
circumstances
array
star
carrying
became
story
bar@@
competition
copper
secretary
delivered
tighten
par@@
extended
conference
senior
excellent
gave
um
receipt
pa@@
followed
comparison
machines
cast
ha@@
under@@
century
su@@
ice
answer
growing
flight
iso
efficient
ul@@
depending
vessel
thinking
plus
institute
simply
principal
budget
distributed
pollution
editor
300
context
protocol
investors
ing@@
passed
estate
student
straight
la@@
row
slope
4.@@
highest
revenue
spot
rural
errors
earlier
success
）
yellow
clearly
shan
reservoir
seems
correctly
diagnosis
machinery
fee
i.e
codes
holes
cities
variety
himself
meaning
thin
sealing
website
chart
hp
eye
leader
29
damaged
strategic
particularly
voice
approximately
contained
trend
cf
regions
wait
checked
positions
capability
former
icon
matters
inventory
communications
ordinance
availability
formula
guidance
morning
parallel
mixed
flexible
offers
hose
injury
regarding
ge
hair
printing
holder
intended
remains
cl@@
detected
die
laser
scene
giving
concerned
2005
protected
ones
meters
assistance
restore
advantage
usage
smooth
arrangement
fees
weld
transformer
closing
rapid
practices
audio
counter
signals
june
moved
ding
ru@@
missing
locations
forest
shell
aspects
ver@@
consideration
designated
sa@@
improving
saved
employment
instruction
managed
banking
acquisition
relations
tower
dr
reliability
nor
spare
sum
composition
feet
march
thick
electricity
games
differential
ignition
el
il@@
essential
gain
ls
flange
（
tri@@
pages
2006
generate
updated
ol@@
relatively
3d
yourself
ke@@
cabinet
recently
os
vacuum
implemented
gb
band
aid
san
union
·
species
bs
17@@
anti@@
solenoid
compressor
deposit
ve@@
alloy
priority
seven
drain
ur@@
thread
perfect
lack
sampling
creation
ancient
resulting
everyone
useful
normally
poly@@
destination
attributes
script
requests
nut
estimated
foot
00@@
ph@@
increases
regulatory
filling
claims
wrong
happy
goes
stated
reverse
consists
mis@@
parent
consumer
reserve
carefully
begin
theout
conversion
importance
cloud
batch
bio@@
logic
deliver
ates
permanent
du@@
trip
ans
establishment
enables
adjusted
relating
relief
cent
precision
disconnect
medicine
achieved
accepted
ite
reducing
empty
climate
tourism
fitted
appearance
gauge
leakage
piston
exposure
75
dark
composite
brain
applies
mountain
sensitive
weeks
cu@@
subsection
bidder
console
eight
alone
returns
em@@
checking
capable
oxygen
weather
consistent
divided
gap
refers
wish
loop
tag
planned
remember
requested
ca@@
summer
laboratory
introduction
agricultural
famous
partners
chamber
cancer
exit
entitled
feedback
india
joints
copies
33
walls
examples
annex
tech
fails
inch
parents
express
bu@@
we@@
proposal
6.@@
links
financing
navigation
fresh
probably
japanese
modules
ft
sports
january
smaller
ded
felt
raise
der
signature
channels
pilot
×
peak
inspect
yang
ste@@
wife
hi@@
manually
remaining
ings
parking
sort
powder
out@@
percentage
accessories
tables
mount
shop
roll
continued
rating
lights
extra
agree
sell
village
ministry
statistics
operated
disc
reset
drainage
popular
suspension
opportunities
layers
permit
organic
decrease
trial
2003
dead
enhance
deleted
standing
termination
ter@@
m3
decided
qualification
industries
ore
draw
oh
xi
tes
released
permission
deemed
stainless
clutch
5.@@
contracts
drives
36
july
enjoy
na@@
super@@
win
significantly
applying
ideas
ends
widely
previously
protein
jobs
&lt;
optimization
segment
tunnel
telephone
pile
leaders
30@@
maintained
switches
ed@@
linked
performing
keys
download
season
ch
september
accurate
symbol
s.@@
friend
upgrade
offset
optional
manufacture
spread
spirit
locking
sold
tion
calls
heard
tender
mon@@
res@@
coolant
guidelines
teacher
min@@
girl
orders
auto@@
animal
loads
sp
duration
toward
mirror
controlling
differences
compound
transformation
signs
ton
nuts
lists
raised
looks
networks
rolling
serve
℃
watch
plates
capabilities
yield
radiation
piping
advantages
blocks
visible
payments
responsibilities
sa
forth
historical
hit
helps
desired
qu@@
nike
pieces
agents
sharing
up@@
nearly
eat
lives
wanted
men@@
realize
adapter
gets
chairman
disposal
ons
fi@@
walk
suppliers
ca
covers
british
africa
interior
describes
bracket
represents
reliable
converter
packaging
alternative
portion
corner
goals
crisis
boundary
arranged
fe@@
and@@
worked
smart
liabilities
multi@@
fo@@
ks
150
assist
presence
looked
tension
governments
matrix
recognized
april
salt
60@@
count
2017
pursuant
sichuan
velocity
commissioning
forming
certification
observed
solve
ters
roller
ci@@
businesses
defects
turning
sky
criminal
coupling
tr@@
amounts
animals
dual
pack
coefficient
player
slow
48
flows
selecting
ang
acceptable
ment
nation
timely
50@@
columns
permitted
tightening
packing
diesel
aluminum
loaded
1.5
gi@@
institution
york
broken
fail
teachers
discuss
slide
elevation
concerning
bond
trim
1.1
ml
confirmed
expense
particle
hear
wang
alignment
huge
mu@@
2.1
experts
stream
34
for@@
disabled
commerce
400
stations
launch
author
compartment
strengthen
pe
transition
vendor
ss
boiler
commands
iv
blade
100@@
showing
else
socket
customs
ations
37
evaluate
payable
bear
lever
pair
ports
fu@@
saying
attempt
ce
utilization
observe
monthly
cars
warm
binding
vice
tea
cards
managers
london
3.1
les
pl@@
warranty
cancel
sensors
micro
rain
managing
com@@
painting
doors
trees
com
browser
attack
grow
island
serial
ws
overseas
bag
effort
regard
ia
zhou
airport
pain
reinforcement
rotation
rice
printer
objectives
award
95
exception
degrees
quarter
photo
processor
arc
ming
transferred
intelligent
typically
11@@
schools
compression
wireless
38
slightly
behalf
activated
tions
55
powerful
engaged
2.2
bureau
3.2
overview
drag
analyze
mapping
meetings
ten@@
exposed
minute
perhaps
strip
classes
cache
identity
intake
retaining
affairs
particles
contacts
bold
02
expand
opinion
draft
mid
deployment
circuits
2004
cor@@
roads
chengdu
of@@
ping
lin@@
ators
tive
entering
collected
fabric
respective
female
recognition
solar
logical
notification
workshop
stopped
dam
selling
rooms
describe
none
40@@
introduces
charges
creates
officials
ahead
prescribed
rotor
join
severe
pick
recording
playing
leaves
est
procurement
promotion
army
"""
pu@@
den@@
adequate
wa@@
acts
fitting
seem
sustainable
25@@
constructed
preliminary
1.2
ob@@
conflict
technological
42
ownership
ta
panels
scan
dimensional
duties
her@@
updates
supplies
vision
boxes
appointed
operators
purchaser
65
individuals
graph
winter
connectors
certified
pumps
mer@@
mesh
runs
shipping
lake
programming
thousand
clearance
axle
modification
waiting
born
mg
producing
variation
authentication
br@@
furnace
imported
executed
ray
october
1,@@
marine
french
categories
pen@@
numerical
probe
amended
wine
hundred
res
measurements
drugs
mental
strategies
mix
engage
partnership
border
subsequent
decisions
laid
peace
milk
meanwhile
shi@@
agreements
shaped
feeling
ked
derived
app
convention
offering
geometry
assign
wet
crime
starts
di
certificates
reviewed
shut
challenges
synthesis
separation
whom
partial
ness
interval
_@@
disaster
noted
highway
jiang
federal
queue
ns
conditioning
deformation
significance
resistant
coat
embedded
proportion
attachment
mission
44
researchers
64
fix
pulse
extraction
boy
lets
maybe
relationships
sleep
keeping
ordinary
cr@@
graphic
uk
investigate
worth
confirmation
offered
shock
ins
fruit
emission
7.@@
competitive
ce@@
listing
bl@@
printed
ist
consent
pr@@
equation
db
tried
competent
investigated
invention
tracking
consumers
covering
bone
2.5
extend
ah
expressed
minister
gra@@
cup
actuator
presentation
translation
marks
600
coordination
exploration
adjusting
computers
har@@
patent
ash
tolerance
reactor
flash
colour
intensity
trans@@
granted
bound
chance
timing
mouse
outstanding
heater
anyone
calculate
assignment
observation
nodes
gh@@
hall
references
ep@@
un
healthy
bodies
effectiveness
germany
sts
spent
sis
header
august
garden
male
trouble
grain
dynasty
threshold
fell
ber@@
flood
leadership
pan@@
des
ol
br
：
faster
clariion
enhanced
baby
weak
topic
explain
patterns
loans
scheduled
reserves
sleeve
reinforced
kv
deviation
theoretical
der@@
figures
clock
ga@@
bars
profits
advice
dangerous
facing
underground
4.2
sex
acting
cotton
environments
coordinate
welcome
composed
extremely
ba
represent
challenge
television
contribution
ensuring
aggregate
seismic
semi
gradually
false
cat
coil
club
tie
aim
oriented
pt
dec@@
shot
induced
speech
intermediate
november
integrity
tor@@
indicators
comments
fibre
clip
lose
mouth
mal@@
song
despite
convenient
hydrogen
participate
sheets
wants
pa
origin
tion@@
rose
explore
calendar
switching
disable
excavation
attach
separately
gene
pressing
uniform
fat
ses
therapy
thank
satisfied
ideal
employed
charged
damages
bidding
cool
concern
logistics
teams
split
dollars
collect
can@@
03
51
passing
restart
colors
allocation
70@@
expert
recommendations
specifically
taxes
blank
silver
39
turns
moisture
participants
literature
back@@
greatly
faces
locked
ization
circle
ended
matching
expect
2002
diseases
oc@@
stores
execute
api
na
yi
welded
ong
sto@@
friendly
mutual
truck
gen@@
german
opens
fittings
neither
depends
pad
ventilation
spray
thef
guard
australia
decide
processed
antenna
diagrams
rings
4.1
ties
lay
。
ou@@
supervisor
john
estimate
margin
strictly
temperatures
venture
abroad
knew
biggest
subcontractor
manufacturers
fourth
speak
versions
liable
drill
migration
investments
ase
drawn
m2
doctor
applicant
nbsp
reflect
ai@@
repeat
representatives
rack
ity
mixing
virus
engines
ff@@
8.@@
lease
checks
journal
url
bearings
ships
declaration
ecological
functionality
contrast
labour
41
coverage
optimal
determining
validation
bright
motors
arising
alert
seek
6f16lang1024
tin
modes
charging
offices
besides
atmosphere
52
mb@@
jo@@
0.5
stem
spend
120
dependent
strain
dispute
85
municipal
adjacent
plain
explosion
orientation
edition
volumes
canada
sal@@
1000
ty@@
ke
continuously
tro@@
arms
shear
drivers
graphics
allowing
slowly
petroleum
perspective
kit
circular
resin
edges
ren@@
ir@@
wi@@
presents
pure
basin
periods
43
registry
aware
casting
clicking
marking
suggested
closely
smoke
adopt
quantities
emissions
stick
35@@
vo@@
defense
24@@
combustion
friction
om@@
rec@@
receiver
southern
korea
wires
crane
satellite
firms
animation
scientists
loose
confidence
modeling
warehouse
2001
nominal
ocean
correction
sm@@
ally
hazard
thousands
fly
ion
conventional
families
sealed
yu@@
mixture
ser@@
bonds
dog
notify
,@@
novel
tray
france
leads
publication
80@@
la
thein
interested
gr@@
brown
cargo
moves
agriculture
pictures
served
ju@@
buttons
displacement
wing
af@@
variables
assurance
sl@@
obvious
hy@@
id@@
sw@@
landscape
realized
organized
ism
leaving
trace
pan
arrow
rising
forecast
targets
cur@@
opposite
substances
gs
mineral
majority
causing
committed
sap
appraisal
editing
stroke
2.3
si
dedicated
situations
hazardous
fundamental
apple
routine
ph
considering
newly
sizes
beauty
excess
interaction
chosen
preferred
played
fl@@
isn
et@@
membrane
flowers
proceedings
comfort
discovery
heads
dream
gone
northern
isolation
radius
sch@@
tail
easier
46
mor@@
universal
sing
hr
compatible
powers
chemicals
shoes
£
styles
breaker
truth
random
adhesive
retail
bra@@
career
incorrect
discovered
apparatus
educational
obligation
my@@
russia
ages
agencies
ji@@
continues
academic
cre@@
positioning
exactly
ning
organize
spaces
brief
manufactured
super
dtc
disclosure
ying
demands
tons
cooler
finding
becoming
geological
learned
meets
capture
tre@@
entities
analyses
49
crack
stages
restricted
compare
desktop
flame
pricing
broad
familiar
han@@
thanks
fax
talking
falling
shipment
formal
satisfaction
wheels
shutdown
filters
html
buffer
proceed
invoice
proxy
arrangements
zhang
lun
grease
happen
,000
purchasing
died
rapidly
couple
authorization
casing
ent
plc
→
commitment
facilitate
absolute
players
leg
rent
biological
eu
neutral
ig@@
unknown
jet
ra
enclosure
ko@@
experienced
fear
clamp
intelligence
tissue
fight
cal@@
indicating
ly@@
fa@@
letters
rare
determines
ordered
tip
permissions
communicate
anchor
slot
absorption
snow
ye
prompt
mpa
pro
render
nitrogen
clothes
tap
usd
hidden
frequently
arbitration
fashion
5.1
directed
happened
axial
cap@@
maintaining
exceeds
prime
outlook
portal
incurred
san@@
acute
ies
ty
freedom
february
curves
premium
owners
drink
myself
terminals
addresses
sodium
fighting
gross
ambient
miles
detect
occurrence
defect
aluminium
assemblies
statistical
ibm
platforms
portfolio
prof
9.@@
partition
birth
tooling
5.2
consolidated
genetic
earthquake
thesis
lid
forced
ance
immediate
lies
movie
reserved
vs
signing
surrounding
proved
strong@@
residual
war@@
indication
3.3
tight
sending
boat
rotate
nokia
promoting
pole
classified
conform
focused
race
correlation
sensitivity
excessive
duct
mp
interference
introduce
incorporated
200@@
sized
residents
treat
concerns
photo@@
vi
floating
argument
ct
houses
revision
integral
1.3
congress
texture
bending
amp
whenever
aspect
encountered
experiments
exhibition
designs
metric
by@@
@
ard
incident
breaking
05
represented
win@@
reality
accordingly
sed
800
participation
twenty
existence
herein
seals
governance
ups
han
illegal
holds
lining
artificial
ink
roles
xi@@
ip@@
possibility
announced
deck
pm
recover
wash
activate
ai
israel
convert
hydro@@
older
intellectual
lowest
danger
creative
mill
plays
twice
hub
provincial
washer
66
appeal
subsidiary
cc
sen@@
chip
superior
breach
guangzhou
transmitter
brush
mc@@
compatibility
slip
neck
suit
crystal
ka
submission
pri@@
sliding
dollar
nozzle
nine
molecular
250
asian
resolve
ak@@
04
pane
doc
leather
implementing
reasonably
cloth
pacific
conductor
listen
47
abcd
vessels
eastern
winding
fracture
longitudinal
moreover
gravity
campaign
farm
4.3
plasma
rs
retention
meat
■
hi
ff
3.5
purchased
au@@
preparing
intel
regularly
compressed
vector
tel
pit
lu
stocks
dr@@
shareholder
comfortable
inform
nice
iscsi
score
tra@@
54
separated
28@@
whatever
drum
bay
ha
catalyst
electro@@
yu
reaches
secret
av@@
dynamics
jin@@
lamps
fed
72
kids
automation
appointment
lateral
grounding
zones
zinc
ors
centers
conformity
feeding
align
locate
deposits
exclusive
mechanisms
rotating
conservation
jack
hyper@@
exceeding
nfor
cy@@
funding
establishing
qing
courses
wild
cheng
ys
circulation
bur@@
tester
designing
experiences
61
grant
pedal
minor
steady
transform
ze
taiwan
innovative
territory
sit
attitude
launched
faults
chassis
23@@
directions
tire
mp@@
flexibility
56
vent
officers
dates
ticket
obama
generating
assistant
demonstrate
pal@@
advertising
analyzing
definitions
tis
26@@
moon
tier
post@@
ler
adjustable
designer
sorry
productivity
girls
inter
consultation
washing
era
apart
eliminate
lin
@@@
spectrum
substance
metallic
jurisdiction
alcohol
professor
suspended
bulk
oracle
ms@@
abnormal
falls
evolution
d.@@
vote
comment
accessible
suddenly
contractors
ben@@
99
ker
bal@@
air@@
native
vary
entrance
pretty
election
worker
passengers
crew
accidents
branches
boards
awareness
sk@@
justice
elastic
acquired
str@@
miss
silicon
62
outdoor
ka@@
logging
entries
simultaneously
acceleration
coated
col@@
decreased
suggest
satisfy
speaking
ids
crossing
ley
assess
disks
wastewater
spending
shenzhen
engineers
regulator
ach@@
hu
governor
maps
shed
shield
bel@@
activation
detector
shoe
sight
mostly
folders
ts@@
indeed
liu
il
fatigue
workflow
husband
singapore
tubes
household
extract
rope
actively
suggestions
schema
passage
worldwide
hearing
log@@
ang@@
bas@@
ful
mountains
defines
manifold
lb
rotary
bri@@
restrictions
representation
ci
fixing
subscription
strict
63
putting
ality
dial
deputy
relates
dose
chi@@
ders
guangdong
val@@
hereby
inserted
respond
fans
doubt
head@@
nm
evening
lie
killed
seed
ars
inc
shopping
38@@
ex
interfaces
plot
infection
specialized
evaluated
finite
viewing
fer@@
brother
russian
fs
marriage
ven@@
oxide
45@@
sta@@
ev@@
lots
t.@@
dress
leaf
affecting
examine
taste
dy@@
gun
waves
interesting
slab
frames
verified
converted
ics
unto
aging
exterior
ir
68
explorer
commonly
90@@
appeared
2.0
geo@@
hua
53
seemed
ple@@
href
confidential
knows
bi
clothing
electronics
unscrew
declared
tanks
helped
savings
snapshot
secured
increasingly
braking
couldn
ya
willing
sole
fuse
va
stack
fun
unified
discipline
rescue
6.2
dic@@
ized
yan
leak
rigid
hide
98
tour
™
2,@@
replacing
tur@@
interpretation
thoughts
2.4
burning
shi
wu
hereinafter
calculating
regardless
strengthening
consolidation
archive
chen
judgment
sharp
flag
dvd
residential
sat
wealth
she@@
surgery
enforcement
startup
shadow
olympic
work@@
27@@
ical
ss@@
thy
yesterday
adverse
0.0@@
grinding
drying
involves
lt
trends
polymer
toolbar
youth
1.0
\\
ku@@
dance
catalog
nu@@
dealer
^
suction
pins
usa
moral
commodity
sport
attend
encourage
talent
ments
daughter
ap
busy
involving
enabling
adds
iec
narrow
syndrome
sweet
hood
pneumatic
stops
judge
rows
certainly
discusses
inches
premises
tomorrow
、
synthetic
skill
furthermore
impacts
valley
languages
symptoms
1998
walking
ran
mud
calling
extreme
routing
computing
happens
mb
sec
sewage
emerging
clay
complicated
reduces
investor
consultant
legislation
lan@@
seats
mortar
info
licence
catch
arts
bottle
electromagnetic
cn@@
primarily
subjects
bor@@
arrange
consulting
inflation
ian
ie
long@@
theten
automated
http://www.microsoft.com/contentredirect.asp.
constraints
publish
sh
fuzzy
segments
theme
ery
throttle
expensive
tt@@
snap
clearing
validity
offline
nan@@
no.@@
prove
hook
phenomenon
mm@@
giant
kill
faith
tics
58
estimates
revised
monetary
explained
humidity
yl
salary
fiscal
teeth
ga
transit
junction
groove
laying
67
placement
interview
festival
commencement
isolated
mac@@
calculations
ji
wrote
washington
aged
hybrid
machining
kw
offence
dns
heated
liver
sy@@
containers
automobile
thrust
borrower
recommend
trigger
nonlinear
ro
david
boot
studying
grass
mid@@
all@@
drinking
findings
1999
museum
rpm
flower
dealing
ftlb
characterized
opinions
ceiling
britain
lab
tone
hardness
ver
bin
dell
england
autonomous
requiring
violation
tor
jointly
extensive
stipulated
eventually
sin@@
amendment
raising
login
synchronization
lubrication
membership
concepts
duplicate
templates
estimation
passes
cun
wei
shoulder
coffee
pressed
begins
57
inspected
approaches
sof
enemy
scenario
explanation
bore
feasibility
ki@@
ill
switched
continuing
1st
absence
valuable
cra@@
furniture
packages
distributor
raid
compounds
pp
ative
greatest
golden
inf@@
ously
uc@@
xiang
underlying
labels
rats
blind
gl@@
revolution
mat@@
pillar
incoming
careful
restaurant
rocks
examined
5.3
consist
cycles
paying
wearing
pop
standby
dn@@
bought
ultimate
oral
nas
universities
boom
gar@@
temple
philosophy
1997
59
keyboard
classic
por@@
barrier
dna
construct
sugar
iso@@
din@@
water@@
usb
tar@@
initiative
conveyor
feng
fe
obviously
brings
stars
prohibited
imaging
bush
boss
gains
net@@
church
gateway
29@@
ride
prediction
limitation
compact
loosen
battle
gps
tensile
6.1
produces
inputs
metals
96
lens
photos
eating
minimize
entertainment
wells
cc@@
char@@
dy
trained
guaranteed
paste
sitting
holders
symbols
films
combining
gray
constraint
shirt
seeing
gift
probability
ultrasonic
porsche
contributions
expanded
terminate
foam
ceramic
wu@@
adaptive
99@@
48@@
occupational
wh@@
06
receives
macro
profiles
painted
unexpected
placing
¯
monday
databases
decline
african
radar
tang
yard
po
buying
linux
autocad
boost
47@@
connectivity
ram
bypass
freight
tend
chemistry
basically
wasn
friday
izing
a.@@
fin@@
mic
threads
joined
arrival
tan@@
ti
happiness
coast
rendering
consistency
publishing
qingdao
treating
4.5
assumed
visitors
hse
identical
ped
zhen
ary
constitute
google
beams
ise
storm
downstream
pavement
indoor
portable
pointed
founded
mer
collective
ease
bird
guy
desk
powered
sun@@
corruption
instances
dropped
star@@
thereby
belongs
chair
suggests
forget
puts
idle
coding
scanning
mt
handled
legs
hazards
dra@@
communities
horse
overhead
till
optimum
infrared
facts
achievements
repository
abstract
cleaned
negotiation
forum
ation@@
threat
helping
tin@@
allocated
lived
22@@
bytes
issuing
hundreds
ised
analog
ban@@
repeated
wise
cylinders
logs
crude
null
collaboration
stood
du
writer
aids
satisfactory
exact
tw@@
grand
consequences
electrode
sc
cracks
sm
bucket
invested
accurately
selector
fu
reputation
holiday
afraid
sion
imposed
ali@@
fil@@
transparent
engagement
swing
3.4
electron
pitch
1.4
california
americans
bacteria
sounds
affects
sions
assume
solvent
symmetrix
silk
≤
000@@
contribute
tic@@
programmes
brands
preventing
identifier
spatial
kitchen
001
futures
java
birds
namely
proven
flying
expenditure
ne
ves
mo
blocked
gases
specimen
stands
organizational
copyright
balanced
hill
farmers
astm
fifth
xin@@
demonstration
earnings
ye@@
burn
landing
fabrication
navisphere
haven
referenced
excluding
dinner
preceding
regarded
ec
110
cab
fa
issuance
yeah
topics
weapons
c.@@
mask
tors
indian
discount
gonna
ence
adjustments
bend
recognize
37@@
dated
analytical
waters
gathering
gp
combine
troubleshooting
documented
offshore
201@@
erection
57@@
citizens
fre@@
seeking
organ
tumor
excel
outcome
□
clo@@
lan
bags
3,@@
poverty
audience
e.@@
psychological
chongqing
iz@@
intervals
ish
calcium
difficulty
substantial
ham@@
reconstruction
mathematical
solving
configurations
believed
equipments
economics
expectations
voting
indirect
escape
arrived
zed
grey
approve
difficulties
euro
subsidiaries
speaker
thirty
86
informed
optimized
reflected
securing
monitored
quantitative
hs@@
continuity
proposals
che@@
studio
7.5
mi
settled
bigger
protecting
recipient
complexity
constantly
identifying
b.@@
ton@@
ble
agrees
rational
chronic
filler
sectors
ending
phases
operates
paths
ron@@
sir
0.1
gm
ensures
insufficient
faced
4.4
papers
allowable
sessions
expertise
analyzer
caught
traction
seriously
))
planet
thinks
networker
soul
realization
serving
2nd
1995
equations
ned
sur@@
penetration
stories
bo
impossible
supervisors
mold
rough
numerous
substation
xing
achievement
pin@@
failures
sensing
hoist
ari@@
92
rolled
guest
keeps
guests
celerra
providers
sexual
favorite
0x
journey
key@@
sketch
needle
sphere
married
collecting
oxidation
attacks
retrieve
.com
liquidity
reply
cas@@
hang
positioned
conducting
undertaken
pipelines
filed
desire
italy
ethernet
tt
camshaft
conclusions
ner
qi
stuff
tourist
ads
alternate
tan
visa
pvc
installations
firstly
football
pace
penalty
lightning
autodesk
fold
precise
listening
sister
addressed
spacing
promptly
exports
wrench
/@@
mandatory
36@@
uv
understood
tc
ther@@
alized
afternoon
whereas
optimize
cavity
cul@@
lane
strike
preview
med
transmitted
grown
jacket
contracting
involve
associate
uncertainty
zing
patch
len@@
nor@@
eu@@
islands
mw
gel
clips
insured
sd
gen
mono@@
worry
ultra
chloride
vers
worn
decades
valuation
blow
reflection
surge
developers
comprises
licensed
obtaining
fy
impairment
resolved
licensing
governmental
contamination
180
duly
demonstrated
responses
gained
survival
bits
possibly
reader
decoration
monitors
pen
toxic
muscle
filtering
strongly
radial
temporarily
500@@
logged
visibility
conversation
expiration
centralized
wooden
fore@@
depend
pp@@
millions
94
mortgage
initially
independently
developer
wan
governing
sam@@
abs
collapse
down@@
ash@@
latter
highlight
periodic
ched
speeds
boys
cord
syn@@
resident
hand@@
witness
watching
exceeded
cursor
closer
batteries
bro@@
thou
hel@@
analyzes
buried
constitution
meal
asphalt
curtain
logo
1996
deals
crankshaft
nose
shapes
08
88
aviation
consisting
nearby
upstream
tian
threaded
wheat
brick
improvements
kingdom
browse
rejected
interactive
worse
fied
insulated
mice
flu@@
undertake
usual
remained
mil@@
6.3
regulating
limitations
revealed
ker@@
representing
jin
adopts
sha@@
gro@@
massive
academy
psi
gasket
robot
acc@@
cleaner
erosion
mag@@
az@@
maker
reaching
originally
tiny
bn
configuring
stu@@
fr@@
explosive
2018
beat
sunday
ising
ering
ger@@
privacy
tb
indexes
finishing
assembled
reviews
sharepoint
decade
depression
69
97
ingly
bath
influences
gre@@
issuer
korean
catalytic
ats
phones
bul@@
commissioner
induction
expanding
oils
passive
10.@@
welds
ky
outline
thoroughly
hs
plastics
terminated
largely
bc
hence
zhejiang
adult
architectural
stronger
zi@@
vast
soldiers
ess
stones
5.5
ei@@
qui@@
closure
zoom
sti@@
hierarchy
asking
07
jump
pot
countermeasures
§
hosts
encryption
winning
announcement
sentence
tile
lightweight
ao
viscosity
claimed
sec@@
talks
movements
loc@@
nursing
71
tips
sends
nthe
tly
updating
deeply
totally
welfare
ana
grew
separator
politics
cr
concluded
bp
zo@@
gdp
dioxide
uni@@
corrective
81
participating
packed
tele@@
7.2
blast
ae
humans
restraint
delayed
ize
schemes
newspaper
bringing
quiet
headquarters
sediment
regulated
organs
cd@@
potentially
foods
suite
democratic
fired
tai
borne
dirt
metadata
binary
atmospheric
invest
permits
smile
sol@@
sive
pending
resulted
religious
attempting
liner
mailbox
bin@@
tru@@
retained
entirely
screening
belong
trademark
washers
xin
ef@@
http
eligible
disclosed
pharmaceutical
76
additionally
77
syntax
counter@@
ref
methodology
sulfur
nc
cpu
orange
convertible
controllers
recovered
coatings
promise
els
personality
pur@@
beach
piles
ant@@
consult
ford
zi
matches
-1
pocket
ceremony
09
ze@@
ranges
inspections
unloading
discover
recommendation
stra@@
backed
feelings
iness
lesson
neuro@@
retain
su
surveillance
enclosed
prospect
schematic
qi@@
lands
finger
reception
rely
routes
chicken
fishing
7.1
bamboo
specially
gates
pulled
scripts
87
baseline
candidate
vital
assessed
circulating
beneficial
appliance
tically
ongoing
schedules
are@@
paris
gt
truly
cp
bills
authors
diet
pc@@
ear
serum
solved
tilt
corrected
rover
kers
cone
neural
32@@
unlike
nickel
acquire
ata
hotels
armed
ably
conjunction
physics
aren
int
allowance
91
brakes
jesus
violence
debris
residence
82
od@@
dong@@
93
sel@@
5.4
aims
hammer
repairs
royal
briefly
plan@@
metering
harm
diversity
accompanied
700
serves
ui
licenses
magazine
ran@@
sor@@
publisher
rmb@@
viewed
db@@
bandwidth
approx
aligned
ina
hz
firmly
choosing
ine@@
subjected
chest
hypo@@
meant
imagine
copied
amplifier
reflects
tian@@
formats
specifying
mit@@
camp
preventive
pet
worst
instant
conflicts
bridges
anywhere
cage
synchronous
hai
accumulation
tuesday
flush
gears
restriction
ology
convenience
okay
land@@
inquiry
exhibit
tags
attempts
libraries
form@@
proceeds
collector
hor@@
blasting
possession
chang@@
outputs
thermo@@
linkage
gradient
tianjin
io@@
crash
alism
ved
www.@@
filing
preferences
deployed
revenues
amplitude
emphasis
graphy
variations
73
vmware
christmas
streets
alarms
theories
ade
cf@@
posts
trailer
defining
comparing
override
heading
160
tom
weekly
partially
dia
mrs
automotive
jia
upgrading
cushion
ward
tively
lying
invited
crown
colleagues
fewer
89
maturity
reg@@
gender
cuts
vocational
arch
economies
talents
instrumentation
bol@@
plugs
cultivation
fraud
paragraphs
tracks
dong
disconnected
initiated
crop
lung
locks
nt
behaviors
sco@@
shandong
elevator
wouldn
power@@
dar@@
sil@@
depreciation
deleting
ab
cl
ignored
collision
rust
textile
supplementary
hanging
alization
fusion
seam
coupled
tab@@
l.n
modifications
flux
transformers
prize
searching
pressures
throw
ching
merge
exchanges
hol@@
spiral
losing
ear@@
makers
intervention
contemporary
3rd
choices
pension
transient
hsbc
ds@@
atomic
brazil
600@@
web@@
accumulated
pumping
irrigation
tp
2d
judicial
teach
mac
set@@
helpful
luggage
hal@@
breast
expressions
ry
74
discussions
sn@@
ld
restored
lady
nanjing
mel@@
slag
logy
frozen
ants
stretch
notified
coordinates
jing@@
wil@@
3.0
specimens
systematic
om
destroyed
autumn
78
advances
jiangsu
spool
aimed
apparent
cen@@
tional
surplus
tells
1994
sciences
naturally
robust
frequent
sudden
generic
cream
locally
pres@@
pi
aside
enters
deploy
walked
mc
bil@@
troops
integrate
lubricating
taxation
performs
concentrated
vault
acoustic
bre@@
waterproof
cooperative
ically
ung
smoking
directive
cru@@
focuses
grouting
mature
kin@@
wa
van
disputes
float
transverse
cp@@
ces
em
diamond
injector
balancing
campus
flowing
league
doctors
fog
pulling
fairly
improves
guarantees
refuse
84
appliances
stamp
tooth
comparative
tall
gram
starter
formwork
angles
ladder
discharged
springs
credentials
treasury
licensee
tal@@
trap
jing
weights
dro@@
harmful
ines
considerations
ourselves
behaviour
curing
italian
detecting
wonderful
pid
targeted
bat@@
tenderer
pat@@
refresh
mas@@
sia
customize
guides
broadcast
wound
mul@@
iting
degradation
ori@@
rer
exported
limiting
iraq
mini
safely
precautions
genes
institutional
hurt
stuck
new@@
iran
tabs
believes
ethnic
feasible
completing
wal@@
hexagon
stator
shu@@
thursday
bell
structured
discretion
accessed
bases
broke
suffered
qualifications
din
statutory
cooled
descriptions
den
utilities
tered
tubing
immune
cartridge
clone
classical
necessarily
invitation
nerve
scores
spots
gal@@
heritage
cer@@
bilateral
breakdown
hollow
mexico
cleared
ax@@
feeder
combat
101
shelf
punishment
coach
awarded
accelerate
luxury
rivers
radiator
contractual
sr@@
collar
evaluating
sees
fying
evil
intersection
ches
influenced
pakistan
destruction
black@@
los
focusing
hydropower
consciousness
knife
cracking
mus@@
supplement
co2
val
300@@
carriage
nan
pr
sin
dish
fi
mu
emotional
spo@@
sludge
moderate
corn
achieving
formulated
quote
homes
palette
au
appoint
line@@
yunnan
prefer
everybody
intensive
resume
ki
ag
1993
ining
carries
essence
provisional
herself
gravel
bulb
answers
professionals
prevents
australian
michael
undertaking
attractive
condenser
dad
commodities
tering
simulated
finds
screens
displaying
ingredients
classroom
colleges
leverage
efficiently
returning
hat
palace
provinces
ao@@
propose
blend
joy
stopping
tee
dev@@
je@@
scheduling
firmware
networking
delivering
arguments
isation
atory
wuhan
containment
productive
egypt
developments
don@@
arrive
strange
barrel
ox@@
chang
fr
gb@@
messaging
ou
pdf
kar@@
dried
trusted
elected
tears
connects
explains
hopes
83
barriers
prc
red@@
cel@@
spain
sup@@
notwithstanding
tyre
m6
administrators
ving
agenda
yan@@
tendency
ll@@
outs
federation
telling
organisation
pu
cu
servo
rods
cruise
sick
scenic
rank
seeds
traveling
psychology
surgical
arise
blades
exchanger
amendments
directional
latin
crucial
vendors
lo
projection
roots
bonding
quotation
similarly
blocking
pol@@
delta
mom
occupied
0.2
79
pic@@
integer
imp@@
lessons
gran@@
terrain
criterion
heaven
distinct
vegetables
luns
privileges
navigate
quantum
planes
preservation
overcome
rat
equally
cam
intention
mur@@
considers
indonesia
identifies
maya
picked
altitude
epoxy
microwave
lending
wiper
cooperate
dear
plenty
simplified
thee
airbag
34@@
ot
wan@@
permanently
scenarios
10,000
6.4
ceo
gang
strap
onic
6.5
sion@@
pcs
sar@@
ware
sync
tong
lender
posted
ps@@
1a
dly
wedding
blower
disassembly
promoted
adoption
delivers
tran@@
adapt
undo
crowd
repaired
accommodation
registrar
pulley
mary
lifecycle
ane
illustration
wen
sand@@
ano@@
contrary
off@@
ea
substantially
5m
bit@@
negotiations
thi@@
asme
matic
pointer
decreases
chin@@
chains
end@@
ref@@
efficacy
craft
predicted
designation
shorter
55@@
scroll
withstand
initiatives
summarized
unusual
clauses
pt@@
grades
fm
avoided
viewer
marker
class@@
knowing
loved
freely
bonus
pleasure
subsystem
independence
shipped
huang
epc
5mm
modifying
fluids
tough
guess
songs
cat@@
cri@@
folk
stresses
breeding
matched
permeability
lee
bun@@
interim
destroy
elsewhere
transported
quota
conduit
cam@@
flanges
complaint
trains
dense
roman
akamai
spindle
wor@@
workspace
tobacco
crops
ils
injuries
burden
rac@@
preference
groundwater
redundant
subsequently
namespace
suffering
floors
suffer
yi@@
sho@@
lcd
lubricant
guys
drops
dm
kilometers
1.6
occurring
paul
wonder
max@@
8.1
awards
cha@@
boundaries
enhancing
candidates
clouds
defective
mainland
xx
transfers
shallow
pon@@
rig
guided
historic
regime
mistake
td
compaction
analysed
faulty
defence
hoses
dot
gather
inspector
jun
planting
sons
excitation
magic
tradition
individually
tcp
pushed
stationary
ell
viewport
12.@@
sting
spoke
ultimately
treaty
dp
hiv
readers
hr@@
**
minerals
sheng
indirectly
nearest
saturday
nic@@
attorney
vapor
125
sen
dn
0x@@
ribbon
8.2
que
ron
transmit
eng
potassium
queries
therein
emperor
mobility
purification
dogs
equilibrium
abuse
importing
fibers
upload
fac@@
≥
skilled
ass@@
ken
medi@@
cro@@
cher
dump
forever
timer
securely
missile
peoples
wn
jie
bubble
furnished
ns@@
supposed
cli@@
wednesday
departure
ft@@
yed
adults
alo@@
folding
grounds
ethics
imports
socialist
ric@@
analysts
dragon
mould
wages
debts
accessory
lunch
handles
105
partly
stakeholders
tuning
trucks
bench
desert
bind
ey
kes
ular
civilization
soap
generates
algorithms
4,@@
torque@@
organizing
malfunction
receivable
wisdom
bb@@
insulating
solely
attachments
producer
pairs
blog
van@@
bon@@
galvanized
11.@@
3.6
handed
sim@@
latch
tiles
ours
qing@@
earthing
rd
deferred
rename
archiving
egg
highlighted
renewal
coastal
weekend
alize
mic@@
distortion
excluded
slurry
specialist
cle@@
collateral
pushing
tical
pd
arrays
curriculum
practicable
cumulative
hong@@
pv
retainer
fur@@
hon@@
lessee
graduate
suspect
vii
zer
cutter
tcm
rf
subcontractors
cancellation
victory
absolutely
cure
ace
corridor
diaphragm
speakers
bread
ctrl
eco
outcomes
peer
regeneration
dat@@
triggered
artist
pig
chan@@
ordering
bonded
rectangular
varying
burst
ili@@
dialogue
topology
ged
lic
ser
md
proprietary
artistic
backups
ency
processors
rental
pers
dept
permissible
ther
friendship
smell
cameras
failing
mate
derivatives
sul@@
transparency
tries
sr
sy
minimal
nobody
ban
lam@@
packet
pra@@
dd
qc
virtue
ging
functioning
comprising
multimedia
fication
pounds
p.@@
pho@@
shortcut
proportional
fifty
coarse
shooting
unavailable
pul@@
universe
gc
reveal
zhong
trunk
unlock
valued
dip
tolerances
lifetime
supervisory
distribute
rendered
900
eggs
guiding
33@@
dies
ep
copying
noticed
.the
extensions
7.3
resort
im
consecutive
cho@@
advisory
authorised
proceeding
substitute
eng@@
rails
1990
visited
feels
borrowing
clockwise
nutrition
wake
vegetation
communist
versus
zz@@
headlamp
summit
alloys
400@@
durability
george
mt@@
swimming
concentrations
prison
damper
discrete
recycling
spin
ak
transducer
funded
illness
colored
southwest
0,@@
ber
cross@@
tired
overload
cooking
foundations
mechanics
incomplete
grip
ratings
vegetable
assumptions
democracy
ko
tickets
//
buyers
merger
predict
20.@@
geometric
breaks
belts
executing
real@@
shoot
honor
differ
yang@@
shore
stro@@
supervise
cad
openings
transferring
spark
trustee
modulation
utilized
os@@
southeast
firewall
tens
ide
upward
acids
bones
mild
settle
preset
son@@
dashboard
oven
vitamin
sought
op
basketball
incentive
replica
ini@@
jan
150@@
lean
maritime
captured
slight
extending
lar@@
mia
weapon
xinjiang
peter
executives
cheap
gallery
fun@@
rehabilitation
fellow
reward
360
leaks
tractor
inverter
storing
zhong@@
cake
performances
pos@@
resolutions
apartment
prospects
urgent
hereunder
ny
bow
hen@@
advised
ni
everywhere
kn
reactive
caution
polyester
ix
rt
alter
belief
zes
conductors
twin
dreams
attract
constructing
taught
1992
withdrawal
adopting
considerable
queen
token
breath
ica
enzyme
programmed
weighted
zhu
struggle
wherever
smith
releases
cancelled
debate
diabetes
endo@@
wen@@
accomplished
lip
quoted
favorable
turbo
varies
bent
fulfill
chi
gg@@
dam@@
aa
workplace
deposited
pl
dri@@
evenly
mood
disclose
fraction
comp@@
dan@@
bing
sle@@
alive
fixture
tied
fle@@
recall
wrap
rolls
precipitation
stri@@
proteins
molding
intent
majeure
anticipated
peripheral
propagation
ment@@
hey
captain
ole
toilet
surprise
jiang@@
incidence
secondly
computation
lion
fleet
fruits
ases
fro@@
abilities
harmonious
voucher
ignore
aesthetic
dominant
bidders
tation
spanish
backing
ho
strengthened
accommodate
substrate
carcinoma
rim
consequence
fingers
detects
elderly
911
legend
accounted
recognised
ined
bleeding
proposes
precious
ong@@
wo@@
fuels
assemble
refrigerant
exceptions
melting
ened
exciting
j1
volunteers
gasoline
cx3
hui
ess@@
improper
juice
spacer
fortune
tim@@
calibrated
coordinated
customized
commit
berg
magnet
shops
byte
heavily
thereto
far@@
auditing
remuneration
anyway
beer
declined
18.@@
northeast
merely
pink
7.4
commitments
md@@
accessing
gathered
green@@
hinge
enhancement
gently
conductivity
wastes
methyl
condensate
dissolution
victims
wind@@
dian
config
dictionary
intangible
pouring
39@@
beside
graphical
purge
extracted
xia
rectification
centera
subgrade
expired
yo@@
birthday
a1
volatile
favor
projected
holy
metro
beneath
reject
benchmark
ck@@
perfectly
premier
optic
caps
hereof
tongue
incremental
movies
modem
mol@@
notices
technician
attended
exploitation
holdings
remedy
ken@@
ono@@
od
cn
cylindrical
illumination
visiting
influencing
renewable
aries
lt@@
restoration
ski
refused
turnover
wherein
mapped
pos
towns
poetry
afghanistan
sms
%%
regression
5.0
xian
generators
hd
inclusive
wed
wider
ass
ological
centrifugal
dirty
mes@@
rh
filtration
sender
exercises
initialization
jun@@
realistic
integrating
metres
bowl
tourists
ay
breathing
introducing
validate
removes
peri@@
incidents
hardly
strings
66@@
yin
healthcare
lers
fitness
any@@
ths
dcs
minority
alliance
digit
concentrate
researches
reservation
mathematics
liquidation
angry
lac@@
james
sanitary
answered
pivot
med@@
damping
everyday
maintains
phy@@
dividend
insertion
deflection
cv
compliant
dor@@
factories
ck
stiffness
capacitor
survive
retry
prompted
essentially
diagnostics
lowering
excuse
seating
debugging
knee
ill@@
timber
tr
y.@@
writes
numeric
reactions
pregnancy
hospitals
pads
sustained
injured
ame@@
130
literary
amino
hk
envelope
standardized
manuals
derivative
pm@@
protocols
baggage
120@@
broker
conforming
corners
advise
canadian
phosphate
appreciation
proud
with@@
fallen
unfortunately
complaints
run@@
hex
wool
melt
pcm
situ
clamps
ee
initiate
greek
scales
approximate
investigations
ale
denied
brackets
abundant
apo@@
divide
gy
wage
variance
0.3
inst@@
magnitude
ach
fra@@
deficiency
builder
mines
develops
cabin
equ@@
glasses
bids
remarkable
tonight
exam
mar
inspired
mistakes
att@@
2020
prejudice
ture
dan
preserve
nit@@
households
earned
hate
ene
disorder
younger
shes
..@@
periodically
relays
1,000
courts
rainfall
ramp
runtime
locating
vulnerable
tong@@
fujian
grading
dl@@
participant
shan@@
fran@@
competitors
villages
begun
observations
shortage
respiratory
admin
shifting
gui
shui
64@@
standardization
sheep
alternatively
shar@@
quarterly
gri@@
tam@@
expiry
videos

viii
additives
soviet
alerts
nar@@
accelerator
sink
dec
appropriately
impedance
wholly
lp
spiritual
admission
m.@@
ranging
struck
radioactive
的@@
cny
squ@@
fire@@
gaps
necessity
19.@@
spec@@
plating
oid
kin
confidentiality
artists
13.@@
residue
encouraged
ents
cs@@
void
canal
chose
65@@
sign@@
suspected
intense
lined
pose
epi@@
annually
zealand
legacy
trench
stomach
legislative
prince
charts
varieties
140
shing
wishes
hangzhou
siemens
geographical
fic@@
surveys
slave
particulars
unemployment
pursue
booster
joining
alteration
attempted
clamping
spreading
sam
utilize
invite
rt@@
artery
tai@@
ammonia
prevented
likes
metrics
infant
thailand
flare
radio@@
severity
soup
harmonic
spraying
tting
cognitive
documentum
sleeves
overhaul
earn
additive
possess
switchgear
fertilizer
anger
orbit
repayment
religion
diffusion
removable
hunan
tun@@
contributed
durable
lasting
ese
ratios
subcontract
gland
eli@@
competence
compensate
filename
iling
mortality
top@@
twelve
downward
reinforcing
sha
edited
stan@@
corresponds
excited
infected
leisure
2.6
assure
peaceful
designers
honest
def@@
prodname
retirement
nominated
gearbox
receivables
forbidden
diversion
selects
electro
5.6
advisor
elegant
rid
cry
currencies
mao
cellular
formulation
slots
350
xp
kernel
fcs
emb@@
seamless
trials
modular
forests
oma
discs
strips
mercury
disposition
intra@@
specialty
websites
delegation
extraordinary
addressing
kpa
lucky
vat
soluble
imprisonment
selective
und@@
combinations
tem@@
diverse
gn@@
ax
tokyo
consultants
vascular
freezing
afford
bankruptcy
garbage
theft
calm
flap
ester
pit@@
readily
toe
soils
harder
2a
accelerated
purple
ens
fang
priorities
utilizing
tribunal
hebei
nano@@
rises
nevertheless
therapeutic
xiao@@
vertically
polar
preferably
declare
dispatch
eg
relate
custody
flue
allocate
pec@@
centres
amp@@
zip
corp
retrieval
extends
hire
vdc
deduction
gifts
75@@
wings
€
??
appreciate
breakfast
definitely
unlikely
4.0
thereafter
dividends
persistent
assessments
rollout
butt
referring
leveling
lime
powerpath
sufficiently
reads
spoken
vitro
globe
meth@@
computed
wto
inclusion
toxicity
watched
foot@@
time@@
tropical
visits
asynchronous
employ
jumper
mixer
ri
adhesion
pointing
bushing
ast
economical
ities
bei
dun@@
golf
impulse
biology
rc
horn
henan
outlined
shu
vol@@
mutually
entrusted
brothers
ick
dic
childhood
deadline
tf@@
engaging
hung
diligence
merchant
chips
guards
somewhat
singing
attaching
qiao
producers
audited
sad
timeout
personally
combines
rarely
incorporate
ld@@
milling
3m
forty
mei
chromatography
airlines
trac@@
altered
scholars
volts
founder
yer
lit
nationality
elevated
1991
ster
charger
comparable
consensus
mention
lng
rm
spherical
spar@@
encoding
linking
titanium
approvals
cerebral
silent
missed
streams
creditors
xxx
harmony
criticism
requisition
spec
——
dll
opposition
semiconductor
initialize
disturbance
magnesium
worm
sd@@
tal
p1
supreme
municipality
servicing
con
gun@@
unity
impression
resist
treatments
corporations
bluetooth
quick@@
xu
cyto@@
investing
outgoing
scanner
regards
bare
mes
emulsion
shafts
io
logon
luck
bio
disposed
screwdriver
guilty
hereto
moments
freeze
representations
unnecessary
alias
legally
habit
py@@
metry
alkali
assembling
mr@@
quarantine
eliminated
perpendicular
questionnaire
scaling
girder
8.3
tide
avenue
gis
dv@@
dwg
hur@@
seated
exporting
repeatedly
shaanxi
gon@@
thetware
sorting
ple
ruling
nervous
kou
killing
delays
ances
implications
purchases
talked
installer
lifted
gy@@
0.05
ades
ears
220
inc@@
ger
clinic
forestry
lawyer
warnings
architect
hydrocarbon
reviewing
side@@
simulate
aw@@
sixth
sophisticated
va@@
turkey
voluntary
get@@
twist
fur
open@@
hedge
pas@@
4.6
amazing
deeper
offerings
cas
deficit
curved
insight
releasing
occupation
elbow
illustrated
corrupt
46@@
buses
backward
malaysia
beta
logist
conformance
tac@@
weighing
belonging
hoisting
attendance
07@@
ranking
shade
smoothly
relieve
outlets
polymers
prototype
tightly
fasteners
fasten
ack
tends
pollutants
restrict
contour
supplying
owns
ily
quit
add@@
guideline
passion
decreasing
virtualization
exemption
ren
angular
repairing
recorder
①
regulate
admitted
rejection
headed
za
counting
14.@@
conver@@
102
equities
whichever
fla@@
converting
continental
cultures
northwest
tracing
dummy
ati
counts
coke
committees
translated
prominent
surprised
fim
governed
sb
indications
recession
9.1
downloaded
geographic
zation
asks
88@@
masonry
postal
bias
assisted
firing
tear
workstation
roughly
sing@@
xiao
safeguard
vietnam
bai@@
deposition
impose
varied
plu@@
stud
competitiveness
delegate
21@@
sky@@
pore
sustainability
molecules
cus
fabrics
validated
blowing
lips
shanxi
bronze
jaguar
highlights
liquor
stayed
beef
lit@@
infants
¨
labeled
nif
analyst
regulators
ldap
2m
beneficiary
washed
sunlight
kick
drift
christ
lotus
publications
remarks
describing
minus
primer
formulate
clu@@
involvement
borrow
qa
toll
auction
carriers
distinguished
basket
somebody
ame
tag@@
robert
accumulator
complying
dd@@
49@@
bac@@
mat
pond
restaurants
explicit
yl@@
stressed
flex
overflow
clusters
formulas
habits
izer
p0@@
porous
equality
contaminated
cope
elimination
exclusively
resonance
lengths
icons
lau@@
aiming
zhao
ini
persists
gli@@
sequences
disasters
ams
fever
threats
ought
respects
glucose
adapted
confident
qualities
mm2
existed
chocolate
ja@@
ur
fier
accomplish
cubic
terrorism
methane
qin
consumed
happening
hell
exc@@
debtor
suggestion
tec@@
handler
manages
compiler
parks
240
fits
yn@@
gas@@
sleeping
acknowledge
gh
reuse
jian@@
compacted
shuttle
shower
swap
alpha
chat
renew
greece
masses
mitigation
maximize
invoices
skip
momentum
readings
carbon@@
differentiation
lock@@
oilfield
adequately
sw
nat@@
pped
anniversary
phenomena
bus@@
ecosystem
overlap
stop@@
adsorption
modulus
shifts
ure
exceptional
promised
expressway
rom
distances
wins
launching
quar@@
wedge
mph
solids
sectional
vertex
hubei
precisely
cook
play@@
corrosive
apparently
gu
sponsor
ement
3000
ble@@
jac@@
restructuring
vin
situated
surrounded
amine
stake
hills
hydro
decomposition
fence
flushing
trademarks
annotation
arab
sli@@
reagent
archives
ets
68@@
cab@@
whilst
axes
initiator
fal@@
bao@@
compete
victim
0.4
circles
pulmonary
ethylene
taxi
advertisement
actor
preserved
homo@@
conditioner
enjoyed
creativity
eth@@
failover
compiled
@@
interactions
speci@@
intermittent
legitimate
leasing
ero@@
gloves
ato@@
citizen
slopes
sizing
woven
fires
ises
cabinets
ists
avoiding
username
vit@@
drinks
sae
stock@@
extrusion
guarantor
litigation
1.8
punch
spinning
hin@@
simultaneous
divisions
silence
internally
explicitly
mist
app@@
grams
crankcase
modernization
cli
palm
flavor
navy
pay@@
wavelet
furnish
profound
spi@@
cou@@
enforce
locomotive
filtered
prosperity
frequencies
ered
suppose
modifier
chu@@
lithium
tool@@
travelling
burned
128
disciplinary
rev
receptor
eliminating
turbocharger
deviations
sauce
2.7
caterpillar
tune
consequently
iled
grasp
digits
pearl
hv
vel@@
upgraded
opera
dispersion
44@@
attributable
alt
menus
wel@@
cube
bundle
empirical
dispose
evacuation
transformed
lab@@
lh
breakers
i.@@
inclined
sulfate
generations
par
township
tariff
pays
radi@@
assignments
decimal
dre@@
dur@@
exclude
saturated
picking
pier
bei@@
enormous
apron
broadcasting
grace
warming
jian
conductive
pinion
worried
coefficients
refined
lube
ys@@
dissolved
1.7
assessing
domains
featured
110@@
ell@@
surely
aggressive
demonstrates
ris@@
suppression
genic
grounded
temp
tex@@
©
9.2
tires
skid
lat@@
ate@@
sword
lou@@
muscles
sps
confined
spokesman
58@@
aring
pursuit
reflecting
bike
guizhou
optimizing
publicly
silica
expressly
interrupt
formatting
inserts
defaults
radical
ng
sino
incorporation
balls
telecommunications
pleased
free@@
anxiety
closes
accepting
ppm
lec@@
purity
centered
gged
correspond
ham
ium
expects
decides
ners
1m
tennis
beings
yong@@
forging
horizon
you@@
inverse
dt
phrase
comprise
hearts
．
nano
cured
ced
4th
circumstance
span@@
lev@@
5,@@
gan@@
beds
mongolia
saves
es.@@
underwater
gentle
reinstall
pper
knob
bears
unix
volt
suspend
edi@@
ledger
scenes
texas
gauges
endpoint
apps
pel@@
ensured
glue
oxy@@
grows
yangtze
dining
recruitment
physically
reforms
lv
tem
mile
sums
characterization
icity
proximity
quartz
tives
assuming
pools
hvac
compulsory
mv
limestone
somewhere
titles
pledge
ading
rep@@
bu
bet
ling@@
wrapped
pine
read@@
af
sandstone
silicone
orifice
planetary
mode@@
researched
yao
800@@
geology
credits
preparations
distant
les@@
odd
0m
electrically
glad
spectral
affiliates
huang@@
quan
router
globally
basement
facebook
lowered
break@@
memorandum
nowadays
pour
creditor
destructive
inherent
loader
rocket
mini@@
notifications
poles
honey
tablet
bands
junior
deletion
intact
rers
book@@
publicity
technicians
brilliant
carbonate
67@@
keyword
bean
insurer
②
charter
impeller
abrasion
dressed
n.@@
pb
requesting
ath
cyclic
sanctions
hard@@
attracted
fabricated
may@@
cabling
capacities
chrome
dealers
ut
hygiene
towers
tivity
compressive
decorative
flags
ssl
cattle
hero
absorb
laundering
rounded
spl@@
ib@@
spline
vin@@
assumption
mal
memories
discrimination
logically
blo@@
dil@@
gam@@
fried
simplify
cpc
pac@@
ress
acted
conservative
pregnant
coronary
ges
submitting
psycho@@
tu
stor@@
thefice
08@@
dig@@
uninstall
interact
poly
fatty
gener@@
microscope
zhi
elementary
5th
adhere
analyse
1988
imperial
kid
yun@@
counted
ethical
shen@@
ethanol
flammable
portions
whatsoever
mas
worthy
rp
fluctuation
employers
motivation
wired
associations
progressive
dressing
kidney
alternatives
knock
responding
cardiac
sv@@
1989
cy
16.@@
liquids
mad
romantic
affiliated
ditch
eless
inactive
neo@@
xiang@@
strut
inserting
christian
renal
foil
operative
ves@@
riding
datum
saturation
brightness
dating
playback
f1
widespread
hosted
pulp
dh@@
graduates
alizing
yields
；
ct@@
passwords
xy@@
consuming
cave
oper@@
df
farming
smtp
patents
sequ@@
refund
steels
commander
cheng@@
15.@@
lessor
sixty
wi
condensation
eg@@
succeed
ect
boo@@
jv
holidays
yarn
broadband
secretariat
inconsistent
mann
ici@@
vm
crimes
tiger
proliferation
inventor
occasion
flo@@
sweat
chil@@
gulf
markers
perception
convergence
dancing
dent
fixtures
tibetan
visually
setpoint
pd@@
wipe
flashing
hai@@
realizing
distinguish
immigration
tar
bla@@
excellence
qualitative
dealt
vaccine
flywheel
cia
starch
ree
embankment
reporter
subscriber
dropping
consistently
rollers
earliest
diplomatic
loud
56@@
fermentation
musical
builds
c1
cb
challenging
greenhouse
consortium
cm@@
dental
polyethylene
vss
rush
venue
culvert
eur
pause
electrodes
pride
imk
ansi
thorough
unauthorized
photography
ftp
officially
recoverable
participated
wl
tb@@
tm
establishes
refining
rsquo
warned
dilution
tized
adaptation
ming@@
stairs
50mm
cid
wei@@
instructed
throat
facial
shel@@
absorbed
districts
prospective
winner
petrochemical
internationally
yun
reconciliation
checklist
rabbit
hip
prints
encounter
sum@@
tia
expenditures
tract
dumping
genesis
hatch
fulfilled
photographs
touched
courage
countryside
http://@@
bathroom
ination
vocabulary
forecasting
cla@@
torx
warrant
450
lic@@
packaged
accused
hello
waist
favour
shadows
constitutes
var@@
penalties
excavated
programmable
sweep
aero@@
directories
emotion
redundancy
89@@
scrap
glow
vacation
encourages
illustrates
margins
ducts
zhi@@
dishes
pla@@
formally
contracted
zhuang
insulator
coupler
markings
capsule
boring
featuring
responsive
polygon
unstable
crushed
alised
ae@@
gan
opposed
ring@@
tissues
toy
3.7
scenery
correspondence
terrible
ht
negotiate
revolutionary
zheng
guo
numbered
boiling
switzerland
inv@@
accountant
synchronized
empire
lbs
trans
hc
8.5
ry@@
secrets
ben
deaths
dme
dynamically
ut@@
boots
hasn
engages
exe
0.01
1000@@
climb
vc
l.@@
fatal
thet
parliament
plated
separating
synchronize
warranties
macro@@
our@@
reboot
ards
encrypted
xing@@
rays
tioned
vertices
crazy
microstructure
coded
shake
virtually
ecology
votes
del@@
dl
cer
interpreted
wit@@
inorganic
discussing
plateau
grains
laboratories
assay
guan
currents
sorts
riser
math
drama
absorber
nail
airline
brass
liang
abandoned
throughput
unused
bottles
spoiler
naming
ati@@
centerline
dation
lighter
servant
4.7
privilege
bao
104
expo
bomb
quarters
macao
chlorine
ireland
fluorescent
nos
dness
mediation
chicago
colours
alk@@
drilled
magne@@
flooding
frost
vari@@
fy@@
genuine
mon
writers
uri
posting
stratum
tures
spa@@
debug
teri@@
dm@@
20th
auditor
collections
sealant
cooked
emotions
inadequate
gly@@
dramatic
bullet
recommends
dhcp
butterfly
suzhou
eling
triangle
1500
angeles
low@@
granite
wavelength
movable
glu@@
irregular
seasonal
sided
surveying
m8
zhu@@
chances
occasionally
ridge
ul
pun@@
uniformly
yours
aling
eye@@
praise
ele@@
fri@@
communicating
defendant
reliably
dielectric
retrieved
exploring
fit@@
athletes
focal
implements
counters
ping@@
dtcs
fastest
nt@@
neutr@@
lig@@
deed
shoulders
05@@
fp
glo@@
port@@
elite
soccer
handover
lap
newspapers
workload
mirrors
searches
balances
immunity
borders
wr@@
ner@@
piano
dying
owing
draws
withdraw
kno@@
chlor@@
nylon
striking
horizontally
drought
s2
scattered
climbing
ceramics
liber@@
seasons
fo
cit@@
jordan
saudi
migrate
istic
bai
pwm
screw@@
tensioning
miscellaneous
cheese
ions
subsidies
reservoirs
steep
provisioning
orderly
reveals
substitution
conception
alist
cin@@
emerged
infectious
graphite
withdrawn
5000
polyurethane
cayenne
pap@@
badly
strengths
disorders
outsourcing
tapping
boats
fel@@
probes
massage
sas
plas@@
telecommunication
dominated
weigh
graphs
heel
ast@@
discharging
broader
spe@@
summarize
aerospace
receipts
onal
obstacles
avoidance
pixel
kb
weakness
show@@
des@@
aforesaid
foregoing
oneself
pants
fies
injected
workshops
trolley
winds
db2
ani@@
hormone
harvest
populations
carpet
complies
6,@@
rou@@
trail
priced
scratch
wax
william
arrest
tao
ding@@
arrows
walks
filament
sake
urine
dock
http://www.@@
remotely
guangxi
cease
dryer
triple
ot@@
conditional
constrained
gi
deducted
delegates
0.8
abrasive
atoms
crank
applicants
flip
skeleton
conten@@
letting
1986
var
milestone
vic@@
passport
a2
distinctive
hunting
relax
traded
olympics
sac@@
touching
incentives
prefix
bedroom
cart
anhui
ile
immuno@@
fmi
acy
colorful
tric@@
est@@
0.00@@
clin@@
mhz
03@@
tang@@
album
ney
－
rebar
disciplines
ii@@
contest
ely
reimbursement
slider
shielding
burner
distributing
poll
cores
usd@@
atom
thrown
eco@@
billing
lubricate
cited
remind
merchandise
harvard
++
srdf
del
fork
ops
centr@@
depot
pln
lightly
arch@@
shrink
canvas
stepped
streaming
ables
globalization
para
arial
fat@@
powerlink
promising
blame
desirable
restoring
ath@@
gang@@
netherlands
recycled
250@@
profitability
runner
met@@
tablets
straw
liked
ultrasound
retired
construed
audits
illuminated
modal
retro@@
home@@
assi@@
ht@@
tangent
95@@
harry
stating
ghua
flights
skirt
crm
dependence
dos
humanity
rewards
prevail
bumper
s1
ah@@
strains
meaningful
shrinkage
dispatching
grave
coils
relatives
tutorial
medicines
tas@@
tubular
bleed
ich
bachelor
echo
theater
trips
commits
servants
slice
vulnerability
fc@@
morphology
withholding
porosity
porcelain
sk
103
fixation
logists
makeup
text@@
ideological
studs
attending
v2
chuan
funny
infinite
4.8
curvature
increment
nd
interfere
drew
replicated
ann@@
toys
accepts
diode
ali
nasa
bacterial
pto
gmo
gr
tyres
sic
eb@@
differently
mec@@
microphone
bob
oun@@
collectively
chambers
scra@@
jade
johnson
paintings
manifest
aff@@
contrac@@
darkness
seams
1b
sequential
farmer
nozzles
backs
livestock
pork
deli@@
flesh
iis
physiological
tless
tra
shen
detention
mn
particulate
1984
afterwards
argue
drains
defend
lc
staying
tech@@
pes
generalized
ara
insulin
1987
fin
conscious
nto
strive
jia@@
pockets
oem
seepage
xx@@
unchanged
106
meals
lenders
planar
sian
distributions
intends
assumes
poem
encouraging
21st
dge
ballast
demanding
meteorological
revit
voltages
aqueous
nets
nurse
counsel
norms
uncertain
promises
continually
lifestyle
responded
sunshine
communicated
plo@@
grout
photograph
cigarette
javascript
deterioration
outage
seventh
acknowledged
hba
laugh
ranks
shells
transmitting
hoping
flow@@
toggle
waiver
17.@@
constitutional
enthusiasm
dered
henry
fate
profession
treasure
trillion
complied
equals
kinetic
grouping
hun@@
beverage
protects
complications
pound
richard
sten@@
threatened
upgrades
coats
boarding
after@@
minds
ade@@
arithmetic
registers
masters
translate
rpc
trapped
atlantic
ted@@
kim
clarify
6.0
dairy
2.8
delicate
evident
prote@@
possesses
bly
violent
energized
metre
woods
expectation
9.5
uicontrol
likelihood
""""
ville
compromise
metabolism
aps
sockets
soybean
abide
inevitable
grab
vt
fifteen
fly@@
pixels
succession
broad@@
conclude
initialized
ith
severely
variant
detectors
lawyers
person@@
tripping
guid
reducer
mbled
mike
9.3
bec@@
main@@
than@@
maxim@@
median
poems
prefecture
sieve
healing
reflective
machined
shots
absorbing
commence
bility
cb@@
oxi@@
phosphorus
trades
polishing
rin@@
smo@@
supervising
babies
interruption
pping
discloses
0.6
oxides
violations
3.8
cultivated
methanol
dom
108
runway
body@@
politicians
networked
interrupted
preferential
graduated
poses
100,000
plaza
dao
ray@@
sep@@
201
ano
recipients
ula
shortly
rage
accountants
elasticity
lump
spa
blu@@
instability
rome
epidemic
gao
stabilized
subordinate
alkaline
damaging
objection
upwards
aggregates
damp
wars
nest
recirculation
qu
turbines
equi@@
thr@@
semi@@
df@@
noble
enclosures
aperture
ranked
amend
attraction
clarification
sor
77@@
granular
liquidated
69@@
primitive
c2
composites
debit
dye
dramatically
resistor
chen@@
wholesale
runoff
exempt
packs
lun@@
martin
pleasant
conviction
loo@@
confirming
gastric
layered
pn
r.@@
defeat
myanmar
org@@
gl
p2
florida
43@@
finishes
isolate
signatures
implied
arbitrary
collaborative
petrol
115
soldier
euro@@
printers
scattering
reas@@
cx
flaw
hoped
benzene
spinal
shouldn
b1
fen@@
ada
ecu
mating
swiss
polymerization
sl
ala
dosage
j2
kai
snapshots
infections
roughness
8.4
pass@@
steadily
examining
correlated
sentenced
ening
duplication
symptom
accountability
ashed
63@@
fol@@
recycle
ether
feng@@
laptop
sells
accidental
user@@
230
ful@@
prec@@
concealed
smallest
verifying
transporting
molecule
○
prestressed
reversed
xu@@
sty
intend
loyalty
mps
renewed
slower
suited
5.7
ide@@
innovations
allo@@
warrants
lovely
conceptual
gers
sheath
accrued
eps
viscous
cranes
inte@@
glory
poured
jan@@
approaching
exercised
guns
wash@@
crystalline
definite
ous@@
customization
evaporation
diagonal
qualify
soci@@
commen@@
orthogonal
kiln
tunnels
hypertension
bonnet
loops
paints
scal@@
uncle
dium
oversight
stimulation
infringement
inheritance
link@@
xes
graded
associates
completes
sanitation
acetate
kit@@
exclusion
lattice
vein
flat@@
rib
stadium
clean@@
f2
pf
wt
nic
-2
assured
slo@@
canceled
dozen
informal
lawful
mates
band@@
,000,000
catalogue
outward
hab@@
accelerating
discard
horses
compile
viruses
centuries
plat@@
bicycle
helicopter
short@@
mayor
planted
trafficking
aerial
employing
750
administered
crossed
cvs
day@@
grants
dividing
marry
foster
pci
actuators
hull
keeper
reproduction
¥
iphone
proves
111
partnerships
acrylic
colli@@
sunroof
closest
twisted
rectangle
fl
stays
lumbar
50,000
jones
scoring
kel@@
refractory
conveying
coordinator
drafting
guang@@
cleanup
enemies
shelter
pits
polish
relocation
hua@@
racks
sf
shaping
compilation
disability
react
underneath
002
diversified
reporters
resisting
posi@@
xia@@
ashes
mandate
nfs
plac@@
actors
amed
dependency
premise
jiangxi
jerusalem
resi@@
wore
themes
bricks
tenant
sg
fears
hosting
sellers
unlimited
synthesized
std
rh@@
extra@@
perceived
fillet
presenting
imagination
threw
oct
high@@
partitions
casual
randomly
accompanying
whi@@
gage
expose
comprehensively
scientist
consolidate
raises
compute
vp
4000
inland
dit
impressive
dmx
geography
succeeded
dome
wood@@
celebrate
reli@@
overlapping
1.5@@
bic@@
combustible
grouped
suits
hired
replied
pcr
singer
designate
85@@
industrialization
sible
contributing
ure@@
targeting
1985
charles
click@@
tec
capita
duck
inspiration
tomy
wn@@
tetra@@
dol@@
affordable
jumped
sponsored
7,@@
sentences
stereo
tho@@
snapview
leaking
sandy
complementary
135
avamar
duc@@
6.6
chromium
fastener
flanged
absent
hardened
merchants
pale
dex@@
cmc
documentary
drove
selections
popularity
1980
corrupted
quest
seized
thro@@
notch
taxable
0.0
appearing
bite
israeli
phen@@
pumped
sid
t1
mir@@
ministers
tightened
ute
concurrent
enti@@
cher@@
fractures
telecom
blending
gaskets
interviews
lanes
prolonged
alongside
tectonic
textiles
4a
amid
concert
cervical
cellulose
tization
itb
yoke
cyclo@@
tol@@
ial
thomas
complement
possibilities
sty@@
subsidy
info@@
42@@
incorrectly
breakthrough
typed
hair@@
impurities
nd@@
vo
liaoning
rebuild
presidential
organ@@
1990s
biomass
idi@@
brew
stamped
ums
draw@@
mainstream
flu
refrigeration
225
promotes
synchron@@
notebook
sharply
plunger
traces
asi@@
diff@@
dg@@
initiation
upright
deletes
enjoys
dalian
judges
nucleus
ail@@
beans
devoted
creep
comprised
camp@@
examinations
fore
capacitance
commercially
has@@
sap@@
stimulus
bolted
fan@@
indemnity
ow@@
6m
cad@@
guang
contingency
inhibitor
lian
angel
arrested
graduation
downtown
ank@@
vol
leased
strata
workforce
***
sol
usable
gong
contacted
yen
quasi
arises
sweden
formerly
qty
stabilization
drained
overlay
interlock
mothers
volcanic
hetero@@
lon@@
cfr
depressed
invisible
recipe
gsm
,000@@
cnc
merged
successive
flour
bubbles
evaporator
folded
investigating
tightness
wildlife
chairs
affiliate
observing
dutch
substituted
shading
stre@@
oldest
pcb
attributed
elling
bull
cing
mobilization
overnight
alists
booking
potato
sulfide
joystick
windshield
zh@@
downloading
neighborhood
que@@
bitter
stal@@
bab@@
faculty
volunteer
appetite
conventions
ventures
shang@@
slides
fd
bet@@
alisation
lakes
tel@@
downtime
remedies
snow@@
255
meanings
admit
senate
trays
fare
grooves
sim
ml@@
posed
extinguishing
pig@@
certify
institutes
competing
terrorist
remainder
systematically
diver@@
frank
sailing
uranium
habitat
claiming
pedestrian
che
hil@@
escal@@
yue
illustrate
whoever
motorcycle
anchorage
essay
bead
panda
62@@
electrostatic
gardens
socialism
mall
interchange
mf
yards
philippines
redemption
painful
acc
inertia
slabs
atively
cau@@
ladies
homogeneous
delicious
diagnosed
explored
ball@@
nested
vac
blown
enrollment
loves
scalability
check@@
prescription
stimulate
crushing
antly
arm@@
draining
erase
sci
pickup
plaster
tibet
chaos
garment
entrepreneurs
fills
economists
inferior
outbound
ram@@
tations
forecasts
kings
dou@@
lr@@
retrospect
inbound
tx
rectifier
jewelry
anymore
mitigate
prevailing
overtime
og@@
1200
gated
headlight
humanitarian
light@@
sill
sump
eve
idler
insensitive
visitor
10.1
mars
authorize
pressurized
consume
tactics
stabilizer
longest
optionally
piwis
rocker
auditors
incompatible
clubs
overwrite
extracting
rms
lookup
racing
dozens
coordinating
um@@
adequacy
organisms
cal
garage
sus
group@@
omission
unclip
ik
assigns
g.@@
recoverpoint
rotational
accord
gil@@
oning
life@@
experiencing
scaffold
worksheet
interoperability
::
endless
pw@@
mere
ruler
externally
presentations
vinyl
heights
hk@@
row@@
jam
satellites
chro@@
unqualified
backrest
charm
7.6
server@@
patches
ethyl
hedging
aided
pled
harbor
retardant
tremendous
formalities
effected
fracturing
irs
recovering
adi@@
kiss
5,000
ingredient
gation
adapters
immun@@
view@@
antibody
audible
sab@@
spouse
fines
replicate
confusion
crystals
positively
taper
gods
medication
gor@@
&gt;&gt;
texts
hear@@
hydrostatic
ancillary
anonymous
tonnes

motor@@
parametric
geotechnical
pigs
tter
unions
gypsum
hex@@
turbo@@
elections
facies
cheaper
strand
shale
commissioned
websphere
litho@@
polished
ying@@
reg
hungry
shader
304
chap
rela@@
lunar
19th
missions
quietly
downs
ino
ruled
sits
hot@@
delegated
cop@@
dosing
nb@@
aquatic
dare
ere
eia
footprint
registering
ice@@
trash
conserv@@
fastened
59@@
campaigns
packets
tren@@
div
dings
rainy
3a
enjoying
typing
bcm
hat@@
ory
rho@@
rupture
perimeter
torch
ningbo
spine
enhancements
psy@@
hplc
spectra
ventricular
lecture
nthis
residues
routed
noting
ammonium
ulate
vibrating
assigning
care@@
cushioning
cleanliness
farms
sour
src
uneven
suicide
precast
unclear
icp
economist
ore@@
platinum
4m
chu
fossil
moscow
chapters
cultivate
doc@@
lonely
supplemental
interlocking
zhen@@
petition
viral
cfcf
bes
influential
idrac
pg
traceability
ama
relics
ultraviolet
lag
insects
organisations
abo@@
nationwide
sata
messenger
210
ei
nights
retailers
capillary
indi@@
plugged
accessibility
disconnecting
physician
nov
tened
cups
transmitters
hath
guan@@
ideology
divorce
elongation
dsp
swe@@
traders
whis@@
ound
poli@@
binder
obliged
formatted
asp
volatility
charity
accreditation
critics
ption
reel
spirits
paving
acquisitions
let@@
modelling
naked
cardiovascular
itation
localization
was@@
pertaining
tus
window@@
100mm
bud@@
tumors
prone
cds
disadvantages
kenya
jar
evolved
ozone
analytic
contacting
nerror
pavilion
modul@@
prompts
founding
alling
ky@@
yearly
suitability
workbook
alternating
poland
subway
compares
buddha
coun@@
thermometer
mileage
fluoro@@
tou@@
indices
nsr@@
170
wanna
notion
stir
semantic
aggregation
cis@@
counties
tted
asing
heaters
bedding
joe
cardi@@
completeness
ino@@
kang
jim
activating
inert
settling
sedimentation
reuters
bom
elect
consumables
converts
abdominal
submerged
rhythm
dine
intra
replaces
signaling
urge
exercising
predefined
pyro@@
murder
stems
bis@@
f.@@
profitable
ulated
bes@@
fuses
oned
dt@@
type@@
drawer
forged
steve
erected
proactive
constituted
1up
316
straps
intrusion
nato
dable
xy
truss
cis
wetland
78@@
accent
eroom
ligh@@
tapes
circum@@
code@@
alleged
systemic
conforms
cao
optics
stretched
butter
manganese
note@@
hart
relaxation
vane
fox
hainan
inde@@
islamic
revise
urbanization
will@@
shy
worship
scu@@
04@@
cx@@
mers
sci@@
abc
daylight
qian
ries
sacrifice
ational
deng
eo@@
costly
mis
tagname
x.@@
buckle
diagnose
inflammation
Φ@@
lay@@
manpower
pic
bladder
kunming
pigment
demo@@
uh
gging
insect
statistic
lap@@
sni@@
sau@@
stacked
tured
civilian
dering
theorem
acquiring
multilateral
forgotten
dragging
thes@@
attenuation
insolvency
territories
ail
castings
modest
ani
poisoning
aqu@@
sovereign
distillation
inci@@
flex@@
but@@
thin@@
tum
vac@@
novels
retrieving
shang
summarizes
convey
renovation
hits
peers
dae
mble
salaries
subscribe
decay
age@@
intrinsic
proc@@
sar
wolf
dash
ov@@
personalized
clarity
microcomputer
1982
whereby
shifted
coloured
interpret
multimeter
scored
workmanship
clinton
dig
dim
lover
tage
budgets
waveform
bag@@
continent
workpiece
deny
gansu
emphasized
10.2
swa@@
v.@@
__
hardening
memorial
reminder
white@@
actuation
cover@@
relying
duplex
stat
isolating
kun@@
grids
jane
gul@@
tracked
colony
fake
thy@@
naval
newer
checkbox
expecting
③
invasion
relaxed
marginal
punished
ageing
qualcomm
stair
esc
bevel
meantime
inger
inhibition
marble
satisfying
tow
ifc
explo@@
granting
hiding
part@@
ently
sq
developmental
likewise
kh@@
oli@@
hopper
screwed
calibrate
forcing
hierarchical
stripping
­
state@@
thumb
mri
disappear
kinetics
additions
myocardial
foreigners
symmetry
galaxy
wd
x1
propulsion
terminology
coin
sorted
castle
incorporating
theatre
86@@
heterogeneous
temporal
countermeasure
disruption
parcel
carbide
windscreen
sn
121
bru@@
disengage
ides
stolen
uniformity
hypothesis
mbling
gamma
tri
heng@@
shaking
wo
reasoning
5a
ols
incomes
weathered
convinced
there@@
112
aux
considerably
instantaneous
villagers
civilized
demanded
intermediary
ja
bury
champion
payroll
tops
cham@@
barely
swivel
obstruction
prevalence
visualization
bli@@
nitro@@
approving
entrepreneurship
creatures
exhibits
railways
mess@@
snake
fir@@
aria
instantly
overdue
expressing
jam@@
np
9.4
concession
ue
μm
specialists
princess
solvents
regret
shirts
technically
polarization
zu@@
descriptor
probable
splice
02@@
rigidity
stacking
strokes
highways
lif@@
sely
exchanged
rever@@
tine
seize
fru@@
sincere
appl@@
roo@@
diameters
reversing
weren
crafts
lor@@
3ds
envi@@
¬
airborne
genus
conditioned
counterparts
refusal
vista
batches
kal@@
r2
negligence
swim
annular
spill
corrections
integrates
sterilization
mato@@
o2
unsupported
ita
mooring
initi@@
argued
dc@@
wang@@
eighth
estimating
erp
simulator
trick
bed@@
intranet
inventories
lacking
unprecedented
pts
undergo
mil
confused
patrol
nec@@
disappeared
fluorescence
viewpoint
sta
counterparty
neighbors
anybody
hollywood
berry
invented
ku
recognizing
panic
path@@
sof@@
stipulations
supplemented
qian@@
emergence
feb
expires
leg@@
tones
coll@@
jackson
bends
pursuing
biztalk
kits
mains
reinforce
thec@@
hoo@@
francisco
warmth
occupy
700@@
bug
expndtw1
disp@@
unacceptable
upset
authentic
extracts
readiness
2,000
revisions
couples
lug
rs@@
executable
house@@
lf
omitted
qin@@
witnesses
alle@@
bra
eness
impaired
qualifying
amazon
boilers
numbering
symbolic
yel@@
grammar
nutrients
rio
jersey
haw@@
symmetrical
guinea
thefer
calculates
shenyang
stereo@@
vel
cracked
inappropriate
affair
engineered
avi@@
swelling
maize
sustain
deciding
nia
ena
learners
subjective
traditionally
vr
8m
enhances
yeast
encoder
llc
quanti@@
cow
poultry
ultra@@
interconnection
320
keen
tizing
ting@@
sedimentary
aft
milan
ite@@
ose
stor
oni@@
silt
canister
inspectors
mn@@
scor@@
unesco
couplings
populated
strikes
syste@@
phoenix
resolving
tial
chron@@
differs
lubricants
shipments
embodiment
exten@@
nutrient
ain
lation
sheng@@
mainframe
seeks
servic@@
stretching
izes
airflow
manipulation
adversely
exposures
ust
mq@@
aro@@
mentally
peaks
scs
anterior
bia
burns
mirrorview
stepping
struggling
xiamen
mechanically
ager
defl@@
unsafe
discrepancy
pus
feeds
splitting
ques
ropes
remembered
lugs
ashing
hum@@
transplantation
system@@
hepatitis
ick@@
clustering
grating
tion.@@
org
refrigerator
refuses
researching
v6
flew
hiring
actu@@
trainer
900@@
ration
tail@@
tory
farmland
stupid
somehow
swee@@
compositions
irradiation
kai@@
loving
soa
spell
way@@
insights
enforced
mystery
relies
conferences
confirms
donor
oe
123
ambassador
scar@@
presses
wellhead
blanket
xinhua
full@@
licensor
spider
nas@@
vicinity
workout
mankind
mutation
sewing
indexing
meta
psm
airplane
drums
explosives
fications
subtle
wards
fulfillment
dal@@
aming
2b
a4
distributors
traits
hem
sprocket
bt
arti@@
explanations
gum
oming
mol
leds
importantly
moulding
n1
ply
seawater
shielded
assy
ccs
ace@@
ferrous
originated
inflammatory
medic@@
gui@@
labeling
onshore
impacted
commanded
lon
slu@@
observer
compressors
ile@@
saddle
t2
3500
induc@@
sou@@
pie
sat@@
fierce
triggers
itable
obstacle
inherited
0000@@
societies
inhibit
liberty
sher@@
undertakes
gradual
mation
goodwill
dawn
monopoly
pil@@
resting
tative
anode
apt
burnt
cx4
endurance
arriving
inspecting
aded
exploit
fined
hepatic
itated
neutron
ulation
ome
8,@@
bad@@
tap@@
jilin
transforming
97@@
simplicity
surroundings
54@@
lea@@
techno@@
decorated
plumbing
relevance
rinse
see@@
affixed
benz@@
catering
behave
allowances
revoked
deformed
sentiment
ay@@
fiction
load@@
sel
yong
illicit
urea
deploying
saint
spares
lifts
vas@@
amber
bitmap
oc
crmk
lockout
tta
dle
headers
mess
boun@@
cascade
dew
migrated
reconnect
laminated
pepper
sla@@
tent
crowded
0.25
kan@@
pray
qinghai
distinction
rotated
courier
journals
tertiary
lm
frontier
dyeing
activates
beating
m1
buddhist
w.@@
instruct
mismatch
fx
shim
tl
107
joseph
announce
compensated
suitably
doppler
ieee
km2
segmentation
stain
bios
coaching
scanned
132
arctic
authenticity
keywords
1980s
clipboard
winch
catching
demolition
py
educated
aug
prof@@
428
approximation
lao
snmp
cycling
norm
tensioner
tte
dependencies
boolean
ington
deficiencies
50m
commissions
laden
mun@@
veri@@
gotten
induce
attacked
ipv6
rap@@
conducts
thereon
scm
cents
cont@@
booth
collapsed
dir
trauma
adjuster
barge
gab@@
layouts
quin@@
proportions
rests
republican
deci@@
eccentric
flooring
tely
petro@@
asleep
dissertation
lessly
peptide
priest
renamed
poet
surprising
fool
vil@@
β
incl
53@@
no.1
bored
detach
similarity
toyota
bang
fighter
plots
witnessed
css
tapered
fonts
bian
embassy
wall@@
atm
bitumen
bump
clerk
n2
subset
zhang@@
cried
gger
king@@
occasions
andy
pallet
tism
valu@@
itor
mills
polluted
reliance
p2@@
flies
spontaneous
acupuncture
ella
emphasize
morality
sine
sticking
emitted
surrender
virgin
males
nplease
remedial
aks
chy
shorten
airports
ston
tick
!!!
catalysts
hf
neighbor
competency
lv@@
brace
zhou@@
87@@
illuminate
kins
las
busbar
handbook
cctv
warn
breed
grassland
secre@@
animated
mast
gol@@
narrative
dean
tuberculosis
berlin
comm@@
justified
dru@@
vouchers
environmentally
indemnify
apped
depths
nails
contributes
arrives
bop
sil
α
sydney
undp
oscillation
pillars
robots
gaining
poison
tible
attendant
procedural
interpolation
browsing
inclination
tz
nameplate
neurons
adam
generous
prospecting
2mm
dence
exits
microprocessor
spreadsheet
thermostat
deb@@
voters
swept
mari@@
simulating
if@@
ari
graft
steer
harmon@@
lia
sticks
computational
dents
lenses
wer
cai
chim@@
fluctuations
renminbi
vortex
borrowed
consultancy
nutritional
school@@
fought
asis
submarine
gaming
mass@@
data@@
harsh
heal
shims
electrons
ju
neat
ohms
stamping
monkey
overrides
ppers
box@@
devi@@
list@@
spor@@
ately
awa@@
backfill
hoc
sman
throwing
d1
jo
spaced
tread
prosecution
simulations
thu@@
symmetric
emerge
vip
fluor@@
judgement
dwf
suggesting
lum@@
rup@@
ya@@
175
soft@@
hao
patience
rival
curb
tomb
advancement
glazing
arabic
h2
landfill
scrip@@
sandwich
lang@@
roadway
tenth
256
audi@@
purified
bituminous
west@@
contingent
commenced
dev
stall
managerial
favorites
lend
shine
contactor
tis@@
122
til@@
neighboring
wenzhou
bunch
call@@
sq@@
volumetric
litre
tidal
recurrence
shutter
7.0
concurrently
protector
laundry
banner
decent
fragments
scaled
earning
fetal
municipalities
6.7
daniel
pollutant
refinery
subscriptions
polypropylene
constructor
restarted
spra@@
distress
iser
support@@
tendering
understands
vis
implies
anth@@
chin
pulses
thirds
protest
researcher
ola
ww@@
tiered
feedwater
year@@
onset
adventure
whe@@
cation
eff@@
incredible
logistic
traps
mysterious
clustered
emergencies
dynasties
lesser
pliers
sensi@@
underwriting
constituents
diluted
balloon
bot@@
talented
pets
drunk
minim@@
threatening
projections
tell@@
author@@
alia
fei
6th
rsa
twitter
uicontrol@@
0.7
nb
aromatic
dangers
reactors
thef@@
ym@@
literally
dismantling
trough
altogether
assisting
ny@@
presently
diffuse
referencing
bat
lag@@
asm
gay
millennium
attitudes
eds
forwarding
atf
lobby
molten
bomb@@
females
1983
onsite
301
disc@@
dai
mani@@
one@@
asean
scalable
biped
moses
homework
tactical
verse
competitor
liaison
jiao
quorum
scada
till@@
char
hap@@
rainwater
5.8
ral
arabia
hl
derive
fetch
tz@@
localized
staging
effluent
convex
differenti@@
eager
114
expire
kn@@
electronically
limb
landslide
illa
perspectives
sibility
eb
bb
cats
denti@@
electrochemical
leap
ugly
exhausted
urged
actuated
cathode
barcode
pathway
decree
medicinal
financed
vitality
lish
corrugated
109
egyptian
dal
lasts
crest
knees
ndo
pal
respon@@
spacecraft
coherent
premature
caller
fg
ity@@
stiff
magnificent
ppe
inging
wh
zoo
amongst
manipulator
52@@
ght
ses@@
innocent
resettlement
09@@
unpaid
dh
ndt
ud@@
warehousing
cholesterol
embrace
deepen
insure
switch@@
bf
hunt
cos
cosmetics
indexed
jur@@
owed
surround
triangular
mented
weighed
guo@@
missiles
recurring
bert
diffraction
ices
mos
agile
bulletin
infarction
lex@@
courtesy
headset
mighty
tackle
bangladesh
changer
ghost
renowned
deepening
quo
μ@@
cliff
hyperlink
gall@@
sal
bounded
7.8
sit@@
3.9
b2
insist
subnet
administer
dataset
reflections
sic@@
1.9
ase@@
brave
optimistic
m10
abundance
nurses
fantastic
knit
resins
acknowledges
cour@@
earthquakes
ims
tiv@@
vibrations
favourite
fixes
reside
replaceable
tale
dged
hydrocarbons
&bar;&bar;
respected
tious
welcomed
commencing
recognizes
solder
undergraduate
xr
fairness
gif
liverpool
waited
objec@@
outlines
pv@@
scsi
wealthy
a.m
mou@@
docu@@
ev
directs
malignant
recalling
piling
seminar
tim
12th
thermocouple
ª
iteration
resistivity
hitting
fame
recreation
fort
tery
fix@@
facilitating
ura
norway
explaining
hitch
jiu@@
20,000
serviced
towing
analogue
stein
angio@@
clever
paved
risen
destinations
poorly
kir@@

chelsea
diving
undergoing
windings
center@@
rence
creature
a3
bot
constructive
design@@
suppress
117
caus@@
spite
dis
nap@@
sys
textures
yuan@@
controlcenter
sculpture
seri@@
conversations
venues
scri@@
conf@@
cyclone
territorial
nex@@
nr
peel
subscribers
caribbean
rectify
ache
correcting
disinfection
swift
modern@@
judged
phenol
ven
96@@
18th
contraction
opt
apoptosis
enzymes
formaldehyde
behavioral
eliminates
sail
10m
flav@@
architects
forwarded
travels
deceased
lement
colleague
negotiated
analytics
ater
fli@@
prisoners
srm
supervised
cut@@
educ@@
lated
brains
remo@@
beliefs
auth@@
esx
ghe
mit
sters
offs
oriental
materi@@
harmless
kie
prosperous
cg
govern
hd@@
kon@@
ora
inten@@
metabolic
mixtures
human@@
salts
dw@@
jury
axi@@
emitting
isa
arian
breeze
sooner
discounts
mage
alibaba
autonomy
eternal
backbone
jiao@@
obey
stry
hooks
realm
uploaded
violate
gn
270
shelves
31@@
crying
rock@@
silicate
versa
clad
elled
pod
cry@@
extrac@@
rein@@
procure
scopic
settlements
pling
glance
pistons
ug@@
dity
mach@@
obesity
p.m
ie@@
landed
¡¡
190
space@@
sperm
lesions
ventilated
ature
corps
wounded
unlocked
12.2
elder
liu@@
advancing
portrait
song@@
equivalents
lipo@@
motivated
welder
cadres
acro@@
allied
baking
continuation
fragrance
polarity
repay
rub
relational
glycol
perfection
verbal
conferred
anda
android
luo
molded
incidental
jar@@
lawsuit
nie
editable
monster
hurry
liberal
daughters
phil@@
clear@@
invasive
aa@@
repeating
dietary
discarded
minded
gaseous
transitional
iss
blended
inbox
siveness
timed
storms
allies
eclipse
luc@@
promotional
provi@@
tangible
insur@@
tailored
alike
borehole
invoke
reclamation
medal
posterior
suspicious
alternator
cladding
flash@@
spectrometry
amin@@
gw
peninsula
comparisons
sdk
eaten
fer
sig@@
applicability
fic
reproductive
pencil
cloning
connotation
milli@@
authenticated
electrolyte
ole@@
predicting
credibility
defensive
0.9
backfilling
conduits
ukraine
oecd
adap@@
caching
haier
3mm
biochemical
cycl@@
evaluations
loosening
guardian
10mm
noises
sprayed
nes
obligor
2.9
mart
nitrate
powertrain
2s
crust
girlfriend
favourable
magazines
seas
cock
memor@@
motive
tat@@
searched
fas@@
transitions
bel
thai
viable
metal@@
tedly
races
successor
payload
scre@@
unload
argues
pledged
1981
iron@@
miniature
202
santa
sco
enlarged
deg
hadn
taxpayer
ama@@
fathers
floods
aur@@
sdd
collects
deserve
elec@@
lang
affection
ician
employs
loses
impressed
insisted
wat@@
emphasizes
06@@
cks
manual@@
wrapping
access@@
solaris
adviser
extensively
bles
spelling
tony
allen
aunt
lovers
quenching
shame
trailing
descent
hemo@@
powerhouse
gantry
dest
queues
fade
moderately
dams
upcoming
economically
resignation
v1
kat@@
rushed
soda
armor
exempted
adobe
ard@@
chloro@@
h.@@
3,000
ator@@
dow
480
lpg
200mm
buddhism
congestion
digestion
0.5@@
artifacts
squeeze
conduction
crow@@
modi@@
sintering
capacitors
not@@
oured
premiums
snap@@
declining
justification
categor@@
coli
oph@@
dismissed
practicing
kazakhstan
fig.@@
heng
sno@@
timeline
consisted
liberation
wp
angu@@
jumping
pb@@
sourcing
heilongjiang
turing
disposable
eno@@
statue
fm@@
predictive
vapour
113
contemplated
haul
oak
10th
malaria
motiv@@
rel@@
celebration
fus@@
79@@
shearing
rds
banned
broadly
ok@@
phi@@
sos
scc
gf
disabilities
midnight
sweeping
lei
argentina
emails
cont
fused
ovarian
rot@@
trou@@
progression
heap
virginia
gcc
soy
popul@@
3g
alistic
15th
creator
glyco@@
haz@@
flora
hou@@
25mm
enrich
venting
ster@@
fair@@
oth@@
pick@@
sively
supermarket
suspen@@
jurisdictions
keypad
indigenous
jaw
landlord
dispatched
achi@@
ication
multiplied
paren@@
chemotherapy
climatic
herbs
zn
telescope
dignity
kor@@
oring
tungsten
brokers
downloads
sql@@
theoretically
toughness
troubles
127
ambitious
date@@
hg
implicit
prayer
trajectory
nox
ili
gmt
singular
variability
terror
obe@@
docking
bee
denmark
hash
photovoltaic
sav@@
-3
ethiopia
bau@@
loess
tite
instructor
fulness
cler@@
georgia
spir@@
anchors
mel
rep
respondents
propeller
sponsors
wai@@
jean
nal
reductions
deliverables
atu@@
needing
verb
muslim
revolving
sus@@
20mm
endorsement
squares
chun@@
devil
immersion
planets
weaker
hydroxy@@
dots
ning@@
speaks
fragment
intentionally
umb@@
annotations
page@@
integr@@
tolerant
barrels
graph@@
sudan
appxtender
archived
originating
reck@@
staffs
scholar
inherit
rounds
ared
ink@@
shun@@
chers
edible
merits
mq
pillow
tex
➥
dul@@
bou@@
workflows
scraper
approached
disturbed
honored
10.3
exi@@
mbs
theficials
worries
gru@@
junk
promulgated
proposition
quotes
adaptability
forwards
sling
tended
eric
dull
aire
ples
receptors
thal@@
kan
168
effec@@
incorporates
pretreatment
yin@@
excitement
rotates
digging
teenth
winners
steal
yielding
fancy
fda
76@@
jamming
phrases
ddle
ased
elaborate
requ@@
accompany
migrant
advertisements
block@@
endorsed
methyl@@
occupancy
butyl
ison
reversal
timefinder
troubleshoot
variants
peasants
rigorous
activex
acetic
baked
ket
204
replicas
ninety
billions
geo
silo
subscribed
csrc
stle
disassemble
ax100
demonstrating
hanger
sisters
stripe
stranded
dewatering
journalists
villa
shorts
bir@@
compress
road@@
carved
coins
signi@@
turbulence
hmi
pseudo
hyper
imf
cape
chute
knocked
sem
parity
pesticide
bill@@
railing
bible
compass
surveyed
cisco
def
intuitive
las@@
slim
11.1
practically
wrist
configurable
rr
incre@@
mailing
spur
98@@
adjusts
gym
boy@@
covenant
master@@
smiling
spectroscopy
geno@@
cookies
umbrella
fon@@
honesty
zers
inflow
wines
intestinal
lates
tain@@
annealing
anne
biodiversity
qiu
senses
titled
undertakings
1979
cha
infiltration
comple@@
eyel@@
mba
manipulate
spc
jacking
prospectus
voices
fashionable
silty
bellows
buckling
convicted
harbour
rabbits
assembly@@
grille
inflatable
fragile
accountable
commu@@
inductive
proving
tropic
ankle
sacred
aesthetics
resides
2c
decisive
ladders
proofing
vivid
carrera
centric
chris
microbial
000.00
austria
scans
towel
companion
potentiometer
htm
arranging
sity
sb@@
sino@@
theessional
……
8.6
reorganization
deduct
judging
asthma
pad@@
sediments
205
climbed
passages
tening
occasional
asbestos
ascii
fishery
img
preserving
wol@@
4s
joke
7.7
copy@@
inverted
cin
milestones
pack@@
flowmeter
injectors
table@@
cambodia
exquisite
pertinent
shining
vectors
fulfil
hang@@
helmet
segregation
sterile
earth@@
ious
brac@@
handsome
warfare
calories
confucius
prepaid
subsystems
boyfriend
gent
determin@@
vir@@
rad@@
wheel@@
suff@@
eh
doses
grateful
sri
aci@@
lathe
safer
funeral
importer
killer
vine
lacks
dissipation
roll@@
ipo
lipid
zy@@
abutment
successively
weaknesses
leveraging
anomaly
nasal
dem@@
pharmaco@@
sands
struc@@
clicked
conce@@
9,@@
lien
disabling
ribs
stakeholder
pdp
brazilian
conical
realizes
humor
jb
pilots
attained
desp@@
hospitality
negotiating
nepal
contaminants
framing
stochastic
d2
honour
inversion
latency
tant
degraded
desulfurization
eas@@
vy
aga@@
perforated
pk
ion@@
bankers
cartridges
democrats
uncertainties
who@@
xl
bour@@
nam@@
ural
attracting
door@@
bmw
trimmed
color@@
malicious
sher
toxin
4.9
complain
inline
unfair
fig@@
118
huan@@
obtains
olive
arthritis
spoil
bankrupt
extinguisher
stab@@
6.8
powerpoint
respondent
swi@@
esp
sampled
acies
demo
prohibit
ility
violates
satisfies
topography
cir@@
ancestors
sprinkler
gloss
inward
vial
forgot
hydr@@
meta@@
predic@@
spheres
constructions
disables
portugal
widget
census
js
revocation
mod
ots
quad@@
advocate
mail@@
dus
spin@@
tti
gal
influenza
1978
membranes
ninth
φ@@
doubled
supportive
aching
czech
enriched
supporters
franchise
sinking
s1@@
foo@@
laughter
strongest
clicks
curative
limbs
rationality
justify
pag@@
rally
inevitably
notable
003
barack
logger
lungs
alumina
frontal
ideally
sensory
iodine
nigeria
chile
inate
colon@@
ometer
xie
________@@
victoria
conveniently
indispensable
plugging
ent@@
collec@@
deceleration
lah
deer
expands
sulphur
urinary
harbin
ann
behold
vis@@
fs@@
hometown
lading
storey
!!
credential
att
dfs
tains
0000
beads
ony
adherence
brian
ille
industri@@
l2
rubbish
triggering
deadly
drills
sional
ssd
treaties
marketplace
chem@@
x2
concave
ects
encoded
take@@
jinping
kl@@
converters
ghts
thresholds
vested
126
affinity
tenders
ophy@@
cyber@@
pla
transistor
pharmacy
test@@
attractions
contr@@
hydroxide
hunger
suffers
opponent
cers
that@@
counterclockwise
fiable
stabilize
subcontracting
300mm
dissolve
sop
asymmetric
chan
desires
dredging
polygons
sincerely
bale
vor@@
hop
kpa@@
Ⅱ
quaternary
vable
1970
adver@@
hemorrhage
jer@@
noisy
shment
rivals
fts
php
sers
detergent
elephant
smelting
spans
abandon
esd
tomato
aled
descriptive
night@@
fish@@
courtyard
nurbs
outbreak
voted
chaotic
survivors
chess
semester
shorted
vents
prob@@
cakes
csv
hrs
propaganda
150mm
chase
speculation
ferry
sunny
notably
alities
communicator
pha@@
helical
accidentally
aerodynamic
anchored
colon
common@@
eagle
bail@@
basins
ket@@
offensive
retailer
scotland
accumulate
replistor
01@@
belgium
convened
pain@@
simpler
spy
farther
r1
libya
aves
dead@@
basics
hint
marke@@
statute
0.00
bulkhead
spectacular
coupon
waveguide
240@@
fractal
alkyl
cortex
coalition
gt@@
&ket;&ket;
pls
divine
interventions
reed
num
gue
inver@@
synchronizing
geologic
gambling
cyber
hereafter
mad@@
alizer
sted
tha
endangered
leases
burg
doctrine
qiang
shortcuts
³
rna
facilitates
sep
store@@
leaching
corro@@
ste
elapsed
scaffolding
tiers
traditions
unloaded
asp@@
odds
sales@@
analy@@
belly
dispersed
mens
exp@@
pedestal
func@@
odor
tories
erect
kle
burial
noon
direc@@
ux
dissemination
advantageous
iv@@
link13
160@@
elevations
cadmium
ecs
iterative
nobel
collabor@@
inden@@
precedence
blessed
conservancy
goat
shields
txt
fertility
gotta
lip@@
operand
classify
trenches
380
accredited
alg@@
tero@@
wes@@
hes@@
subparagraph
500,000
chromosome
eo
automate
hen
noodles
disruptive
diabetic
louis
preparatory
zen
canopy
huan
possessed
shit
correctness
wives
ejector
eva
kilo@@
superintendent
appointments
attain
caliper
appeals
controllable
glands
thor@@
arsenal
escent
jeans
escence
lai
pathological
anxious
icbc
menting
patented
romance
apparel
conc@@
invoked
lubricated
merit
derrick
mam@@
recalled
cobalt
discre@@
lays
superiority
aligning
pollen
ppp
rel
wc
asse@@
²
inability
relieved
anytime
ras@@
depres@@
splash
tionally
translator
vely
palestinian
shuang@@
unreasonable
asiantextfont
laughing
stove
unwanted
automa@@
inity
striker
glove
stance
bounds
nation@@
other@@
enlightenment
conflicting
ign@@
directives
multiplier
veins
ccb
kg@@
efficiencies
increments
literacy
13th
‐
champions
fundamentals
syria
sovereignty
grind
oms
torsion
tragedy
flotation
260
mirroring
yahoo
grips
reduc@@
203
cran@@
ek
consultations
irrespective
npt
multinational
tpm
8.0
willingness
answering
routines
____
gold@@
initiating
mobil@@
waterproofing
2.5@@
alien
cognition
descending
inven@@
tch
milliseconds
nomin@@
fulfilling
neglect
royalty
550
escaped
watt
welcomes
chooses
liquefied
posing
dilute
hn
hp@@
icing
cod
altar
cans
caring
dubai
microscopic
moder@@
cultivating
multicast
asses
here@@
marrow
ort
poster
antigen
handset
lively
tness
shrimp
susceptible
acu@@
cultured
h2s
indicative
rail@@
surprisingly
cac@@
coagulation
installs
ionic
imag@@
garlic
scared
131
cosmetic
unlawful
10.5
emo@@
locale
ador@@
nur@@
hit@@
ousness
seldom
toes
actuating
ety
thyroid
bmp
electromechanical
privately
hourly
sie
xxxx
curious
fang@@
pseudo@@
aden@@
charstyle
minimise
theficial
turbulent
dri
fled
survived
.@@@
qua@@
shaded
lite
utilizes
eligibility
mem@@
sag
amen@@
mim@@
peroxide
risky
innov@@
collagen
contradiction
markup
revi@@
ection
framed
terrestrial
organizer
deeds
izations
nowhere
posture
infrastructures
sip
drip
geneva
latex
paul@@
___
hus@@
solicitor
220@@
historically
obsolete
overspeed
brushes
cough
e1
genome
pes@@
staining
11.2
merging
mountainous
myo@@
controversial
tractors
angel@@
bap@@
hitachi
indu@@
photographic
audiences
hb@@
embryo
jd
readable
global@@
luminous
misleading
scr
episode
periodical
charming
inoperative
cached
geometrical
latitude
peking
smoothing
comparatively
rev@@
Ω
dys@@
origins
prerequisite
name@@
pores
purely
deduced
nings
bon
breathe
twine
100m
ached
child@@
wallet
differentiate
multiply
ras
gst
c.
cleanness
forgive
dive
useless
invites
senator
◆
andrew
morgan
ounding
shortest
trader
230@@
antibiotics
mandarin
cheque
columbia
cute
remittance
thirdly
8.8
cambridge
sickness
frameworks
boeing
championship
lumin@@
cantilever
ements
lace
lounge
portfolios
rfp
testi@@
tioning
mounts
2030
shutoff
ud
exert
coral
occurrences
err@@
evolutionary
amortization
ferro@@
grape
gia
analysing
hydrolysis
tg
1970s
appro@@
boiled
sad@@
smiled
epa
offences
tempered
51@@
hydrochloride
pest
popup
.exe
baseball
internals
methodologies
spreads
145
280
donors
seedling
elizabeth
grand@@
salad
weaving
x4
ret@@
sure@@
halt
intrac@@
sept
boston
stabil@@
aspi@@
crystallization
upside
tensions
brokerage
reforming
ado
orbital
genius
editors
cuisine
organism
hm
labs
traveled
foli@@
gorges
headache
bble
breakage
methy@@
nel
12.1
tandem
010
axles
embar@@
briefing
cinema
predictions
cherry
plenary
501
.com/@@
custodian
neglected
inviting
acrylate
lawn
plaintiff
underside
aus@@
wasted
dampers
fiers
insulators
rob@@
sey
loyal
strainer
poll@@
knot
til
achieves
algae
downwards
enacted
maternal
suffix
eous
mber
rat@@
elu@@
screen@@
surveyor
aking
cane
terminating
decom@@
arid
voyage
khz
brun@@
praised
unexpectedly
kindly
resumed
alcoholic
fairy
manchester
breadth
dability
intouch
persistence
roses
karst
paper@@
wmi
140@@
juvenile
ona
prostate
shunt
warehouses
displaced
insul@@
supplements
candy
kt
treats
ascending
publishers
uniquely
wer@@
evolving
agg@@
imbalance
oval
7th
mercy
rv
terrace
annu@@
nonconforming
vivo
enrolled
portland
999
amps
gentleman
miao
tax@@
gmbh
stringent
architectures
differentiated
listener
pity
substantive
stamps
actress
yoga
chat@@
metallurgical
appreci@@
authorisation
bribery
capitalization
constituent
extinguishers
photometric
soli@@
berries
cigarettes
potatoes
classifications
heroes
6mm
figured
ags
evolve
155
casino
coaxial
custo@@
prefabricated
l1
skull
slowing
dant
unsuccessful
fting
normal@@
paradise
pesticides
launches
scheduler
tribe
bloom
listened
olin
116
motions
placebo
hydrate
recurrent
und
gic
mming
ortho@@
constants
cords
migrating
aches
boosting
ack@@
expan@@
daytime
headings
mated
vapor@@
gazette
】
torso
oxford
sf@@
choke
law@@
resize
centering
prin@@
parsing
assing
discharges
kva
oping
pur
feed@@
hunter
sper@@
trimming
happily
imperative
opathy
pn@@
raft
republicans
prohibition
tos
yo
phar@@
deliveries
blessing
shroud
blowout
complexes
desperate
grained
bride
restraints
boil
calligraphy
kindergarten
subcommittee
pots
sivity
weathering
330
mark@@
powders
leaf@@
poisonous
lus@@
2000@@
animate
assault
liang@@
av
jewish
seafood
ticism
aboard
beast
culverts
expndtw@@
nam
soak
vie@@
coo@@
refueling
submersible
dehydration
public@@
quer@@
gd
ire
lamb
termin@@
baidu
earthwork
joins
staffing
eur@@
minimizing
rhe@@
1976
enrichment
lows
consignment
fem
zheng@@
arly
bacterium
iraqi
6a
deliberately
ffs
kur@@
obli@@
edward
irish
penetrating
priming
bores
corn@@
retains
´
cof
crosses
moist
prudent
11th
heavier
pel
capturing
650
dipped
laughed
arterial
docs
alterations
syllable
traced
apis
alan
donation
finland
flames
rebuilding
vigorously
immersed
investigators
mails
qr
wsdl
fluidized
overheating
polling
transaxle
checker
saline
compiling
parame@@
squad
detained
mcc
tentative
backwards
compartments
rub@@
fibro@@
four@@
appreciated
grinder
rationale
smartphone
lions
relied
rubble
shoots
tastes
zhengzhou
disclosing
pinch
receptacle
nag@@
sticky
chop@@
entropy
ischemia
pep@@
compelling
gie
gur@@
,ltd
herbal
locator
bum@@
fav@@
diversification
flashes
8th
clones
normalized
prisoner
tp@@
xian@@
destroying
lg
metallurgy
swedish
151
bd
④
ever@@
helper
itting
vest
dia@@
eighty
fuzhou
opacity
roman@@
yaw
spring@@
chimney
fp@@
news@@
revol@@
bl
peng
ami
challenged
ductile
hectares
jets
atc
fourteen
hid
mantle
q1
stirring
crush
parse
vul@@
asa
rene
amy
peasant
peg
pyramid
faithful
hou
lamin@@
plains
strands
suture
departmental
destiny
phased
automobiles
stranger
fluoride
ib
warp
fingerprint
stimulating
application@@
flask
rea
deactivated
digi@@
lily
amy@@
hormones
remarkably
judah
lessness
capital@@
ric
119
advisers
base@@
distribu@@
fortunately
tailgate
unicode
232
athlete
hides
mei@@
versatile
magistrate
repetition
roofs
chun
practitioners
formations
pyri@@
saf@@
fisheries
standalone
newest
u.k
comman@@
？
sorrow
prognosis
ample
mentality
signalling
paleo@@
penetrate
predictable
disadvantage
rework
simon
benign
centi@@
bang@@
blue@@
illegally
astro@@
legi@@
permeable
smen
normative
bushings
infopath
irr@@
omy@@
stic@@
ance@@
ment.@@
slipped
solves
threading
plywood
sans
ces@@
kwh
openness
1.0@@
defeated
rains
iranian
conducive
euros
restarting
calculator
extruded
frp
mappings
osteo@@
tiveness
illing
stag@@
executes
reflector
revert
inn
marxism
oh@@
circumference
restores
condensed
insurers
det@@
str
ax4
exci@@
fins
pioneer
slack
mv@@
postoperative
intru@@
rong
alli@@
seventy
clearances
worlds
glossary
vigorous
.1
mongolian
occupant
anna
paired
3b
neur@@
aforementioned
tanker
uri@@
inequality
consum@@
facsimile
scott
denial
exhibitions
garments
retreat
turn@@
vtune
buty@@
dim@@
ipod
member@@
railroad
ccd
centrally
inal
irm
tsunami
intersections
shocked
exhibited
$$
1800
20m
acs
das
radiant
transferee
wears
phenyl
flooded
reign
30,000
ences
rebound
refine
amounted
oz
5.9
aix
matics
park@@
tm@@
tuned
disconnection
otc
samsung
experi@@
referral
directing
file@@
jews
mechanic
shortcomings
thinner
ration@@
sai
shalt
seedlings
aph@@
job@@
anim@@
comma
step@@
cautious
shocks
exchangers
grandfather
materially
agu@@
conveyors
inquire
reminded
enamel
nomination
acidic
arbitrator
scape
shareholding
eddy
gd@@
2500
duplicated
ital@@
jackets
sne@@
snu@@
carton
piers
calc@@
protests
rot
exam@@
lr
rey
bugs
rearward
revoke
boron
kindness
fractured
maid
necess@@
baffle
infl@@
mp3
expresses
linen
weighting
goldman
molybdenum
organised
vw
biotechnology
subdivision
travelers
clipping
phosp@@
counterpart
discounted
flaws
pupils
bas
gee
masks
predetermined
sue
finger@@
frog
identifiable
conveyance
philosophical
thick@@
seemingly
6000
bam@@
summar@@
wondering
inhabitants
desi@@
lou
liqui@@
nul@@
brow@@
edits
watts
implementations
refreshing
2o
ringing
ripple
sigh@@
editorial
hss
jail
jacob
reusable
selec@@
pendulum
start@@
brit@@
spro@@
tate
madrid
wow
mod@@
pub
uncomfortable
booked
disappointed
2019
sunset
prepares
viewers
a.
dynam@@
control@@
resilient
slips
ascertain
tron
try@@
wy@@
collaborate
consciously
kang@@
explores
installment
ush
vienna
pudong
sewer
massachusetts
beloved
foreground
rest@@
well@@
einstein
fraudulent
gigabit
gram@@
entitlement
downturn
mies
scholarship
sensation
successors
ambition
covenants
beaten
lx
mediterranean
resetting
escalation
fron@@
install@@
reload
topographic
resilience
bolting
projec@@
purging
cosmo@@
pulsed
reused
sequencing
torn
►
camps
fail@@
huawei
wanting
ground@@
declines
resonant
torsional
adhered
inhibited
icheng
mdash
bracing
spotted
bust
minimized
reformation
rubbing
prop
dit@@
oscillator
taskbar
mushroom
ores
traverse
inspire
unt
discrimin@@
ministerial
v8
flag@@
kpi
oceans
zhuhai
16th
silic@@
ambiguous
41@@
boq
carving
newton
tters
dowel
isolator
precursor
roi
evaluates
fers
linguistic
rectified
xmlclose
thermoplastic
lectures
scatter
expedi@@
stabilizing
inquiries
alarming
blends
orient
popularization
measurable
righ@@
substrates
tournament
watches
xed
peach
reciprocating
eth
lemon
quotas
133
ef
abdomen
arsenic
ceases
pulls
suites
throne
apex
muscular
nis
hostname
isms
mond
execu@@
exploded
ioc
shutting
144
dark@@
manufactures
restrained
complexscriptssize
susan
attacking
fungi
ied
viewports
blin@@
olite
rain@@
discourse
infusion
blows
cell@@
detailing
cm2
credited
iton
tual
martial
responds
apr
bulbs
fb@@
mus
shark
brittle
mortgages
stream@@
handful
s3
scopes
transactional
aborted
educate
equitable
faint
doubts
wales
acres
essentials
tails
compu@@
finder
complexscriptsfont
reservations
socks
surviving
vpn
deactivate
incur
compensating
defender
padding
tagged
185
dwell
stub
apples
aster
congenital
nsr
parting
shim@@
vocal
aldehyde
multic@@
acknowledgement
arose
cooec
distr@@
sst
acet@@
bbc
blockage
crab
entrepreneur
g1
use@@
refugees
correc@@
domin@@
capitalism
dwelling
ebay
heels
enumeration
manhole
notation
uring
vali@@
10000
forthwith
unbalanced
vb
124
budgetary
submissions
thre@@
uro@@
antibodies
eled
opponents
andre@@
g2
lincoln
athletic
memo
resultant
violated
hydrological
nyou
zoning
urges
breather
anchoring
aws
celebrated
hul@@
165
reproduced
tidy
cic@@
cop
lieu
announcements
astic
handing
31st
intergovernmental
spike
tapped
temper
phe@@
potenti@@
therefrom
utc
aer@@
floppy
retri@@
univer@@
continual
8000
dyes
ª@@
bene@@
disney
nitric
remark
shire
cayman
slices
ems
item@@
persuade
tailings
ais@@
tribute
aq@@
vered
electr@@
irritation
maneu@@
sang
1.00
allergic
genetics
iler
mineralization
snaps
amplification
countless
ias
microscopy
passi@@
_____
exporter
punching
push@@
icide
selenium
statistically
chuck
recogn@@
ripe
streamline
excessively
prep
emulsi@@
ignoring
symboli@@
bic
ceased
oo@@
forums
odbc
soldering
extinction
troubled
forge
adsor@@
alu@@
owning
pers@@
speeding
tou
hec@@
taxpayers
aser
borrowings
kim@@
zy
ado@@
chord
plurality
splines
bail
outdoors
sensible
williams
104@@
har
rem
video@@
tionary
bonuses
celsius
coaches
matrices
mentation
17th
sinopec
swim@@
ens@@
implantation
queuing
dge@@
gastrointestinal
jet@@
lobe
overcurrent
candle
emul@@
scripting
highlighting
illustrations
prey
shrinking
wounds
deductions
slump
pathy
scratches
halls
helium
italic
atic
basel
hall@@
99.@@
branded
observers
totals
macau
shor@@
underwent
substations
magneto@@
miscible
eld
hui@@
relativity
anticipate
boasts
nick
parked
stray
volu@@
criminals
vm@@
84@@
adhesives
potent
standardize
exams
circulated
litres
exotic
macros
152
collectors
regul@@
stan
verte@@
asted
diag@@
146
depen@@
judgments
metropolitan
unsaturated
delight
eries
bear@@
capsules
mah@@
tilting
changsha
latent
abb
exiting
ales
corridors
pto@@
quarry
damn
sett@@
fen
housings
indonesian
rous
6.9
advisors
antioxidant
acious
persist
spac@@
d.c
gir@@
must@@
piled
apartments
cuba
folds
itors
recreational
shiny
folks
listings
rents
abra@@
bud
refre@@
tenderers
turkish
aceous
grandmother
nerves
sounding
gues
sheer
teness
visu@@
length@@
physi@@
pop@@
buffers
whit@@
inated
meng
shortened
tees
levers
barcelona
ig
inject
screened
sponge
tailor
usability
vibrator
aceae
fab@@
ouring
accelerometer
outflow
priori@@
stunning
where@@
adb
ark
clarified
remediation
beverages
cock@@
cruel
learnt
superficial
transponder
popular@@
seoul
checkout
shook
82@@
p3
privileged
pens
ln@@
outsole
salvage
silly
oily
…………@@
good@@
jeff
knitting
nadditional
concludes
finest
rocky
sors
administering
depicted
rcs
reversible
poin@@
vering
208
altering
branding
gentlemen
occupies
sect
7m
archi@@
browsers
premi@@
200,000
slipping
watershed
996
gut
no.2
thri@@
traver@@
compensator
competitions
proto@@
solver
-5
ey@@
midst
plex@@
vitamins
eleven
liners
simplest
coping
cradle
proprietor
questioned
tings
unhappy
¤
afghan
fam@@
level@@
asser@@
cookie
scan@@
wuxi
entrusting
hydrant
smes
esti@@
f3
firefighting
marx
modulator
dding
field@@
npc
ap1000
ounce
bins
ls@@
persu@@
steamed
shun
steril@@
dar
huai@@
quake
ris
bundles
orien@@
tn
casualties
onboard
diploma
phyto@@
rough@@
uration
indic@@
lazy
thers
cz@@
disassembling
fascia
regi@@
dele@@
eing
mirrored
mk
solo
verifies
annum
authoritative
cere@@
ggle
【
armrest
tricks
toilets
anno@@
confi@@
ghz
tually
adjusting@@
conveyed
enlarge
livelihood
legendary
piezoelectric
consulted
aki
arteries
rockets
staple
touch@@
withheld
profiling
shable
soc
sketches
zole
berth
controversy
cows
tuition
arity
constructs
adul@@
callback
catholic
dresses
titration
不@@
headlamps
nasdaq
arg@@
dragged
ghai
pathways
unit@@
violating
xref
________________@@
stained
stron@@
fungus
absorbent
embo@@
genous
switchboard
vegas
anatomy
glazed
stripped
venous
smart@@
tours
10.4
decry@@
escrow
meditation
omissions
phic
ave
energies
transforms
dsc
sporting
004
emp@@
intimate
2x@@
cum
puzzle
recruit
rm@@
wri@@
disputed
plotted
ppy
teenagers
vibrant
assess@@
jointing
niche
straightforward
ffle
ipad
repurchase
solubility
blur
classmates
sac
simplifies
ind@@
kinase
ocytes
advisable
broo@@
skipped
wagon
beg@@
stern
accrual
aggregated
cartoon
congratulations
mont
wk
complained
implication
lik@@
bounding
loid
ﬁ@@
enabler
feast
fibres
halogen
int@@
o.@@
1972
bargain
comedy
incredibly
rss
validating
1973
navigator
comb
sony
diplomacy
interpersonal
ord
ordin@@
xmlopen
cardboard
lawfully
loudspeaker
negatively
sibly
aw
footwear
gou
immigrants
phon@@
programmer
pros@@
takeoff
touches
trousers
wilderness
cathedral
rhiz@@
taipei
174
pment
breaches
dialect
fai@@
mk@@
zen@@
plantation
testimony
aton
oi
staircase
tco
had@@
pat
sexy
thunder
foun@@
galvan@@
recep@@
tari@@
1c
etching
thumbnail
pivo@@
atable
improperly
mud@@
safeguards
taylor
dra
seas@@
1600
bees
divi@@
一@@
abu@@
chef
distorted
shap@@
ua
woke
bake
checkpoint
anomalies
evapor@@
ict
mbers
neu@@
t3
caster
medications
mission@@
pcie
tisation
anesthesia
guar@@
informational
reportedly
disturbances
=@@
beacon
pering
temples
aaa
alled
2x
needles
sib@@
badge
bc@@
eta
mite
performer
recordings
74@@
amor@@
rooted
stru@@
attaches
cbm
emit
envelopes
kennedy
morphological
neo
paused
shank
ece
sofa
9.6
9.7
cubicle
goose
grief
miner@@
tactic
ehs
detached
reconnaissance
rit@@
quotations
unep
walled
contravention
deno@@
fumes
trailers
inclu@@
quad
lasted
rich@@
tram
positional
torture
是@@
ign
twisting
uml
chilled
clevis
ammunition
declarations
edly
photoelectric
rfid
rivet
scar
12.5
contra@@
restricting
235
glorious
manners
requisite
1975
banquet
fec@@
slowdown
141
frame@@
luxurious
oil@@
mock
produc@@
querying
stand@@
waste@@
energetic
loc
trustees
activ@@
illusion
cw
nonetheless
△
able@@
isp
runners
wares
8.7
ptfe
unc
180@@
aka
dma
extender
north@@
bs@@
thel@@
199@@
transmits
有@@
diary
modeled
change@@
gratitude
peace@@
emitter
flats
greening
magn@@
polite
resorts
thes
unre@@
urgency
crusher
insi@@
stopper
carolina
need@@
nut@@
1974
m12
tariffs
then@@
transnational
advocates
appe@@
handy
housed
discer@@
restrictive
funnel
rol
enjoyment
foaming
heart@@
intentions
nucle@@
rac
bearer
idc
orth@@
watermark
3c
impe@@
photographer
hinges
pill
accomplishment
diamonds
god@@
safeguarding
changchun
cutoff
c3
cene
drafts
stric@@
tough@@
cms
ext
stitch
inviter
fisher
hover
kne@@
licences
ndmp
.br
commemor@@
linearity
abstr@@
ania
aml
anaerobic
arena
bis
115@@
interconnected
operation@@
.if
hopefully
opaque
volkswagen
ross
foreseeable
circumferential
distinguishing
ineffective
slowed
tionist
jas@@
1.25
herb
opposing
rele@@
wharf
dor
intravenous
subassembly
iconic
jinan
pk@@
donated
bargaining
costing
indentation
splendid
chur@@
credible
1mm
bushes
rainbow
sanction
worthiness
convection
expounds
iced
picks
souls
blew
dow@@
lasers
stool
hotline
colum@@
gb50@@
handic@@
indemni@@
bombs
gel@@
steel@@
136
charcoal
h1
kil@@
thief
bother
recognise
rounding
transmissions
alise
convene
reposition
satisfactorily
electrolytic
pests
skeletal
tot@@
prog@@
traumatic
veterinary
watering
acidity
discovering
myth
subpart
hubs
led@@
lethal
305
polar@@
shou@@
fragmentation
learner
literal
soot
undergone
shortages
buff@@
gg
irrevocable
sche@@
argon
concise
illi@@
peng@@
reluctant
stat@@
discrepancies
fantasy
spacers
toothpaste
138
initializing
repetitive
surfactant
lately
tability
gong@@
logi@@
pered
undoubtedly
83@@
digestive
owe
imposing
kri@@
ov
guaranty
inaccurate
precedent
comfor@@
dod
jpg
fender
frontpage
laos
nba
pression
ution
pursued
pragmatic
stephen
bye
cohesion
dimension@@
irrelevant
nationalities
priests
punish
valent
dishon@@
mins
blan@@
dream@@
itt
unsuitable
magnetism
soaked
220v
bal
deems
exu@@
sham@@
bark
ghu@@
adc
bass
deg@@
impurity
realised
rum@@
50hz
dismantle
insists
micron
authenticate
submits
assists
cavitation
inhibitors
logies
practiced
boxing
colonial
distilled
ios
outboard
thered
site@@
uti@@
combin@@
commerci@@
fractions
relieving
repeatability
rollback
tub
closet
silencer
certifying
gs@@
idspn@@
lottery
connec@@
ech@@
meshes
navi@@
certainty
negotiable
viol@@
wiped
cousin
horse@@
accoun@@
hairs
bounce
parental
photon
prepayment
addic@@
compassion
cui
defending
duke
correspondent
order@@
bath@@
dominate
consequential
lint
uplift
consignee
maneuver
melted
phosphor@@
jack@@
michigan
exponential
sluice
bottleneck
embroidery
feudal
gou@@
mentor
plotting
renderer
revealing
bie
spe
zhao@@
ruins
b3@@
cosmic
journalist
volcano
diarrhea
gos
guarded
jazz
overwhelming
sie@@
uck
30th
migrants
physiology
superb
arization
dg
hepat@@
uterine
gm@@
physicians
tendon
adhering
feather
hdpe
propylene
itis
pneumonia
prerequisites
ules
ele
freshwater
plum
quo@@
vinegar
spam
beneficiaries
elli@@
hemi@@
landform
iot
pcm2
-4
bose
liquefaction
percep@@
voluntarily
predecessor
recess
staring
tf
adapting
enthusiastic
modbus
nike@@
manag@@
ucs
aroma
bile
pills
rus@@
diagnosing
nav
1x
onian
seizure
appraised
flan@@
recalls
tense
dug
humid
wicked
inception
miller
alex
crises
pushbutton
recourse
accep@@
mudstone
plate@@
antennas
blood@@
comprehension
crossover
disk@@
hips
penetrant
ppa
rape
takeover
xml@@
ills
avoids
lian@@
circul@@
disturbing
gasification
maximal
slotted
spectrometer
1977
extents
oblique
ske@@
fourier
tox@@
uphold
accesses
bron@@
unattended
vec@@
denominated
elle
gesture
headlights
how@@
levy
enter@@
iles
misconduct
ener@@
trus@@
foshan
mosquito
bow@@
constitu@@
fountain
mined
divisional
dormitory
unite
2.0@@
ila
ist@@
pentium
attacker
cv@@
galvanised
cruci@@
gastro@@
kicked
lodged
sarah
symposium
wd@@
promotions
river@@
threaten
fractional
fundamentally
nap
quicker
abnormality
graceful
csr
illary
imagined
plasty
portuguese
wondered
csa
solidification
terrorists
tuner
buck
buck@@
dfi
ez
ites
passionate
qs
agility
alstom
gear@@
receivers
taliban
weakened
zo
examines
rift
regularity
sleeper
130@@
basal
rip
sex@@
zhongshan
mansion
reproduce
textbook
129
mint
smel@@
supercritical
hlink
9th
contributor
rebuilt
resur@@
transformations
"""""
fighters
populate
secon@@
206
lest
painter
polyline
captures
dum@@
exporters
ginger
quity
adaptor
calibrating
humble
loctite
synthe@@
abortion
bqd
convince
crashes
fascinating
imagery
png
protesters
hemisphere
lesion
pushes
redo
bays
communicates
computerized
mute
donations
lantern
therefor
aly@@
nh@@
commentary
miracle
temper@@
mutations
performers
teric
thru
xs
mination
divides
neatly
payables
proficiency
westinghouse
process@@
ritual
transi@@
asting
atch
awake
backgrounds
scent
sticker
achable
offic@@
outfit
randomized
sonic
accumulative
feared
showcase
30m
delighted
protections
toxic@@
-10
alexander
sheetmetal
coking
deterrent
icy
lav@@
macroeconomic
separ@@
transducers
widening
excavator
exchanging
sulphate
com/@@
utmost
tator
tus@@
equivalence
equip
pronounced
kevin
11.3
angels
acetone
cathodic
sulfon@@
susceptibility
debugger
lar
packer
peculiar
plasticity
epic
workstations
worms
aggression
enforceable
existent
hydrogenation
iner
presidents
trophy
1971
mono
runout
cies
fif@@
kick@@
propane
zoic
ogenic
sca
propelled
ames
ange
liao@@
torques
ago@@
celebrity
hostile
matically
modulated
attenu@@
chong
anyang
deton@@
imitation
thermo
numer@@
onate
pathology
concreting
dedication
ensis
grapes
verbs
kam@@
progressively
deduplication
ffy
mailed
slender
stasis
unfavorable
1e
cdma
rested
72@@
foul
seq
workgroup
entrepreneurial
sightseeing
clan
his@@
ischemic
exer@@
doctoral
hygienic
interviewed
manhattan
radiographic
acetylene
hexagonal
solenoids
tanzania
mixes
suppressed
vaccines
easing
share@@
lanka
vacancy
mta
banana
swallow
thouse
amortized
battlefield
consents
glit@@
newborn
brigade
cpa
utili@@
addendum
commented
fidelity
slept
dict
xuan@@
construc@@
dermal
landscapes
legible
midsole
miners
mum
peti@@
word@@
156
scandal
accession
claimant
doped
from@@
unrelated
worrying
adjoining
congo
dab
delu@@
dynamical
litter
productname
sz@@
cant
hawaii
itu@@
noticeable
rando@@
simul@@
pathogenic
signatory
proposing
px
canned
minorities
stripes
footing
rigging
spicy
ferrite
labelled
matism
staged
cline
matt
mou
practitioner
sars
aeration
asp.net
atrial
consumable
gorgeous
manned
oa
torial
foolish
signage
wilson
keel
levied
14th
bk
metallo@@
mir
originals
ccp
deflector
indebtedness
apping
circuitry
mammals
track@@
ifrs
weed
1960s
detective
spectro@@
abraham
emulation
guilt
routinely
excavations
powering
six@@
interpreter
rati@@
aic
luo@@
nate
psig
restraining
tram@@
850
auth
aya
trun@@
ceilings
chemically
ffles
queried
concentric
netapp
recruiting
93@@
ee@@
fading
impacting
pear
forehead
system.@@
chor@@
rad
stimulated
straightening
alice
attendees
crashed
fastness
hydroelectric
magical
fireworks
gens
nea
cdata
incubation
landmark
137
annexes
digest
pharmaceuticals
reconsideration
shovel
surgeon
swear
capit@@
create@@
lings
qm
thering
weeds
goodbye
practise
brigh@@
categorized
ecosystems
halfway
mandrel
demographic
hurricane
jig@@
jukebox
sla
programmers
wai
watch@@
believing
putin
atro@@
coccus
concessionaire
descendants
disclosures
fragrant
loosely
nc@@
pressur@@
atlas
blamed
compose
dai@@
tch@@
east@@
embodiments
infring@@
majors
t4
whale
delic@@
fats
flood@@
loop@@
optimism
recharge
typhoon
cros@@
stuffed
appearances
aters
bm
hast
wifi
fcc
guaranteeing
houston
finances
ing.@@
lization
melan@@
stly
tenure
tides
violet
wis@@
gothic
hinged
oss
weird
grow@@
512
brushed
copolymer
decoding
egr
formulating
repaid
ary@@
crowds
deployments
ecting
hydration
peanut
histo@@
overvoltage
overweight
csf
echo@@
replic@@
valleys
μg
8mm
borrowers
chartered
chy@@
magnets
unlocking
9000
hearted
rd@@
ware@@
crossings
lao@@
preferable
athens
bbing
changeable
esses
ipv4
solic@@
milit@@
principals
s2@@
tales
ytes
local@@
pub@@
alleviate
terminates
algebra
dxf
handrail
honda
mole
pas
spleen
______
customary
fencing
gc@@
penny
permitting
watertight
appealing
builders
injecting
spun
von
7.9
domicile
enam@@
welcoming
commscope
retic@@
rotors
spends
underbody
303
paradigm
meg@@
precaution
tack
volvo
xiaoping
antibiotic
13.1
acity
frustration
kis@@
outsourced
tooth@@
hefei
beforehand
complication
imply
maria
mili@@
modifiers
proc
win32
inaug@@
itating
mattress
bridging
sioned
94@@
dismiss
halves
husbandry
mosaic
stylish
furnishing
pennsylvania
wpc
meso@@
subsi@@
politically
wafer
0.4@@
114@@
insurances
-the
200s
bran@@
nad@@
facade
icians
jud@@
septic
chao
dir@@
gravitational
islam
mosque
pigments
ru
disagree
girders
slash
vas
23.@@
cong@@
conscience
hangers
craw@@
ight
museums
soaking
teaches
ophthal@@
suspects
802.@@
delhi
inefficient
pope
socio
bowel
eighteen
hydrodynamic
objections
plenum
this@@
tracker
liao
toronto
.2
advising
collisions
ipc
mie
racial
colo@@
fluent
guide@@
ier
pandas
taps
cavities
protec@@
retarder
shouted
tiptronic
25.@@
lodge
nf
stole
voltmeter
192
310
thermodynamic
vacant
abbreviation
chel@@
stacks
informa@@
oste@@
smoothness
succ@@
widths
mexican
za@@
greg@@
ohio
procuring
sinus
fid
lowers
patri@@
unpredictable
entrust
expen@@
inertial
nau@@
admi@@
epithelial
repositories
adju@@
endure
capitals
recursive
xii
allocating
breath@@
compar@@
formulae
tated
thefers
fresh@@
innovate
norwegian
serv@@
contours
ich@@
ionization
parade
conferencing
easiest
embodied
incontrol
inconsistency
reagents
recombinant
sourced
atal
twee@@
wraps
criticized
dilemma
muffler
ox
reinsurance
xue
ashi
holi@@
importation
isotope
lla
omni@@
bloo@@
cho
clamped
loosened
osis
peru
rescu@@
statin
amorphous
banker
millimeters
chol@@
slaves
vented
decoction
financially
plague
connection@@
percentages
sadness
warmer
editions
expedition
lc@@
program@@
propel
sloping
sounded
translations
vege@@
º
2025
cabbage
itate
raster
wong
geophysical
hongkong
ilm
toolkit
13.2
pretensioner
subsidence
aerosol
cola
curiosity
ected
epic@@
fouling
knitted
snack
⇒
coal@@
grove
kilometres
monument
crisp
gary
laminate
machin@@
mh
probing
seabed
horns
subsurface
unilateral
&bra;&bra;
expounded
rable
abort
affix
careers
unbalance
encouragement
fucking
poetic
regenerative
amide
fibr@@
lim@@
anthropo@@
mediated
hats
beard
blossom
ideals
masking
seatbelt
balcony
cataly@@
gla@@
hydroly@@
productions
uniqueness
vertebral
tern@@
aba
airway
leak@@
ocyte
stirred
aping
confucian
deficient
honey@@
suspicion
tonnage
clr
guitar
ria
thicker
toolbox
tunneling
dumped
vague
cofferdam
config@@
curtains
daddy
mover
ofthe
vain
exploited
magnification
endor@@
radeon
reef
restrain
steak
straigh@@
1the
aerobic
armored
conspicuous
fertili@@
nps
shipbuilding
depository
esteem
gaussian
bangkok
paddy
deliberate
illuminates
waterway
bh
cohesive
periphery
placeholder
yers
approves
deductible
panel@@
stakes
supportassist
surcharge
sustaining
tices
tokens
0.001
retire
tk
bloody
canyon
counseling
screed
alis
divider
liter
manoeuv@@
minal
potable
eq
homeland
multipurpose
averaged
carboxy@@
cucumber
feminine
trainings
dash@@
transpor@@
configur@@
hq
turtle
utilisation
wished
conju@@
progresses
rhyth@@
sick@@
ucle@@
dismissal
embedding
enterpri@@
fir
ock
recur@@
22.@@
friend@@
instrumental
rite
costume
misuse
pless
sins
1960
circulate
fond
propellant
lations
sna@@
catchment
scarce
therewith
zu
elevators
endothelial
sym@@
uc
implant
sow
veteran
wonder@@
gle@@
interpreting
jurassic
projector
ret
rus
005
auger
beaches
intensify
revit@@
struggled
followers
greeting
acqui@@
crf
function@@
sulfuric
affor@@
manifestation
bosses
compromised
limiter
ulcer
cashier
coiled
coolers
robustness
subsections
indians
rugged
translating
302
captive
dynamometer
hbas
leaning
therapist
americas
inhalation
interacting
shipper
staggered
tc@@
wallpaper
21.@@
colonel
uncontrolled
analogy
lacquer
secretion
zig@@
beats
grit
harvesting
liness
brea@@
saith
addiction
atus
cementing
cool@@
lymph
saw@@
embed
finalized
flexural
vert
append
appendices
aver@@
face@@
jav@@
kobe
sparse
spur@@
perme@@
ardi@@
backplane
acceler@@
chitosan
evol@@
strangers
complimentary
conclusive
tori@@
treasures
uss
inducing
silen@@
ald
articulated
mmed
arbitral
plastering
knives
rams
refill
south@@
thefee
unconscious
73@@
confiscated
underwear
walk@@
142
163
cm3
hungary
inclusions
inno@@
parcels
clar@@
electoral
electrophoresis
genetically
intrinsically
speeches
thk
toner
1100
alaska
itant
mapi
substructure
visio
bezel
sack
uploading
blueprint
destined
roy
rp@@
sheave
nel@@
oon
tene@@
aquifer
tempering
485
caustic
pharmac@@
roast
swine
leukemia
365
ette
ldquo
stains
topped
fertilizers
monsoon
ecb
sore
weigh@@
bodily
knight
lys@@
nik@@
trails
cun@@
urls
vintage
appointing
chromatographic
perforation
chaoyang
lanzhou
personalization
technic
gau@@
hosp@@
urgently
constituting
constrain
diverter
lebanon
potentials
shades
chic
handheld
levelling
lied
sculp@@
striving
caffeine
excludes
still@@
bursting
identities
questioning
smarts
vomiting
wing@@
wishing
danish
impair
je
python
rap
waived
bay@@
disposing
kel
refit
speed@@
ested
exhibitors
fb
floral
selectable
twins
uo
acti@@
paging
420
acquirer
assimil@@
condensing
inaccessible
outages
requi@@
undue
visual@@
gmp
jaws
mmc
styrene
ambiguity
battles
compacting
drafted
feeders
lei@@
pivottable
ql
grid@@
housekeeping
intr@@
wool@@
awg
skins
benefited
fertile
indoors
nist
abnormalities
blowdown
hamas
ipsec
laun@@
medieval
schematics
snacks
134
forma
longevity
nn@@
civilians
horror
kadov
srs
turkmenistan
tutorials
entr@@
mics
natur@@
pis@@
refractive
refusing
wr
churches
clues
dges
splicing
stealing
won@@
.it
assa@@
halo@@
lords
marshall
recruited
fw
h2@@
https
transplant
cassette
certifications
eper
esophageal
mats
monaco
pelvic
pipe@@
relaxing
visco@@
committing
promoter
specificity
ascertained
fn
forgings
liters
make@@
pol
spillway
stent
armature
flip@@
urs
acoustics
cancers
duplicates
enab@@
mitting
nv
ebitda
elbows
centrifuge
gordon
mega
number@@
yr
gao@@
internationalization
jointed
sv
-determination
edema
pli@@
procured
regulates
rtd
wonders
franch@@
retinal
serviceable
brine
monkeys
terr@@
bred
buil@@
ggy
stockholders
nondestructive
123@@
clears
econ@@
liquidator
occupants
zedong
aaron
jor@@
resistors
ril@@
stimul@@
vulnerabilities
flaps
hydrochloric
isom@@
yue@@
alizes
join@@
nov@@
occupying
149
alco@@
ech
gt3
nipple
oxy
presen@@
cameron
resses
technics
citizenship
despair
phenolic
reco@@
weather@@
176
blanking
imperi@@
kelly
tenants
tera@@
wrought
-a
ean
edi
tica
artwork
cooperating
ester@@
jeopar@@
spi
unic@@
00m
ampli@@
dish@@
nevada
conceived
ective
200m
fashioned
ignorance
nominee
critically
pow@@
sies
375
admire
congrat@@
dotted
retractor
saver
statutes
abbreviations
discomfort
gour@@
granules
ister
unplanned
boxster
depart
dex
sole@@
feathers
immobil@@
q2
save@@
specializing
virtu@@
incision
ometric
telegraph
crawl
demonstrations
energize
ern@@
debut
giants
identifiers
strait
undersigned
gency
shakespeare
0.75
catheter
narcotic
sponsorship
sunshade
vation
voc@@
wal
braised
hei@@
pulverized
shaf@@
avian
edged
fume
lastly
lus
tents
butadiene
oscar
oxidative
polis
textbooks
bunker
fireproof
inference
stressing
perf@@
professors
smiles
definitive
prun@@
psa
silently
caption
resets
unwilling
businessmen
cubes
enforcing
ghana
leveraged
calcul@@
e2
intensified
annulus
disassembled
reactivity
ruin
4,000
assignee
concessions
fren@@
smuggling
wild@@
139
concre@@
crack@@
reminds
keepers
planner
00mm
brand@@
confronted
safe@@
theessor
ture@@
deficits
race@@
streamlined
aashto
analyser
biased
prophet
reflex
examiner
sigma
tribes
wheelchair
gren@@
miami
ond
concentrates
conven@@
rese@@
spoon
-part
cost@@
mcr
repu@@
stats
wording
zhai
1d
chong@@
dismantled
engraved
evidences
hay@@
refu@@
craft@@
deaf
endpoints
method@@
unavoidable
abor@@
arrester
chal@@
detrimental
marxist
so2
squi@@
haun@@
ptive
buys
cheek
impl@@
polysaccharide
stretches
appen@@
marathon
pulver@@
renaissance
和@@
ashamed
illinois
inconvenience
ballistic
crc
evaporative
oath
rulers
ditches
elegance
grapher
hic@@
map@@
prose
ancy
blogs
stanley
pening
roadmap
som
uncovered
announcing
associative
capped
ivory
naph@@
refuge
tonic
10,@@
commun@@
dless
fob
oppose
taiyuan
arc@@
differing
lux@@
msg
puller
refinement
classi@@
consolidating
mental@@
oro@@
prescribe
reve@@
riverbed
tragic
ais
colorado
dk@@
femoral
ponds
richer
acl
herb@@
162
hesitate
ira
match@@
complex@@
perennial
shad@@
simsun
goo@@
reconstructed
vaginal
161
repro@@
brushing
hydraulics
ipr
scand@@
bless
clam@@
clash
disciples
salmon
vibratory
inspiring
invoicing
kilograms
replies
arities
discretionary
hints
mill@@
pottery
projecting
rebels
sti
etic
ored
replay
rul@@
dont
navigating
sme@@
substanti@@
-40
bps
even@@
h2o
procur@@
yourselves
9m
founders
manifestations
pump@@
section@@
chap@@
huh
intentional
reti@@
chiefly
col
counterfeit
forwar@@
opium
182
tane
holo@@
swinging
rex
1900
defaul@@
policeman
shaw
elastomer
junctions
0.02
ambulance
belonged
breast@@
frightened
108@@
brazing
dominance
fissure
theile
unmanned
bells
eject
renders
visions
amusement
atten@@
bacillus
lene
nanoparticles
partitioning
undesirable
awa
cretaceous
food@@
rdquo
tid
unemployed
dab@@
illu@@
plaque
prizes
scouring
tera
admits
goats
skep@@
waits
retract
vga
applet
catalogs
cheating
onion
predominantly
sixteen
styling
bedrock
cmp
itude
labelling
multifunction
multiplication
offsets
rivets
Ⅰ
drive@@
expndtw2
franklin
ical@@
jong
look@@
truncated
ocular
pretend
15.2
178
jonathan
roadside
stret@@
suppres@@
valentine
zine
astr@@
doll
filesystem
harnesses
m6@@
mrna
prolong
trait
tripped
tty
uid
158
ego
replenishment
slit
spacious
wear@@
welders
airbus
classics
germination
iaf
jpeg
locals
lsi
plugin
posters
fluctu@@
information@@
diffuser
force@@
ministries
openly
partici@@
studios
adeno@@
anch@@
breathability
dou
eigen@@
flushed
thunder@@
unrecognized
xt
anxi@@
flatness
frustrated
gence
iti
melamine
transcription
udp
cath@@
governors
righteousness
surfacing
148
chancellor
endeavor
expansive
similarities
hmk
monk
pak
peeling
wrinkles
gutter
predicts
probation
rees
bishop
cmb
enactment
fry
xa
attracts
caver@@
intern@@
teens
weighs
apologize
dep@@
microorganisms
prescri@@
agreeing
c2@@
gem
yoy
9001
mcu
monoxide
opto@@
encounters
compe@@
cpp
immense
stuffing
125@@
appropriation
fertilization
interpretations
inventions
j.@@
wee
antagon@@
g20
precip@@
ryan
backend
dum
festivals
mdb
171
breathable
d0e@@
decentralized
enquiry
hea@@
mically
oli
aires
constructional
portals
postponed
separates
sfp
torque10
benjamin
bookmark
dusty
insider
nancy
ocy@@
underes@@
tw
viability
capitalist
megab@@
monomer
omed
yngeal
braces
lighted
metaphor
nou@@
counterparties
finals
frag@@
ghu
perceive
10.0
crews
eyed
thine
6,000
arthur
geochemical
reinforcements
stared
traveler
allocations
inning
perpetual
skipping
extr@@
report@@
duo
ees
fuck
addres@@
chiang
stine
taoism
basing
coherence
ngos
nutri@@
resection
sexually
shaders
zer@@
austenitic
bank@@
condem@@
lewis
mergers
resign
centimeters
drank
markedly
perfume
tially
dale
dissip@@
grafting
freed
icle
ningxia
participates
pmc
rong@@
zh
commonwealth
ordinate
xun
-20
encapsulated
sities
uptake
caves
deserves
moun@@
salv@@
177
eller
intestine
positioner
transcen@@
cip
integrator
icc
recalcul@@
rider
brussels
cnpc
pizza
platelet
waive
landscaping
vic
basalt
honorary
charlie
collu@@
erie
fostering
gus@@
pebble
roofing
12,@@
gad@@
homogen@@
redirect
rum
shri@@
1.5m
awkward
footsteps
mean@@
pathogenesis
9.0
cns
igh@@
responsiveness
ylation
1.2@@
camshafts
colombia
lum
trusts
cutters
orn
puncture
retro
sys@@
170@@
discovers
epo@@
geothermal
ruby
tle
boosted
shou
snug
uk@@
zha@@
anced
critic@@
disqualified
ilo
tto
300,000
bullets
fos
jupiter
seamlessly
selectivity
tek
wetting
irregularities
rented
alternately
indemnified
solomon
153
cif
discoveries
envelo@@
inhibitory
string@@
147
alumin@@
article@@
extensible
flock
instanti@@
liter@@
mailboxes
mg@@
600mm
consultative
goodness
holistic
lactic
maternity
quadrant
√
arizona
ecg
kidn@@
iq
mx
rewarded
wandering
appended
bds
determinations
dysfunction
outpatient
shout
atin@@
erythro@@
interfer@@
olds
sings
0001
exerted
pakistani
ranged
s4
topix
aspiration
domino
exciter
lodging
plug@@
pods
catastrophic
dently
inductance
toluene
cowl
prompting
refraction
spr@@
stair@@
alley
chao@@
rcc
budgeting
gus
pancreatic
propor@@
steven
unveiled
complic@@
ingress
locates
pac
pedestrians
guiyang
queued
………
corona
crates
ectomy
kate
lead@@
uninterrupted
16.5
booming
famili@@
ler@@
pha
ski@@
declares
marital
multiplying
roasted
solitary
cockpit
disturb
occured
pensions
telo@@
youngest
14.1
capitalized
legality
toast
08x
ida
moulded
nw
reflux
vaul@@
azimuth
bindings
encrypt
kuwait
cocaine
densely
mianyang
royalties
172
3.0@@
baker
gating
monies
rons
thematic
tolerate
fered
offspring
reci@@
awful
carlo
characteri@@
habitats
helen
jr
segregated
sidewalk
vag@@
enced
locker
mep
pinned
sweater
wheeled
iec@@
trunking
wright
assass@@
glaze
conn@@
pilgri@@
pot@@
sea@@
spanning
handwriting
issuers
legato
ornamental
retrospective
sag@@
seminars
timetable
transferable
c4
gallons
ln
128@@
ander
polls
prom
suburb
unodc
sparks
clue
dashed
dise@@
freel@@
libr@@
rick
15m
chickens
gar
incineration
intercept
plotter
sme
1969
esters
malfunctions
toolbars
dp@@
haiti
know@@
oxygen@@
potter
sg@@
afterward
baler
exploiting
softening
12.3
dealership
disappears
ging@@
weir
jokes
pier@@
rin
biography
comp
flagship
humili@@
ia@@
pains
9.8
allegations
comic
joy@@
motivate
neighbours
prism
voids
bilingual
dispensing
fpga
gaza
lapse
lisa
oscillating
prece@@
rations
teflon
theit
15.1
penstock
tize
−@@
floor@@
obligated
plasm
thed
anderson
pri
secretly
sociology
bing@@
seeding
fist
resembles
rude
24.@@
confucianism
prevalent
wave@@
ballot
clas@@
contexts
elders
jewellery
lad@@
oligo@@
skew
spru@@
distributes
punc@@
ingen@@
rive@@
1949
1950
2o3
tally
footage
qt
slate
camber
organizes
resemble
accustomed
brochure
cio
dians
propel@@
spectrophotometry
suspending
alphanumeric
carbo@@
jol@@
spreader
walker
warrior
4c
amer
artillery
bipolar
fishes
iously
seismo@@
stam@@
totaling
167
auxiliaries
depos@@
vet
biopsy
forklift
rhetoric
slic@@
aga
assistants
eec
antique
eh@@
emi
freeway
ggs
kilometer
problematic
pyra@@
stenosis
0.15
2.10
chamfer
contradictions
embryonic
ference
tagging
tying
weekends
physic@@
proactively
remover
tances
uph@@
blanks
exp
overpressure
demon@@
doub@@
hemat@@
obscure
qid@@
rr@@
arcs
eded
pioneering
tesla
crafted
journalism
20s
emphasizing
initiates
ted.@@
wrapper
4b
ori
tcc
abstraction
degre@@
grabbed
howard
specializes
vig@@
clocks
fdi
homepage
laz@@
presets
begin@@
burger
consen@@
gene@@
venus
discontinued
hh
inexpensive
jul
magni@@
terry
thigh
withhold
chargers
dimethyl
gray@@
right@@
adjudication
recheck
chop
len
stuffs
thumb@@
wizards
accumul@@
callout
cics
copenhagen
thanksgiving
006
eman
kinematic
revolutions
taxi@@
aco@@
aes
customizing
knotter
tenancy
¢
cleansing
disbursement
first@@
presidency
cones
contro@@
dian@@
evalu@@
help@@
hoste@@
northeastern
polyvinyl
admixture
contem@@
ichang
robin
s5.1
##
footer
playground
whales
aggreg@@
crimp
goddess
locality
mai
nema
ohm
subsidi@@
toring
x3
183
antibacterial
competencies
dispers@@
informs
rui
trivial
dongguan
smb
worksite
》
105@@
bathing
jungle
reciprocal
activists
dispatcher
lor
subtract
curse
interchangeable
nv@@
questionnaires
furnaces
nin
roger
suc@@
conversely
upstairs
aked
bull@@
journ@@
petrochina
sch
crypto@@
essly
fermented
honeycomb
lis@@
padded
smc
unsecured
wetlands
antivirus
psd
search@@
unification
1,500
deri@@
spectrophotometric
contextual
deducting
faulted
ipt
perfecting
shrubs
atp
dementia
dough
exposing
monolithic
operable
pasted
pyrolysis
action@@
awaiting
dog@@
flowchart
preparedness
1h
arthro@@
opti@@
scour
ssh
92@@
aj@@
diego
evacuate
interconnect
locknut
sai@@
some@@
elasto@@
index@@
340
assed
backlash
dac
hail
modifies
nick@@
coloring
drier
experimentally
lagging
rement
thicknesses
toothed
caul@@
grandma
instruc@@
ography
950
angled
illes
obstructions
abu
aeronau@@
flowering
hay
tenderee
afflic@@
bpm
deepest
mations
regimes
thoracic
vietnamese
！
decon@@
distal
fasc@@
spher@@
decks
keynote
prop@@
td@@
ulating
allu@@
ambi@@
cares
casualty
corpor@@
kra@@
netware
sso
amplified
blunt
energi@@
netting
organizers
taiwanese
bw
cdn
christ@@
occlusion
realism
reds
jumps
misses
omas
ship@@
entero@@
initiators
preventative
rx
slavery
lava
monte
tables@@
tuous
dances
disarmament
dumb
tener
amending
candles
retrieves
pam
sensor@@
arians
floccul@@
longitude
scientifically
tee@@
teen
trending
ug
ape
explanatory
flexibly
foreseen
infil@@
terminations
vlan
aggrav@@
khan
luxembourg
ncloth
scen@@
tern
velocities
350@@
dts
hotspot
kinematics
1967
estuary
kee
pressurization
commanding
kpis
preheating
quadratic
default@@
hauling
hn@@
mathematic
metastasis
solu@@
960
cali@@
oles
scep@@
11.5
act@@
vanity
diodes
feder@@
sas@@
superheater
mushrooms
nationals
resumption
salvation
swaps
twi@@
13.3
14.2
fiel@@
revenge
rgb
sics
100.@@
bp@@
burrs
chunk
geor@@
pipework
rang
stir@@
syllab@@
throttling
drop@@
gully
priv@@
reno@@
timestamp
waterfall
calf
experimentation
pric@@
scrutiny
60,000
circlip
dag@@
gies
qual@@
shr@@
supper
visualize
xpath
24v
archaeological
stab
voc
《
cocktail
inhibiting
lifelong
nineteen
orally
s.a
socially
handlers
nian
polynomial
v3
brow
cai@@
cheer
jacks
10a
4mm
cf1
chasing
deprived
flavors
pcm2.1
woo@@
colonies
jiu
nar
aec
charitable
enduring
preload
在@@
ans@@
arers
devote
philosopher
reson@@
syl@@
eve@@
hydrated
changjiang
elaborated
gprs
polo
ahu
appra@@
businessman
hangs
incense
ott
pedals
pronunciation
proton
suburbs
amer@@
burma
devastating
mandates
unusually
clinics
dry@@
fortran
stin@@
daemon
poets
facilitated
ffing
travel@@
Ⅲ
anci@@
armour
b3
lur@@
servo@@
254
approxi@@
ometers
patrick
squeezed
xiv
1400
batt@@
ovary
payer
slings
tio2
unpleasant
correspondingly
envy
lib
teamwork
xv
15,000
catalo@@
decorations
ema
karyo@@
moneys
recessed
tivoli
audi
deduc@@
robotic
fontcolour
reimburse
seattle
skin@@
﻿
dwel@@
erased
nics
1300
combo
jes@@
jp
philip
sometime
ui@@
waiter
emerges
muslims
task@@
underway
mandated
recreate
arche@@
rb
soun@@
correspon@@
endowment
jms
nial
observatory
rebel
venezuela
315
comprehend
darker
ddos
declaring
duo@@
inian
sage
unido
grocery
inflic@@
melbourne
alluvial
derives
hydra@@
knots
leveled
notifies
idal
refreshed
witch
8.9
boc
checksum
evergreen
monks
fty
informing
orchestra
purse
shoppers
forfeiture
nursery
fall@@
honestly
numerically
obd
sever@@
sheathed
sulf@@
beau@@
molar
ped@@
polystyrene
stalk
tsinghua
deco@@
entirety
policymakers
rapi@@
sung
401
forecasted
jen@@
petty
seal@@
xiii
ntfs
odo@@
postgraduate
ppings
summons
annie
dislocation
entang@@
sant
pte
puni@@
1.10
debentures
juan
rinsing
1961
410
capacitive
cuttings
exo@@
fringe
ratification
buds
contamin@@
environ@@
ideo@@
ished
notic@@
sma
apache
citrus
comfortably
hsse
internation@@
pies
rill
telescopic
4.10
dments
fences
gib@@
gin@@
imp
nac@@
separable
thir@@
191
________
deng@@
mont@@
ordination
sui
clearer
grp
hdd
wrong@@
clinker
dang@@
inspi@@
instinc@@
ital
obstructive
rang@@
req
satur@@
stationery
axially
nanometer
perfected
rw
scissors
swell
unsigned
aspirin
bundled
mms
sf6
yy@@
★
armies
hated
inferred
kle@@
207
digitally
fibrosis
kowloon
pirates
resul@@
wb
catalyzed
mechanized
sleepers
wasting
500m
assign@@
cartilage
cep@@
deliber@@
geared
lam
paraly@@
stanford
bg
nouri@@
skies
cel
cheeks
dop@@
weaken
brighter
ecuador
hinder
ratt@@
uterus
kh
nh
ssing
thefered
wrest@@
cpi
dao@@
fetus
hysteresis
splitter
transf@@
vor
25th
honors
amaz@@
astronomers
hatred
msc
sincerity
slan@@
specialties
theoretic
vity
1s
tomatoes
trainees
claw
drun@@
kles
mobilize
qos
confir@@
modulating
switchyard
authentic@@
bloc@@
cim
commanders
devo@@
mut@@
pairing
rationally
submittal
sympathy
world@@
-6
ascen@@
cropping
roof@@
changeover
deadlines
syrian
avail@@
balancer
explode
ghs
ico
mea
otic
prestige
aesthe@@
bacteri@@
carl
elliptic
enquiries
horsepower
mach
pap
thorn
pathogens
surf
characterize
clari@@
expander
kar
rob
clinically
lium
shop@@
alpine
averaging
notary
cafe
confusing
respecting
wellbore
169
federated
record@@
tipping
toxins
aler@@
ambitions
motherland
strategically
tribu@@
arguing
escaping
hilly
poweredge
sights
throws
wechat
yale
bogie
legends
profibus
scalar
40,000
centring
grazing
less@@
muddy
policy@@
thermocouples
xuan
ablation
informative
syno@@
unplug
11.4
foremost
phd
piercing
shedding
aisle
offense
proof@@
slippery
subscri@@
compul@@
davis
guarding
illumin@@
leo
normalization
phantom
alzheimer
branched
contiguous
lakers
mbps
microns
neighbouring
reclaimed
retin@@
vts
corroded
earthed
principally
lockup
morpho@@
motorized
objectively
zk@@
1,0@@
carp
kerberos
ods
plank
tio
……………………@@
astronauts
correlative
majesty
purged
pursu@@
rance
gossip
greet
retrospectively
creek
mf@@
143
eving
somal
cine
compli@@
episodes
idling
sampler
weave
albert
iris
polarized
spotlight
chemo@@
cloned
dvds
error@@
headphones
oxidi@@
rival@@
sterling
bod
melody
migra@@
refrac@@
sshe
vaccination
yor@@
fabricate
imminent
logos
radioactivity
adop@@
brown@@
crescent
cystic
datasheet
invert
misalignment
enumer@@
generality
k.@@
tpms
transferor
transfusion
andor
phosph@@
rant
write@@
phenyl@@
politician
slaughter
tium
calendars
dac@@
exacer@@
jig
oversee
rebate
tigers
157
ander@@
conceal
eti@@
exagger@@
individu@@
pru@@
xe
beautifully
detonation
ellipse
inf
informatization
pulleys
ank
arer
cheat
interfering
rata
topsoil
derivation
dpm
hardest
nab@@
pendant
richest
silane
acin
couch
izers
whistle
authorizing
canteen
casts
room@@
superstructure
ventilator
164
broaden
cemetery
coconut
enlargement
selfish
tes@@
zzle
beg
keyless
margin@@
moore
spacebefore
trapping
botto@@
galaxies
hale
skirts
gaze
myco@@
uns
118@@
artic@@
lent
penetra@@
resigned
soaring
internship
prioritize
rex@@
rification
titis
turmoil
wns
bling
elines
evidenced
ticity
tung
decompression
predicate
spice
ssc
zt
dants
msb@@
nim@@
tort
train@@
.net
cereal
proceeded
successes
tant@@
favored
gon
matlab
ony@@
schooling
warriors
allow@@
aortic
coincidence
lowing
ontario
porphy@@
taries
transver@@
212
acre
wolves
concei@@
dealings
depicts
shat@@
shouting
topping
coca
firefox
galvanizing
mime
nu
paddle
travelled
writings
ailing
chrysler
indo@@
sacchar@@
visor
volleyball
3.10
comprehen@@
forma@@
l3
moody
notifying
thickening
hl@@
hoe
impro@@
isometric
overwritten
242
board@@
gown
kash@@
novelty
pronoun@@
bby
harn@@
pf@@
pian
walkway
你@@
mete@@
selectively
thetic
tooltip
_______
betra@@
calculus
genre
loudly
precondition
vd
0.6@@
batching
bid@@
convincing
ingu@@
kill@@
rake
reimbursed
salinity
usion
wicking
⑤
crystalli@@
ginseng
lux
oul@@
lex
seizures
540
5s
gol
lengthy
nat
uvs
vesti@@
pear@@
azole
cryogenic
embroidered
follower
gallon
laura
mica
ority
resor@@
tha@@
tist
1939
ceph@@
forefront
heartbeat
intersect
154
dest@@
molds
specialization
stocking
calibri
k1
moon@@
p4
phthal@@
ridiculous
vanes
ections
sson
262
ession
exploratory
leu@@
phy
prestigious
unsteady
bam
deser@@
ductility
fini@@
multipl@@
reinst@@
unsatisfactory
disrupt
fauna
ophen@@
smar@@
wit
xiu
abrupt
doff
earnest
round@@
unequal
celebrities
dized
lumber
ode
pessi@@
中@@
1.6@@
estrogen
iceland
nresolution
phil
temperate
0.7@@
209
atlanta
cannon
drifting
more@@
vill@@
affirmed
christianity
benzo@@
correlations
193
370
cements
dx@@
referen@@
silhouette
subregulation
valuations
whereof
lcc
q3
suburban
summed
applause
embodies
humidi@@
indemnification
manifolds
mao@@
necrosis
apec
arte@@
overloaded
coincide
helicopters
iri@@
这@@
195
empowered
misunder@@
psychologist
qp
shao@@
ato
cles
slogan
brief@@
depress
pren@@
radisson
realise
deviate
fred
restricts
saul
ansys
current@@
explosions
gbp
jason
launcher
miserable
acidi@@
elliptical
hosti@@
phone@@
preschool
service@@
alignments
bolster
canceling
dyed
stro
coni
diligent
flas@@
intro@@
poten@@
roadbed
cherish
illnesses
instinct
rc@@
retest
stricken
weakening
counsel@@
decorate
hb
huai
preceded
donald
rf@@
leaked
mimic
workbench
cannabis
loom
nasty
negligible
radiotherapy
righteous
spanner
tam
thereunder
vacu@@
1968
216
imperfections
instructional
withdrawing
4g
cec@@
denotes
gearing
itan
mour@@
putty
shut@@
vanadium
xenon
caly@@
cardholder
champagne
deutsche
elisa
jay
coupons
phi
tre
inflammable
bms
chill
endanger
ffe
hm@@
message@@
nde
suppl@@
244
knocking
micrometer
quantitatively
rainfinity
resistive
warns
211
amenities
bled
debu@@
envisaged
granularity
domestically
entrustment
lamp@@
lenovo
loneliness
manageable
shui@@
ult
1950s
502
ima
multitude
possessing
renaming
sdm
titu@@
tribal
415
bidirectional
blockchain
cifs
corneal
desc@@
dialing
rtu
stably
abled
come@@
hyperlinks
rose@@
kd
nin@@
translates
cus@@
cyst
defaulting
detail@@
heroin
sexuality
uganda
virtualized
annexed
cleaners
cox
itted
negoti@@
offender
simplifying
sqm
stipulation
unconditional
cumul@@
identi@@
lity
xyz
aligns
benchmarks
formers
fraction@@
gro
onenote
tain
xf
ancheng
candi@@
enclose
glossy
irrevocably
mechan@@
vey
cater
dbs
deem
hydrothermal
interfacing
osteoporosis
purchasers
team@@
terization
uzbekistan
vens
abe
animations
ejection
m5
poorer
quantify
stic
europeans
mercedes
perturbation
thrive
viewpoints
forthcoming
olu@@
pia
tene
ami@@
ccc
ffed
solidarity
turnaround
workouts
close@@
insignificant
rfq
tals
atmospheres
jec@@
philadelphia
trade@@
admissible
aller@@
buckets
polymeric
rerun
satin
heroic
mysql
palettes
xen@@
diets
phs
compos@@
gradation
graphically
lain
referee
atum
cased
cationic
davi@@
equalization
ontology
rudder
warranted
zon@@
402
cfo
indul@@
injections
kills
pentagon
pupil
retrofit
rides
rifle
1965
cheerful
f8
icides
iterations
moth
musicians
nonsense
twelfth
0s
199
depletion
lithology
milky
northwestern
sable
sque@@
syrup
wm
anticipation
constellation
desks
inear
relocated
uncommon
wardrobe
ailed
angi@@
ax100@@
cairo
dging
inspec@@
karl
knowledgeable
sq.@@
trophic
3.11
ashan
horrible
nuser
request@@
secrecy
tendons
tuber@@
archival
er.@@
mucosa
oline
overly
sail@@
86.@@
dea
libyan
pleas@@
sinks
striped
survivor
ulous
hottest
perceptions
tural
reac@@
samuel
dron@@
radicals
1958
asymmetry
lac
pact
palate
rectomy
salesman
scrub
casings
struggles
aug@@
dialysis
glimpse
poker
quench
awesome
disperse
ergonomic
grill
mycin
plural
reciproc@@
shin@@
spices
1,2
obs@@
parser
preventer
sweat@@
vings
dreamed
gluco@@
jelly
nclick
accru@@
calci@@
hun
onwards
sway
eccentricity
wlan
yon@@
droplets
eventual
phr@@
regain
story@@
sunrise
thyro@@
delegations
detroit
doubling
err
fei@@
kettle
dreaming
granule
essays
harmonics
onco@@
tun
cork
mcdonald
perc
tised
wra@@
essive
ints
multilayer
aero
christians
cyprus
grate
linetype
para@@
trainers
wre@@
agit@@
amino@@
amplifiers
fres@@
setsetpoint
deter@@
frictional
oria
buffet
civic
colori@@
combating
escalator
southwestern
275
denit@@
fiberglass
invocation
medial
pst
put@@
scoop
slaugh@@
sued
telegram
webbing
dator
retainers
roaming
situ@@
synergy
5v
aca
laptops
replacements
shak@@
verdana
week@@
disagreement
pops
radiological
unrest
aval@@
blinking
forensic
goggles
optim@@
petals
poe
spokeswoman
standpoint
swallowed
varnish
27.@@
bombing
degeneration
necklace
raman
boot@@
buildup
izhou
legitimacy
plankton
small@@
spheric
sprink@@
streak
chromatic
dart
exceptionally
inflated
residing
wg
aristo@@
arteri@@
float@@
haem@@
propi@@
sympathetic
…………
###
159
limit@@
oxidized
recti@@
tasting
celestial
cyte
electroplating
grin@@
value@@
cked
condemned
configures
param
repe@@
tment
correlate
dup
fleece
rescued
sutil
aroused
beli@@
bleaching
constra@@
hut
panoramic
rem@@
translucent
lifter
linearly
neuron
outdated
tum@@
communic@@
dat
dike
emc.com
lacked
obs
parentheses
tcs
1023s
contactors
electrification
imaginary
normals
poorest
swirl
turnout
annexure
chairperson
lls
telemetry
325
antic@@
dha
fd@@
glare
quadru@@
thoughtful
uted
baghdad
earthworks
font@@
humanities
.com@@
anticorrosion
apollo
compen@@
fueled
systimax
xsl
3000@@
fgd
greeted
moni@@
patho@@
purifying
turret
twentieth
agitator
benchmarking
comer
duction
finer
herd
pengu@@
point@@
proph@@
complaining
depositary
dolphin
happier
oxidizing
pharaoh
tailed
tainable
vanilla
.you
cate
chem
crt
customizable
ela
emblem
emptying
munich
rewarding
vms
acne
barley
fungal
preheater
swarm
traff@@
vigor
wanda
workloads
ader
duplic@@
fast@@
irri@@
mons
moulds
0.8@@
convening
histogram
hue
turf
cryptographic
degrade
originate
yielded
nanning
rode
specific@@
∶
166
conden@@
eats
micron@@
$@@
allergy
cnn
fier@@
mds
shijiazhuang
smu@@
composer
eri
fieldbus
shortening
tps
undermine
cottage
hak@@
preclude
rollover
suck
triumph
wed@@
prestressing
reassembly
sequentially
eda
esa
hedged
leverages
np@@
psychiatric
rheological
sse
bursts
concentrating
dick
emirates
madam
manipulating
oxin
tetrac@@
albeit
disappointment
extractor
gorge
infer@@
leon@@
minimizes
offenders
someday
agro@@
dus@@
game@@
recipes
sod
somalia
terly
chec@@
enzymatic
hydrology
portlet
rigs
riot
tachometer
unhealthy
uni
vu@@
020
detachment
insoluble
sadly
turbidity
222
advocated
hooked
langu@@
linkages
pedic@@
pilo@@
refrain
scopy
anemia
asterisk
bullet@@
chopped
dk
exhibitor
fission
horri@@
nickname
aud@@
bedded
donkey
fares
farewell
kph
osmosis
terri@@
headquarter
hev
metrology
morocco
speciality
tangshan
405
argu@@
asper@@
intervene
ob
stipulate
femin@@
undefined
12v
blink
clutches
crr
xiong
flavour
gid
playlist
solvency
tants
urban@@
320@@
albumin
brushless
coli@@
congressional
hoop
select@@
fabric@@
oling
opener
sank
tsu@@
264
cow@@
mering
yn
heavenly
intermediaries
syringe
ultrascale
173
bromide
catches
ek@@
endemic
ologic
radiated
schol@@
tance
tensioned
194
catastrophe
frs
hertz
medals
topological
clark
titudes
221
fbi
heavens
hypothetical
interbank
mccain
mitigating
cand@@
coff@@
eleventh
knowingly
marsh@@
marty@@
overex@@
tracer
25m
bovine
conte@@
ecc
evo@@
exposition
faul@@
memorable
nuclei
obese
pai
tearing
teur
arious
autochanger
bikes
compres@@
denim
extradition
monastery
narration
amd
approver
earnestly
radiance
supersonic
thirteen
cigar
fea@@
kind@@
pandemic
silos
simplification
armoured
autism
tangential
bulldozer
carotid
glacier
summarizing
thrombo@@
dsa
elephants
perfor@@
sear@@
underlay
ºc
amen
divert
foundry
ribbed
sheeting
smear
cult
doe
dvi
nausea
nazi
orchestration
bos
impetus
pallets
rubbed
statically
wick
0.5m
amazed
celebrating
dread@@
inadvertently
lier
radiography
spd
26.@@
handwheel
pms
changzhou
kets
romania
12.4
bruce
catherine
darling
heat@@
struts
zambia
causal
fac
hardtop
mable
newsletter
nfpa
rig@@
spills
14.3
busi@@
collide
groom
hiking
intimi@@
oda
strepto@@
visc@@
adrenaline
bok
marvel@@
meridian
sigh
tomography
.html
10kv
irreversible
iso9001
lett
ounces
acknowledgment
bea
eli
evacuated
faded
gaz@@
hel
matte
paraffin
13.5
case@@
cessation
homa
venice
benz
cana@@
bloomberg
hms
maintain@@
overlooked
seng
sio
workmen
connectrix
conserve
perfusion
smartphones
teenage
333
densities
oxidase
rushing
sley
transceiver
248
28.@@
anal
cmos
ingh@@
lbf
overridden
ws@@
acle
atorial
buoyancy
chlorinated
defe@@
galleries
glyce@@
presum@@
prosecutors
subordinated
yarns
aquaculture
auditory
beng@@
boreholes
gathers
hurts
implants
jis
maple
moly@@
plex
thermodynamics
404
conf
male@@
q4
213
alleg@@
dipstick
fao
ammeter
homeless
lis
mekong
articulation
audio@@
elets
fruitful
manholes
retali@@
sierra
stur@@
weak@@
caes@@
chromo@@
cuffs
health@@
maximizing
menu@@
teria
agen@@
disengaged
erup@@
powdered
sth
art@@
button@@
drc
flowed
heed
pitched
robbery
shoul@@
wait@@
011
conversions
healthier
icidal
parasitic
reacts
tivi@@
mism
tombs
tonne
utes
utterly
vulcan@@
brates
consu@@
eurozone
mmol
p.r
tamper
tow@@
unchecked
uniforms
yd
chewing
excep@@
imperfect
microorganism
misery
peptides
pheno@@
sliced
symbol@@
trol
eline
introduc@@
screws@@
sew
slows
1966
32.@@
arsen@@
ced@@
d3
fps
oscilloscope
pellets
protruding
resumes
scottish
semantics
sideways
unfinished
188
a.c
archy
expectancy
unfortunate
whip
zeng
decal
hc@@
mali
owen
penis
perman@@
reclaim
sds
erous
him@@
presumably
5.00
aris
parallelism
bgt
cataract
computer@@
concep@@
fights
plun@@
relocate
scarf
summaries
olym@@
vacc@@
602
piracy
scanners
schemas
snapped
stead@@
stellar
bacon
bottlenecks
constric@@
finely
inscription
nah
ramps
searay
dave
drill@@
half@@
hass@@
investigates
religions
screwing
som@@
.3
tivism
vap@@
2g
allotment
comrade
thinning
total@@
zhan
birth@@
cj@@
endogenous
enic
hero@@
nl
sport@@
ticks
tresp@@
zurich
235@@
deliverable
dres@@
nile
chargeable
phillips
shampoo
tive@@
advocacy
baud
demar@@
matured
neonatal
tabular
cons
separators
visas
zipper
007
2h
inan
metamorphic
ruth@@
boar@@
downhole
motorola
photocopy
rhin@@
whist@@
incapable
nonconformity
stratigraphic
人@@
ascension
contributors
epit@@
flute
kingdoms
kled
partitioned
rankings
30mm
anhydride
citing
consumes
cyclical
easter
fibrillation
inputted
intercep@@
protru@@
adi
adolescents
ght@@
manu@@
sintered
stride
tie@@
γ
8,000
billy
dependable
flake
lance
meng@@
middleware
teenager
carcino@@
catalysis
crank@@
phili@@
refugee
veneer
工@@
aliasing
amateur
bation
linear@@
presumed
appor@@
keyphasor
kun
lad
microsoft.@@
moonlight
quarkxpress
rai@@
redirection
s.the
sachs
dee@@
kanatype
locomotives
reacting
secures
senti@@
verdict
anny
cic
contravenes
linings
succeeding
virtues
arbitrators
astoni@@
chiller
corne@@
darwin
harassment
humanistic
justi@@
mitsubishi
ndash
residency
rev.@@
sock
splits
swings
symb@@
accomplishments
barium
facilitation
lamine
themed
cancel@@
eptive
invoiced
overburden
precautionary
revising
swan
textual
towels
1964
expndtw3
inks
matthew
splices
vie
3300
composing
crus@@
historian
mega@@
minate
moham@@
morbidity
nuisance
railings
reputable
widow
absorbs
carter
congresses
dder
enclosing
knuckle
squeezing
anion
bv
controll@@
deceler@@
formulations
hike
icks
mista@@
optimis@@
routers
sturdy
troubleshooting@@
braided
crim@@
urging
amous
neck@@
polymorphism
resp@@
ax150
chir@@
cial
faq
ssp
submenu
tilted
tere@@
u.n
vene@@
wob@@
amounting
atures
chunks
eradication
lev
diverted
excre@@
licen@@
mig
outwards
prolifer@@
universally
630
dumb@@
emergent
fia
himal@@
metropolis
mma
speculative
style@@
sucking
accelerates
concu@@
continents
csp
ed.@@
headlines
lil@@
melon
percutaneous
taxonomy
gestures
investigator
naz@@
negl@@
sorter
strengthens
deputies
evable
lob@@
wrath
xrd
canals
evidently
ppps
ratchet
spikes
temptation
40mm
adams
arbitrarily
embryos
pg@@
pierre
practising
roe
zzy
demon
eming
frankly
mongo@@
oni
potash
specs
toler@@
widgets
anshan
originator
predominant
pursuance
uts
waving
analogous
descend
openmanage
reconcile
repar@@
embarrassed
fillers
forfeited
alum
industrialized
pelvis
transgenic
yte
conglomerate
nes@@
pitting
wap
acquires
az
freezer
germans
linguistics
nantong
prag@@
preven@@
sarkozy
saturn
yar@@
aspirations
closures
consulate
hbv
parag@@
procuratorate
reperfusion
tdc
triangles
271
arches
ashore
marketed
nn
trate
une
youtube
196
extern@@
impu@@
interro@@
kung
reynolds
serialization
stationed
我@@
ambul@@
capping
enger
forgiveness
pasture
pellet
rl
teller
affidavit
cooperatives
init
ited
sls
tronic
601
attorneys
averages
country@@
fragmented
hardship
monopoli@@
pasting
rebellion
stripper
clutter
headline
stratified
cohort
dust@@
k2
tina
3p
aco
cemented
compressing
compromising
ially
icles
immigrant
mindset
mpeg
onin
truc@@
akin
alkal@@
cdp
confron@@
enrolment
lawrence
punched
s7
utensils
breasts
cbd
chant
chevron
germ
ira@@
plur@@
prev@@
revelation
unrestricted
adaptable
billion@@
cor
fishermen
imo
laminar
notar@@
championships
cyanide
tase
theses
viewcube
bulge
ddy
eously
mistaken
sect@@
unle@@
vancouver
215
actuate
dism
endoscopic
followings
hurried
understandable
analo@@
cide
diminished
follic@@
lexi@@
oasis
perpe@@
psy
unspecified
750@@
authorizations
madagascar
montreal
plum@@
stitching
vian
chung
fox@@
helix
isolates
procession
aud
centro@@
crater
postage
surfing
termed
uan
bicycles
butt@@
conveyer
dilu@@
jimmy
nominate
paralysis
siber@@
substitu@@
towed
117@@
5b
baosteel
motorcycles
oo
preliminarily
blair
cortico@@
exemplary
hemoglobin
hypertensive
invitations
tled
electrolysis
fossils
originates
redeem
sharks
thorax
xd
№
ajax
convic@@
cornering
disciplined
hates
ided
kr
dem
dongfeng
inv
capacit@@
chuc@@
dripping
larvae
s5.2
capex
dial@@
regenerated
starters
wned
anes
carbohydrate
constan@@
gospel
arg1
balloons
cang
djibouti
nels
nephro@@
observance
authoring
bohai
deliberation
flattened
rumors
u.@@
─
coordin@@
incubator
mag
snor@@
card@@
compan@@
entrances
gynec@@
nairobi
nicely
polymer@@
quil@@
tighter
tv@@
aloud
bookmarks
buy@@
hpc
ladle
millimeter
morph@@
oceanic
recorders
skating
smokers
sound@@
whir@@
harb@@
instructors
olefin
qv
temperament
.i
advises
agreeable
helpless
rachel
snakes
7a
cfg
reconstruct
sfc
thirst
clou@@
epilepsy
fibrous
sero@@
softly
swollen
thread@@
contin@@
dba
designations
learns
organisational
periodicals
planners
refrigerating
swir@@
typo@@
costa
detent
fortunate
gate@@
hobby
polyone
reseller
tft
国@@
administrations
cerebro@@
circ
desertification
dipping
hes
infringing
michel@@
skiing
your@@
gravimetric
hawk
padd@@
rash
dispens@@
neighbour
rockwell
198
anchorages
anism
dwarf
guil@@
itters
prov@@
pyongyang
resol@@
11,@@
aam
conquer
detectable
erroneous
liqu@@
require@@
rusting
steelwork
cocoa
ignores
mys@@
reinstallation
remit
sati@@
wag@@
algebraic
careless
econo@@
expres@@
fluorine
radios
recommending
reflectance
tappe@@
assertion
bats
detachable
homogeneity
inhabited
ripper
spy@@
warmly
610
comrades
divergence
escort
hag@@
halted
hexadecimal
threatens
anc@@
behaviours
ejb
hunters
opi@@
sheds
statues
workings
13,@@
burners
coer@@
dgn
doubles
inlets
pathogen
professionally
velo@@
408
choice@@
cw@@
icon@@
misunderstanding
opc
pictured
specifics
substitutes
16.1
adolescent
pleasing
sculptures
sustain@@
uli
denomin@@
ducible
excise
manifested
offsite
997
emphasi@@
francis
imposition
magnetization
nmo
taoist
textured
bular
coinci@@
larry
proportionate
.this
181
booklet
conn
juli@@
luci@@
noti@@
reason@@
alls
cirrhosis
depended
ebs
mda
snat@@
warmed
aia
api@@
ffer
onto@@
pediatric
0w
20ma
calli@@
encumb@@
jsp
mosquitoes
risers
197
advertised
aper
bach
overcoming
pei
underwriters
ellers
itability
shotcrete
450@@
manure
mortgaged
stewed
arabian
aboli@@
claws
enjoyable
immer@@
reproducibility
spilled
5.10
admired
extravag@@
intersecting
sanctuary
unfamiliar
arbon@@
artificially
avg
baskets
beasts
dden
die@@
dment
issu@@
kodak
metr@@
respiration
tas
border@@
gardening
maintainability
operability
solemn
stalled
jerry
thriving
damp@@
delimited
hiber@@
importers
lync
persisted
secular
apar@@
nikefuel
picnic
unaffected
validatorattribute
―
29.@@
dv
а@@
andro@@
cardio@@
deluxe
elemental
exclu@@
fbx
hug
protectors
repo
tary
thly
186
democr@@
metamor@@
walnut
amt
appropri@@
dolphins
lyrics
outing
refin@@
seam@@
timeframe
8482
beet@@
dist@@
electrician
hab
hcl
labyrinth
vement
adri@@
anus
nanchang
pdm
percentile
uae
308
axe
cathe@@
concentrator
doubtful
dsm
flakes
inqui@@
parall@@
remedied
toid
adhe@@
endeavour
fuc@@
ges@@
jab@@
toc
tric
290
cash@@
instituted
jere@@
kite
mony
tau@@
1962
eman@@
seq@@
upto
accdance
compounded
manipulated
mpy
ncause
orche@@
pull@@
sleek
spp
achievable
billet
glowing
jon
manuscript
wee@@
12m
choo@@
flourishing
velvet

aned
blow@@
chau@@
fx@@
inherently
nanotubes
nationally
paten@@
resembling
15mm
360@@
ails
chromosomes
decoder
glen@@
wetted
zr
bsm
edonia
hamilton
intersec@@
originality
otherapy
thrombosis
b.3
conno@@
devised
phospho@@
pituitary
sandwich@@
sesame
tle@@
wildcard
wps
www
zuo
downside
ida@@
probabilistic
recordable
scary
suitcase
asth@@
asymptotic
chalk
dubbed
nett
punishments
stipulates
supermarkets
tricky
translators
unstructured
blackberry
decoupling
exhaustion
formable
intell@@
kable
redirected
snapping
subtropical
tro
appealed
bris@@
buzzsaw
civilizations
efa
pher@@
radix
trainee
bct
blindness
brutal
cang@@
ellip@@
invi@@
prototypes
reconfigure
renew@@
sani@@
1f
coron@@
ebcm
228
generalization
198@@
admixtures
dissatisfaction
inos
overwhelmed
crossfire
dde
essing
hydraulically
insu@@
jose
allotted
bm@@
centred
ignite
laparoscopic
omit
3s
???
ceremonies
dule
kissed
mumbai
peritoneal
realities
therapies
大@@
homes@@
matri@@
sanc@@
untreated
vicious
drac@@
parliamentary
sailors
571.@@
patriotic
portra@@
surpassed
swiftly
webs
accre@@
corpus
factoring
famine
laterally
lm@@
mastered
muc@@
unconditionally
advent
agro
amsterdam
depositing
embraced
kes@@
nmr
quan@@
blasted
entertaining
inventiveness
p.o
crs
prosecutor
tofu
&amp;&amp;
0.10
anatomical
classifying
cloudy
iff
3.5@@
312
domain@@
emp
loft
registrations
seg@@
sioning
wipers
antonio
douglas
live@@
lymphocytes
squirrel
vehicular
5.0@@
bond@@
circus
counterweight
freshly
implanted
smoked
winrm
amic@@
atur@@
crawler
degra@@
monial
symphony
arab@@
endocrine
impregnated
patching
payee
props
rab@@
sensed
stalls
ures
alphabet
cautions
ddled
dissi@@
eag@@
etiquette
lobes
opul@@
serviceability
stp
tery@@
yantai
5000@@
iners
itus
jap@@
wiping
zimbabwe
abnormally
afforestation
allegedly
dispenser
ind
luke
octa@@
oscill@@
sary
yemen
buzzer
cardan
flee
µm
buddy
cries
isol@@
relen@@
taxed
ampl@@
cog
idol
impervious
panes
qualifier
repeats
245
amped
chiefs
desiccant
dio@@
dissoci@@
establishments
ito@@
lapping
schizophrenia
stubborn
undergraduates
abbreviated
brightly
masterpiece
mellitus
sacrifices
submit@@
traceable
1024
anglo
breakthroughs
fahrenheit
iferous
306
alliances
bentonite
delaying
hw
itz
leaned
thood
用@@
apology
beth
buzz
direct@@
hamp@@
influ@@
itarian
barric@@
cartons
deteriorated
geny
medul@@
titan@@
omor@@
shir@@
walter
Δ@@
a5
consoles
dictate
wls
12.7
251
bookkeeping
cratic
eni@@
foreman
pio
writable
accumulating
adjourned
amo@@
biomedical
counterfe@@
infantry
interruptions
lingering
luckily
poi@@
qatar
sadd@@
scare
sewerage
sparkling
uld
yellowish
ateral
camping
crunch
cts
nightmare
pam@@
sations
aning
bject
burgl@@
chs
cmd
filaments
gyro
pancreatitis
showers
0.1@@
2100
ellular
no.3
persian
smells
tions@@
cryst@@
dsl
enginuity
excavate
lieutenant
pau
plunge
proxies
bryant
documenting
0.03
bor
buffalo
excer@@
stered
strawberry
surfactants
waking
devotion
huizhou
pooling
prolong@@
raining
salty
sax@@
yy
aliases
annoying
dusting
momentary
reviewer
smi@@
theirs
town@@
transact
ulously
321
3e
decomposed
dot@@
eca
evi@@
extremes
trumpet
announces
collation
elongated
epoch
gost
lute@@
quoting
thieves
tir
wrinkle
403
egg@@
holland
ntp
aths
backdrop
greetings
illo@@
integrative
purifier
qaeda
rug@@
unfold
volunte@@
airways
coverings
draught
gpo
mississippi
reacted
ancestor
drs
germ@@
kid@@
nomenclature
twilight
austrian
daqing
exemptions
intellectuals
mort@@
transistors
112@@
187
onia
plutonium
purify
recre@@
russians
tmr
vee
vines
03.@@
eable
fiduciary
macroscopic
primitives
utter
106@@
antifreeze
bomber
accumulators
backlog
detec@@
effecting
grandpa
mitigated
instru@@
segmented
utilised
asha
concerted
hexane
polluting
polygonal
rec
screaming
astronomy
auc@@
contingencies
freeing
strained
trustworthy
ampere
extinguished
impress
logo@@
magma
reconc@@
tao@@
vims
watchdog
c20
chargeback
conditioners
confront
deflation
endometri@@
fas
halo
ican
midrange
retrac@@
tul@@
uncover
versatility
ancing
biscu@@
blasts
critic
factual
grouted
pete
procu@@
tackling
venti@@
diligently
inocul@@
loaders
replicator
shrou@@
smugg@@
tele
veterans
worthwhile
ation.@@
benefiting
dles
ilit@@
ligament
pumpkin
4x
botanical
impres@@
pted
refrigerated
reig@@
,,
atri@@
cet@@
russell
shelters
unresolved
3x@@
acrylamide
divorced
inia
lawmakers
orthop@@
sled
1945
asphal@@
cbr
dissolving
fixings
lass
bosch
hopel@@
lush
material@@
motives
oration
agco
alleviation
asts
coincident
cytes
harvested
mastery
proli@@
rcp
recap@@
shifter
5x@@
equalizer
expand@@
fulfil@@
repealed
rman
ruined
seriousness
tara
azure
blowers
concaten@@
depleted
fted
jon@@
ros
sionary
weldment
acks
iowa
lism
520
cue
departed
fiji
mans
thefering
anisotropic
cdb
embody
extruder
jammed
thromb@@
dissatisfied
faction
kios@@
rearview
zz
admsnap
costumes
drawers
flick@@
incar@@
indefinitely
sapphire
spit
spon@@
distinctly
orchard
tankers
31.@@
advertise
b2b
camel
filegroup
gian
hyp@@
mmy
mpi
sical
telephones
anders
apu
cadre
ducks
nec
transports
atives
deformations
dumplings
ethiopian
jib
560
dallas
extran@@
flank
strati@@
tls
bridge@@
cheer@@
ffled
flavonoids
hao@@
onics
optimizer
unreasonably
backlight
deal@@
f4
renault
shrub
sluggish
tendered
cious
contain@@
infinity
interviewer
maryland
apc
bauxite
cke@@
compelled
nova
reddish
stockholder
trim@@
demolished
integers
mop
mutant
nude
panama
preside
supervi@@
wning
可@@
bowed
nega@@
renting
rosemount
1x@@
eved
fineness
shuts
synthesize
wiki
adventures
behaves
centrifu@@
estates
midpoint
pickling
citic
contrasting
lehman
roosevelt
sufficiency
wic@@
carbohydrates
drin@@
erratic
garden@@
hydroxy
lary
latching
sowing
sp1
214
barren
classrooms
curl
distill@@
foreigner
last@@
rafts
seren@@
zzo
dpf
https://@@
jealous
mama
pointers
sulphide
vil
artifact
barred
brethren
mology
ratified
trump
cjb
irrational
overrun
scraping
tenance
179
bald
diar@@
ethic
interlayer
kerosene
nei@@
polyamide
remembering
signatories
spanspan
thyristor
vegetarian
indig@@
tuna
circled
endorse
ghg
kansas
mainst@@
organis@@
paradox
totaled
watered
xlpe
yacht
要@@
02.@@
actuality
arisen
cantonese
fain@@
observable
vs@@
cashmere
expressive
filming
overriding
psu
572
75mm
argen@@
buffett
calorie
lyn@@
sunk
turntable
wander
absor@@
compounding
condom
dialogs
invent
massi@@
overlapped
pfs
plain@@
radiating
specialised
189
confrontation
dentist
phosphor
20.1
cereals
digit@@
intercourse
listeners
testosterone
unaware
xue@@
abi@@
coastline
housing@@
pros
sabo@@
smoother
stare
straits
binds
cubicles
disrupted
fortress
postpone
snip@@
stant
arized
commences
edm
engraving
intensi@@
noodle
qq
sidewall
vesting
asic
bitlocker
colour@@
constitutive
desperately
gateways
ghan
advan@@
algeria
concluding
disastrous
floats
manage@@
physicist
redeemed
tyran@@
alian
biogas
cogn@@
itunes
yogurt
elli
exaggerated
itudes
rites
sour@@
specular
xj
albums
asymmetrical
meticulous
mois@@
necessities
nostic
omega
absurd
articulate
astronomical
gbps
guilin
hon
mouse@@
mso
quantification
swo@@
techn@@
wul@@
184
dessert
dwfx
gin
grac@@
kicking
supplementation
townships
и@@
500mm
acceptability
advertisers
bottoms
reopen
setpoints
statuses
violin
217
aut
billed
distinc@@
morals
psc
pulsion
scp
serbia
sse@@
1963
cot
glued
salon
achi
chinensis
continu@@
dist
fortified
microswitch
pmi
retracted
spear
24h
cages
develo@@
mah
paramount
persuaded
underwriter
10.6
afs
diminish
eeg
exceed@@
griev@@
joshua
occ
psychologists
replicating
yyyy
.00
380v
afp
breakout
fqdn
gradients
nz
oled
phenomen@@
poke
roc
！@@
biodiesel
encompasses
midsize
mva
thefic@@
unpacking
venturi
applic@@
disappointing
eis
headquartered
hillary
maj@@
mbo
quanzhou
rechargeable
tess
upvc
wary
wt@@
aniline
chai
disconnector
genera
interlocks
linda
maze
pati@@
plicate
propagate
repl@@
elec
ename
looseness
ule
unfpa
电@@
3the
abruptly
admissions
antimicrobial
hy
jvm
outreach
rui@@
thand
tral
zero@@
zong@@
adjec@@
angola
brook
fridge
minnesota
mites
prayers
tionality
247
a.2
bras
bund
gham
luminance
palladium
preservative
acles
cues
dispen@@
dolomite
lized
migrations
overlooking
010@@
241
aure@@
bak@@
booting
mj
msn
saharan
secu@@
smarter
12mm
anthony
freedoms
pinpoint
polylines
reheat
ridges
aber@@
event@@
extremi@@
iam
imide
pics
chatting
excavating
historians
asserted
cycli@@
glutam@@
impede
tasty
~@@
biennium
packard
prohibits
torate
urus
deformer
discontinuity
discontinuous
flown
melo@@
prescriptions
shrunk
tiva
computations
considerate
pans
rns
synony@@
351
a.1
eruption
greed
hebrew
plume
princi@@
revival
unmatched
wavelengths
brewing
burr
fou@@
grasslands
metas@@
possessions
pouch
presided
surrendered
assert
solicit
travellers
bitch
brec@@
downstairs
linyi
mouths
pra
subsea
ulture
113@@
dues
fortunes
handrails
interconnecting
nissan
stration
unciation
amar@@
bler
gren
hlor@@
burden@@
bylaws
chopper
dinosaur
farm@@
nr@@
bowls
hog
kath@@
proximal
reimbur@@
reser@@
retina
ull
vba
218
deline@@
frankfurt
hoists
pry
scars
admiration
braced
dice
jlr
moss
tamine
ballet
dragons
luster
peripherals
suppressing
008
ament
benevol@@
bumps
hearth
n3
orbits
specul@@
target@@
tutor
deactivation
doorway
ductwork
front@@
ik@@
infrequ@@
ingot
repleni@@
scoo@@
bhu@@
flourish
generals
mother@@
unmanaged
0.9@@
cinem@@
countersunk
deselect
encer
ocyan@@
reformed
semin@@
thou@@
9.9
abandonment
bos@@
eland
whirl@@
attentive
choir
corrigendum
icular
inser@@
jenny
malaysian
propon@@
tac
troop
280@@
chili
classifier
delaware
delinqu@@
dms
fk
icked
inite
morse
noun
heterogeneity
jb@@
multiplex@@
pave
philanthro@@
tolerated
422
510
dancer
diskxtender
eting
cdc
eding
indiana
marriages
prefers
uav
veritas
alas
cann@@
embarrassing
emerson
shepherd
slam@@
withstanding
danny
exhaustive
feeler
gb500@@
itanium
levi@@
lofty
paced
pertur@@
shortfall
uous
ando
decorating
dun
escor@@
fluidfs
hospitalization
letter@@
lucy
thermally
vase
‑
0.50
alm
antarctic
clave
formative
muff@@
ories
plunged
stiffeners
sup
tipped
wester@@
crimping
electrified
encry@@
lb@@
regre@@
titude
treasuries
ub@@
cfd
diplomats
expedite
ggling
nucleo@@
schneider
vels
021
430
aggressively
arrhyth@@
broadcasts
destro@@
fifo
hik@@
unprotected
blurred
extinguish
floated
immortal
oney
predecessors
teamname
vr@@
abel
arrears
convul@@
emulator
imagin@@
msds
oversea
shunting
sile
tiff
anticorrosive
cancelling
cbrc
chand@@
cooper
debates
essness
evenness
maz@@
photons
precursors
simplex
expati@@
redness
scho@@
subtotal
tici@@
comers
deserved
nw@@
polye@@
presiding
publishes
academics
hh@@
jie@@
ream
theficer
ventilating
calorific
das@@
hygro@@
karen
sinusoidal
stiffening
subchapter
4.11
440
ghosts
inflows
object@@
respec@@
tehran
δ
cite
dazzling
iosis
nip
olo
standstill
bait
boutique
christopher
eskom
footnote
isen@@
microbes
only@@
telephony
transg@@
zable
cardinal
chapel
expandable
rom@@
chlorite
datag@@
latches
repeater
storage@@
uninstalled
weakly
wtg
epidemiological
facilitator
lef@@
msi
oidal
rims
shot@@
slum@@
tread@@
baths
bronchi@@
cooperated
dw
gov
ocean@@
stone@@
structuring
watson
acker
aliens
cdr
donate
filter@@
gripper
html@@
merry
salesperson
severally
tful
330@@
criticality
edit@@
emphatically
lambda
latched
unenforceable
18.2
316l
armen@@
blues
expatri@@
laborers
musician
collapsing
jus@@
lanterns
reap
ubiquitous
accrue
collars
deception
hopeful
impregn@@
lotion
mand
residu@@
2.11
attainment
leachate
macroph@@
rection
seven@@
tizer
@1
cancels
flor@@
iner@@
interfacial
legislature
ocs
orthodox
reminders
crate
finalize
mously
oce@@
squared
typ
234
bizarre
chlorination
fes@@
layering
parabolic
polysaccharides
quarrel
razor
smashed
abolished
aftercooler
bere@@
gust
harden@@
permian
plight
redesign
teries
xiu@@
concer@@
deodor@@
eck
expec@@
foe
fuselage
hau@@
rear@@
recei@@
timeliness
40m
colorectal
confiscation
immature
investee
isr
m3@@
pirate
postscript
professionalism
recover@@
subroutine
vincent
285
arouse
awe
extinct
merchan@@
omi
tug
umber
cared
contention
florence
gio
luzhou
nelson
sational
zeolite
380@@
alising
guardrail
hara
millimetres
proven@@
remembers
stard
cast@@
insufficiency
nurture
pitching
pneumo@@
pod@@
pw
teng
timers
unearthed

addenda
blankets
boulder
enforceability
immunohisto@@
liti@@
lloyd
securitization
theor@@
tif
tility
bottled
bribes
det
incumbent
mgr
opgw
60m
caliber
fontcolor
haze
mised
mustard
porno@@
remnant
smp
sprint
una
40s
aren@@
chester
cker
headaches
spectacle
sput@@
verbose
imitate
lem
locus
luoyang
return@@
s.o
soever
ssi
webpage
attentions
bsp
dural
hill@@
infect
inscribed
jama@@
ounds
p.a
phosphoric
tape@@
web.@@
workspaces
fear@@
gaap
illuminating
juventus
nk
thanked
tyl
2,500
425
crimin@@
desalination
empi@@
empower
ordinarily
refunded
rejects
seaf@@
umbilical
caregiver
carrot
dashboards
dislike
llp
minated
napoleon
prosecuted
protein@@
setting@@
usu@@
beauti@@
ene@@
ignorant
marsh
pop3
retarding
dication
heigh@@
insomnia
invariant
malware
resour@@
testers
title@@
affirmative
annotate
coals
dwt
literate
mountain@@
resolves
restarts
yam@@
chaf@@
constructors
logous
mts
overlays
rhy@@
sto
288
?@@
barn
cular
destroys
keted
presenter
annealed
esis
grasping
mh@@
mized
registrant
stylus
swatch
adr
alkalo@@
bmi
kyoto
offsetting
pearls
shines
surging
tet
undone
vium
220kv
252
airplanes
dolly
hedges
histories
lled
lowed
remote@@
strang@@
28th
compon@@
mak@@
tempted
ularity
widen
460
ameli@@
ccr
debtors
formidable
imper@@
jou@@
louisiana
nesting
nil
outbreaks
riches
scrubbing
taxis
vcenter
withdraw@@
709
acked
caf@@
converge
dimensioning
exposes
ichi
innocence
jakarta
jog
temp@@
flam@@
nom
obstruc@@
overlaps
scribe
zai
tron@@
vanished
activator
branching
cott@@
cuff
empathy
grim
lymphoma
morale
paperwork
polic@@
retar@@
summoned
tsc
vc@@
25,000
345
dropdown
mbles
mov
nier
odor@@
render@@
spinner
sterility
usefulness
bbled
celebrations
deaerator
ethy@@
liens
malls
reluctance
sbr
shocking
16.2
arrivals
crou@@
emotionally
ilia
knock@@
masked
mmer
ophar@@
scratched
underline
295
delimiter
dosi@@
middle@@
princes
privati@@
southeastern
subfolders
aerated
databas@@
neurological
s.
tonics
contribu@@
lear@@
maths
mortgagee
murdered
shaving
thful
warren
wireframe
ages@@
brocade
grandparents
hive
huangshi
kas@@
marie
oregon
testament
waterborne
xxxx@@
\\@@
chemist
compressible
dusk
nay
taizhou
13.4
cemen@@
cultiv@@
educators
expedient
hep@@
ido@@
kent
lim
nav@@
quantified
sails
tailpipe
toss
unparalleled
wedges
affec@@
biochemistry
coco@@
dx
o3
ornaments
ssi@@
.4
crowned
diplo@@
dst
nm@@
orphan@@
oversized
pea
transmittance
о@@
abr
airs
aped
conspiracy
longing
ow
shantou
walkways
andong
biodegradable
chorus
defended
histor@@
lash
plausible
waterways
1500@@
bren@@
coc@@
familiarity
ferguson
pec
remit@@
softer
whites
311
anthrac@@
boast
cgi
maine
motorway
peration
stockholm
公@@
acy@@
deform
ello
ew
greens
hemp
mr.@@
parker
pened
cloak
clogged
expropri@@
fronts
m4
missive
organise
ounded
spf
urethr@@
265
directorate
slid
spontaneously
torqu@@
honorable
modernity
multivariate
ocog
condi@@
glide
netbios
piece@@
remedying
shaken
㎡
blooming
condoms
neoprene
penetrated
scop@@
stressful
transacted
14,@@
16.3
endowed
geon
implic@@
invalidate
leaved
parted
touchsmart
352
appraise
authorizes
equator
harris
innate
invests
ornament
rfc
seat@@
slow@@
amphibi@@
chic@@
dorsal
fms
infringe
mortal
obstruct
preserves
airspace
confuse
deterministic
encro@@
hatches
lawsuits
octo@@
docked
groo@@
overheat
parti@@
standardizing
0.3@@
ccm
dations
grommet
miti@@
surety
unauthorised
½
会@@
agre@@
contraven@@
elas@@
eluci@@
empowerment
filings
hardwired
hauled
rebel@@
betting
cupboard
depressing
dft
enroll
fet
grooved
interrupts
onally
personalities
simpl@@
smash
widened
aberration
beware
ima@@
rit
skim@@
straighten
sundries
sur
trache@@
ylene
agglomeration
bets
commensurate
encode
subheading
validates
absorbers
babylon
besto@@
business@@
dinosaurs
disclaimer
equipotential
kraft
maximise
rator
sacrificial
suing
bites
m8@@
nitrite
parkinson
policemen
pou@@
sedan
veil
alab@@
anhydrous
ascend
caving
dell.com
genicity
linkid@@
multifunctional
syndromes
1,000,000
alco
broom
flameproof
morphic
nace
olap
palms
spelled
stealth
ttered
utah
vid
adm
antarctica
births
naphtha
onions
shrine
soared
ties@@
6l
bmc
cellphone
cortical
embankments
incline
qms
shao
subdivided
terribly
transcript
505
bate
collins
descended
dss
resale
synthesi@@
thermometers
academia
crawling
flexi@@
halloween
laughs
monit@@
resonator
scratching
stm
vu
公司
beat@@
expon@@
geographically
gizmo
jc
mof@@
persi@@
unreliable
unsure
x6
agitation
bun
conjugate
consular
creations
nod
plentiful
unify
307
720
abused
associ@@
bf@@
gill
leopard
reminis@@
rescin@@
shore@@
blessings
insti@@
kov
lling
mulberry
plush
azi
calori@@
confer
eroded
j2ee
reconciled
unintended
beck
dimen@@
edinburgh
generative
gsc
ith@@
left@@
mastering
pacing
primed
shab@@
doomed
glabrous
jennifer
lubric@@
niu
scrapped
undisturbed
aly
hop@@
indefinite
kilogram
kissing
occupations
taker
witz
17.1
2050
alexand@@
annunci@@
burdens
encapsulation
files@@
hoar@@
julia
kol@@
oped
scout
serialized
((
01.@@
hom@@
obao
1948
abuses
annuity
anz
ause
belongings
cascading
datasets
eph@@
grav@@
scarcely
zomb@@
holder@@
signe@@
sina
tvs
1911
cott
jag@@
meaningless
onscreen

b.1
flagged
interrupting
mathematici@@
stagnation
v4
aff
cutout
encyclo@@
hog@@
immunization
michelle
oric
perseverance
poc
ptic
transparen@@
wling
ante
c5
cliffs
depri@@
faithfully
hide@@
hoods
kuomintang
mania
metalun
obste@@
progressing
24th
6.10
blob
confinement
disqualification
glad@@
gravels
moistur@@
radii
rts
scream
senile
spoiled
subbase
thecon@@
tibles
appellant
defenses
fury
impair@@
ntype
product@@
sed@@
7000
c3@@
cable@@
cag@@
cip@@
civil@@
clipped
fis@@
gauze
inductor
pulsation
riders
sawing
scorecard
sewers
spillage
stell@@
tification
tzu
amphetamine
carlos
cg@@
film@@
lure
lymphocyte
orleans
pancreas
plasmic
yangzhou
asr
continuum
echoes
electrocardio@@
geomor@@
ips
outset
thirsty
µ@@
10g
backpack
bookstore
carbur@@
fee@@
nand
nare
pda
rv@@
survi@@
了
行@@
￡
132@@
brate
comet
datong
destruc@@
ejec@@
ferric
flashlight
jah
porch
coagulant
extrude
footh@@
hears
hyperplasia
nonprofit
weary
8a
comm
obsessed
refe@@
wagons
alysis
backfilled
carcin@@
jetty
neon
neti@@
nixon
reinjection
vale
acknowledging
believers
c0@@
consignor
crrc
dang
dermis
drastically
energ@@
grammatical
holographic
icia
plus@@
sealer
showroom
sucker
sulph@@
tarim
tougher
cling
degrading
embracing
ero
facto
flocculation
ghtly
heightened
penn@@
recoveries
telex
zun@@
accommodations
austin
bim
bureaucracy
carcass
colorless
combustor
cps
doping
greasy
hackers
ionized
notebooks
olas
singles
subsoil
cyan@@
deserted
figu@@
healed
hewlett
monuments
photosynthesis
sally
sement
speedy
geotextile
intuition
pron@@
tianfu
vals
womb
1850
acrylonitrile
coaster
osi
quiz
anodic
appropriated
automates
cci
glucan
greedy
initis
pharmacological
podium
pox
shers
simulates
euler
prophets
572.@@
acquainted
amphi@@
attribu@@
chew
couplers
dio
formul@@
fulfilment
intrusive
nonconformities
photographed
pivotal
rowing
spandex
aband@@
absen@@
accommodated
cargoes
globulin
isi
ometry
shell@@
thio@@
tumour
addi@@
faxes
mems
rectifying
sanding
scap@@
seo
stment
yugosla@@
cert
cstyle
defer
dimmer
stiffener
wisconsin
bradley
conclu@@
disregard
entertain
inth
proficient
34.@@
hans
integra@@
mpp
revel@@
tortoise
whistler
apprentice
aquarium
bac
bien@@
booted
consequent
elevate
feedstock
intu@@
psychotropic
recognizable
surprises
ultural
253
accor@@
deepened
dule@@
glacial
headcount
icao
lavi@@
nicotine
prototyping
royce
telltale
uicontro@@
º@@
carto@@
diana
downgrade
equal@@
extre@@
faucet
gelatin
hare
impressions
lith@@
primers
1959
angiography
attendants
etched
gement
greenland
interception
melts
organo@@
vier
appropriateness
asti@@
augu@@
denying
dependant
homebase
interlocked
misc
niger
professions
size@@
2f
behaviour@@
institution@@
jeff@@
outright
ulu
affirming
distracted
image@@
leaded
messy
pdc
scrape
subordinates
uria
bedrooms
cture
hypoxia
prostitu@@
repeatable
robe
stors
surpass
symantec
yal
counselor
fukushima
ments@@
microbiological
multiline
reinstatement
vapors
zhangjiakou
406
50s
anomalous
develop@@
ensemble
fluence
myelo@@
newton@@
nucleotide
porter
tels
vana
blog@@
categorization
contradictory
queensland
sectoral
synchronously
xslt
demander
fta
nig@@
phthalate
rah
shave
stale
268
crease
financials
slide@@
timated
14.5
atherosclerosis
coup
dad@@
hyste@@
inboard
marketable
pmo
projectile
rcf
roster
uplink
valid@@
anonym@@
asi
collater@@
panorama
perpendic@@
philips
ptc
stuffer
sworn
tl@@
aim@@
arium
barges
businessobjects
humane
lco
region@@
transmittal
uncheck
unconventional
bore@@
cra
fh@@
ghong
intricate
lone
scrolling
stairway
tds
waved
amg
devic@@
dif
driller
effor@@
quilt
shattered
tau
uninstalling
374
8p
butterflies
chuan@@
clus@@
coulo@@
cruel@@
exponent
mee@@
sighted
tabo@@
zhan@@
1c@@
checkpoints
enceph@@
fallback
footprints
radically
s6
segmental
2022
concurrence
defro@@
garrison
impac@@
mozambique
physique
roar
scalp
shores
sourceone
acade@@
accur@@
cultivars
disadvantaged
hilton
instructs
investigative
parsed
scarlet
sig
570
asters
cardia
ignited
iste@@
itu
marri@@

000000@@
aker
calibrations
gho@@
intracranial
lithu@@
motherboard
onite
oper
tripod
aux@@
condo@@
emptied
estyle
inters
isothermal
ptions
tunisia
227
attackers
enchan@@
firm@@
nai
no2
patiently
quenched
reagan
stark
tuo
valence
＜
advices
aus
cog@@
hyphen
jdbc
neutralization
proudly
refitting
rocke@@
seekers
autodesk@@
baseplate
berkeley
centre@@
distraction
duce
faa
kj
meteor@@
monsters
optimised
osc@@
promissory
superi@@
uric
emaker
follicle
gifted
measu@@
photographers
r3
rek
rewrite
t6
aders
buoy
communicative
download@@
eus
lax
lot@@
mss
nis@@
nrc
optimizes
triang@@
****
chaired
governs
wig
wilt
1u
belarus
bhp
c30
dimm
furious
hds
overwhel@@
sausage
siblings
symmetrically
tore
ally@@
crow
desorption
effector
homemade
marshalling
questionable
tolu@@
breakpoint
cdm
ched@@
chopsticks
factor@@
glaciers
gpm
mobil
mourning
￥
archaeo@@
buffering
busbars
disappearance
emailxtender
improvi@@
jiabao
lacto@@
robotics
skirting
erecting
fter
olysis
rotten
sailed
streamer
tremove
ubs
dece@@
dison
gauging
kap@@
residences
arius
augmented
battle@@
drawbacks
grilled
idine
lable
margaret
midfielder
near@@
neighbourhood
ophosp@@
practicality
warring
woody
xc@@
anese
bili@@
dictionaries
ela@@
enumerated
harmonized
heir
implicitly
poised
qd
agar
dialec@@
dives
invaded
outra@@
panto@@
pup@@
racadm
reflectors
wardly
weep
whisper
1956
citation
constituency
enor@@
hers
inconvenient
isaac
momentarily
navig@@
osha
varnishes
1930s
231
243
assortment
esb
imperson@@
surrounds
tedness
tessel@@
toggles
agon@@
appur@@
electroly@@
istically
pension@@
puber@@
rod@@
tailing
diff
heats
lifespan
mandibular
rescence
sucked
trick@@
unforeseen
0.04
ana@@
coar@@
monica
nbr
plag@@
rhi@@
tieth
ved@@
backflow
bial
calibr@@
chiral
ery@@
ilin
insofar
introductory
inverters
kw@@
onclick
pple
topical
transients
wireline
508
demise
deprivation
distressed
frogs
lebron
overloading
param@@
physicists
prospec@@
solidi@@
2.12
coexistence
congru@@
gigab@@
manufac@@
pere@@
qhse
scaffolds
tolerable
yak
adsorbent
ancestral
arp
cheung
consol@@
dau@@
desal@@
literatures
pasta
stl
xero@@
ajar
ferri@@
graphies
greeks
lockable
outskirts
somatic
usages
0.000
aftermath
breaching
breeds
cae
cheques
clock@@
forks
lick
polated
pss
spells
stol
uf
unclean
appraisers
attribution
conciliation
gallo@@
incinerator
kha@@
piped
slam
subjec@@
assembl@@
chestnut
decor@@
erable
inhibits
interviewing
lol
realizable
tasted
ale@@
conv@@
desk@@
dwellings
fasten@@
forec@@
inconsistencies
mtr
reputational
stratification
thur@@
1940
640
brew@@
iden@@
patory
pooled
subassemblies
horizons
reverses
stickers
suv
390
ancies
cutaneous
forage
kered
practi@@
sara
supposedly
al.@@
clip@@
cst
desktops
deter
notches
osa@@
sates
soybeans
victor
.com.
0.95
2k
annul@@
fushun
objectivity
penetrations
revolution@@
desolate
gadgets
hydrophobic
iga
repri@@
reunion
sgs
stormwater
volati@@
youthful
administra@@
biop@@
cet
elastomeric
exhausting
fried@@
hurting
inti@@
resolver
rober@@
s5
定@@
b.2
fisherman
network@@
property@@
siege
sugar@@
wrink@@
620
asse
cholera
chow
dee
format@@
mids
obligatory
spu@@
stockpile
timate
3.12
expndtw4
jewel
soundness
tak@@
undertook
-0
alti@@
citi@@
colourful
leth@@
namespaces
nong
pie@@
predomin@@
twists
willow
alright
crea@@
demobil@@
eption
feldspar
fiat
fluctuating
grasses
infertility
lowercase
semiconduc@@
volution
avail
cos@@
gloomy
gpu
inadvertent
inquired
lefto@@
nered
scarcity
stren@@
vegf
2200
arrogant
atomi@@
brated
broth
director@@
fuelled
grassroots
jd@@
jm
maturation
metho@@
reps
schisto@@
stirrup
amalg@@
clastic
dpi
e3
gearshift
mutatis
palestine
sitescope
skinny
ving@@
xon
anche
avi
courseware
fluidity
later@@
singers
slovakia
_________
atex
beige
chromato@@
injec@@
nexample
ng@@
ns20
relic
shru@@
理@@
80,000
antioxidants
hdmi
hud
onists
seaside
servername
tightening@@
undercut
aspen
cellar
colloidal
educating
impartial
imposes
incen@@
inthe
jt
17.2
ake
arranges
cooper@@
fetching
influx
israelites
json
nucleic
org/@@
plasia
roy@@
sloped
ership
flutter
mdf
mutandis
276
arbit@@
bulls
emen
incub@@
maturing
profiled
slightest
solar@@
spat@@
subsistence
wik@@
2e
adine
afforded
councils
cranking
facet
ii.@@
inher@@
itations
jim@@
millen@@
mmi
nerv@@
submer@@
avo@@
diskette
huo
lg@@
reflectivity
rels
substituting
2.00
bum
butan@@
cams
chroma@@
dious
headliner
murray
pavements
pdk
xsd
zzi
baye@@
choline
highs
host@@
pet@@
supersti@@
undistributed
wayne
addis
akers
beep
photosynthetic
pigeon
semicol@@
spectrometric
decode
eased
graduating
hydride
joyful
pand@@
plantations
rightly
spindles
triaxial
v0@@
acia
handsets
hold@@
idio@@
metrological
mpha@@
nm3
stun@@
touring
allevi@@
arguably
brochures
exogenous
fingerprints
nsw
proclaimed
rca
aac
airfoil
batch@@
bine
creeping
depic@@
discontinuities
erec@@
guam
immovable
instrumented
rica
sagittal
tending
unanimous
xo@@
10.7
arbitrage
deloitte
divers
fortification
hindered
nsolution
ripped
trape@@
bernanke
exited
pastes
surged
workable
σ@@
80s
battalion
bony
crip@@
deriving
discouraged
downhill
fetched
haidian
hyundai
manila
multipath
subscript
ylase
1001
90s
iller
lai@@
lidocaine
mata
predators
weeping
226
delamination
heim
hist@@
ilian
inpatient
motion@@
phies
pim
rand
street@@
agate
canonical
coinage
defin@@
grou@@
hardwood
installments
journeys
rehabilit@@
resource@@
sals
somes
theorems
bifurcation
birmingham
cedar
ellipso@@
gvwr
helmets
inset
mobilized
prs
superimposed
hairy
imple@@
individuality
outsiders
pwr
rede@@
subclause
trage@@
297
astonishing
contempt
domestic@@
liaise
malle@@
obac@@
oligosacchar@@
pcc
philippine
rigidly
456
888
brilliance
cornerstone
dwar@@
invoking
jl
kicks
modality
sparked
subli@@
t5
taller
wildly
anta
bulgaria
carol
compressibility
diagonally
engagements
este@@
herewith
longitudinally
mango
marching
nai@@
nationalism
nodules
permeation
print@@
tempo
yat
260@@
bers
dehumidi@@
diver
egyptians
interpre@@
rbc
respirator
romans
solicited
tates
tivities
topo@@
ularly
上@@
15.3
dative
denote
emperors
hemato@@
inous
monas
shiz@@
uniaxial
variances
15,@@
319
alban@@
biting
blur@@
commercialization
dipole
kine
lucrative
polycarbonate
ried
viz
alumni
cellu@@
chemi@@
gewang
heli@@
indulge
judiciary
m16
marc
sein
arduous
casu@@
curry
dience
glycer@@
miner
snee@@
stimulates
syngenta
xpress
人
150,000
afric@@
belgian
disseminated
lettuce
liberalization
nonferrous
sporty
synergies
upper@@
uprising
60s
antimony
arching
cricket
graham
induces
laps
shipyard
wellness
collaborating
cyn@@
dancers
dissimilar
esophagus
impedi@@
mab
mos@@
bayonet
bevel@@
coma
declar@@
entially
extruding
hillside
intui@@
manuel
orbiting
staphylo@@
synthesizing
1200@@
580
await
chant@@
deadlock
diame@@
heave
inary
meg
mian
oliver
paci@@
peas
uap
vulcanized
以@@
219
birthplace
dell@@
departing
drowned
eves
fleets
rega@@
retailing
sensitization
ane@@
cored
dery
metries
ophil@@
redesigned
s5.3
terra
treasurer
ttle
wade
bol
companions
driveline
enum
exhibiting
fling
hm3
kish
obligee
prefabrication
robinson
sbs
wich
yama

almond
astra@@
daim@@
drowning
extremity
hungarian
picturesque
prohibiting
quet
surgeons
trunnion
wst
7b
abcd@@
alberta
broadway
gasi@@
grape@@
gt2
itter
pty
respectful
surname
tamping
地@@
anthropology
efs
elin
laced
minescence
nearer
peek
tumble
turner
actuarial
borough
carrie
corpse
hudson
ina@@
manipul@@
passageway
recyclable
revive
rying
safekeeping
wel
⑥
anecdo@@
assuring
drawback
geospatial
saints
semen
superposition
towering
aci
autostart
copi@@
encephal@@
hind
insiders
jumpers
leshan
lympho@@
multiplexing
placenta
regenerate
solidified
tibility
weaver
xe@@
μ
33.@@
adheres
bona
cmd.@@
disinfectant
financi@@
hectare
husbands
metaphy@@
msy
painters
tossed
1700
cassi@@
cen
desic@@
ounced
profiler
riverside
seasoned
vl@@
whispered
1.4@@
azine
conceptions
elt
enz@@
impulsive
kidneys
mbed
metallographic
onucle@@
pep
swar@@
telecon@@
conquered
crosshead
gymnastics
lama
phasing
scraps
superelevation
tunes
1a@@
alters
copyrights
ethn@@
heavy@@
photonic
pioneers
place@@
replenish
reunification
rocking
scholarships
460@@
ands
atop
biometric
bro
derma
kyrgyzstan
oleum
peric@@
sem@@
setup.@@
attrac@@
ctl
cx700
deca@@
inpu@@
invaluable
kbps
orientations
oth
ph.d
recali@@
rejecting
sketched
tanning
buffered
bureaus
codec
cole
congregation
cuban
mgmt
nusage
piezo@@
pinning
torque23
tyro@@
.xml
grantor
inequalities
keqiang
promulgation
strives
2the
ares
chf
dising
economizer
efi
embossed
graves
patter@@
ral@@
readju@@
snubbing
yulin
14.4
266
dize
droplet
echocardio@@
entitlements
forbid
gras@@
hob@@
invista
kshire
neg@@
noc@@
simil@@
stiff@@
transc@@
300m
660
bailout
coura@@
cyste@@
iter
peanuts
project@@
regimen
touchscreen
forman@@
fruc@@
interstitial
mason
mob
patriotism
rule@@
sonar
tension@@
tour@@
wrec@@
cohe@@
compliment
essions
hibi@@
meshing
nparticle
patron@@
plastici@@
rine
underlined
unnamed
1955
197@@
263
309
cpe
file.@@
frau@@
keyed
neil
opa@@
opec
straightness
curd
deplo@@
filtrate
henderson
manifests
spect
stures
tton
turnkey
223
9a
aver
clarifying
masculine
navigational
subo@@
transduc@@
vineyard
ellen
functionally
interven@@
ley@@
lia@@
methylene
mor
ocryst@@
sinensis
snail
sprinkle
suede
theod@@
brics
composi@@
cooker
ification
logarith@@
particulates
redefine
sarcoma
silkworm
steaming
afc
anton
austerity
carrots
guest@@
meadow
meats
rituals
subcontracted
vowed
zirconium
‰
8.8x
barbara
carts
commut@@
efflu@@
ettes
laces
lee@@
obstructed
rens
unilaterally
009
2400
50000
accen@@
angela
bosom
cuenca
diagnoses
drastic
edic
elic@@
insisting
interestingly
ishing
jewels
oman
rell
seafarer
soph@@
4000@@
asc
assesses
defenders
hla
modernized
percussion
thfulness
​

adapts
anasto@@
blossoms
compactness
observ@@
poe@@
progressed
provisioned
seniors
sergeant
dbms
displacements
expelled
fellows
hege@@
multiplex
ngo
papermaking
rehear@@
turtles
ultras@@
xm@@
bbed
bows
chm
dron
elective
encompass
eternity
huangpu
markov
obi
revaluation
sulphuric
270@@
badminton
cca
deprecated
heal@@
hughes
preformed
resubmit
sleepy
sunflower
tributary
tsp
bldg
croo@@
cup@@
dger
duan
etf
nf@@
prairie
ricular
roundness
trated
10.8
changshu
enqui@@
futur@@
indifferent
palestinians
tease
ultrasonography
2021
corol@@
cpus
cryo@@
discourage
espec@@
filial
kgf
pheny@@
resis
shone
tranche

1g
auspicious
militants
philosophers
startups
thereupon
14.6
accding
engine@@
etch
iho
mings
moto
netgear
ochemical
pluc@@
puppet
rainstorm
rison
ssid
tana
tose
adrenal
bee@@
brin@@
broncho@@
dhar@@
disseminate
driver@@
enlarging
euph@@
infra
istanbul
leigh
peony
puerto
saliva
unce@@
012
550@@
6b
adam@@
caches
communism
infin@@
irradiated
monte@@
peac@@
portraits
unbeli@@
vf
amorous
chilling
company@@
desulfur@@
hockey
iaea
legisl@@
reheater
rico
rok
urry
chore@@
chrysanthemum
cops
criticize
csc@@
greatness
ians
metro@@
monom@@
mountable
pao
periodon@@
pervasive
qis
radiators
vagina
casters
coffin
depict
embarrassment
fmt
meishan
oems
rip@@
superinten@@
testify
ultrafiltration
wartime
aspirated
blu
citrate
emia
everlasting
flashed
loadings
pierce
26th
dences
epdm
every@@
faqs
intervening
mium
peo@@
ppo
prefec@@
rein
setups
swer@@
tigh@@
1957
33kv
avionics
enumerate
humanism
lau
mber@@
midi
pable
phonetic
ppt
pting
recor@@
stimuli
wido@@
1954
29th
4.12
ador
bali
carav@@
ccal
descen@@
discriminate
display@@
mif
rn
slippage
transp@@
14001
2l
????@@
apprehen@@
behaved
beth@@
carriages
complainant
drawdown
interpreters
irregularity
matur@@
prospector
specialize
spectators
surges
teral
transplanted
宋体
acetyl@@
collo@@
daisy
emptive
entran@@
invariably
remnants
sketching
cle
comparator
defendants
garnish
lactose
soften
stead
supersedes
资@@
18.1
4d
690
acher
asympto@@
contaminant
decol@@
oyster
punctuation
quebec
renmin
yon
zip@@
116@@
1930
aqui@@
backyard
disguised
dopamine
gnd
harves@@
isotopic
koc
publicize
pyrite
redistribution
runaway
trust@@
virtuous
youngsters
5cm
checklists
crosslinking
dredge
fellowship
firearms
hmm
lobster
mesozoic
metic
mezzanine
nebula
preheat
sclerosis
sensibility
tish
webcam
1953
anten@@
benches
elevating
ert
glaucoma
mbta
ocr
puppy
barry
compa@@
fca
moz@@
refineries
scripture
sponsoring
steroid
subtraction
surrogate
ultr@@
unusable
x86
afar
cloud@@
dali
entails
excuses
fide
fro
hoops
icus
johan@@
lecturer
motto
narrowing
notions
propagated
root@@
siphon
snr
subwoofer
员@@
8b
blinding
chronological
esg
exile
gore
landslides
lessen
m20
orthographic
reinfor@@
vom@@
atorium
awarding
bolivia
calliper
communal
devise
disparity
owes
recovers
reefs
stewar@@
synap@@
tommy
ync
zhon@@
airbags
banded
cori@@
descriptors
genital
inhal@@
lettering
orial
pusher
syndicated
triumph@@
apric@@
attle
berger
cheon
ntc
pta
1.11
336
7,000
adol@@
bino@@
cropped
gle
intakes
setback
为@@
11.6
absorbance
chis@@
displace
emf
exempli@@
exportation
flicker
fsa
lationary
odour
payback
pent
seizing
shin
solicitation
stra
trims
♦
11sms
applicator
aqua
decrees
hydrologic
intensively
maf
marshal
seeker
sham
stow
thompson
tongs
23rd
admin@@
allergies
eyebrows
idiot
illustrating
jedi
rand@@
richness
shackles
shuffle
carriageway
islam@@
msa
pigging
roasting
wiel@@
academ@@
aman
culo@@
deteriorate
elaborates
exclusions
favors
glycerin
hoisted
immobilized
multin@@
occupier
proportioning
staffed
starbucks
troph@@
veto
airtight
arrowhe@@
corp@@
jg@@
magmatic
odong
oscillations
oscillo@@
sophistication
tendencies
thaw
trunks
合@@
22nd
dct
gamble
irony
madame
majestic
malnutrition
prequalification
个@@
activist
biliary
ergonomics
hip@@
ichi@@
impulses
interdisciplinary
presi@@
resuming
spoil@@
tmp
variational
canon
chees@@
client@@
ddm
denies
deple@@
dlc
gabri@@
santiago
spinach
spore
uom
waterfront
1.8@@
aman@@
evasion
gim@@
lianyungang
peppers
repellent
telnet
update@@
velcro
ceos
cx500
g3
involuntary
multilingual
palaces
praying
princeton
000000
boundless
fairs
forgetting
initials
multidimensional
plastered
rol@@
spatula
tachy@@
ticketing
circling
dictated
intelli@@
lunar@@
memo@@
nonlinearity
rendition
settlers
tempting
voip
wire@@
coagul@@
demons
fissures
fuelband
heath@@
impending
inherits
mtg
necro@@
rogue
asive
etrust
fh
humorous
newcastle
pang
pebbles
tob@@
atl@@
cafe@@
cated
daring
discontinue
disguise
encies
exor@@
gels
isotopes
misstatement
reverber@@
strat@@
timeless
xls
ylon
appel@@
bodied
citigroup
mechanization
moc
mutag@@
ncr
pang@@
personalize
practicability
teachings
bh@@
bium
calc
characterised
firefighters
nsn
stries
systolic
249
assemb@@
carbure@@
interactively
realtime
22.2
complac@@
conjunc@@
connector@@
dialectical
johnny
strate
tleness
tsm
uygur
10k
224
biomechan@@
chipping
clarifications
ethyl@@
imm
myopia
passivation
pdr
stowed
bug@@
clogging
disruptions
hierarchies
labourers
nourishing
retiring
roundabout
shly
accorded
aloe
banners
cate@@
cine@@
climates
cushions
disgu@@
encomp@@
eset
expediting
mization
shah
spiders
stacker
tf25@@
aromas
assures
cur
finnish
hybrids
lacti@@
numerals
ocyanate
owl
sacrificed
sandals
soo@@
staggering
supporter
villas
ceps
denver
dimming
hrc
import@@
narrowly
nineteenth
sali@@
ukrainian
246
credit@@
fabricating
ghui
inner@@
itic
jake
mosis
tili@@
tx@@
usp
vate
viscoelastic
bulky
complexscriptsbold
crashing
embolism
forti@@
holmes
huangdao
kinson
single@@
tencent
waypoint
deband
ept
portability
repeal
warner
250,000
annoyed
carri@@
catenary
eder
emma
ghq
mish
nodded
profoundly
radionucli@@
sealants
standard@@
taiping
twain
0.35
austenite
jealousy
sugars
transporter
¡@@
bhs
bribe
cnooc
congres@@
logarithmic
neph@@
ointment
phism
ror
succeeds
baby@@
crucible
elf
emits
hydroxyl
mets
ough
popu@@
referrals
reminding
requisitions
storehouse
terrified
2,000@@
416
abiding
fascinated
fullest
icking
impractical
kho@@
lacing
midway
node@@
pian@@
polymerase
scrapers
stylesheet
tenor
tooltips
zong
carpets
cny@@
elaboration
handshake
rics
smoothed
squid
validly
60hz
blacks
carnival
indeli@@
jit
proclamation
s4.2
term@@
unve@@
verge
watermelon
680
acon@@
campaig@@
dermatitis
gand@@
hacking
hesitation
keyframe
mered
30s
portrayed
qai@@
revetment
suitevoyager
sunglasses
violently
16a
9999
alu
conceal@@
condens@@
contend
disrup@@
glori@@
marched
oly@@
rue
silver@@
thumbnails
transpiration
urn
c4@@
croatia
dongfang
hardships
mls
objectiveto
sporadic
299
biotic
brain@@
cvd
defi@@
ers@@
grun@@
hydrogeological
intervie@@
naive
pineapple
sao
scis@@
scul@@
vibra@@
alien@@
alin
bush@@
navisworks
nment
rag
spil@@
summon
surcharges
tacti@@
tthe
widest
0.005
324
61@@
bleak
ject
mentioning
restless
sium
stricter
1,200
aneurysm
courte@@
dics
dryness
elo@@
foliage
intensely
maur@@
rejoice
ressive
acronym
alphabetical
chip@@
differen@@
docks
ence@@
eutec@@
opho@@
propri@@
vae
woo
20.2
contempor@@
dublin
extracellular
grasped
naughty
observational
uity
winged
xuzhou
cools
cx300
dowels
ichuan
munitions
oblig@@
pont
propos@@
scrubber
shakes
siltstone
tagnames
wholesal@@
deni@@
dumps
hereditary
poplar
spar
zoo@@
.dll
arable
backburner
booths
burgh
confess
f5
gbe
imbalances
marines
missouri
mixers
nodular
slippers
spong@@
viscome@@
articaine
backwash
dds
issa
laryn@@
lps
menstrual
vocation
adjuvant
bans
ghtful
gymnasium
inations
ncb
pinus
strongh@@
subtype
uddi
valuepoint
automating
consoli@@
cppcc
dove
frequ@@
gwm
hamburg
hardy
lease@@
lignin
measles
mfc
recesses
secretaries
vices
xide
deceive
english@@
fea
interrogation
reaming
unloader
wsr@@
xrefs
awakening
brightest
fw@@
lign@@
lli
multilevel
pbc
provident
readout
0.000@@
bracelet
disco@@
dope
dprk
gical
melancholy
menopausal
morphine
quie@@
repen@@
schwar@@
spm
suring
astronaut
b5
compensatory
dysp@@
glycerol
propagating
resentment
spn
272
detain@@
eminent
poon
swamp
yland
480@@
antistatic
emea
intermittently
mercur@@
orlando
ovens
promoters
rendi@@
shiba
signific@@
splend@@
sucrose
tempor@@
239
4wd
boulders
glutin@@
hloride
innovating
intimacy
listens
petersburg
rectal
sionally
whitening
.to
cleavage
narrowed
oversize
preoperative
amalgam@@
barak
chair@@
cking
coch@@
galac@@
grievance
injunction
itrile
say@@
seness
vascul@@
bernard
big@@
conductance
danced
dire
finisher
hoodie
lineup
mped
nutritious
[...]
