#version: 0.2
t h
th e</w>
i n
a n
t i
r e
t e
o n</w>
e n
e r
o n
a m
a r
r o
o r
o f</w>
in g</w>
t o</w>
s e
an d</w>
a l
ti on</w>
ま す</w>
i n</w>
d e
o r</w>
l e
a t
a c
i s</w>
am p
s t
i c
amp ;</w>
& amp;</w>
す る</w>
i t
o u
d i
e d</w>
e r</w>
e s</w>
l e</w>
s i
e c
a l</w>
u r
l o
a tion</w>
c o
a s
a s</w>
r i
a t</w>
a n</w>
p ro
c on
f i
y o
l i
c h
t s</w>
f or</w>
yo u</w>
te d</w>
a p
m en
a g
e t</w>
s p
a b
e s
u s
w h
l y</w>
s h
e n</w>
v e</w>
s u
m p
b r
l a
n o
e x
v i
o l
a d
th at</w>
k et</w>
m o
br a</w>
p er
m e
u n
t r
ti on
te r</w>
at e</w>
ar e</w>
f or
m a
w it
c e</w>
t o
i l
te r
wit h</w>
th is</w>
le c
p o
i t</w>
e l
c l
d o
シ ョ
b y</w>
こ と</w>
u l
men t</w>
使 用</w>
r a
n e
p re
b e</w>
b e
q u
ッ ク</w>
w as</w>
t a
er e</w>
ショ ン</w>
p l
tion s</w>
選 択</w>
s t</w>
で き</w>
こ の</w>
u c
か ら</w>
v er
p ar
re n
s c
b u
f f
f ro
ur e</w>
fro m</w>
s e</w>
m e</w>
ー ト</w>
c an</w>
o p
b o
プ ロ
フ ァ
表 示</w>
se lec
場 合</w>
い る</w>
g h
co mp
it y</w>
se d</w>
c re
d e</w>
に よ
s o
あ る</w>
for m
イ ル</w>
no t</w>
ag e</w>
j ec
s te
h i
な い</w>
al l</w>
an g
ー ル</w>
h a
ン ト</w>
s er
en t</w>
am e</w>
sp ec
as e</w>
o b
ク リ
th e
de r</w>
ti c
re d</w>
u m
t w
v e
ー タ</w>
ab le</w>
d s</w>
in e</w>
s y
st r
ッ ト</w>
m i
ー ド</w>
h o
c u
p or
設 定</w>
us e</w>
ジ ェ
v er</w>
i f</w>
れ る</w>
v al
ファ イル</w>
ou n
ク ト</w>
し て</w>
d at
si on</w>
re c
i m
le s</w>
t ing</w>
い て</w>
ラ イ
a ted</w>
で す</w>
a r</w>
ou r</w>
作 成</w>
c h</w>
th er</w>
ま た
また は</w>
ou t</w>
イ ン
on e</w>
コ ン
spec i
ー ス</w>
ジェ クト</w>
ic k</w>
er s</w>
co m
f ac
t h</w>
クリ ック</w>
y p
お よ
d ing</w>
m an
およ び</w>
ro u
c i
c ur
f e
ッ ク
vi e
es s</w>
a u
te s</w>
あ り</w>
w or
gh t</w>
ic h</w>
wh en</w>
t e</w>
o d</w>
cl ick</w>
wh ich</w>
lo w
d uc
ti ve</w>
val u
ス ト</w>
an t</w>
in g
de f
fi le</w>
た め</w>
そ の</w>
selec t</w>
ap p
te n
s o</w>
に つ
t ro
jec t</w>
se s</w>
pre s
g t</w>
se t</w>
t yp
指 定</w>
につ いて</w>
an ce</w>
ー ジ</w>
f ol
si g
m in
オ ブ
ス テ
w ere</w>
c e
h e
lo c
la y
ha ve</w>
よ う</w>
s a
t ri
co l
y our</w>
オブ ジェクト</w>
p a
ッ プ</w>
フ ィ
フ ォ
ま せ</w>
w i
sy ste
ch ang
al ly</w>
sh o
サ ー
必 要</w>
と して</w>
ar y</w>
t u
de d</w>
re s
テ ィ
さ い</w>
w a
di sp
ー ション</w>
g i
a d</w>
dat a</w>
us ing</w>
w s</w>
k e</w>
d u
ック ス</w>
変 更</w>
ポ ート</w>
ン グ</w>
ュ ー</w>
i d</w>
g en
i z
in t</w>
w e</w>
b er</w>
ou r
k e
vie w</w>
or e</w>
ic e</w>
g r
l t</w>
ス タ
デ ィ
le d</w>
n ame</w>
ス ト
m s</w>
デ ータ</w>
il l</w>
in do
g h</w>
ic al</w>
く だ
l in
くだ さい</w>
w e
syste m</w>
ic ation</w>
tr an
form ation</w>
es s
テ ィ</w>
in ter
me th
t y</w>
ti es</w>
ac c
typ e</w>
ar i
っ て</w>
te ri
on s</w>
ren t</w>
ー タ
ne w</w>
h as</w>
0 0</w>
ti c</w>
sc ri
n o</w>
ユ ー
w ill</w>
s ur
c a
st o
in ed</w>
men ts</w>
o ther</w>
pro per
fol low
h e</w>
t ure</w>
por t</w>
u s</w>
ti me</w>
a f
v ed</w>
or y</w>
lo w</w>
によ り</w>
ボ ックス</w>
t t
se r</w>
ar d</w>
n ec
ー ム</w>
us t</w>
l d</w>
a tions</w>
re s</w>
t ur
バ ー</w>
l ine</w>
c tion</w>
ing s</w>
i s
w n</w>
en ts</w>
com m
n um
es e</w>
ン ド</w>
e ff
it s</w>
参 照</w>
に お
ア ク
r u
す べ
in formation</w>
p u
speci fi
に 対
すべ て</w>
ob ject</w>
追 加</w>
オ プ
a v
i mp
g o
con tro
ら れ</w>
u m</w>
re su
f t</w>
k s</w>
オプ ション</w>
on ly</w>
入 力</w>
e d
sig n
シ ステ
フ ェ
re qu
d a
c al
at ing</w>
g e
cre ate</w>
u sed</w>
し い</w>
fac e</w>
mo de
d en
実 行</w>
可 能</w>
p h
f y</w>
タ イ
g u
follow ing</w>
な ど</w>
i c</w>
システ ム</w>
bo x</w>
ダ イ
k ing</w>
ac h</w>
u p</w>
str uc
b a
an y</w>
i r
valu e</w>
ac e</w>
な り</w>
te mp
ter s</w>
su b
th en</w>
pro c
al so</w>
g rou
ou s</w>
ul t</w>
d o</w>
te x
g e</w>
ou ld</w>
c or
m ore</w>
cl u
方 法</w>
で き
w indo
ー ル
su p
プ リ
u p
ap pl
l s</w>
con fi
e m
でき る</w>
i r</w>
al o
情 報</w>
i p
結 果</w>
pro vi
di ff
d ra
i g
プロ パ
ン ド
per i
in st
m ul
amp le</w>
e ar
によ って</w>
o se</w>
af ter</w>
p ri
am e
け る</w>
か っ</w>
di s
定 義</w>
によ る</w>
au to
al y
be en</w>
chang e</w>
サ イ
a ult</w>
ー ク</w>
o per
ch ar
el l</w>
モ デ
ン ス</w>
bu t</w>
i te
管 理</w>
セ ス</w>
th ese</w>
meth od</w>
tran s
eff ec
en ter</w>
f in
se e</w>
な る</w>
ラ ー</w>
s is</w>
m ar
ー プ</w>
t al</w>
it e</w>
イ ン</w>
b ac
p r
the y</w>
lo g
alo g</w>
gen er
la r</w>
an d
メ ント</w>
ユー ザ
num ber</w>
d er
de s</w>
ser v
こ れ</w>
コ マ
th ere</w>
tion al</w>
ア ロ
or s</w>
di rec
f un
ti v
fi el
fi l
la y</w>
ab out</w>
ビ ュー</w>
t or</w>
デ ータ
li st</w>
man ag
pro duc
f u
con nec
2 0
tw e
l u
e ach</w>
n ing</w>
c es</w>
m on
ダイ アロ
s s</w>
ベ ース</w>
t ly</w>
も の</w>
u ser</w>
b le</w>
e l</w>
プ レ
oun d</w>
グ ラ
jec ts</w>
1 0</w>
ex p
po int</w>
ユーザ ー</w>
プロパ ティ</w>
b ec
f r
ウ ィ
twe en</w>
モデ ル</w>
ー ジ
be tween</w>
selec ted</w>
de scri
di alog</w>
ex ample</w>
ser ver</w>
re e</w>
ッ ト
フォ ル
su ch</w>
ri ght</w>
w ant</w>
at ure</w>
tw o</w>
ま た</w>
th an</w>
機 能</w>
コマ ンド</w>
in to</w>
示 し</w>
パ ー
セ ット</w>
c ar
fi r
in clu
me m
ー ン</w>
ch o
tex t</w>
disp lay
c an
e t
an aly
si ons</w>
in s</w>
新 しい</w>
mode l</w>
st ar
n a
or der</w>
れ ら</w>
ac le</w>
diff e
名 前</w>
リ スト</w>
あ っ</w>
grou p</w>
p ol
と き</w>
削 除</w>
グ ル
p s</w>
as t</w>
on g</w>
do cu
a il
及 び</w>
for m</w>
t able</w>
e le
resu l
t ation</w>
ol u
wi th
g et</w>
ス ク</w>
o m
def ault</w>
in v
e v
e ment</w>
y s</w>
e ar</w>
b i
st a
st ra
ac t</w>
v ari
il ity</w>
構 成</w>
ou t
no w</w>
fi les</w>
ペ ージ</w>
o l</w>
st s</w>
tri bu
z e</w>
wh ere</w>
d ic
e lec
ツ ール</w>
ま し</w>
wh at</w>
1 9
contro l</w>
な っ</w>
タイ プ</w>
con ta
よ り</w>
a re
p e
時 間</w>
dat ab
w ing</w>
de p
our ce</w>
d ate</w>
at or</w>
co p
ad d</w>
o k</w>
p age</w>
適 用</w>
ブ ル</w>
ダイアロ グ
d y</w>
ベ ル</w>
sig n</w>
編 集</w>
キ ュ
fe ren
パ ラ
o c
proper ties</w>
tic le</w>
confi g
保 存</w>
al s</w>
wh o</w>
lo p
re la
par ame
ho w</w>
r e</w>
リ ン
ac h
en d</w>
es t</w>
po si
接 続</w>
comm and</w>
グル ープ</w>
pl an
n am
ac tion</w>
m at
ad e</w>
パラ メ
par t</w>
処 理</w>
l l</w>
確 認</w>
ケ ーション</w>
o ff
ob jects</w>
fir st</w>
テ ン
fiel d</w>
me as
in te
ic ro
tr y</w>
re mo
の み</w>
詳 細</w>
cur rent</w>
ma y</w>
st u
resul ts</w>
m ust</w>
g ra
or i
i l</w>
データ ベース</w>
ト リ
ma teri
r on
l ing</w>
p t</w>
ウィ ンド
p at
移 動</w>
ch ec
ール ド</w>
こ れら</w>
di st
e i
datab ase</w>
ダイアログ ボックス</w>
appl ication</w>
g a
ウィンド ウ</w>
disp lay</w>
un der</w>
にお ける</w>
t re
di t</w>
c y</w>
ロ ー
p ap
現 在</w>
per form
de ve
h y
oun t</w>
ve l</w>
s ame</w>
re gi
ッ シ
ま で</w>
the ir</w>
tw or
n s</w>
char ac
en g
th er
ソ ース</w>
comp on
ba sed</w>
ol d</w>
sur face</w>
imp or
min i
計 算</w>
as s</w>
に 関
f o
v es</w>
m y</w>
sh i
有 効</w>
ュ ー
valu es</w>
hi gh</w>
パラメ ータ</w>
c en
説 明</w>
proc ess</w>
キ ャ
v ing</w>
チ ェ
プリ ケーション</w>
文 字</w>
ur ing</w>
p an
for e</w>
the m</w>
cre a
y ing</w>
フィ ールド</w>
b ar</w>
st ing</w>
se tt
イン スト
ワ ーク</w>
windo w</w>
ポ ー
pap er</w>
cu sto
c r
ne twor
ウ ェ
用 い</w>
in i
ver y</w>
f ic
at tribu
ッ ド</w>
イ ント</w>
l ation</w>
ク ト
di men
r ap
ag es</w>
メ ニ
解 析</w>
バ イ
deve lop
pu t</w>
wor k
j o
ライ ン</w>
av ail
タ ン</w>
ic es</w>
h el
領 域</w>
in ing</w>
タ ー
specifi ed</w>
op tion</w>
ッ チ</w>
テ キ
ア プリケーション</w>
い う</w>
位 置</w>
ブ ラ
mo di
n i
にお いて</w>
op tions</w>
s ure</w>
ク ション</w>
se ction</w>
ア イ
な く</w>
pro ject</w>
h is</w>
メニ ュー</w>
con t
sett ings</w>
ネ ル</w>
ト ラ
te ch
アク セス</w>
requ i
speci fy</w>
ar ticle</w>
in f
g ro
キ ー</w>
mi s
gr ap
インスト ール</w>
に対 して</w>
re f
op en</w>
proper ty</w>
k ed</w>
ア ップ</w>
m u
tic al</w>
comp le
ex i
構 造</w>
comp u
th rou
メ ン
se ar
in ts</w>
同 じ</w>
c er
s on</w>
avail able</w>
タ ブ</w>
so me</w>
ear s</w>
de le
に対 する</w>
men u</w>
h an
si de</w>
ボ タン</w>
そ れ</w>
w er</w>
e qu
con si
問 題</w>
st y
プロ ジェクト</w>
ー ブル</w>
u res</w>
v en
sp ace</w>
状 態</w>
検 討</w>
c li
re tur
チ ャ
acc ess</w>
am p</w>
ク ラ
descri b
ッシ ュ</w>
er ro
mul ti
es ti
wa y</w>
en ce</w>
発 生</w>
pa ti
con ten
s ti
c ap
d ro
テキ スト</w>
え る</w>
c lo
it or</w>
b ro
res s</w>
or d
inst al
セ ン
複 数</w>
re feren
b le
ic i
1 2</w>
オ ン</w>
c ase</w>
le vel</w>
ur ation</w>
要 素</w>
re sp
wor k</w>
po s
20 0
に関 する</w>
ta b</w>
な かっ</w>
so ci
de s
g re
analy sis</w>
col um
i le</w>
bu tt
ロ ール</w>
リ ング</w>
iz ation</w>
エ ン
ョ ン</w>
docu ment</w>
throu gh</w>
ac tive</w>
so ft</w>
ac tiv
c el
含 ま</w>
な た</w>
検 索</w>
di tion</w>
あ なた</w>
図 面</w>
t as
行 っ</w>
レ イ
a k
レ ン
to ol
操 作</w>
t ting</w>
レ ベル</w>
影 響</w>
col or</w>
ma in</w>
lay er</w>
付 け</w>
細 胞</w>
p ur
方 向</w>
diffe rent</w>
d ri
u e</w>
e mp
si ze</w>
bo th</w>
環 境</w>
c ul
ap pro
チェ ック</w>
ア ウ
f a
i d
a use</w>
ma ke</w>
ス ケ
e dit</w>
l ic
コ ード</w>
d uring</w>
be fore</w>
ti al</w>
mini str
un i
p tion</w>
リ ー</w>
I n
o f
li ke</w>
im age</w>
め る</w>
s en
bec ause</w>
par ag
resp on
コン ト
O r
ite m</w>
そ の
parag rap
dra wing</w>
p i
ha d</w>
サー ビ
do wn</w>
chang es</w>
de sign</w>
ネ ット
サー フェ
s ch
h ere</w>
j ap
m icro
th ose</w>
1 0
a m</w>
tr ac
c y
al e</w>
ab les</w>
フ レ
hi gh
リン ク</w>
て る</w>
o ver
re port</w>
windo ws</w>
サ ポート</w>
o ver</w>
ク ス
ab ility</w>
制 御</w>
in dic
tr a
コン ポー
are a</w>
r ang
コンポー ネ
si ble</w>
sh all</w>
開 発</w>
プ ラ
m b
ca ses</w>
割 り
l ar
sear ch</w>
sh ould</w>
レ ポート</w>
me di
b ase</w>
struc ture</w>
更 新</w>
f low</w>
利 用</w>
A u
だ け</w>
ex am
開 始</w>
as se
サービ ス</w>
w ell</w>
o k
de v
t ory</w>
n or
auto ma
fi ed</w>
li s
t ar
paragrap h</w>
m ess
sy n
le r</w>
と いう</w>
ー ト
star t</w>
bu il
b us
s ource</w>
た り</w>
a tes</w>
モ ード</w>
s ing</w>
ッ セ
sh ap
fun ction</w>
コンポーネ ント</w>
ッ プ
dep en
c ed</w>
割り 当
app li
カ ー
iz ed</w>
j ust</w>
el s</w>
effec t</w>
sho w</w>
networ k</w>
作 業</w>
サー バー</w>
ド キュ
タ ー</w>
lo ad</w>
f ication</w>
de ter
bac k</w>
am i
手 順</w>
ど う</w>
特 定</w>
g an
c ri
え ば</w>
st and
測 定</w>
関 連</w>
生 成</w>
2 0</w>
配 置</w>
f ound</w>
ver sion</w>
butt on</w>
C A
m al</w>
cre ated</w>
取 得</w>
re ad
p le</w>
tic ally</w>
do es</w>
ノ ード</w>
l ab
リ ア
スタ イル</w>
サイ ズ</w>
g er</w>
an ti
テ ーブル</w>
a red</w>
効 果</w>
chec k</w>
W indo
メ ッセ
mo st</w>
materi al</w>
範 囲</w>
display s</w>
can not</w>
プロ セス</w>
ウェ ア</w>
loc ation</w>
ロ ック</w>
デ フォル
ピ ュ
se con
ポ イント</w>
ドキュ メント</w>
vi ron
ージ ョン</w>
ロ ード</w>
な ら</w>
so f
m ade</w>
as soci
wh e
mo de</w>
サーフェ ス</w>
レ ー
認 め</w>
serv ice</w>
変 換</w>
de ta
ex t</w>
pro ble
以 下</w>
ra di
peri od</w>
d y
cho ose</w>
le ss</w>
to ol</w>
oper ation</w>
manag ement</w>
か れ</w>
config uration</w>
Or acle</w>
den ti
R e
n er</w>
en viron
in ation</w>
da y</w>
bac k
st ate</w>
i es</w>
Au to
posi tion</w>
ネット ワーク</w>
re pres
temp er
th ree</w>
s m
メッセ ージ</w>
デフォル ト</w>
アク ティ
resu lt</w>
c le
o t</w>
5 0</w>
大 き
l ate</w>
関 係</w>
p er</w>
存 在</w>
評 価</w>
ス ペ
W e
フォ ー
in ce</w>
ag a
Windo ws</w>
lin es</w>
log y</w>
u lar</w>
with in</w>
te st</w>
s ite</w>
in ess</w>
le ft</w>
行 う</w>
or acle</w>
li ght</w>
イ メ
st or
re por
or gan
p as
re co
w ar
ne ed</w>
erro r</w>
属 性</w>
P ro
g o</w>
た と
条 件</w>
b ers</w>
ピ ー</w>
s ing
動 的</w>
la ted</w>
en ti
パ ス</w>
ho we
pu b
エ ラー</w>
howe ver</w>
on al</w>
変 化</w>
sa ve</w>
x i
ソ フ
; (</w>
to p</w>
せ る</w>
; :</w>
たと えば</w>
pl ac
tic s</w>
s olu
コン ピュ
f ami
フォル ダ</w>
チ ャ</w>
hel p</w>
le t</w>
バ ージョン</w>
シ ェ
sh e
k er</w>
n ess</w>
ex peri
f ul
o me
以 上</w>
1 1</w>
ト リ</w>
レ ーション</w>
n ed</w>
y ear</w>
c ell</w>
se l
セ ル</w>
tw are</w>
pl ace</w>
i ght</w>
ti m
conten t</w>
オ ー
pol y
ra y</w>
ad ministr
at ures</w>
組 織</w>
設 計</w>
ポ リ
at t
se ts</w>
関 数</w>
h ar
ti ve
typ es</w>
pro te
fu l</w>
le ase</w>
グラ ム</w>
meas u
規 定</w>
an s</w>
カ スタ
with out</w>
w r
ら れる</w>
項 目</w>
parame ters</w>
def ined</w>
f l
wh ile</w>
p ac
d on</w>
im pro
n ext</w>
des k</w>
sty le</w>
基 づ
par tic
コ ピー</w>
こ こ</w>
既 定</w>
au th
di vi
ex pres
in cre
m a</w>
sof tware</w>
研 究</w>
r ate</w>
含 む</w>
al ity</w>
no de</w>
I D</w>
イメ ージ</w>
v en</w>
tri c</w>
sing le</w>
ite ms</w>
app ly</w>
th ou
プレ ート</w>
rec or
ショ ン
z ed</w>
n et</w>
タ スク</w>
出 し</w>
n al</w>
ro w</w>
r un
ic s</w>
pro ce
compu ter</w>
display ed</w>
po ints</w>
ob ta
k no
inv esti
場 所</w>
compon ent</w>
sc en
bus iness</w>
ke y</w>
ex ten
referen ce</w>
col lec
l an
パー ツ</w>
We b</w>
temper ature</w>
di ag
manag er</w>
パ ネル</w>
po wer</w>
コント ロール</w>
colum n</w>
プ ト</w>
pati ents</w>
mo ve</w>
cop y</w>
j u
fun c
c ould</w>
investi g
又 は</w>
ma p</w>
appl ic
ad d
レン ダ
k now</w>
割り当 て</w>
対 応</w>
grap h
≫ 」</w>
selec tion</w>
対 象</w>
multi ple</w>
perform ance</w>
そ れ
li sh
p ho
in ser
loc k</w>
an other</w>
bo dy</w>
0 .
お り</w>
i denti
ソフ ト
pan el</w>
fe ature</w>
ri bu
st at
specifi c</w>
w ed</w>
c oun
番 号</w>
wor d</w>
men tal</w>
sup port</w>
フォ ーム</w>
rang e</w>
アウ ト</w>
fac es</w>
sh e</w>
as sign
C on
製 品</w>
プロ グラム</w>
m as
s s
duc ed</w>
m ag
ru n</w>
o m</w>
we b</w>
フィ ル
サイ ト</w>
s or
en cy</w>
ser ved</w>
ず れ</w>
se c
us ers</w>
dist ribu
c c
i al</w>
se tting</w>
ユー ザ</w>
f e</w>
di sc
最 初</w>
挿 入</w>
pat h</w>
マ イ
or ig
特 性</w>
技 術</w>
ア ニ
loc al</w>
o ds</w>
produc t</w>
y a</w>
フレ ーム</w>
テン プレート</w>
デ バイ
cen tr
su m
er y</w>
ar ch
S er
1 8
hi m</w>
E x
te n</w>
3 0</w>
attribu te</w>
ア ル
e valu
requi red</w>
い ずれ</w>
un der
ex ce
im um</w>
標 準</w>
読 み
ア ド
計 画</w>
tive ly</w>
ミ ュ
レ ス</w>
tu al</w>
al low
電 子</w>
述 べ</w>
ele ment</w>
ジ ュ
種 類</w>
elec tr
it ing</w>
wa ter</w>
proc ess
考 え</w>
re si
M a
ス クリ
fol der</w>
man u
conta ins</w>
ge ome
終 了</w>
ライ ア
マ ップ</w>
tre at
ci r
デバイ ス</w>
et c</w>
1 00</w>
セ ッ
parame ter</w>
s ity</w>
exi sting</w>
sa id</w>
ジ ョ
比 較</w>
specifi es</w>
i e
ou se</w>
si c</w>
man y</w>
mem ber</w>
diffe ren
asse mb
m es
込 み</w>
form at</w>
ダ ウ
サー バ</w>
cont in
1 5</w>
of f</w>
M an
op en
g g
fami ly</w>
fe atures</w>
th ing</w>
dele te</w>
lin k</w>
n a</w>
w ould</w>
実 験</w>
修 正</w>
cre ating</w>
ソフト ウェア</w>
cel ls</w>
an im
de sign
inter face</w>
e a
appli ed</w>
ec han
提 供</w>
pr in
最 大</w>
寸 法</w>
re ad</w>
shap e</w>
出 力</w>
automa tically</w>
k in
co de</w>
re g
charac teri
connec tion</w>
リ ソース</w>
in al</w>
m l</w>
s ol
ed itor</w>
compon ents</w>
se cur
エ ディ
g lo
0 0
d ent</w>
ma in
回 転</w>
フィ ー
describ ed</w>
自 動</w>
stand ard</w>
er g
sch e
ン グ
qu e</w>
i de</w>
形 式</w>
in k</w>
R O
リ ティ</w>
自 動的</w>
sup por
con struc
ad v
ord in
n on</w>
さ ら
inclu ding</w>
その 他</w>
tech no
stu dy</w>
dimen sion</w>
シ ート</w>
既 存</w>
a ff
sh or
s wit
con stra
m m</w>
si mul
un d</w>
in de
フォー マ
次 元</w>
o s</w>
示 す</w>
c at
l l
m ary</w>
ビ ュー
ロ グ</w>
4 0</w>
li gh
で も</w>
sho wn</w>
cur ren
け れ</w>
c enter</w>
nec ess
新 規</w>
セ クション</w>
dev ice</w>
温 度</w>
fr ame</w>
syste ms</w>
gra m</w>
重 要</w>
du le</w>
ele ments</w>
アニ メ
stat us</w>
3 d</w>
期 間</w>
次 に</w>
in tro
a x
し く</w>
19 9
目 的</w>
ad ing</w>
sho ws</w>
速 度</w>
tar get</w>
さら に</w>
ti s
増 加</w>
li c</w>
environ ment</w>
lo ok</w>
メン バー</w>
she et</w>
treat ment</w>
al i
si ve</w>
rela ted</w>
多 く</w>
h er</w>
li br
am ount</w>
部 分</w>
基 準</w>
stu di
Man ag
mis sion</w>
取 り
ma x
k a
ab o
c le</w>
def ine</w>
tas k</w>
フ ラ
ec u
c ro
pe op
m echan
ta ke</w>
合 わ
e p</w>
go od</w>
se qu
serv ices</w>
il s</w>
co me</w>
cal led</w>
バ ック
た ち</w>
カ ラー</w>
crea sed</w>
up date</w>
res ource</w>
te ly</w>
eng th</w>
lar ge</w>
y ears</w>
ッ ジ</w>
log ical</w>
メ ソ
な けれ</w>
dy nam
deter min
peop le</w>
activ ity</w>
単 位</w>
コン テン
u ti
rec ei
t ant</w>
t an
コンピュ ータ</w>
sc o</w>
ワ ー
effec ts</w>
r an
mess age</w>
ac k</w>
d w
com b
内 容</w>
調 べ</w>
con ver
whe ther</w>
1 2
develop ed</w>
a tive</w>
印 刷</w>
ド ラ
de te
起 動</w>
返 し</w>
メソ ッド</w>
報 告</w>
be ing</w>
診 断</w>
調 整</w>
開 き</w>
一 般</w>
di d</w>
con di
行 い</w>
fin d</w>
t ors</w>
アクティ ブ</w>
ダ ー</w>
z ation</w>
app ears</w>
si tion</w>
ac tions</w>
持 つ</w>
sel f</w>
secon d</w>
エディ タ</w>
jap an</w>
shi p</w>
ッ グ</w>
検 出</w>
j i</w>
d r
m it
du e</w>
フィル タ</w>
bro w
部 品</w>
o w
lo g</w>
plan e</w>
ファ イ
b re
cl ass</w>
regi on</w>
b ility</w>
attribu tes</w>
sign i
患 者</w>
無 効</w>
diag no
ei ther</w>
p p
カ ル</w>
remo ve</w>
stor age</w>
動 作</w>
temp late</w>
pres ent</w>
exp la
ne l</w>
エ クス
ド ライ
クラ ス</w>
b ri
pro d
ta in</w>
lo y
送 信</w>
日 本</w>
retur ns</w>
l ast</w>
t le</w>
結 合</w>
p ul
grou ps</w>
m ach
i led</w>
治 療</w>
ブ ロック</w>
cl as
le a
per son</w>
ア セン
ジュ ール</w>
signi fic
異 なる</w>
provi des</w>
vari ous</w>
ク ロ
characteri s
modi fy</w>
拡 張</w>
e p
cal cul
car ri
反 応</w>
症 例</w>
一 覧</w>
ic k
ター ゲ
si mp
ライ ト</w>
ob served</w>
pro file</w>
cur ve</w>
y o</w>
te g
associ ated</w>
pres s</w>
comp o
geome try</w>
so li
アセン ブ
d d
m or
def ini
u ses</w>
ライ ブラ
キ ー
pre vi
necess ary</w>
決 定</w>
画 像</w>
sho wed</w>
develop ment</w>
en ter
le v
CA D</w>
m er
custo m</w>
st ab
ic ally</w>
direc tory</w>
i p</w>
it al</w>
de red</w>
ev en</w>
コンテン ツ</w>
g ri
out put</w>
ste p</w>
k o
tool s</w>
gener al</w>
ch il
スト レ
ex ecu
変 数</w>
ta k
cor rec
sup p
pro gram</w>
read y</w>
中 心</w>
l ong</w>
ク ライア
at a</w>
ad dition</w>
分 析</w>
tu res</w>
di se
ou s
ワ ード</w>
グ リ
secur ity</w>
基 本</w>
pro po
low er</w>
no te</w>
全 体</w>
pl ic
con duc
試 験</w>
1 6</w>
g en</w>
ロ ー</w>
アイ テ
obta ined</w>
た い</w>
サ ブ</w>
m an</w>
イン スタ
l y
c au
ad di
par ts</w>
s or</w>
シ ミュ
applic ations</w>
0 00</w>
sp e
c ad</w>
mag ne
一 致</w>
マ テ
c our
to tal</w>
cli ent</w>
com man
イ ベ
マテ リア
thou gh</w>
adv an
f lu
am s</w>
合わ せ</w>
wa ys</w>
ch an
v olu
sc ale</w>
k u
bo ard</w>
h and
1 3</w>
ver s</w>
gro und</w>
s k
一 部</w>
our ces</w>
impor t</w>
ch es</w>
ル ギ
in es</w>
ch ing</w>
1 .
材 料</w>
sm all</w>
M L</w>
マ ウ
ル ール</w>
no ti
direc tion</w>
f ec
ディ レ
要 求</w>
ang le</w>
inclu de</w>
か し</w>
高 い</w>
調 査</w>
f requ
アイテ ム</w>
l ength</w>
micro soft</w>
ターゲ ット</w>
sc re
erg y</w>
se par
d ge</w>
vie w
meth ods</w>
t i</w>
st re
ジ オ
リ ュ
assemb ly</w>
ア ン
s ince</w>
ph y
d ers</w>
val id</w>
tran sp
f er
cal cu
共 有</w>
acc ount</w>
ライブラ リ</w>
g es</w>
提 案</w>
eff ici
ク タ</w>
impor tant</w>
) 。</w>
装 置</w>
b en
w all</w>
ク ル</w>
contro l
の で</w>
イン テ
1 5
pat ter
S Q
エ ッジ</w>
al ig
add ress</w>
comp any</w>
ad ded</w>
作 用</w>
is su
pl as
形 成</w>
紹 介</w>
pl an</w>
応 じ</w>
th s</w>
at h</w>
イベ ント</w>
techno logy</w>
v al</w>
materi als</w>
h or
n ment</w>
scri pt</w>
書 き
概 要</w>
6 0</w>
s q
fiel ds</w>
nam es</w>
アド レス</w>
pas s
ら か</w>
the re
検 査</w>
na vi
文 書</w>
vi r
ar ound</w>
en d
セ キュ
st an
押 し</w>
た ら</w>
クト リ</w>
アセンブ リ</w>
an y
E n
平 面</w>
W or
m er</w>
m it</w>
カー ブ</w>
mem bers</w>
inte l</w>
aff ec
proble m</w>
ab led</w>
lo t</w>
b oun
パー ティ
pos sible</w>
基づ い</w>
ラ ベル</w>
f er</w>
インスタ ンス</w>
D e
バ ー
た だ
ま り</w>
表 面</w>
du al</w>
perform ed</w>
se s
pres sure</w>
describ es</w>
en ergy</w>
condi tions</w>
スクリ プト</w>
シ ャ
i i</w>
アニメ ーション</w>
ph ase</w>
b l
M icro
そ う</w>
マ ッ
s ke
w a</w>
ヘ ル
P RO
libr ary</w>
通 常</w>
f ur
nor mal</w>
依 存</w>
ルギ ー</w>
ti s</w>
scen e</w>
am er
high er</w>
イ ド</w>
sy m
exam ined</w>
m ac
ve ment</w>
i li
カ ウ
1 4</w>
instal lation</w>
ス イ
境 界</w>
ディ スク</w>
d ou
完 了</w>
当 該</w>
be ha
re r</w>
リ ー
b lock</w>
ch ron
ぞ れ</w>
それ ぞれ</w>
ディレ クトリ</w>
ジオ メ
fil ter</w>
ドラ ッグ</w>
k i</w>
en tly</w>
メ ッシュ</w>
volu me</w>
ke y
SQ L</w>
glo b
mo tion</w>
げ る</w>
w ard</w>
as h
t um
descri ption</w>
い い</w>
t age</w>
comple te</w>
ど の</w>
ージ ャ</w>
en tation</w>
外 部</w>
in put</w>
proce d
制 限</w>
provi sions</w>
Micro soft</w>
ic on</w>
ピ ング</w>
2 5</w>
duc tion</w>
ータ ー</w>
ティ ング</w>
フェ ース</w>
プロ ファイル</w>
t ter</w>
ク エ
charac ter</w>
ダウ ン
v o
サ ン
e stab
1 6
ma il</w>
max imum</w>
会 社</w>
str ing</w>
ハ イ
b er
d ary</w>
活 性</w>
vie ws</w>
4 5</w>
形 状</w>
完 全</w>
gi ven</w>
off ice</w>
solu tion</w>
lic en
ax is</w>
it u
re spec
以 外</w>
ビ ュ
lo o
ド ロ
cl us
c t</w>
se ver
comman ds</w>
エ ネ
incre ase</w>
abo ve</w>
su cc
イ プ</w>
anim ation</w>
pri se</w>
tim es</w>
開 く</w>
シ ー</w>
run ning</w>
beha vi
collec tion</w>
investig ated</w>
tu p</w>
ca teg
ワー ク
登 録</w>
disc us
p ip
distribu tion</w>
ナ ー</w>
数 値</w>
an ese</w>
cor respon
イン タ
b ed</w>
障 害</w>
E M
ホ スト</w>
sq l</w>
contin u
彼 女</w>
do main</w>
I P</w>
p en
初 期</w>
ア トリ
切 り
r o</w>
si onal</w>
on g
r ing</w>
at ch</w>
characteris tics</w>
ru le</w>
バック アップ</w>
proced ure</w>
pre ce
状 況</w>
sta te
ne e
明 らか</w>
マ ネ
func tions</w>
navi g
エネ ルギー</w>
tr ue</w>
ev ent</w>
適 切</w>
行 わ</w>
シ ン
st ore</w>
i sh
measu re
ex port</w>
be low</w>
al ready</w>
tiv ity</w>
m il
パ ス
距 離</w>
オ フ
amp les</w>
in ten
h um
th o
取 引</w>
2 4</w>
シ ーン</w>
dro p</w>
comm un
wi d
インテ ル</w>
し ょ</w>
inst all</w>
deta ils</w>
v ol
se g
dis k</w>
タ ーン</w>
mes h</w>
レ ット</w>
減 少</w>
x ed</w>
見 つ
p lease</w>
tech ni
contro ls</w>
メ イン</w>
標 記</w>
m app
w el
ビュ ート</w>
jap anese</w>
ho st</w>
s li
1 3
アトリ ビュート</w>
be g
ブ リ
最 適</w>
最 も</w>
シミュ レーション</w>
u se
vari able</w>
st ory</w>
la tes</w>
in divi
lish ed</w>
b lo
qu e
on t</w>
s al
en ted</w>
ー ド
at ors</w>
分 布</w>
is m</w>
ic y</w>
oc cur
ー ション
ed ge</w>
st ri
わ り</w>
ther ap
inde x</w>
グラ フィ
iz e</w>
y es</w>
app ear</w>
carri ed</w>
ロー カル</w>
記 録</w>
sever al</w>
wor king</w>
addi tional</w>
instal led</w>
st ation</w>
fo re
ous ly</w>
defini tion</w>
per s
to m</w>
con centr
ただ し</w>
expres sion</w>
f ying</w>
ru les</w>
mi ght</w>
me t
al ong</w>
受 け</w>
mi c</w>
go t</w>
ang u
auto desk</w>
ア ッ
de n</w>
dise ase</w>
al ized</w>
gu ide</w>
i so
「 ≪</w>
en able</w>
clo se</w>
し かし</w>
kno wn</w>
po se</w>
qu ery</w>
o x
an ci
座 標</w>
ba sic</w>
b al
pl ication</w>
f al
g n
ex tr
イン ター
パ ターン</w>
he ad</w>
dra g</w>
か り</w>
V ie
hy dro
D i
go ver
ブラ ウ
濃 度</w>
ご と</w>
allow s</w>
orig inal</w>
tur al</w>
em d
c er</w>
as h</w>
vi su
la ter</w>
クライア ント</w>
proble ms</w>
den ce</w>
M o
connec t</w>
dynam ic</w>
使 っ</w>
ア ー
L A
elec tro
展 開</w>
simul ation</w>
ステ ータ
コ レ
te red</w>
ス タ</w>
f lo
chang ed</w>
cer ti
sti tu
a der</w>
lis ted</w>
provi ded</w>
保 護</w>
config ure</w>
cu t</w>
e ve</w>
オ フ</w>
inser t</w>
con dition</w>
改 善</w>
ver i
w n
空 間</w>
オ ペ
曲 線</w>
ar ing</w>
と も
lay ers</w>
ho me</w>
r y</w>
tur n</w>
m ine</w>
p al
ste n
re lation</w>
a k</w>
inst ance</w>
crea tes</w>
pol icy</w>
ch a
低 下</w>
安 定</w>
y st
br an
retur n</w>
docu ments</w>
medi a</w>
str y</w>
sur faces</w>
qu ality</w>
O S</w>
t ree</w>
テ スト</w>
li fe</w>
セキュ リティ</w>
フ ロー</w>
P o
dist ance</w>
プ ライ
ボ ード</w>
str ic
da ys</w>
s h</w>
ti l</w>
図 形</w>
aga in</w>
レイ ヤ</w>
me ans</w>
dou ble</w>
マウ ス</w>
フェ イ
d n</w>
u t
Ser ver</w>
カウ ント</w>
向 上</w>
I S
パス ワード</w>
1 8</w>
jo b</w>
ジオメ トリ</w>
許 可</w>
confi r
ac he</w>
gener ation</w>
ful l</w>
brow ser</w>
att ach
w al
最 後</w>
x ml</w>
assign ed</w>
ter nal</w>
cor por
で し</w>
Auto CAD</w>
ステータ ス</w>
s cop
effec tive</w>
h ol
関 連
in creased</w>
PRO D</w>
注 意</w>
解 除</w>
der ing</w>
co st</w>
st ance</w>
角 度</w>
pro g
トラ ン
I I</w>
go ing</w>
magne tic</w>
ビ ジ
produc tion</w>
事 業</w>
produc ts</w>
du ce</w>
un it</w>
measu red</w>
administr ator</w>
per form</w>
組 み
appro pri
c ity</w>
l and</w>
マ ル
Manag er</w>
m uc
auto cad</w>
スペ ース</w>
wid th</w>
グ メント</w>
ス ライ
ロ グ
previ ous</w>
provi de</w>
glob al</w>
ラ ン
クト ル</w>
men tation</w>
3 2</w>
la tions</w>
emd w</w>
直 接</w>
O K</w>
ヘル プ</w>
ac ti
in st</w>
propo sed</w>
グ レ
bo ok</w>
am ong</w>
un til</w>
タイ ム</w>
1 7</w>
p ic
と も</w>
事 項</w>
マテリア ル</w>
A n
t ch</w>
for ce</w>
l angu
セ ンス</w>
言 っ</w>
平 均</w>
rela tion
e very</w>
ad o
アッ ラー</w>
on ce</w>
h er
Auto desk</w>
コ ン</w>
ste ps</w>
in e
A T
な が
r s</w>
remo te</w>
as ing</w>
内 部</w>
両 方</w>
b it</w>
レンダ リング</w>
process ing</w>
a ir</w>
N ame</w>
t or
マ ーク</w>
repor ts</w>
デ ザ
解 決</w>
だ っ</w>
カ テ
z ing</w>
swit ch</w>
prece ding</w>
do wn
sti ll</w>
ren der</w>
il l
ori es</w>
取 り</w>
A d
to p
cl ic
aga inst</w>
a ded</w>
an ces</w>
分 割</w>
pass word</w>
カ ー</w>
po in
comp ared</w>
suppor ted</w>
o t
プロパ ティ
dete c
requ est</w>
li es</w>
m ale</w>
co ordin
re lease</w>
st ant</w>
b as
2 .
モ ジュール</w>
y l
ch em
とも に</w>
on es</w>
m k</w>
back up</w>
qu anti
h ouse</w>
s ample</w>
t un
U R
tas ks</w>
b ar
た し</w>
therap y</w>
lab el</w>
f ail
construc tion</w>
pri mary</w>
な し</w>
i gh
wi z
pr int</w>
マッ ピング</w>
済 み</w>
phy s
同 期</w>
behavi or</w>
1 4
f our</w>
chan nel</w>
x es</w>
dimen sions</w>
アク ション</w>
pro mp
trans fer</w>
セ グメント</w>
tool bar</w>
le ar
ア ル</w>
b in
y am
cle ar</w>
he at</w>
cr yst
クリ ップ</w>
シェ ー
wor ld</w>
1 7
ce l</w>
blo od</w>
pre fec
uti li
cont act</w>
分 子</w>
d re
lis h</w>
mem ory</w>
k yo
タ グ</w>
appropri ate</w>
sa y</w>
実 際</w>
s u</w>
s mo
シ ン</w>
ul ation</w>
custo mi
acc or
th ink</w>
spe ed</w>
ッ チ
ini ti
失 敗</w>
administr ation</w>
z o
proc es
リ ース</w>
パ フォーマ
re vi
muc h</w>
lay out</w>
べ き</w>
c amer
効 率</w>
ス ナ
化 学</w>
com men
プ ル</w>
par ticle</w>
in du
b on</w>
特 徴</w>
studi ed</w>
カスタ ム</w>
ro le</w>
テ クス
ap s</w>
lev els</w>
レ コード</w>
グラ フ</w>
ポリ シー</w>
テ ク
ダイアロ グ</w>
f ree</w>
じ ゃ</w>
organ ization</w>
li sts</w>
ア カウント</w>
ce p
deter mine</w>
カ ル
t ab
loc ated</w>
8 0</w>
ネ ット</w>
d b
sto red</w>
ex ternal</w>
accor ding</w>
ま ま</w>
k es</w>
su gg
簡 単</w>
hy per
R E
comm on</w>
EM C</w>
acc oun
g as</w>
セッ ション</w>
自 分</w>
gener ated</w>
wiz ard</w>
導 入</w>
ケ ット</w>
ar t</w>
固 定</w>
manu fac
su per
ter min
po w
m ass</w>
patter n</w>
al ization</w>
同 様</w>
エクス ポート</w>
equ ip
cir cu
b ur
frequ ency</w>
i de
st age</w>
R A
ワ イ
a ses</w>
k u</w>
カ メ
gro w
ン ト
sa ved</w>
k an
ー ス
と ともに</w>
elec tric</w>
言 語</w>
ステ ップ</w>
頂 点</w>
時 代</w>
pati ent</w>
エ レ
im ages</w>
ウィ ザ
j o</w>
d am
sp ac
ク ロ</w>
ライ センス</w>
拘 束</w>
結 晶</w>
任 意</w>
s n
at s</w>
じ る</w>
遺 伝
遺伝 子</w>
num er
断 面</w>
ses sion</w>
c k</w>
re search</w>
ストレ ージ</w>
S y
advan ced</w>
特 に</w>
grow th</w>
再 生</w>
sh ared</w>
ad ding</w>
da tes</w>
en try</w>
カスタ マイ
構 築</w>
res ources</w>
生 産</w>
o me</w>
al ways</w>
手 法</w>
コ ー
tum or</w>
repres ents</w>
consi dered</w>
recor d</w>
gr ade</w>
on ic</w>
use ful</w>
メ ール</w>
fi g
ズ ム</w>
conta ining</w>
wh y</w>
indivi dual</w>
施 行</w>
( &amp;</w>
calcul ation</w>
N et
ur al</w>
er ing</w>
em c</w>
pub lic</w>
imp le
ネ ス</w>
pac k
ad s</w>
インタ フェース</w>
パ ッ
si mi
buil ding</w>
colum ns</w>
selec ting</w>
ag e
通 知</w>
be li
証 明</w>
se tup</w>
si bility</w>
ma x</w>
C i
カテ ゴ
gri d</w>
st ro
emp er
レ イ</w>
en abled</w>
ウィザ ード</w>
格 納</w>
can cer</w>
uc le
規 則</w>
付 き</w>
s i</w>
k i
inclu des</w>
なが ら</w>
オ ン
pan e</w>
パフォーマ ンス</w>
es ted</w>
ir e</w>
gi ve</w>
fa iled</w>
n on
de li
カスタマイ ズ</w>
par t
フィー チャ
o wn</w>
リ リース</w>
ん な</w>
cl in
clus ter</w>
con tr
う ち</w>
ar ray</w>
de ci
teri a</w>
手 術</w>
替 え</w>
権 限</w>
ナ ビ
リ ア</w>
b an
scre en</w>
線 形</w>
le ts</w>
t ables</w>
bec ame</w>
ful ly</w>
ref lec
so me
ser ies</w>
pho to
tr l</w>
ウ ム</w>
al ed</w>
シ ー
ガ ス</w>
simi lar</w>
c all</w>
マ ー
大き く</w>
differen ce</w>
ac id</w>
リ モ
示 唆</w>
indic ates</w>
観 察</w>
定 める</w>
m us
conta in</w>
form s</w>
se e
lo gi
calcu lated</w>
原 因</w>
ci sco</w>
di g
we e
ra ti
a tely</w>
der i
g s</w>
c m</w>
m y
レ ータ</w>
no des</w>
保 持</w>
ナビ ゲ
フェイ ス</w>
depen dent</w>
en o
サ ー</w>
ed iting</w>
以 前</w>
メ モ
enter prise</w>
licen se</w>
succ ess
fac tor</w>
2 1</w>
表 す</w>
con ven
l it
実 施</w>
カ ット</w>
conten ts</w>
ブラウ ザ</w>
テクス チャ</w>
lin ear</w>
開 い</w>
er ci
mechan ism</w>
h al
jec tion</w>
さ ん</w>
予 測</w>
cur ves</w>
mo dule</w>
運 動</w>
connec ted</w>
A P</w>
製 造</w>
pur su
ren g
charac ters</w>
str ation</w>
fil m</w>
st ress</w>
m ouse</w>
requi re
イン デ
pro gr
av a</w>
expla ined</w>
tri es</w>
anci al</w>
olu tion</w>
c la
ジ ャ
emper or</w>
停 止</w>
al low</w>
酸 化</w>
mach ine</w>
検 証</w>
ニ ング</w>
clic king</w>
そ して</w>
re ve
ap ter</w>
A c
合 成</w>
請 求</w>
が た</w>
con cer
d a</w>
メ ディ
d ru
curren tly</w>
相 互</w>
na tional</w>
hum an</w>
as sign</w>
inf lu
掲 げる</w>
un its</w>
exp ec
だ ろ</w>
認 証</w>
ca use</w>
h and</w>
dev ices</w>
密 度</w>
reco gn
g ed</w>
有 意</w>
電 気</w>
ha ving</w>
langu age</w>
ke ep</w>
ili ties</w>
bo t
起 こ
ar ds</w>
オフ セット</w>
i on</w>
イ オン</w>
そ れら</w>
to o</w>
プロ セッ
配 列</w>
スイ ッチ</w>
hi story</w>
speci al</w>
en tic
l or
t ang
コレ クション</w>
s cho
ac hi
am es</w>
レイ アウト</w>
mat ch</w>
6 4</w>
re view</w>
op ti
抽 出</w>
su l
精 度</w>
ガ イド</w>
plac ed</w>
there fore</w>
1 9</w>
正 常</w>
off set</w>
応 答</w>
temp le</w>
く れ</w>
最 小</w>
hi c</w>
リ ン</w>
カメ ラ</w>
measure ment</w>
日 付</w>
関連 付け</w>
呼 び
あ る
分 類</w>
m ic
強 度</w>
syn chron
ボ リュ
st reng
ac y</w>
と こ
抑 制</w>
emp loy
サ ブ
キャ ッシュ</w>
oper ations</w>
発 行</w>
階 層</w>
ch ed</w>
simp le</w>
exp lo
re as
m ed</w>
techni que</w>
t al
ボリュ ーム</w>
intro duced</w>
re al</w>
en ables</w>
ge ts</w>
神 経</w>
k a</w>
求 め</w>
fi er</w>
posi tive</w>
カテゴ リ</w>
re pe
inter nal</w>
tex ture</w>
pur pose</w>
den sity</w>
チ ュー
bo o
b el
an tly</w>
al though</w>
方 式</w>
pre ci
partic les</w>
ル ス</w>
ビ ット</w>
mode ls</w>
mo lec
meas ures</w>
st e</w>
療 法</w>
f re
記 号</w>
考 慮</w>
I N
除 去</w>
vi de
o le</w>
b ul
mess ages</w>
w are</w>
direc tly</w>
ex change</w>
実 現</w>
っ と</w>
2 3</w>
graph y</w>
投 与</w>
画 面</w>
活 動</w>
ファ ミ
an ts</w>
imp er
th ir
ta x</w>
oper ating</w>
so le</w>
b est</w>
ac cur
ari es</w>
respon se</w>
単 一</w>
we ight</w>
性 能</w>
chang ing</w>
s a</w>
い く
sty les</w>
pa y
al le
g on
ter m</w>
equip ment</w>
fu ture</w>
ver age</w>
l ity</w>
reg ar
cr mk</w>
アウ ト
dri ve</w>
ear ly</w>
と おり</w>
統 合</w>
gr ation</w>
al ter
pursu ant</w>
b on
スケ ッチ</w>
成 長</w>
エレ メント</w>
安 全</w>
l on
pa rent</w>
9 0</w>
exam ination</w>
地 域</w>
d one</w>
om a</w>
p ed</w>
与 え</w>
inclu ded</w>
ッ ド
open s</w>
re action</w>
Vie w</w>
sto p</w>
M A
サン プル</w>
d ated</w>
い は</w>
グ ロー
g ing</w>
グリ ッド</w>
マネ ージャ</w>
よ く</w>
bot tom</w>
camer a</w>
plan ning</w>
deta il</w>
kyo to</w>
c in
categ ory</w>
c ache</w>
動 脈</w>
契 約</w>
2 2</w>
アイ コ</w>
state ment</w>
パッ ケ
ti tle</w>
pro v
man age</w>
te x</w>
me d
star ted</w>
係 数</w>
nam ed</w>
d ings</w>
c ou
S C
ro om</w>
連 続</w>
v ec
sequ ence</w>
evalu ation</w>
in ste
ex clu
大き な</w>
h app
inter net</w>
mapp ing</w>
concentr ation</w>
soli d</w>
粒 子</w>
記 述</w>
he ight</w>
g l
Ser v
im k</w>
7 0</w>
auth or
certi fic
ther mal</w>
g ate</w>
2 5
ソ ル</w>
he al
に対 し</w>
ig n</w>
sym bo
w in
ini tial</w>
ド メイン</w>
受 信</w>
rati o</w>
form ed</w>
prefec ture</w>
mas ter</w>
an i
wor ks</w>
form ul
ナ ル</w>
direc t</w>
機 構</w>
ある いは</w>
ne u
po ten
i se</w>
auth entic
ag ing</w>
repor ted</w>
pip e</w>
pro to
手 動</w>
加 え</w>
20 00</w>
グロー バ
19 8
for th</w>
cau sed</w>
an no
phys ical</w>
n ucle
ac tual</w>
ro ws</w>
出 す</w>
承 認</w>
ラ ー
レ ンス</w>
ch e
キ シ
ed ges</w>
min is
ジ ン</w>
とこ ろ</w>
番 目</w>
クラ スタ</w>
sur ve
T o
me an</w>
fi c</w>
con text</w>
ん ど</w>
s ent</w>
sh r
; &amp;</w>
レ ート</w>
ar row</w>
si on
エン トリ</w>
b it
inv en
も う</w>
visu al</w>
ho sp
vi ties</w>
ar ly</w>
h i</w>
re commen
correc t</w>
lin ks</w>
la h</w>
ドライ ブ</w>
c ore</w>
dimen sional</w>
cro ss</w>
num bers</w>
n er
al l
ル ー
constra int</w>
chem ical</w>
yo sh
に 従
品 目</w>
インデ ックス</w>
m p</w>
ter ing</w>
マ ニ
分 かっ</w>
ag ent</w>
y l</w>
determin ed</w>
bec ome</w>
a ter</w>
E ss
imper ial</w>
er arch
役 割</w>
いく つ</w>
w om
meas ure</w>
are as</w>
p lo
ke ys</w>
de si
ビジ ネス</w>
men t
en s</w>
diagno sis</w>
relation ship</w>
inste ad</w>
cl ari
ar gu
in side</w>
持 っ</w>
ne w
wr it
sh ip
ma tic</w>
z one</w>
pl u
フォーマ ット</w>
優 先</w>
Ci sco</w>
is h</w>
S T
維 持</w>
in ci
書 き</w>
back ground</w>
al lah</w>
ン ネル</w>
ほ と
パッケ ージ</w>
ツ リー</w>
メディ ア</w>
li er</w>
l ac
boun dary</w>
デ ィ</w>
m i</w>
示 さ</w>
our s</w>
X ML</w>
( )</w>
b or
wa ve</w>
mul ti</w>
to ge
de cre
signific antly</w>
ほと んど</w>
char ge</w>
be tter</w>
異 常</w>
ビュー ポート</w>
chil d</w>
ビ デ
p lay
electr on</w>
) &amp;</w>
toge ther</w>
ハ ード
b loc
解 説</w>
ol s</w>
trac k</w>
一 方</w>
li qu
correspon ding</w>
順 序</w>
th ick
N A</w>
reco very</w>
通 信</w>
k top</w>
) 、</w>
vide o</w>
カ ード</w>
ex por
C o
automa tic</w>
or t</w>
疾 患</w>
r ic
分 離</w>
re ma
認 識</w>
follow s</w>
s an
proces ses</w>
impro vement</w>
o xi
hi erarch
フィー チャ</w>
fol low</w>
n m</w>
ジョ ブ</w>
蛋 白</w>
re st</w>
a ti
ro ot</w>
垂 直</w>
従 来</w>
ア ップ
矢 印</w>
as ter</w>
su ff
転 送</w>
st and</w>
ver se</w>
ス キ
c ing</w>
ma ya</w>
加 工</w>
し よ</w>
o h</w>
ジェ クト
以 降</w>
で しょ</w>
ー ム
li mit</w>
clas si
引 き
閉 じ</w>
エン ティ
t on</w>
pres ented</w>
confi gu
ma king</w>
inv ol
経 過</w>
その 後</w>
0 1</w>
shor t</w>
oc cu
sec tions</w>
サイ クル</w>
hor iz
feren ce</w>
ロ ジ
ポ ジ
work space</w>
cour t</w>
込 む</w>
fig ure</w>
qu es
エ フェ
コ スト</w>
引 数</w>
女 性</w>
ブ レ
C T</w>
e ver
sen si
sta tic</w>
j i
間 隔</w>
writ ten</w>
ピ ック</w>
セン ター</w>
tr a</w>
j un
symbo l</w>
ル ート</w>
vi sible</w>
g od</w>
A p
un d
c o</w>
a ir
k o</w>
ac ro
小 さ
、 &amp;</w>
ポリ ゴ
discus sed</w>
me tal</w>
o th
合 計</w>
b s</w>
ー ズ</w>
応 力</w>
p ing</w>
o s
ti me
h old</w>
fi xed</w>
streng th</w>
ea si
gener ate</w>
ロ ール
S D
e f
リモ ート</w>
grap hic</w>
experi mental</w>
re li
fil l</w>
V i
require ments</w>
res olution</w>
ma ted</w>
k am
me tric</w>
Ess base</w>
su b</w>
lit tle</w>
e as
re tri
scri p
vir tual</w>
m ers</w>
al lo
本 当
custo mer</w>
ce pt</w>
推 定</w>
m and</w>
込 ま</w>
signific ant</w>
a y</w>
ur a</w>
seg ment</w>
li g
P I</w>
tan e
mat ters</w>
e ts</w>
シェ イプ</w>
enti re</w>
アイ コン</w>
S E
recor ds</w>
ハ ンド
ne ver</w>
2 00</w>
スタ ー</w>
ame ter</w>
al g
A C
trans action</w>
スケ ール</w>
D W
プロ ー
o re
at temp
ref er
c ab
ro t
up on</w>
S t
cl an</w>
be am</w>
わ れ</w>
十 分</w>
p ages</w>
tur ing</w>
識 別</w>
変 形</w>
sche dule</w>
en sure</w>
ヤ ー</w>
メ タ
wr ite</w>
ファ レンス</w>
bec om
S u
mon ths</w>
及 ぼ
pre scri
仮 想</w>
C ol
物 質</w>
n at
fi t</w>
radi us</w>
f le
cri teria</w>
移 行</w>
fi ve</w>
nor m
大き い</w>
wi re</w>
process or</w>
ever y
up per</w>
n it
dra w
コント ロー
out line</w>
y ea
ap e</w>
コン テキスト</w>
in spec
理 論</w>
本当 に</w>
e ver</w>
gover nment</w>
i ds</w>
m ber</w>
lo aded</w>
b one</w>
天 皇</w>
I P
回 路</w>
ダウン ロード</w>
発 現</w>
O ff
at ory</w>
分 解</w>
ma j
u te</w>
fin ancial</w>
scho ol</w>
si tes</w>
poly g
in struc
exce pt</w>
modi fied</w>
表 し</w>
ske tch</w>
mar k
shor t
ce ment</w>
臨 床</w>
e u
ほ か</w>
rela tive</w>
h t
dre n</w>
clin ical</w>
partic ular</w>
ac ity</w>
ele v
ト レ
カー ソル</w>
入 れ</w>
時 に</w>
el er
thir d</w>
. 0</w>
inf ec
キャ ン
エンティ ティ</w>
品 質</w>
configu red</w>
mar k</w>
sur g
表 現</w>
z er
8 4</w>
C O
相 関</w>
re duction</w>
ユー ティ
in duced</w>
I D
de mon
ag re
tic es</w>
app ear
yea h</w>
該 当</w>
ほ ど</w>
ト ップ</w>
acti vities</w>
ラ ク
plas ma</w>
sh are</w>
jo int</w>
ショ ート
dw are</w>
意 味</w>
reve aled</w>
at ten
ser vers</w>
P D
v ent</w>
horiz on
radi ation</w>
さ ま
impro ved</w>
繰 り
op tional</w>
シン ボ
estab lished</w>
ver tical</w>
In ter
術 後</w>
co l</w>
観 測</w>
prote in</w>
正 確</w>
it ation</w>
cur sor</w>
depen ding</w>
chil dren</w>
業 務</w>
fal se</w>
警 告</w>
out side</w>
so meth
ま っ</w>
lon ger</w>
過 程</w>
cri pt</w>
わ たし</w>
fur ther</w>
grap h</w>
ex amples</w>
minis ter</w>
圧 力</w>
セ ット
ri s
de st
f f</w>
ざ ま</w>
cer tain</w>
i a</w>
m in</w>
呼 ば</w>
ro ll
因 子</w>
c d</w>
us u
ta g</w>
th re
someth ing</w>
上 げ</w>
グレ ード</w>
sch em
op tical</w>
パ ブリ
有 する</w>
さま ざま</w>
wi se</w>
en han
同 時に</w>
ar is</w>
ro tation</w>
金 属</w>
med ical</w>
感 染</w>
mi ted</w>
転 移</w>
tu m</w>
graph ics</w>
o th</w>
プレ ビュー</w>
wor ds</w>
コンピュ ーター</w>
control ler</w>
物 理</w>
pro jects</w>
w le
wh ose</w>
高 速</w>
br a
ta tions</w>
prov ince</w>
thick ness</w>
理 由</w>
comp res
プロ ト
re stric
Ma ya</w>
cre ation</w>
por ts</w>
Wor ker</w>
グローバ ル</w>
bi o
ビ ティ</w>
E d
supp ly</w>
記 載</w>
constra ints</w>
erro rs</w>
e y</w>
c a</w>
fail ure</w>
共 に</w>
it ory</w>
プリ ン
tran sition</w>
正 しく</w>
チ ン</w>
char t</w>
ち ら</w>
oper ator</w>
s ou
struc tures</w>
bi le</w>
ori th
pa int</w>
付 ける</w>
di o</w>
京 都</w>
振 動</w>
l at
置 換</w>
a verage</w>
uni que</w>
networ ker</w>
中 央</w>
コ ネ
ス プレ
con sole</w>
ユ ニ
成 形</w>
拡 大</w>
ピ ン</w>
s end</w>
係 る</w>
Net Worker</w>
t ol
gen e</w>
t ag
圧 縮</w>
ダ ブル</w>
inv o
car cin
des ktop</w>
ren dering</w>
ess base</w>
ファミ リ</w>
抵 抗</w>
企 業</w>
uti lity</w>
lor d</w>
読み 込み</w>
gon na</w>
exp an
min imum</w>
m d
indic ate</w>
dep loy
b lu
ま だ</w>
produc ed</w>
p lay</w>
p tions</w>
L i
alg orith
fac tors</w>
プロ ン
ウ ォ
ad ju
har dware</w>
書 式</w>
tre ated</w>
s d
受 け
indu stry</w>
vi s
at o
f s</w>
te ll</w>
信 頼</w>
vi a</w>
crea ses</w>
Manag ement</w>
par ti
le ast</w>
um in
ve red</w>
演 算</w>
非 常</w>
負 荷</w>
ri gh
Po int</w>
か る</w>
fr ont</w>
a way</w>
enti ty</w>
s qu
S h
a y
コ ール</w>
切 除</w>
べ る</w>
dri ver</w>
ベ ン
ダ クト</w>
成 分</w>
デザ イン</w>
半 径</w>
star ting</w>
ダウ ン</w>
na p</w>
nee ded</w>
め て</w>
do m</w>
ショート カット</w>
固 有</w>
speci ally</w>
C h
m ation</w>
view port</w>
ウ ンド</w>
; 、&amp;</w>
ne ga
de creased</w>
referen ces</w>
モ ニ
la ser</w>
pl at
pre view</w>
ン プ</w>
wh ole</w>
r a</w>
ch in
di ameter</w>
pre dic
交 換</w>
7 5</w>
su g
il lu
ab sor
i el
in hi
デ スク</w>
b a</w>
お 前</w>
3 5</w>
recogn ized</w>
exten sion</w>
M S</w>
異 なり</w>
に従 って</w>
程 度</w>
cr yp
speci es</w>
最 近</w>
パーティ クル</w>
ch ro
B u
ref er</w>
s itu
ビデ オ</w>
c s</w>
serv ation</w>
バ ック</w>
to k
に関 して</w>
一 つ</w>
in valid</w>
常 に</w>
リ ズム</w>
tak en</w>
法 律</w>
ste red</w>
a i</w>
respec tively</w>
comple x</w>
荷 重</w>
x y</w>
ケ ーブル</w>
電 流</w>
sta tes</w>
mo d
mi dd
最 新</w>
シンボ ル</w>
c are</w>
最 終</w>
prescri bed</w>
ite c
sh ado
contin ue</w>
opti mi
s ter</w>
T yp
vie wing</w>
con stant</w>
dep th</w>
al ing</w>
tr af
d den</w>
over ri
違 い</w>
fr ames</w>
fil ms</w>
アル ゴ
resi stance</w>
m ol
ter ms</w>
テ ーション</w>
es is</w>
on line</w>
exi st</w>
基づ く</w>
kno wle
sum mary</w>
反 射</w>
par alle
v ault</w>
N A
2 8</w>
pal et
及ぼ す</w>
ad mini
顧 客</w>
カ タ
フ ト</w>
ブ ック</w>
プロン プト</w>
ord ers</w>
veri fy</w>
id ation</w>
専 用</w>
effici ent</w>
mis sions</w>
フォ ント</w>
fe male</w>
考 察</w>
2 7</w>
電 話</w>
ex erci
tiv es</w>
gre ater</w>
p d
r ro
da i
us h</w>
血 管</w>
attach ed</w>
re gu
detec ted</w>
収 集</w>
5 00</w>
expec ted</w>
stan ding</w>
ul l</w>
t on
or i</w>
temp or
sche du
centr al</w>
b and</w>
割り当 てる</w>
po st</w>
indic ated</w>
ori entation</w>
duc t</w>
理 解</w>
つ まり</w>
こ う</w>
gre at</w>
acro ss</w>
D at
メモ リ</w>
fic ations</w>
remo ved</w>
ま ず</w>
as hi
ティ ブ</w>
tu ally</w>
得 る</w>
vi l</w>
comb ination</w>
midd le</w>
2 6</w>
li mited</w>
m al
fi x</w>
ト ピック</w>
draw ings</w>
equ i
t a</w>
conduc ted</w>
機 械</w>
f ine</w>
pack age</w>
zer o</w>
T I
n d</w>
tr u
フィーチャ ー</w>
of ten</w>
am in
パ レット</w>
す い</w>
ロ ン</w>
nega tive</w>
bas is</w>
authentic ation</w>
分 散</w>
nee ds</w>
あ ろ</w>
repres en
in er</w>
pro p
car di
ma kes</w>
2 d</w>
ソ リュ
refer red</w>
応 用</w>
sal es</w>
S e
e ved</w>
as si
チャ ネル</w>
す ぐ</w>
f low
fol ders</w>
th an
wi de</w>
ad just</w>
exp and</w>
becom es</w>
f la
ev ents</w>
ne ar</w>
prin ci
監 視</w>
ソリュ ーション</w>
仕 様</w>
pre pa
所 見</w>
quanti ty</w>
mit ted</w>
comp ari
mi a</w>
coordin ate</w>
e specially</w>
d ation</w>
計 測</w>
吸 収</w>
lin ked</w>
f ri
バ ッ
se en</w>
sy mp
L o
buil d</w>
ス キー
en do
c ard</w>
t ren
有 用</w>
dest ination</w>
世 界</w>
clo sed</w>
要 件</w>
ver sions</w>
生 じ</w>
or ing</w>
カ イ
hal f</w>
信 号</w>
connec tions</w>
ok ay</w>
各 種</w>
t rou
traf fic</w>
surve y</w>
ge t
con version</w>
str ate</w>
ste el</w>
shi ft</w>
描 画</w>
明 細</w>
予 定</w>
商 品</w>
tion ed</w>
コントロー ラ</w>
b y
S elec
con tribu
ハイ ライト</w>
desi red</w>
リン グ
app e
separ ate</w>
di dn</w>
sp here</w>
知 っ</w>
ly mp
buil t</w>
corpor ation</w>
キ ュー</w>
loc ity</w>
3 1</w>
アルゴ リズム</w>
段 階</w>
do min
言 う</w>
O b
lo ading</w>
it able</w>
l un
pow er
manu ally</w>
ディ ング</w>
タ ル</w>
ポー ト
en tered</w>
h ard</w>
C D</w>
tran si
col ors</w>
kin d</w>
リ カ
rec ent</w>
ab ly</w>
電 力</w>
ste m</w>
あ れ</w>
イン ター</w>
L E
lo ss</w>
ル ータ</w>
ex c
沿 っ</w>
s w
m r</w>
電 源</w>
sa fe
hi de</w>
h on
機 関</w>
l ap
ra m</w>
horizon tal</w>
recei ved</w>
e ty</w>
cli p</w>
prote ction</w>
個 別</w>
tion ally</w>
ど こ</w>
s m</w>
ログ イン</w>
fre e
M P</w>
re ally</w>
in et</w>
n u
と 共に</w>
o d
e pi
試 料</w>
s ted</w>
li ver</w>
evalu ated</w>
コ ア</w>
- -</w>
ゅ う</w>
変 動</w>
マ クロ</w>
progr ams</w>
m oun
work flow</w>
th y</w>
容 量</w>
occur red</w>
cy cle</w>
施 設</w>
struc tural</w>
Off ice</w>
solu tions</w>
noti ce</w>
スケ ジュール</w>
liqu id</w>
透 明</w>
appear ance</w>
sta tis
compo sition</w>
ex tre
トラ ック</w>
gr an
s l
スペ クトル</w>
水 平</w>
mon it
与 える</w>
w o
se n</w>
P C</w>
im medi
suppor ts</w>
form er</w>
e red</w>
prog ress</w>
th us</w>
requi res</w>
m ing</w>
to my</w>
多 い</w>
formul a</w>
含 める</w>
. 1</w>
gr ad
比 べ</w>
mo ving</w>
大 臣</w>
ラ ム</w>
自 由</w>
200 7</w>
基 礎</w>
diff ic
波 数</w>
スキー マ</w>
exi sts</w>
pro mo
ag ed</w>
免 疫</w>
up dates</w>
fore ign</w>
cab inet</w>
def ines</w>
テク ノ
傾 向</w>
注 釈</w>
か つ</w>
上 昇</w>
decre ase</w>
ad ap
な さい</w>
eng ine</w>
maj or</w>
彼 ら</w>
I OS</w>
occur s</w>
s p</w>
de ath</w>
conver t</w>
し く
incre asing</w>
ア ミ
所 有</w>
repor ting</w>
ta ining</w>
dele ted</w>
the ory</w>
pre ven
ox y
retur ned</w>
cha in</w>
個 人</w>
c p</w>
置 き
fe w</w>
h u
re plication</w>
男 性</w>
th in</w>
S ha
sk in</w>
C S</w>
C A</w>
certific ate</w>
con f
de mand</w>
sign al</w>
w ent</w>
affec ted</w>
実 装</w>
rou ter</w>
な く
re place</w>
ア タ
P E
アクティ ビティ</w>
cour se</w>
s amples</w>
か 月</w>
ペ イント</w>
合 せ</w>
C P</w>
val ent</w>
C re
パ ー</w>
向 け</w>
up dated</w>
inf ra
フ ァ</w>
scop e</w>
a z
背 景</w>
paralle l</w>
identi fy</w>
tu red</w>
オン ライン</w>
ス ク
st op
flu id</w>
コマ ンド
sho t</w>
勘 定</w>
シェー ダ</w>
A S
1 40</w>
au to</w>
de g
heal th</w>
D ata</w>
j ur
メン バ</w>
マル チ
temp lates</w>
c able</w>
eng ine
N e
pr ac
O ut
U V</w>
h ours</w>
w an
ダイ ナ
concer ning</w>
m en</w>
arch i
ho le</w>
dru g</w>
top ic</w>
lin e
form at
do ing</w>
plac ement</w>
rou te</w>
tol er
navig ation</w>
plu g</w>
D E
前 項</w>
obta in</w>
gen e
x r</w>
compari son</w>
we b
ア ラ
i ed</w>
in ning</w>
mi x
fr ac
置き 換
li t</w>
Typ e</w>
周 波数</w>
症 状</w>
su n</w>
cat aly
今 後</w>
flo or</w>
ト ル</w>
co m</w>
promp t</w>
m un
h in
自 己</w>
ba se
conven tional</w>
ce re
ゾ ーン</w>
ve locity</w>
しく は</w>
v ity</w>
T i
伴 う</w>
e di
mechan ical</w>
commun ication</w>
用 いる</w>
定 数</w>
A r
vec tor</w>
インター ネット</w>
高 度</w>
loc ations</w>
str u
ar ti
c ent</w>
わ かっ</w>
個 々</w>
col li
切り 替え</w>
te sts</w>
パ イ
ec on
analy zed</w>
ドロ ップ
cri tical</w>
高 く</w>
パ ケット</w>
a te
複 合</w>
ユーティ リティ</w>
D I
照 射</w>
ど う
poten tial</w>
監 査</w>
po pu
fi es</w>
prepa red</w>
fa ther</w>
trans actions</w>
p ass</w>
S A
線 分</w>
投 影</w>
p e</w>
複 雑</w>
si a</w>
既 に</w>
準 備</w>
fin al</w>
consi der
ch i
ペ ース</w>
explo rer</w>
design ed</w>
effici ency</w>
shap es</w>
ser ve</w>
alig nment</w>
comple ted</w>
suff ici
t su
re duced</w>
comp ati
hosp ital</w>
con soli
カタ ログ</w>
n ers</w>
規 模</w>
溶 接</w>
ri x</w>
cap acity</w>
年 間</w>
t ori
S cript</w>
D o
混 合</w>
流 れ</w>
la un
yam a</w>
c d
テ ナ</w>
exerci se</w>
u sion</w>
manufac turing</w>
tis su
す れ</w>
添 加</w>
学 習</w>
) :</w>
par ty</w>
secon dary</w>
cat alog</w>
car bon</w>
UR L</w>
confir med</w>
pro b
ac le
ph one</w>
限 り</w>
issu e</w>
th ro
deg ree</w>
fac t</w>
H T
ベ クトル</w>
f ont</w>
リ ジ
sh in
繰り 返し</w>
av o
ダイナ ミ
200 3</w>
ラ クタ</w>
oth ers</w>
s mar
e y
cal end
re duce</w>
2 9</w>
ペ イン</w>
n ur
us h
pri v
e ding</w>
プロ シ
s nap</w>
法 人</w>
a i
re al
パ イプ</w>
plac es</w>
palet te</w>
上 部</w>
dig ital</w>
資 源</w>
proto col</w>
tech n
vari ables</w>
execu tion</w>
ソ リ
仕 事</w>
re pos
hierarch y</w>
ti n</w>
deri ved</w>
re in
z y
ス プ
algorith m</w>
c ame</w>
f ast</w>
課 題</w>
regi ons</w>
Con tro
er o
func tion
de bu
mo bile</w>
arch itec
3 3</w>
mode ling</w>
P lan
o de</w>
ロジ ー</w>
du res</w>
対 策</w>
s r
Ed itor</w>
mon itor</w>
ac cep
S S</w>
p ec
acc eler
knowle dge</w>
acc es
6 5</w>
ke ts</w>
circu it</w>
en ds</w>
fin dings</w>
bo xes</w>
accoun ts</w>
p lot</w>
ligh ts</w>
transp a
ミ ング</w>
チャ ンネル</w>
gu e</w>
エフェ クト</w>
ウ イ
進 行</w>
success fully</w>
ar s</w>
I S</w>
4 8</w>
知 ら</w>
sup pres
マニ ュ
e e</w>
s ources</w>
ト ン</w>
" "</w>
z z
equ al</w>
a c</w>
集 計</w>
小 さい</w>
thou ght</w>
pic ture</w>
ラ ス</w>
per missions</w>
ver tex</w>
コン ソ
u ary</w>
水 素</w>
influ ence</w>
そ こ</w>
cor ner</w>
B S</w>
レー ザ</w>
sa ving</w>
proce dures</w>
hand le</w>
低 い</w>
ハード ウェア</w>
previ ously</w>
n or</w>
main ly</w>
ro ll</w>
vi si
pa ir</w>
ッシ ュ
ten ance</w>
duc es</w>
良 い</w>
数 量</w>
キャ ラクタ</w>
ヘ ッ
er al</w>
N E
sh u
R ec
ドロ ップ</w>
L O
電 圧</w>
se t
que ue</w>
U n
容 易</w>
lea ve</w>
recei ve</w>
th ings</w>
L E</w>
spac es</w>
組み 合わせ</w>
impro ve</w>
成 功</w>
oxi de</w>
ad ds</w>
dra w</w>
schem a</w>
ア ダ
プラ ズ
appli es</w>
gu n</w>
統 計</w>
ter y</w>
di es</w>
down load</w>
エン ジン</w>
lab or
activ ate</w>
determin es</w>
オー バー
モ ディ
ポ イン
関 節</w>
連 絡</w>
リ ティ
ユニ ット</w>
3 00</w>
por tion</w>
供 給</w>
en e</w>
di ed</w>
molec ular</w>
接 触</w>
Serv ices</w>
nat ural</w>
プロト コ
履 歴</w>
モディ ファイ
z es</w>
up grade</w>
f es
prote c
lar ger</w>
受 ける</w>
carcin oma</w>
ang e</w>
e li
al most</w>
u x</w>
re store</w>
p ick</w>
金 額</w>
open ing</w>
流 体</w>
in jection</w>
ど ちら</w>
年 度</w>
ch i</w>
プロセッ サー</w>
or ity</w>
allow ed</w>
cu s</w>
c ount</w>
相 対</w>
righ ts</w>
exten ded</w>
eas y</w>
価 格</w>
ou gh</w>
無 視</w>
ショ ット</w>
e sts</w>
原 子</w>
リ ファレンス</w>
含 め</w>
優 れ</w>
スナ ップ
オペ レー
ボ ン</w>
ul ts</w>
ci es</w>
requ ire</w>
no ise</w>
3 .
客 様</w>
お 客様</w>
prin ter</w>
支 援</w>
t p</w>
共 通</w>
pl ant</w>
v it
pre par
ac ts</w>
V ault</w>
sc i
確 立</w>
res h</w>
s ound</w>
b atch</w>
m aps</w>
ク ル
S S
cap ture</w>
um p</w>
A cc
酸 素</w>
expla ins</w>
エ ー
per mission</w>
bu d
暗 号</w>
プロシ ージャ</w>
ょ う</w>
gra ted</w>
qu ick
tr ust</w>
ex po
feren ces</w>
mu t
du plic
u tes</w>
わ る</w>
regi stration</w>
do es
ドロップ ダウン
尺 度</w>
プラ ット
チ ップ</w>
wh ite</w>
vol tage</w>
目 標</w>
か も</w>
affec t</w>
man ip
main tenance</w>
butt ons</w>
機 器</w>
一 定</w>
ip ed</w>
P M</w>
書き 出し</w>
スナ ップ</w>
equi valent</w>
com ing</w>
A D
does n</w>
safe ty</w>
per cen
bu ff
uni ver
oun ds</w>
sh ader</w>
st able</w>
b il
磁 気</w>
esti mated</w>
pi x
qu i
mus cle</w>
j us
control led</w>
appro ach</w>
ゲ ート</w>
F or
f it
organ iz
chec k
正 しい</w>
k il
lab els</w>
studi es</w>
j ava</w>
) )</w>
ブ ル
ch apter</w>
noti fication</w>
出 さ</w>
res ses</w>
impor ted</w>
bloc ks</w>
保 険</w>
バ ル
設 置</w>
ポリゴ ン</w>
mi rro
assign ment</w>
設 備</w>
コンソ ール</w>
co ol
誘 導</w>
experi ment</w>
除 外</w>
tur ned</w>
し か</w>
as s
わ ら</w>
アタ ッチ</w>
en tries</w>
ジェ ント</w>
qu ick</w>
マ シン</w>
o ther
リ ポジ
li m
bo ot</w>
C u
d ents</w>
ur l</w>
me ta
交 差</w>
p c</w>
emp ty</w>
形 態</w>
re ly</w>
レー ション
ten t</w>
, 000</w>
アダ プ
スライ ド</w>
issu es</w>
im mu
under stand</w>
cu lar</w>
抗 体</w>
複 製</w>
ピ ク
主 要</w>
プロトコ ル</w>
能 力</w>
stre am</w>
ordin ance</w>
cau ses</w>
st ment</w>
ティ ング
chec ked</w>
trans lation</w>
リン パ</w>
repos itory</w>
ag a</w>
sor t</w>
挙 動</w>
除 く</w>
トラン ザ
deta iled</w>
切 断</w>
経 済</w>
t ance</w>
支 払</w>
必 ず</w>
レイ ヤー</w>
カ ン
sub ject</w>
vi le
ex trac
クエ リ</w>
con clu
e ting</w>
immu no
方 程
方程 式</w>
プラズ マ</w>
ni ght</w>
や っ</w>
に て</w>
テ ー
ht ml</w>
config uring</w>
admini stra
agre ement</w>
多 数</w>
y oun
mem bran
T E
k ok
一 時</w>
我 々</w>
electr ical</w>
sp lit</w>
reas on</w>
バ リ</w>
ag gre
consi sten
hi sto
冷 却</w>
勾 配</w>
ra ther</w>
C om
B o
mat rix</w>
良 好</w>
付 い</w>
easi ly</w>
重 複</w>
C trl</w>
スト リ
res ol
re lev
i um</w>
custo mers</w>
to ok</w>
ter al</w>
numer ical</w>
fer red</w>
loc ate</w>
S I</w>
argu ment</w>
to po
cryst al</w>
cor relation</w>
re set</w>
li p
単 純</w>
lop e</w>
lo ads</w>
sh are
通 貨</w>
no tes</w>
ル ープ</w>
対 称</w>
人 間</w>
拡 散</w>
返 さ</w>
陽 性</w>
fin ish</w>
現 象</w>
スト ア</w>
si l
we igh
short cut</w>
レ ジ
増 大</w>
dis co
tro p
tra ining</w>
provi der</w>
レンダ ー</w>
も つ</w>
m es</w>
ta king</w>
代 わり</w>
b ir
g a</w>
sugg est</w>
プリン タ</w>
c trl</w>
customi ze</w>
environ mental</w>
わ っ</w>
na tive</w>
cy lin
平 成</w>
tak es</w>
me an
min utes</w>
s we
思 わ</w>
over view</w>
D NA</w>
zo om</w>
instruc tions</w>
ボ ディ</w>
か け</w>
pay ment</w>
リ セット</w>
y u
ゼ ロ</w>
curren cy</w>
calend ar</w>
ran k</w>
全 て</w>
ph eno
* *</w>
Di rec
3 0
破 壊</w>
li ste
回 復</w>
men ted</w>
pri or</w>
トランザ クション</w>
す で
datab ases</w>
si x</w>
タイ トル</w>
E dit</w>
p la
F S</w>
fu sion</w>
プラット フォーム</w>
teri or</w>
al one</w>
l an</w>
すで に</w>
s tic</w>
comb ined</w>
反 映</w>
ver tices</w>
ar m</w>
伝 導</w>
T P</w>
A R
as sum
直 線</w>
prop ag
bu dd
medi um</w>
D B
添 付</w>
ボ ット</w>
recommen ded</w>
s .
ti ce</w>
F ile</w>
P ar
P S</w>
sa w</w>
シー ケ
def ining</w>
us age</w>
n an
vie wer</w>
頻 度</w>
日 本
ー ン
enti ties</w>
pers onal</w>
pl ate</w>
ジ タル</w>
m r
戻 し</w>
ish ed</w>
S i</w>
depen den
in ner</w>
te le
en tial</w>
チ ーム</w>
配 管</w>
rec ently</w>
LA N</w>
ッチ ング</w>
pur ch
ワーク ス</w>
sp a
f ab
al er
ょ う
pers ons</w>
ro un
rec ur
te am</w>
pri vile
gre en</w>
en ough</w>
re plic
基 板</w>
thre sh
3 6</w>
一 緒</w>
to day</w>
m o</w>
ak i</w>
techn ical</w>
appe ared</w>
B e
合 併</w>
beli eve</w>
い つ</w>
si lic
染 色</w>
ac tually</w>
は い</w>
酵 素</w>
採 用</w>
ris k</w>
予 算</w>
accur acy</w>
ホ ーム</w>
hi dden</w>
pho sp
se cre
s at
Ex cel</w>
stra in</w>
d ly</w>
speci fying</w>
sugg ested</w>
バ ッチ</w>
li ve</w>
ディ メン
v s</w>
no thing</w>
ab ilities</w>
ser um</w>
ro l
anno tation</w>
resul ting</w>
フラ グ</w>
ウイ ルス</w>
orig in</w>
w ar</w>
bal ance</w>
社 会</w>
occu r</w>
来 る</w>
M E
た く</w>
war ning</w>
ハンド ル</w>
アー カイ
ta tive</w>
ro les</w>
ドライ バ</w>
衝 突</w>
役 立
担 当</w>
ri b
ob jec
docu mentation</w>
elev ation</w>
administra tive</w>
equ ation</w>
trans mission</w>
inten sity</w>
h ou
ロ ット</w>
cy to
str ong</w>
stra ted</w>
ロール アウト</w>
t in
in stru
compu ters</w>
ほ ぼ</w>
un able</w>
Sy stem</w>
指 示</w>
mo ved</w>
b la
ad op
al ler</w>
P er
ファイ ル
イ ト</w>
y et</w>
自 然</w>
sh ell</w>
生 活</w>
ha ir</w>
dete ction</w>
exce l</w>
wi re
復 元</w>
U N
deploy ment</w>
pro files</w>
en ces</w>
fi ber</w>
プロ ダクト</w>
レ ン</w>
an e</w>
推 奨</w>
使 う</w>
mon th</w>
e ds</w>
参 加</w>
論 理</w>
血 清</w>
termin al</w>
in creases</w>
概 説</w>
ho t</w>
3 4</w>
on to</w>
scop ic</w>
c um
tu tori
fir e</w>
associ ation</w>
制 約</w>
pres ents</w>
la w</w>
regi stered</w>
jec ted</w>
u d
hel d</w>
S P</w>
I C</w>
試 み</w>
sur ance</w>
g lu
pre vent</w>
other wise</w>
experi ments</w>
d s
ed o</w>
rot ate</w>
発 症</w>
y iel
fo od</w>
orig in
mis sing</w>
mu ta
sn ap
sa tis
immedi ately</w>
dis able</w>
stand ards</w>
kin ds</w>
c ar</w>
bre ak</w>
エ リア</w>
を 通
absor ption</w>
pr ice</w>
commun ic
clas ses</w>
l a</w>
le g
fac ilities</w>
sub stitu
it ary</w>
appl ying</w>
判 断</w>
as tic</w>
m ate</w>
comp an
peri on</w>
5 0
off ic
資 産</w>
beg inning</w>
プラ グ</w>
provi sion</w>
as k</w>
ま と
ま る</w>
戻 す</w>
トリ ック</w>
合 金</w>
呼び 出し</w>
pi ec
連 結</w>
expres s</w>
function ality</w>
do or</w>
gi r
用 意</w>
wom an</w>
マニュ アル</w>
ap poin
f oun
le ad</w>
any where</w>
ministr y</w>
c p
阻 害</w>
lo st</w>
A PI</w>
pr e</w>
こ う
li on</w>
保 管</w>
f u</w>
ライ ン
M E</w>
f ar</w>
continu ous</w>
mac ro</w>
dw g</w>
ッ ション</w>
o graphy</w>
pa in</w>
pre ferences</w>
ar c</w>
G E
時 点</w>
ac k
diagno sed</w>
inst ances</w>
any thing</w>
qu er
comp e
and is</w>
C ur
リカ バリ</w>
smo oth</w>
po pul
partic ip
open ed</w>
Acc ess</w>
mo ther</w>
he av
me et</w>
若 しくは</w>
dis abled</w>
In ven
seg ments</w>
レ ント</w>
HT ML</w>
上 書き</w>
design ated</w>
ta ined</w>
ligh ting</w>
re ach
p le
切 り</w>
医 療</w>
ジョ イント</w>
mut andis</w>
muta tis</w>
外 観</w>
t ou
surg ery</w>
運 転</w>
usu ally</w>
ul tr
互 換</w>
h o</w>
investig ation</w>
コ メント</w>
contr act</w>
中 間</w>
補 助</w>
独 自</w>
g er
行 く</w>
Ma x</w>
tu be</w>
p y
me eting</w>
im al</w>
patter ns</w>
blu e</w>
そ こ
sm aller</w>
as set</w>
a tional</w>
s copy</w>
大 き</w>
roll out</w>
fil ters</w>
い っ
i ii</w>
an ti</w>
se a</w>
mo vement</w>
J ava</w>
右 側</w>
準 用</w>
hy po
sh i</w>
su n
pa in
ic hi
ro ad</w>
写 真</w>
speci fication</w>
monit oring</w>
消 費</w>
mar ket</w>
ear th</w>
sh a
ディメン ション</w>
y ed</w>
mon ey</w>
需 要</w>
継 続</w>
クエ リー</w>
op h
b ound</w>
0 2</w>
プロ バイ
リー ズ</w>
下 部</w>
グラフィ ック</w>
産 業</w>
el ing</w>
面 積</w>
テクノ ロジー</w>
re f</w>
am o
促 進</w>
rou ting</w>
e th
en cryp
li ed</w>
buil der</w>
ー ブ</w>
戻 り</w>
he ad
グラフィ ックス</w>
en ing</w>
培 養</w>
percen tage</w>
ビ ーム</w>
modi fier</w>
ホ ル
出 現</w>
cool ing</w>
シーケ ンス</w>
生 物</w>
c ra
アーカイ ブ</w>
sc an
she ets</w>
% %</w>
ゼ ン
de part
diffic ult</w>
と う</w>
wa it</w>
te l
per cent</w>
bl ack</w>
病 変</w>
ship s</w>
ギ ャ
n one</w>
ス ラ
A s
situ ation</w>
oxy gen</w>
200 8</w>
en ded</w>
be d
inspec tion</w>
differen ces</w>
whe re
び に</w>
transp ort</w>
comm it
C l
ア レイ</w>
ra tes</w>
シ ナ
d ar
conta iner</w>
左 側</w>
フ ル
navig ate</w>
he ader</w>
e duc
公 開</w>
d na</w>
溶 液</w>
b lan
qu es</w>
な ん
war a</w>
ne t
cel l
m yo
困 難</w>
. 2</w>
po sto
so il</w>
そこ で</w>
チュー トリ
特 別</w>
toler ance</w>
キ ング</w>
mi gration</w>
科 目</w>
R en
brow se</w>
distribu ted</w>
loo p</w>
工 程</w>
inf o</w>
posto per
許 容</w>
re lea
logi c</w>
Co mp
注 記</w>
替 える</w>
Q u
sur vi
pub lish
期 待</w>
repres entation</w>
do c
事 前</w>
直 径</w>
5 5</w>
通 り</w>
en t
F in
requ ests</w>
quick ly</w>
防 止</w>
bri dge</w>
な さ</w>
oper ative</w>
ca st
ar rang
上 記</w>
as is</w>
アク セ
in stitu
re ac
scen ari
identi fied</w>
sto ck</w>
en zy
干 渉</w>
チュートリ アル</w>
lear n</w>
再 度</w>
calcul ate</w>
ad ata</w>
経 験</w>
follow ed</w>
作 製</w>
infec tion</w>
ス ム
inte gr
ワイ ヤ</w>
新 た</w>
モデ リング</w>
manu al</w>
fl at</w>
conta ined</w>
ス キャ
生 じる</w>
コン テナ</w>
simul tane
関 与</w>
rib bon</w>
ラ ット</w>
br ation</w>
Plan ning</w>
マル チ</w>
強 い</w>
パ ッチ</w>
si des</w>
high ly</w>
sho wing</w>
dam age</w>
ge tting</w>
受 注</w>
respec t</w>
deve lo
priv ate</w>
り ゅう</w>
w il
O R
te e</w>
貼 り</w>
instal ling</w>
スプ ライン</w>
必 須</w>
思 っ</w>
app ing</w>
cal l
ン ス
n ull</w>
it self</w>
N S</w>
特 異</w>
pres ence</w>
p c
ma y
he y</w>
ph ar
shr ine</w>
Pro per
お く</w>
バ ス</w>
読み 取り</w>
o logical</w>
consi der</w>
P P
独 立</w>
Dat ab
regar ding</w>
mac ro
A t
T ran
バイ ト</w>
pa ste</w>
m old</w>
旧 暦</w>
ピク セル</w>
続 き</w>
パブリ ッシュ</w>
tion ing</w>
coun try</w>
pa tho
ら い</w>
def ec
config ur
asse ts</w>
duc ing</w>
9 9</w>
オブ ジェクト
logi es</w>
inter action</w>
概 念</w>
建 物</w>
ス レ
ir s</w>
4 00</w>
m b</w>
n els</w>
th esis</w>
gl ass</w>
war ds</w>
vi sor</w>
け ど</w>
cul ture</w>
con cre
plat form</w>
L D
l am
レ プリ
ro bo
electr onic</w>
st a</w>
・ ボックス</w>
ド リ
r ice</w>
移 植</w>
g ar
mer ge</w>
trans form</w>
scrip ts</w>
wal ls</w>
コン パ
su mp
par tial</w>
f uc
s al</w>
sli de</w>
s y</w>
w as
マ スク</w>
ガ ラス</w>
大 学</w>
le av
3 8</w>
il ing</w>
シャ ド
ter n</w>
teri al</w>
ステ ート
ash i</w>
off ici
h ab
エン ター
ad a</w>
itu de</w>
A L
de c
secon ds</w>
オー ダー</w>
bran ch</w>
リ オ</w>
類 似</w>
bin ding</w>
ス ポ
beg in</w>
pheno men
out lin
appro val</w>
ap i</w>
divi sion</w>
ダイアログ ・ボックス</w>
ツ ール
form ats</w>
regu lar</w>
シ ュー
リポジ トリ</w>
D S
re d
polyg on</w>
mar ks</w>
クライア ント
ru p
あ ら
i ties</w>
run s</w>
me ter</w>
追 跡</w>
de gre
infra structure</w>
organ ic</w>
知 識</w>
un less</w>
po st
ou l
導 体</w>
func tional</w>
ル ト</w>
fl ash</w>
cle an
def a
明 治</w>
po ol</w>
me try</w>
集 合</w>
utili zation</w>
放 出</w>
f av
evalu ate</w>
皮 膚</w>
化 合</w>
consi sts</w>
種 々</w>
gi ves</w>
定 め</w>
ow b</w>
4 4</w>
se p
in surance</w>
た る</w>
4 2</w>
経 路</w>
見つ かり</w>
construc ted</w>
ディ スプレ
tr us
categ ories</w>
♦ ♦</w>
♦ ♦♦</w>
syn the
sy mb
建 築</w>
Cre ate</w>
bo dies</w>
I C
U I</w>
アウト ライン</w>
求 める</w>
spec tr
measure ments</w>
format ting</w>
s la
au dio</w>
あ の</w>
mo ves</w>
省 略</w>
inter active</w>
削 減</w>
inven tor</w>
sche me</w>
in dependent</w>
ar tic
リア ル</w>
R o
I X</w>
向 き</w>
ren ame</w>
membran e</w>
ab e
degre es</w>
S ol
エー ジェント</w>
部 屋</w>
3 7</w>
sp ring</w>
pro duce</w>
ex it</w>
tissu e</w>
techni ques</w>
overri de</w>
applic able</w>
入 り</w>
for ward</w>
更 に</w>
g ation</w>
例 外</w>
libr aries</w>
刺 激</w>
Inven tor</w>
sho o
vie wed</w>
スト ロ
放 射</w>
低 減</w>
性 質</w>
昭 和</w>
P C
10 00</w>
様 々</w>
pub lish</w>
ポ リ</w>
P a
mat ter</w>
coordin ates</w>
defini tions</w>
on d</w>
vir us</w>
n ar
ステート メント</w>
込 ん</w>
ズ ーム</w>
qu ar
en s
市 場</w>
execu te</w>
整 数</w>
mon o
new ly</w>
ジャ ー</w>
リ カ</w>
4 3</w>
持 ち</w>
ei ght</w>
u v</w>
系 統</w>
d uration</w>
sc at
定 量</w>
pr ince</w>
imple mentation</w>
En ter
o il</w>
manip ul
ナビゲ ーション
活 用</w>
c l</w>
bre ak
発 電</w>
周 囲</w>
角 形</w>
re ver
ob servation</w>
neu tr
U L
n ame
し た
マー カー</w>
la teral</w>
適 応</w>
sub mit</w>
炭 素</w>
ta in
princi p
縦 断</w>
翻 訳</w>
inte grated</w>
ear lier</w>
si mu
ser ial</w>
bi g</w>
e f</w>
バ イン
I T</w>
pas sed</w>
wee ks</w>
労 働</w>
mas k</w>
見 る</w>
En ter</w>
relev ant</w>
suffici ent</w>
7 2</w>
comp lic
v a
エンター プライ
can cel</w>
C lo
trou ble
放 射
危 険</w>
I K</w>
置き換 え</w>
ali as</w>
sc al
sub strate</w>
state ments</w>
de formation</w>
ミ ン</w>
meas uring</w>
ari ly</w>
C O</w>
em ed</w>
sec ure</w>
発 見</w>
B a
並 べ</w>
symb ols</w>
e mission</w>
j ob
会 計</w>
pa ths</w>
assemb lies</w>
thresh old</w>
al ph
au dit</w>
モディファイ ヤ</w>
postoper ative</w>
pub lished</w>
Bu il
リ ボン</w>
小さ く</w>
構 文</w>
ow er
win d</w>
se ly</w>
pd f</w>
の に</w>
p en</w>
規 格</w>
c f
l ication</w>
diag ram</w>
ti p</w>
he art</w>
最 高</w>
6 00</w>
ロ ジ</w>
deci sion</w>
プ ライア
外 国</w>
特 殊</w>
st ability</w>
見 出し</w>
sto res</w>
曲 げ</w>
concre te</w>
compo sed</w>
時 刻</w>
disp lac
教 育</w>
correc tly</w>
invol ved</w>
提 出</w>
manag ing</w>
7 3</w>
estab lish
differen ti
j our
5 3</w>
増 殖</w>
PD F</w>
ch ie
Datab ase</w>
en ed</w>
e yes</w>
un known</w>
architec ture</w>
networ ks</w>
植 物</w>
a xi
i v</w>
intro duction</w>
fla g</w>
思 う</w>
read ing</w>
も し</w>
した が
tr ace</w>
従 い</w>
マ スター</w>
mo du
g in</w>
comp ound</w>
まと め</w>
fin ally</w>
ing u
ti t
activ ated</w>
反 転</w>
部 位</w>
横 断</w>
本 稿</w>
ben e
セット アップ</w>
ag o</w>
pa ren
per taining</w>
ga wa</w>
inte gration</w>
di c</w>
sub sequ
s le
接 線</w>
伝 達</w>
分 野</w>
メ チ
fle xi
プレ ゼン
従 業</w>
透 過</w>
子 供</w>
v as
le an</w>
p ast</w>
glo ss
プ ール</w>
r ad
met adata</w>
署 名</w>
ギ ュ
S P
revi sion</w>
cast le</w>
薄 膜</w>
押 し
6 8</w>
死 亡</w>
shado w</w>
行 動</w>
men tum</w>
sec t</w>
Enter prise</w>
d b</w>
key board</w>
star ts</w>
ex e</w>
loc ked</w>
法 線</w>
タイ ム
ur b
coun ter
入 っ</w>
ニ ュー
conf lic
じ め</w>
ac ute</w>
光 学</w>
cli ents</w>
dat ing</w>
チェ ック
j ac
gi c</w>
C P
一 連</w>
フ ロ
だ が</w>
ニ ア</w>
使 い</w>
g ly
fu el</w>
spec tro
m on</w>
行 為</w>
プロセッ サ</w>
電 極</w>
5 6</w>
la test</w>
am i</w>
imp act</w>
Out look</w>
ス ー
s co
k er
残 り</w>
ak u</w>
販 売</w>
Ob ject</w>
jo in</w>
bra in</w>
S A</w>
p m</w>
学 校</w>
読み 込む</w>
the li
一 意</w>
シ ュ
命 令</w>
lun g</w>
pos sibility</w>
解 像
モ ン</w>
リ スク</w>
v es
確 保</w>
posi tions</w>
4 0
prin ting</w>
要 因</w>
y u</w>
am a</w>
P ower
代 替</w>
as pec
syn tax</w>
su c
プロ ジェクト
燃 料</w>
i an</w>
ス パ
ド ル</w>
design er</w>
m t</w>
iz ing</w>
P ath</w>
inte rest</w>
prod name</w>
manag ed</w>
ト レー
オー プ
空 気</w>
e m</w>
便 利</w>
二 つ</w>
in o
トラ ブル</w>
ドロップダウン リスト</w>
on e
解像 度</w>
U p
as y
延 長</w>
hydro gen</w>
循 環</w>
cl ou
ch am
S hi
tang ent</w>
テキ スト
外 側</w>
ch o</w>
質 問</w>
pl us</w>
mi d
レ ビュー</w>
bel ong
connec tor</w>
8 6</w>
te sting</w>
every thing</w>
な ぜ</w>
平 行</w>
activ ation</w>
違 反</w>
配 布</w>
H y
en se</w>
損 失</w>
弾 性</w>
sensi tive</w>
in tr
. 5</w>
log in</w>
comple tely</w>
d or</w>
ther n</w>
カ ラム</w>
budd hi
typ ically</w>
th y
att ach</w>
inter national</w>
ga ve</w>
th read</w>
buff er</w>
ac cept</w>
エ ンド</w>
molec u
M R
4 1</w>
近 い</w>
聞 い</w>
c ast</w>
年 齢</w>
the ore
H z</w>
h a</w>
man i
b ad</w>
ダ ム</w>
compan ies</w>
消 去</w>
少 し</w>
a p</w>
立 て</w>
purch ase</w>
閉 じる</w>
indu stri
トラ フィ
stra tes</w>
wee k</w>
分 け</w>
キー ワード</w>
Do cu
病 理</w>
loo king</w>
ka wa</w>
us er
sp line</w>
rec ep
ex hi
synchron ization</w>
b order</w>
6 7</w>
m s
E R
inven tory</w>
e ast</w>
g ni
trans formation</w>
変 異</w>
su sp
ヒ ト</w>
wom en</w>
conver ted</w>
da p</w>
dise ases</w>
descri be</w>
ま い</w>
ブレ ンド</w>
mat ching</w>
cu be</w>
都 市</w>
メ カ
ド ア</w>
強 化</w>
ri gi
割 合</w>
fin ite</w>
パ ルス</w>
P H
ク イ
comp are</w>
tempor ary</w>
プレゼン テーション</w>
に わ
si zed</w>
tr ade</w>
ref resh</w>
か か
inter faces</w>
tal k</w>
pp ing</w>
plas tic</w>
out look</w>
e mail</w>
anti body</w>
z en</w>
duplic ate</w>
att le</w>
throu gh
Wor k
5 2</w>
enhan ced</w>
損 傷</w>
ク ス</w>
ク ター</w>
DW F</w>
格 子</w>
tion ary</w>
classi fication</w>
た す</w>
sten ce</w>
it ors</w>
repe at</w>
wr iting</w>
プロパティ ー</w>
樹 脂</w>
江 戸</w>
h en
tr ic
f ting</w>
L IS
pro xy</w>
a ke</w>
よ い</w>
enter ing</w>
エ イ
相 当</w>
typ ical</w>
accoun ting</w>
に と
repres ent</w>
in her
勧 め</w>
保 証</w>
コン ストレ
ハイ パー
b un
L in
sump tion</w>
pe ak</w>
add resses</w>
en ess</w>
ピ ーク</w>
engine ering</w>
代 表</w>
characteris tic</w>
cop ied</w>
inser ted</w>
calcu lations</w>
か ん</w>
under standing</w>
fi sh</w>
nucle ar</w>
schedu led</w>
fu ji
ban k</w>
シナ リオ</w>
始 め</w>
p h</w>
w on</w>
dw f</w>
clo th</w>
se c</w>
im a</w>
sub jects</w>
i .
compres sion</w>
も う
原 価</w>
ロ ボット</w>
パーティ ション</w>
現 状</w>
ser i
k en</w>
impor ting</w>
調 べる</w>
ten sion</w>
再 発</w>
te ro
tag s</w>
squ are</w>
bu s</w>
lear ning</w>
recor ded</w>
N o
em bed
demon strated</w>
symp to
良 く</w>
遅 延</w>
yosh i</w>
把 握</w>
smar t</w>
国 際</w>
ス ピ
investig ate</w>
auth ors</w>
re member</w>
mar ked</w>
l dap</w>
confir m</w>
bi ted</w>
や る</w>
9 5</w>
M P
ma tions</w>
コン フィ
sp o
sho p</w>
Contro l</w>
acc ess
main tain</w>
スト ラク
pri ority</w>
modi fying</w>
cataly st</w>
um es</w>
lu lar</w>
divi ded</w>
au d
d ash
depen ds</w>
プラ ン</w>
depen dence</w>
音 波</w>
fo rec
ic ity</w>
メカ ニ
ま しょ</w>
配 線</w>
chie f</w>
急 性</w>
gh ter</w>
近 似</w>
0 5</w>
Ap plication</w>
se l</w>
ri l</w>
grad u
con cept</w>
ow ner</w>
6 6</w>
C H
カ レント</w>
ex ac
ad apter</w>
局 所</w>
mode s</w>
chan nels</w>
ト ポ
avo id</w>
progr am
en ced</w>
sc an</w>
呼 吸</w>
inte l
接 合</w>
com es</w>
bar s</w>
tutori al</w>
w ri
Con nec
以 内</w>
Su n</w>
blan k</w>
reg ard</w>
x y
コネ クタ</w>
t old</w>
k at
ヘッ ダー</w>
家 族</w>
質 量</w>
ste ro
l p</w>
ri ver</w>
出 荷</w>
compo site</w>
gener ally</w>
c les</w>
inter val</w>
続 け</w>
d g
達 成</w>
事 件</w>
some one</w>
B O
絶 対</w>
v ac
en ame</w>
experi ence</w>
At tribu
di um</w>
vari ation</w>
simp li
強 く</w>
ディ ング
ザ ー</w>
plan es</w>
プレ ーン</w>
人 工</w>
上 位</w>
メタ データ</w>
e vi
一 度</w>
輸 送</w>
音 声</w>
磁 場</w>
m ur
オープ ン</w>
he ating</w>
cu tting</w>
縮 小</w>
nit ro
j an
周 辺</w>
見つ け</w>
r d</w>
改 良</w>
にと って</w>
自 身</w>
ケ ーション
不 明</w>
3 9</w>
使 わ</w>
statis tics</w>
ske le
wi sh</w>
マウ ント</w>
適 し</w>
qu ali
3 ds</w>
メ ジャー</w>
記 憶</w>
amo to</w>
dr ag
for ces</w>
フ ロー
cir cle</w>
depart ment</w>
co sts</w>
触 媒</w>
せ い</w>
f ault</w>
li ter
job s</w>
z er</w>
de lay</w>
カスタ ム
wr ong</w>
stan ces</w>
co des</w>
セ ント</w>
fr ame
contr ast</w>
sug ge
exam ine</w>
mi xed</w>
少 ない</w>
中 国</w>
re main</w>
bro ther</w>
lo ve</w>
ra id</w>
dele ting</w>
bud get</w>
スナップ ショット</w>
inte ger</w>
コー ナー</w>
d au
タ ン
将 来</w>
N a
iso lated</w>
f all</w>
F C</w>
l ong
注 目</w>
ang i
collec ted</w>
ap ril</w>
委 員</w>
ac ci
x im
円 弧</w>
N O
A l</w>
univer sity</w>
ther more</w>
Ch ec
バッ ファ</w>
なく とも</w>
顕 微
顕微 鏡</w>
金 融</w>
時 期</w>
ra il
対 照</w>
上 皮</w>
allo y</w>
S tr
su itable</w>
high est</w>
br ing</w>
fic ial</w>
アニメ ート</w>
indic ating</w>
invo ice</w>
駆 動</w>
少 なくとも</w>
早 期</w>
4 7</w>
4 6</w>
e ded</w>
gra di
A l
プライア ンス</w>
de cl
syn c</w>
無 い</w>
at us</w>
空 白</w>
syn dro
ru e</w>
n e</w>
is ms</w>
fur thermore</w>
p a</w>
su m</w>
work sheet</w>
h ic
古 い</w>
C V</w>
sen sor</w>
up s</w>
ide a</w>
gen ce</w>
for ced</w>
ー プ
イ ド
a tion
success ful</w>
referen ced</w>
プロバイ ダ</w>
受 容</w>
tr ying</w>
sensi tivity</w>
ab ling</w>
ro und</w>
cho o
sh o</w>
T O
初 めて</w>
swit ches</w>
min d</w>
ッ タ</w>
ク ロー
5 4</w>
la p</w>
dis charge</w>
長 い</w>
wa re
したが って</w>
m ware</w>
Shi ft</w>
今 日</w>
隣 接</w>
ol ation</w>
f c</w>
μ m</w>
analy ses</w>
em it
pac k</w>
y or
in corpor
現 行</w>
2 9
ti le</w>
充 填</w>
加 熱</w>
sa fe</w>
lea der</w>
ren al</w>
D B</w>
ac qui
L U
塗 り
週 間</w>
ヒ ント</w>
dynam ics</w>
se v
sol aris</w>
alig n</w>
to x
oc curren
fami lies</w>
ra ys</w>
pac ket</w>
in ve
D S</w>
キャ プ
cryst al
6 3</w>
de ad</w>
l o</w>
s amp
mirro r</w>
De sign</w>
ac comp
例 えば</w>
返 す</w>
Ad d</w>
cop ies</w>
ージ ャ
基づ き</w>
オー ディ
mo tor</w>
tok yo</w>
fes sional</w>
ー ゼ</w>
シ リーズ</w>
キー ボード</w>
li ke
か い</w>
ren ce</w>
fac tory</w>
Re vi
申 請</w>
debu g</w>
ア メ
プライ マ
ab solu
可 視</w>
ga stri
つ て</w>
ge o
ブラ シ</w>
照 明</w>
selec ts</w>
吸 着</w>
ビ ル
ラ ジ
デ ジタル</w>
dep lo
econ om
gu ide
adop ted</w>
収 縮</w>
chin ese</w>
R es
ノ ール</w>
bl end</w>
入 院</w>
temper atures</w>
i m</w>
オー バー</w>
_ _
al ize</w>
preven tion</w>
plan ts</w>
ら し</w>
動 き</w>
依 頼</w>
繊 維</w>
せ ん
スタ ート</w>
co efficient</w>
セン サ</w>
ren dered</w>
実 績</w>
fuji wara</w>
t y
shoo ting</w>
analy ze</w>
oun ts</w>
も と</w>
expor ted</w>
intro duces</w>
Sol aris</w>
remo ving</w>
vol umes</w>
display ing</w>
出 来</w>
fi x
rela tions</w>
適 合</w>
prepar ation</w>
同 一</w>
書き 込み</w>
prac tical</w>
boo ks</w>
exce ption</w>
c s
ー シ
N UR
ex cell
al t</w>
7 1</w>
確 定</w>
サーフェ ス
スキャ ン</w>
dra ft</w>
v an
alig n
pat ch</w>
is n</w>
flow s</w>
O N</w>
シュー ティング</w>
ム ー
en ding</w>
ma c</w>
ici es</w>
artic les</w>
sli der</w>
作 図</w>
regi ster</w>
educ ation</w>
道 路</w>
備 え</w>
bre a
sel ves</w>
エ ラー
i e</w>
い え</w>
suc ce
de ce
mar ch</w>
techno logies</w>
youn g</w>
tab le
proper ly</w>
eli min
appro xi
s lope</w>
言 わ</w>
identi ty</w>
to wn</w>
予 約</w>
ga p</w>
br ush</w>
high light</w>
vi bration</w>
rema ins</w>
b rou
sta y</w>
キャン セル</w>
tab s</w>
phar mac
方 形</w>
syndro me</w>
h op
S et</w>
マテリア ル
see ms</w>
ske t
血 圧</w>
lo ok
話 し</w>
ラ ン</w>
S ec
form ing</w>
some times</w>
オペ レータ</w>
問 い
spa tial</w>
A N
つ け</w>
sympto ms</w>
均 一</w>
提 示</w>
men us</w>
B A</w>
bi li
b at
ul ing</w>
sur roun
res sion</w>
政 府</w>
ro ta
S T</w>
認 定</w>
線 維</w>
介 し</w>
i os</w>
res on
レンダ リング
資 料</w>
retri ev
perform ing</w>
men tioned</w>
デ ート</w>
fo cus</w>
L C</w>
comp ounds</w>
流 動</w>
プリ ング</w>
銀 行</w>
2 nd</w>
partic ul
5 1</w>
組 み</w>
no sis</w>
fac ility</w>
ir on</w>
mar vel</w>
組 成</w>
よ る</w>
o 2</w>
8 5</w>
environ ments</w>
用 語</w>
ミ ラー</w>
m l
archi ve</w>
終 点</w>
オペレー ティング
sh u</w>
propo se</w>
issu ed</w>
expan sion</w>
回 避</w>
v ic
top ics</w>
d less</w>
in sul
au g
ト ロ
ビ ン</w>
cho ice</w>
Mo de
指 標</w>
radi o
併 用</w>
ス チ
g b</w>
to gg
y as
mar ker</w>
s us
区 分</w>
ri c</w>
業 者</w>
ti a</w>
ir a</w>
pa y</w>
静 脈</w>
oper ators</w>
val i
displac ement</w>
り ん</w>
inter medi
Ex plo
ir radiation</w>
小さ な</w>
テ ープ</w>
同 定</w>
シ リアル</w>
loo ks</w>
i st</w>
搭 載</w>
sor ry</w>
g r</w>
E M</w>
p hi
周 期</w>
mo der
regi stry</w>
l ying</w>
con sum
li p</w>
rec e
pol icies</w>
パー ト
f b
con stitu
ステ ィ
SD L</w>
; )</w>
アダプ タ</w>
好 き</w>
inte st
fin ished</w>
ソリ ッド</w>
権 利</w>
acc ord
視 覚</w>
V D</w>
ほ う</w>
200 2</w>
バ ンド</w>
inter pre
ka i</w>
connec ting</w>
NE T</w>
sd l</w>
ey e</w>
col d</w>
le sion</w>
embed ded</w>
le ment</w>
spec tive</w>
マ ス</w>
supp lier</w>
sub scri
simp ly</w>
ultr as
re verse</w>
expres sions</w>
d c</w>
compati ble</w>
4 9</w>
revi t</w>
わ け</w>
aly sis</w>
ノ ート</w>
属 する</w>
sev ere</w>
ら す</w>
エクス プロー
pres entation</w>
wi fe</w>
for cement</w>
n c</w>
トラフィ ック</w>
チャ ート</w>
い く</w>
sti mul
オペレーティング システム</w>
de vi
wan ted</w>
裁 判
x x
メ トリック</w>
パーティ クル
rema ining</w>
excell ent</w>
ord set</w>
プ ロ</w>
含 有</w>
区 画</w>
g if</w>
Revi t</w>
deli very</w>
P O
d on
stric t</w>
ar i</w>
sp her
jan uary</w>
ad he
運 用</w>
減 衰</w>
消 し</w>
内 閣</w>
pr acti
poly mer</w>
mon ary</w>
dru gs</w>
修 復</w>
appoin ted</w>
5 9</w>
営 業</w>
交 通</w>
ol der</w>
ス ル
責 任</w>
Buil der</w>
A R</w>
base line</w>
き い</w>
窒 素</w>
高 温</w>
Di sp
投 資</w>
7 7</w>
ve hic
gu ar
事 例</w>
キ シ</w>
gni tion</w>
T S</w>
7 8</w>
kil led</w>
op a
ab domin
ドライ バー</w>
ア ナ
relation ships</w>
th i
O ptions</w>
6 2</w>
robo t</w>
inter section</w>
200 9</w>
t ories</w>
超 える</w>
ligh ted</w>
ヘ ア</w>
L ay
gastri c</w>
付 加</w>
Vi su
so on</w>
≫ :</w>
r ats</w>
T R
v d</w>
dai ly</w>
i ons</w>
laun ch</w>
. 3</w>
in k
変 わり</w>
d h
ワ ー</w>
wa ste</w>
mar ke
ma tely</w>
acc um
outlin ed</w>
hin d</w>
戻 る</w>
短 縮</w>
he pa
do se</w>
parti tion</w>
extr act</w>
ワイ ヤ
コンフィ ギュ
te m</w>
な お</w>
topo logy</w>
regar dless</w>
s tic
chron ic</w>
6 1</w>
colli sion</w>
長 期</w>
um b
実 用</w>
信 じ</w>
Pro d
may be</w>
ソフ ト</w>
取 る</w>
F i
Explo rer</w>
スライ ダ</w>
remo ves</w>
lymp ho
生 存</w>
a di
L e
00 1</w>
we a
論 じ</w>
ad ers</w>
バ ッグ</w>
develo p</w>
数 式</w>
数 字</w>
co ding</w>
強 制</w>
lim its</w>
attemp t</w>
慢 性</w>
view point</w>
比 較
t c</w>
比較 的</w>
F B
1 ,
ミュ ニ
estab lish</w>
トラン ス
p in</w>
k ill</w>
am ounts</w>
メカニ ズム</w>
atten tion</w>
継 承</w>
再 び</w>
sh aring</w>
* .</w>
非 線形</w>
wire less</w>
C u</w>
k in</w>
メ ス</w>
ic a</w>
Serv ice</w>
資 格</w>
privile ges</w>
ポ ップ
chec king</w>
vari ety</w>
リティ ー</w>
yiel d</w>
動 物</w>
me tri
ソ ート</w>
ar tery</w>
li ance</w>
hand ling</w>
地 震</w>
illu stration</w>
ner ve</w>
sh el
スト リ</w>
ダイ ヤ
それ で</w>
ou ter</w>
oc y
in ations</w>
consisten t</w>
sp read</w>
dau ghter</w>
in t
NUR BS</w>
が り</w>
ga te
de v</w>
mi gr
購 入</w>
rap id</w>
が っ</w>
li ving</w>
yo shi
rigi d</w>
ス カ
限 界</w>
m ount</w>
由 来</w>
廃 棄</w>
al umin
m ap
ra i
a e</w>
an s
sp in</w>
mean ing</w>
血 液</w>
た び</w>
コ ミュニ
de ep</w>
ro of</w>
b all</w>
G B</w>
持 続</w>
8 0
一 番</w>
peri ods</w>
名 称</w>
abdomin al</w>
F e</w>
1 50</w>
シェ ル</w>
ソ ン</w>
t ape</w>
当 て</w>
i. e</w>
政 令</w>
lat tice</w>
over all</w>
m g</w>
de posi
d m</w>
chec ks</w>
axi al</w>
建 設</w>
tra di
pp ed</w>
緩 和</w>
le s
t d</w>
い や</w>
tri ed</w>
地 方</w>
op s</w>
予 防</w>
20 10</w>
fi f
per si
exi stence</w>
S tu
ウェ イト</w>
世 代</w>
o sc
nor th</w>
gra in</w>
neu ro
configur ations</w>
cap abilities</w>
on o
exac tly</w>
bro ad
con cep
swit ching</w>
defa ults</w>
j in
be hind</w>
先 頭</w>
モ ーション</w>
ra w</w>
separ ated</w>
超 え</w>
ゲ ン</w>
過 去</w>
mo vi
reco gnition</w>
比 率</w>
励 起</w>
ear th
plac ing</w>
id ity</w>
y our
diagno stic</w>
て も</w>
ques tion</w>
G en
in d
R i
o sa
液 体</w>
ス コ
動 車</w>
vi sibility</w>
オーディ オ</w>
回 数</w>
circu lar</w>
ren cy</w>
To ol</w>
補 正</w>
く る</w>
tar gets</w>
administr ators</w>
scenari o</w>
ther mo
cap ital</w>
di e</w>
価 値</w>
専 門</w>
拒 否</w>
ルー ティング</w>
equ ations</w>
ho mo
We b
fr ag
expor ting</w>
as a</w>
h s</w>
チュー ブ</w>
こ そ</w>
retri eve</w>
S tor
ware house</w>
expo sure</w>
disp er
ラ ンス</w>
I II</w>
me dic
syn thesis</w>
ci vil</w>
証 券</w>
放 電</w>
poin ter</w>
6 9</w>
se ven</w>
re p
weigh ts</w>
b end</w>
avail ability</w>
fi re
ran dom</w>
宛 先</w>
re placed</w>
アップ デート</w>
mes h
enzy me</w>
tr ical</w>
str ong
静 的</w>
内 側</w>
ライ フ
studi o</w>
R M</w>
con trac
近 く</w>
ド ・
ニ ン</w>
tri g
プロ ット</w>
v el
ず る</w>
ric ul
200 5</w>
ポイン タ</w>
ou ts</w>
T A
続 行</w>
extr action</w>
fo ot
あ あ</w>
b its</w>
自 動車</w>
Ren der</w>
Direc tory</w>
tren d</w>
sh ading</w>
ar my</w>
ユーザ ー
at mo
manufac tu
押 す</w>
切り 替える</w>
po ses</w>
com ments</w>
F A
gradi ent</w>
ig no
C at
ソ ース
メ ート
t t</w>
diff usion</w>
シャ ル</w>
clari fied</w>
R u
remo val</w>
蛍 光</w>
di abe
ロ イド</w>
s am
chin a</w>
h at
br al</w>
Pro ject</w>
cli ps</w>
radi o</w>
今 回</w>
soci al</w>
or al</w>
有 機</w>
ゆ る</w>
high lighted</w>
そ んな</w>
snap shot</w>
plan s</w>
auth or</w>
T ex
inser tion</w>
expres sed</w>
le tter</w>
f on
Prod Name</w>
st asis</w>
や すい</w>
模 型</w>
あ り
ko re
M O
前 後</w>
c ess</w>
屋 根</w>
alter n
cu ts</w>
S mar
organiz ations</w>
ten der</w>
frac ture</w>
ス コア</w>
vo ice</w>
inci dent</w>
5 7</w>
w est</w>
propag ation</w>
見 え</w>
システ ム
薬 物</w>
分 泌</w>
frequ ently</w>
ベ ル
am ing</w>
p ha
Re por
exclu ding</w>
recor ding</w>
T rue</w>
マ トリ
区 別</w>
ージ ング</w>
バイン ド</w>
エンタープライ ズ</w>
Sha re
かか わら</w>
tiv eness</w>
e c</w>
D is
pro jection</w>
モ ー
spec tra</w>
5 8</w>
el se</w>
ビ ジョ
手 続</w>
numer ic</w>
mal es</w>
jo ints</w>
m erg
イ ル
aler t</w>
Ma p</w>
事 故</w>
ag ents</w>
p s
ID E</w>
英 語</w>
se mic
c c</w>
@ @</w>
commun ity</w>
症 候
症候 群</w>
p it
pro motion</w>
ne igh
ar ity</w>
modu les</w>
Ap plic
藤 原</w>
迅 速</w>
boun d
compu ted</w>
造 影</w>
achi eved</w>
share point</w>
val idation</w>
fi le
silic on</w>
テ レ
fi sh
sol ve</w>
ケ ース</w>
y where</w>
log s</w>
200 6</w>
ang les</w>
rec ip
si zes</w>
トレ ース</w>
g un
transp or
Tran s
sion ing</w>
ステ ーション</w>
st or</w>
高 かっ</w>
ジ ョン</w>
execu ted</w>
nitro gen</w>
le ading</w>
k en
不 全</w>
1. 0</w>
マイ クロ</w>
予 後</w>
工 具</w>
practi ce</w>
成 果</w>
st ack</w>
col lap
fil led</w>
明 確</w>
vi sion</w>
accur ate</w>
cal ls</w>
bor n</w>
代 謝</w>
ac et
gener ic</w>
bi os</w>
wel d</w>
8 00</w>
出 血</w>
author ity</w>
ho sts</w>
ro o
indivi du
体 積</w>
e es</w>
で は</w>
un do</w>
元 年</w>
メモ リー</w>
o logy</w>
peri ph
S tar
L ink</w>
健 康</w>
princip al</w>
会 議</w>
w es
い つ
V al
comp la
appli ance</w>
uc tu
preci sion</w>
f ar
tri al</w>
ka i
or acle
Share Point</w>
付 与</w>
病 院</w>
re mark
uni form</w>
Chec k</w>
tr un
k ur
cho sen</w>
Ad ministr
k it
k yo</w>
appro xim
言 葉</w>
コン クリ
H E
k m</w>
ju ly</w>
i so</w>
instru ments</w>
界 面</w>
stra ight</w>
ト ル
simultane ously</w>
y cle</w>
i ter
u b
gener ates</w>
c r</w>
coun tries</w>
競 合</w>
en tal</w>
U S</w>
pul monary</w>
consider ation</w>
kin e
誤 差</w>
不 要</w>
腹 部</w>
別 名</w>
成 績</w>
k an</w>
ad jac
v ot</w>
プリ セット</w>
in o</w>
ch ip
シ グ
re start</w>
an n
S ur
エ ン</w>
l and
pac kets</w>
コン ス</w>
10 0
分 化</w>
ri se</w>
tim age</w>
4 .
注 入</w>
m d</w>
i den
完 成</w>
ゲ ーム</w>
メ ール
stro ke</w>
G a
費 用</w>
調 節</w>
メン ト
7 6</w>
st one</w>
brou ght</w>
Col or</w>
配 分</w>
wal k</w>
マネ ージャ
消 失</w>
prote ct</w>
a im
信 仰</w>
da i</w>
employ ee</w>
散 乱</w>
re pair</w>
le sions</w>
an e
殺 し</w>
quer ies</w>
gr ading</w>
fl uctu
Ex change</w>
ph en
mor pho
不 足</w>
sen se</w>
comp ens
k y</w>
R P</w>
人 々</w>
sp ot</w>
rece ip
ca vity</w>
prod 84</w>
裁判 所</w>
bound aries</w>
じ て</w>
qu o
グリ ップ</w>
pul se</w>
de scen
リ クエ
は ず</w>
read s</w>
to ward</w>
clou d</w>
支 配</w>
pre set</w>
硬 化</w>
el astic</w>
br on
P A
off line</w>
cro s
ノ イ
ve ly</w>
1 45</w>
am ine</w>
cylin der</w>
fa ti
trac king</w>
fr action</w>
S O
tun nel</w>
te sted</w>
log ging</w>
men s</w>
through out</w>
ex plic
pu ts</w>
ra y
G rou
9 8</w>
ス ピン</w>
お い</w>
ギャ ップ</w>
f ru
A lig
埋 め
separ ation</w>
ans wer</w>
h our</w>
発 展</w>
土 壌</w>
tren ds</w>
書き 出す</w>
措 置</w>
ト ンネル</w>
li zation</w>
ta ins</w>
boo lean</w>
B IOS</w>
r ac
Ac tive</w>
peri o
hol ding</w>
leg al</w>
ag ency</w>
s an</w>
ad sor
ic ons</w>
dri ven</w>
navig ator</w>
ta i
ri er</w>
c u</w>
要 約</w>
助 け</w>
mo re
g ame</w>
dat um</w>
p sy
手 段</w>
classi fied</w>
tr ation</w>
13 7</w>
組 合せ</w>
amin o</w>
ベ ース
comm erci
チェ ーン</w>
cen ter
c amp
confi g</w>
単 語</w>
he rein
po sed</w>
herein after</w>
集 約</w>
as ked</w>
hol der</w>
trouble shooting</w>
hi stor
cir cum
gu i
approxi mately</w>
u re
transpa rent</w>
区 切り</w>
j in</w>
An ywhere</w>
メート ル</w>
air s</w>
動 向</w>
st y</w>
sc aling</w>
oc to
con stan
z u
Visu al</w>
コンクリ ート</w>
dece mber</w>
ミ ニ
sho gun</w>
シャド ウ</w>
エ チ
fe el</w>
エクスプロー ラ</w>
e .
共 同</w>
l d
i or</w>
もう 一度</w>
stra teg
wa ve
有 限</w>
que u
me i
放射 線</w>
speci fic
protec ted</w>
jun e</w>
ファ ン
b i</w>
ak ura</w>
ストロ ーク</w>
reac tor</w>
a de
ソ ル
g i</w>
カ リ
ach i</w>
lan tation</w>
解 明</w>
o li
spac ing</w>
遷 移</w>
ケ ータ</w>
S i
具 体</w>
P N</w>
Or acle
I A</w>
p n</w>
A s</w>
am bi
co ver</w>
n ag
le d
デ バッグ</w>
por t
identi fication</w>
graph ical</w>
de position</w>
グラ ウンド</w>
bo m</w>
popul ation</w>
n i</w>
L oc
セ ル
like ly</w>
me ters</w>
ach ing</w>
ste ri
ケ ート</w>
bir th</w>
1 20</w>
prin ted</w>
リクエ スト</w>
fati gue</w>
hi m
多 様</w>
判 定</w>
fun dam
な ら
w at
変 位</w>
octo ber</w>
comp ar
recei ving</w>
ね じ</w>
hepa tic</w>
ment ally</w>
De sign
i k</w>
sol ver</w>
オ リジ
recep tor</w>
後 で</w>
レ ッ
po p</w>
高 齢</w>
ブ ロ
全 部</w>
デ ン
shado ws</w>
+ +</w>
Stu dio</w>
Repor ting</w>
alter na
concentr ations</w>
200 1</w>
ディスプレ イ</w>
ob serv
vi o
h r
heav y</w>
悪 性</w>
tane ous</w>
確 実</w>
か なり</w>
he ar</w>
継 手</w>
や く</w>
Ne w</w>
pro per</w>
LIS P</w>
wh om</w>
N T</w>
測 量</w>
期 限</w>
} }</w>
correspon ds</w>
absolu te</w>
強 調</w>
B iped</w>
piec e</w>
dra wn</w>
教 え</w>
v as</w>
G u
ラン ダム</w>
mapp ed</w>
P E</w>
h lp</w>
マ ージ</w>
7 4</w>
自 体</w>
稼 働</w>
repres ented</w>
DW G</w>
h z</w>
スタ ック</w>
指 摘</w>
off er</w>
mo ment</w>
m m
引 出</w>
帯 域</w>
ス マ
earth qu
an cy</w>
advan tage</w>
D H
dri ves</w>
M A</w>
米 国</w>
か かる</w>
si an</w>
tra in</w>
pow der</w>
っ く
vi ll
electro de</w>
レ プリケーション</w>
argu ments</w>
affec ts</w>
デザ イン
strateg y</w>
strong ly</w>
ポップ アップ</w>
ち ょ
クリ ア</w>
edi ted</w>
た って</w>
him self</w>
cu b
h un
し ろ</w>
tr act</w>
cre dit</w>
ol y
dri vers</w>
抗 原</w>
tradi tional</w>
the m
cle an</w>
p i</w>
ligh tly</w>
S E</w>
A pp
輪 郭</w>
t .
Applic ations</w>
ラ ミ
pro mi
ad min</w>
optimi zation</w>
eng lish</w>
コ リ
1 st</w>
早 く</w>
側 面</w>
オ ート</w>
em er
書 面</w>
S a
more over</w>
東 京</w>
log ically</w>
i ent</w>
ま れ</w>
処 分</w>
総 合</w>
reg ul
Proper ties</w>
sc al</w>
im aging</w>
choo sing</w>
s in
inv a
effec tiveness</w>
con sumption</w>
スタ ー
met abo
あ ら</w>
cul tiv
幕 府</w>
始 点</w>
s ac
力 学</w>
wi de
out lines</w>
死 ん</w>
prob ably</w>
subsequ ent</w>
fri end</w>
糖 尿</w>
ち ゃ
下 さい</w>
アー キ
flu ore
薬 剤</w>
整 理</w>
offici al</w>
コンストレ イント</w>
軌 道</w>
アミ ノ
信 託</w>
ox idation</w>
mic ro</w>
exten d</w>
by tes</w>
経 由</w>
す く</w>
ra p</w>
L P</w>
sum mar
ques tions</w>
modi fication</w>
大 量</w>
ア レ
wo od</w>
整 備</w>
op ini
mil itary</w>
ic hi</w>
と ても</w>
C enter</w>
rou gh
sh ear</w>
d flow</w>
supp lied</w>
gen ic</w>
ウェ ア
u i</w>
異 なっ</w>
mi ze</w>
gene tic</w>
ア セット</w>
を通 じて</w>
proces sed</w>
gu y</w>
財 産</w>
up dating</w>
l uc
通 過</w>
希 望</w>
V er
伴 い</w>
ing ly</w>
car ry</w>
折 り
新 しく</w>
つ い</w>
b attle</w>
A D</w>
ストラク チャ</w>
in su
宣 言</w>
S Y
employ ees</w>
x p</w>
Ex press</w>
づ け</w>
occurren ce</w>
eu ro
ハ ー
cop per</w>
li mit
シ ング</w>
合 併
s it
合併 症</w>
v a</w>
X P</w>
M B</w>
I E
ガ イド
plan ned</w>
fi scal</w>
le u
- -
5 .
仕 訳</w>
探 し</w>
adjac ent</w>
アーキ テク
行 き</w>
e dition</w>
ネット ワーク
ax es</w>
感 度</w>
me l
re ducing</w>
fu r</w>
col labor
し ょう</w>
見 える</w>
オフ ライン</w>
7 9</w>
199 9</w>
al k
保 守</w>
nur bs</w>
continu ed</w>
frame work</w>
C E
pub lication</w>
than k</w>
sp ea
fe ed
い っ</w>
pers on
h ell</w>
微 細</w>
い に</w>
op tim
; 「</w>
b iped</w>
も り</w>
Se tt
整 合</w>
反 対</w>
左 右</w>
to ku
オペ レーション</w>
mach ines</w>
t ally</w>
書 類</w>
t ages</w>
dat a
c as
燃 焼</w>
す ぎ</w>
在 庫</w>
disc re
P T
po li
transpa rency</w>
osa ka</w>
せ ん</w>
f our
fluore sc
p age
スレ ッド</w>
provi ding</w>
non linear</w>
scan ning</w>
gener ating</w>
f are</w>
associ ate</w>
su res</w>
戦 略</w>
in king</w>
ti tion</w>
se cu
promp ted</w>
す ば
attach ment</w>
Selec t</w>
develop ing</w>
C S
発 注</w>
債 権</w>
フ リー</w>
ビジ ョン</w>
分 岐</w>
ポリゴ ン
ッ キング</w>
consoli dation</w>
ライフ サイクル</w>
en tr
v ation</w>
iden tical</w>
部 門</w>
thy ro
汚 染</w>
挙 げ</w>
analy tical</w>
reach ed</w>
ag ricul
forec ast</w>
pol ar
LU N</w>
指 し</w>
v ar
or dered</w>
ga in</w>
階 段</w>
sh ed</w>
pre defined</w>
metri x</w>
ep ing</w>
ぷ ろ
ドリ ル</w>
ex ci
磁 性</w>
r y
stu dents</w>
h am
論 文</w>
悪 い</w>
C L</w>
観 点</w>
p H</w>
m et</w>
待 っ</w>
す な
pix els</w>
coun ter</w>
Wor d</w>
di strict</w>
iz es</w>
Ti me</w>
sha res</w>
trus ted</w>
yl ene</w>
po or</w>
ab cd</w>
ve ments</w>
b ill</w>
wa ves</w>
pi vot</w>
オリジ ナル</w>
W i
ke pt</w>
meta stasis</w>
k ar
lin ux</w>
speci mens</w>
丈 夫</w>
小 型</w>
f aster</w>
c ket</w>
polyg ons</w>
ガ ー</w>
inde ed</w>
e g
consi dering</w>
y el
sp ir
per spective</w>
決 まり</w>
regi onal</w>
インター フェイス</w>
i ted</w>
hy bri
sep te
industri al</w>
en abling</w>
happ ened</w>
f oc
cop ying</w>
v ents</w>
j a</w>
identi fier</w>
am ar</w>
差 異</w>
md b</w>
mu co
lis p</w>
f as
誘 電</w>
入 れる</w>
control ling</w>
付 近</w>
en cies</w>
a b</w>
E X
s lightly</w>
surg ical</w>
ボ ーン</w>
fin ding</w>
大 幅</w>
pan crea
lo se</w>
Lin ux</w>
septe mber</w>
押し 出し</w>
セ レ
whe el</w>
200 4</w>
st ations</w>
secur ities</w>
stre et</w>
clari fy</w>
S tre
a u</w>
Pro duct</w>
fe ed</w>
取 っ</w>
その まま</w>
18 0</w>
ダ ッシュ
あ と</w>
スクリ ーン</w>
spectr um</w>
recur rence</w>
where as</w>
str ings</w>
p uni
achi eve</w>
低 く</w>
app ed</w>
se as
ー リング</w>
ado be</w>
in jur
ab norm
L S</w>
certific ates</w>
aff airs</w>
歴 史</w>
scat tering</w>
199 8</w>
科 学</w>
クロ ーン</w>
wel ding</w>
直 し</w>
sear ches</w>
し れ</w>
1 1
細 菌</w>
6 0
evi dence</w>
ment ary</w>
P art</w>
少 なく</w>
フ ル</w>
ne y</w>
op tionally</w>
aug ust</w>
わ ち</w>
すな わち</w>
違 う</w>
th or
不 正</w>
alph a</w>
trans ferred</w>
su spec
ec h</w>
回 収</w>
株 式</w>
も っと</w>
sa ys</w>
ti de</w>
D M</w>
inf lam
CA T
限 定</w>
ク タ
識 別
識別 子</w>
sh ar
分 光</w>
sou th</w>
respec tive</w>
ナビゲ ート</w>
cir cul
ar ri
sp read
Sett ings</w>
いっ た</w>
イ ス
地 球</w>
仮 定</w>
sol ved</w>
comple tion</w>
試 行</w>
大 丈夫</w>
dash board</w>
C M
推 進</w>
rou s</w>
fail s</w>
go ti
指 数</w>
reas ons</w>
明 示</w>
P article</w>
電 池</w>
ビ ー</w>
pro be</w>
素 子</w>
や り
段 落</w>
rec tang
easi er</w>
並 列</w>
your self</w>
skele ton</w>
8 2</w>
qu ite</w>
レイ アウト
バ ランス</w>
ホ ーム
mu sic</w>
支 持</w>
le t
変 え</w>
vas cular</w>
compati bility</w>
8 8</w>
ル トン</w>
resp ir
ア ン</w>
cle arly</w>
ア プライアンス</w>
M S
せん 断</w>
考 える</w>
粘 膜</w>
h atch</w>
浸 潤</w>
plan ar</w>
d ol
epi theli
含 ん</w>
I mp
に関 し</w>
jun ction</w>
gener ator</w>
pic tures</w>
fi ers</w>
ロ ケーション</w>
mat ches</w>
g est</w>
失 わ</w>
pul l</w>
s and</w>
決 め</w>
aggre gate</w>
ti l
サ マ
er a</w>
bin ary</w>
descri ptions</w>
なん て</w>
rap id
C a</w>
定 常</w>
f ing
遺 伝</w>
re placement</w>
円 柱</w>
prod 140</w>
pa th
g an</w>
ア セ
exp en
ep m</w>
ba ku
ノイ ズ</w>
reli ability</w>
O n
de t
establish ment</w>
リア ル
だ から</w>
periph eral</w>
ef for
思 い</w>
っ て
gi ving</w>
rela tively</w>
author ization</w>
C l</w>
Per form
回 折</w>
pe p
val ve</w>
d r</w>
cel er
低 温</w>
assum ed</w>
S I
9 9
nam ing</w>
mechan isms</w>
is tic</w>
E PM</w>
も た
requ ested</w>
あ たり</w>
part ner</w>
dete ct</w>
w atch</w>
bal an
保 留</w>
leav es</w>
direc tor</w>
j av
モデ ム</w>
vit ro</w>
an ch
集 中</w>
満 たす</w>
差 し
wes tern</w>
MR I</w>
光 源</w>
欠 陥</w>
b ab
r at</w>
geome tric</w>
F r
ti tu
for mations</w>
in ary</w>
射 出</w>
鉄 道</w>
ダッシュ ボード</w>
o ste
twor k</w>
imple mented</w>
dele tes</w>
{ {</w>
ど んな</w>
princi ple</w>
Clo th</w>
work book</w>
v ature</w>
reflec tion</w>
ff ec
原 理</w>
assign ments</w>
合 い</w>
dri ll</w>
baku fu</w>
U ser</w>
位 相</w>
esti mate</w>
ウォ ール</w>
cal ci
シ エ
ら しい</w>
pur poses</w>
encryp tion</w>
認 可</w>
リ フレ
ho les</w>
反 復</w>
opti mal</w>
プ ル
amp l
r ich</w>
デ フォー
チ ド</w>
im mun
役立 ち</w>
パート ナー</w>
o 3</w>
ig n
ク レ
S of
j uni
戻 さ</w>
つ き</w>
並 びに</w>
エラー メッセージ</w>
つ ぶ
soci ety</w>
r h
定 期</w>
ish i</w>
s ar
A do
ten tion</w>
v ary</w>
car ds</w>
or ation</w>
ジオメ トリ
M e
concer ned</w>
si vely</w>
gir l</w>
op y</w>
st ly</w>
lis m</w>
optim um</w>
Sh ape</w>
be aring</w>
ref ers</w>
ペ ー
D es
置 い</w>
go es</w>
pro fessional</w>
還 元</w>
contro ll
them selves</w>
省 令</w>
I V</w>
ang ular</w>
V M
問い 合わせ</w>
rapid ly</w>
fac ts</w>
chro mo
che mo
C F
constra ined</w>
ak a</w>
hy perion</w>
半 導体</w>
re ach</w>
fo o
事 実</w>
mach ining</w>
hol ders</w>
reco ver</w>
ir ing</w>
speci fications</w>
CP U</w>
gro wn</w>
min amoto</w>
asse ss
公 差</w>
ok a</w>
he et</w>
drag ging</w>
medic ine</w>
survi val</w>
mode m</w>
微 小</w>
ぎ る</w>
s low</w>
ラ ップ</w>
jour nal</w>
adju stment</w>
tur ns</w>
フラ ッシュ</w>
につ き</w>
multi p
Ado be</w>
9 7</w>
ど れ</w>
アメ リカ</w>
trac ks</w>
identi fies</w>
determin ation</w>
議 論</w>
ビュー ア</w>
シ フト</w>
わ かり</w>
de rer</w>
A v
han ds</w>
ver ing</w>
C LA
と いった</w>
led ger</w>
db c</w>
著 しく</w>
ガイド ライン</w>
ess ential</w>
収 益</w>
theore tical</w>
mol ding</w>
ら く</w>
an o</w>
te a</w>
buddhi st</w>
publish ing</w>
stre ams</w>
sign ature</w>
G et
no ve
利 益</w>
extrac ted</w>
伝 播</w>
行 列</w>
wh en
pix el</w>
communic ations</w>
fa i
esti mation</w>
dec imal</w>
ato mic</w>
摩 擦</w>
F I
ちょ っと</w>
id ance</w>
cp u</w>
ch all
開 口</w>
h all</w>
movi e</w>
広 い</w>
し ま
m align
R NA</w>
mil lion</w>
ne goti
lat ter</w>
arti ficial</w>
Inter net</w>
dr y</w>
key word</w>
量 子</w>
fa il</w>
cor ro
N i</w>
三 角形</w>
バック グラウンド</w>
本 文</w>
や すく</w>
Up date</w>
顕 著</w>
NA ME</w>
し ょ
中 止</w>
4 5
コマンド プロンプト</w>
エイ リア
フ ラ</w>
stab ili
接 着</w>
蓄 積</w>
vi sta</w>
有 し</w>
bo y</w>
bi op
p layer</w>
マネージャ ー</w>
用 途</w>
fe br
direc tions</w>
判 明</w>
ログ オン</w>
clus ters</w>
on duc
ta ke
シ リ
In te
プラ ン
sub mitted</w>
altern ate</w>
sh oul
ン チ</w>
a g</w>
柔 軟</w>
ex per
戻 っ</w>
us hi
u h</w>
l ag
indic ator</w>
精 神</w>
sign ed</w>
e k</w>
represen tative</w>
man ner</w>
8 3</w>
た だ</w>
shap ed</w>
Hy perion</w>
9 6</w>
when ever</w>
マ ー</w>
enti um</w>
sh af
炎 症</w>
シェー ディング</w>
n ature</w>
Ba sic</w>
pa id</w>
gh t
極 めて</w>
不 安定</w>
gover nor</w>
febr uary</w>
E S
g on</w>
com mod
トレ イン</w>
th r
cap su
a wa</w>
テー マ</w>
モニ タ</w>
semic onduc
inve stment</w>
h n</w>
先 端</w>
lymp h</w>
C har
広 く</w>
ック ス
ac ting</w>
禁 止</w>
b uc
チェック イン</w>
到 達</w>
チ ュ
rail way</w>
ラ ンド</w>
o mic</w>
ペ プ
lo ver</w>
伝 送</w>
スケ ルトン</w>
m ice</w>
パ ワー</w>
ge l</w>
ther net</w>
te ll
wel fare</w>
fr ic
constan ts</w>
sequ ences</w>
止 め</w>
uni x</w>
effec tively</w>
al location</w>
S p
po ly</w>
マ ン
star tup</w>
l en
太 陽</w>
伴 っ</w>
W h
進 め</w>
t ment</w>
relea sed</w>
dh cp</w>
an o
フェ ーズ</w>
suppres sed</w>
V LAN</w>
inci dence</w>
fundam ental</w>
am ed</w>
ses sions</w>
協 力</w>
re ven
cere bral</w>
D C</w>
di ver
解 釈</w>
gen cy</w>
栄 養</w>
テ ル</w>
sc ore</w>
pre p
beg an</w>
標 高</w>
ven tric
per man
promo ted</w>
ic ode</w>
or ph
main tained</w>
tru th</w>
ex act</w>
換 算</w>
suppor ting</w>
プ ト
so lar</w>
appro ved</w>
意 見</w>
represen ting</w>
o g
ef its</w>
順 位</w>
ブ ート</w>
tit led</w>
look up</w>
フレ ーム
ネ イ
igno red</w>
cont our</w>
re stor
に か
A ll</w>
と り</w>
未 満</w>
u .
M I
起 き</w>
l ens</w>
同 時</w>
formul as</w>
consoli dated</w>
n extre
k id
u lated</w>
denti als</w>
C R</w>
nextre f</w>
d .
b ol
トポ ロジ</w>
ga tes</w>
摘 出</w>
ニ ー</w>
di alo
f el
be ans</w>
Alig nment</w>
8 9</w>
プライマ リ
199 7</w>
er y
現 場</w>
t su</w>
sc roll</w>
nove mber</w>
コ ース</w>
econom y</w>
網 膜</w>
de grad
長 方形</w>
波 長</w>
離 れ</w>
s c</w>
sp i
mem ber
ur ity</w>
deplo y</w>
respon sible</w>
Pa int</w>
can vas</w>
L ight</w>
流 量</w>
resi dual</w>
extr a</w>
下 位</w>
設 立</w>
cen tur
to mo
扱 い</w>
み んな</w>
疲 労</w>
ti ps</w>
on ing</w>
mor ning</w>
an ne
スク ロール</w>
diff r
de stro
aspec t</w>
ミ ネ
dist ingu
合わ せる</w>
F E
脂 肪</w>
つ つ</w>
t angle</w>
fo ot</w>
ori de</w>
iso trop
conduc ting</w>
LD AP</w>
品 種</w>
d ns</w>
違 っ</w>
制 度</w>
集 団</w>
fit ting</w>
確 率</w>
ダイナミ ック
ア プロー
glu co
B ack
sen s
alter native</w>
V M</w>
lan ds</w>
Su b
ro w
construc t</w>
傾 斜</w>
su peri
入 手</w>
読み 込ま</w>
し まっ</w>
y .
i di
c v</w>
起 因</w>
v ap
kok u</w>
cer am
神 社</w>
汎 用</w>
誘 発</w>
ま っ
r aster</w>
P A</w>
ヒ ドロ
し た</w>
sa ves</w>
円 形</w>
in trac
fil ename</w>
um er
b and
約 束</w>
he ard</w>
い いえ</w>
malign ant</w>
he ading</w>
DB C</w>
も っ</w>
de al</w>
a tively</w>
工 事</w>
qu an
conflic t</w>
sp on
t x
or tho
進 展</w>
ストリ ーム</w>
tex tures</w>
ac e
長 く</w>
Fin ancial</w>
pre fix</w>
ed uling</w>
intermedi ate</w>
s on
r am
cr ack</w>
flo ating</w>
is land</w>
符 号</w>
hel ps</w>
ウ ス</w>
pas ses</w>
ci l</w>
用 紙</w>
A E
25 5</w>
不 良</w>
z e
cryst als</w>
索 引</w>
アプロー チ</w>
in ver
go al</w>
cor ri
mi d</w>
exten t</w>
気 に
surroun ding</w>
練 習</w>
it a</w>
fol d</w>
de creases</w>
Con fig
2 4
満 足</w>
resol ve</w>
n Cloth</w>
flexi ble</w>
IS O</w>
ca re
ach es</w>
6 .
両 者</w>
ho od</w>
le gen
perform s</w>
対 話</w>
詳 しく</w>
he tero
gu ys</w>
テ ン</w>
um i</w>
G A</w>
F e
D P</w>
メ ー
UL L</w>
8 1</w>
cur vature</w>
UN IX</w>
g one</w>
A S</w>
con tex
D ele
g al
ダ ー
o ro
a h</w>
宇 宙</w>
le y</w>
sa ying</w>
experi mentally</w>
an a</w>
当 時</w>
パラメ ーター</w>
es the
gradu ally</w>
ゲ ル</w>
算 出</w>
同 等</w>
prep are</w>
ホ ット</w>
ben efits</w>
labor atory</w>
ず つ</w>
diffr action</w>
no vel</w>
di al</w>
sci ence</w>
被 害</w>
Perform ance</w>
min ute</w>
cou pl
開 か</w>
inter ference</w>
gate way</w>
ピ ー
カウ ン
feed back</w>
寿 命</w>
pre ference</w>
pip ing</w>
earthqu ake</w>
im en</w>
liste n</w>
bo ok
Cu sto
impor tance</w>
発 光</w>
lab or</w>
wide ly</w>
histor ical</w>
particul arly</w>
cap ability</w>
ミ ット</w>
ダイナミ ック</w>
tum ors</w>
met al
li ar</w>
flu x</w>
ウ エ
deci ded</w>
排 出</w>
候 補</w>
ニ ング
togg le</w>
succ es
el lip
cap able</w>
出 来る</w>
c at</w>
モ バ
molecu les</w>
le n</w>
有 無</w>
個 体</w>
tur b
incorpor ated</w>
wa vel
rai sed</w>
si mil
dar k</w>
reflec t</w>
p ure</w>
extr u
学 生</w>
y e</w>
selec tions</w>
pal ace</w>
h r</w>
トリ ム</w>
four th</w>
a st
照 合</w>
DH CP</w>
業 界</w>
パー セント</w>
su me</w>
juni or</w>
起こ る</w>
carri er</w>
D NS</w>
補 間</w>
A lt</w>
利 点</w>
inte re
モバ イル</w>
イン フラ</w>
購 買</w>
off ers</w>
近 年</w>
9 2</w>
de pres
全 身</w>
あ ん
com ment</w>
f tp</w>
マ ップ
re viewed</w>
日 数</w>
系 列</w>
20 11</w>
co lo
distribu tions</w>
l ating</w>
gro un
大 気</w>
プロ グラ
モデ ル
ファン クション</w>
ド ー
assess ment</w>
規 制</w>
割 当て</w>
can di
sc si</w>
s in</w>
co vered</w>
kam akura</w>
bit map</w>
dist in
sign als</w>
ex plan
溶 解</w>
ステ ージ</w>
i ler</w>
aly st</w>
en ve
al co
short cuts</w>
any one</w>
expla in</w>
Disp lay</w>
in a</w>
マニ ピュ
っ ち</w>
f x</w>
ライ ド</w>
spread sheet</w>
行 政</w>
foun dation</w>
も ら
しま う</w>
gen es</w>
み たい</w>
alumin um</w>
gg ing</w>
cla im</w>
ク ラ</w>
am ous</w>
妥 当</w>
ポー ズ</w>
differen tial</w>
h ur
consi sting</w>
深 い</w>
あり が
oper ated</w>
ヘ ッド</w>
固 体</w>
シミュ レート</w>
ア プリ
cal ling</w>
再 現</w>
C T
アラ ート</w>
すば やく</w>
it h</w>
fl ag
エン ジ
b t</w>
ad o</w>
ab normal</w>
k un
被 覆</w>
re section</w>
pen dic
offic er</w>
inser ts</w>
F iel
病 態</w>
リ ストア</w>
back ups</w>
bul k</w>
Cat alyst</w>
h ex
transi ent</w>
pre ferred</w>
plac e
ト レイ</w>
照 会</w>
ben ch</w>
攻 撃</w>
大 文字</w>
ti zation</w>
den cy</w>
前 提</w>
sk y</w>
rectang ular</w>
re actions</w>
cor on
F l
2. 0</w>
cl one</w>
ne ws</w>
ス ロット</w>
cre dentials</w>
ul us</w>
Str ing</w>
mr i</w>
F il
com bus
t v</w>
訪 問</w>
p se
M C</w>
' '</w>
ポイン ト
ファ クト</w>
fore st</w>
予 想</w>
r it
inten ded</w>
テ ナ
bac teria</w>
振 幅</w>
disp o
S N
血 球</w>
知 る</w>
access ing</w>
mark ers</w>
de emed</w>
yel low</w>
呼び 出す</w>
r are</w>
dis ks</w>
bi tion</w>
conclu ded</w>
per pendic
平 衡</w>
ツール バー</w>
届 出</w>
世 紀</w>
v ables</w>
AT E</w>
em on</w>
d der</w>
sp an</w>
マトリ ックス</w>
ポ ンプ</w>
run time</w>
gran ted</w>
Star t</w>
fil tering</w>
pack ages</w>
en forcement</w>
pro por
資 金</w>
短 い</w>
BO M</w>
ステ ン
rec tangle</w>
データ ム</w>
tre es</w>
プリ ファレンス</w>
Ar ch
国 内</w>
Inter active</w>
レン ズ</w>
ch est</w>
電 位</w>
リフレ ッシュ</w>
回 線</w>
prote ins</w>
急 速</w>
多 かっ</w>
hand les</w>
ジ ュー
い で</w>
N ULL</w>
up load</w>
wi res</w>
n t</w>
prog res
wh o
do mes
M ob
anim ate</w>
SC SI</w>
食 道</w>
kam i</w>
acces sed</w>
9 4</w>
親 王</w>
あら ゆる</w>
certi fication</w>
アーキテク チャ</w>
D O
quan tum</w>
ad y</w>
製 作</w>
撮 影</w>
不 可</w>
si r</w>
視 点</w>
li fer
paragrap hs</w>
under lying</w>
M I</w>
adap tive</w>
centur y</w>
ボ ット
ニ ーズ</w>
co o
を通 して</w>
process ors</w>
I GE
p un
3 5
m at</w>
us a</w>
phy si
乾 燥</w>
そ う
direc tories</w>
なら びに</w>
respon ses</w>
discus s</w>
t ap
calcu lates</w>
sear ching</w>
gloss ary</w>
relea ses</w>
r he
hosp it
3 60</w>
x ation</w>
サー チ</w>
甲 状
um ber</w>
ファイ バ</w>
は じめ</w>
持 た</w>
トラン ジ
el ling</w>
be au
g ated</w>
can cel
PH s</w>
ra in</w>
文 化</w>
mat o
pain ting</w>
実 証</w>
甲状 腺</w>
前 条</w>
キュ ーブ</w>
z ones</w>
r f</w>
dis order</w>
dist urb
rol ling</w>
伝 え</w>
cou p
プロー ブ</w>
b les</w>
ン ク</w>
ブ ール</w>
記 入</w>
cli p
el lular</w>
bu b
いつ も</w>
allow ing</w>
( .</w>
ステ ロイド</w>
diff use</w>
ordin ary</w>
id al</w>
d amp
配 向</w>
スト レス</w>
当 たり</w>
per fec
オペレー ティング</w>
ed itable</w>
n ic
disco very</w>
N T
nucle us</w>
corro sion</w>
val s</w>
tri m</w>
anti gen</w>
allo ys</w>
M R</w>
complic ated</w>
T able</w>
胸 部</w>
cle ar
wa iting</w>
残 高</w>
日 間</w>
popu p</w>
electro magnetic</w>
k on
軽 減</w>
vehic le</w>
ta il</w>
A dd
モニ ター</w>
指 導</w>
pur i
こ んな</w>
promp ts</w>
ma ins</w>
be y
lea f</w>
除 き</w>
N C</w>
工 場</w>
アプリ ケーション
comp liance</w>
mi ya</w>
li e</w>
assign ing</w>
ar o
数 点</w>
小 数点</w>
マニピュ レータ</w>
su s</w>
prog nosis</w>
gen esis</w>
199 0</w>
端 子</w>
gra vity</w>
commod ity</w>
シ ウム</w>
た ん</w>
visi t</w>
1 11</w>
time line</w>
rou t
f erro
acceler ation</w>
An im
アミノ 酸</w>
commerci al</w>
ナ ノ</w>
tur ning</w>
tal king</w>
臨 界</w>
修 飾</w>
シ ート
plat forms</w>
ne ur
t am
sch eduling</w>
manufactu rer</w>
ru b
ben ding</w>
por tal</w>
vac u
sign s</w>
toku gawa</w>
re ti
vis co
1 10</w>
si ght</w>
power ful</w>
ato ms</w>
楕 円</w>
多 重</w>
sen ds</w>
メ モ</w>
ス ン</w>
ゅ う
correc tion</w>
続 い</w>
登 記</w>
タ イル</w>
歩 行</w>
pi vo
モ ーション
norm ally</w>
シ ア</w>
sh ade</w>
langu ages</w>
劣 化</w>
屈 折</w>
け い</w>
務 所</w>
8 7</w>
v m</w>
ques tion
将 軍</w>
objec tive</w>
bey ond</w>
食 品</w>
イメ ージ
biop sy</w>
ip v
da te
イ ク</w>
関連 付ける</w>
ma il
n as</w>
表 記</w>
spe ech</w>
重 合</w>
ner ship</w>
S im
D O</w>
栽 培</w>
pol lu
produc t
消 化</w>
d m
predic tion</w>
改 訂</w>
cere mon
comp aring</w>
in ity</w>
スタ ディ</w>
produc es</w>
fi gu
ぇ く
0 3</w>
直 後</w>
dri ving</w>
だ し</w>
seri ous</w>
acci dent</w>
origin ally</w>
fon ts</w>
fil let</w>
ハンド ラ</w>
D ra
reson ance</w>
res in</w>
S H
pro lifer
達 し</w>
ッ ター</w>
重 量</w>
気 管
d x
準 拠</w>
代 理</w>
sen ding</w>
poly mer
感 じ</w>
us hi</w>
f at
every one</w>
過 剰</w>
play back</w>
he aring</w>
es oph
at ly</w>
rec y
CLA Ri
フィー ド
wh ate
descri p
発 達</w>
v o</w>
ca p</w>
In f
タ リング</w>
whate ver</w>
o ce
g ent</w>
く れる</w>
p d</w>
z u</w>
phenomen a</w>
単 独</w>
ter n
h yp
co ating</w>
att ack</w>
節 点</w>
nu tri
re alized</w>
fab ric
beli eved</w>
RA ID</w>
ne i
スト ラ
閉 塞</w>
い け</w>
フォル ダー</w>
view ports</w>
ori ented</w>
bon d</w>
pre si
MA X
IP v</w>
エクス プレ
ju d
concep ts</w>
pha ses</w>
鎌 倉</w>
わ ず
p b
レイ ヤ
ア ド</w>
coupl ing</w>
perpendic ular</w>
hi de
n s
Vie w
d ang
Sha red</w>
位 置
G e
k y
es ses</w>
年 代</w>
フラ ット</w>
rang es</w>
mar ri
イ ス</w>
7 .
in come</w>
CA TI
意 識</w>
ピ ボット
間 接</w>
cla im
スプレ ッド
g am
deci de</w>
0. 0</w>
posi tioning</w>
ウェ イ</w>
Gu ide</w>
生 体</w>
ハ ッチング</w>
buil dings</w>
controll ers</w>
D VD</w>
min al</w>
b ly</w>
situ ations</w>
emer gency</w>
プリ ント</w>
assi stant</w>
cla use</w>
Design er</w>
sho ot</w>
Val ue</w>
麻 酔</w>
イン ト
succe eded</w>
アン カー</w>
嚢 胞</w>
mix ture</w>
pr o</w>
af ter
グ レー
pri mi
sub si
n cloth</w>
見 い
待 機</w>
um a</w>
resol ved</w>
チャ ー</w>
clari ion</w>
ジェ ネ
か し
phenomen on</w>
ten si
bo ards</w>
discus sion</w>
b u</w>
vali date</w>
t ad
domes tic</w>
C C</w>
知 ら
Dat a
pan els</w>
両 側</w>
sh aders</w>
わず か</w>
c m
v or
pol ice</w>
in corporation</w>
平 安</w>
ペ ン</w>
フィ レット</w>
pri est</w>
materi alized</w>
guide lines</w>
ig es</w>
i on
CLARi X</w>
sten t</w>
qu ad
co 2</w>
塗り つぶ
work ers</w>
supp le
sle ep</w>
p ump</w>
conduc tivity</w>
不 透明</w>
gri p</w>
Sa ve</w>
anci ent</w>
spec imen</w>
蒸 気</w>
bin d</w>
be an</w>
sugge sts</w>
do mains</w>
radi al</w>
mei ji</w>
ke e
l umin
dep end</w>
ad eno
U S
脂 質</w>
強 力</w>
confir mation</w>
イン チ</w>
f ts</w>
テク ニ
th ers</w>
tex t
restric ted</w>
comm only</w>
an nu
息 子</w>
し も</w>
u. s</w>
determin ing</w>
pres sing</w>
凡 て</w>
adv ance</w>
M edi
a or
usu al</w>
the me</w>
shaf t</w>
v ul
以 後</w>
imple ment</w>
extre me
正 規</w>
anno tations</w>
sho ck</w>
l c</w>
micro scopy</w>
expo sed</w>
fal ls</w>
立 体</w>
nar a</w>
in c</w>
W are
グル ープ
サイ ト
li ved</w>
acces sible</w>
expan ded</w>
重 力</w>
上 下</w>
conver ting</w>
が る</w>
th ick</w>
reg ulation</w>
U E</w>
錯 体</w>
mer ger</w>
st ages</w>
ま え</w>
gre atly</w>
結 論</w>
th on</w>
デ ュ
ありが とう</w>
ren derer</w>
渡 し</w>
幾 何</w>
f light</w>
defec t</w>
経 営</w>
デフォー マ</w>
mix ing</w>
入 る</w>
titu de</w>
Ware house</w>
tur bul
pro jec
E R</w>
想 定</w>
g all
ampl itude</w>
C eler
nor thern</w>
he ian</w>
trig ger</w>
と か</w>
sp er
combus tion</w>
I G
末 梢</w>
土 地</w>
low est</w>
b es</w>
映 画</w>
injur y</w>
de l
み る</w>
rot ating</w>
in duction</w>
stra ins</w>
degrad ation</w>
199 6</w>
op pos
di ary</w>
cl ing</w>
th al
p v
ペ ア</w>
進 み</w>
ス ナー</w>
成 立</w>
nei ther</w>
superi or</w>
accomp ani
2 50</w>
I g
A C</w>
w rap</w>
ac ked</w>
s lot</w>
0. 5</w>
under went</w>
S cal
向 かっ</w>
characteri zed</w>
wel come</w>
schedu les</w>
s me
ハイパー リンク</w>
web site</w>
D L</w>
グラフィ ー</w>
付 属</w>
E ffec
d ness</w>
ill ary</w>
extreme ly</w>
有 価</w>
モ ン
h ate</w>
Wh dev</w>
全 く</w>
an esthe
fuc king</w>
下 記</w>
) 「</w>
アイ ソ
sh in</w>
p .
dis aster</w>
大 腸</w>
つ もり</w>
app a
唯 一</w>
Li st</w>
外 科</w>
bel ong</w>
dic tionary</w>
過 ぎ</w>
accord ance</w>
感 受
感受 性</w>
D T
re sc
D E</w>
C li
: :</w>
199 5</w>
su rely</w>
走 査</w>
was n</w>
dependen cy</w>
cal i
携 帯</w>
2 3
認 める</w>
M ul
クロ ス</w>
har a</w>
引 用</w>
ite ct</w>
電 荷</w>
置 か</w>
wa ter
副 作用</w>
ロ ープ</w>
wavel ength</w>
lin king</w>
transp lantation</w>
ai m</w>
re tention</w>
簡 易</w>
ジ ア</w>
9 1</w>
モ ー</w>
s our
guar an
um ination</w>
Na vi
ル ・
あん た</w>
fric tion</w>
部 材</w>
O pen</w>
な に</w>
min or</w>
cur tain</w>
ダイ レ
ach ed</w>
st amp</w>
セ ラミ
tw ice</w>
po e
cardi ac</w>
絶 縁</w>
M ar
クイ ック</w>
pro spec
ch er</w>
fi bers</w>
ab le
li fe
In fo
zz saw</w>
sp r
lec tion</w>
receip t</w>
col on</w>
原 点</w>
扱 う</w>
モ ノ
ホ イ
マイ クロ
program ming</w>
z a</w>
7 00</w>
n ice</w>
搬 送</w>
we ak</w>
工 業</w>
受け 入れ</w>
impro ving</w>
株 式
so dium</w>
証 拠</w>
9 3</w>
株式 会社</w>
re tro
n ap
普 及</w>
p t
Grou p</w>
corri dor</w>
boun ding</w>
alterna tively</w>
スタ ンド
fav or
住 宅</w>
s ad
ニ ュ
IGE S</w>
どう して</w>
cor related</w>
C M</w>
p o</w>
す ぎる</w>
事 務</w>
E mdb</w>
Ac tive
中 断</w>
p ig
tra y</w>
だ って</w>
kno ws</w>
h it</w>
. the</w>
渡 さ</w>
min ary</w>
C ache</w>
メ イン
br ac
切 れ</w>
V PN</w>
様 式</w>
コンフィギュ レーション
発 表</w>
執 行</w>
ch l
端 点</w>
車 両</w>
v pn</w>
電 磁</w>
sen ten
' %</w>
ad ult</w>
in terior</w>
comp re
belong s</w>
レッ スン</w>
ste ady</w>
ティ ブ
衝 撃</w>
connec tivity</w>
試 作</w>
check box</w>
b und
普 通</w>
c md
tu s</w>
semiconduc tor</w>
スキ ン</w>
selec tive</w>
言 い</w>
衛 星</w>
焦 点</w>
寄 与</w>
飽 和</w>
欠 損</w>
レプリ カ</w>
samp ling</w>
bal lo
les son</w>
gu idance</w>
メン テナ
N O</w>
VM ware</w>
accep ted</w>
気管 支</w>
j e
ニ ル</w>
給 与</w>
ac ks</w>
im ag
se emed</w>
RE F</w>
n ested</w>
eng er</w>
mag n
編 成</w>
懲 罰</w>
ser s</w>
k new</w>
オ ート
shu t</w>
go ods</w>
オ キシ
sup er</w>
simu lations</w>
sy s
at m</w>
エ ミ
直 前</w>
不 可能</w>
C I
対 処</w>
フィード バック</w>
政 治</w>
2 ,
リ ット</w>
スラ ブ</w>
sp ite</w>
require ment</w>
a er
customi zed</w>
00 0
オーバー ライド</w>
inter pol
fif th</w>
an ce
メチ ル
stop ped</w>
v lan</w>
ネ スト</w>
施 工</w>
し ば
箇 所</w>
忘 れ</w>
ボ ール</w>
resul ted</w>
bio logical</w>
骨 髄</w>
増 や
fin ds</w>
ペプ チド</w>
v mware</w>
log ged</w>
histo logical</w>
utili zing</w>
num ber
ラン ナー</w>
k it</w>
hy dra
緊 急</w>
ten dency</w>
lar gest</w>
di a</w>
波 形</w>
最 低</w>
ジェ ット</w>
chemo therapy</w>
work ed</w>
kai do</w>
heal thy</w>
Dele te</w>
ライ ズ
問 合せ</w>
12 8</w>
r ying</w>
M echan
Mode l</w>
上 げる</w>
gi es</w>
呼び 出さ</w>
R S</w>
エ コ
de man
フィ ル</w>
si o</w>
succ ess</w>
bro ken</w>
c lock</w>
高 分子</w>
相 違</w>
ves sel</w>
- &amp;</w>
人 物</w>
サ ウンド</w>
po le</w>
ambi ent</w>
カ ス</w>
比 例</w>
qu ot</w>
標 本</w>
団 体</w>
ev en
近 傍</w>
周 波</w>
誘 起</w>
alig ned</w>
N o</w>
transpor tation</w>
i b
ar rays</w>
物 語</w>
テレ ビ</w>
utili zed</w>
地 下</w>
コンパ イル</w>
band width</w>
イン ジ
フィル ム</w>
specific ally</w>
in i</w>
sc ape</w>
C E</w>
警 察</w>
く らい</w>
ro m</w>
リモ ート
置 き</w>
始 まる</w>
け て</w>
Mob ile</w>
question na
可 用
プラ ント</w>
にか けて</w>
可用 性</w>
パイ プ
ア シ
sym metry</w>
サン プリング</w>
th umb
オ フィ
reven ue</w>
amp li
社 員</w>
Cl us
a to</w>
無 線</w>
pse u
sla b</w>
paren ts</w>
Config uration</w>
一 括</w>
clo sing</w>
ネ ーム</w>
sa ke</w>
スタンド アロ
organ ized</w>
ca sting</w>
he ar
commit tee</w>
vap or</w>
I tem</w>
poly line</w>
deposi ted</w>
u la
contribu te</w>
終 端</w>
piec es</w>
clo sely</w>
や か</w>
6 5
分 解
Attribu te</w>
元 素</w>
to wards</w>
収 束</w>
な す</w>
resi stant</w>
pho to</w>
ani mated</w>
b ones</w>
答 え</w>
揃 え</w>
分解 能</w>
ste re
ベン チ</w>
条 件
ten ing</w>
mar gin</w>
G E</w>
キャプ チャ</w>
シ ップ</w>
大 型</w>
to oth</w>
migr ate</w>
happ en</w>
残 っ</w>
j u</w>
symp tom</w>
enhan cement</w>
ペ ン
データ セット</w>
sou thern</w>
ign ore</w>
accompani ed</w>
J o
sche matic</w>
f an</w>
scre w</w>
char ged</w>
動 力</w>
プラ スチ
D A
ad en
ri g</w>
ul ty</w>
play ing</w>
t ty</w>
中 性
リ ージョン</w>
me tr
ap par
popu lar</w>
struc tion</w>
cer tain
7 0
戦 い</w>
ぶ ん</w>
t l</w>
happ ens</w>
RA M</w>
ジョ ブ
ポ テン
spectro scopy</w>
m ou
visi o</w>
ッ カー</w>
pa irs</w>
インタ ラク
overri des</w>
ligh t
ス ・
起こ し</w>
pri me</w>
へ ん
it ly</w>
di electric</w>
1. 1</w>
L A</w>
mach i</w>
chip set</w>
税 金</w>
ho k
思 い
調 製</w>
考 え
条件 下</w>
大 動脈</w>
play s</w>
O pen
仲 間</w>
フラ ン
スライ ス</w>
mat su
fai lover</w>
物 体</w>
d vd</w>
co operation</w>
sa p</w>
凝 固</w>
ト ム</w>
inser ting</w>
a x</w>
周 り</w>
ad ver
マ グ
sa tell
fri ends</w>
arrang ement</w>
小 文字</w>
on set</w>
ホル モン</w>
住 所</w>
株 主</w>
S ear
ング ル</w>
キャン バス</w>
synchron ize</w>
H el
rec ordset</w>
マ ン</w>
秘 密</w>
グレ ー</w>
satell ite</w>
loc k
continu ity</w>
願 い</w>
author ized</w>
Sy m
ファ ン</w>
ali ties</w>
ac l</w>
e led</w>
W S</w>
sub stances</w>
re t
vir tu
お き</w>
心 臓</w>
ナ リ</w>
exclu de</w>
dynam ically</w>
ナ ーゼ</w>
stra te
si ties</w>
poten ti
el der
clas s
ア ー</w>
replic a</w>
ブ ート
su ke</w>
hand ler</w>
役立 つ</w>
ナ イ
tool bars</w>
4 8
calci um</w>
) （</w>
奈 良</w>
リアル タイム</w>
tas k
mo to</w>
述 べる</w>
s v
beli e
イ ー
お ら</w>
perio dic</w>
real ize</w>
let ters</w>
le g</w>
de composition</w>
compre hen
fb x</w>
Ci vil</w>
C al
l amin
I L</w>
h it
cap ac
リ スト
だ い</w>
連 携</w>
摂 取</w>
restric tions</w>
欲 しい</w>
プロ ビジョ
保 全</w>
sh it</w>
探 索</w>
T i</w>
ic ing</w>
び と</w>
e x</w>
20 12</w>
reli gi
in tra
gene ous</w>
legen d</w>
著 者</w>
厚 み</w>
U l
列 挙</w>
g old</w>
employ ed</w>
co al</w>
マ スタ</w>
ili bri
en ty</w>
ac ids</w>
respir atory</w>
j et</w>
取り 消
ア ノ
the ma
見つ から</w>
ur ai</w>
is ted</w>
ame ters</w>
トレー ニング</w>
込 め</w>
( 「</w>
廃 止</w>
complic ations</w>
ファ ー</w>
influ enced</w>
a que
t ings</w>
ア リング</w>
no ted</w>
R T</w>
導 出</w>
am orph
フォー ム
An alysis</w>
compens ation</w>
中性 子</w>
スケ ジュー
ill umination</w>
割 当</w>
um on
ad mitted</w>
粉 末</w>
inhi b
id ical</w>
エ ピ
oper ational</w>
作 っ</w>
as ci
jur idical</w>
calcul ating</w>
jo ined</w>
se i
20 13</w>
mil li
組み 込み</w>
パー ティ</w>
スコ ープ</w>
macro s</w>
en coun
li sting</w>
; 、</w>
ti tis</w>
あ げ</w>
ティ ック</w>
cont acts</w>
t ted</w>
加 える</w>
遅 れ</w>
回 答</w>
ポテン シャル</w>
S et
クリ ーン
M es
f at</w>
es cap
el uc
Sim ulation</w>
mesh es</w>
可 変</w>
thumb na
bon ds</w>
互 いに</w>
f ly</w>
hop e</w>
使 徒</w>
ed its</w>
骨 折</w>
心 配</w>
oppos ite</w>
belie vers</w>
utili ties</w>
fire wall</w>
devi ation</w>
work bench</w>
behavi ors</w>
半 分</w>
cou l
S how</w>
Ne twork</w>
val idity</w>
b at</w>
体 制</w>
dra fting</w>
clip board</w>
ール ド
も の
pre mi
大 阪</w>
全 国</w>
fu ku
電 解</w>
委 託</w>
visu alization</w>
in to
ch ip</w>
run ner</w>
連 れ</w>
ab e</w>
uni ted</w>
狭 窄</w>
an terior</w>
attemp ts</w>
G L</w>
ラー ゼ</w>
カ レンダー</w>
p el
A M
vi olation</w>
free dom</w>
高 値</w>
基 盤</w>
バ リ
c ash</w>
し ん</w>
エ ンド
か す</w>
produc ing</w>
頭 部</w>
ma thema
pen ding</w>
A B
marke ting</w>
人 びと</w>
直 交</w>
y en</w>
支 払
or a</w>
merg ed</w>
et ary</w>
mun ic
Selec tion</w>
gr as
se i</w>
e thernet</w>
bab y</w>
gr ant</w>
メンテナ ンス</w>
サマ リー</w>
まっ たく</w>
is ol
f ou
sum mer</w>
199 4</w>
amorph ous</w>
災 害</w>
付 着</w>
connec ts</w>
we ar</w>
ho t
pen e
he mor
レン ジ</w>
gro wing</w>
ウェ イ
name space</w>
fil ling</w>
differenti ation</w>
ネ ル
tt a</w>
ph y</w>
rou tes</w>
con ci
a ware</w>
si um</w>
b r</w>
基 点</w>
al located</w>
av a
ず み</w>
equ ilibri
I N</w>
inhi bit
co effici
sup posed</w>
leav ing</w>
地 上</w>
受 入</w>
inva sion</w>
ラン プ</w>
P S
スマ ート</w>
alco ho
st ments</w>
intest inal</w>
hol ds</w>
Work space</w>
ホイ ール</w>
25 6</w>
音 楽</w>
selec tor</w>
i f
St y
残 留</w>
ば ね</w>
time out</w>
分 裂</w>
assi stance</w>
am a
在 地</w>
simul ate</w>
simpli fied</w>
en coding</w>
徳 川</w>
fi led</w>
I B
n Particle</w>
ta x
de ca
in no
anim als</w>
アー ティ
on ed</w>
fi bro
pr ints</w>
el l
em br
aque ous</w>
Auto LISP</w>
stimul ation</w>
Be ans</w>
現 実</w>
キャ スト</w>
Pro cess</w>
coeffici ents</w>
pre li
he pat
be ams</w>
発 信</w>
h ref</w>
V C</w>
生 き</w>
結 腸</w>
ワ ールド</w>
アル ファ</w>
oc clu
Bo x</w>
転 写</w>
mark up</w>
デザ イ
判 別</w>
債 務</w>
確 か</w>
d ad</w>
mi y
gu ard</w>
F TP</w>
オ リ
い か
per me
moun ted</w>
ex pl
ar teri
noti fications</w>
小 児</w>
地 区</w>
r an</w>
repe ated</w>
psy cho
g la
終 わり</w>
proce ed</w>
presi dent</w>
2 6
サイ ド</w>
resi dence</w>
カ レン
ti tan
fe et</w>
P l
食 べ</w>
Vi sio</w>
か の</w>
ke eping</w>
気に 入り</w>
排 水</w>
U V
あ まり</w>
play ed</w>
進 ん</w>
トラ ップ</w>
ショ ナル</w>
コ イル</w>
contribu tion</w>
U T
preci se</w>
ティ ー</w>
z ip</w>
ar di
mp s</w>
溶 融</w>
モー メント</w>
pa d</w>
D L
エ ク
アン ケート</w>
p in
trac ing</w>
separ ately</w>
prefec tural</w>
ann oun
sam urai</w>
jin ja</w>
simu lated</w>
hybri d</w>
レンダ ー
パ ック</w>
t ons</w>
≫ 」
synthe sized</w>
regu lations</w>
conver ts</w>
x ref</w>
graph s</w>
commit ted</w>
ク ション
te ach
重 症</w>
addi tionally</w>
見つ ける</w>
合 っ</w>
thyro id</w>
半 期</w>
再 開</w>
プラスチ ック</w>
veri fication</w>
tx t</w>
S AP</w>
破 損</w>
データ ファイル</w>
g ls</w>
S te
ホーム ページ</w>
ro sis</w>
statis tical</w>
ツ イ
f ted</w>
camer as</w>
approxim ation</w>
C L
C opy</w>
ワイヤ レス</w>
re size</w>
h an</w>
I n</w>
ソリ ッド
bac terial</w>
Y es</w>
substitu tion</w>
ven dor</w>
pro ven</w>
con sul
ventric ular</w>
doc tor</w>
T o</w>
li fec
上 限</w>
w ants</w>
thro m
than ks</w>
initi ally</w>
あら か
no tic
輝 度</w>
w an</w>
妊 娠</w>
sho ts</w>
ip sec</w>
ボ ルト</w>
あらか じめ</w>
p y</w>
fil tration</w>
urb an</w>
rema ined</w>
vacu um</w>
elder ly</w>
dis k
rela xation</w>
defec ts</w>
陰 性</w>
trans l
suspec ted</w>
chl oride</w>
CATI A</w>
す り</w>
sup press</w>
pro pos
end point</w>
組 合</w>
一 貫</w>
バ ウ
trans mit
起こ す</w>
an isotrop
注 文</w>
整 列</w>
re duces</w>
coron ary</w>
D M
ティ ス</w>
clean ing</w>
ブレ ーク</w>
exten sions</w>
Mechan ical</w>
sal t</w>
イン ポート
マテリア ライズ
regar ded</w>
ca tia</w>
comm it</w>
I T
k ne
noti fy</w>
t one</w>
原 発</w>
beg ins</w>
R J</w>
n ine</w>
置 く</w>
改 正</w>
アド バイ
coul dn</w>
cho le
u al</w>
reco vered</w>
続 ける</w>
v 5</w>
cul tural</w>
pancrea tic</w>
方 針</w>
エコ ー</w>
op acity</w>
osc il
anch or</w>
parame tric</w>
相 手</w>
cylin dr
リ レーション</w>
モ ル
グラ デ
il itation</w>
circu its</w>
K ey</w>
ri de</w>
P P</w>
不 可
l ds</w>
attemp ted</w>
お 気に入り</w>
日本 語</w>
慈 悲</w>
超 過</w>
2 8
スケ ーリング</w>
ラ ル</w>
sti ff
veri fied</w>
lu n</w>
タイ ミング</w>
面 取り</w>
スタ ン
preli minary</w>
d l
DS View</w>
マテリアライズ ド・
ネイ ティブ</w>
red und
C o</w>
記 事</w>
文 献</w>
わ から</w>
含 量</w>
腐 食</w>
sh ima</w>
moder n</w>
lo ts</w>
c k
li gence</w>
m as</w>
堆 積</w>
で る</w>
opini on</w>
fe ar</w>
M em
リ ード</w>
ボ ール
カ プ
gro o
現 れ</w>
st ated</w>
hu b</w>
pos si
m ach</w>
correspon d</w>
ds view</w>
身 体</w>
作 動</w>
there of</w>
ir ation</w>
ei gh
吹 き
列 車</w>
user name</w>
magn itude</w>
vari ance</w>
ta ira</w>
discre te</w>
Sur face</w>
よ う
sub stance</w>
customi zation</w>
消 滅</w>
inter s</w>
C H</w>
外 線</w>
塗りつぶ し</w>
スキ ーム</w>
oper ate</w>
e ments</w>
per s</w>
加 速</w>
p ne
initi alization</w>
プラ グ
エクスプレ ッション</w>
o p</w>
synthe tic</w>
key frame</w>
collap se</w>
行 なっ</w>
クリーン アップ</w>
ソル バ</w>
ro b
puni sh
sen ior</w>
合 う</w>
collec t</w>
使 い
om al
n arrow</w>
vill age</w>
lig ent</w>
car rying</w>
admini stered</w>
プロ キシ
par a
v able</w>
全 般</w>
uc k</w>
色 素</w>
har ness</w>
experi enced</w>
spea k</w>
de teri
appar atus</w>
アル コール</w>
fer ti
comp act</w>
cat ch</w>
ac tor</w>
conduc t</w>
advan tages</w>
言 え</w>
youn ger</w>
atmo sphere</w>
corpor ate</w>
R C</w>
解 放</w>
yas u</w>
om o</w>
0 4</w>
ノ ン</w>
Ad van
il ls</w>
he mo
ファミ リー</w>
な う</w>
key frames</w>
hemor rh
Con sole</w>
キ サ
li ves</w>
増 強</w>
1. 5</w>
スプレッド シート</w>
flo at</w>
ad visor</w>
nec k</w>
lo ro
es tion</w>
府 県</w>
ne ural</w>
始 まり</w>
耐 性</w>
liste ner</w>
gr and
置き換 える</w>
tissu es</w>
un like</w>
res ted</w>
meth yl</w>
crystal line</w>
A M</w>
要 する</w>
表 さ</w>
x x</w>
e. g</w>
comb ine</w>
Anim ation</w>
清 算</w>
防 ぐ</w>
diabe tes</w>
ru pt</w>
bat tery</w>
起こ っ</w>
pre gn
e at</w>
bo w</w>
w d</w>
infra red</w>
ob lig
M D
go ku</w>
gra ded</w>
analy zing</w>
into sh</w>
recogn ize</w>
p ush</w>
ci ties</w>
エ ステ
loc alized</w>
r us
予 期</w>
modi fications</w>
f lip</w>
over l
loc ks</w>
す う</w>
vari ations</w>
ナ ン
te s
ke i
direc tional</w>
anim al</w>
re hab
亀 裂</w>
ラジ オ</w>
re construction</w>
Stre ams</w>
lip id</w>
ブ レット</w>
fin ance</w>
blu r</w>
シグ ナル</w>
引き 続き</w>
trans late</w>
signific ance</w>
exc itation</w>
b o</w>
原 料</w>
い き</w>
fabric ated</w>
モ ータ</w>
ビ ル</w>
fil ing</w>
集 積</w>
ー ニング</w>
ブリ ッジ</w>
se is
融 合</w>
曜 日</w>
心 筋</w>
Gen eral</w>
体 系</w>
secre t</w>
reflec ted</w>
remark able</w>
gluco se</w>
annu al</w>
ぷ しょ
にわ たって</w>
Celer ra</w>
re p</w>
蒸 着</w>
離 し</w>
保 有</w>
decre asing</w>
bu re
g in
Attribu tes</w>
deli vered</w>
pro portion</w>
fuc k</w>
Sear ch</w>
di et</w>
図 る</w>
tim ing</w>
propo ses</w>
celer ra</w>
gra y</w>
by te</w>
こ ちら</w>
fun ds</w>
ナ ル
わ かる</w>
開 け</w>
am wea
tensi le</w>
acqui sition</w>
prod 137</w>
SA N</w>
se ed</w>
at su</w>
b lin
P r
neutr on</w>
け ん</w>
op ath</w>
黄 色</w>
基 底</w>
pre tty</w>
い れ</w>
po lar</w>
p k
observ ations</w>
命 名</w>
un available</w>
sub assembly</w>
n is</w>
地 盤</w>
sp or
rou ters</w>
compu tation</w>
ac ted</w>
真 空</w>
ne arly</w>
実 習</w>
O LE</w>
間 違っ</w>
la ws</w>
moun tain</w>
cylindr ical</w>
bu lar</w>
ul t
retriev al</w>
D X
か く</w>
institu tion</w>
har mon
equilibri um</w>
econ omic</w>
vi vo</w>
sa i</w>
ce ption</w>
続 く</w>
G P
ず っと</w>
平 滑</w>
u r</w>
r on</w>
micro scope</w>
tim ate</w>
net beans</w>
in coming</w>
d an
anne aling</w>
L T</w>
ca using</w>
si ster</w>
promo te</w>
E N
groun ds</w>
ac tion
派 生</w>
recei ves</w>
ti tive</w>
ti ous</w>
electro ly
cu sed</w>
裁 判</w>
政 策</w>
呼 ぶ</w>
オフィ ス</w>
3 000</w>
ち に</w>
dist or
ac tive
頚 部</w>
z o</w>
molecu le</w>
fr on
家 庭</w>
disturb ance</w>
Com mand</w>
C han
容 器</w>
smo oth
al se</w>
AC L</w>
gran u
c ables</w>
ボ ディ
m n</w>
automa ted</w>
Docu mentum</w>
char ts</w>
ac tively</w>
生 まれ</w>
戦 争</w>
p lates</w>
cy tes</w>
stero id</w>
Cli ent</w>
e i</w>
ハ ン
セ ーブ</w>
st ar</w>
norm als</w>
parti ally</w>
domin ant</w>
ち ゃ</w>
meth yl
k aga</w>
explan ation</w>
exhi bited</w>
199 3</w>
審 判</w>
溶 媒</w>
ナビゲ ータ</w>
interpol ation</w>
積 分</w>
呼 び</w>
adju sting</w>
レジ ストリ</w>
sub strates</w>
知 り</w>
D y
A li
選 択
ひ と
ultras onic</w>
dis appeared</w>
ali ve</w>
conclu sion</w>
採 取</w>
ョ ウ
プリ ミ
フィ ット</w>
fluctu ation</w>
R T
発 熱</w>
tun ing</w>
f resh</w>
aler ts</w>
Info Path</w>
neigh b
ス ル</w>
w d
ind ication</w>
MAX Script</w>
変 調</w>
cham ber</w>
an omal
除 い</w>
姿 勢</w>
う ま
re lating</w>
共 鳴</w>
ク チン</w>
for war
エン ベ
he pati
deploy ed</w>
at su
si tions</w>
o lap</w>
mi ss</w>
選択 肢</w>
ten ded</w>
te c
sho w
p g</w>
loc king</w>
a res</w>
く せい</w>
cel lular</w>
explic itly</w>
adsor ption</w>
ディ ジタル</w>
sugge sting</w>
ひ ずみ</w>
v i</w>
arrang ed</w>
入 金</w>
on y
inf er
no tation</w>
lab eled</w>
col le
空 き</w>
in verse</w>
兄 弟</w>
u t</w>
g m</w>
厚 生</w>
coup led</w>
sl ice</w>
g p</w>
pne umon
promi se</w>
y n
tempor arily</w>
n as
k ag
ア ジア</w>
bene fit</w>
as m</w>
リジ ッド
rehab ilitation</w>
自 ら</w>
ve ge
mu tual</w>
hou ses</w>
Mo di
後 期</w>
アクセ ス
lifec ycle</w>
def ici
cen ce</w>
カル シウム</w>
w oul
transi tions</w>
Lay er</w>
customi zing</w>
もの の</w>
cri sis</w>
D N</w>
端 末</w>
・ ビュー</w>
データ ベース
磁 化</w>
inde xes</w>
jo hn</w>
属 し</w>
dis c</w>
amwea ver</w>
re tained</w>
剥 離</w>
re n</w>
ch u
sho gun
R F</w>
en umer
cli c</w>
pro jected</w>
v in
mat ched</w>
c n
審 査</w>
a f</w>
H i
si x
fle x
ar rows</w>
x s
ク ォ
ば かり</w>
spectr al</w>
instal ler</w>
バ ンド
o dbc</w>
fe males</w>
それ から</w>
t z</w>
め ん</w>
i tion</w>
so cket</w>
lo b
bar rier</w>
Smar t
限 る</w>
th inking</w>
ho me
ワーク ステーション</w>
ダイ オ
an ten
de lay
サービ ス
up grading</w>
知 見</w>
represen tations</w>
duc t
di am
全 員</w>
ニ ル
fir mware</w>
se x</w>
il it
雑 音</w>
分 の</w>
ムー ビー</w>
ra il</w>
fe der
区 域</w>
浮 動</w>
aspec ts</w>
Mes h</w>
ob vi
effici ently</w>
cl ero
pro ved</w>
myo cardi
成 る</w>
aga wa</w>
5 000</w>
te en</w>
camp a
財 務</w>
既 知</w>
yosh it
P op
待 ち</w>
四 半期</w>
sp ar
cy clo
au di
tele phone</w>
i red</w>
inf opath</w>
P re
覚 え</w>
it su</w>
G F</w>
深 度</w>
n y</w>
m c</w>
限 ら</w>
insul in</w>
develop er</w>
14 1</w>
s ation</w>
会 っ</w>
バ ン
ve in</w>
dispo sition</w>
pp m</w>
P ack</w>
ur inary</w>
limit ations</w>
潰 し</w>
Char ac
inhi bited</w>
di r</w>
frequ encies</w>
de st</w>
見 せ</w>
血 しょう</w>
AT A</w>
子 孫</w>
多 発</w>
design ing</w>
組み 込ま</w>
コンテン ツ
st ure</w>
de former</w>
bur ner</w>
Re mo
洗 浄</w>
wal king</w>
res sed</w>
処 置</w>
car bon
Mo de</w>
動 態</w>
po steri
de form
訓 練</w>
ポ ータ
respon d</w>
a a</w>
取り 付け</w>
sta ining</w>
sp l
clo ses</w>
IN G</w>
C r</w>
受 診</w>
af f</w>
アン ダー</w>
prob ability</w>
pre operative</w>
al ter</w>
lay outs</w>
hyper link</w>
fru it</w>
tar ge
fi ght</w>
men ting</w>
max script</w>
fe ud
キ シン</w>
ful ness</w>
ハイ ブリ
publish er</w>
sub set</w>
ous ness</w>
ナ トリ
su ite</w>
mo bil
hepati tis</w>
conta in
道 府県</w>
指 す</w>
バ ータ</w>
エイリア ス</w>
trou ble</w>
to yo
high lights</w>
cre d
室 温</w>
imp os
fac ial</w>
be sides</w>
sh aded</w>
肝 臓</w>
所 在地</w>
アル ミニ
作 る</w>
メ リット</w>
塩 基</w>
woul dn</w>
enve lope</w>
ハ ード</w>
th reads</w>
コマンド レット</w>
t x</w>
jav as
製 造
ア ンド
pass words</w>
崩 壊</w>
ep it
ar bit
製造 元</w>
dro p
ビ ット
manipul ator</w>
ファ ーム
neutr al</w>
e on</w>
き り</w>
い ただ
subscri ption</w>
recy cling</w>
in correct</w>
サ ル
コント ロール
gui des</w>
serv es</w>
perman ent</w>
日 時</w>
de x</w>
都 道府県</w>
進 む</w>
後 ろ</w>
ま しい</w>
梗 塞</w>
suppres sion</w>
比 し</w>
末 端</w>
引 張</w>
M i
LA P</w>
工 法</w>
oste o
残 し</w>
va tives</w>
p an</w>
送 り</w>
伝 搬</w>
マ ト
トリ ガー</w>
ーシ ス</w>
ペ ージ
amer ic
feud al</w>
l td</w>
fac ing</w>
au ton
ナビゲ ーション</w>
) 」</w>
munic ip
expen ses</w>
ur y
ber os</w>
ユーティ リティー</w>
fluoresc ence</w>
se mi</w>
P D</w>
Medi a</w>
B R</w>
hou se
en jo
as say</w>
v ice</w>
元 帳</w>
member ship</w>
jus ti
as sume</w>
sug ar</w>
di an</w>
pro fit</w>
licen ses</w>
li st
docu mentum</w>
設 け</w>
偏 差</w>
sil ver</w>
F alse</w>
渡 す</w>
ペ イント
O DBC</w>
re do</w>
ex ha
cen ters</w>
ag i</w>
spher ic</w>
simultane ous</w>
bri d
re active</w>
ダ ン
ア ス</w>
a .
Scal e</w>
compe tent</w>
0 6</w>
参 考</w>
intel ligent</w>
mor i</w>
体 重</w>
tra vel</w>
ceremon y</w>
For mat</w>
農 業</w>
前 回</w>
deri vatives</w>
dependen tly</w>
P ub
フィル ター</w>
U CS</w>
複 写</w>
サ ム
インジ ケータ</w>
ap p</w>
低 かっ</w>
app ended</w>
呈 し</w>
シー ン
super visor</w>
e vil</w>
abnorm ality</w>
出 る</w>
ライ ズ</w>
gro w</w>
Windo w</w>
Ul tra</w>
revi sed</w>
pur ge</w>
o st</w>
d or
happ y</w>
公 共</w>
ri d</w>
re served</w>
emp lo
ag on</w>
別 々</w>
冗 長</w>
イン ダ
poli tical</w>
disper sion</w>
ac tu
頻 繁</w>
組 立</w>
水 分</w>
us b</w>
転 換</w>
mo s</w>
serv ing</w>
om i</w>
n ation</w>
bre ast</w>
a ero
結 婚</w>
pas sing</w>
Vie wer</w>
スタ ンプ</w>
n g</w>
PRO D
れ ん</w>
part ners</w>
従 っ</w>
swe ep</w>
キャ ビ
D F</w>
typ ing</w>
FB X</w>
ズ ル</w>
por tun
ac i
low ering</w>
トリ ー</w>
ック ・
o da</w>
ni a</w>
auto lisp</w>
ビ ジュ
人 生</w>
mat ory</w>
hi ro
H REF</w>
u es</w>
ch ol
Net Beans</w>
スム ーズ</w>
te d
s ine</w>
re stored</w>
in take</w>
a sed</w>
circum stances</w>
Ma x
次 いで</w>
ハー ネス</w>
vari ant</w>
ー ・
スー パー
disco vered</w>
fe eding</w>
回 り</w>
punish ment</w>
per it
en sures</w>
破 棄</w>
換 え</w>
gu ess</w>
eth ylene</w>
Ti me
交 付</w>
work er</w>
visco sity</w>
def in
コ ラ
成 熟</w>
cho ices</w>
rad ical</w>
ch lor
後 者</w>
b in</w>
S ize</w>
se mb
le ads</w>
落 ち
susp en
shr ink
t s
ac u
hel lo</w>
演 習</w>
コミュニ ティ</w>
pa thy</w>
ad jus
当 初</w>
c vs</w>
貯 蔵</w>
z i
metal lic</w>
壊 死</w>
前 述</w>
と り
締 結</w>
D ep
RO M</w>
pay ments</w>
da y
( *.</w>
L ab
走 行</w>
sta in
sol ving</w>
グ レーション</w>
tou ch</w>
cs v</w>
ネ ゴ
mu tation</w>
g land</w>
op portun
impos sible</w>
bla dder</w>
phosp hor
t ary</w>
par cel</w>
posi tioned</w>
mapp ings</w>
l ers</w>
immedi ate</w>
acqui red</w>
変 える</w>
J ava
tw enty</w>
on ent</w>
lear ned</w>
attach ments</w>
ro ck</w>
pro of</w>
R A</w>
アルミニ ウム</w>
es cence</w>
Cur ve</w>
restric tion</w>
腹 腔</w>
バル ーン</w>
球 体</w>
放 送</w>
contex tual</w>
agricul tural</w>
騒 音</w>
た く
P IC</w>
l eng
beau ti
deli ver</w>
Stor age
メチ ル</w>
stand ardi
compu ting</w>
Connec tion</w>
深 く</w>
n d
E E</w>
ル ド
左 上</w>
pla in</w>
mobil ink</w>
dy na
Sof timage</w>
E S</w>
合 理</w>
ul a</w>
d al</w>
E as</w>
n ings</w>
un to</w>
Le vel</w>
衛 生</w>
inhib itor</w>
inflam matory</w>
n t
e th</w>
con e</w>
ch ance</w>
circul ation</w>
f ers</w>
肝 炎</w>
原 子
ぜ ん
st aff</w>
inf ar
gover n
時 計</w>
tri m
推 測</w>
scen es</w>
scre ening</w>
are n</w>
ac ous
m ating</w>
k b</w>
AT M</w>
切 っ</w>
キャ リア</w>
la w
行 か</w>
熱 処理</w>
ナトリ ウム</w>
v t</w>
accum ulation</w>
至 る</w>
op hi
Fl ash</w>
残 存</w>
実 態</w>
is che
0. 1</w>
均 等</w>
ネゴ シエ
ed ings</w>
リ ス</w>
design s</w>
sym metric</w>
produc tivity</w>
ch on
研 究
トラ ック
balan cing</w>
持 ち
獲 得</w>
剛 性</w>
comprehen sive</w>
b ps</w>
U se</w>
ul tra
main taining</w>
辞 書</w>
集 め</w>
再 建</w>
shi el
Tex ture</w>
さ え</w>
sp inal</w>
r d
スー パー</w>
イ ツ</w>
s now</w>
T h
stop s</w>
posteri or</w>
comb ining</w>
16 1</w>
no te
Docu ment</w>
負 担</w>
補 償</w>
ha ven</w>
at om</w>
quanti ties</w>
on o</w>
adjus ted</w>
metabo lism</w>
arbit r
G rap
事 務所</w>
tiv al</w>
hi g
ホ ール</w>
sat ur
re places</w>
polar ization</w>
セレ クタ</w>
pip el
ベ ート</w>
グラデ ーション</w>
配 信</w>
t m</w>
ref re
compres sed</w>
T M</w>
発 作</w>
映 像</w>
char ges</w>
Rec ordset</w>
考え 方</w>
ドラ フト</w>
individu als</w>
U ID</w>
取り 消し</w>
ハ ブ</w>
sul f
proce edings</w>
g ab
ap o
スポ ット</w>
カプ セル</w>
uc s</w>
immun e</w>
con sequ
資 材</w>
S M</w>
m age</w>
b p
と る</w>
institu te</w>
claim s</w>
t cp</w>
pas sive</w>
hyper tension</w>
he re
C a
d ll</w>
ブ レー
ブ ラー</w>
D R</w>
B us
u ki</w>
主 体</w>
predic ted</w>
assign s</w>
3 2
ac qu
__ __
R GB</w>
ど も</w>
t ac
mar ine</w>
遮 断</w>
soli ds</w>
ra ise</w>
is olation</w>
i scsi</w>
I F
ケ ール</w>
h mk</w>
読 み</w>
成 人</w>
テー ブル
故 障</w>
sit u</w>
E P</w>
com for
セ ー
インタラク ティブ</w>
loc ally</w>
grou ping</w>
ア ・
euro pe</w>
Cu be</w>
意 義</w>
nan o
スイ ープ</w>
ね じ
visi ted</w>
ベン ダー</w>
うま く</w>
res is</w>
m ature</w>
軸 受</w>
cra ft</w>
P ri
局 在</w>
counter measures</w>
Administr ation</w>
海 洋</w>
insu lation</w>
fi br
じ ゃ
シャド ウ
dic ated</w>
ファイ ア</w>
pre vents</w>
ライ ト
ディ スカ
素 材</w>
descen d
organ ize</w>
call out</w>
スタンドアロ ン</w>
oce an</w>
oc ent</w>
取り 上げ</w>
gen ji</w>
ce ments</w>
凝 集</w>
rou gh</w>
イン グ</w>
も ち
pip es</w>
grou ped</w>
a id</w>
3 .0</w>
凡 例</w>
car bo
bri ef
quanti tative</w>
prac tices</w>
h p</w>
do t</w>
会 員</w>
エフェ クタ</w>
し ゃ
順 番</w>
u n</w>
scri ption</w>
g yo</w>
algorith ms</w>
u chi</w>
provi sioning</w>
US B</w>
inter actions</w>
i SCSI</w>
捜 査</w>
win ter</w>
ben z
子 宮</w>
大 腿</w>
ロー ド
や め</w>
f arm</w>
se ment</w>
wire frame</w>
mi sta
bri ght
見つ かっ</w>
i to</w>
行 け</w>
スイ ッチング</w>
ori al</w>
do ors</w>
buddhi sm</w>
高 める</w>
協 会</w>
バ イ</w>
do ped</w>
col lag
閉 鎖</w>
w on
dialo gue</w>
as th
liter ature</w>
exclu sive</w>
continu es</w>
cap tured</w>
囲 ま</w>
p ag
la b</w>
日 常</w>
フィーチャ クラス</w>
min ation</w>
同 意</w>
199 1</w>
h d</w>
ミ ッション</w>
こう した</w>
Re plication</w>
ッ パ</w>
be red</w>
メール アドレス</w>
お 願い</w>
グ ロ
product name</w>
a w
器 具</w>
t r</w>
pollu tion</w>
do g</w>
ex isted</w>
簡 略</w>
キ ン</w>
sh es</w>
ab s
友 人</w>
tun e</w>
サブ ディ
コン トラ
ir y</w>
exce eds</w>
bi as</w>
フ リ
198 9</w>
分 っ</w>
バー チャ
シリ コン</w>
war p</w>
r f
differenti ated</w>
pla te
off ering</w>
loc alization</w>
研究 所</w>
従 属</w>
quali fied</w>
A N</w>
無 限</w>
optimi zed</w>
Chan nel</w>
スト リング</w>
encoun tered</w>
か ん
pre serve</w>
フォル ダ
tri eve</w>
see m</w>
fa ir</w>
stor age
sp an
x ing</w>
ipv 6</w>
Sp ace</w>
S W
仕 上げ</w>
i tis</w>
communic ate</w>
ロー カル
mar king</w>
円 錐</w>
alcoho l</w>
IC E</w>
resi s
con den
ホ ス
アン インストール</w>
誘 導体</w>
は ん</w>
tr av
b ig
Vi sta</w>
Dy nam
reas on
塑 性</w>
199 2</w>
液 晶</w>
tab let</w>
recip ient</w>
ide al</w>
or gan</w>
vo ting</w>
役 員</w>
医 師</w>
リ グ</w>
プログラ ミング</w>
a vi
リ ビジョン</w>
コン パイ
シ ス
modi fiers</w>
fa x</w>
殺 さ</w>
cap tain</w>
選 定</w>
進 捗</w>
意 図</w>
arti facts</w>
た い
閲 覧</w>
掛 け</w>
w ash
necess ity</w>
ma tes</w>
0 8</w>
トラ ンス</w>
stop a
evalu ating</w>
適 正</w>
入 射</w>
i le
use fulness</w>
フォー カス</w>
cle ared</w>
秩 序</w>
see ing</w>
メー カー</w>
エ ッチング</w>
ser t</w>
inspec tor</w>
kore a</w>
S U
stre tch</w>
cu taneous</w>
TR UE</w>
申 し
tu ber
no zz
コン ポジ
ac king</w>
po is
ッ ピング</w>
sof timage</w>
du plication</w>
demon strate</w>
cro p</w>
看 護</w>
アン テナ</w>
ろ ん</w>
ow nership</w>
comp ri
scenari os</w>
クラ ッシュ</w>
o thing</w>
胃 癌</w>
イン フル
li a</w>
par ties</w>
optimi ze</w>
cy cles</w>
信 用</w>
プレ ース
sli ding</w>
collec tor</w>
beauti ful</w>
associ ative</w>
neigh bor
condi tional</w>
ソ ケット</w>
diff er</w>
b ing</w>
Re ference</w>
PC R</w>
my self</w>
kid ney</w>
ig a</w>
dele tion</w>
manipul ate</w>
g f</w>
ade qu
pres en
A SC
Pop up</w>
MA C</w>
適 当</w>
ぷしょ ん</w>
sto od</w>
i o
ch ri
近 接</w>
intro duce</w>
健 常</w>
continu ously</w>
分 かる</w>
e v</w>
comb inations</w>
aggre gation</w>
met als</w>
マ ティ
T r
カ ン</w>
ane ury
T emp
mor row</w>
it us</w>
co ol</w>
精 製</w>
sn mp</w>
over write</w>
Advan ced</w>
hi stopa
難 しい</w>
reli able</w>
le gi
intere sting</w>
fac tion</w>
cou ple</w>
privile ge</w>
HE LP</w>
offic ers</w>
opportun ity</w>
k ers</w>
C ore</w>
売 上</w>
s low
m n
con current</w>
a ks</w>
静 止</w>
コ ミット</w>
エ キ
ろ う</w>
am mon
ad vi
ph r
cultiv ation</w>
histopa tho
titan ium</w>
料 理</w>
fab r
constra in</w>
産 物</w>
tr on</w>
exp ense</w>
collec tions</w>
pro hi
ban ds</w>
AT P</w>
効 力</w>
タ ミン</w>
com a</w>
ハード ディスク</w>
li ary</w>
d ur
assum es</w>
St ate</w>
変 性</w>
w w
individu ally</w>
天 然</w>
ow ned</w>
co c
restric t</w>
in active</w>
rela tional</w>
Fiel d</w>
ペー スト</w>
mul tic
jus tice</w>
満 たし</w>
交 点</w>
sto mach</w>
m am
h und
adhe sion</w>
00 00</w>
飛 行</w>
遠 隔</w>
交 流</w>
シェー ディング
abs ence</w>
誤 っ</w>
円 筒</w>
flag s</w>
合 わ</w>
Col um
mathema tical</w>
li um</w>
メ ーション</w>
trans lated</w>
nur sing</w>
hund red</w>
con sci
立 っ</w>
特 権</w>
ラク タ
い ろ</w>
re rs</w>
it ance</w>
r gb</w>
生 き
b last</w>
もち ろん</w>
ter r
X Y</w>
wil d</w>
fac ilit
V E</w>
臓 器</w>
pc r</w>
fro zen</w>
い ん
t ate</w>
format ted</w>
B ase</w>
ashi kaga</w>
明 瞭</w>
プロビジョ ニング</w>
to morrow</w>
fe a
endo scopic</w>
ファ ー
mol dflow</w>
パ ート</w>
extr usion</w>
ul tra</w>
M ol
lin k
leg acy</w>
近 づ
目 指し</w>
um s</w>
Bus iness</w>
Sh ell</w>
spher ical</w>
licen sing</w>
er gic</w>
M ac
真 実</w>
me lt</w>
ir radi
食 事</w>
l ling</w>
ab cd
作 ら</w>
i k
real istic</w>
obta ining</w>
cep ti
we ak
co ag
V BA</w>
捨 て</w>
クラ スタ
カン ダ
line type</w>
ig o</w>
c ru
bla de</w>
ワー クス
o red</w>
den tial</w>
に従 い</w>
つ なが
trans fer
cy te</w>
c ss</w>
日本 人</w>
リ サイクル</w>
wor d
ret inal</w>
CO M</w>
毒 性</w>
r ho
I denti
足 利</w>
m gr</w>
ファーム ウェア</w>
手 すり</w>
thor ac
8 .
ti les</w>
seis mic</w>
marri ed</w>
ミ リ</w>
om as</w>
ar terial</w>
den tal</w>
本 当</w>
trun k</w>
S up
パ ージ</w>
エステ ル</w>
tre as
s ons</w>
mel ting</w>
AE C</w>
増 分</w>
h us
subsi diary</w>
ゾ ン</w>
p entium</w>
metr ics</w>
ki yo
jec t
imp o
コミュニ ケーション</w>
adver ti
TO PIC</w>
セ カンダ
i x</w>
ga ther</w>
dy s
ami de</w>
ダ ンス</w>
cy clic</w>
立 ち</w>
ド イツ</w>
eff ic
ce ph
b p</w>
r t</w>
zz y</w>
patho logical</w>
da im
以 来</w>
あ つ</w>
O L</w>
) 、
sol di
me l</w>
ひと つ</w>
g au
sp ent</w>
enti ally</w>
推 移</w>
s r</w>
s light</w>
brea ks</w>
リー ダー</w>
m f
es ter
eng aged</w>
小 板</w>
せ って
consisten cy</w>
ad dy</w>
U ni
侵 入</w>
ガ ン
v l
sp lit
dg ment</w>
accur ately</w>
H P</w>
C entr
交 差
フェイ ル
discus ses</w>
connec tors</w>
re placing</w>
distin ct</w>
ch as
H D</w>
交差 点</w>
o em</w>
Ma c</w>
flexi bility</w>
S M
Mo dule</w>
in dependently</w>
ver tically</w>
ic als</w>
clas sic</w>
天 井</w>
工 学</w>
n um</w>
訴 訟</w>
母 親</w>
典 型</w>
ga as</w>
皮 質</w>
mis sion
respon sibility</w>
poin ted</w>
ソ ー
sol vent</w>
a ec</w>
m RNA</w>
key words</w>
car s</w>
4 50</w>
ula tive</w>
To ols</w>
tan k</w>
elev ated</w>
血 小板</w>
javas cript</w>
引 き</w>
ス リ
or d</w>
execu ting</w>
含 み</w>
mr na</w>
incre ment</w>
Se tup</w>
ar y.
視 力</w>
監 督</w>
機 会</w>
r j
等 しい</w>
クラ ウ
乳 頭</w>
collabor ation</w>
accord ingly</w>
分 配</w>
ピ ア</w>
バ リア
悪 化</w>
ph on
col on
生 理</w>
分 かり</w>
データ ・
w popup</w>
tra ins</w>
on in</w>
書 い</w>
ショ ップ</w>
enter pri
ブラ ンド</w>
therap eu
dx f</w>
ca m</w>
クライアント ・
stri p</w>
9 00</w>
2 2
作 品</w>
pe er</w>
co ded</w>
住 民</w>
統 一</w>
決 して</w>
ush u</w>
も しくは</w>
bu t
m g
線 量</w>
い ん</w>
s ounds</w>
j a
d ations</w>
Con tent</w>
い わ</w>
t 1</w>
re tain</w>
セキュ リティー</w>
w Popup</w>
gri ds</w>
S C</w>
等 価</w>
exper t</w>
生 育</w>
invo ices</w>
en ge</w>
ak age</w>
血 栓</w>
scal es</w>
肺 炎</w>
k um
to sis</w>
ag ree</w>
製 剤</w>
パ パ</w>
exce ptions</w>
2 o3</w>
bon ding</w>
adju stments</w>
職 員</w>
培 地</w>
プレ イ
ニュ ース</w>
uni ties</w>
不可 欠</w>
wa ke</w>
conflic ts</w>
インター フェース</w>
com mission</w>
st ors</w>
s old</w>
in age</w>
ev olution</w>
積 極</w>
tic ity</w>
スキ ップ</w>
compu te</w>
R ange</w>
ン ・
emp ress</w>
M n</w>
社 内</w>
inter sec
sc ul
Sym metrix</w>
wri tes</w>
ser ver
oc ca
S wit
ガ ン</w>
bu y</w>
浸 透</w>
wan na</w>
treat ments</w>
number ing</w>
ノ ズル</w>
u vs</w>
no bun
m .
integr ity</w>
acous tic</w>
T ext</w>
Proper ty</w>
re vol
CO N
pur cha
f i</w>
consequ ently</w>
E dition</w>
shor ter</w>
restor ation</w>
立 ち
プロ テ
コントラ スト</w>
satis fied</w>
mini mi
mil k</w>
Mol dflow</w>
M D</w>
展 望</w>
会 い</w>
M ess
エミ ッタ</w>
te k</w>
amer ica</w>
ti d</w>
incre mental</w>
mini mize</w>
bron ch
殺 人</w>
perfec t</w>
DX F</w>
1 17</w>
方 位</w>
parti tions</w>
LE D</w>
矩 形</w>
ド ット</w>
summar ized</w>
ome try</w>
acceler ator</w>
ミ ー</w>
mis ing</w>
テクノ ロジ</w>
fe eling</w>
アクティ ブ
electr icity</w>
de hy
throm bo
ar ms</w>
alk al
バイ アス</w>
roo ms</w>
水 中</w>
sus cepti
retri eved</w>
ma xi
con ference</w>
セ プト</w>
or dering</w>
en h
co ated</w>
外 し</w>
C enter
進 歩</w>
clo sure</w>
st ories</w>
cardi o
over lap</w>
o le
胆 嚢</w>
pep tide</w>
膨 張</w>
exc ess</w>
appa rent</w>
タ スク
fal ling</w>
dat as
水 溶液</w>
て ぃ</w>
suspen sion</w>
隠 し</w>
接 頭</w>
一 体</w>
cri teri
国 家</w>
r ab
questionna ire</w>
et ching</w>
0 7</w>
フォ ース</w>
シ ングル</w>
bu mp</w>
テキスト ファイル</w>
bri ef</w>
pe ace</w>
ti lity</w>
anesthe sia</w>
N G</w>
M y
ディレ ク
mu ro
数 学</w>
ban k
接 種</w>
し かっ</w>
tempor al</w>
exam inations</w>
マ マ</w>
テ ージ</w>
rout ine</w>
le x</w>
fin ish
comp lication</w>
介 護</w>
よ し</w>
P age</w>
1. 2</w>
インスト ー
ri d
Ga As</w>
急 激</w>
ten ed</w>
sym metrix</w>
ir o</w>
配 備</w>
避 ける</w>
試 し</w>
gly co
Selec ted</w>
イー サ
prod 145</w>
コンポーネ ント
スパ ン</w>
徐 々
徐々 に</w>
広 告</w>
id ated</w>
4 000</w>
作 り</w>
so l</w>
さ あ</w>
table space</w>
ta p</w>
ke t
av amar</w>
u lic</w>
temp les</w>
stand by</w>
propor tional</w>
var ying</w>
coun c
精 密</w>
セキュ リティ
硫 酸</w>
certi fied</w>
分 から</w>
高 圧</w>
キ ング
d ying</w>
ch er
mp a</w>
診 療</w>
sk ip</w>
reco ver
persi stent</w>
go tta</w>
c ers</w>
m one</w>
li po
バル ブ</w>
v ar</w>
cmd let</w>
C X</w>
議 決</w>
instruc tion</w>
末 尾</w>
r ite</w>
fes tival</w>
tre at</w>
subsequ ently</w>
明 る
synchron ized</w>
s wel
or o</w>
gri ps</w>
ど おり</w>
De fin
資 本</w>
サー バー
shogun ate</w>
cha ins</w>
belong ing</w>
SN MP</w>
ぷろ ぱ
shrink age</w>
s tics</w>
厳 密</w>
Av amar</w>
累 積</w>
従 う</w>
チ ル
カウン タ</w>
electr ons</w>
stro kes</w>
recommen d</w>
プレース ホル
occlu sion</w>
de dicated</w>
cur ved</w>
起こ り</w>
ルー チン</w>
y er</w>
off ices</w>
g y
attemp ting</w>
M ap
un install</w>
I F</w>
ne are
k ata</w>
メッセ ージ
imp lic
死 ぬ</w>
m hz</w>
inhi bition</w>
派 遣</w>
effor t</w>
a ver
smo othing</w>
it omo</w>
緑 色</w>
E lec
十 二
共 振</w>
プリミ ティブ</w>
オ ス</w>
l as
ta ste</w>
ッチ ング
tra jec
切 削</w>
リ レー
bac teri
rec tal</w>
e ous</w>
pro f
emit ter</w>
I M</w>
ran do
re fr
復 旧</w>
行 え</w>
mo l</w>
fu zzy</w>
コ ロ
ra is
g l</w>
encryp ted</w>
ア フ
str on
hu h</w>
T CP</w>
Active X</w>
f ed</w>
epitheli al</w>
a in</w>
T ar
pit ch</w>
g le</w>
direc ted</w>
見い だし</w>
therapeu tic</w>
p p</w>
cop y
N ode</w>
友 達</w>
ターゲ ット
inher ited</w>
n fs</w>
in duc
hierarch ical</w>
滑 らか</w>
委 任</w>
ド レ
he i
fac e
v ba</w>
析 出</w>
っ き</w>
gh z</w>
fur n
結 節</w>
リ スナー</w>
ヘ リ
asci i</w>
バイ ナリ</w>
stiff ness</w>
re conci
カー ブ
re tin
wa k
h 2
X tender</w>
analy tic</w>
発 育</w>
フィ ン</w>
ad er
rj 45</w>
inter vals</w>
de mo
ら かの</w>
myocardi al</w>
exce ed</w>
l um
k g</w>
Effec ts</w>
クイ ック
x tender</w>
lo ops</w>
colli sions</w>
S ta
増 え</w>
代 目</w>
く り</w>
鑑 別</w>
gloss ary.
g ol
ウェイ ト
al izing</w>
contain ers</w>
感 謝</w>
at ri
ヨ ー
ren amed</w>
ori tes</w>
fab ric</w>
cro wn</w>
thumbna il</w>
In st
damp ing</w>
care ful</w>
終 わっ</w>
キ ット</w>
fami liar</w>
Gen er
dro pped</w>
稜 線</w>
か かり</w>
tra p</w>
glossary. hlp</w>
ナ ス</w>
vari es</w>
lo s
leu ke
地 形</w>
に 際
巨 大</w>
ショ ー</w>
intest ine</w>
6 000</w>
就 い</w>
he dr
明 日</w>
埋め 込み</w>
re load</w>
軽 量</w>
プロジェクト ブラウザ</w>
pho ton</w>
f ell</w>
expec t</w>
becom ing</w>
mit o
coun cil</w>
エ ル</w>
M L
パ ン</w>
synchron ous</w>
comple x
ballo on</w>
掲 載</w>
ic e
単 に</w>
xx x</w>
re generation</w>
con ve
本 法</w>
ru ption</w>
engine er</w>
sta ir</w>
P oly
D A</w>
標 識</w>
liter ally</w>
l ack</w>
shar p</w>
セラミ ック</w>
no ble</w>
O P
印 加</w>
r hy
c in</w>
前 方</w>
ア スペ
tok en</w>
198 8</w>
ト ン
エンベ ロープ</w>
lan e</w>
dependen cies</w>
kee ps</w>
d inal</w>
b yp
メタ ル</w>
z y</w>
訴 え</w>
書き 込ま</w>
nobun aga</w>
hel p
trans formations</w>
ss l</w>
architec tural</w>
下 げ</w>
pe tition</w>
enh ance</w>
包 括</w>
gam ma</w>
ca us
b log</w>
重 み</w>
@ @@</w>
mo m</w>
10 1</w>
rup ted</w>
re fin
or bit</w>
ir m</w>
Arch itec
直 腸</w>
v acc
am in</w>
流 速</w>
スクリ プ
mo bility</w>
hok kaido</w>
fu n</w>
な か</w>
identi fying</w>
や や</w>
たく さん</w>
tor que</w>
リ ソース
sat uration</w>
f amous</w>
正 面</w>
s and
debu gging</w>
Inf o</w>
ライ ブ</w>
シ ル</w>
ob u</w>
N a</w>
軽 度</w>
コン セプト</w>
ke l</w>
comp iler</w>
c ation</w>
he ads</w>
moun ting</w>
N or
auto mation</w>
reti red</w>
r ams</w>
hor mone</w>
sli p</w>
physi ological</w>
comp iled</w>
し み</w>
atten u
T ek</w>
不 能</w>
SS L</w>
w in</w>
spir al</w>
infar ction</w>
面 体</w>
背 面</w>
にわ たる</w>
cul tured</w>
as cen
P B
describ ing</w>
恐 れ</w>
w t</w>
work station</w>
re use</w>
manag ers</w>
bure au</w>
wo o
hydra ulic</w>
ba y</w>
重 ね</w>
サム ネ
ぁ いる</w>
se ven
アクセ ラ
consi sted</w>
デ ー
invol vement</w>
age al</w>
notic ed</w>
as king</w>
criteri on</w>
媒 体</w>
予 備</w>
プラ ス</w>
エクス ポート
gr and</w>
M Hz</w>
x l
se ls</w>
muco sa</w>
collag en</w>
O H</w>
Mul ti
lay ered</w>
cham fer</w>
G Hz</w>
ビデ オ
タ ル
shoul der</w>
ht m</w>
deposi t</w>
adeno carcinoma</w>
アン モニ
th ri
figu res</w>
bub ble</w>
て ん</w>
lar ge
chall enge</w>
ロ ゴ</w>
N ext</w>
invol ving</w>
こ れ
co il</w>
hide yoshi</w>
groo ve</w>
足 跡</w>
カ イン</w>
ぜん 息</w>
表 題</w>
val ence</w>
tu bes</w>
pi x</w>
in puts</w>
主 務</w>
tan ts</w>
ne ed
フ ト
Storage Tek</w>
Ma terial</w>
ド ー</w>
struc tured</w>
instru ment</w>
PO V</w>
所 要</w>
弱 い</w>
to t
dyna sty</w>
organ s</w>
exci ted</w>
c it
R E</w>
s k</w>
aor tic</w>
al ite</w>
Ob jects</w>
solu ble</w>
エンジ ニ
regi s
ダイ ア
O C</w>
ox id
198 7</w>
shel f</w>
e than
トリ ミング</w>
S ource</w>
Ex port</w>
A L</w>
y a
e bs</w>
O R</w>
酸 性</w>
inter ven
O EM</w>
せ よ</w>
E BS</w>
ASC II</w>
貸 借</w>
- --</w>
ダイヤ ル</w>
コン ピ
effic acy</w>
よ れ</w>
ten cy</w>
チ タン</w>
di oxide</w>
diabe tic</w>
decl ar
み なさ</w>
ho st
報 酬</w>
なく なり</w>
provi ders</w>
海 道</w>
プレ ス</w>
vi ol
impro ves</w>
d ance</w>
所 属</w>
ec ho</w>
F X</w>
un e</w>
q os</w>
disc lo
cor d</w>
bright ness</w>
simil arly</w>
mar row</w>
colo red</w>
intr av
storage tek</w>
mess enger</w>
m ous</w>
anti bodies</w>
殺 す</w>
ク セ
i shi
equ ity</w>
d d</w>
b orders</w>
ur ine</w>
毎 日</w>
医 学</w>
ヘ ン
パイプ ライン</w>
har dness</w>
assum ing</w>
義 務</w>
h as
高 性能</w>
pre servation</w>
loo ked</w>
fat ty</w>
ゴ ム</w>
rota tional</w>
守 護</w>
tri gg
stu dent</w>
cer v
E rro
ship ping</w>
mou th</w>
cor ners</w>
囲 む</w>
c ks</w>
Par ameters</w>
区 間</w>
コンフィギュ レーション</w>
vari ed</w>
down loaded</w>
微 生物</w>
s f
lo ad
explic it</w>
de cla
agre ed</w>
帰 っ</w>
レプリ ケーション
ce iling</w>
intro ducing</w>
mo stly</w>
exten ts</w>
di al
0. 0
鉄 筋</w>
犯 罪</w>
un expected</w>
m u</w>
ur i</w>
pat ches</w>
か かっ</w>
mit su
angi o
変 わっ</w>
国 民</w>
clean up</w>
ノ ル
w ro
col s</w>
12 5</w>
話 す</w>
聞 こ
pp p</w>
支 出</w>
s f</w>
fic i
en er
ダ メ</w>
our ce
diam ond</w>
aud iting</w>
コ ウ
supple mentary</w>
prolifer ation</w>
comm a</w>
Fr ame</w>
work flows</w>
vic ti
prepar ing</w>
I RM</w>
poin ting</w>
ok u</w>
読み 込ん</w>
誤 り</w>
sta irs</w>
re lay</w>
d ust</w>
bund le</w>
原子 力</w>
ヘッ ダ</w>
pic ked</w>
cli pping</w>
後 方</w>
創 造</w>
ファ ク
jour n
音 響</w>
各 々</w>
ミ ス</w>
プライ ベート</w>
フィ ックス</w>
m ble</w>
mor t
gu i</w>
exclu ded</w>
clo se
P i
Clus ter</w>
サ ム</w>
pub lic
par k</w>
proto type</w>
en capsu
col or
St atus</w>
ste nosis</w>
pan cre
asy m
O per
総 理</w>
conduc tion</w>
Inte l</w>
vec tors</w>
un icode</w>
生 ずる</w>
従 って</w>
も っ
scho ols</w>
ブラウ ザ
ピ ング
れ よ</w>
intel ligence</w>
見 積</w>
ther ing</w>
rec tomy</w>
ar range</w>
最 小
ベ ット</w>
shr ines</w>
re min
g al</w>
ed it
途 中</w>
これ から</w>
SE T</w>
信 長</w>
S L</w>
塗り 潰し</w>
わ し</w>
ju dgment</w>
guide line</w>
campa ign</w>
ar d
us able</w>
morpho logy</w>
work group</w>
dr ink</w>
tho u</w>
an sw
生 命</w>
ok i</w>
l i</w>
angi ography</w>
G UI</w>
マイ グレーション</w>
立 場</w>
ソフト ウェア
manip ulation</w>
extre me</w>
sh into</w>
ko to</w>
en cing</w>
su f
propos al</w>
n aga
hemorrh age</w>
Contro l
ギ ング</w>
clear ance</w>
c ade</w>
矛 盾</w>
tri angle</w>
De fault</w>
wro te</w>
最小 限</w>
ア ーク</w>
prin cess</w>
primi tive</w>
リン ク
中 期</w>
r amp</w>
ad m</w>
ファ ジ
s wi
mod ulation</w>
飼 料</w>
v ative</w>
v ass
transl ator</w>
su it</w>
bi lateral</w>
視 野</w>
M B
ルー プ
n at</w>
in ter</w>
di scri
立 つ</w>
メニ ュー
illu strates</w>
3 7
さ くせい</w>
こ っち</w>
ステ ート</w>
sor ting</w>
loc ator</w>
effor ts</w>
do c</w>
te tra
se x
muro machi</w>
one al</w>
consum er</w>
bo ot
as ses</w>
app en
t b</w>
sci enti
o do
Smar t</w>
コラ ボ
u v
pre served</w>
co he
Pro to
レ ー</w>
コリ ドー</w>
En g
凍 結</w>
active x</w>
Li br
アクティ ビ
stu ff</w>
Pro duct
角 膜</w>
ste am</w>
rhy th
as aki</w>
negoti ation</w>
al bu
o to
ec tomy</w>
contrac ts</w>
at p</w>
0. 05</w>
見 積
皇 子</w>
信 者</w>
赤 色</w>
航 空
spe c</w>
le akage</w>
う る</w>
lap aro
経 口</w>
呼 ん</w>
ラ ベル
in direct</w>
air craft</w>
ゼ ーション</w>
ge ar</w>
ec ho
Z n</w>
N FS</w>
突 然</w>
ta iner</w>
brea king</w>
F F</w>
free ze</w>
cat alo
カ ッ
por table</w>
impro vements</w>
distribu te</w>
四 角形</w>
ピ ッチ</w>
app end</w>
fr an
depres sion</w>
流 出</w>
mo i
o den
broad cast</w>
ビ ア</w>
trans mitted</w>
sp ine</w>
・ プロパティ</w>
sh im
sco rec
k ab
コネ クト</w>
ec c
stat ue</w>
cum ulative</w>
ぼ っく
consider ations</w>
Ac tion
取 ら</w>
ピ ボット</w>
provi sional</w>
numer ically</w>
ビジョ ン
sy s</w>
so le
in ding</w>
esoph ageal</w>
努 力</w>
ストレ ージ
fun d</w>
っ きり</w>
pr inters</w>
me ll
k ak
ex terior</w>
es ter</w>
comple xes</w>
cerv ical</w>
E dge</w>
酸 化
ノ ート
che mi
americ an</w>
流 入</w>
I K
pre sets</w>
ボール ト</w>
P layer</w>
Hy per
ラ ル
lab our</w>
び ゅ</w>
n chron
he aded</w>
coun ty</w>
9 .
An aly
m so
登 場</w>
ミ ド</w>
I R</w>
受 託</w>
トラ ッキング</w>
termin ation</w>
neare st</w>
大 名</w>
地 点</w>
よ ろ
K B</w>
Imp ort</w>
プライマリ ・
s sed</w>
ap op
V ari
確 か
基 質</w>
terr itory</w>
ing ing</w>
Tex t
アミ ン</w>
の ち</w>
consi st</w>
dis orders</w>
病 気</w>
tis m</w>
super conducting</w>
endo theli
+ &amp;</w>
落 と
脊 髄</w>
授 け</w>
ね る</w>
ul ate</w>
sq l
pac king</w>
employ ment</w>
前 面</w>
u ji</w>
tel ling</w>
bur n</w>
C an
sens ors</w>
conven ient</w>
8 6
sh a</w>
ハ ウス</w>
トル ク</w>
remark ably</w>
関 心</w>
vol un
seas on</w>
In dex</w>
達 する</w>
白 い</w>
標 的</w>
リ シ
f ren
detec ting</w>
」 (</w>
T ra
キャ ラクタ
a head</w>
ハイブリ ッド</w>
ダイレ クト</w>
航空 機</w>
ブ ログ</w>
secre tion</w>
ap er
L M</w>
G P</w>
see k</w>
ess or</w>
er ies</w>
麻 ひ</w>
血 病</w>
hus band</w>
信 心</w>
k yu</w>
M g</w>
知ら せ</w>
micro scopic</w>
b ic
thou sand</w>
C or
大 変</w>
atmo spheric</w>
薄 い</w>
白 血病</w>
ト ー</w>
te l</w>
g ins</w>
chole stero
現 れる</w>
果 たし</w>
stre t
off ered</w>
en em
Au to</w>
re serve</w>
long itu
Remo te</w>
読 取り</w>
ta ils</w>
r yo
phosp hate</w>
k im
exce eding</w>
cy st</w>
conver gence</w>
キュ ー
け い
tomo graphy</w>
sequ ential</w>
バル ク</w>
ロジ ック</w>
せって い</w>
te tr
F T</w>
き ゃ</w>
wea ther</w>
li ation</w>
運 営</w>
ten d</w>
recei vables</w>
mi grated</w>
PE G</w>
inte rested</w>
chromo some</w>
sp ut
s n</w>
anten na</w>
ゲ ノ
Or der</w>
ku ro
applic ant</w>
NA S</w>
クリ ティ
イ ニ
si t</w>
mu se
f t
治 癒</w>
市 販</w>
お 金</w>
fing er</w>
T RA
競 争</w>
ディスカ ッション</w>
quar ter</w>
pipel ine</w>
inst an
)、 「</w>
レ ポート
call back</w>
カレン ダ</w>
ultr alite</w>
ob serve</w>
ケ ー
r able</w>
fe ver</w>
electro des</w>
タ イ</w>
く す</w>
gra des</w>
ceram ic</w>
2 7
素 晴
氏 名</w>
some body</w>
mix er</w>
every body</w>
C ap
overl apping</w>
ju dge</w>
rec al
C SS</w>
前 者</w>
サ プライ
L igh
チ オ
き っ
15 00</w>
nozz le</w>
事 由</w>
し まい</w>
dis connect</w>
analy zer</w>
dra inage</w>
同 年</w>
certain ly</w>
b mp</w>
Do main</w>
possi bly</w>
xi liary</w>
sec ted</w>
chall eng
室 内</w>
bus in
職 階</w>
始 める</w>
univer sal</w>
bili ties</w>
immuno histo
高 周波</w>
電 場</w>
特 許</w>
パー ソ
veri ly</w>
deca y</w>
bu g</w>
越 え</w>
主 として</w>
C R
キャン ペ
swel ling</w>
占 め</w>
wit ness</w>
ne o
hierarch ies</w>
g y</w>
crea te
Fil ter</w>
ラジ カル</w>
k id</w>
diffic ulty</w>
destro yed</w>
T A</w>
Des ktop</w>
syste mic</w>
ga stro
weigh ted</w>
proto cols</w>
ch loro
al ty</w>
p b</w>
as p
コンパ ウンド</w>
fo cused</w>
積 層</w>
stor ing</w>
em bo
サ ード</w>
substitu te</w>
poly mor
micro wave</w>
du oden
daim yo</w>
4 .0</w>
育 成</w>
所 得</w>
requ iring</w>
z n</w>
to mi</w>
fle x</w>
br and</w>
2. 5</w>
P IX</w>
短 く</w>
加 入</w>
sub jected</w>
ma d</w>
in er
fir m</w>
囲 気</w>
e ing</w>
間 違い</w>
≫」 、
G N</w>
affec ting</w>
li ant</w>
3 00
pa tent</w>
Sty le</w>
reg ression</w>
el la</w>
電 界</w>
foc using</w>
速 く</w>
大き かっ</w>
ピ リ
fe m</w>
enterpri ses</w>
Clo se</w>
bran ches</w>
MA X</w>
着 目</w>
rub ber</w>
agricul ture</w>
取り 組み</w>
先 生</w>
uni form
dam aged</w>
遊 離</w>
fl ange</w>
den se</w>
スピ ード</w>
キャンペ ーン</w>
stand alone</w>
ci ti
accep table</w>
もた らす</w>
z inc</w>
tri p</w>
coc cus</w>
fol lic
差 分</w>
様 子</w>
ush ing</w>
r i</w>
n eling</w>
el ong
スル ー</w>
援 助</w>
con vec
エ ル
V I</w>
bo tt
Dis k
博 士</w>
ves sels</w>
no bu
定 式</w>
de select</w>
arch itect</w>
石 油</w>
フラン ジ</w>
h ang
s d</w>
L D</w>
jun c
down stream</w>
c x
K e
fav orites</w>
appoin tment</w>
G lob
P R
内 皮</w>
resis tivity</w>
外 来</w>
ge red</w>
gar den</w>
地 理</w>
ocy tes</w>
Proto col</w>
reve al</w>
mod ulus</w>
coun ts</w>
返 信</w>
RA DI
$ $</w>
sn aps</w>
offici als</w>
M T</w>
虚 偽</w>
フ リーズ</w>
シ クロ
p et</w>
G et</w>
開 催</w>
View Cube</w>
言 及</w>
パー セン
fil ls</w>
wee k
ish o</w>
V E
p r</w>
mil d</w>
Un icode</w>
Power Point</w>
心 理</w>
ず しも</w>
UV W</w>
変 わる</w>
加 算</w>
purch asing</w>
pu tting</w>
亜 鉛</w>
le ss
S cen
軟 骨</w>
クロ ロ
rati os</w>
col i</w>
approxim ate</w>
flu oro
bil ls</w>
gen ous</w>
frequ ent</w>
疑 い</w>
lo sis</w>
に く
inter fer
lo be</w>
a o</w>
P ho
8 02</w>
テ イ
こ ん
e ating</w>
an g</w>
進 化</w>
hur t</w>
ア サイ
ステ ロール</w>
uni on</w>
k ing
fit tings</w>
初 め</w>
た さ</w>
お ぶ</w>
加 速度</w>
切 開</w>
ra c</w>
initi ated</w>
カ ラー
Ro om</w>
果 実</w>
origin ated</w>
diag rams</w>
di e
ポ ップ</w>
イ ソ
p ation</w>
n sr
A T</w>
な きゃ</w>
秀 吉</w>
ゲ ート
ble eding</w>
感 覚</w>
室 町</w>
実 測</w>
い ろ
ca 2</w>
mell itus</w>
j ack</w>
i fic</w>
eg g</w>
トリ ガ</w>
wri ter</w>
po rous</w>
当 社</w>
導 い</w>
inten ds</w>
スタ ッ
pro mising</w>
magne to
desi rable</w>
タ ク
シ ル
preven ting</w>
in ks</w>
budd ha</w>
アド バ
ev ap
副 腎</w>
リン パ
( %</w>
バンド ル</w>
m its</w>
必 ずしも</w>
r ant</w>
detec tor</w>
コ ード
sk ills</w>
rough ness</w>
lympho ma</w>
St and
L ine</w>
増 幅</w>
エンタープライ ズ
w et</w>
減 らす</w>
sear ched</w>
ッシ ング</w>
tutori als</w>
complex ity</w>
扱 わ</w>
キャ ップ</w>
si d</w>
出 発</w>
tr ad
an tic
* **</w>
ノ ー
ぐ ぼっく
r sa</w>
シャ ット</w>
de fe
associ ations</w>
守 る</w>
う こう</w>
遅 く</w>
聞 き</w>
maj ority</w>
ici de</w>
FA X</w>
雰 囲気</w>
アダプ ター</w>
当 事
当事 者</w>
グローバ ル
mani fe
loc al
infec ted</w>
著 作</w>
ちゃ ん</w>
hy d
ceram ics</w>
center line</w>
bro wn</w>
co ok
逃 げ</w>
rein forcement</w>
se ed
over head</w>
direc tors</w>
N umber</w>
インテ リ
at tr
e de
受け 取る</w>
clas h</w>
肺 癌</w>
ト ゥ
gra ins</w>
divi sions</w>
透 析</w>
着 信</w>
広 範囲</w>
bro ad</w>
sun e</w>
gir ls</w>
H P
C amer
comman der</w>
T ab</w>
cle aring</w>
af raid</w>
si zing</w>
S F</w>
C U
納 言</w>
指 向</w>
sc r
per mitted</w>
lan ding</w>
アル ファ
te eth</w>
po t</w>
パ ッド</w>
over lay</w>
occu pi
j ar</w>
hou sing</w>
T ren
D I</w>
Au th
新 設</w>
e gg
高 密度</w>
ハード ウェア
s ors</w>
198 6</w>
形 質</w>
シェ ード</w>
gi ble</w>
3 50</w>
Sec urity</w>
S H</w>
10 2</w>
ウ ンド
居 住</w>
inhibit ory</w>
RADI US</w>
デー モン</w>
ven ti
起 源</w>
総 会</w>
ta tively</w>
航 空</w>
ク レジ
エンジニ アリング</w>
イン ド</w>
ta r</w>
限 度</w>
著 しい</w>
償 却</w>
scrip ting</w>
デフォル ト
s ale</w>
la dy</w>
dis h</w>
delay ed</w>
本 来</w>
入 れ
tt able</w>
na tion
Defin ition</w>
リレー ショナル</w>
disp ute</w>
O ver
s lu
サブ オブジェクト
eas tern</w>
design ation</w>
share holders</w>
Administr ator</w>
余 白</w>
へ ん</w>
u l</w>
W id
ア リ
gen s</w>
L IN
9 0
青 色</w>
命 じ</w>
十二 指
t an</w>
break down</w>
コンパイ ラ</w>
le p
at ro
Rec ei
インスト ール
vehic les</w>
ti er</w>
sh ut
for get</w>
conduc tor</w>
Charac ter</w>
trans mit</w>
opa thy</w>
chemi stry</w>
0. 01</w>
繰 返し</w>
十二指 腸</w>
con junction</w>
a sto
世 界
5 5
目 次</w>
ver te
d i</w>
con servation</w>
マ クロ
スト ー
under ground</w>
選 ん</w>
リー ・
tra de
au xiliary</w>
ンス ・
ジェネ レータ</w>
person nel</w>
il or</w>
e lo
ア ポ
z en
Con stra
ル ー</w>
バ ンプ</w>
reason able</w>
qu in
horizon tally</w>
ME L</w>
Hel p</w>
重 大</w>
抗 菌</w>
商 標</w>
j ump</w>
（ 株
（株 ）</w>
in sufficient</w>
f lower</w>
I mage</w>
エチ レン</w>
な れ</w>
j ima</w>
R SA</w>
12 00</w>
ミ ナル</w>
マー ケ
re a</w>
h yo
ca the
fel t</w>
術 中</w>
トラック ビュー</w>
exp iration</w>
op hy
T E</w>
愛 し</w>
N F</w>
co de
adap tation</w>
E NO
13 4</w>
1 30</w>
inde xed</w>
spec t</w>
pneumon ia</w>
ne ph
チ ング</w>
o cular</w>
cataly tic</w>
F P</w>
子 会社</w>
h 2</w>
e ties</w>
S che
Q o
潜 在</w>
n in
ki ds</w>
3 6
Mo ve</w>
れ い</w>
つ ける</w>
永 続</w>
ic enter</w>
Libr ary</w>
クロー ズ</w>
ti zed</w>
コントロー ラー</w>
wil d
we ap
blin d</w>
トランジ ション</w>
ス パッ
er ase</w>
海 外</w>
到 着</w>
アスペ クト</w>
def ense</w>
韓 国</w>
candi date</w>
ac s</w>
短 時間</w>
ラ スター
influ ences</w>
ギ ズ
invol ves</w>
fe wer</w>
1 60</w>
pseu do
exten ds</w>
al ge
抜 き</w>
oscil lation</w>
carri es</w>
ca tho
S pec
アレ ルギー</w>
Ali as</w>
装 着</w>
ハ ッチング
theore tically</w>
arbitr ary</w>
fren ch</w>
レ ール</w>
ル ーム</w>
カ バー</w>
す ご
furn ace</w>
ボ ン
せ つ</w>
p il
回 帰</w>
切 る</w>
tox icity</w>
な ん</w>
so mes</w>
co verage</w>
schedu ler</w>
rough ly</w>
for ma
M er
D u
. exe</w>
レー ザー</w>
カ ラ
cau ght</w>
pe g</w>
p itation</w>
correc ted</w>
back ward</w>
Mac intosh</w>
赤 い</w>
≫」、 「≪</w>
譲 渡</w>
demon stration</w>
al locate</w>
ton ight</w>
三 つ</w>
o id</w>
frag ment</w>
P ro</w>
P an
さ せ</w>
stic k</w>
particip ants</w>
残 さ</w>
平 坦</w>
sub mission</w>
categ or
sta ined</w>
am y
Elec trical</w>
筋 肉</w>
referen cing</w>
poin t
S ho
左 下</w>
tit les</w>
swit ched</w>
du ties</w>
appro aches</w>
D ev
酢 酸</w>
マ ッチ</w>
kne e</w>
exp end
肥 満</w>
化 物</w>
10 5</w>
バック アップ
スト リー
pr icing</w>
pack aging</w>
ali ases</w>
Qo S</w>
sup pose</w>
palet tes</w>
adequ ate</w>
Java Script</w>
log on</w>
ari th
理 想</w>
Identi ty</w>
出 資</w>
ポ スト</w>
jur is
バッ テ
trad os</w>
hand led</w>
forwar ding</w>
fail ures</w>
1 18
bi al</w>
取り消 す</w>
占 める</w>
シス コ</w>
homo geneous</w>
E D</w>
心 室</w>
ビ タミン</w>
バーチャ ル</w>
longitu dinal</w>
gu est</w>
もっ とも</w>
sli des</w>
い る
yam ato</w>
juris dic
従 事</w>
cop e</w>
av ocent</w>
直 ちに</w>
conver ter</w>
セン サー</w>
un stable</w>
inter sect</w>
カ 月</w>
muco sal</w>
アノ テーション</w>
muse um</w>
as u
head ers</w>
spac e
P y
歪 み</w>
gener ations</w>
cal c</w>
き っと</w>
sett lement</w>
dis solution</w>
decla red</w>
ね え</w>
con f</w>
Si O</w>
炭 酸</w>
mo tions</w>
laun ched</w>
inf ant</w>
b ling</w>
腺 腫</w>
経 時</w>
smo king</w>
フロ ント</w>
inclu sive</w>
Re gi
P ol
ジャ ンプ</w>
morpho logical</w>
fri end
コマンド ライン
yosh im
g low</w>
か ける</w>
he ated</w>
de als</w>
F x</w>
節 約</w>
誕 生</w>
公 式</w>
パイ ロット</w>
is lands</w>
気 体</w>
ori ties</w>
escap e</w>
デ プロ
法 令</w>
ネゴシエ ーション</w>
ren e</w>
bloc ked</w>
K VM</w>
衛 門</w>
アニメ ーション
og le</w>
主 義</w>
trans formed</w>
re volu
fi xes</w>
非 対称</w>
管 内</w>
破 断</w>
si ded</w>
in visible</w>
geome trical</w>
cr ash</w>
許 さ</w>
カ リ</w>
ot a</w>
張 力</w>
ッ ジ
eng ers</w>
デ ス
町 村</w>
国 土</w>
s wa
re late</w>
om it
dig its</w>
com mission
P ay
ul cer</w>
Bu zzsaw</w>
poly mers</w>
mo to
asth ma</w>
is dn</w>
B row
人 口</w>
mor al</w>
industri es</w>
リンパ 腫</w>
su d
s no
S R</w>
disp os
vi br
g li
石 炭</w>
pi lot</w>
修 理</w>
r uling</w>
inst ability</w>
c attle</w>
b old</w>
経 緯</w>
ん と</w>
dis solved</w>
お か
ta tional</w>
ker nel</w>
expend it
護 士</w>
触 れ</w>
弁 護士</w>
と っ</w>
ta ka
inher it</w>
素晴 らしい</w>
cros sing</w>
Be an</w>
gi z
パ ン
smo ke</w>
河 川</w>
log o</w>
de spite</w>
分 極</w>
mi x</w>
d in</w>
cor ne
ブラ ンチ</w>
わ が</w>
power shell</w>
Cur rent</w>
198 5</w>
exha ust</w>
An notation</w>
決 める</w>
塗 り</w>
ビュー ・
h aps</w>
guaran tee</w>
ur o</w>
t l
興 味</w>
kun i</w>
exam ining</w>
hi ding</w>
Re move</w>
じゃ あ</w>
satis fy</w>
N IS</w>
排 除</w>
塩 化</w>
tw ist</w>
st resses</w>
den ing</w>
prece dence</w>
infec tious</w>
In formation</w>
recip i
recei ver</w>
exten sive</w>
F usion</w>
厳 しい</w>
d ge
am ent</w>
initi alize</w>
パーセン テージ</w>
o sp
打 ち
interpre ted</w>
M on
粘 性</w>
投 稿</w>
puri fied</w>
訂 正</w>
留 意</w>
差し 込み</w>
コン プライアンス</w>
ケ ル</w>
se al</w>
簡 便</w>
ヴ ィ
トリ ック
スペ ル</w>
ち ょう
b c</w>
磁 石</w>
chang e
御 方</w>
ノート ブック</w>
r ating</w>
bac ked</w>
結 核</w>
n av
reach es</w>
protec tive</w>
integr al</w>
at able</w>
O LAP</w>
sc aled</w>
m c
て ん
い わ
文 字
kore an</w>
in finite</w>
adap ters</w>
Pro fessional</w>
送 ら</w>
っく り</w>
sty le
fil tered</w>
スタッ フ</w>
v oc
sub division</w>
heav ens</w>
byp ass</w>
通 し</w>
separ ator</w>
lar s</w>
e ase</w>
cf g</w>
AS M</w>
per haps</w>
divi de</w>
PE L</w>
wor ry</w>
リ レーション
モニ タリング</w>
カメ ラ
wi ring</w>
sear ch
in ch</w>
こ ん</w>
y ak
chec ker</w>
80 2.
zi er</w>
z fs</w>
d n
リジッド ボディ</w>
ol ds</w>
プロパティ エディタ</w>
グラ フ
there after</w>
dep ic
文 化
大 域</w>
地 図</w>
senten ce</w>
form al</w>
adv ice</w>
uni fied</w>
19 80</w>
graph ite</w>
Str uc
直 す</w>
refer ring</w>
deplo ying</w>
ap art</w>
Po sition</w>
di m
accum ulated</w>
ENO V
伸 長</w>
deli ver
SE LE
デザイ ナ</w>
ar a</w>
は っきり</w>
imp ed
hi v</w>
close st</w>
カ スケ
qu a
lin er</w>
U P</w>
福 祉</w>
摩 耗</w>
si de
repe ating</w>
leuke mia</w>
chro mat
clo ser</w>
高 線</w>
リポジ トリ
pl c</w>
ター ゼ</w>
k vm</w>
disp ens
等 高線</w>
osc ill
ロ ッパ</w>
un changed</w>
marke dly</w>
bas al</w>
継 ぎ
ダ ーゼ</w>
シェー ダ
anti bio
ア ート</w>
queu es</w>
co operative</w>
G M</w>
ライ ナ</w>
カル ボ
イ ネ
z an</w>
la ke</w>
S D</w>
3 ,
フィ ード</w>
や り</w>
tw i
ch ose</w>
れ て</w>
preci pitation</w>
power point</w>
リー フ</w>
to wer</w>
tes sel
ob ic</w>
hi p</w>
し き</w>
fas ten
clin ic</w>
A A</w>
料 金</w>
につ れて</w>
woo den</w>
AD O</w>
n mr</w>
en sis</w>
P entium</w>
消 え</w>
ム ・
ぇく と
d ity</w>
A ction</w>
割 れ</w>
シ ード</w>
defici ency</w>
何 らかの</w>
アドバイ ザ</w>
up stream</w>
du ty</w>
無 理</w>
断 熱</w>
n particle</w>
appe al</w>
A gent</w>
方 体</w>
techno logical</w>
quar ters</w>
j it
exce eded</w>
el as
e Room</w>
10 4</w>
シェ ル
shi ki</w>
解 消</w>
ワーク フロー
e V</w>
ゲノ ム</w>
し ば</w>
magne tization</w>
密 接</w>
プロパティ ・
vit amin</w>
supp lies</w>
爆 発</w>
下 書き</w>
polymer ization</w>
meta static</w>
favor ite</w>
bal ances</w>
オーバー レイ</w>
view cube</w>
sp lines</w>
l in</w>
distingu ished</w>
bronch ial</w>
N MR</w>
cholestero l</w>
bus y</w>
メン バー
プ ス</w>
ニ ック</w>
turbul ence</w>
exten ding</w>
純 物</w>
不 純物</w>
ベ イク</w>
カン マ</w>
ro d</w>
ドロップダウン メニュー</w>
ディスプレ イス
u ter
st ones</w>
ro se</w>
M T
opini ons</w>
loc ale</w>
u d</w>
activ ating</w>
sa k
lo ff</w>
iter ations</w>
ch u</w>
み なす</w>
い た
sh ing
m ang
D OS</w>
avo i
プロ セ
si o2</w>
hi me</w>
エ タ
termin ated</w>
sti mu
gau ge</w>
脆 弱</w>
換 気</w>
承 諾</w>
Power Shell</w>
eng ines</w>
輸 入</w>
ti e</w>
マテリアライズド・ ビュー</w>
moi sture</w>
h on</w>
対 立</w>
he mat
表 層</w>
物 性</w>
就 業</w>
ヨー ロッパ</w>
vul ner
re activity</w>
ワイ ルド
リ プレゼンテーション</w>
s word</w>
pancre as</w>
ロ シア</w>
emit ted</w>
elimin ate</w>
現 地</w>
パー ツ
pri m
no body</w>
rein forced</w>
activ ates</w>
H O
タ ップ</w>
セン ス
w ns</w>
r na</w>
mo vements</w>
gr ams</w>
短 期</w>
職 業</w>
silic a</w>
mo tion
m is</w>
App ly</w>
turb ine</w>
em ul
@ &amp;</w>
取 締
武 士</w>
有 名</w>
bre eding</w>
al arm</w>
コー ディング</w>
tun neling</w>
pol yp
li zed</w>
ho jo</w>
ky ushu</w>
do s
invo ke</w>
実 質</w>
ビ リティ</w>
o be
fish ing</w>
expor ts</w>
H IV</w>
不 安</w>
シ リン
place holder</w>
me at</w>
F ac
離 散</w>
性 状</w>
ヒ ストリ</w>
エ ータ</w>
def lection</w>
7 5
poly lines</w>
Modi fy</w>
職 務</w>
ex cre
B I</w>
re ment</w>
ero om</w>
; @</w>
送 る</w>
li ers</w>
高 血圧</w>
主 張</w>
reli ef</w>
ph p</w>
g ames</w>
ka w
stain less</w>
気 道</w>
スナップ イン</w>
x is</w>
qu as
織 田</w>
技 法</w>
失 っ</w>
mi um</w>
ery thro
H R
ヒドロ キシ
w l</w>
c ns</w>
T c</w>
市 民</w>
取り 込み</w>
先 行</w>
wor ship</w>
v ous</w>
equip ped</w>
aneury sm</w>
sulf ate</w>
out come</w>
an th
メ ッシュ
there by</w>
infer ior</w>
気 泡</w>
歯 車</w>
次 回</w>
hydro gen
10 .
バリア ント</w>
M M</w>
特 有</w>
断 片</w>
execu table</w>
朝 廷</w>
re produc
fi gh
do p
bo ys</w>
移 転</w>
共 存</w>
しば しば</w>
ship ped</w>
es .
12 3</w>
真 理</w>
な わ</w>
predic t</w>
pos ses
be at</w>
理 学</w>
カー テン</w>
tot als</w>
re sected</w>
骨 格</w>
刑 事</w>
plo tting</w>
phr ase</w>
trigg ers</w>
3 3
テクス チャ
っ かり</w>
particip ate</w>
co ar
replic ated</w>
out puts</w>
li ber
内 障</w>
ド ープ</w>
卵 巣</w>
具 合</w>
インストー ラ</w>
susp ended</w>
中 性</w>
モ ンド</w>
in jected</w>
imple menting</w>
fa ir
ス プリング</w>
wor th</w>
se at</w>
無 し</w>
sec tor</w>
execu tes</w>
re ader</w>
hel per</w>
g ger</w>
dist ances</w>
Ch ange</w>
teach er</w>
転 位</w>
tran s</w>
コレ ステロール</w>
work plane</w>
num bered</w>
lan ted</w>
ke i</w>
ad mission</w>
hi to</w>
gr p</w>
fi bri
trans verse</w>
反 り</w>
name ly</w>
e b
ab ra
da emon</w>
expl ore</w>
若 干</w>
犯 人</w>
trig gered</w>
ti ll</w>
ll a</w>
at yp
存 続</w>
ul ly</w>
in let</w>
連 鎖</w>
ベ ンド</w>
コネ クション</w>
demon strates</w>
マー カ</w>
やり 直し</w>
rol led</w>
クロ マト
y no
sh ir
chromat ography</w>
リ ファ
て い</w>
progres sive</w>
ar ch</w>
: ［</w>
in qu
gr inding</w>
対 流</w>
objec tives</w>
cir cles</w>
父 さん</w>
sw atch</w>
den ied</w>
注 射</w>
両 親</w>
イ オン
アン チ
yiel ds</w>
r c</w>
hydro xy
fa ith</w>
過 渡</w>
プレースホル ダ</w>
ス カル
re jected</w>
om y
house hold</w>
po sts</w>
de pos
NA T</w>
パ ル
イン ピー
le gs</w>
g as
S O</w>
社 債</w>
パブリ ック</w>
se ll</w>
フレ キシ
manufac tured</w>
不 適切</w>
amp s</w>
Y Z</w>
解 離</w>
永 久</w>
宗 教</w>
thr one</w>
h achi
chil d
伝 統</w>
う え</w>
th es</w>
descend ants</w>
un used</w>
各 地</w>
establish ing</w>
損 害</w>
co ff
分 間</w>
ぇく と</w>
rang ing</w>
本 番</w>
utili ze</w>
manag es</w>
es tive</w>
a sia</w>
働 く</w>
lu br
ec h
soldi ers</w>
摺 り</w>
ト ロン</w>
religi ous</w>
effec tor</w>
compla int</w>
遅 い</w>
ファジ ィ</w>
distor tion</w>
に あ
suf fix</w>
re ar</w>
detec ts</w>
レジ ストリ
r in
min imal</w>
導 き</w>
pene tration</w>
飛 行
ナビゲーション ・
アー チ</w>
si fication</w>
sco res</w>
ren der
imped ance</w>
st at</w>
; +&amp;</w>
tu re
recipi ents</w>
lop es</w>
commen cement</w>
K er
パ ソ
mode led</w>
fix ation</w>
dispens able</w>
マルチ メディア</w>
organ isms</w>
ma r</w>
s at</w>
fal loff</w>
Pho to
g aps</w>
cl i</w>
15 3</w>
侵 襲</w>
tag on
de x
腸 管</w>
ヴ ァ
レイヤ ー
ギズ モ</w>
hab it
life time</w>
Pro vi
統 領</w>
any way</w>
断 層</w>
大 統領</w>
un defined</w>
li ability</w>
an alog</w>
貴 方</w>
land scape</w>
補 強</w>
睡 眠</w>
G o
li b</w>
d ori</w>
cro ss
st ating</w>
ブリ ン</w>
ri t</w>
Fi le
動 かし</w>
中 枢</w>
プロ ッタ</w>
n 2</w>
退 院</w>
繰り 返す</w>
ぼ うこう</w>
work spaces</w>
en forced</w>
総 数</w>
書き 出さ</w>
dre amweaver</w>
父 親</w>
潤 滑</w>
hr ms</w>
es sive</w>
at trac
a sian</w>
有 力</w>
アー ゼ</w>
sor ted</w>
fe at
T ri
北 海道</w>
re no
off sets</w>
胎 児</w>
指 針</w>
オ レ</w>
meth odo
inflam mation</w>
ie yasu</w>
h d
es sion</w>
app er</w>
Mo tion</w>
等 しく</w>
sub net</w>
sever ity</w>
rep ly</w>
multic ast</w>
ill us</w>
deman ds</w>
ビル ド</w>
vis itors</w>
初 回</w>
働 い</w>
low ered</w>
counter measure</w>
ab und
Glob al</w>
プラン ニング</w>
suffici ently</w>
mus cles</w>
cel s</w>
季 節</w>
入 口</w>
仕 え</w>
th um
習 慣</w>
筆 者</w>
手 伝
取締 役</w>
ター ミナル</w>
intrav en
c ated</w>
Mode ling</w>
クリティ カル</w>
perme ability</w>
jo ins</w>
con g
in dispensable</w>
太 陽
吹き 出し</w>
世界 中</w>
gra ft</w>
enhan cements</w>
マーケ ティング</w>
アラ ーム</w>
p es</w>
小 腸</w>
その もの</w>
qu ad</w>
- 1</w>
pay ables</w>
増や す</w>
ら ぎ</w>
運 送</w>
混 在</w>
harmon ic</w>
. com</w>
微 粒子</w>
定 款</w>
ethan ol</w>
attribu ted</w>
M us
保 つ</w>
extru de</w>
as teri
算 定</w>
シェ イ
main tains</w>
赤 血球</w>
tt on</w>
ti des</w>
i des</w>
eno via</w>
deri ve</w>
ar cs</w>
向 か
公 告</w>
rota ted</w>
numer ous</w>
deteri oration</w>
vor tex</w>
nec rosis</w>
陰 影</w>
露 出</w>
メ タ</w>
サブ フォルダ</w>
ENOV IA</w>
残 る</w>
仏 教</w>
ス ポー
カ ット
ら ん</w>
op tic</w>
epi der
cen tric</w>
自 律</w>
ush ed</w>
c ad
streng th
se tu
kan to</w>
cub ic</w>
pres sed</w>
文化 財</w>
テ トラ
g u</w>
cen tered</w>
ソ ーム</w>
p yl
consider ably</w>
ar ization</w>
B l
ドキュ メント
ト ー
yosh in
gen o
evalu ates</w>
as sumption</w>
la u
electr on
ren tly</w>
poe ms</w>
emp ha
1 20
血 糖</w>
イ ラ
war nings</w>
sa ve
l amp</w>
ju dic
instal ls</w>
死 去</w>
少 年</w>
turbul ent</w>
ma tically</w>
jo ining</w>
ウォ ッチ</w>
termin als</w>
特 長</w>
ba g</w>
送 っ</w>
パソ コン</w>
be ta</w>
リ ック</w>
wor ld
vo id</w>
th ic</w>
sal ary</w>
mag net</w>
H e
G S</w>
萎 縮</w>
shi ge
quanti tatively</w>
fabr ication</w>
cyto plas
累 計</w>
研 修</w>
住 ん</w>
の 子</w>
ordin ate</w>
藩 主</w>
書 か</w>
セ メント</w>
roo ts</w>
acceler ated</w>
冠 動脈</w>
ケ イ
く し</w>
い し</w>
anisotrop y</w>
En d</w>
ラ ック</w>
illu strated</w>
ris m</w>
出 席</w>
per for
h ence</w>
cre ep</w>
貢 献</w>
ペー パー</w>
ma tics</w>
Architec ture</w>
yor k</w>
張 り</w>
ル ミネ
モ ーター</w>
manufac ture</w>
han g</w>
行 なう</w>
ビ ー
p ine</w>
H air</w>
乗 っ</w>
ic le</w>
蒸 発</w>
スクリ ーニング</w>
mol ten</w>
mag ni
シャ フト</w>
sur ing</w>
in um</w>
help ful</w>
非 同期</w>
plu gin</w>
o e</w>
limit ation</w>
lim iting</w>
ill a</w>
go ds</w>
di lu
T e
ID M
チ ョ
spo ke</w>
brief ly</w>
キャビ ネット</w>
satur ated</w>
irradi ated</w>
any more</w>
RA C</w>
F AL
lo ader</w>
伸 び</w>
一 様</w>
ac he
impor ts</w>
cryp to
F M</w>
! ---</w>
見 なさ</w>
sa m</w>
archi ving</w>
T est</w>
望 み</w>
キャ ビティ</w>
ぁ いる
san ds</w>
s ick</w>
欠 落</w>
摘 要</w>
内 蔵</w>
リ ニア</w>
エ ンス</w>
わ せ</w>
へん 平</w>
su dden</w>
ju mp
answ ers</w>
始 まっ</w>
ざ い</w>
mo bili
I O</w>
期 日</w>
un load</w>
receip ts</w>
aim ing</w>
Fe ature</w>
フェイル オーバー</w>
ゲ ージ</w>
yno lds</w>
qu al
oxi di
ラ リー</w>
s ong</w>
id le</w>
i sts</w>
避 け</w>
同 士</w>
un t</w>
j es
ici ous</w>
cri me</w>
centr alized</w>
T as
喫 煙</w>
fl ame</w>
con serv
ce le
assi st</w>
M en
追 い
価 額</w>
ウェ ブ
co vering</w>
鋳 造</w>
pe aks</w>
6 .0</w>
ス ワ
め っき</w>
author ing</w>
P h
auto mobile</w>
shut down</w>
i pl
el ap
次 世代</w>
体 験</w>
ヶ 月</w>
ワ ープ</w>
py thon</w>
or b
Py thon</w>
organiz ational</w>
Action Script</w>
言 い
気 管</w>
切 ら</w>
m ill</w>
appli ances</w>
塩 素</w>
tel ls</w>
promo ting</w>
epi de
曝 露</w>
cy stic</w>
互 い</w>
clic ked</w>
g ang
co vers</w>
bo at</w>
国 立</w>
ス プライ
see ds</w>
reflec ts</w>
br ings</w>
Se c</w>
m t
im er</w>
S mo
相 談</w>
stop ping</w>
neighb or</w>
工 作</w>
war m</w>
thir ty</w>
for d</w>
ar ro
意 思</w>
一 環</w>
bro ke</w>
養 子</w>
whe els</w>
ch ari
不 十分</w>
リ ウ
ex t
b ent</w>
受 益</w>
egg s</w>
薬 品</w>
diff ers</w>
consci ousness</w>
In put</w>
コ ラー
ぎ り</w>
r m</w>
it al
Disk Xtender</w>
simpli fy</w>
phosp ho
me ant</w>
in ti
ev ing</w>
e g</w>
シン プル</w>
ma ker</w>
class ical</w>
ascen ding</w>
収 量</w>
ワイルド カード</w>
restor ing</w>
res sing</w>
d f</w>
高 め</w>
stre am
my elo
iter ation</w>
action script</w>
G rid</w>
気 圧</w>
カスケ ード</w>
や ら</w>
片 側</w>
shi ra
en closed</w>
con secu
C D
否 定</w>
suff ered</w>
disk xtender</w>
clero sis</w>
. xml</w>
tri angles</w>
dys function</w>
TE R</w>
前 立
min i</w>
in filtration</w>
前立 腺</w>
サブオブジェクト レベル</w>
an tagon
under stood</w>
Stor age</w>
reflec tions</w>
multi media</w>
dispos al</w>
果 たす</w>
上 面</w>
trajec tory</w>
design ate</w>
10 6</w>
定 型</w>
sp end</w>
gu ards</w>
De tails</w>
老 人</w>
re boot</w>
mas ter
ex emp
貫 通</w>
いろ いろ</w>
st on</w>
sel ling</w>
redund ant</w>
PH P</w>
セ ミ
Map Guide</w>
連 合</w>
パラメ トリック</w>
ref ri
po v</w>
extrac ting</w>
Swit ch</w>
flu ids</w>
ap preci
関 わる</w>
乳 癌</w>
が 国</w>
in ches</w>
L ic
I d</w>
17 0</w>
ル ト
tag ged</w>
p hic</w>
mur der</w>
da m</w>
奴 ら</w>
マテリアル エディタ</w>
twe ight</w>
snap shots</w>
A g</w>
ワ クチン</w>
migr ating</w>
el lan
impo sed</w>
foo ter</w>
attach ing</w>
公 園</w>
spon taneous</w>
prim arily</w>
pac ific</w>
inter sti
行 える</w>
新 聞</w>
ディ スク
に際 して</w>
s au
順 に</w>
ship ment</w>
en ters</w>
ed .
認 知</w>
trac he
spec ular</w>
ani mations</w>
adhe sive</w>
務 め</w>
ワーク プレーン</w>
c ached</w>
FAL SE</w>
シーン ビュー</w>
アセンブ リー</w>
re di
omit ted</w>
大 切</w>
ク ロック</w>
カー テン
た かっ</w>
tox ic</w>
mit ting</w>
hear ts</w>
F i</w>
スーパー バイ
p l</w>
mis sed</w>
dat ory</w>
d ump</w>
S R
Pub lish
sur fac
re build</w>
フル オ
aim ed</w>
確か め</w>
hi ra</w>
disc ipl
R adi
後 続</w>
mod al</w>
gui ded</w>
descen ding</w>
末 期</w>
アル キ
jurisdic tion</w>
長 官</w>
正 方形</w>
微 分</w>
disp at
SELE CT</w>
FI LE</w>
フォ ト
quo tation</w>
grou p
インピー ダンス</w>
venti lation</w>
pivo ttable</w>
map guide</w>
gi ant</w>
働 き</w>
leng ths</w>
ch ick
wor se</w>
in fin
du s</w>
か っ
st aging</w>
he mi
吻 合</w>
出 身</w>
gre w</w>
赤 外線</w>
使い 方</w>
sw f</w>
retriev es</w>
ha z
破 産</w>
それ とも</w>
tic ket</w>
tang ents</w>
ob li
ho ok</w>
ca ref
かし ら</w>
pro x
cl onal</w>
sa i
refri ger
P or
12 4</w>
マッ スル</w>
フ ッター</w>
sput tering</w>
slow ly</w>
逮 捕</w>
乗 り
auton om
a wa
クラ シ
time stamp</w>
the red</w>
ib m</w>
bur st</w>
I IS</w>
疑 わ</w>
spr ings</w>
2 40</w>
0 9</w>
ロ ース</w>
レ ット
それ でも</w>
in it</w>
IB M</w>
Camer a</w>
intrac ellular</w>
j sp</w>
dr ying</w>
ari a</w>
ご 覧</w>
histo logically</w>
fit ability</w>
buc k
F o
swa p</w>
suscepti bility</w>
ner vous</w>
dy sp
沈 着</w>
家 康</w>
li tis</w>
アク チュ
dele gate</w>
colle ge</w>
省 エネルギー</w>
ro ads</w>
U p</w>
Qu ery</w>
用 量</w>
in d</w>
i is</w>
ac com
読 ん</w>
策 定</w>
enem y</w>
chon dri
c i</w>
O n</w>
隠 れ</w>
九 州</w>
ヒ ー
hydro ly
微 量</w>
ch un
5 12</w>
0. 2</w>
落 ち</w>
フェ ノール</w>
ジ ル
monit ored</w>
er ous</w>
デ バッ
schem es</w>
re ward</w>
ab or
plo ts</w>
Po st
H S
AC S</w>
若 い</w>
ミ ー
mi sc
meth an
I ON</w>
F lo
AC E</w>
脊 椎</w>
レンダ ラ</w>
ven ess</w>
to ku</w>
j is</w>
datas heet</w>
chas sis</w>
ver t</w>
nic kel</w>
imp ression</w>
Recei vables</w>
sket ches</w>
ev es</w>
不 規則</w>
た っ</w>
man n</w>
kok u
要 請</w>
脂 肪
有 害</w>
受け 入れる</w>
セカンダ リ
アイ コン
li ft</w>
condi tioning</w>
f m</w>
cra zy</w>
con ca
b b</w>
accom mo
イン ド
retur ning</w>
m ly</w>
epitheli um</w>
adju sts</w>
PP P</w>
脂肪 酸</w>
平 板</w>
収 穫</w>
she et
manufactu rers</w>
S tor</w>
mer cy</w>
In sert</w>
次 数</w>
ish a</w>
expen sive</w>
同 位</w>
地 位</w>
mani f
旅 行</w>
コ ロン</w>
pro long
kno wing</w>
er ing
comp ile</w>
accep tance</w>
de b
配 慮</w>
木 材</w>
strate gies</w>
li pi
ch ar</w>
vio let</w>
un lock</w>
gg ed</w>
fo g</w>
caref ully</w>
幾 つ</w>
sug u</w>
princip les</w>
moder ate</w>
customi z
本 体</w>
struc tive</w>
hu ge</w>
den y</w>
アナ ログ</w>
modi fies</w>
correspon dence</w>
Mo tion
it on</w>
forec a
acqu ire</w>
K PI</w>
C F</w>
直 流</w>
切り 取り</w>
ウエ ハ</w>
ま ん</w>
stan ds</w>
al dehy
にわ たり</w>
preci sely</w>
iz er</w>
ing er</w>
ide as</w>
管 轄</w>
イン スペ
s ink</w>
発 揮</w>
クレジ ット</w>
exp on
bur den</w>
多 孔</w>
ス プリ
ric h
lun s</w>
fla v
dra ws</w>
天 使</w>
indic es</w>
ber t</w>
M O</w>
花 粉</w>
現 代</w>
カテゴ リー</w>
spe ak
differen tly</w>
b an</w>
口 腔</w>
不 信心</w>
シン グル
nucle i</w>
inter act</w>
満 たさ</w>
yor itomo</w>
pic king</w>
perit oneal</w>
f us
endotheli al</w>
bloc king</w>
T B</w>
校 正</w>
勢 力</w>
痛 み</w>
work load</w>
ツ リー
インフル エン
A r</w>
表 皮</w>
直 接
寺 院</w>
壁 面</w>
どう いう</w>
し ゅう</w>
あ いつ</w>
conven i
サイ ン</w>
アーティ ファクト</w>
ro ku</w>
kine tic</w>
V o
種 子</w>
着 い</w>
ナン バー</w>
デ ン</w>
ple x</w>
objec t
mess aging</w>
in cl
cali bration</w>
支 給</w>
広 がり</w>
scorec ard</w>
compe tition</w>
Center a</w>
降 伏</w>
vir al</w>
soli di
mi de</w>
hor se</w>
g ers</w>
er r
口 座</w>
ゾ ール</w>
イン ス
so mal</w>
id mgr</w>
emd b</w>
crystal lization</w>
con sent</w>
ぐぼっく す</w>
sk ip
F EM</w>
5 .0</w>
$ $$</w>
条 項</w>
容 積</w>
デ モ</w>
aim s</w>
transi tional</w>
tain ers</w>
sh ing</w>
pro filing</w>
iz u</w>
E lement</w>
Col li
ニュー ロン</w>
bac ks</w>
S nap
A P
迎 え</w>
vari eties</w>
re ject</w>
ar o</w>
PP R</w>
流 通</w>
正 接</w>
Fr ame
考 案</w>
sub assemblies</w>
即 時</w>
fluoresc ent</w>
bu zzsaw</w>
U SE
y lation</w>
ex ca
投 入</w>
squ amous</w>
plas tics</w>
gro ss</w>
開 放</w>
substitu ted</w>
q anywhere</w>
g ator</w>
bo ss</w>
diagno stics</w>
Cl ass</w>
キャ スト
foc al</w>
f 1</w>
テ ーション
s wee
gu id</w>
書き 込む</w>
地 表</w>
アルファ ベット</w>
ろ 過</w>
sour cing</w>
アル ミ
dr inking</w>
trim med</w>
5 00
少 数</w>
ro ad
liqu i
hi ro</w>
all ergic</w>
U T</w>
施 し</w>
ポリ シー
initi ate</w>
busin esses</w>
a e
回 る</w>
検 知</w>
ル ート
スタン バイ</w>
yu ki</w>
pharmac o
ellip se</w>
混 乱</w>
フラ イ</w>
z ens</w>
Tar get</w>
チ オン</w>
p on
interpre tation</w>
ill umin
J IS</w>
鉛 直</w>
ロー カ
s b
p ecu
ブ ロード
necess arily</w>
elimin ation</w>
de sc
v an</w>
deform ers</w>
Tren ds</w>
RE DO</w>
フィ ート</w>
や が
euro pe
Ob ject
ひ ど
IP Sec</w>
-- --
水 準</w>
war ri
poe try</w>
counc ilor</w>
af ric
単 価</w>
mo tive</w>
inf ants</w>
出 せ</w>
最 大
plo tter</w>
Res ource</w>
よろ しい</w>
priv acy</w>
me trical</w>
el bow</w>
重 心</w>
白 色</w>
外 傷</w>
v c</w>
ou ght</w>
Ar ray</w>
ヘル パー</w>
repe titive</w>
lin ear
convec tion</w>
bl ending</w>
bacteri um</w>
抗 生</w>
b ari
Des cri
judic ial</w>
; -&amp;</w>
satis factory</w>
resi st</w>
jec tive</w>
isol ate</w>
やが て</w>
ver sus</w>
gras p</w>
d ors</w>
多 層</w>
perio dic
chem a</w>
1. 3</w>
稼 動</w>
en roll
e zo
se as</w>
man di
licen sed</w>
kin ase</w>
f a</w>
exam ines</w>
entr ance</w>
deci sions</w>
トラ クタ</w>
w ound</w>
vi sc
occur ring</w>
achi e
製 図</w>
上 がり</w>
re tar
iz ations</w>
de struction</w>
aff inity</w>
Off set</w>
乗 算</w>
requ e
man datory</w>
indic ators</w>
du es</w>
知 事</w>
保 健</w>
パ ッシ
hi des</w>
b ject</w>
CL I</w>
推 論</w>
Ti O</w>
N U
Grap h</w>
ご ざい</w>
pap ers</w>
. 4</w>
吸 入</w>
schem as</w>
IDM gr</w>
抑 え</w>
取り 組
pa use</w>
D IS
ニング ・
lo id</w>
kat su
金 銭</w>
探 す</w>
ferro magnetic</w>
朝 鮮</w>
合 格</w>
そ っ</w>
we l</w>
free form</w>
do s</w>
ひ ょう</w>
particip ation</w>
giz mo</w>
wa fer</w>
no h</w>
P O</w>
K ey
E vent</w>
昨 日</w>
str ator</w>
me lan
i ble</w>
coag ulation</w>
cf design</w>
b am
' &amp;</w>
疲 れ</w>
ミ ル</w>
s b</w>
obvi ous</w>
enzy mes</w>
ヘ イ
バイ オ</w>
ultras on
foun ded</w>
s kin
r al</w>
p v</w>
ed itors</w>
Re port</w>
even tually</w>
ル ーター</w>
ステ ージング</w>
アクチュ エータ</w>
pu t
pl ying</w>
勤 務</w>
フラ ンス</w>
増 す</w>
伝 える</w>
デザイン バー</w>
el led</w>
di ap
ch ir
聞 く</w>
scal ar</w>
et te</w>
de formed</w>
鋼 板</w>
duc ts</w>
chro me</w>
T ask</w>
10 3</w>
船 舶</w>
yas u
mon th
gro und
am ination</w>
プラ ク
pul sed</w>
por tions</w>
gall ery</w>
bel t</w>
ac ry
原 則</w>
結 石</w>
不 完全</w>
u red</w>
U ser
森 林</w>
位置 決め</w>
コン タ
virtu alization</w>
sud den
an alo
Inter face</w>
sp ot
promi sed</w>
ら さ</w>
st ag
pp r</w>
T able
Connec t</w>
望 ましい</w>
bi o</w>
al es</w>
U ML</w>
マグ ネ
comb o</w>
ak o</w>
3 4
施 策</w>
悪 魔</w>
ir regular</w>
T ree</w>
neighbor ing</w>
ing redi
in complete</w>
g at
contr action</w>
colum n
C VD</w>
y ours</w>
sudden ly</w>
sta tionary</w>
comp ass</w>
c aching</w>
be side</w>
制 作</w>
ア ンド</w>
Lo ad</w>
ト ーシス</w>
tuber cu
de cor
画 質</w>
パー ス
デ ヒ
micro bial</w>
ac ade
選 び</w>
募 集</w>
toyo tomi</w>
dang erous</w>
豊 富</w>
web trends</w>
v ine</w>
preci pit
皮 膜</w>
se iz
p ins</w>
elev ations</w>
a se
概 観</w>
rob ust</w>
depart ments</w>
北 条</w>
バウ ン
center a</w>
ザ ー
アシ スタ
succes sive</w>
con du
after wards</w>
ate dly</w>
V A</w>
Scen e</w>
紛 争</w>
下 さ</w>
ウ サ
resi des</w>
quas i</w>
pregn ancy</w>
チ ウム</w>
par cels</w>
R D</w>
穿 孔</w>
子 ども</w>
ch m</w>
book mark</w>
G UID</w>
要 し</w>
組み 合わせる</w>
気 づ
or g</w>
h ong
de eds</w>
attenu ation</w>
Sof tware</w>
気 象</w>
エタ ノール</w>
jap on
dg n</w>
寄 せ</w>
sp ray</w>
_ _</w>
革 新</w>
ライ ティング</w>
タン ク</w>
か つて</w>
gener alized</w>
ellan eous</w>
construc ting</w>
be ar</w>
appear ing</w>
浮 腫</w>
市 町村</w>
um l</w>
描 か</w>
一 族</w>
ミ クロ
ボ ー
データ タイプ</w>
クト ロ
le aders</w>
perform ances</w>
p to
compu tational</w>
最大 限</w>
ダイオ ード</w>
コ ル
つ く</w>
trouble shoot</w>
rup t
ec o
良 かっ</w>
かし ながら</w>
pro ve</w>
pr on
暖 房</w>
塞 栓</w>
コラボ レーション</w>
カテ ー
dam n</w>
H A</w>
心 拍</w>
standardi zation</w>
r t
extrac ts</w>
concep tual</w>
ab sc
H R</w>
ナ ー
sp ort</w>
photo shop</w>
Photo shop</w>
H BA</w>
し かも</w>
プロ ダ
networ king</w>
し かしながら</w>
imp lantation</w>
c vd</w>
D GN</w>
文字 数</w>
免 許</w>
re bar</w>
qual it
exhi bit</w>
conven tion</w>
c n</w>
appro ve</w>
F A</w>
ゼ ン</w>
the tic</w>
kil ler</w>
da e</w>
白 血球</w>
co ast</w>
括 弧</w>
テ ール</w>
spo ts</w>
p m
loc ating</w>
inspec t</w>
esoph ag
comple ting</w>
CF design</w>
who ever</w>
teri c</w>
l ou
Z n
サー バ
par am
institu tions</w>
d B</w>
compar atively</w>
can cers</w>
プル ダウン
puni shed</w>
en suring</w>
O ption</w>
コンパ クト</w>
いわ ゆる</w>
stu dying</w>
shi mo
dy e</w>
TI ON</w>
事 情</w>
サ ート</w>
sur yo</w>
intersti tial</w>
fibr e</w>
dist al</w>
comb ines</w>
strate gic</w>
mi es</w>
endo cr
進 める</w>
出 生</w>
レ ス
E C
了 解</w>
インデ ント</w>
lis ter</w>
en ceph
s ag
n f</w>
j ing
b low
取 消し</w>
esti mating</w>
Ex ecu
popu lated</w>
y ori</w>
lo an</w>
c f</w>
小 規模</w>
t ability</w>
mo on</w>
flo od</w>
開 腹</w>
split ting</w>
bas ically</w>
地 獄</w>
ぷろぱ てぃ</w>
gr am
長 時間</w>
サブディ ビジョン
swe et</w>
disco ver</w>
clo thes</w>
プレ ー
ケ ア</w>
investig ations</w>
go als</w>
asy nchron
membran es</w>
bro thers</w>
0 ,
医 者</w>
tro ops</w>
the mes</w>
sto re
nan o</w>
gan tt</w>
圧 延</w>
シ ティ</w>
inclu sion</w>
Sy ste
H o
少 量</w>
ナビゲーション ウィンドウ</w>
アサイ メント</w>
か まい</w>
sd f</w>
ici an</w>
V ir
Cur ves</w>
Back up</w>
pres sion</w>
dro ps</w>
chem ically</w>
他 方</w>
オーバー ラップ</w>
y ester
ref s</w>
ome ter</w>
o lar</w>
ブラウ ズ</w>
engine ers</w>
硝 酸</w>
コラー ゲン</w>
po ols</w>
ir i</w>
exc essive</w>
降 下</w>
sp elling</w>
six th</w>
per fusion</w>
deri vative</w>
bank rupt
少 なかっ</w>
前 期</w>
メ ータ</w>
コン ド
エ ーション</w>
up graded</w>
qu en
案 内</w>
yester day</w>
issu ing</w>
stere o
cor ti
Lab el</w>
スケ ッチ
expendit ure</w>
clic ks</w>
9 45</w>
smar t
or n</w>
comp liant</w>
正 当</w>
ん なに</w>
下 肢</w>
ク ン</w>
a 1</w>
動 画</w>
to m
resu me</w>
recommen ds</w>
ロ ギング</w>
バイ パス</w>
the ses</w>
inst ant</w>
for tun
T H</w>
未 知</w>
もた らし</w>
distingu ish</w>
conven tions</w>
suffici ency</w>
re ality</w>
r ms</w>
n h
mi ter</w>
align ments</w>
Contro ls</w>
ライ センス
イベ ント
ven ous</w>
hi k
S V
PROD U
thou sands</w>
政 権</w>
ステン レス</w>
ゴ ー
アフ リカ</w>
do ts</w>
die sel</w>
catalo gs</w>
bankrupt cy</w>
Z FS</w>
プロ ジェ
umb ing</w>
rit suryo</w>
plo tted</w>
inter ing</w>
don or</w>
I te
読 む</w>
望 ま</w>
中 毒</w>
タイ プ
よ かっ</w>
ま さ
outlin er</w>
expan ding</w>
結 び
thorac ic</w>
employ er</w>
de f</w>
立 方体</w>
ベ ルト</w>
scat tered</w>
mas sive</w>
dam ages</w>
appen di
モ ジュ
ファク チャ
phys ically</w>
exci sion</w>
C ount</w>
帰 る</w>
ート ・
p tc</w>
mod ul
man d
con su
財 務
湿 度</w>
スケジュー リング</w>
アポ トーシス</w>
n ip
moun tains</w>
sa v
wa ka</w>
pain ted</w>
destro y</w>
de ep
R I</w>
di ox
Motion Builder</w>
石 灰</w>
排 気</w>
内 分泌</w>
リジ ョン</w>
r ag
く に</w>
r vt</w>
fluctu ations</w>
貧 血</w>
戦 国</w>
ボ リ
スト ン</w>
y ou
succes sion</w>
protec ting</w>
host name</w>
天 正</w>
作 り
gran ular</w>
太 平
コ リジョン</w>
n b</w>
hum idity</w>
ede ma</w>
ar thri
通 る</w>
病 原</w>
水 道</w>
アル カリ</w>
valu able</w>
tr y
meta sta
gr ace</w>
abnorm alities</w>
SD F</w>
G a</w>
preven ted</w>
for cing</w>
バ ラン
to tally</w>
recommen dations</w>
me i</w>
liste ning</w>
c b</w>
しば らく</w>
stimu lated</w>
norm alized</w>
initi ation</w>
audi ence</w>
B i</w>
等 級</w>
rota tes</w>
p u</w>
Su ite</w>
皆 さん</w>
s ap
環 状</w>
描 く</w>
可 動</w>
古 典</w>
マイ ナス</w>
クリ ープ</w>
アル デヒ
flow ers</w>
c b
行 こ</w>
tou rism</w>
there in</w>
merg ing</w>
頼 む</w>
解 く</w>
war ran
re side</w>
re new
bil ling</w>
D ate</w>
rup ture</w>
r yst
fe moral</w>
防 御</w>
翌 年</w>
慣 性</w>
x er</w>
sion ed</w>
転 記</w>
豊 臣</w>
マニュ ファクチャ
f ashi
Arch itect</w>
狭 い</w>
so y
inher itance</w>
cont amination</w>
an xi
ab ler</w>
r ack</w>
k aku</w>
clou ds</w>
t ale</w>
pu mp
en e
拠 点</w>
役 職</w>
re pa
i res</w>
スポ ット
アセンブ リ
l x</w>
kil ling</w>
P ass
P R</w>
Comp onent</w>
今 夜</w>
ター ビン</w>
アウト ライナ</w>
up take</w>
f ter</w>
dis ables</w>
con ju
Stand ard</w>
L ength</w>
asse ss</w>
下 垂</w>
き る</w>
r ings</w>
in cub
gly cer
ナ イト</w>
need le</w>
lim b</w>
ener gies</w>
頼 朝</w>
ショ ック</w>
m us</w>
プロ ピ
nas al</w>
it y
Temp late</w>
Ge ometry</w>
198 4</w>
ペ ル
toler ances</w>
大 正</w>
medi an</w>
jo in
eluc i
フェ ニル
we aring</w>
gi a</w>
fl are</w>
検 定</w>
ジャ ー
ultrason ography</w>
pre fer</w>
民 間</w>
感 情</w>
wave form</w>
apop tosis</w>
お そ
vi iv</w>
ri sing</w>
p ray
o sis</w>
feder ation</w>
K E
第 三
デス クト
インス リン</w>
ul l
min ing</w>
coun ting</w>
W H
E C</w>
CS V</w>
補 充</w>
g us</w>
descrip tive</w>
balan ced</w>
磁 界</w>
早 い</w>
イン プレ
mort ality</w>
mo ther
カテー テル</w>
tim es
fre ight</w>
e ti
di gi
Web Trends</w>
光 沢</w>
め ろ</w>
dri lling</w>
増や し</w>
両 面</w>
thresh olds</w>
phi sm</w>
ga thering</w>
半 数</w>
テ ロ
gen ital</w>
whe at</w>
f ushi
キャプ チャ
p ick
飛行 機</w>
明る い</w>
マッ チング</w>
x ml
ha m</w>
acet ate</w>
tubercu losis</w>
ori ent</w>
divi ding</w>
支払 い</w>
ダイア グラム</w>
シリン ダ</w>
consider able</w>
Re view</w>
Lay out</w>
デ イ
て は
ex tern
d t</w>
調 達</w>
リレーション シップ</w>
メール ボックス</w>
re i</w>
ferti li
arri ved</w>
捕 獲</w>
enjo y</w>
法 的</w>
メン テーション</w>
tox in</w>
Li st
G o</w>
ン ジ
た た
por e</w>
do gs</w>
da tive</w>
充 実</w>
イ タ
ま あ</w>
ri dge</w>
l ace</w>
fore ground</w>
exp ired</w>
db a</w>
comple tes</w>
acci dents</w>
想 像</w>
復 帰</w>
ぶ り</w>
tool tip</w>
concentr ated</w>
ush es</w>
sk ill</w>
out let</w>
motion builder</w>
interven tion</w>
alumin a</w>
終 わる</w>
ボ ス</w>
ッド ・
sp in
retriev ing</w>
occurren ces</w>
d 9
construc ts</w>
bol t</w>
Auth entic
埋め 込ま</w>
supp liers</w>
europe an</w>
cont ours</w>
archi ved</w>
a test</w>
無 かっ</w>
受け 取り</w>
histopatho logical</w>
bp el</w>
空 調</w>
居 る</w>
占 有</w>
ボ ックス
en shr
選 任</w>
図 っ</w>
役 に
テキスト エディタ</w>
misc ellaneous</w>
har v
em core</w>
SW F</w>
手 続き</w>
v is</w>
ho so
ストレ ッチ</w>
一 切</w>
トレ ンド</w>
tic k</w>
multip lier</w>
dig it</w>
bre vi
bene ath</w>
alph abe
S o
開 示</w>
去 っ</w>
デザイン ビュー</w>
ょ ん
mb s</w>
Sho w
病 巣</w>
j r</w>
coo led</w>
challeng es</w>
ash es</w>
P references</w>
18 1</w>
球 状</w>
the e</w>
stron ger</w>
qu it</w>
gen us</w>
IS DN</w>
留 置</w>
オ カ
exc use</w>
セ ール
イル ミネ
re l</w>
meth ane</w>
生 態</w>
グル コース</w>
や って
Sh ap
引き 起こす</w>
trans fers</w>
mi zed</w>
instal lations</w>
consi ders</w>
8 5
遅 滞</w>
targe ting</w>
shel ls</w>
power path</w>
or ption</w>
l ingu
ino ge</w>
glo mer
compar able</w>
ad ults</w>
極 性</w>
新 株</w>
人 事</w>
ウォ ー
rou ted</w>
pun ch</w>
bur ning</w>
硝 子</w>
模 擬</w>
d ar</w>
cel lu
ane mia</w>
男 女</w>
の う</w>
clin ically</w>
酵 母</w>
取り 出し</w>
repe atedly</w>
解 法</w>
発 酵</w>
プラク ティス</w>
イン ク</w>
ow ners</w>
gre en
detec tive</w>
shi fted</w>
acu ity</w>
collec ting</w>
c lock
polyg onal</w>
comp ares</w>
comman d
sn apping</w>
no minal</w>
equ als</w>
Wid th</w>
As set</w>
突 起</w>
コ ール
Power Path</w>
summar izes</w>
両 端</w>
ば し</w>
light ning</w>
k om
cas cade</w>
C y
近 衛</w>
悪 く</w>
変 態</w>
ラ ウンド</w>
カー ネル</w>
あ い
the ories</w>
den o
犠 牲</w>
無 関係</w>
夜 間</w>
上 流</w>
inte ro
ing e</w>
b ath</w>
Q OL</w>
10 24</w>
ファイ バー</w>
め ん
plate let</w>
n esses</w>
imag ine</w>
ch ap
プライマ リ</w>
す る
mol y
dw fx</w>
d p</w>
動 かす</w>
se m</w>
no se</w>
ig ure</w>
absor bed</w>
空 洞</w>
スクリプ ション</w>
vio lations</w>
iso metric</w>
consecu tive</w>
mito chondri
fo li
障 壁</w>
海 水</w>
t ftp</w>
post script</w>
mista ke</w>
a yama</w>
R equ
P hy
壊 れ</w>
体 内</w>
エフェ クト
typ e
cr acks</w>
未 来</w>
お こ
ve lo
p neu
fin der</w>
顔 面</w>
ス クラ
popul ate</w>
ortho graphic</w>
abo lished</w>
xy z</w>
f 2</w>
ミ クロ</w>
バ カ</w>
instal l
i onic</w>
過 ご
泳 動</w>
応 募</w>
制 定</w>
別 に</w>
ヒ ート
ク ショ
tel net</w>
re alization</w>
enti t
buff ers</w>
puri fication</w>
ig a
educ ational</w>
E m
st acked</w>
scienti fic</w>
guaran te
dis abling</w>
cul ation</w>
bu n</w>
Bo o
( 「
レ ル</w>
occupi ed</w>
char ging</w>
ad renal</w>
明 る</w>
sit ting</w>
or ange</w>
n p</w>
Custo m</w>
第三 者</w>
大 腸
回 っ</w>
ロ ケータ</w>
ヨ ウ
re serv
p ile</w>
journ als</w>
ho c</w>
asse ssed</w>
購 読</w>
増 し</w>
失 効</w>
マ ット</w>
コン バータ</w>
よう こそ</w>
s v</w>
favor able</w>
dr ama
大腸 菌</w>
no de
関 東</w>
メ ン</w>
mo d</w>
lab eling</w>
coff ee</w>
F rom</w>
待 て</w>
下 線</w>
ヒ ョウ
form ulation</w>
fair ly</w>
di v</w>
T L</w>
生 児</w>
動 く</w>
フォ ール
yam ag
ill ness</w>
he red
R V
自 覚</w>
ムー サー</w>
コレ クター</w>
un ity</w>
th row</w>
stor m</w>
次 第
控 除</w>
prov inci
cor tex</w>
j dbc</w>
fl y
colli de</w>
母 さん</w>
termin ology</w>
ro m
nucle o
in tu
att acked</w>
assi sted</w>
次第 に</w>
公 表</w>
インター フェイ
f li
e os
dis soci
CH AR</w>
妨 げ</w>
売 買</w>
広 範</w>
が ん</w>
in fusion</w>
comb in
Constra int</w>
加 水</w>
・ ソリューション</w>
val idated</w>
c is</w>
Q U
阻 止</w>
fou ght</w>
N ull</w>
min us</w>
er ce</w>
bur ied</w>
aden oma</w>
On ly</w>
L SI</w>
買 っ</w>
今 度</w>
sp he
re tainer</w>
inst anti
S oli
耐 久</w>
ベ ー
クリ ーン</w>
per mit</w>
im mer
er ation</w>
cen tri
事 態</w>
スピ ー
tim er</w>
r ace</w>
phen yl</w>
li tho
c amp</w>
an si</w>
Dynam ic</w>
飼 育</w>
ヒ ュー
パ ネル
バ ン</w>
スケジュー ラ</w>
め い</w>
rec ord
k le</w>
al tered</w>
O ut</w>
O B
DW Fx</w>
A tt
相 続</w>
濃 縮</w>
スタ イル
ta u
il t</w>
ali st</w>
交 渉</w>
there to</w>
resi dents</w>
perman ently</w>
li tes</w>
de preci
Inf ra
警 官</w>
生 殖</w>
デン ティ
ph ones</w>
inter sections</w>
g b
cr uc
S ample</w>
頭 痛</w>
知 的</w>
ビット マップ
スティ ック</w>
アルデヒ ド</w>
o a</w>
ische mic</w>
et ings</w>
chang er</w>
水 質</w>
後 半</w>
マ イル</w>
ダ ラー</w>
tr uck</w>
p au
month ly</w>
figh ting</w>
B lu
炭 化</w>
永 遠</w>
ッ グ
develo pers</w>
分 かれ</w>
ワイ ヤー</w>
ma titis</w>
intersec ting</w>
Re la
野 生</w>
窒 化</w>
不 変</w>
デスクト ップ
か ぎり</w>
lympho cytes</w>
B PEL</w>
聞 か</w>
仮 説</w>
サ ル</w>
ファイ アウ
provinci al</w>
雇 用</w>
レプリ ケート</w>
アイ デンティ
sket ched</w>
b age</w>
ar ab
漁 業</w>
抑 える</w>
会 話</w>
う ん</w>
purcha sed</w>
diver sity</w>
det ach</w>
den s</w>
9 65</w>
融 解</w>
聞こ え</w>
ダイヤ モンド</w>
sac chari
invo ked</w>
a th
1 m</w>
一 種</w>
cre ator</w>
肥 大</w>
ミ ニ</w>
sec tional</w>
frag ments</w>
送 付</w>
ホ ワイ
サムネ イル</w>
s ter
iz u
dial er</w>
bene fici
慶 長</w>
osp f</w>
continu ing</w>
trus tee</w>
sr c</w>
ap hy
波 動</w>
ファイアウ ォ
ハ イ</w>
termin ate</w>
ite ly</w>
f r</w>
S ke
行 使</w>
accep ts</w>
Publish er</w>
リ レー</w>
ニュー ラル
テ スト
through put</w>
re views</w>
pres sures</w>
d ding</w>
c lay</w>
ar thro
関 わら</w>
排 せつ</w>
ロ イ
アルミ ナ</w>
te aching</w>
T O</w>
wat ching</w>
ur u</w>
some where</w>
authentic ate</w>
3 rd</w>
調 和</w>
electro pho
漏 れ</w>
spea king</w>
se man
han ded</w>
disper sed</w>
cri tic
r as</w>
テ ロ</w>
p sy</w>
啓 示</w>
enumer ation</w>
gh ts</w>
Product Name</w>
F igure</w>
マ リ
パラメ ータ
アメ リカ
N E</w>
残 念</w>
にく い</w>
in dia</w>
ga ku</w>
O p
手 紙</w>
優 位</w>
アン ロード</w>
べ く</w>
sen goku</w>
s ms</w>
oxi des</w>
食 べる</w>
生 ま
サ イン
id a</w>
海 域</w>
マ チ</w>
togg les</w>
chem icals</w>
生 息</w>
会 う</w>
em erg
u no
inde xing</w>
conserv ative</w>
Fi re
C lear
ミ ト
ポリゴン メッシュ</w>
バー スト</w>
きっ 抗</w>
post ure</w>
intraven ous</w>
in duce</w>
arthri tis</w>
重 視</w>
アクティビ ティ
lo op
friend ly</w>
コ ーン</w>
ab str
pe tro
constitu tion</w>
X T</w>
D T</w>
take off</w>
s ang
municip al</w>
foot print</w>
ap er</w>
数 料</w>
手 数料</w>
selec tivity</w>
noti fied</w>
南 部</w>
シャ ル
車 線</w>
ダイナミ クス</w>
ro ku
rever sed</w>
Infra structure</w>
突 き
左 端</w>
シェイ プ
se di
D D</w>
接 地</w>
キャ ッシュ
prov in
g yo
Pol icy</w>
フ リー
sub jective</w>
orb ital</w>
o ya</w>
ba ke</w>
高 調</w>
収 容</w>
x eon</w>
r is</w>
bac king</w>
Qu ality</w>
H T</w>
ルミネ センス</w>
ニ ッ
le i
Sy nc</w>
ki lo
inter n
ac t
取り 外し</w>
協 調</w>
happ ening</w>
emplo ying</w>
compo sitions</w>
elap sed</w>
di m</w>
Bo dy</w>
倍 率</w>
サ クセ
も ん</w>
scul pt</w>
電 動</w>
ピ ース</w>
キ ナーゼ</w>
r p</w>
inva sive</w>
S e</w>
Ker beros</w>
既 往</w>
オ ゾン</w>
provin ces</w>
ボ ード
tra il</w>
head ings</w>
ga ses</w>
ce i
建 て</w>
su tra</w>
s l</w>
b right</w>
tw el
ne wer</w>
mil ling</w>
free zing</w>
cf d</w>
公 正</w>
r in</w>
o tic</w>
inten d</w>
e po
Y PE</w>
Lo gic</w>
Ig G</w>
ト ップ
speci alized</w>
e u</w>
新 生</w>
エンジ ニア</w>
だ い
y east</w>
li th
l ings</w>
flo ors</w>
スム ージング</w>
s intering</w>
ord ination</w>
in sufficiency</w>
i af</w>
pharmac eu
美 しい</w>
フラ グメント</w>
mi koto</w>
broad casting</w>
any body</w>
スペ ース
regul atory</w>
増 減</w>
シミュ レータ</w>
sta ur
pseu do</w>
ぱ い</w>
slu dge</w>
p w
貨 物</w>
経 費</w>
applic ability</w>
ob st
pas ted</w>
di ode</w>
conver sation</w>
貴 族</w>
背 後</w>
スクリ プト
ref ine</w>
pl umbing</w>
ex tra
di plo
Provi der</w>
おそ らく</w>
y tes</w>
primi tives</w>
po tas
ocy te</w>
生 徒</w>
潅 流</w>
減 らし</w>
正 式</w>
ア スタ
ru le
pro ton</w>
dou bt</w>
ad vis
ad minister</w>
6 4
遠 心</w>
機 密</w>
ター ン
vo la
simul ator</w>
hyper links</w>
fu ku</w>
ber g</w>
起こ さ</w>
コリ ドー
でき る
preven tive</w>
na kam
la tin</w>
h ash</w>
MP a</w>
3 8
投 票</w>
ヌ クレ
乳 房</w>
チ ル</w>
ガ ント
ガ イ
オプ ション
sphe res</w>
sil k</w>
del ta</w>
q ol</w>
. gif</w>
無 機</w>
re viewing</w>
ony mous</w>
h b
bas ics</w>
To ol
ラ ティス</w>
re fu
ker beros</w>
go t
ab brevi
M y</w>
衆 国</w>
基 金</w>
合 衆国</w>
上 方</w>
vide os</w>
gre atest</w>
declar ation</w>
取 消</w>
ボ イ
ゾ ル</w>
sup e
各 国</w>
メタ ノール</w>
ran king</w>
c am
イ ギ
tran scription</w>
PT C</w>
郵 便</w>
プロバイ ダー</w>
ニ ウム</w>
ev ol
代 入</w>
カ ナ
methan ol</w>
har dly</w>
cour ses</w>
リウ マチ</w>
い か</w>
recep tors</w>
re staur
sion ally</w>
望 ん</w>
リ ダイレクト</w>
タ キ
は る
take da</w>
stabili zed</w>
pre sum
gen ome</w>
L L</w>
公 卿</w>
ライブラ リ
エ ア
tain ment</w>
refr active</w>
o v
methodo logy</w>
as u</w>
A G</w>
できる だけ</w>
rec tion</w>
W AN</w>
Pan el</w>
光 線</w>
uv w</w>
ul timate</w>
dai jin</w>
ホ テル</w>
ti ght</w>
rever t</w>
m x</w>
in si
毎 年</w>
ロ フト</w>
ブレ ンド
テ イ</w>
っ と
spor ts</w>
pu lated</w>
inten sive</w>
descrip tor</w>
db ms</w>
計 上</w>
光 子</w>
使 え</w>
メ タン</w>
クロマト グラフィー</w>
mo ses</w>
mm c</w>
e state</w>
1 17
材 質</w>
s as</w>
re define</w>
p ts</w>
macro ph
c 2</w>
H ar
現 時点</w>
バウン ディング
グラフィ カル</w>
re organization</w>
me ets</w>
冷 媒</w>
lin ed</w>
inter actively</w>
h ama</w>
b loo
ハ ロ
rec ru
gu ous</w>
elong ation</w>
car o
spe eds</w>
po s</w>
fiel d
fe tch</w>
enti rely</w>
e b</w>
進 数</w>
ベ スト</w>
ノ ット</w>
electroly te</w>
child hood</w>
下 限</w>
デュ アル</w>
あ い</w>
acces sibility</w>
武 器</w>
ファ クトリ</w>
sta yed</w>
hum ans</w>
an asto
ハ ッシュ</w>
w sdl</w>
tan g</w>
ortho g
mas ks</w>
contribu ted</w>
Mess age</w>
気 分</w>
ベ ーション</w>
at ings</w>
asse mble</w>
N et</w>
適 格</w>
dol lars</w>
Ma teri
19 70</w>
condu it</w>
appendi x</w>
改 革</w>
tele vision</w>
gri d
や す</w>
surroun ded</w>
commission er</w>
恩 恵</w>
プライ バ
コンフィギュレーション オプション</w>
pay roll</w>
announ ced</w>
双 方</w>
ル ド</w>
か さ</w>
ple as
? )</w>
ゴ ール</w>
j pg</w>
S heet</w>
太平 洋</w>
主 題</w>
dis section</w>
二 酸化
lap top</w>
j peg</w>
ful l
bir th
b ip
前 駆</w>
二酸化 炭素</w>
in ated</w>
consu lt</w>
centr ino</w>
元 気</w>
タ ブレット</w>
al ve
4 ,
舗 装</w>
ータ ー
こ いつ</w>
selec tively</w>
se ki</w>
ren ders</w>
P t</w>
J DBC</w>
Fi les</w>
Erro r</w>
最 良</w>
ザ ン
イン シュ
ア ボ
st al
metabo lic</w>
ip t</w>
inqu iry</w>
d g</w>
高 等</w>
住 む</w>
glob ul
condi tion
ali asing</w>
16 8</w>
機 種</w>
マ イ</w>
wid get</w>
v ss</w>
particul ars</w>
c g</w>
ar p</w>
potas sium</w>
M F
補 完</w>
ウサ ギ</w>
sen sing</w>
ev al</w>
理 事</w>
グ ロー</w>
va e</w>
sou l</w>
eli gible</w>
depos its</w>
S pe
sub menu</w>
mail box</w>
hospit als</w>
decl ine</w>
ari sing</w>
C all
かっ こ</w>
p ra
om yo
ec hi
t onic</w>
se k
ka z
ad minis
a us
導 か</w>
多 量</w>
アラ ンス</w>
か 所</w>
succe ed</w>
ro tor</w>
micro structure</w>
ar ts</w>
Out put</w>
直接 的</w>
番 組</w>
好 み</w>
execu tive</w>
) ;</w>
法 務
歳 男</w>
就 任</w>
フレキシ ブル</w>
パーティ ー</w>
da in
ben ign</w>
リ アク
over seas</w>
in den
C ase</w>
テー パ</w>
op posed</w>
enroll ment</w>
asy mp
an i</w>
H B
検 診</w>
cap tion</w>
ax y</w>
気 候</w>
ディ ー
sp s</w>
down loads</w>
P W
H um
痴 呆</w>
s oun
prin t
pow ders</w>
medi ated</w>
ma i</w>
T R</w>
験 者</w>
デ ル
ery the
recur rent</w>
oxid ase</w>
dang er</w>
au tum
ar rest</w>
被 験者</w>
納 入</w>
却 下</w>
デ リ
オペ ランド</w>
de men
cir rho
プロト タイプ</w>
なん か</w>
min eral</w>
mi b</w>
P T</w>
M M
clock wise</w>
Direc t
18 2</w>
初 代</w>
un i</w>
l m</w>
aldehy de</w>
性 的</w>
ヒ ー</w>
ve lop
ali a</w>
ic h
ベン ゼン</w>
rais ing</w>
ic les</w>
c DNA</w>
T el
L i</w>
bl ack
bas in</w>
agre ements</w>
返 品</w>
話 し
手 形</w>
hoso kawa</w>
ga ined</w>
ani um</w>
4 00
縫 合</w>
ヘル ニア</w>
ファ ーム</w>
バ リー</w>
サイト カイン</w>
ド ン</w>
re e
db ml
Boo lean</w>
速 やか</w>
ビ リ
ステ レ
ur ls</w>
no bles</w>
mirro red</w>
extru ded</w>
dig estive</w>
6 7
un necessary</w>
sul fur</w>
high lighting</w>
collap sed</w>
処 方</w>
バ ケット</w>
v r
neur ons</w>
visu alize</w>
救 急</w>
役 務</w>
レ スポ
ゆ っくり</w>
debu gger</w>
al is</w>
Navi gator</w>
更 生</w>
学 会</w>
三 角</w>
re stores</w>
orthog onal</w>
d in
P M
19 2</w>
紫 外線</w>
磁 束</w>
x ls</w>
文 章</w>
内 外</w>
s w</w>
re semb
lo ved</w>
マイ シン</w>
キ ン
shiel d</w>
mus cular</w>
P b</w>
D ri
C B</w>
モディファイ ヤ
も ち</w>
sp reading</w>
potenti als</w>
pos ted</w>
pen al</w>
黒 鉛</w>
出 来
nat ur
m ura</w>
k w</w>
dri ed</w>
der matitis</w>
b ell</w>
at ric</w>
Jo b</w>
H e</w>
B y</w>
出 口</w>
posi tional</w>
lumin ance</w>
inten se</w>
fore stry</w>
en cour
N D</w>
4 j</w>
食 物</w>
デバイ ス
コー ヒー</w>
pac ked</w>
ne a</w>
los ses</w>
day light</w>
bili ary</w>
太 字</w>
prac tic
maxi mize</w>
gener ative</w>
cri minal</w>
candi dates</w>
L ong</w>
ligh tweight</w>
) (</w>
慎 重</w>
や つ</w>
y ori
pecu liar</w>
catho de</w>
acc ru
仕 組み</w>
sex ual</w>
ici ans</w>
Pl us</w>
もら う</w>
こ ろ</w>
dra in</w>
OR T</w>
プロ スペ
プリン ター</w>
クロ ス
キー ノート</w>
te dly</w>
sm alle
nutri tion</w>
kat su</w>
fix ing</w>
2. 1</w>
速 い</w>
フ ック</w>
イルミネ ーション</w>
pa sting</w>
遠 く</w>
幅 広い</w>
孤 立</w>
受け 取っ</w>
不 義</w>
ジ ル</w>
sys log</w>
pr ices</w>
ori en
lo sing</w>
anisotrop ic</w>
su icide</w>
sen der</w>
rec i
J R</w>
低 速</w>
zo om
tr ail
pi g</w>
3. 5</w>
ド ッキング</w>
te ams</w>
se w
resi dent</w>
di r
conduc tive</w>
固 有
o zone</w>
de ad
co s</w>
ci a</w>
brac kets</w>
研 磨</w>
swit ch
mon o</w>
ea p</w>
cl amp</w>
W LC</w>
放 し</w>
学 部</w>
レ ータ
smalle st</w>
l m
事 象</w>
ヒ ット</w>
インテリ ジェント</w>
su ma</w>
organ ism</w>
T C</w>
本 質</w>
p j
i do
破 裂</w>
当 然</w>
t g</w>
dis location</w>
I B</w>
太 郎</w>
健 全</w>
い ち</w>
xi de</w>
re bel
popu lations</w>
p ng</w>
cl ones</w>
appropri ately</w>
Sec ure</w>
ファ ージ</w>
スポット ライト</w>
イン ポート</w>
ま ら</w>
tiv ate</w>
spi rit</w>
p al</w>
md x</w>
hedr al</w>
g c</w>
de generation</w>
carcin omas</w>
be ar
C G</w>
皮 下</w>
x refs</w>
2. 2</w>
個 数</w>
ucle ar</w>
dis charged</w>
SY S</w>
I ni
大 半</w>
view points</w>
foun der</w>
排 他</w>
き わ
vic inity</w>
initi ator</w>
il legal</w>
c .
B LE</w>
te st
surve ys</w>
c md</w>
胆 汁</w>
巻 き
sd k</w>
revolu tion</w>
rela x</w>
hyd rate</w>
高 進</w>
細 川</w>
ラベル 付け</w>
ノ イド</w>
ultra violet</w>
sub mitting</w>
G C</w>
Di men
volun te
roun ded</w>
ig g</w>
hy dr
en der</w>
諸 国</w>
ジャ ック</w>
or der
i ke</w>
fo ods</w>
S n</w>
輸 出</w>
探 査</w>
shi fts</w>
P L</w>
M g
疫 学</w>
推 察</w>
他 人</w>
イン ライン</w>
out going</w>
car til
ac knowle
ST EP</w>
CF D</w>
幸 せ</w>
サブ システム</w>
じ く</w>
stere o</w>
ger man</w>
dbml sync</w>
解 体</w>
台 湾</w>
公 家</w>
ur ia</w>
out bound</w>
bloc k
En viron
固 化</w>
向か う</w>
スキ ル</w>
vi c</w>
robo ts</w>
cli mate</w>
3 d
it an</w>
fl at
B C</w>
不 動
スム ース</w>
typ ed</w>
ter rit
star t
monit ors</w>
compres sive</w>
compe titive</w>
centri fu
pyl ori</w>
integr ate</w>
consum ed</w>
adsor bed</w>
is p</w>
eos in
anim ating</w>
決 議</w>
ter ri
ro r</w>
inten t</w>
conclu de</w>
ba ses</w>
O ri
近 代</w>
研 削</w>
は ん
tre ating</w>
mor ph
fing ers</w>
N D
M o</w>
異 性</w>
バイ オ
データ ム
エ リ
s wing</w>
n ic</w>
es c</w>
enshr ined</w>
ER RO
新 生児</w>
サ ン</w>
コン ストラ
tec tomy</w>
st up
火 災</w>
ho tel</w>
dimen sioning</w>
2 o
トランジ スタ</w>
ro of
metasta ses</w>
incre ments</w>
ga us
7 50</w>
16 00</w>
承 継</w>
家 臣</w>
プラグ イン</w>
ion ization</w>
en counter</w>
cr an
流 れる</w>
eas y
cy an
T er
ミト コンド
ア セット
およ そ</w>
end points</w>
chick en</w>
shira kawa</w>
mach in
in sight</w>
0. 00
ゲ スト</w>
ア ーム</w>
そう いう</w>
tessel lation</w>
teri zation</w>
Ver sion</w>
P K
＃ ,</w>
信 じる</w>
どう ぞ</w>
we al
surve yed</w>
scr atch</w>
対 数</w>
i ous</w>
S CA
B E
ブラ ック</w>
ta xes</w>
at titude</w>
X eon</w>
ushi ma</w>
f its</w>
ev ening</w>
L CR</w>
ウ シ</w>
sp are</w>
ユーザー インターフェイス</w>
Ap p</w>
7 .0</w>
ベ ータ</w>
me v</w>
d um
O ne</w>
s ali
ren aming</w>
no du
Pro file</w>
隠 す</w>
課 税</w>
打 ち</w>
帰 り</w>
ファイル サイズ</w>
x .
trac ked</w>
peri meter</w>
initi alized</w>
De velop
Cre ate
C RE
大 和</w>
re tainers</w>
cd na</w>
Lic ense</w>
16 3</w>
隆 起</w>
冷 凍</w>
d pi</w>
allow able</w>
Sha der</w>
履 行</w>
スキ ン
tr an</w>
ev ent
do pp
重 点</w>
ギャ ラリー</w>
asym metric</w>
accommo date</w>
併 せ</w>
テクニ カル
ア クリ
tr aps</w>
lo ft</w>
ch y
alkal ine</w>
FE T</w>
扱 っ</w>
レ スト</w>
op port
mu tant</w>
la tency</w>
CA M</w>
群 集</w>
描 い</w>
下 流</w>
プロパティ パレット</w>
か わり</w>
zo le</w>
re try</w>
re position</w>
o ms</w>
gall bladder</w>
吸 引</w>
Smo oth</w>
10 00
概 略</w>
検 体</w>
来 い</w>
医 薬品</w>
プレ ート
す い
if n</w>
disc ip
compla ints</w>
御 許</w>
ウェ ー
facilit ate</w>
eluci date</w>
econom ical</w>
Par ameter</w>
積 み
k us
curren ts</w>
F O
残 す</w>
z ine</w>
n n</w>
carcin o
simil arity</w>
ッ キー</w>
ウォ ール
un cle</w>
trans forms</w>
new sp
k da</w>
AN SI</w>
マネ ジ
ジョブ ・
la id</w>
es u
electro static</w>
倉 庫</w>
ra iling</w>
j iro</w>
in line</w>
dro pping</w>
V R
耐 震</w>
シ ド</w>
respon si
prescri ption</w>
kab uki</w>
hel ped</w>
近 江</w>
気 温</w>
採 集</w>
座 っ</w>
ム シ</w>
アン ビ
war ming</w>
revi sions</w>
re sets</w>
ol dest</w>
図 書
ライ ザ</w>
フロ ア</w>
アスタ リスク</w>
redund ancy</w>
opport unities</w>
den sities</w>
実 は</w>
ゆ らぎ</w>
無 駄</w>
快 適</w>
伏 見</w>
valu ed</w>
tribu te</w>
ste els</w>
san jo</w>
oper ates</w>
mono clonal</w>
int act</w>
dre am</w>
demen tia</w>
巻 き</w>
コン サル
hi st
an ni
MD X</w>
振 り
ヨ ーク</w>
ul um</w>
skele tal</w>
seven th</w>
mi les</w>
co ordination</w>
X YZ</w>
seas onal</w>
py ro
in hal
epide mi
cancel led</w>
図書 館</w>
ツール バー
work shop</w>
under lay</w>
supe relev
sp inner</w>
ak es</w>
協 議</w>
データ ビュー</w>
oc 4j</w>
ネ マティ
imp ul
conveni ence</w>
. this</w>
描 き</w>
ダイオ キシン</w>
だ れ</w>
work around</w>
ra ted</w>
igh ts</w>
i i
sur pri
rol ls</w>
expan ds</w>
calcul ator</w>
取り 込む</w>
jud ged</w>
gr ass</w>
dopp ler</w>
comp il
滑 り</w>
スケ ー
イギ リス</w>
アシスタ ント</w>
hetero geneous</w>
I M
# #
現 存</w>
教 授</w>
引 っ
可 塑</w>
qui et</w>
inter mit
fi res</w>
dist ant</w>
de aling</w>
問 わ</w>
向 い</w>
エ ミュ
インスタ ンス
vi i</w>
reac tors</w>
SP F</w>
危 機</w>
ファ スナー</w>
ビュー ポート
シ ア
ら え</w>
イーサ ネット
1 15
0. 5
ポ ール</w>
コー ティング</w>
umin escence</w>
pregn ant</w>
M at
As semb
流 域</w>
有 望</w>
心 房</w>
prospec tor</w>
phys ics</w>
c sc
F ir
Ad visor</w>
条 約</w>
太 子</w>
双 方向</w>
プラグ イン
victi m</w>
sens ory</w>
s g</w>
知 覚</w>
ク ソ</w>
sh allow</w>
T ab
DL L</w>
テ ッセ
tab bed</w>
ok in
e j
att acks</w>
保 安</w>
エン ト
st an</w>
h mm</w>
Si C</w>
d inner</w>
anasto mo
SD K</w>
蓄 熱</w>
流 行</w>
メディ ア
ス ループ
sy no
success or</w>
dur ability</w>
0. 3</w>
電 車</w>
継ぎ 手</w>
ミトコンド リア</w>
d ress</w>
capsu le</w>
af fi
Dev ice</w>
re play</w>
lin ing</w>
db 2</w>
J O
I s
4 9
欠 点</w>
介 入</w>
z ai</w>
assemb led</w>
alig ns</w>
産 卵</w>
何 故</w>
コンストラ クション</w>
オカ レンス</w>
li b
deteri or
Dra fting</w>
レプリケーション ・
ある 程度</w>
r 2</w>
prog ression</w>
in organic</w>
cap illary</w>
ab a</w>
ジョ ン
path way</w>
co at</w>
H and
Add ress</w>
ammon ium</w>
貿 易</w>
マ ス
y an
periodic ally</w>
iso top
evap oration</w>
ess entially</w>
所 定</w>
ペ ース
スト ・
re duc
or um</w>
cro wd</w>
ダ ン</w>
え ん</w>
tr ading</w>
to shi
r yo</w>
coar se</w>
= =
野 郎</w>
記 し</w>
バ ッチ
デ ア</w>
un supported</w>
hered itary</w>
big ger</w>
ud p</w>
tang ency</w>
mu d
he li
7 3
偉 大</w>
me te
hospit alization</w>
fru its</w>
V P</w>
いっ ぱい</w>
posi tively</w>
note book</w>
h en</w>
fav or</w>
compla ined</w>
cl oning</w>
ad verse</w>
A E</w>
望 む</w>
ビジュ アル
tap er</w>
stra tions</w>
religi on</w>
g res
endocr ine</w>
autum n</w>
取 れ</w>
lar vae</w>
ch en</w>
生 後</w>
塩 酸</w>
こ の
ta i</w>
phosphor us</w>
phen yl
fol ding</w>
behavi our</w>
Q Anywhere</w>
As si
線 路</w>
及ぼ し</w>
何 処</w>
主 たる</w>
ラン タイム
手 書き</w>
スト ライ
o h
f ence</w>
cu p</w>
S r</w>
マネ キン</w>
vacc ine</w>
tri als</w>
cu lated</w>
brid ges</w>
DI N</w>
肝 硬
午 後</w>
cor rupted</w>
10 8</w>
肝硬 変</w>
potenti ally</w>
mar gins</w>
docu mented</w>
SQ L
輸 血</w>
装 備</w>
古 墳</w>
はる か</w>
け ろ</w>
safe ly</w>
addi tive</w>
B a</w>
げ ん</w>
wh dev</w>
ische mia</w>
de activate</w>
r yu</w>
招 待</w>
マ ージ
フェ ニル</w>
バリ エーション</w>
regu lated</w>
k ob
8 8
抜 け</w>
ン ジ</w>
プライバ シー</w>
v p</w>
recommen dation</w>
ome tric</w>
con form</w>
blu e
IF N</w>
給 付</w>
とこ ろ
ご み</w>
w ron
tr action</w>
o shima</w>
ic y
foot steps</w>
e a</w>
authentic ated</w>
精 子</w>
world wide</w>
n b
inte red</w>
asynchron ous</w>
同 じく</w>
取り消 さ</w>
レ ベル
アイ デア</w>
ni hon
kine matics</w>
Pro c
P G</w>
プリ セット
par am</w>
dos age</w>
be have</w>
arro whe
出 版</w>
ボリ ュー
ディ クショ
活 躍</w>
フェ ライト</w>
ra tional</w>
ob es
mer cur
スループ ット</w>
sk i</w>
r yu
p ly</w>
gh ost</w>
E B
Com ment</w>
北 部</w>
tak a</w>
satis faction</w>
ram an</w>
infin ity</w>
並 び</w>
フォ ト</w>
バ ル</w>
それ に</w>
reconci liation</w>
p addy</w>
ob struction</w>
h t</w>
b gp</w>
ab do
心 不全</w>
ット ・
だ め</w>
shoul dn</w>
lith ium</w>
ger many</w>
L X</w>
償 還</w>
embr yo
CA T</w>
死 体</w>
xi a</w>
was tes</w>
pla sia</w>
me tro
in vi
ho li
ex er
頭 蓋</w>
ne g
al a</w>
Sh ado
N b</w>
ビル ダー</w>
バ グ</w>
チュー ニング</w>
え ん
ton gue</w>
duplic ated</w>
cl oned</w>
語 句</w>
ワークス ペース
ション ・
we red</w>
re ynolds</w>
o y
殆 ど</w>
引 当</w>
respon ding</w>
o ji</w>
V olu
E asy
当 り</w>
帯 電</w>
クエ リ
お 互い</w>
queu ing</w>
Wor ld</w>
溶 性</w>
欧 米</w>
m ari
HR MS</w>
: &amp;</w>
至 っ</w>
クロー ニング</w>
ウエ ア</w>
き ょう</w>
heav en</w>
S m
書 込み</w>
スクリ ーン
trop ic</w>
trans former</w>
se a
pol len</w>
obvi ously</w>
ic o</w>
bo t</w>
許 し</w>
割り 込み</w>
コン カレント</w>
proced ural</w>
突 然
突然 変異</w>
幼 虫</w>
受 取</w>
specific ity</w>
sp ra
secu red</w>
reson ant</w>
ファイ ナ
v ag
mer ci
電 図</w>
放射 状</w>
心 電図</w>
取り 入れ</w>
勉 強</w>
タク シー</w>
x ps</w>
depreci ation</w>
P AT
L V</w>
G e</w>
1. 4</w>
yo ko
targe ted</w>
du plex</w>
deli vers</w>
V S</w>
純 粋</w>
て ぃ
u ro
buc ket</w>
詳 しい</w>
きわ めて</w>
kei han</w>
bul let</w>
Loc al</w>
ル ック
ボディ ー</w>
ナ ノ
グリ セ
ti um</w>
j im
down loading</w>
citi zens</w>
観 光</w>
若 年</w>
コン ボ</w>
lor ds</w>
er up
ar u</w>
E sc</w>
高 次</w>
不 一致</w>
と れ</w>
regi me</w>
mat te</w>
d at</w>
A MP</w>
空 港</w>
me al</w>
! .</w>
議 員</w>
シ ールド</w>
absc ess</w>
アタ ッチ
ag onal</w>
a uc
F ace</w>
Brow ser</w>
骨 盤</w>
粘 液</w>
transfer ring</w>
po cket</w>
hig ashi
actu ator</w>
マテリアライズド・ ビュー・
pene tr
m ad
compo ser</w>
Sec tion</w>
録 音</w>
薦 め</w>
オ レンジ</w>
statis tically</w>
part nership</w>
me etings</w>
large ly</w>
罫 線</w>
re searches</w>
l lation</w>
finish ing</w>
c al</w>
W SDL</w>
Rec over
; .</w>
ティ ー
ve re
u g
psycho logical</w>
as tically</w>
発 癌</w>
vi l
sla ve</w>
se gre
本 人</w>
レ ル
モン テ
sec ts</w>
radio therapy</w>
car lo</w>
bon ded</w>
bat ches</w>
S nap</w>
波 路</w>
remo vable</w>
mon k</w>
custo m
起 きる</w>
resi dues</w>
min er
m w</w>
fushi mi</w>
PD U</w>
男 子</w>
sh ore</w>
flow ing</w>
fl ash
bene ficial</w>
遂 行</w>
Res ults</w>
追 従</w>
記 さ</w>
小さ かっ</w>
古 く</w>
wh i
over time</w>
bu tsu</w>
arti fact</w>
I O
現 世</w>
上 がっ</w>
polymor phism</w>
mo ments</w>
ma iz
gi gab
fashi on</w>
br ick</w>
P lu
Ma il</w>
Environ ment</w>
20 1</w>
縦 横</w>
ス パイ
s intered</w>
re im
polar ized</w>
yl ase</w>
mon te</w>
cha ir</w>
a aa</w>
手 技</w>
デプロ イ</w>
ディ ジ
カスタム プロパティ</w>
symbo lic</w>
s lower</w>
r ush</w>
o x</w>
is s</w>
即 位</w>
割 引</w>
スポー ツ</w>
ri p</w>
mon etary</w>
cellu lose</w>
疑 問</w>
real m</w>
mer its</w>
fi st
U DP</w>
D G</w>
英 国</w>
アンモニ ア</w>
work sheets</w>
fu k
aud itor</w>
E B</w>
. 6</w>
取 扱い</w>
sho ki</w>
remin der</w>
V AL
S chema</w>
ローカ ライズ</w>
cathe ter</w>
b au
F ur</w>
均 質</w>
スワ ップ</w>
え え</w>
ten s</w>
manipul ators</w>
easy trieve</w>
殺 害</w>
先 進</w>
コ ラム</w>
傷 害</w>
アメリカ 合衆国</w>
cor tical</w>
am an</w>
青 い</w>
vio lated</w>
sat suma</w>
pi ezo
lab s</w>
follow s
dis connected</w>
腎 臓</w>
フリ ップ</w>
te ch</w>
frac tal</w>
abdo men</w>
2 20</w>
実 践</w>
セ イ
por tra
electro chemical</w>
de form</w>
セール ス</w>
シェル フ</w>
せ ろ</w>
fa ults</w>
develop mental</w>
auto psy</w>
Centr al</w>
quo te</w>
c es
ach ment</w>
pl en
ph il
g or
corne al</w>
保 た</w>
ブロード キャスト</w>
swe pt</w>
particip ant</w>
or th
hel ical</w>
fou rier</w>
IP sec</w>
下 げる</w>
デ ノ
kit a</w>
ERRO R</w>
学 者</w>
コン パス</w>
エディ ション</w>
もら っ</w>
け よ</w>
ns r</w>
Li ve</w>
3. 2</w>
) ｜</w>
テクニ カル</w>
12 7</w>
ヌクレ オ
いた だけ</w>
superelev ation</w>
roll back</w>
pl ating</w>
la in</w>
ga tion
da ira</w>
A xis</w>
4 6
選 ぶ</w>
箇 条</w>
工 夫</w>
カ ム</w>
ru ler</w>
nit rate</w>
j an</w>
i o</w>
ga thered</w>
elas ticity</w>
F OR
) 、&amp;</w>
男 児</w>
小 脳</w>
チェック ポイント</w>
すべ り</w>
requi sition</w>
r itu
defe ated</w>
L a</w>
飛 び
耐 熱</w>
地 面</w>
ヨ ウ</w>
サー ボ</w>
一 層</w>
qu ota</w>
no x</w>
hyp er</w>
To p</w>
塗 料</w>
利 得</w>
ー ミング</w>
ベ ン</w>
ダ ンプ</w>
sor ts</w>
ris ks</w>
mon om
h ba</w>
fix ture</w>
ag ne
ac compan
兵 衛</w>
tau ght</w>
C B
溶 出</w>
プロパティ セット</w>
sym metrical</w>
sc ans</w>
in teri
in forma
fer rite</w>
as sa
H ome</w>
接 点</w>
幹 線</w>
re order</w>
intero per
att r</w>
antibio tics</w>
Ru les</w>
En able</w>
祖 先</w>
帝 国</w>
コン デン
o vari
h asis</w>
de bt</w>
限 切れ</w>
期 限切れ</w>
pc i</w>
mo tors</w>
fish eries</w>
da igo</w>
benz ene</w>
IN T</w>
マ ト</w>
突 出</w>
カリ ウム</w>
y y
tool space</w>
L angu
Centr ino</w>
音 速</w>
解 凍</w>
モーション ブラー</w>
suspec t</w>
appa rently</w>
黒 色</w>
軽 快</w>
syste matic</w>
cirrho sis</w>
腫 脹</w>
インターフェイ ス
t 2</w>
B GP</w>
絞 り</w>
和 歌
windo w
sl ices</w>
re le
graph ically</w>
fi able</w>
epit axial</w>
at om
読み 取る</w>
た ぶん</w>
sau ce</w>
in f</w>
hol low</w>
fe e</w>
T YPE</w>
GE T</w>
復 活</w>
寛 解</w>
剖 検</w>
to ps</w>
en lar
br inging</w>
C I</w>
開 設</w>
解 剖</w>
休 暇</w>
トラン ク</w>
neph ro
intere sts</w>
ho p</w>
cele br
c aches</w>
S pac
N d</w>
失 う</w>
DE R</w>
5 7
king dom</w>
he avi
har dening</w>
bi om
accomp lished</w>
R a
10 7</w>
tou gh
scrip ted</w>
IS P</w>
常 時</w>
キ ルト</w>
gla d</w>
C SC
海 岸</w>
掘 削</w>
切り 替
mo mentum</w>
mani kin</w>
adminis tering</w>
J SP</w>
Bl end</w>
古 代</w>
sp ind
sla g</w>
o miya</w>
em it</w>
cere bel
水 晶</w>
少 女</w>
disc ount</w>
co inci
Struc ture</w>
立 てる</w>
z on
veri fying</w>
h alo
comfor t</w>
as a
Pro jects</w>
帳 簿</w>
ワークス ペース</w>
キ ノ
ア ブ
こ み</w>
M MC</w>
硫 黄</w>
宿 主</w>
mar kets</w>
ipv 4</w>
W iz
V ER
長 期間</w>
ライブラ リー</w>
inten tion</w>
cere bro
Ru n</w>
N P</w>
附 則</w>
結 局</w>
レッ ジ
ミー ティング</w>
off er
in bound</w>
i w
den tally</w>
de par
沿 岸</w>
底 面</w>
マネジ メント</w>
ト ーン</w>
その 間</w>
en tru
T ech
im mobili
an onymous</w>
良 性</w>
プロスペ クター</w>
フルオ ロ
グル タ
インター ネット
de ity</w>
Easy trieve</w>
D ML</w>
0. 00</w>
不 連続</w>
ら せん</w>
k ni
An gle</w>
撃 波</w>
sour ce
quo tes</w>
magne sium</w>
mag ic</w>
暗 い</w>
シート ビュー</w>
mas s
con genital</w>
度 合い</w>
フィ ールド
wor m</w>
soy bean</w>
on bridge</w>
conduc tors</w>
accompan ying</w>
T rad
L ed
軌 跡</w>
肥 厚</w>
ニ ー
laparo tomy</w>
dr astically</w>
J PEG</w>
死 後</w>
マイ ク</w>
クロ トロン</w>
he ir</w>
dynam ical</w>
at op
プ タ</w>
sul fi
pig ment</w>
inhibit ors</w>
衝 撃波</w>
ミ キ
ツイ スト</w>
ter ware</w>
regul arly</w>
line age</w>
B ar
包 装</w>
バウンディング ボックス</w>
reim bur
po em</w>
maiz uru</w>
fr actions</w>
experi ences</w>
excre tion</w>
内 服</w>
クリ アランス</w>
sp len
got ten</w>
P VC</w>
G O
4 80</w>
移 入</w>
ゲ ン
イン バータ</w>
ven t
tru ly</w>
le ments</w>
j ig
cont amin
hyper shade</w>
head quarters</w>
e ms</w>
重 なっ</w>
女 子</w>
チャ ンス</w>
task bar</w>
particip ated</w>
pancrea titis</w>
p f
gl asses</w>
exhi bits</w>
carbon ate</w>
ac ad
T ang
Di stance</w>
6 .1</w>
播 種</w>
実 数</w>
先 天</w>
と くに</w>
vulner ability</w>
obes ity</w>
ma e</w>
globul in</w>
嫌 い</w>
大 事</w>
南 北</w>
エキ スパ
ぐ ら
replic as</w>
presen ting</w>
my co
lo mb</w>
Lo g</w>
Co de</w>
198 3</w>
! !</w>
ri ed</w>
replic ate</w>
n ichi
eth yl</w>
芸 術</w>
ten ds</w>
tai wan</w>
U L</w>
ライ フ</w>
イ スラ
influ en
hel ping</w>
fi g</w>
fe t
cu i</w>
camp us</w>
Tra x</w>
Descri ption</w>
待 つ</w>
前 払</w>
イン サート</w>
む しろ</w>
rec ycle</w>
car b
oli go
od d</w>
mas king</w>
ju ven
el ler</w>
0 x
pro min
ex ec</w>
en force</w>
de duplication</w>
TE M</w>
Pay ables</w>
P d</w>
無 人</w>
パラメ トリック
スラ グ</w>
rever sible</w>
d ine</w>
道 具</w>
罰 金</w>
別 個</w>
フェ ッチ</w>
こう 門</w>
ぃ ん
g d</w>
eth yl
advi ser</w>
づ くり</w>
rab bit</w>
propag ate</w>
hi z
落と し</w>
ディ テール</w>
des k
眼 球</w>
景 観</w>
振 替</w>
情 報
wel ded</w>
cor relations</w>
cle ars</w>
負 債</w>
暫 定</w>
善 行</w>
ほ ら</w>
visu ally</w>
tri angular</w>
lin early</w>
la te
in sic</w>
bl ur
up loaded</w>
righ te
be vel</w>
Post Script</w>
ビ ス</w>
アク ション
trus s</w>
reco vering</w>
mix tures</w>
b ation</w>
減 価</w>
導 く</w>
バッテ リ</w>
テン プレート
エディ ター</w>
sy base</w>
g is</w>
結 ぶ</w>
マー キング
ト イ
oxi dative</w>
atten ded</w>
PROD NAME</w>
ホ ン</w>
ジャ ン
ウィ ジェット</w>
depen ded</w>
def er
W eigh
温 暖</w>
変 わら</w>
固有 値</w>
ビジュ アル</w>
eng age</w>
comfor table</w>
デザイ ナー</w>
さ て</w>
see king</w>
p 1</w>
h g</w>
fi red</w>
asymp to
ad option</w>
F low</w>
Led ger</w>
怒 り</w>
奥 行き</w>
sub st
s ters</w>
que ly</w>
cr acking</w>
b att
auth orities</w>
作 物</w>
up per
B it
パ ンチ</w>
ほ しい</w>
s lots</w>
queu ed</w>
Back burner</w>
有 利</w>
フィ ラ
キャ パ
vi d</w>
stabili zation</w>
smooth ly</w>
c on</w>
bir d</w>
三 条</w>
プレ イ</w>
pow ers</w>
la g</w>
indo or</w>
V PM</w>
Mus cle</w>
プレ ーン
スタ ティック</w>
r ss</w>
m ds</w>
S ource
S kin</w>
ウ ド</w>
インシュ リン</w>
tr yp
pro pri
k ono
explo sion</w>
クリ ップ
ねじ れ</w>
vass al</w>
te ction</w>
shu go</w>
p he
ham mad</w>
ali an</w>
リポジトリ ・
shor tening</w>
dis si
継 い</w>
res s
kine tics</w>
coo king</w>
app le</w>
スタ ン</w>
ま る
remo tely</w>
pac ks</w>
F K</w>
性 格</w>
アボ セント</w>
li que
ho ku</w>
explo de</w>
Loc ation</w>
フレ ックス</w>
suff ering</w>
r pc</w>
over come</w>
em bed</w>
ele mentary</w>
at al</w>
要 員</w>
摂 動</w>
ハッチング パターン</w>
u si
模 様</w>
sign atures</w>
esti mates</w>
B y
刑 務所</w>
ベ ッド</w>
ア ト
offic ename</w>
Frame work</w>
折り たた
及 ぶ</w>
勝 利</w>
エレ クトロ
beli ef</w>
広 域</w>
圧 電</w>
代 理
sket ching</w>
mean ing
curren cies</w>
arri val</w>
an ds</w>
advan ces</w>
Man age</w>
" &amp;</w>
芳 香</w>
代理 人</w>
ネ ート</w>
コネ クタ
お 薦め</w>
pri son</w>
p es
ol ine</w>
m 2</w>
fea sibility</w>
SE M</w>
つなが る</w>
serv o</w>
rhe a</w>
prolong ed</w>
le verage</w>
cartil age</w>
b ought</w>
arteri es</w>
R SS</w>
P F</w>
モ ール
ド ナー</w>
str ing
prepar ations</w>
movi es</w>
ic al
ho sted</w>
copy right</w>
bear ings</w>
腹 膜</w>
欠 乏</w>
vi al</w>
har u</w>
A u</w>
グレー ディング</w>
wi fi</w>
pharmaco therapy</w>
corpor ations</w>
L a
v pm</w>
sc inti
renew al</w>
exerci ses</w>
A U
焼 き</w>
レ シ
survi ving</w>
autonom ous</w>
Plan e</w>
電 波</w>
ゴー スト</w>
り 患</w>
v ol</w>
spar se</w>
analy sed</w>
粉 砕</w>
初 診</w>
モンテ カル
クロ ム</w>
し っかり</w>
perfec tly</w>
oblig ation</w>
emp hasis</w>
dar k
PC I</w>
武 田</w>
斜 面</w>
ハイパー シェード</w>
fr aming</w>
coun ters</w>
al 2o3</w>
Un it</w>
C N</w>
野 菜</w>
各 行</w>
refin ement</w>
opa que</w>
olu tions</w>
deploy ments</w>
de m</w>
ッ キ</w>
スペ イン</w>
ステン シル</w>
anno tate</w>
スタ イ
ク アッ
p li
l b</w>
k W</w>
defin itely</w>
d an</w>
Trans form</w>
瞬 間</w>
担 保</w>
ダ ル</w>
スイ ッチ
コンポジ ション</w>
synchron izing</w>
ei gen
discus sions</w>
di zation</w>
di stric
di ar
belong ed</w>
試 薬</w>
グレ ート</w>
te en
over written</w>
hon or</w>
disc ard</w>
brow sing</w>
adi ly</w>
F un
自 殺</w>
テ ル
ha irs</w>
d it
件 数</w>
ちょう ど</w>
twi th
Ne w
D re
異 議</w>
し め</w>
prod 141</w>
am end
Assemb ly</w>
長 男</w>
情報 処理</w>
下 向き</w>
カーテン ウォール
sil ent</w>
igno res</w>
bil lion</w>
aud itors</w>
Re ad
N ame
1 15</w>
鎮 痛</w>
補 足</w>
し む</w>
photo metric</w>
justi fication</w>
判 決</w>
manif est</w>
epi so
ak u
a h
ニューラル ネットワーク</w>
スト レーション</w>
re frac
mon as</w>
mo ro
c tomy</w>
v 4</w>
so ever</w>
re mission</w>
even ly</w>
benefici ary</w>
natur ally</w>
ampli fier</w>
a tives</w>
O SPF</w>
30 4</w>
なく なっ</w>
n particles</w>
lig and</w>
contribu tions</w>
by e</w>
ak i
ab and
気 持ち</w>
レ ッド</w>
セル ロース</w>
イネ ーブル</w>
uniform ly</w>
seri ously</w>
infec tions</w>
immunohisto chemical</w>
en trusted</w>
C K</w>
右 端</w>
余 分</w>
カ チオン</w>
お まえ</w>
kee per</w>
ar tis
提 唱</w>
ニッ ケル</w>
グル コ
キャプ ション</w>
w ned</w>
re stra
陽 極</w>
タ ッチ</w>
アク ター</w>
vol can
symp a
sta ying</w>
heal ing</w>
der a</w>
atro phy</w>
Tas k
leu k
lac ement</w>
gra y
exclu sively</w>
F F
矯 正</w>
不 詳</w>
コ リン</w>
~ ~</w>
wa ters</w>
par is</w>
止 める</w>
ビル ダ</w>
シャ ー
エキスパ ート</w>
or a
in cin
encapsu lation</w>
cool ant</w>
路 線</w>
水 温</w>
コンデン サ</w>
ご く</w>
wild card</w>
sin us</w>
scre ens</w>
marri age</w>
iso lates</w>
ex cel
cu t
知 れ</w>
sket ch
si e
sat su</w>
samp led</w>
lay s</w>
cataly sts</w>
Radi us</w>
N H</w>
MA N</w>
組み 込む</w>
浄 化</w>
trans fusion</w>
pv c</w>
p itu
lis a</w>
as ks</w>
F older</w>
自 発</w>
アミ ド</w>
mat h</w>
ig ni
auto mate</w>
affi li
ファ リング</w>
チ ン
いか なる</w>
sr p</w>
scan ner</w>
paren theses</w>
p thread</w>
lympho cyte</w>
a ids</w>
Volu me</w>
教 師</w>
塗 装</w>
ホワイ ト</w>
コ ヒー
stup id</w>
re form</w>
le st</w>
生ま れる</w>
ポ ケット</w>
mu hammad</w>
men u
hi re</w>
fl ying</w>
家 畜</w>
スム ース
ジ ー</w>
サン プル
gh ty</w>
fl atten
emp ir
comm unities</w>
ang e
解 散</w>
架 橋</w>
セー フ</w>
tar o</w>
pass age</w>
ho mes</w>
contr ary</w>
Z r</w>
Tel net</w>
無 料</w>
楽 園</w>
人 数</w>
ーシ ング</w>
フィ ー</w>
セ ン</w>
er ly</w>
antic ip
硬 度</w>
女 児</w>
大 地</w>
位置 づけ</w>
上 端</w>
medi ast
immun ity</w>
V AR
LO B</w>
G H</w>
thre aded</w>
se am</w>
luc k</w>
V SS</w>
Recover Point</w>
職 責</w>
recover point</w>
Sy base</w>
CAT Part</w>
cy tok
be l</w>
尋 ね</w>
実 体</w>
トレー シング</w>
rd sh</w>
lymp h
l u</w>
in tra</w>
distric ts</w>
absolu tely</w>
P ur
DB MS</w>
Comp o
ツ ー
ッ タ
mandi bular</w>
inter view</w>
geo spatial</w>
bl ends</w>
C ro
身 分</w>
区 切ら</w>
何 で</w>
フラ ンス
サービス プロバイダ</w>
ti lt</w>
st p</w>
sign aling</w>
ne ar
[...]
