<pad>
<eos>
<unk>
の
を
。
、
に
し
は
ます
が
た
で
て
する
，
&amp;
と
;
さ
れ
ket
bra
）
こと
使用
な
（
選択
でき
この
から
「
(
・
表示
」
場合
)
いる
ある
ない
も
1
か
設定
2
い
です
作成
または
ファイル
:
クリック
ん
および
-
的
あり
れる
値
性
ため
その
指定
について
よう
ませ
オブジェクト
.
必要
3
として
次
変更
者
ください
化
データ
だ
や
内
により
第
年
参照
中
すべて
追加
られ
へ
入力
オプション
つ
実行
など
可能
_
｜
？
上
方法
できる
‐
例
情報
結果
システム
によって
定義
による
管理
gt
なり
名
これ
法
4
ユーザー
後
もの
日
0
モデル
機能
コマンド
また
示し
新しい
名前
あっ
とき
削除
プロパティ
及び
型
時
構成
%
間
まし
5
数
より
ツール
適用
ページ
編集
タイプ
保存
リスト
時間
"
前
接続
二
各
一
なる
確認
のみ
詳細
グループ
データベース
う
移動
これら
処理
なっ
線
における
ダイアログボックス
現在
まで
ば
点
計算
ウィンドウ
．
有効
説明
パラメータ
フィールド
用い
列
解析
領域
位置
において
人
十
アプリケーション
用
ビュー
アクセス
私
文字
よ
,
に対して
構造
D
ボックス
同じ
に対する
インストール
タブ
それ
問題
プロジェクト
キー
ボタン
状態
検討
月
メニュー
なく
発生
せ
複数
条
要素
に関する
他
再
lt
6
なかっ
含ま
検索
あなた
図面
行っ
操作
セット
細胞
項
影響
右
表
環境
チェック
レベル
方向
下
10
高
体
制御
率
開発
量
サポート
更新
利用
開始
非
度
サービス
レポート
という
コンポーネント
別
リンク
手順
特定
測定
関連
生成
作業
だけ
配置
サーバー
取得
三
モード
どう
効果
等
面
プロセス
テキスト
サイズ
ら
ポート
テーブル
ドキュメント
認め
変換
スタイル
以下
物
Oracle
本
図
子
範囲
ノード
何
デフォルト
なら
存在
評価
Windows
行う
ネットワーク
属性
関係
エラー
条件
系
かれ
変化
：
彼
;(
;:
たとえば
ず
ポイント
以上
サーフェス
バージョン
組織
設計
行
関数
7
規定
8
られる
項目
メッセージ
ここ
既定
たり
コピー
研究
含む
パス
タスク
得
Web
層
場所
又は
ソース
パーツ
コントロール
A
割り当て
対応
イメージ
≪
≫」
対象
てる
部
番号
バー
ー
フォルダ
製品
！
長
プログラム
パネル
式
ユーザ
最初
挿入
技術
特性
イン
フレーム
いずれ
標準
計画
述べ
テンプレート
考え
＃
終了
電子
書
種類
軸
比較
元
デバイス
色
せる
コード
サイト
修正
サーバ
実験
主
X
提供
最大
寸法
C
ソフトウェア
I
リソース
マップ
回転
出力
自動
オン
形式
自動的
先
その他
既存
示す
号
新規
温度
重要
セクション
次に
次元
ロード
さらに
増加
メンバー
12
目的
群
光
ID
基準
見
ライン
部分
膜
なけれ
多く
単位
付け
内容
調べ
たち
印刷
起動
期間
メソッド
報告
調整
診断
わ
9
一般
行い
でも
カラー
持つ
開き
き
検出
アクティブ
フィルタ
部品
患者
無効
速度
〜
フォーム
コンピュータ
動作
送信
B
結合
治療
異なる
ね
拡張
症例
反応
一覧
熱
決定
画像
シート
=
日本
四
ブロック
コンテンツ
変数
中心
分析
セル
基本
全体
試験
サブ
お
症
一部
］
腫
クラス
方
要求
高い
調査
歳
アイテム
大
』
種
共有
一致
?
提案
ルール
装置
『
材料
ので
アップ
ターゲット
形成
紹介
応じ
イベント
ライブラリ
エッジ
)。
概要
｡
文書
押し
検査
基づい
平面
側
インスタンス
表面
家
たら
ラベル
スクリプト
ワーク
アセンブリ
［
通常
依存
アニメーション
外
カーブ
エディタ
境界
完了
当該
分
質
それぞれ
水
ディレクトリ
そう
全
五
際
どの
ドラッグ
外部
Microsoft
プロファイル
いい
制限
事
活性
形状
以外
アドレス
目
ベース
SQL
開く
登録
数値
障害
R
ホスト
癌
彼女
作用
学
初期
バックアップ
状況
明らか
君
メッシュ
行わ
たい
み
取引
壁
シーン
低
完全
®
減少
標記
インテル
x
最適
最も
機
T
権
分布
11
アトリビュート
力
ローカル
国
記録
シミュレーション
ただし
おり
幅
20
しかし
距離
エネルギー
左
ディスク
座標
適切
濃度
ごと
百
使っ
展開
保護
ン
改善
空間
・@@
受け
同
s
低下
セキュリティ
図形
テスト
パターン
向上
パスワード
許可
曲線
最後
マウス
でし
AutoCAD
ステータス
PROD
解除
相
Server
角度
クライアント
ログ
術
剤
事業
レイヤ
注意
T@@
V
スペース
emdw
直接
OK
ヘルプ
六
事項
す
平均
言っ
アッラー
器
「≪
Autodesk
状
両方
内部
v
ジオメトリ
だっ
解決
画
返し
フロー
B@@
分割
管
オフ
S@@
会社
マテリアル
モジュール
回
Manager
順
済み
所
酸
金
レンダリング
マッピング
100
タグ
実際
超
失敗
セグメント
マーク
約
アクション
流
べき
効率
クリップ
俺
特徴
カスタム
N
レコード
ポリシー
じゃ
差
簡単
EMC
アカウント
セッション
自分
導入
固定
形
15
P@@
M
同様
amp
エクスポート
ダイアログ
とともに
言語
頂点
ステップ
時代
O
なし
ライセンス
結晶
拘束
任意
遺伝子
断面
ストレージ
IP
特に
骨
再生
P
構築
生産
手法
施行
通知
メール
証明
(&amp;
同期
格納
C@@
パフォーマンス
カスタマイズ
リリース
K
手術
ロック
付き
権限
H@@
安定
化学
インタフェース
大きく
示唆
観察
定める
H
原因
タイム
保持
病
F
30
以前
表す
−
誰
実施
G@@
テクスチャ
血
開い
予測
S
運動
製造
停止
期
m
検証
そして
がた
請求
!
E@@
親
相互
うち
位
掲げる
ガス
だろ
認証
有意
オフセット
それら
イオン
配列
スイッチ
D@@
コレクション
R@@
抽出
正常
生
市
応答
くれ
最小
日付
関連付け
分類
強度
ながら
氏
抑制
規則
電気
発行
A@@
階層
ボリューム
求め
カテゴリ
七
分子
波
ウィザード
方式
記号
合成
考慮
除去
実現
画面
活動
投与
カメラ
キャッシュ
+
療法
単一
M@@
L@@
グラフ
ガイド
文
E
Y
とおり
統合
スケッチ
エレメント
安全
ビット
地域
与え
F@@
よく
新
酸化
契約
精度
アイコ
サンプル
係数
大きな
成長
肝
16
記述
合わせ
グリッド
レイアウト
に対し
ドメイン
機構
あるいは
N@@
マネージャ
手動
ライト
承認
L
ところ
番目
クラスタ
手
mm
八
品
;&amp;
密度
加え
≫
もう
ドライブ
多
~
重
基
品目
分かっ
今
役割
いくつ
薬
G
ビジネス
持っ
フォーマット
優先
Cisco
維持
a
インデックス
パッケージ
示さ
()
場
ほとんど
まま
っ
異常
会
神経
解説
'
一方
順序
受信
連続
疾患
エントリ
分離
リ@@
認識
＋
地
蛋白
垂直
矢印
従来
転送
しよ
加工
以降
県
でしょ
#
ツリー
閉じ
その後
経過
コスト
引数
いう
女性
)、
通信
心
性能
フィーチャ
V@@
液
ルート
50
比
ジョブ
合計
13
応力
粒子
)&amp;
リモート
O@@
Essbase
センター
推定
II
シェイプ
像
不
スケール
XML
円
正
識別
変形
仮想
物質
移行
大きい
来
材
14
間隔
コンテキスト
理論
本当に
回路
発現
ダウンロード
九
分解
表し
臨床
ほか
カーソル
品質
表現
相関
該当
トップ
大@@
ご
角
アウト
エンティティ
未
術後
正確
Z
観測
警告
業務
n
過程
わたし
圧力
呼ば
因子
意味
る
有する
さまざま
同時に
感染
転移
じ
われ
物理
高速
済
Name
ブラウザ
理由
Maya
え
*
アイコン
グローバル
記載
個
プレビュー
正しく
気
核
京都
出
振動
置換
中央
メディア
成形
拡大
係る
空
NetWorker
圧縮
ダブル
ロール
ビューポート
企業
抵抗
読み込み
線形
書式
横
Management
演算
非常
負荷
ぞ
カード
球
ファミリ
切除
ノ@@
グレード
デザイン
半径
ショートカット
固有
;、&amp;
道
コンピューター
筋
､
25
交換
デスク
お前
異なり
に従って
パーティクル
両
最近
ビデオ
フェイス
に関して
まだ
常に
一つ
法律
頭
荷重
ケーブル
電流
最新
シンボル
最終
十分
額
単
り
語
員
穴
金属
基づく
反射
厚
信頼
及ぼす
顧客
専用
d
フォント
考察
電話
W@@
収集
割り当てる
理解
つまり
メモリ
まず
得る
トピック
機械
bar
K@@
ほど
分散
動的
ダウン
あろ
成分
応用
チャネル
監視
仕様
所見
計測
吸収
リング
脳
眼
世界
有用
24
要件
達
生じ
信号
各種
描画
血管
ボード
明細
予定
商品
コントローラ
知っ
アルゴリズム
段階
言う
あれ
電力
沿っ
電源
抗
機関
炎
節
ハイライト
とも
個別
どこ
ログイン
肺
室
と共に
ア@@
程度
試料
変動
マクロ
施設
ジ@@
Office
粒
スケジュール
万
スペクトル
水平
与える
フィーチャー
多い
含める
比べ
基礎
スキーマ
免疫
傾向
注釈
上昇
18
トラック
彼ら
所有
秒
個人
男性
自由
実装
容量
く
様
か月
ペイント
向け
→
背景
オンライン
勘定
って
U
メンバ
p
ルータ
すぐ
UV
インター
山
View
前項
症状
周波数
シェーダ
今後
レート
アクティビティ
自己
ゾーン
パレット
伴う
用いる
定数
インターネット
高度
無
わかっ
個々
切り替え
パケット
高く
複合
ラ@@
照射
監査
40
菌
Data
町
線分
投影
複雑
既に
準備
域
なさい
カタログ
溶接
年間
小
神
混合
かつ
流れ
圧
32
動脈
):
学習
添加
URL
すれ
限り
for
類
ベクトル
繰り返し
僕
法人
パイプ
源
車
上部
ユーティリティ
資源
I@@
逆
キュー
仕事
CT
℃
課題
シ@@
in
葉
ソリューション
違い
対策
Editor
台
マ@@
チャンネル
進行
知ら
60
集計
小さい
Type
版
板
ハードウェア
低い
良い
キャラクタ
数量
容易
天皇
組み合わせ
成功
統計
連絡
駅
接触
Services
17
端
供給
履歴
強
エフェクト
タ@@
金額
流体
どちら
プロセッサー
話
相対
価格
無視
原子
含め
優れ
電圧
お客様
支援
共通
確立
Vault
レーザ
倍
酸素
コ@@
暗号
カ@@
c
め
尺度
リファレンス
目標
機器
書き出し
一定
鏡
ス@@
口
ユニット
受ける
ゲート
正しい
ブック
設置
ポリゴン
保険
ペイン
設備
誘導
チップ
コンソール
除外
アタッチ
交差
の@@
ペース
形態
CD
スライド
抗体
複製
主要
プロトコル
能力
代
リンパ
挙動
ドロップ
切断
経済
必ず
支払
プラズマ
方程式
やっ
にて
寺
多数
経
一時
我々
章
男
冷却
しか
マシン
勾配
御
良好
Ctrl
重複
＝
and
単純
通貨
45
人間
拡散
現象
陽性
増大
to
レイヤー
さん
もつ
代わり
プリンタ
平成
磁気
プロシージャ
思わ
リセット
ゼロ
そこ
年度
全て
回復
トランザクション
タイトル
PC
Edit
プラットフォーム
エンジン
すでに
反映
伝導
産
添付
水素
クエリ
File
コール
頻度
ク@@
CAD
Si
社
配管
関節
i
ロ@@
J@@
21
こう
ワークス
基板
一緒
ループ
合併
染色
はい
採用
酵素
スナップ
Excel
予算
バッチ
W
フラグ
規模
ハンドル
社会
of
お@@
衝突
U@@
担当
■
ロールアウト
直線
System
女
ほぼ
α
指示
--
復元
除く
大臣
使う
ル@@
プロダクト
推奨
―
付ける
チーム
参加
論理
メイン
血清
概説
付い
制約
オ@@
イ@@
試み
エ@@
ホーム
発症
エリア
入
視
腎
判断
プラグ
入れ
戻し
合金
呼び出し
X@@
連結
CA
マニュアル
用意
阻害
帯
API
保管
院
生活
リカバリ
破壊
若しくは
64
自然
上書き
区
ジョイント
外観
医療
ト@@
運転
互換
コメント
中間
行く
19
補助
独自
Max
大き
crmk
準用
右側
Java
写真
μ
径
消費
ディメンション
継続
需要
下部
令
グラフィック
産業
Access
促進
戻り
培養
ビーム
シーケンス
出現
アーカイブ
HTML
資産
戻す
病変
ウイルス
キ@@
β
アレイ
左側
t
音
困難
そこで
特別
返さ
クエリー
科目
22
工程
床
許容
注記
期待
事前
imk
直径
防止
実
上記
最
枠
干渉
レ@@
チュートリアル
ふ
再度
作製
経験
グラフィックス
新た
ワイヤ
生じる
コンテナ
関与
バック
ラット
電
□
尿
Planning
マルチ
強い
on
受注
りゅう
ド@@
ミ@@
J
貼り
スプライン
必須
思っ
総
原
おく
読み取り
独立
バイト
通り
旧暦
パブリッシュ
ピクセル
概念
建物
プロンプト
かも
パッチ
移植
透明
デ@@
ガラス
cm
ドライバ
明
オーダー
類似
テクノロジー
ダイアログ・ボックス
90
対
知識
追跡
サ@@
サイクル
明治
集合
放出
皮膚
化合
種々
定め
経路
負
見つかり
田
府
公開
建築
能
Create
求める
アウトライン
あの
い@@
ニ@@
石
官
省略
削減
DNA
エージェント
部屋
更に
例外
計
刺激
Inventor
けど
放射
低減
性質
様々
昭和
ポリ
特異
異
木
ステートメント
ズーム
整数
市場
モデリング
系統
定量
マスク
動
周囲
発電
活用
面積
風
曲
マーカー
ds
適応
対称
2000
縦断
翻訳
解
見る
ナ@@
Enter
労働
危険
置き換え
一@@
b
ビ@@
発見
並べ
会計
株
リボン
旧
構文
小さく
規格
最高
外国
特殊
見出し
教育
時刻
島
提出
増殖
大学
Database
PDF
川
思う
柱
従い
マスター
In@@
部位
g
反転
セットアップ
本稿
横断
接線
伝達
分野
従業
透過
子供
プール
深
署名
時点
薄膜
母
死亡
Enterprise
リポジトリ
行動
法線
Re@@
光学
だが
足
一連
使い
行為
ど
owb
電極
×
バ@@
Outlook
集
番
販売
Object
読み込む
一意
80
命令
リン
確保
要因
代替
胃
燃料
鋼
トラブル
もし
空気
便利
二つ
解像度
ドロップダウンリスト
循環
外側
延長
質問
か@@
レビュー
窓
なぜ
平行
違反
配布
23
損失
弾性
ろ
植物
カラム
のに
聞い
近い
年齢
父
消去
科
キーワード
閉じる
病理
リー
残り
感
ヒト
チ@@
@
ドア
割合
小@@
強化
nm
損傷
DWF
格子
樹脂
江戸
よい
相当
保証
勧め
論
ピーク
あ
代表
e
通
Q
シナリオ
ボディ
見@@
始め
原価
ロボット
200
現状
調べる
再発
把握
遅延
ブレンド
国際
やる
すい
注
赤
ハ@@
Control
ラ
プラン
音波
ましょ
モディファイヤ
配線
天
ピン
急性
Application
近似
OS
局所
入っ
呼吸
接合
Sun
以内
家族
コネクタ
ヘッダー
質量
出荷
週
事件
続け
達成
絶対
城
強く
痛
まとめ
上位
良く
人工
メタデータ
音声
輸送
オープン
縮小
周辺
見つけ
改良
自身
都市
にとって
使わ
不明
ロ
適し
メジャー
記憶
触媒
プロパティー
縦
曲げ
中国
少ない
000
スナップショット
コーナー
将来
注目
委員
円弧
ブ@@
Al
配
顕微鏡
金融
バッファ
上皮
対照
路
少なくとも
アニメート
早期
駆動
土
空白
無い
古い
セ@@
受容
初めて
マウント
}
したがって
Shift
隣接
今日
現行
充填
加熱
出し
ヒント
週間
イン@@
モ@@
時期
Add
例えば
高@@
基づき
磁場
パルス
シリーズ
キーボード
申請
照明
デジタル
吸着
収縮
入院
動き
依頼
繊維
不@@
もと
実績
Solaris
出来
死
同一
書き込み
スキャン
エンド
確定
業
IOS
作図
備え
IT
塩
道路
84
生物
言わ
替え
炭素
食
予約
キャンセル
長い
コア
オペレータ
梁
少し
ま
均一
CO
提示
根
認定
政府
線維
介し
極
資料
学校
流動
よる
組成
センサ
用語
ミラー
終点
”
name
70
回避
可視
26
パーティション
指標
併用
プロセッサ
marvel
区分
シューティング
業者
静脈
ム@@
りん
座
テープ
シリアル
小さな
同定
搭載
28
孔
周期
スタート
ガ@@
アダプタ
ソリッド
こ
視覚
ほう
権利
バンド
適合
属する
上@@
オペレーティングシステム
トラフィック
いく
含有
銀行
区画
プロ
Revit
印
レンダー
減衰
溶液
内閣
運用
修復
営業
交通
きい
責任
高温
窒素
投資
し@@
事例
持ち
炉
似
弁
ドライバー
DB
Options
鎖
リスク
桁
超える
ダ@@
ヘア
付加
製
≫:
変わり
歯
費
戻る
短縮
ray
なお
軍
実用
信じ
長期
分け
話し
紙
スライダ
Explorer
生存
テ@@
立
論じ
かけ
35
数式
娘
s@@
慢性
強制
藩
比較的
;)
たく
メカニズム
継承
再び
非線形
Cu
メス
資格
NET
Service
変異
2007
地震
ソート
橋
それで
IK
00
－
NURBS
購入
限界
由来
廃棄
血液
Fe
ン@@
一番
名称
皮
持続
シェル
政令
27
ブラシ
パ@@
命
予防
地方
建設
緩和
Set
140
先頭
州
超え
過去
比率
き@@
液体
ス
腸
回数
オーディオ
補正
Tool
価値
専門
拒否
ルーティング
x@@
界
乱
り@@
放電
証券
わけ
01
宛先
mental
内側
静的
ネ@@
近く
r
門
プロット
け
ポインタ
続行
AP
ああ
自動車
Directory
押す
切り替える
いや
動物
頃
蛍光
Project
有機
保
そんな
今回
ProdName
やすい
模型
屋根
カット
カレント
前後
片
スコア
見え
薬物
たび
村
イ
区別
エンタープライズ
バインド
検
かかわら
手続
Design
事故
IDE
英語
症候群
迅速
ル
造影
藤原
為
船
トレース
組
高かっ
メトリック
網
ネット
予後
マイクロ
工具
立て
III
フ@@
成果
Render
明確
代謝
腺
アップデート
み@@
300
メモリー
健康
元年
体積
会議
半
励起
31
SharePoint
鉄
付与
病院
言葉
xr
界面
好き
RE@@
晶
競合
･
誤差
不要
別名
成績
いつ
分化
コンス
p@@
マルチ@@
完成
y
注入
費用
調節
配分
ゲーム
Color
消失
d@@
チューブ
true
True
散乱
信仰
Exchange
中@@
付
Map
不足
人々
ケース
説
グリップ
和
はず
ヒ@@
支配
硬化
ソフト
仕
役
ドル
ウェイト
ズ
スピン
$
ギャップ
土壌
ピ@@
発展
トンネル
措置
書き出す
Active
長@@
要約
かん
ディ@@
手段
MS
ウ@@
出血
組合せ
チェーン
単語
レイ
集約
諸
つけ
フェース
区切り
Visual
動向
ナ
共同
あ@@
プリセット
もう一度
ツ@@
有限
放射線
ストローク
プレゼンテーション
ソ@@
メ@@
75
旨
解明
具体
6@@
遷移
油
デバッグ
Check
平
スト
ベ@@
くる
野
マス
殺し
多様
リクエスト
判定
変位
ねじ
f
後で
データ@@
–
高齢
Reporting
全部
本@@
宮
確実
かなり
悪性
おい
New
継手
海
測量
期限
2003
強調
Biped
ランダム
腹部
教え
北
マージ
脱
稼働
自体
DWG
指摘
引出
屋
t@@
トリ@@
かかる
米国
件
策
Link
クリア
ポップアップ
モーション
抗原
m@@
着
輪郭
Applications
積
側面
局
東京
オート
書面
手@@
ノ
Properties
総合
CV
あら
幕府
指
始点
16@@
死ん
糖尿
薬剤
整理
下さい
コンストレイント
信託
軌道
経由
大量
整備
奴
とても
く@@
異なっ
財産
数字
を通じて
通過
アセット
つ@@
向き
29
ロー
希望
伴い
新しく
裁判所
{
宣言
Express
ディスプレイ
ストア
合併症
焼
ー@@
XP
仕訳
探し
感度
Y@@
字
見える
オフライン
BIOS
保守
白
いっ
微細
;「
e@@
左右
リ
反対
整合
オペレーション
500
師
}}
書類
すぎ
燃焼
在庫
山@@
真
SDL
戦略
作
顔
債権
Select
分岐
発注
共
ライフサイクル
制
汚染
部門
挙げ
階段
スト@@
レプリケーション
ドリル
論文
と@@
では
磁性
処分
悪い
観点
待っ
pH
Word
°
ホ@@
つて
オリジナル
訴
静
小型
準
ジョン
来る
決まり
助け
差異
付近
誘電
show
Linux
々
大幅
押し出し
上げ
そのまま
あと
スクリーン
低く
無@@
歴史
クローン
科学
しれ
ストラクチャ
力学
細菌
Studio
少なく
違う
すなわち
ノート
不正
SP
回収
結
もっと
7@@
株式
限定
識別子
分光
コンクリート
LUN
銅
ナビゲート
フリー
Settings
加
大丈夫
仮定
地球
試行
推進
好
指数
UI
明示
民
素子
段落
並列
被
つい
支持
た@@
定
ケ@@
変え
う@@
せん断
浸潤
粘膜
考える
含ん
に関し
Q@@
失わ
ロケーション
糖
33
底
Ca
オーバー
なんて
定常
バス
遺伝
プロバイダ
ノイズ
円柱
込み
だから
思い
17@@
有
回折
シャドウ
低温
EPM
i@@
ション
保留
モデム
集中
MRI
満たす
肉
光源
欠陥
ち
ま@@
スター
影
過
グ@@
ダッシュボード
射出
スレッド
辺
どんな
原理
User
位相
取り
認可
素
反復
反
義@@
パートナー
役立ち
変
戻さ
チャート
並びに
48
エラーメッセージ
王
定期
日@@
k
偏
バランス
郡
還元
バー@@
省令
問い合わせ
枝
マ
半導体
k@@
事実
出@@
CPU
Builder
成
公差
o
カスタム@@
かい
微小
Adobe
com
につき
どれ
議論
ボーン
わかり
シフト
アメリカ
副
Z@@
スタック
ガイドライン
朝
といった
著しく
収益
Get@@
プ@@
身
伝播
nd
行列
ちょっと
摩擦
返す
フル
開口
4@@
量子
Internet
Ni
本文
三角形
バックグラウンド
顕著
Update
コマンドプロンプト
中止
接着
有し
蓄積
ティ@@
用途
0@@
新@@
ログオン
判明
句
血圧
階
工
柔軟
戻っ
精神
電池
アン@@
こ@@
ビュー@@
著
Hyperion
ただ
シェーディング
む
は@@
炎症
鍵
Basic
不安定
極めて
齢
モニタ
テーマ
トレイン
{{
国@@
夜
チェックイン
禁止
到達
伝送
パワー
スケルトン
エン
す@@
n@@
8@@
なさ
とう
伴っ
帯域
進め
太陽
VLAN
フェーズ
アプライアンス
解釈
協力
東
栄養
標高
ド
意見
換算
報
属
開
順位
1000
未満
All
起き
三@@
同時
トポロジ
摘出
則
Alignment
緑
ッ@@
現場
text
MB
網膜
2008
波長
長方形
離れ
ダクト
派
流量
Paint
設立
みんな
疲労
Time
スクロール
下@@
つつ
取り@@
店
品種
利益
プレート
こそ
可
確率
制度
ふ@@
入手
しまっ
傾斜
記
読み込ま
起因
誘発
汎用
円形
いいえ
約束
工事
早く
神社
ストリーム
進展
Financial
価
長く
ク
符号
不良
用紙
アプローチ
索引
練習
満足
ISO
nCloth
両者
対話
詳しく
縁
な@@
毛
5@@
9@@
UNIX
火
宇宙
パラメーター
当時
算出
同等
ホット
ずつ
被害
Performance
寿命
開か
フラッシュ
西
発光
Shape
ST@@
候補
ダイナミック
出来る
正@@
排出
申
有無
個体
硬
l
トリム
ウォール
止め
Light
天@@
照合
業界
DHCP
パーセント
起こる
Alt
DNS
測
補間
利点
モバイル
インフラ
購買
全身
近年
;@@
LDAP
日数
%%
LAN
系列
ファンクション
大気
割当て
規制
ステージ
花
卵
溶解
Display
ボ@@
st
行政
置い
みたい
しまう
入り
page
妥当
再現
固体
シミュレート
アラート
める
すばやく
ズ@@
被覆
プレ@@
ア
千
世代
病態
Catalyst
リストア
トレイ
照会
分泌
攻撃
黒
大文字
前提
東@@
Point
スロット
脂肪
＞
String
訪問
房
さ@@
予想
当
知る
3@@
振幅
南
呼び出す
妻
宗
世紀
届出
平衡
サーフェス@@
マトリックス
従
))
BOM
短い
資金
™
回線
国内
Interactive
電位
リフレッシュ
多かっ
急速
36
“
NULL
ザ@@
食道
べ
導
あらゆる
アーキテクチャ
撮影
製作
不可
視点
ニーズ
を通して
ール
DE@@
巻
乾燥
h
ならびに
あたり
マネージャー
はじめ
ファイバ
PHs
持た
文化
広く
甲状腺
実証
前条
キューブ
プローブ
鉄道
ブール
記入
MA@@
神@@
いつも
(.
サブ@@
ステロイド
平@@
不全
先端
ストレス
配向
オペレーティング
ポーズ
翼
胸部
Table
しろ
職
残高
合
日間
軽減
モニター
もっ
こんな
指導
AD
xml
カ
ポリ@@
マニピュレータ
工場
小数点
ゲル
端子
アミノ酸
やすく
臨界
ナノ
34
修飾
込
水@@
メモ
CA@@
楕円
登記
多重
歩行
発
タイル
クロ@@
ヘッド
劣化
コン@@
増
屈折
食品
プリ@@
罪
重合
TS
表記
消化
関連付ける
栽培
システム@@
スタディ
改訂
直後
ひ@@
ハンドラ
細
達し
データム
重量
Product
代理
ワ@@
感じ
準拠
ゴ@@
過剰
そ
芽
発達
える
くれる
単独
節点
RAID
太
げ
IPv
いけ
西@@
鎌倉
アド
38
Shared
フラット
歪
段
年代
意識
ジン
間接
生体
DVD
行き
プリファレンス
Value
麻酔
アンカー
400
嚢胞
待機
出す
伝え
当たり
せい
(@@
わずか
両側
平安
フィレット
ペン
CLARiX
DS
残
粗
不透明
Save
引き@@
星
ひ
ヤ@@
レンズ
脂質
強力
インチ
ペ@@
息子
清
政
米
凡て
ょう@@
ポ@@
以後
正規
青
続い
立体
サー
上下
サーチ
重力
錯体
結論
ありがとう
**
経営
Warehouse
幾何
入る
想定
内@@
末梢
魚
土地
映画
進み
成立
オブジェクト@@
ブ
けい
IN@@
get@@
向かっ
ハイパーリンク
耳
CS
付属
有価
Whdev
下記
全く
)「
フォルダー
つもり
続き
大腸
外科
省
List
唯一
伝
過ぎ
感受性
走査
認める
序
携帯
引用
置か
クロス
副作用
電荷
モー
環
簡易
the
部材
馬
束
酒
あんた
絶縁
ファイル@@
Open
クイック
42
65
ショット
15@@
安@@
集団
ハッチング
渦
原点
除き
ステ@@
搬送
受け入れ
株式会社
証拠
工業
Group
普及
牛
IGES
永
住宅
どうして
弟
AC@@
すぎる
中断
事務
人@@
Emdb
だって
44
渡さ
様式
発表
執行
端点
義
'%
周
車両
プロパティ@@
同@@
電磁
脚
レッスン
試作
衝撃
ポンプ
普通
衛星
NC
寄与
z
学生
欠損
焦点
言い
VMware
NO
レプリカ
タ
胆
気管支
給与
エクスプローラ
編成
懲罰
不可能
フィードバック
公@@
ぜ
ート
政治
Pro@@
対処
林
直前
43
ブート
スラブ
オーバーライド
ネスト
施工
骨髄
忘れ
箇所
下位
デフォーマ
緊急
ランナー
波形
最低
メートル
12@@
Delete
問合せ
Model
レン
呼び出さ
閉塞
居
相違
高分子
Anywhere
生@@
55
人物
直
声
サウンド
標本
団体
近傍
ビューア
ペア
No
u
誘起
コンパイル
テレビ
地下
Ex@@
警察
くらい
フィルム
置き
にかけて
プラント
始まる
Mobile
可用性
士
サンプリング
ヘ@@
枚
IC
社員
Configuration
無線
)@@
連
γ
一括
じ@@
む@@
シン
ラー
チン
シ
Attribute
元素
終端
分解能
収束
答え
揃え
大型
後@@
データセット
欄
動力
Designer
自@@
プロ@@
重@@
つき
ック@@
戦い
To@@
溝
false
税金
脈
糸
しょ
条件下
調製
56
仲間
大動脈
物体
皆
スライス
微
料
凝固
周り
小文字
雄
株主
ホルモン
住所
キャンバス
秘密
符
グレー
クラ
おき
心臓
御@@
尾
86
VPN
プリント
役立つ
)（
''
キシ
リアルタイム
＆
Civil
おら
述べる
サン@@
奈良
粘
IL
探索
欲しい
連携
Ti
保全
摂取
世
厚み
著者
マスタ
列挙
見つから
ラン
現
(「
廃止
14@@
トレーニング
Analysis
導出
中性子
粉
飽和
割当
作っ
粉末
Start
スキン
収
組み込み
パーティ
スコープ
;、
亜
回答
Simulation
ポテンシャル
ロー@@
加える
—
53
アル@@
使徒
可変
比例
互いに
心配
g@@
半分
骨折
DC
Show
Network
斑
体制
輪
全国
委託
多@@
大阪
狭窄
電解
連れ
基盤
37
首
高値
カレンダー
人びと
直交
Selection
サマリー
メンテナンス
館
まったく
災害
付着
和@@
r@@
基点
地上
Data@@
Workspace
ランプ
受入
音楽
v@@
ばね
スマート
まっ
残留
近
nParticle
徳川
AutoLISP
カル@@
発信
現実
生き
ワールド
結腸
アルファ
転写
債務
判別
WS
カン@@
ミ
込ん
地区
小児
終わり
サイド
食べ
Visio
堂
コイル
トラップ
あまり
進ん
溶融
潰
ム
モーメント
将軍
41
アンケート
パック
ボール
見つける
PE
残っ
ファン
破損
再開
SAP
プラスチック
重症
ホームページ
exe
ワイヤレス
In
データファイル
フェ@@
Yes
腕
To
上限
税
輝度
±
あらかじめ
ボルト
妊娠
c@@
都
信
ラン@@
陰性
CATIA
渡し
一貫
組合
注文
ソン
整列
99
Mechanical
GB
ブレーク
暦
トム
’
RJ
原発
続ける
改正
置く
エコー
600
ST
方針
Key
リレーション
相手
リージョン
遅れ
ネーム
超過
お気に入り
慈悲
スケーリング
日本語
Item
ネイティブ
治
タイミング
10@@
ック
Center
Co
記事
腐食
面取り
わから
含量
DSView
庁
文献
ト
堆積
広い
サ
リード
現れ
でる
犬
ジャ@@
作動
身体
フィ@@
医
造
列車
石@@
Surface
消滅
塗りつぶし
雲
ネットワーク@@
スキーム
加速
クリーンアップ
ソルバ
行なっ
ウェイ
アン
書き
Cl
Con@@
SE@@
全般
アルコール
圧@@
色素
除
ペプチド
IS@@
児
かっ
解放
y@@
言え
150
Al@@
頭部
あげ
ファミリー
サイ@@
Console
スプレッドシート
ット@@
増強
耐性
始まり
置き換える
表さ
Animation
要する
清算
Process
チャ@@
決め
起こっ
防ぐ
al@@
SA@@
ぎ
岩
予期
胸
id
っ@@
亀裂
Streams
ラジオ
レ
シグナル
2009
引き続き
モータ
いき
ビル
集積
ブリッジ
原料
General
融合
ぐ
にわたって
リー@@
マイ@@
体系
心筋
蒸着
Celerra
保有
Attributes
Search
リン@@
図る
金@@
わかる
こちら
典
SAN
けん
開け
フ
95
基底
ファ@@
黄色
地盤
真空
命名
実習
間違っ
OLE
親王
続く
観
白@@
野@@
ずっと
巣
とり
平滑
戦
井
外@@
派生
キャプチャ
名@@
政策
裁判
ける
呼ぶ
ACL
オフィス
頚部
Documentum
容器
Command
f@@
家庭
生まれ
Client
クライアント@@
セーブ
審判
レジストリ
FC
呼び
ニ
溶媒
知り
積分
採取
InfoPath
PS
パーティクル@@
39
フィット
発熱
クリ@@
変調
帳
b@@
MAXScript
姿勢
切
共鳴
上げる
マン
2010
選択肢
パー
ディジタル
"@@
空き
鼻
ひずみ
ユーザー@@
エクスプレッション
消
厚生
自ら
ホイール
SP@@
後期
谷
ものの
カルシウム
""
磁化
端末
キ
AS
属し
剥離
ぐ@@
審査
ばかり
案
歌
それから
限る
ワークステーション
全員
知見
ムービー
分の
区域
浮動
雑音
銃
成る
四半期
既知
52
覚え
財務
深度
限ら
Pack
血しょう
多発
箱
組み込ま
見せ
処置
動態
子孫
訓練
Mode
学@@
丸
トラ@@
Cr
受診
洗浄
雨
アンダー
出さ
取り付け
純
AT@@
幹
室温
肝臓
メリット
作る
所在地
De@@
パー@@
塩基
ハード
道@@
コマンドレット
AD@@
温
び@@
有@@
だ@@
崩壊
製造元
信@@
末
が@@
47
後ろ
殿
日時
進む
都道府県
ME@@
兄
末端
CP
比し
ID@@
引張
伝搬
残し
13@@
工法
虫
トリガー
入れる
)」
ナビゲーション
er@@
Media
Un@@
元帳
ユーティリティー
レンダリング@@
隊
ODBC
False
偏差
設け
マー@@
族
れ@@
取っ
Scale
参考
原@@
ち@@
Format
体重
農業
前回
2005
オー@@
調
インジケータ
LE@@
46
呈し
複写
LA@@
出る
低かっ
コース
ール@@
Window
UCS
確か
Ultra
フィルター
水分
膝
120
Viewer
別々
頻繁
スタンプ
公共
冗長
組立
転換
結婚
従っ
ス・@@
ット
前@@
FBX
ら@@
HREF
人生
NetBeans
だい
スムーズ
ハーネス
ダ
次いで
回り
芯
NT
破棄
Auto@@
ぶ
蒸気
RA@@
ギ@@
02
72
成熟
ガ
Size
交付
後者
ぷ@@
傷
短
コミュニティ
戦争
演習
嘘
初
みる
貯蔵
当初
入金
締結
壊死
走行
(*.
前述
腹
2006
樹
51
変える
CE
アルミニウム
腹腔
バルーン
放送
家@@
花@@
騒音
球体
いれ
スタ@@
合理
左上
Eas
Softimage
ldap
衛生
Level
深い
時計
街
肝炎
味
IP@@
ATM
キャリア
熱処理
レイ@@
推測
塔
行か
髄
Flash
ダイナミック@@
分裂
均等
診
残存
実態
至る
Mesh
〇
Use
剛性
獲得
辞書
気@@
再建
頼
CO@@
集め
スーパー
負担
Texture
合う
補償
Layer
事務所
扱う
ちゃ
兄弟
AS@@
グラデーション
セレクタ
け@@
木@@
配信
Recordset
発作
ドラフト
考え方
54
取り消し
映像
スポット
a@@
カプセル
チ
資材
63
園
とる
PE@@
顎
800
ース
q
主体
PA
RGB
常
ケール
遮断
故障
読み
仁
成人
Co@@
虚
うまく
インタラクティブ
軸受
Administration
SA
スイープ
ベンダー
隣
局在
コ
海洋
RF
除い
スタンドアロン
凝集
取り上げ
素材
ーン
凡例
ゲ@@
渡す
USB
会員
順番
iSCSI
子宮
め@@
や@@
捜査
大腿
やめ
楽
見つかっ
スイッチング
行け
閉鎖
85
プレーン
囲ま
協会
高める
良
フィーチャクラス
日常
RO@@
同意
之
固
Replication
こうした
お願い
メールアドレス
ミッション
法@@
ん@@
友人
簡略
器具
2002
file
ライ@@
分っ
サー@@
シリコン
LO@@
従属
ストリング
無限
ステーション
バイ@@
研究所
仕上げ
ラップ
兵
北@@
アンインストール
円錐
61
誘導体
絵
18@@
Vista
夫
とか
布
液晶
塑性
役員
医師
プログラミング
リビジョン
AM
67
意図
進捗
選定
ぎ@@
マテリアル@@
入@@
殺さ
キャ@@
トランス
排水
閲覧
カウント
僧
フル@@
フォーカス
入射
適正
も@@
え@@
メーカー
エッチング
TRUE
′
看護
アンテナ
server
SE
進
クラッシュ
胃癌
SC@@
gif
set@@
信用
PCR
Reference
ソケット
ハイ@@
リング@@
MAC
適当
近接
分かる
on@@
て@@
健常
姿
Connection
Mo@@
Set@@
hlp
精製
カー
AC
難しい
Advanced
HELP
RS
カー@@
62
通@@
Core
売上
ナトリウム
敵
コミット
静止
ロット
シャ@@
物語
自
66
h@@
ろう
145
59
料理
58
効力
ATP
ハードディスク
us
ンス
変性
天然
＜
満たし
type
ペースト
隅
交点
誤っ
遠隔
飛行
円筒
交流
05
分@@
棒
公
明@@
子@@
特権
As
もちろん
XY
臓器
起こし
隠
ゾ@@
プロビジョニング
目指し
Cache
悪
Business
京
食事
at
作ら
先@@
ベンチ
宝
TM
真実
VBA
に@@
ファー
NO@@
リサイクル
RA
日本人
足利
に従い
ファームウェア
毒性
マイクロ@@
プラ@@
手すり
57
億
本当
ど@@
離し
AEC
合っ
パージ
増分
ータ@@
意義
Copy
振
TOPIC
断
コミュニケーション
is
ドイツ
以来
ひとつ
あつ
推移
直@@
HP
リーダー
侵入
Mac
Module
交差点
km
天井
max
工学
供
母親
訴訟
mRNA
典型
Tools
南@@
血小板
Setup
set
ポイント@@
機会
監督
地@@
視力
含み
Di@@
乳頭
等しい
分配
悪化
PO@@
ブランド
生理
分かり
書い
メチル
作品
雌
強@@
Box
統一
もしくは
決して
49
Content
線量
o@@
いわ
wPopup
セキュリティー
生育
等価
血栓
肺炎
Oracle@@
製剤
ニュース
パパ
培地
インターフェース
不可欠
職員
はん
スキップ
社内
IV
積極
Mn
Symmetrix
具
背
バ
Text
辞
DB@@
ノズル
浸透
送り
Edition
Moldflow
展望
DXF
コントラスト
文@@
殺人
エミッタ
弱
LED
ドット
方位
矩形
テクノロジ
バイアス
水中
顕
ICE
団
進歩
SS
アイ@@
膨張
一体
胆嚢
国家
年@@
接頭
隠し
わ@@
毎
シングル
フォース
ハブ
水溶液
テキストファイル
as
CL
ローカル@@
仮
数学
ママ
NA@@
介護
シュ@@
接種
よし
急激
試し
スパン
Selected
会っ
広告
徐々に
避ける
作り
配備
さあ
精密
氷
NAME
分から
Curve
001
ウィ@@
診療
高圧
MP
バルブ
末尾
議決
資本
Avamar
SNMP
従う
雪
どおり
厳密
カウンタ
起こり
エン@@
累積
取
死ぬ
込む
GA
共振
派遣
緑色
ミン
切削
蔵
才
ファクト
Field
77
98
行え
復旧
TCP
ピック
ActiveX
見いだし
Node
海@@
委任
ロン
析出
切れ
滑らか
リスナー
友達
ソース@@
ート@@
結節
バイナリ
発育
指し
増え
Effects
代目
鑑別
銀
感謝
レン@@
教
glossary
かかり
終わっ
ざ@@
キット
稜線
田@@
地形
巨大
ショー
盛
就い
明日
軽量
プロジェクトブラウザ
埋め込み
an
フィル
GL
単に
本法
RAM
掲載
乗
標識
領
印加
セラミック
前方
トン
メタル
MA
エンベロープ
胞
｣
エフェクタ
書き込ま
下げ
255
訴え
包括
徳
黄
清@@
タン
流速
in@@
直腸
重み
l@@
やや
離
減
正面
Na
軽度
たくさん
ード
Info
PP
らい
コンセプト
実@@
裂
住民
SSL
不能
COM
背面
せん
SS@@
にわたる
恐れ
級
鳥
IS
NS
深く
歴
転
MHz
++
プラス
媒体
予備
さえ
春
68
GHz
グリ@@
ロゴ
Next
ター@@
足跡
^
ぜん息
マン@@
主務
表題
StorageTek
Material
POV
アプリケーション@@
弱い
所要
CP@@
ミリ
Objects
光@@
遠
TO@@
ハ
心@@
トリミング
合わせる
Export
OEM
Source
横@@
膿
ASCII
酸性
EBS
昔
チタン
せよ
よれ
たん
ダイヤル
Add@@
みなさ
なくなり
ジェ@@
報酬
所属
プレス
Web@@
殺す
LT
切り
医学
パイプライン
毎日
義務
高性能
守護
クラ@@
Path
微生物
立@@
コンフィギュレーション
区間
Parameters
任
180
2004
帰っ
犯罪
鉄筋
かかっ
席
硫酸
建
CH@@
変わっ
肩
国民
Li@@
支出
話す
ダメ
Frame
後方
IRM
ヘッダ
各々
プライベート
創造
読み込ん
原子力
音響
*.
Script
誤り
Cluster
Status
ダイ@@
総理
Intel
セン@@
従って
生ずる
見積
途中
久
針
グループ@@
これから
塗り潰し
信長
GUI
生命
マイグレーション
矛盾
An@@
Default
最小限
立場
アーク
Sub@@
中期
飼料
視野
ント
守
ステート
草
こっち
Smart
TI@@
さくせい
松@@
LC
Space
ほ@@
忠
コリドー
角膜
乳
メチル@@
全@@
凍結
ROM
信者
赤色
ing@@
ウ
Zn
うる
ツ
NFS
経口
アー@@
エイリアス
呼ん
持ち@@
Document
突然
割
ピッチ
四角形
流出
安
インターフェイス
CX
コー@@
コネクト
ピボット
努力
待ち
71
Player
流入
砂
承
TE@@
ボールト
US
FS
登場
受託
トラッキング
KB
Import
地点
大名
IC@@
ゆ
病気
のち
基質
受@@
脊髄
いん
授け
前面
CH
トルク
づけ
ーム
Index
達する
関心
ゼ@@
二@@
標的
ン・@@
戸
ハイブリッド
久@@
ブログ
麻ひ
しく
格
大変
白血病
航空機
Mg
nextref
ティ
現れる
薄い
Remote
果たし
ジョ@@
プリミティブ
読取り
1@@
Auto
せってい
バルク
姓
運営
ロジック
Order
EM@@
真@@
FTP
)、「
NAS
AM@@
ディスカッション
u@@
市販
治癒
お金
競争
le@@
タイム@@
タイ
取る
氏名
祭
CSS
疹
カレンダ
ジオメトリ@@
前者
根@@
74
97
しまい
ジェット
意
MP@@
ビン
Domain
事由
同年
職階
電場
レー@@
室内
高周波
主として
占め
始める
特許
ックス
縮
開@@
Filter
切@@
2001
CC
Desktop
トロ@@
パン
サード
積層
所得
育成
…
PIX
会い
間違い
加入
短く
Base
ンド@@
ぶ@@
電界
Close
大きかっ
速く
IN
遊離
着目
スピード
もたらす
取り組み
明瞭
キャンペーン
偽
（@@
様子
いえ
スルー
先生
タイ@@
差分
援助
定式
めん
向
フランジ
石油
On@@
博士
殻
78
内皮
ぽ
ルー@@
地理
外来
GaAs
Get
Protocol
開催
フリーズ
虚偽
言及
返信
ViewCube
勝
よ@@
心理
SO@@
Unicode
an@@
en@@
フラ@@
加算
PowerPoint
亜鉛
変わる
軟骨
UVW
疑い
定@@
進化
おぶ
初め
w
加速度
Comp@@
ポップ
果実
00@@
なきゃ
Guide
室町
滴
感覚
トリガ
当社
実測
速
秀吉
導い
ホール
AR@@
State
バンドル
副腎
増幅
(%
Line
減らす
必ずしも
AR
ウェア
ピア
レイアウト@@
出発
FAX
キャップ
シャット
守る
扱い
当事者
茶
遅く
アダプター
綱
聞き
著作
Channel
Page
雰囲気
·
逃げ
110
ぷ
アジア
Number
PA@@
シン@@
肺癌
受け取る
広範囲
着信
Tab
透析
2011
夢
溶@@
指向
を@@
新設
パッド
高密度
Security
古
形質
RADIUS
指す
居住
宗@@
秩序
総会
インド
皮質
起源
航空
Definition
償却
著しい
限度
掛け
リレーショナル
本来
SI@@
てん
ぬ
Administrator
キシ@@
青色
69
余白
コンパイラ
ブート@@
命じ
モデル@@
十二指腸
繰返し
250
目次
MI@@
選ん
服
ジュ@@
MEL
囲む
商標
抗菌
バンプ
Help
RSA
ング@@
重大
（株）
なれ
すう
トラックビュー
夏
ハウス
忠@@
術中
82
Image
ナビゲータ
愛し
キャスト
子会社
否
潜在
Move
クローズ
Library
永続
コントローラー
海外
Part
アスペクト
トランジション
跡
短時間
韓国
到着
Alias
ベル
ー・@@
延
装着
アレルギー
仕@@
行@@
レール
802
成@@
ルーム
カバー
回帰
賦
エステル
Macintosh
er
空@@
赤い
レーザー
譲渡
オン@@
三つ
させ
メ
平坦
残さ
log
≫」、「≪
込ま
SET
テン
Electrical
筋肉
左下
改
酢酸
パート
マッチ
肥満
JavaScript
荷
Identity
面体
出資
占める
ビタミン
レス
ポスト
マップ@@
ば@@
古@@
理想
取り消す
耐@@
88
バーチャル
直ちに
もっとも
心室
そ@@
カ月
PD
センサー
従事
SD@@
or@@
引@@
OC
ねえ
アノテーション
歪み
塊
炭酸
SiO
重ね
腺腫
きっと
ジャンプ
パス@@
フロント
経時
1999
ぶん
ラジカル
節約
気体
UL@@
盤
誕生
ter
公式
ゅう@@
法令
KVM
76
ネゴシエーション
ブラ@@
管内
非対称
コンパウンド
主義
破断
ER@@
Inter@@
PM
許さ
Buzzsaw
ライト@@
れん
国土
Range
理
リンパ腫
土@@
人口
在
ディ
耐
修理
密
経緯
MO@@
弁護士
武@@
素晴らしい
とっ
石炭
触れ
RC
LD
わが
ブランチ
分極
河川
Current
ーク
決める
皇子
Annotation
興味
360
81
Remove
まり
兼
NIS
陰
じゃあ
塩化
排除
Information
塗り
厳しい
パーセンテージ
ニー
元@@
切り@@
客
差し込み
粘性
訂正
スペル
留意
簡便
港
程
広@@
PT@@
コンプライアンス
・プロパティ
勢
御方
投稿
TR@@
ノートブック
En@@
OLAP
Open@@
Lo@@
ON
送ら
Professional
で@@
助
スタッフ
裏
ASM
ルーチン
2@@
フォ@@
モニタリング
by
こん
越え
啓
PD@@
SH@@
ブロ@@
コンテンツ@@
プロパティエディタ
リジッドボディ
地図
大域
Position
ターゲット@@
知
1998
キー@@
はっきり
ミス
急
伸長
摩耗
トー
福祉
DM
まる
137
等高線
UN@@
dwg
アート
しき
フィード
料金
Action
につれて
Pentium
消え
ハン@@
断熱
Agent
イソ@@
何らかの
無理
Property
ライン@@
eRoom
or
ゲノム
下書き
解消
ADO
eV
爆発
ヨ@@
赤@@
config
オーバーレイ
ゴム
NMR
密接
立ち@@
ドロップダウンメニュー
カンマ
不純物
みなす
ベイク
玉
シー
脆弱
冷
ず@@
ショ@@
ブル@@
輸入
PowerShell
マテリアライズド・ビュー
換気
目@@
イメージ@@
対立
承諾
風@@
ナビゲーション@@
就業
GE@@
ディング
ロシア
物性
証
現地
ヨーロッパ
表層
仏
LP
ファイア
タップ
短期
@&amp;
Apply
吉@@
111
職業
HIV
time
コーディング
有名
HE@@
主@@
武士
サム
ヒストリ
不安
実質
離散
性状
間@@
Modify
」(
職務
;@
筆
主張
高血圧
vitro
送る
技法
市民
先行
取り込み
池
織田
スナップイン
気道
直し
冠
-&amp;
特有
Character
気泡
96
rd
っと
バリアント
断片
朝廷
歯車
真理
移転
次回
カーテン
ベース@@
共に
しばしば
共存
骨格
刑事
書@@
らしい
ダー
ライブ
陽
list
インストーラ
ドープ
スプリング
OH
卵巣
腔
ツール@@
中性
相@@
転@@
Change
CAT@@
Ch@@
なか
び
1990
Style
槽
PI
コレステロール
産物
転位
RT
反り
鉛
若干
ケ
沢
犯人
くす
やり直し
コネクション
ベンド
連鎖
ジョブ@@
デーモン
存続
Ad@@
マーカ
:［
DI@@
イル
ES
ガン
対流
洞
プレースホルダ
注射
過渡
両親
128
NAT
パブリック
変@@
不適切
社債
ing
MR
近@@
閉@@
伝統
愛
MC
うえ
永久
解離
口@@
各地
'@@
本番
分間
梗塞
ME
働く
損害
宗教
700
替える
all
遅い
アーチ
ファジィ
EX@@
;+&amp;
ご@@
摺り
導き
マルチメディア
EE
茎
DR
ギズモ
取@@
ダー@@
侵襲
棚
AN@@
ぁいる
RNA
グローバル@@
腸管
ページ@@
ター
大統領
断層
te@@
睡眠
貴方
中枢
補強
DO@@
動かし
退院
PP@@
交@@
繰り返す
プロッタ
総数
データベース@@
書き出さ
潤滑
父親
ぼうこう
切開
有力
胎児
北海道
消し
se@@
合い
オレ
等しく
初回
Global
働い
指針
プランニング
仕え
季節
る@@
八@@
入口
取締役
習慣
Modeling
筆者
クリティカル
扱わ
92
プロキシ@@
世界中
言
利
吹き出し
そのもの
髪
給
GE
マーケティング
なん
小腸
防@@
アラーム
増やす
定款
運送
混在
カイ@@
吉
微粒子
貸借
赤血球
73
CT@@
保つ
公告
メタ
算定
陰影
露出
ENOVIA
MD
サブフォルダ
自律
尊
仏教
文化財
RM
ジ
血糖
03
ダム
死去
補
少年
落@@
リグ
特長
祖
萎縮
送っ
ッド
セメント
パソコン
史
研修
立っ
冠動脈
書か
累計
ラック
かく
住ん
藩主
End
ペーパー
貢献
Architecture
出席
美@@
スクリーニング
ツールバー
時@@
BR
蒸発
行なう
ヤ
貞
がっ
シャフト
非同期
しん
ナー
四@@
キャビネット
広
1997
RAC
一様
!---
へん
メント
見なさ
伸び
リニア
津
RP
へん平
欠落
レーション
摘要
IR
キャビティ
望み
グラ@@
フェイルオーバー
内蔵
同士
舌
ぷしょん
ゲージ
喫煙
始まっ
期日
避け
ウェ@@
87
価額
鋳造
めっき
圏
テキスト@@
::
サーバー@@
ヶ月
体験
湾
ActionScript
シェーダ@@
次世代
Python
曝露
as@@
気管
ショップ
相談
AL@@
ip
一環
国立
失
工作
意思
養子
訳
ヴィ@@
塩素
不十分
DiskXtender
Input
霊
シンプル
受益
ワイルドカード
煙
ML
256
Grid
収量
否定
from
しい
廃
当て
プライマリ@@
片側
高め
ろ@@
net
サブオブジェクトレベル
カスケード
前立腺
CM
Details
Storage
果たす
エンド@@
定型
寝
PHP
いろいろ
MapGuide
老人
貫通
89
Switch
上面
パラメトリック
連合
3000
関わる
93
乳癌
奴ら
ワクチン
シード
親@@
ic@@
公園
合@@
Ag
順に
新聞
行える
認知
FALSE
に際して
ワークプレーン
シーンビュー
デ
79
務め
紅
IA
たかっ
シスコ
デザイナ
クロック
大切
5000
ts
確かめ
後続
録
さい
正方形
SELECT
やり
末期
微分
レポート@@
五@@
極@@
働き
出身
インピーダンス
破産
赤外線
長官
使い方
吻合
サイト@@
引き
SM
それとも
逮捕
フッター
かしら
Ac@@
ad@@
フィーチャ@@
マッスル
Camera
IIS
TP
ソリッド@@
磁石
疑わ
IBM
それでも
ご覧
沈着
省エネルギー
On
策定
読ん
隠れ
w@@
用量
妹
〔
トレ@@
家康
微量
83
ゅ
LE
かける
BS
フェノール
紫
落ち
ACS
若い
Receivables
索
脊椎
川@@
セキュリティ@@
有害
要請
受け入れる
不規則
2012
Insert
PPP
グ
次数
脂肪酸
収穫
平板
ジェネレータ
地位
失っ
同位
旅行
木材
配慮
KPI
LD@@
アナログ
幾つ
本体
CF
直流
切り取り
にわたり
〕
ウエハ
クレジット
発揮
天使
管轄
花粉
起こす
多孔
斜
フレ@@
不信心
TB
オ
口腔
現代
校正
満たさ
カテゴリー
アミン
痛み
2013
My@@
どういう
壁面
表皮
しゅう
st@@
あいつ
勢力
Ar
アーティファクト
差し@@
広がり
Centera
emdb
ナンバー
FEM
支給
MS@@
ポリゴン@@
冬
容積
降伏
default
it@@
デモ
寺院
種子
口座
条項
果
装
Element
ニューロン
千@@
ER
セル@@
正接
迎え
考案
PPR
流通
リア@@
即時
am@@
換え
開放
投入
創
地表
郭
ろ過
CR
初@@
書き込む
アルファベット
少数
施し
$$$
Target
検知
スタンバイ
フライ
連@@
ニア
ータ
バック@@
混乱
湯
JIS
IPSec
PC@@
no
破
鉛直
禄
フィート
弾
水準
As@@
IF
単価
｢
Motion
よろしい
友
Array
EN@@
REDO
Resource
外傷
重心
ヘルパー
魂
エンジニアリング
弓
抗生
白色
DA
れよ
やがて
;-&amp;
多層
稼動
VC
91
製図
Offset
乗算
ファ
知事
保健
Graph
CLI
ござい
ラス
吸入
推論
武
抑え
94
そっ
探す
合格
IDMgr
Event
ひょう
金銭
'&amp;
db@@
Pro
TA@@
j@@
疲れ
QoS
Report
バイオ
ミル
昨日
リモート@@
ルーター
なに
アクチュエータ
フランス
修@@
CR@@
Tc
デザインバー
ステージング
勤務
増す
コウ@@
メイン@@
伝える
鋼板
Task
船舶
AT
打ち@@
教@@
聞く
PRO@@
Par@@
原則
美
:@@
Interface
柄
et
位置決め
市@@
森林
結石
愛@@
望ましい
UML
不完全
Tree
悪魔
崎
結核
至
勝@@
施策
Load
アンド
ユーザ@@
制作
Bean
募集
豊富
選び
ac@@
皮膜
ed@@
良@@
北条
概観
Scene
my@@
リア
穿孔
紛争
GUID
下さ
ぼ
子ども
DS@@
Software
丘
要し
ライティング
組み合わせる
エタノール
革新
かつて
気象
タンク
データタイプ
一族
描か
@@
MI
市町村
浮腫
；
OR
アクティブ@@
コラボレーション
ダイオード
常@@
かす
つく
心拍
最大限
良かっ
足@@
Photoshop
ワープ
ヲ@@
HR
塞栓
HBA
ビ
物@@
しかも
リンク@@
しかしながら
クス@@
党
DGN
文字数
覚
データ・@@
免許
白血球
括弧
CFdesign
dB
発@@
テクスチャ@@
Option
‘
いわゆる
コンパクト
テトラ@@
かし
事情
出生
インデント
了解
進める
取消し
衣
追@@
カン
es
ソル
HD
ぷろぱてぃ
開腹
小規模
長時間
SI
クライアント・@@
地獄
1995
1996
ケア
医者
圧延
debug
user
まれ
満@@
オーバーラップ
アサイメント
少量
かまい
ナビゲーションウィンドウ
残る
ソフトウェア@@
他方
稀
ブラウズ
硝酸
コラーゲン
立ち
前期
案内
ップ@@
リース
降下
FILE
ント@@
少なかっ
刀
Label
下肢
正当
悪@@
軍@@
ネ
ロギング
動画
もたらし
バイパス
徒
未知
Controls
DL
ワード
政権
ZFS
麻
ステンレス
望ま
薄
シー@@
パイロット
Count
刑
読む
黒@@
ベルト
スケジューリング
湿度
立方体
si@@
よかっ
アポトーシス
帰る
損
MotionBuilder
tion@@
ね@@
ING
貧血
内分泌
排気
秋
チェ@@
Ga
戦国
森
石灰
天正
病原
Hz
IG@@
SDF
レット
Bi
等級
通る
Suite
しばらく
アルカリ
皆さん
一度
古典
活
「@@
フォルダ@@
マイナス
行こ
解く
Date
せ@@
アセンブリー
クリープ
描く
賞
頼む
可動
防御
環状
転記
Per@@
慣性
狭い
Architect
翌年
無し
票
豊臣
Δ
Component
Standard
テン@@
便
拠点
Length
今夜
al
カラー@@
グル@@
アウトライナ
タービン
mg
役職
頼朝
下垂
紀
難
Template
z@@
ショック
Geometry
感情
検定
民間
クス
大正
DP
Fusion
インスリン
ル・@@
要
ド・@@
補充
CSV
OR@@
磁界
es@@
カテーテル
ビルド
早い
産@@
リソース@@
WebTrends
増やし
光沢
明るい
マッチング
両面
持
um
かん@@
飛行機
メニュー@@
ED
St@@
、@@
シリンダ
支払い
来@@
File@@
Review
つける
リレーションシップ
調達
Go
メールボックス
着@@
li@@
まあ
捕獲
法的
復帰
想像
レンダラ
充実
root
やら
ボス
無かっ
終わる
受け取り
退@@
ブリ@@
埋め込ま
空調
!@@
AB@@
SD
gls
テキストエディタ
占有
居る
選任
図っ
戦@@
ストレッチ
ハードウェア@@
手続き
SWF
emcore
ょん@@
デザインビュー
トレンド
レンジ
冷@@
ms
去っ
Preferences
一切
早@@
病巣
開示
ISDN
PS@@
球状
留置
ip@@
引き起こす
灯
草@@
遅滞
1994
ティング
モ
生態
グルコース
極性
Id
NA
ベル@@
割れ
セット@@
模擬
男女
人事
硝子
解法
ザ
各@@
Po@@
取り出し
Work@@
インク
インター@@
新株
隆
発酵
CE@@
尺
PowerPath
SC
Asset
両端
断@@
突起
Width
en
タン@@
Se@@
グラム
QOL
Text@@
ラウンド
カーネル
夜間
無関係
近衛
遊@@
プライマリ
上流
犠牲
酵母
悪く
動かす
変態
片@@
Fe@@
仏@@
体@@
空洞
ar@@
ポ
ロール@@
障壁
体内
政@@
海水
保@@
未来
コントロール@@
壊れ
レータ
Si@@
バカ
ミクロ
別に
泳動
顔面
制定
Custom
MT
明る
Particle
松
マット
運
ようこそ
増し
当@@
応募
購読
From
バン@@
ロケータ
大腸菌
失効
第三者
AP@@
コンバータ
下線
起
Net@@
害
関東
動く
待て
若
コレクター
宮@@
景
カラ@@
控除
放@@
自覚
ムーサー
公表
info
万@@
LS
ともに
加水
司
左@@
次第に
アニメーション@@
妨げ
ょ@@
売買
Null
がん
広範
羽
阻止
ずれ
マテリアルエディタ
慶
買っ
@@@
クリーン
耐久
DWFx
Up
今度
Out
ターミナル
事態
ぃ@@
生殖
Dynamic
Sample
九州
吹@@
濃縮
User@@
ダラー
交渉
マイル
水質
知的
警官
頭痛
後半
飼育
BPEL
map
炭化
相続
郎
txt
ベン@@
ワイヤー
仮説
分かれ
窒化
不変
永遠
知らせ
野生
かぎり
レプリケート
雇用
抑える
会話
聞か
ted
インポート@@
漁業
No@@
一種
聞こえ
融解
δ
ダイヤモンド
ミニ
送付
サムネイル
Ar@@
ーター
慶長
Edge
value
波動
総@@
試@@
クレ@@
プロジェクト@@
肥大
Publisher
アルミナ
ハイ
切っ
季
封
関わら
排せつ
漏れ
行使
ワー@@
アドバイザ
デフォルト@@
ニュー@@
調和
啓示
朝鮮
with
ProductName
アンロード
張力
Figure
優位
只
にくい
手紙
残念
スク@@
海域
NE@@
きっ抗
キング
生息
食べる
ザー
ニング
ポリゴンメッシュ
重視
裂@@
バースト
リアル
少
ate
摂
トラクタ
手数料
Infrastructure
SO
南部
引
接地
Policy
ダイナミクス
打@@
ブル
左端
車線
コマンド@@
収容
ルミネセンス
Key@@
ソー@@
協調
取り外し
高調
Body
Kerberos
j
to@@
FA
Quality
もん
シェ@@
ピース
倍率
姫
岡
既往
電動
オゾン
採@@
浸
コンポーネント@@
シェーディング@@
篤
建て
ケイ@@
un@@
キュ@@
新生
異@@
GS
エンジニア
スムージング
IgG
ージ@@
双
美しい
ッ
フラグメント
公正
脂
シミュレータ
メン@@
又
増減
貨物
ator
index
使
馬@@
re@@
青@@
Provider
おそらく
モー@@
経費
背後
貴族
ゴ
藤
ini
しも
減らし
）@@
孫
所@@
潅流
生徒
杭
正式
遠心
投票
機密
編
表@@
ドキュメント@@
パラ@@
乳房
MPa
ヒドロキシ@@
ラティス
無機
流@@
My
ml
別@@
取消
各国
PTC
メタノール
上方
プロバイダー
リウマチ
寄せ
郵便
代入
%@@
いか
シャドウ@@
リダイレクト
基金
望ん
若@@
衆
WAN
アイコン@@
たる
公卿
Panel
RT@@
できるだけ
ホテル
光線
group
使え
光子
メタン
毎年
材質
現時点
計上
グラフィカル
ノット
冷媒
ロフト
進数
Backup
デュアル
ファクトリ
ベスト
出せ
務
.@@
Message
びゅ
下限
ハッシュ
載
てい
気分
適格
武器
MM
Net
あい
王@@
ping
ラー@@
豚
恩恵
サイン
ヴァ@@
双方
坂
改革
炭
コンフィギュレーションオプション
ゴール
メータ
好@@
主題
二酸化炭素
前駆
唐
クン
Files
太平洋
JDBC
Pt
こいつ
元気
弦
舗装
Error
最良
タブレット
マイ
高等
141
機種
450
グロー
住む
終@@
VM
ウサギ
トランス@@
享
理事
Connect
補完
Ro@@
フロー@@
Output
多量
導か
毒
直接的
?@@
好み
);
かっこ
押し@@
か所
就任
パーティー
フレキシブル
検診
歳男
テーパ
Ver@@
チャ
番組
痴呆
許
945
オペランド
ビデオ@@
気候
なんか
メッシュ@@
却下
被験者
04
`
プロトタイプ
永@@
900
BO@@
メタ@@
納入
FT
HA
ード@@
初代
灰
Or@@
cDNA
client
門@@
Li
周波
茶@@
矢
ファーム
手形
縫合
Qu@@
しかっ
ゅ@@
ヘルニア
Class
混@@
サイトカイン
返品
Layout
パ
月@@
速やか
ファイ@@
Boolean
胞@@
処方
役務
ゆっくり
救急
磁束
List@@
バケット
・ビュー
三角
紫外線
学会
文章
Pb
マイシン
更生
He
Navigator
リスト@@
By
出口
精@@
黒鉛
ND
)(
コーヒー
ヌ@@
太字
防
Job
食物
Long
止
やつ
オフ@@
仕組み
慎重
ランド
イルミネーション
Plus
キーノート
プリンター
不義
速い
no@@
ps
クロス@@
フック
遠く
受け取っ
孤立
JR
もらう
ドッキング
幅広い
抜き
遺@@
オート@@
低速
WLC
インテリジェント
事象
放し
素@@
TC
ed
ヒット
朝@@
本質
FA@@
ノン
当然
研磨
161
Secure
健全
インポート
乗り@@
皮下
Query
Test
伝@@
破裂
スポットライト
個数
ックス@@
代@@
大半
胆汁
インストール@@
GC
Hair
ラベル付け
細川
Sn
ジャック
排他
歩
高進
SCSI
hmk
スル@@
諸国
PL
PR
疫学
輸出
AL
CL@@
STEP
他人
包
CFD
公家
探査
推察
サブシステム
台湾
幸せ
太郎
解体
インライン
スキル
スムース
向かう
オス
固化
Mo
称
ファー@@
決議
裏@@
異性
近代
新生児
気圧
火災
トランジスタ
ディスク@@
承継
研削
湖
追い@@
食@@
家臣
流れる
Version
そういう
どうぞ
ンス@@
精
＃,
Cu@@
アーム
対数
ブラック
信じる
Xeon
ゲスト
乗っ
捨て
興
郷
ユーザーインターフェイス
IE@@
LCR
ウシ
熱@@
プライマリ・@@
IT@@
Profile
SF
ノール
ファイルサイズ
隠す
Bo@@
de
課税
Create@@
Shader
レイヤー@@
歌@@
License
履行
走
EM
冷凍
帰り
ppm
ギャラリー
打ち
重点
採
札
アフリカ
隆起
プロパティパレット
下流
描い
群集
併せ
検体
Smooth
かわり
吸引
医薬品
概略
Ne@@
マル@@
大和
来い
残す
非@@
DL@@
Parameter
ハー@@
御許
ter@@
庭
BI
ANSI
倉庫
4000
ープ
座っ
近江
気温
ゆらぎ
フロア
実は
採集
耐震
ジョブ・@@
売
08
アスタリスク
無駄
福@@
IM
XYZ
イル@@
構
船@@
MDX
伏見
快適
治@@
イド
図書館
CVD
データビュー
協議
回@@
π
だれ
ダイオキシン
今@@
ｰ@@
描き
ぼ@@
アウト@@
イギリス
ログ@@
取り込む
滑り
現存
アシスタント
可塑
問わ
ビューポート@@
危機
向い
教授
言い@@
ファスナー
マー
有望
Advisor
ap@@
コーティング
ワーク@@
心房
DLL
流域
知覚
クソ
フレーム@@
保安
双方向
源@@
条約
sp
レンダ@@
SiC
流行
蓄熱
Device
ボ
弱@@
SDK
アド@@
ミトコンドリア
欠
越
身@@
電車
FI@@
Is@@
オカレンス
急@@
欠点
Drafting
レプリケーション・@@
介入
産卵
継ぎ手
モノ@@
ヲ
何故
el@@
ある程度
アル
コンストラクション
Address
Ca@@
尊@@
うん
わっ
応@@
所定
貿易
クト@@
記し
Object@@
ちゃん
帰@@
ul@@
わし
偉大
野郎
Multi@@
VP
いっぱい
AE
題
ting
主たる
及ぼし
望む
生後
QAnywhere
data
何処
el
会う
マネキン
Sr
利@@
塩酸
手書き
線路
ぇ
ース@@
午後
肝硬変
輸血
はるか
ブラー
装備
LA
whdev
バリエーション
校
画質
IFN
クタ@@
プライバシー
古墳
SU@@
ごみ
招待
功
給付
アイデア
テーブル@@
le
サービス@@
ソ
フィン
取り消さ
精子
再@@
us@@
アロ@@
フェライト
出版
同じく
スループット
活躍
隔
暗
TO
それに
シル@@
心不全
06
Comment
だめ
フォト
北部
直す
違っ
頭蓋
Nb
start
ゆ@@
並び
償還
CAT
チューニング
死体
6000
お互い
キナーゼ
バグ
中毒
殆ど
語句
World
帯電
介
当り
:&amp;
HRMS
グレ@@
スクリプト@@
割り込み
書込み
欧米
至っ
クローニング
濁
許し
For@@
ペン@@
受取
寄@@
突然変異
20@@
GM
取り入れ
幼虫
引当
心電図
きょう
勉強
Ge
Local
きわめて
ファイバー
純粋
詳しい
らし
コンカレント
婦
放射状
Esc
ボディー
剣
太@@
とれ
!.
NT@@
SY@@
不一致
若年
支@@
観光
高次
Face
コンボ
陣
Browser
空港
議員
骨盤
粘液
Section
オレンジ
罫線
軽
WSDL
弘
Å
シールド
録音
;.
発癌
私@@
1993
Pre@@
波路
起きる
Results
本人
男子
記さ
遂行
Mail
ラム
ドリ@@
小さかっ
現世
DT
Environment
古く
砂@@
縦横
カスタムプロパティ
デプロイ
上がっ
割引
即位
手技
皿
UDP
ol@@
スポーツ
追従
ATA
Only
ag@@
アンモニア
カル
律
疑問
ti@@
岩@@
コリジョン
英国
Fur
LSI
Schema
#@@
コラム
ローカライズ
先進
取扱い
留
づ@@
アメリカ合衆国
スワップ
傷害
青い
DN
けれ
京@@
均質
寝@@
ええ
墓
殺害
-@@
SR
ぇくと
シェルフ
杯
腎臓
アクセス@@
フリップ
Central
セールス
臣
IPsec
ブロードキャスト
実践
難@@
保た
反@@
学者
白い
Live
もらっ
下げる
応
Axis
ERROR
Sheet
いただけ
コンパス
テクニカル
カム
小脳
工夫
選ぶ
)、&amp;
サーボ
箇条
耐熱
La
at@@
チェックポイント
男児
Top
ダンプ
利得
地面
DE
Home
PO
豊@@
man
リス
version
アク@@
ストレージ@@
ベン
一層
袋
Enable
プロパティセット
期限切れ
溶出
祖先
Rules
スラ@@
未@@
電@@
塗料
零
スナップ@@
接点
突出
Centrino
モーションブラー
解凍
117
カリウム
ジオ@@
腫脹
軽快
TA
音速
＊
BGP
RE
富@@
黒色
たぶん
エ
兵衛
剖検
復活
読み取る
CI
休暇
トランク
寛解
絞り
なす
バックアップ@@
右@@
失う
念
DD
Nd
TYPE
解剖
クラスタ@@
常時
開設
CSC@@
JSP
加@@
Blend
ISP
キルト
スピ@@
古代
在@@
散@@
掘削
水晶
海岸
Structure
ch@@
1500
Projects
it
FE@@
官@@
硫黄
舎
餌
サーバ@@
少女
帳簿
125
MMC
ライブラリー
Mi@@
沿岸
長期間
その間
トーン
宿主
楽@@
附則
DML
日本@@
結局
良性
里
Easytrieve
マネジメント
不連続
底面
らせん
プロスペクター
モーター
Angle
ミーティング
失@@
度合い
暗い
フィールド@@
JPEG
ベンゼン
肥厚
軌跡
CON@@
死後
カーブ@@
ツイスト
理@@
*@@
PVC
th@@
包装
衝撃波
めい
バウンディングボックス
フォー@@
嚢
クリアランス
態
移入
複
プル
マイク
内服
CM@@
TE
インバータ
チャンス
Code
Log
大事
女子
実数
Distance
嫌い
隔@@
UL
View@@
先天
播種
芸術
重なっ
とくに
ライフ
南北
Description
MB@@
ビー
前払
深@@
Payables
かさ
待つ
インサート
無人
Pd
Trax
ler
むしろ
スラグ
火@@
痕
il@@
づくり
ワークフロー@@
別個
欝
罰金
デイ@@
ユ@@
落とし
血@@
道具
こう門
眼球
クロマトグラフィー
振替
部@@
頂
ほら
負債
PostScript
ディテール
景観
暫定
CF@@
バッテリ
善行
導く
荒@@
べく
エディター
ビス
Table@@
ナー@@
変わら
減価
結ぶ
Tri@@
ップ
もち
わら
固有値
ウィジェット
シティ
チャー
怒り
温暖
Ti@@
奥行き
懸
ほしい
斎
Backburner
Ledger
さて
パンチ
ビジュアル
フォーム@@
ぁいる@@
ぱ@@
アレ@@
旅
有利
アップ@@
ノー@@
両@@
作@@
コード@@
乗@@
半@@
Skin
VPM
Muscle
インシュリン
クリップ@@
三条
たい@@
SH
ねじれ
ウド
浮@@
羅
FK
れい
スタティック
建@@
?)
Location
アボセント
トラン@@
ニン
フレックス
性格
比@@
要員
ハッチングパターン
思い@@
エチレン
メッセージ@@
摂動
継
置
"&amp;
Se
number
ベッド
模様
願
Framework
代理人
刑務所
及ぶ
屈
勝利
広域
遺
Manage
SEM
コネクタ@@
ドナー
芳香
Au
RSS
セカンダリ@@
Curves
お薦め
つながる
圧電
欠乏
等@@
son
オプション@@
プラグイン
腹膜
チオ@@
グレーディング
河@@
初診
電波
30@@
Sync
り患
寿
CN
PCI
Plane
各行
斜面
粉砕
野菜
クロム
ハイパーシェード
富
押@@
武田
kW
しっかり
ステンシル
ルト
Transform
ゴースト
ダル
焼き
コンポジション
スイッチ@@
スティ@@
スペイン
皇
関
CS@@
デザイン@@
瞬間
試薬
件数
組み
ちょうど
自殺
TiO
アラ@@
情報処理
担保
異議
テル@@
長男
ent@@
こう@@
下向き
補足
鎮痛
Me@@
判決
知@@
雷
ニューラルネットワーク
OSPF
ation
ブラウザ@@
色@@
セルロース
なくなっ
レッド
右端
気持ち
イネーブル
免
BA
おまえ
カチオン
ニッケル
岸
余分
提唱
植
陽極
size
エキスパート
キャプション
シングル@@
不詳
合わ
アクター
ッド@@
レンダー@@
棟
水温
矯正
=@@
Folder
NH
Time@@
コンデンサ
浄化
知れ
Radius
ころ
ごく
アミド
化物
止める
自発
香
MT@@
Mar@@
アミノ@@
MO
設
1991
PB@@
シド
組み込む
ホワイト
家畜
教師
要@@
路線
line
いかなる
ポケット
打
機@@
生まれる
PT
Telnet
サンプル@@
丸@@
人数
塗装
解散
Volume
Zr
セン
架橋
GH
RecoverPoint
ro@@
セーフ
位置づけ
大地
女児
無料
硬度
Ga@@
上端
善@@
息
職責
Sybase
VSS
ライブラリ@@
実体
1989
CATPart
ポート@@
尋ね
楽園
区切ら
町@@
ック・@@
何で
トレーシング
バイオ@@
芸
ゲン
苗
身分
イメージプレーン
ニューヨーク
パブリケーション
パラメータ@@
フランス語
収入
射
あわせ
仁@@
繁殖
親和
ファイアウォール
運行
Trados
color
ストーリー
接
球菌
病因
算
アイドル
HT@@
Outliner
女@@
学び
引き出し
htm
コン
ホスト@@
河
スカラー
テレ@@
来世
Weight
サン
パーツ@@
井戸
即座
噴射
寛容
頻
何@@
匿名
徴収
どうも
モンテカルロ
ワイヤ@@
勧告
圧迫
巻き
is@@
薬剤師
藤@@
Groups
クト
畏れ
350
Dreamweaver
•
円滑
静か
DIN
table
灰色
1200
Be@@
やれ
クラシック
多角
1992
RPC
スタイル@@
ダイヤ
下し
商業
略
翌
音@@
MaxL
Viiv
アニール
出家
礼拝
言える
Find
十@@
101
Mixer
上がり
力@@
指揮
肢
賀
He@@
そんなに
為替
開業
Host
LM
Step
いん@@
CAM
VT
守り
法則
織
Depth
噴霧
陰極
DF
OP@@
ステレオ
善
局部
染
猫
SYS
インプレイス
呂
死@@
紋
菌株
チケット
テ
協同
思想
礼
se
メンバーシップ
児童
自宅
鉱
GIS
任命
散布
iPart
感じる
浴
Ess@@
Multi
フェニル@@
休止
残@@
Member
やす
人気
数多く
主流
寄生
殺菌
VA
タイムス
対@@
鏡面
防除
べ@@
彩
排
Cd
Su@@
kg
スル
最短
ティック
フェンス
泥
Disk
世@@
太陽光
FM
Online
admin
ティー
発芽
販促
ット・@@
逆流
MAX
de@@
スタ
妨害
昼
モン@@
腰
コート
lo@@
すごい
マクロファージ
DOS
EC
out
・ソリューション
GPS
Pr@@
ひどい
HT
プロパティ・シート
モード@@
午前
名刺
書く
検@@
純度
Configure
女の子
警備
配合
do@@
マッスル@@
耐力
Rendering
カナダ
接する
トラス
竹
160
いかに
去る
康
解@@
Au@@
WiFi
伊@@
宝@@
満
Ma@@
ダウン@@
〈
デバッガ
会@@
昇順
CU@@
脅威
FR
Site
劇
無事
Users
すると
円@@
凝縮
見本
Area
呈する
器官
Acrobat
vivo
イベント@@
称し
グリーン
スパイ
バン
多少
曲面
現金
直列
SQL@@
スライダー
テクニック
合意
椎
PET
げん
らん
スケジューラ
批判
振り@@
TFTP
Unity
イオン化
ノード@@
ポータル
見直し
ッシュ
接尾
Lock
せん@@
シール
ビジョン
抜け
伊勢
思え
靭
いち
天文
いったん
プラグイン@@
乳酸
低@@
聖@@
MDS
嘉
当主
従前
シャー
回腸
許諾
人体
Wizard
件名
変遷
極端
BC
ブロック@@
レーション@@
倉
戸@@
無く
にあたって
仲
匹
油圧
通し
string
増悪
張
いたし
スーパー@@
AA
MIB
分娩
松平
根拠
マリオン
取ら
生化学
貯留
int
ニック
フロ@@
マザー
塵
特例
脚注
null
いただく
インストレーション
プロセス@@
代わる
波@@
混入
緩衝
股関節
エク@@
リチウム
ンド
四肢
歯科
決済
浜
エクスポート@@
フレーズ
メディア@@
汚泥
RD
Vertex
シス
テッセレーション
汎
ment@@
噴流
報奨
グロブリン
助ける
ブレーキ
接近
MD@@
モーション@@
並行
基地
ALL
急い
Ba@@
させる
スチ@@
肉芽
交互
交感神経
埋め
学ぶ
江
秀@@
Mapping
いえる
モディファイア
在宅
対比
落
駐車
FAQ
mo@@
キャッシュ@@
点検
積算
飛び@@
CD@@
パースビュー
多項式
Rec@@
VB
つた
イネ
ウム
シェイプ@@
甲@@
魅力
MPI
SR@@
アルブミン
日記
泉
飲ん
出願
水道
BP
Column
Ge@@
sh
ダン
Pa@@
ダイアグラム
モル
仰せ
定着
不具合
歩い
まわり
フォグ
乾@@
僅か
終え
放流
通じ
XPS
カオス
ルート@@
学ん
本邦
重い
ナイ@@
余裕
会合
減@@
禁@@
DBA
ゃ@@
アイソ@@
話題
nCache
ε
トーク
折
行なわ
NP
Th@@
〉
ジャー
ラスター
人類
疎
Dis@@
とら
整形
通話
ぷろ@@
エル@@
上級
肉腫
胆道
フィルタ@@
不動産
粘土
通っ
高まっ
Surfaces
取り込ま
技能
最悪
記念
高率
NOx
クルアーン
シャープ
緊張
ACE
OB@@
佐@@
寺@@
鉱物
Constraint
der
ブレ@@
中小
自主
Form
だし
だり
オブジェクトプロパティ
半球
商
DA@@
犯し
秀
聴覚
Dual
親子
Page@@
Real
ミニ@@
姉
鬼
Raman
フェニル
介在
収支
旋回
暗黙
業績
殺
英
¬
基線
昇格
浮遊
穿刺
AND
合体
増@@
関連づけ
よら
アルキル
クイック@@
リズム
事@@
配当
Rule
書き@@
大納言
軍事
銭
アドオン
塗
村@@
瀬
Actions
EL
ガンマ
スパ@@
兵庫
染料
武家
..
Authentication
Support
まるで
アミ
スウォッチ
弾@@
融
SAS
尾@@
差別
インフルエンザ
ステッチ
フラックス
弁済
Clip
("
マスキング
踏まえ
Run
ge
三重
形@@
扱っ
犯
弁@@
突き@@
PR@@
につれ
合致
根治
蓋
風洞
下水
任じ
演奏
納
談
Sales
ナビゲーションバー
奉行
疎水
ボリューム@@
受けよ
脱出
見つかる
BY
ム・@@
印象
遠@@
関@@
130
ClearCase
方策
極限
PATH
盛@@
Do@@
TV
able
sa
タスク@@
任務
電線
Mover
スコ@@
ビジュアル@@
ピクチャ
斜め
Normal
アニ@@
エディション
ファイリング
翌日
行ない
℃，
選挙
部署
TABLE
失礼
権力
隔離
≦
吸@@
希釈
細かい
血行
HCV
HO@@
へ@@
バル@@
マーキングメニュー
使える
しゃ@@
じる
ーション
下方
次@@
db
チャージ
精査
諸@@
get
あそこ
僕ら
洋@@
納付
博物館
告げ
Items
方面
沖縄
火炎
0000
EB
Systems
ロード@@
心筋梗塞
134
げ@@
コンマ
生理学
セミコロン
パーソナル
咳
活発
CICS
Common
DMU
conf
ブレード
掌
越える
して
卒業
売却
EJB
Port
届け出
決@@
=&amp;
しす
リー・@@
中点
仕方
特発
避難
陽子
Password
SID
SMTP
付録
軒
up
中部
咽頭
展示
Le@@
兼@@
平和
武将
肉眼
部下
Na@@
wt
繰り返さ
")
FBI
セイ@@
囲み
屋@@
晩
）:
Ethernet
あり方
アクション@@
スカ@@
靴
CREATE
さく
プリセット@@
MeV
しゅ@@
CB@@
Instance
同社
Extension
SM@@
Track
居@@
正直
足り
TRA@@
σ
別表
頼@@
儀
外し
春@@
MSFC
ただちに
エル
プロトン
納期
Rotation
サーブレット
家系
見かけ
FB@@
Language
ランク
リーフ
任せ
簡素
オーバー@@
授業
棚卸
インダストリ
ワ
切る
震
After
PM@@
学部
AE@@
Protection
下痢
卿
導管
擬似
褐色
ES@@
di@@
あげる
スケッチ@@
改行
磁力
落下
DDL
乱れ
描出
数@@
消@@
ASP
そう@@
パン@@
島@@
利息
易
録画
くじ
インターフェイス@@
テンプレート@@
受け@@
城@@
立つ
造血
作物
同種
知らせる
頚
セレクション
トゥ@@
リッチ
こう進
オキシ@@
メント@@
単@@
退職
シクロ@@
ロス
;'
DG
とり@@
ファクタ
ヤツ
取り扱い
農@@
くし
幕
選ば
QA
kDa
たろ
ミット
塚
肥料
マージン
光度
再帰
枠組み
STP
Shading
証する
参@@
間隙
VRML
xx
レジスト
借り
汁
生長
症候
エントリー
破砕
いよ
取り組ん
123
Bar@@
単なる
屈曲
浦
送受信
邪魔
配電
守@@
曜日
IB
Weights
水銀
邸
FX
仲介
可逆
審議
None
Work
タバコ
清浄
温存
退
興奮
Keys
ション@@
免除
奥
欧州
発明
立てる
1980
こうして
内外
抜@@
逆@@
07
ls
クション
ダン@@
ビューポイント
Ba
はんだ
送電
;%
BE@@
レスポンス
減速
ウォ@@
メーカ
収録
Contribute
ESX
Unicenter
ガー
シル
ワイ@@
充分
冗談
御所
荘園
菩薩
PV
─
てんかん
コンストレイン
保障
林@@
湿
PH@@
TNF
アナ@@
座@@
木造
楽しみ
絶@@
Mudbox
つか
クル@@
ブレー@@
連動
雑@@
Te
ーゼ
不整脈
帝
最@@
詞
ｲ@@
レイヤ@@
守っ
封筒
ERP
インタフェイス
スギ
トポロジー
レプリケーション@@
会え
天平
突@@
LOG
NIC
サポート@@
スペア
歌舞伎
没
co@@
ラスターイメージ
半数
反発
外壁
飯
Line@@
VLISP
およそ
つめ
隠@@
ve
チン@@
ブタ
増幅器
温泉
SL
皇族
食料
すら
アセンブリ@@
予@@
切片
唾液
黒い
system
ツリービュー
トル@@
CUI
Navisworks
dm
ナイト
合戦
結@@
Appliance
ML@@
Virtual
コロニー
ディスプレイスメント
建立
水蒸気
降り
頚動脈
CATProduct
Reset
皇后
LH
トリー
佐
喪失
破線
豊か
本物
Engine
もらい
アーゼ
ゾール
DM@@
マルチキャスト@@
日本書紀
CallManager
ティング@@
トレー@@
プライ@@
小説
送金
Up@@
properties
疾病
祈っ
通称
DCL
EXE
La@@
グラス
シート@@
病@@
脱@@
風力
Preview
Sh@@
アクティビティ@@
トイレ
順次
ControlCenter
GaN
Request
ma
フェッチ
層間
水産
養@@
RFC
VE
持分
敷地
貸
Button
イーサネット
ビルダー
ポーリング
誌
鉄@@
965
load
次項
JAR
NK
深刻
170
la@@
ねじり
ポリマー
態度
捕
白内障
署
訓戒
近づく
Sb
Single
ちゃっ
トランスレータ
広げ
本願寺
GET
Merge
十字
得意
神道
読み@@
つか@@
光合成
大脳
猶予
)｜
fs
そのうち
多分
ぺ
漬
現況
Calc
Expression
囲ん
1988
By@@
HPLC
USER
ぼく
シング
座標軸
方@@
暗く
貸し
進@@
PG
WIP
クイックアクセスツールバー
京阪
問い合せ
Pick
わが国
一元
新種
遵守
Cre@@
ストライプ
宇@@
性@@
植生
上杉
羽@@
Analytic
RI
key
エーテル
ジェーン
プレ
直面
論@@
IO
LISP
いま
アニオン
グラフト
合流
本線
舞台
105
512
MR@@
お父さん
クランプ
ユニーク
共役
カメラ@@
暮らし
最善
獣
発振
インポート・@@
受領
造@@
アンド@@
エラーコード
効
営む
感@@
英数字
香@@
VI
助@@
右手
面白い
Align
一過
中等
深部
相手方
1987
ec@@
すい臓
リマ
動揺
計量
重度
if
六@@
損益
ないし
インテ@@
持株
根本
伴
客観
数え
細分
要望
触
スペ@@
帝国
津@@
統
豊
104
Assistant
コンタクト
クエリ@@
入札
分数
文学
VS
拍
iFeature
ドライ@@
廃@@
遮蔽
ぇくと@@
テイ@@
侵害
地元
望
着い
飛@@
台@@
樹木
盛土
養
並ん
補@@
ﾞ@@
Cost
sp@@
容疑
庵
的確
逐次
Chapter
Collection
UR@@
赦し
乗数
傾き
安心
棒グラフ
焼却
隙間
風速
SYSTEM
努め
飲み
TEM
ハンド
IEEE
ポジション
漁獲
難治
App@@
Google
ゲン@@
サービスプロバイダ
リブ
リロード
ート・@@
主成分
沿い
関白
バウンド
年数
本格
獄
代数
容
記帳
GPO
かり
バランシング
住
海底
DAG
デザイナー
フォーミュラ
ユー@@
天保
貴重
起@@
できれ
インフルエンス
エチル
Ir
ねる
やり方
ッカー
ニル
家督
議
48@@
そば
構@@
CCD
Force
TR
Type@@
ネス
降順
Direction
Record
えよ
ハンド@@
畏れる
選
STM
ジメチル@@
デュ@@
ブルー
経@@
背@@
テスト@@
阿@@
CG
えん
ひ臓
エクス@@
プッシュ
ラボ
構想
源氏物語
PL@@
ボー
穂
AV@@
II@@
Powerlink
タイププロパティ
剛体
坊
Manufacturing
point
オファリング
捉え
暴@@
舞
102
テイク
ニトロ@@
レルム
特@@
資
,@@
Fr
em@@
いただき
すべり
わり
スムース@@
限局
FO@@
PN
VE@@
いくら
サル
ホーム@@
滑
申出
臭
スイ@@
友@@
徴候
腹痛
送@@
フルオロ@@
プレーヤー
受講
水域
適@@
40@@
Ruby
ar
滞在
試みる
Block
OA
ホット@@
双極
決まる
畑
与@@
抄
時効
福岡
フリー@@
暖房
析
薄@@
送り@@
We@@
呼び@@
地質
益
ちょう
アトピー
シア
薬@@
Navisphere
中村
表面積
見せる
Method
mode
「&amp;
社@@
RMAN
なろ
アセット@@
ウェブサイト
住@@
拾い
捕@@
スペース@@
セレ@@
フラクタル
戦後
習得
At@@
Hypershade
InDesign
um@@
変圧
市内
;*.
me
ぶり
イーサネット@@
バル
儀式
CI@@
om@@
カレント@@
ドロ@@
バリー
ワン
存
財務諸表
面@@
50@@
Tr@@
WCS
object
ピボットテーブル
定性的
弟子
接し
水圧
誤
Master
スイープ@@
スケ@@
上皇
人材
共@@
EP
Height
ピリオド
埋め込む
激しい
盛ん
おけ
じん
エイ@@
ッチ@@
フレア
ユーザーズ
厚い
PNG
ょ
シュート
下り
是正
誰か
path
}@@
図表
境
本書
sc@@
タイマー
夜@@
寛
153
au@@
dir
view
がる
けよ
ざ
コーン
ニング@@
メインツールバー
細胞腫
鞘
ソフトウエア
レベル@@
命ずる
宣
脳波
附属
Assets
DT@@
LCD
ぐらい
シリカ
ストロ@@
メアリー
粗しょう
セラミックス
上顎
短@@
貼付
ストリップ
切り替わり
増える
旧@@
義経
っと@@
ベータ
倍精度
取り扱う
塗布
トランスポート
借用
孝
降雨
偶然
発売
id@@
公衆
款
班
順調
まら
オーサ
丸め
真皮
酒@@
First
ZIP
エア
克服
慣れ
精巣
Convert
バリ@@
ムシ
分ける
準ずる
馬鹿
Match
せろ
キシン
ストリ@@
来院
元号
クラブ
ミュート
ロンドン
ング
向こう
奇形
熱量
物流
組@@
讃え
po@@
あぁ
せい@@
広島
CMOS
tive
シラン
吹き@@
浮上
異物
糞
血腫
カッター
カップリング
敏感
ers
カス
モノクローナル
指令
膨大
苦@@
面接
IR@@
PDM
Points
エッジ@@
シェード
最長
詰め
DI
PSD
over
アイソメ
クリーニング
マスター@@
不信
払っ
明白
消毒
細かく
総額
緑内障
Calculation
潜
甲
雑誌
スイート
協定
撹
残余
筋力
胸腺
臨@@
舟
Speed
quot
やろ
割@@
可@@
安価
称する
聴
dll
みろ
カッコ
ッタ
起算
【
】
もう少し
カリ@@
トポロジ@@
MG
くり
地下鉄
暴露
現@@
vi@@
きたし
ア・@@
ポンド
潮
胞子
興味深い
PRODNAME
SW@@
TH@@
WLAN
ab@@
ぇ@@
刃
涙
kHz
靭帯
ET
アドバンス
プロジェクトフォルダ
リラックス
善い
焼成
"%
ショウ@@
塩@@
引い
引き起こし
のう
アミ@@
石英
因
外形
Gateway
ピン@@
フォトン
中世
保ち
梱
秒間
過ごし
ve@@
ざる
主人
図示
服用
99@@
Context
ぼかし
シグニチャ
ラスター@@
ロジ@@
捕捉
NF
PLC
Summary
おかげ
イヌ
スキ@@
Dimension
interface
ミー
住まい
体外
全長
BE
ge@@
たわみ
ポー@@
毒素
電磁波
TD
フリ@@
次男
離れる
min
new
yes
下層
全知
化粧
小数
屈@@
port
ビットマップ@@
画@@
耐え
PRODUCTNAME
TIFF
UPDATE
イテレーション
ヌクレオチド
晴
送
集まり
SU
The
Vector
java
死に
照度
独特
オル@@
オー
スレーブ
ダニ
株券
痛@@
語@@
***
クター
プル@@
外乱
就@@
TPM
ラベル@@
引く
河内
舞鶴
規程
New@@
Unit
オーストラリア
ベンゾ@@
向@@
本部
減算
LandXML
ks
イニシエータ
巻@@
暴力
着色
開花
SSH
ぃ
サプライヤ
限
Aecc@@
ポリープ
モノ
公布
折り曲げ
持@@
算式
ごろ
動機
徐
証人
長崎
AI
IV@@
LINE
リック
変量
目録
IB@@
プロファイル@@
兵士
広がっ
温水
確信
腰椎
被@@
読み込め
超電導
ッピング
延@@
キン@@
ファン@@
券
頭@@
ｽ@@
クー@@
モン
用@@
素敵
荘
長距離
IF@@
JMS
それほど
文明
ﾐ@@
SCN
ver@@
アリ@@
連邦
mM
かる
カーボン
ケーブル@@
シェア
支え
src
かの
パネル@@
ビール
与
出産
恐怖
成虫
;」
試合
述
Variant
zip
ブランク
代わっ
市街地
覆わ
HSRP
History
Trans@@
hr
癒着
CK
グリッド@@
デルタ
着用
おお
凸
宿
部隊
ところが
ますます
ドラ@@
プラクティス
ポリエチレン
尿素
昆虫
板金
遅
AF
Flow
メール@@
ュー
リテラル
台帳
対抗
荷電
ボード@@
レース
海上
福
遊び
集会
HS
バインディング
挙
臨時
軟@@
Rotate
リレー
収め
抱え
致命
見通し
軽@@
CB
MEP
アルバム
余@@
区切っ
媒質
探
角形
過度
Sets
me@@
ッシング
FDM
ストーン
民族
神戸
財政
連中
陸軍
キュー@@
コンピューティング
参
素早く
自立
訪れ
am
host
mol
sync
あん
しょう
アドバイス
スキャ@@
夕食
正弦
身長
Left
action
華
240
mi@@
ウェブ
ターン
中空
分別
収まる
改@@
調停
降@@
124
ディレクティブ
ピング
尖
左衛門
NDMP
アンモニウム
ペイント@@
平家
短期間
込め
Cap@@
Per
きれい
嫌
禁じ
Ste@@
じゅう
ナノ@@
折り目
支障
鋼管
1986
Duo
ESR
なつ
完璧
抽象
軟
TEXT
アルデヒド
ウェブ@@
プロテアーゼ
取れ
祖父
迷惑
運搬
関わり
Names
こまん
傾@@
燃@@
黄@@
ﾄ@@
Entry
サブディビジョン
後継
理学
uc@@
したがっ
ばらつき
ナビゲーション・@@
基@@
将
幸
証言
ine
q@@
けいれん
ガス@@
媒介
寛永
弛緩
新幹線
母@@
立証
自転車
華@@
近隣
Adapter
Integration
UTF
アニーリング
チェック@@
不当
与信
成り
支払う
白河
)）
Fermi
NE
PER@@
example
インパクト
タンパク質
教会
肘
脱水
過@@
過ぎる
les
コントロールリグ
ピー@@
動@@
嚢@@
導体
立方
25@@
スキー
Velocity
あら@@
エラー@@
サブスクリプション
デプス
ドライバ@@
プラン@@
霊@@
スパッタリング
冠状
折り返し
見ろ
Tangent
Wire
ard
バッチ@@
ロケット
中納言
処する
Inventory
Transfer
おう吐
ウエ@@
シミュレーション@@
ライセンス@@
図@@
恵み
戦闘
推@@
Drawing
short
キン
ゾン
以@@
千葉
営
屋外
昨夜
有機物
気流
笑@@
縞
Custom@@
DIS@@
ent
ガントチャート
バイ
ボイド
ボイラ
リティ
ルック
ログアウト
ワークブック
泡
航
Win
たとえ
まさに
サプライヤー
センタ
ボックス@@
三郎
農家
Down
HLA
PF
kgm
クロロ@@
山城
留@@
眼底
空力
スカルプト
リカ
切り捨て
振興
特
Min
oraolap
よって
スター@@
地帯
汚れ
腹水
色調
Collision
Epma
先ず
狭
見解
Snap
カートリッジ
工@@
盗ん
細@@
BMP
Forms
サプライ
プロキシ
難しく
パーティクルシステム
ーン@@
場面
目指す
製@@
おぷしょん
ドーピング
提起
農薬
Raster
インスタンスプロパティ
ール・@@
返り
EC@@
PCB
ネズミ
領主
Cs
Plan
合せ
西部
首@@
DBMS
セイ
乱@@
化@@
施肥
複素
XL
ふれ
アクティベーション
ドローイング
ポール
伝承
外れ
多次元
胸腔
解い
SSO
ぐぼっくす
STL
傷@@
異種
Feature
Print
ジョイン
チェッカー
位置付け
参議
小計
直角
過敏
露光
Composer
LB
Show@@
ur@@
クォータ
圃場
如@@
揮発
漢
継い
スプール
ーブ
AN
そいつ
パラレル
緯度
速@@
Replace
SAT
年金
性別
盲
聖
呼出し
東北
申告
種@@
Polygon
さま
すごく
バーコード
悲@@
等温
色々
防災
Fields
ニウム
惑星
撃
Br
Color@@
Refresh
いろ
ヒドロ@@
排ガス
生かし
cfg
test
ごみ箱
アタッチメント
イタリア
ベ
24@@
Translator
スキャナ
レンダリングノード
換
貞@@
Com@@
IKE
US@@
ner
国宝
活@@
node
入出力
年月日
評
IPP
くせ
はめ
フィーチャー@@
プルダウンメニュー
復興
鮮明
()&amp;
エンタープライズ@@
オイル
尚
画素
Automatic
Smart@@
Vi@@
ren@@
丹波
各項
民@@
26@@
ごめん
キロ
下る
明るく
脈絡
色相
BIO
WHERE
イスラエル
エリ@@
リブート
内科
堤
手伝っ
揚
新鮮
竹@@
視床
tor
みなし
パル@@
世話
)"
スマート@@
スライ@@
仮@@
思@@
西洋
Bi@@
End@@
わん
フォレスト
取り出す
実効
IgE
var
カール
シャツ
吐@@
High
キノ@@
ディング@@
ヌル
操業
還
)＃
Col@@
NaCl
ヨウ@@
高まり
とこ
グルコ@@
即ち
受傷
耐食性
興@@
Over@@
Parent
Subscription
★
ちゃんと
ストップ
宿@@
所在
逆転
驚い
写
判っ
包@@
運@@
ri@@
ブック@@
PB
まとめる
ペル@@
唐@@
火山
籍
自社
降圧
YAG
護@@
鋭い
集@@
ding
供与
備
散
シャーシ
企画
斉
ﾊ@@
1985
SATA
ment
いら
ナイフ
ピー
撃っ
終末
ィ@@
健
具合
前景
称さ
都合
ガー@@
スキン@@
着陸
宇治
志@@
熱源
節@@
英明
ねぇ
悪影響
泰
粒状
Listener
end
te
七@@
収@@
引っ@@
直下
FP
どうか
エントロピー
商@@
滋賀
送達
遠い
Direct
Recovery
ウェイト@@
大将
念頭
賠償
so
充電
家具
離@@
Emcore
つぎ
復号
志
狂@@
百@@
Assign
Cancel
Proxy
べる
元禄
財団
追放
院@@
pt
しめ
コマンドライン@@
テロ
内親王
起点
関わっ
FE
ぶどう
クラス@@
ホル@@
侍
点@@
カーブオンサーフェス
シーン@@
ニー@@
AB
CHAP
テキ@@
ロッド
智
渡っ
TED
ã
スタンス
ブラウザー
低圧
意@@
疑っ
RepliStor
アクセ@@
アッ@@
ビング
何とか
埋
密着
扉
放棄
聞こえる
薬理
調理
192
SV@@
TRADOS
Th
Utility
ショート
メキシコ
聞け
WD
ホース
マグネシウム
付@@
含水
専@@
弊社
従わ
復@@
東山
ATION
Full
ハイパーグラフ
適
Building
HumanIK
λ
熟
老
負う
Command@@
DX
ELISA
Schedule
Solid
Upgrade
から@@
に当たって
エポキシ
固@@
恐らく
留め
美術
麻薬
Cookie
コンフィギュレーションファイル
ヘア@@
大別
屋敷
暗殺
ｻ@@
ついで
スーパーバイザ
メンバー@@
ーター@@
偽@@
ton
チョ@@
附
;=
OpenGL
VIP
ホスホ@@
婦人
嬉しい
峰
改造
開閉
TION
ぱ
デバイス@@
トリ
後部
梅
GR
イド@@
主観
売@@
後述
米@@
能動
買@@
コピー@@
セルフ
ベー@@
拒絶
最低限
若者
鹿
mi
下降
幼
),
偉力
呼称
埋込み
巨@@
教材
正室
赤ちゃん
TG
ドレナージ
忠実
Cy@@
Translation
コーデック
スパッタ
ぺ@@
ブラ
各自
振り
Free@@
iMate
データモデル
メディ@@
今朝
救っ
行事
配偶
1024
ぃりてぃ
なあ
文法
黙っ
106
Clear
ベクター
何と
品@@
爆弾
視線
龍
ぼる
やめろ
キューイング
ターゼ
内径
押さ
粘着
アイデンティティ
テンソル
下図
瞬時
rep
エルボ
レジ@@
小さ
我が国
装飾
調@@
験
DIC
MM@@
かい@@
チェイン
ワークスペース@@
当たる
(+)
テンポラリ
フィーチャソース
入ら
小路
店舗
減圧
筒
読
SN@@
ra@@
クロー@@
問い
撮像
支店
秋@@
Row@@
ガード
作戦
動い
原材料
慶応
県内
ッチ
剛
女王
庭園
新型
103
MgO
date
オラクル
フォーラム
ボート
前年
弧
AX
ひとり
へん@@
デスクトップ@@
暗@@
フト@@
割り@@
エストロゲン
オーナー
クアッドメニュー
意匠
最下位
マル
喉頭
払い
爪
規約
間欠
すき
ファブリック
名古屋
水田
ワイン
継ぎ
Impression
MRSA
add
mp@@
鉄鋼
すみません
センス
ヒステリシス
細線
軽い
"""
(「」
09
FDO
Finish
ICP
ずる
とにかく
オランダ
ダイレクト
ブレース
層状
SN
SQ@@
nucleus
お母さん
サブディビジョンサーフェス
主任
捕まえ
流し
源泉
OM
Stop
ii
ぞ@@
リアクタ
上手く
憲法
霧
;,
EAP
SVG
仲@@
担体
驚く
鶏
FEA
≫@@
だいあろぐぼっくす
イカ
トマト
幕末
Default@@
Menu
いつか
ぬ@@
ほ
データシートビュー
ビリティ
ミド
伝説
取扱
手作業
療養
Doc@@
SDS
タル@@
ドー@@
不満
徳@@
操縦
not
nsr@@
※
こういう
大豆
庫
話せ
近づい
ニル@@
プト@@
レジストリ@@
広帯域
怒っ
選手
上腕
前記
土木
漁@@
組み込ん
貝
rvt
なんで
アルゴン
ラーゼ
今年
別れ
懸念
化石
本尊
Assembly
ネーミング
レンガ
伴わ
径@@
聴取
+@@
アーキテクチャー
ゲイン
レーダ
亡くなっ
厳@@
発病
薩摩
親切
除算
DITA
アリ
放置
服薬
球形
Apache
Purchasing
調子
負@@
ss
フォノン
傍
官能
正月
範
ビューアー
写し
出来事
撃た
絵@@
遺体
MySQL
まい
主導
乳@@
歌人
Columns
DU@@
cl@@
奥@@
水溶
行方
見積もり
GIF
Hpm
余
唇
小売
知能
禅
Workflow
コンフィギュレーション@@
プレフィックス
史料
希土類
我
支える
放
板@@
IO@@
JCL
box
ケン@@
延期
Ce
げる
コレクタ
スティック
梅@@
クル
幸福
漢字
マーキング
弱く
律令
禅@@
1023
Shadow
Workgroup
アクティビティー
ッキー
マクロ@@
ワークフロー
備わっ
加重
岩盤
特色
簡潔
Base@@
IM@@
LDL
アラビア
肉@@
表情
ウム@@
クローン@@
ハロゲン
全面
呈示
飲む
GP
年生
葉@@
願い
Brush
LL
Metric
ウイ@@
キス
創ら
定足数
DW@@
Maximum
REM
ども
アカウンティング
キャラクタ@@
グラフィック@@
シリ@@
伸縮
冊
利害
換@@
橋梁
沖
点灯
論争
銀河
Monitor
kV
tion
ウォッチ
ジム
リポジトリ@@
付随
実例
決まっ
賢
連れ@@
おか
ついに
エディタ@@
ギャ@@
ビン@@
抗告
折@@
750
DTD
しん@@
バブル
供@@
問
Illustrator
Inside
Midplane
フィルアウン
東部
権威
追求
預言
Fourier
いめ
ラ・@@
何だ
壇
観音
StorEdge
als
滑@@
車@@
ESS
えん下
けい@@
デン
ヒト@@
ピボットテーブルレポート
支柱
標
焼@@
照らし
イレウス
ツールバー@@
ラル@@
報道
父さん
言@@
Administrators
ふっ素
ソフト@@
ドーム
受
長所
PI@@
セキュア
バッグ
マッ@@
離脱
Bu@@
Controller
__
てん@@
のり
ハング
ヘリウム
体温
晴@@
沈殿
組み立て
選別
非破壊
cns
format
セッテイ
払う
椅子
氏@@
玉@@
MassFX
Pa
海軍
都@@
Fast
オンライン@@
スカイ
デキュー
同調
回し
細管
設ける
PV@@
スポーク
ディーゼル
ブー@@
リポジトリ・@@
加速器
始
溶
祝@@
糖類
Log@@
th
グループポリシーオブジェクト
ケージ
サーフェイス@@
ページレイアウト
如何
硫化
首都
Rate
Templates
keV
すま
仮令
俊
精算
DEM
JSF
つながり
ばん
めよ
リストビュー
上がる
上側
上場
先物
受動
戦っ
能@@
薄く
32@@
Values
ses
あいまい
きみ
みな
フィラメント
寮
生涯
Activity
ドープシート
一月
伸展
慣行
職場
運命
Cor@@
Strategic
UDF
ばっ
ジャーナル
モジュ@@
引き起こさ
核種
水面
渡@@
老化
落ち着い
議会
181
CatOS
HF
LPN
φ
ケイ
ロバ
ワークショップ
死因
狭く
福利
Exception
アレルギー性
ユニ@@
主軸
懲役
結ん
美濃
裁判官
警報
Power
Sp@@
乳児
六月
列@@
見込み
Connections
NAP
Task@@
back
パイプ@@
亀
倭
頼ん
(-
1970
Placement
network
もらえ
やか
アプリケーション・@@
休@@
売っ
大陸
電離
ルーラー
喜び
港湾
職@@
NTFS
Out@@
スリ@@
ニン@@
ビル@@
塩分
帰属
Plant
ch
アドミニストレータ
モデ@@
点線
詩
転倒
Execute
NTT
Ta
dbmlsync
~@@
ギ
ナット
併発
容@@
デン@@
ポータブル
伏
露
;。
WiMAX
もたらさ
冷房
助言
外用
小体
気孔
講ずる
鹿児島
ated
キミ
井@@
君たち
官位
OP
Skeleton
温@@
編纂
鋳型
長寿
パワー@@
リウム
優@@
印@@
要点
豆
ミリメートル
なぜなら
アー
プロフィール
人達
名簿
斜体
水路
貨
ﾝ@@
ARP
Available
Finance
Install
Portal
URI
あう
フローティング
ワークスペース
下っ
探@@
物件
細い
締
陵
MOSFET
WebLogic
休み
組み@@
遡及
23@@
Active@@
Rig
UT@@
_(
スクリ@@
下端
倫理
刺@@
:「
PRE@@
ハード@@
帯状
DSR
アルミ
スタチン
ホウ@@
江@@
罰
走っ
70@@
SteeringWheels
ファクター
帽
移
舞@@
読み替える
Developer
Fl@@
SV
コンストレイン@@
マッピング@@
ミックス
難聴
預金
MAP
Wiki
□:
ホン
ヤー
外出
楽しん
静@@
35@@
コヒーレント
平準
生き@@
積@@
立派
Back@@
Poly@@
ical
お待ち
クラウン
救う
虚@@
軟化
Self
yp@@
ュ@@
上回る
中核
副@@
浅@@
Layers
create
tor@@
中継
凹@@
年次
拝@@
指紋
示@@
総称
Dashboard
MPA
Server@@
溶剤
Cal@@
JVM
Win@@
シナプス
スキニング
ストー@@
パリ
ビュ@@
ボイス
液状
鑑定
防護
非難
28@@
Column@@
Reader
Sr@@
あたる
キサ@@
ディー
メイ@@
可溶性
大好き
建造
1600
AES
CSF
Result
TH
θ
じょう@@
旗
洪水
減量
設変
説得
xxx
お知らせ
やあ
希薄
新法
申立
社長
HC
Make
NN
bit
投げ
教室
比熱
目盛
閉じ込め
Factory
γ線
クレーン
チル@@
倍数
大人
講じ
Hardware
LU@@
my
wd@@
えろ
モノクロ
勤@@
払@@
時々
続
縮尺
観@@
UDA
カリフォルニア
ピア@@
ミクロ@@
修
均衡
摩
源氏
ns
xl@@
勝手
嵐
熱帯
陸
FD
ナル@@
取り除く
安静
球面
Car@@
GT
さん@@
インタ@@
プロフィル
促す
名付け
抗議
石川
融点
銀@@
飲酒
oem
クラスタリング
ジッタ
技
正義
確@@
遭遇
BT
ゆう
エチル@@
嫌気
施用
早
楽しい
蔵@@
通気
飾り
Materialized
PAR@@
RIP
sion@@
ギャザー
シング@@
ドラッグアンドドロップ
ルト@@
地中
講義
鳴@@
スクロールバー
ッシュ@@
和歌集
岡山
母さん
Field@@
Part@@
add@@
ディセーブル
ハイパー@@
バチ
レシピ
放射能
聴力
$@@
(*)
SourceOne
山口
幸運
水系
箔
諸島
ﾖ@@
Pi@@
アクリル
ビー@@
催@@
法務省
被告
29@@
Components
Point@@
Region
ase
受理
透
LiteView
Reports
パラメトリック@@
次第
骨@@
ぞくせい
クリッピング
クロ
スクリーン@@
ーズ
刻
鼻腔
Back
Inc
ad
きょく
ほんの
アブ@@
ゼオライト
ロジー
内訳
情
透視
so@@
ジー
ネール
並
嚢腫
福島
算術
ate@@
どう@@
バンド@@
解任
DATE
カルバ@@
レーザ@@
大津
講演
ABC
フローチャート
class
クロール
シームレス
ダミー
借@@
大夫
実機
想
桂
次郎
発し
農村
雨@@
FF
コンポジット
ベベル
ミング
交配
前半
缶
隠さ
Res@@
フロッピーディスク
堆肥
密@@
沢山
iaf
プロジェクトナビゲータ
剰余
没年
滅
Avocent
Jo@@
per@@
にあたる
アダプティブ
商用
白黒
自家
LES
Smartview
ッタ@@
所領
造り
Story
スロープ
ナビゲーション・バー
上手
張り
統治
被膜
κ
らす
オペ@@
ヘ
学的
少@@
旅@@
配@@
ぎょ
ほう@@
サラ
ボーン@@
Do
et@@
ディペンデンシーグラフ
ノイド
パターン@@
澱粉
直ぐ
組合わ
透かし
途上
LOAD
base
ke
」@@
わる
インスタント
スプライス
トル
ヒスタミン
プロモーション
有益
GF
How
WP
ウォークスルー
スーパーバイザエンジン
ティブ
和歌
帰国
申し@@
覧
貯@@
ff
ウス
多種
奥さん
激@@
移し
オートメーション
クライアントコンピュータ
当局
忘れる
演じ
老@@
Event@@
ans
まち
バリア
ュ
注視
習
肥
CEA
PDU
bo@@
ちゃ@@
アップグレード@@
トー@@
輸液
LIST
RR
SHP
html
≫」@@
ライズ
似@@
濃
濃い
蒸留
返@@
FOR@@
only
と列
ウン@@
オーダ
展
悪かっ
王子
聴@@
選抜
DesignCenter
あんな
固形
点眼
略@@
買収
DSP
DirectX
Min@@
フォールオフ
ポイントクラウド
入れ@@
同性
失調
尾張
惹起
昼間
誓う
Ap@@
layer
さら
カルボン
ッシ@@
ディクショナリ
前進
図り
患児
投@@
決
洋
ｼ@@
!'
--&amp;
CAS
OneNote
Regi@@
bmp
オーナ
パッケージ@@
パーティクルフロー
同僚
起こさ
Detail
Sy@@
トウ@@
中国語
争い
帰還
欠け
正方
歩く
歯@@
168
Gy
Row
Tablet
up@@
っく@@
ビルダ
ルータ@@
味@@
商号
気づい
INT
ナン
モール
・クライアント
割付
受賞
越し
高校
ﾚ@@
IgA
Readme
キャッチ
日次
車体
防ぎ
Bar
Display@@
Floor
ぽう
モルモット
働@@
僧侶
折れ線
止血
液化
読み書き
Fireworks
IE
Property@@
Uni@@
Ω
セクタ
彦@@
攻め
路肩
鳥@@
AGV
Router
優秀
冷暖房
街道
農林
Chart
DPM
SUS
TER
web
インディケータ
メン
ラク@@
参与
極大
申し訳
背き
能率
走る
Cmd
TX
ne@@
しま
シャドウマップ
ドレス
リハビリテーション
ローラ
ーシ@@
偏向
内圧
広がる
提携
添@@
終
統制
返還
雅
食べ物
Phone
バッテリー
使い@@
分断
領@@
GD
VoIP
クリン
ヘモグロビン
作者
教徒
昇進
白金
コンセント
スムーズ@@
ワン@@
勧誘
命@@
武蔵
短絡
費目
CUR@@
From@@
ss@@
ィ
始@@
置@@
雪@@
静岡
だら
コウ
ランタイム@@
沈@@
視聴
''''
ょう
ジア@@
セルフ@@
布@@
LCA
しみ
にあたり
ヘキサ@@
三月
水酸化
議事
So@@
ma@@
ラップ@@
捜索
未だ
毛利
無償
脱臼
襲
WMI
_@@
ウィンドウ@@
ナーゼ
ネル
ピストン
授@@
有る
競技
血球
ASA
op@@
プレーン@@
リーク
東西
焼き@@
組版
Map@@
SPECT
da
ow@@
ウォーク
祈り
Chain
Go@@
HB@@
IPR
Override
ZnO
インターネット@@
グラフィ
ッド・@@
上向き
乗り
地熱
大坂
念@@
NM
SPARC
TB@@
VARCHAR
ダッシュ
国司
届け
王朝
脱着
関西
Config
Tomcat
ensis
str@@
tu@@
よう@@
カップ
デッキ
係
尿道
巡@@
思考
用品
DMX
アモルファス
学科
潰し
祈る
話さ
ora
きり
クエリー@@
ケーキ
フラット@@
毎月
物品
降水
GROUP
キャプチャ@@
コロン
フラン@@
支払わ
使用人
発言
ance
々@@
ぐる
みよ
カタログ@@
トリップ
リパーゼ
梱包
熟知
菓子
AFM
ATE
Corporation
FBIK
ICMP
あて
ストック
活性炭
革命
《
ジョウ@@
袖
DOM
field
やり取り
オイラー
ゲ
スプルー
内壁
延性
火力
藻
遣わし
201
mso@@
per
コール@@
シロ@@
伝わる
排尿
罰則
背部
182
SRDF
えれ
づける
スリープ
ブラジル
レンジ@@
匂い
屑
水位
誘@@
面倒
Physique
コロナ
ザー@@
ヒート@@
吉田
喜ん
射@@
新潟
日照
明度
束縛
桃
死者
総計
衛門
請@@
長年
がら
ょく@@
タイヤ
ビード
動か
Faces
Max@@
Ni@@
コンシューマ
コンテキスト@@
ッカ
伏@@
取組み
実務
誤@@
進入
魚@@
(『
Undo
インキ
デフォーメーション
ブレーク@@
偏@@
吸光
役に立つ
陥
ﾌ@@
Gu@@
Notes
OSCAR
be
status
ケトン
ニュ@@
ヒストグラム
引か
毛根
溶血
粗い
重なる
Run@@
ex@@
frame
キャン@@
ハイフン
プ
マイニング
薄肉
うつ
トラヒック
兵@@
司令
敬@@
Editors
Session
UV@@
すり
アッセイ
クタ
ベクトル@@
丁
回っ
奇妙
平ら
等間隔
配色
錠
Cr@@
Info@@
アミラーゼ
イブラーヒーム
シアン
タンジェント
乳腺
致死
見方
越@@
163
Return
どっち
スクリュー
フォト@@
元々
安土
尋問
岩石
桃山
ak@@
error
独@@
逃@@
Intelligence
MODE
UNDO
ごめんなさい
せき
シンクロトロン
プロパティ・@@
始動
小学校
摘
母集団
語っ
車輪
近畿
売り
行き@@
Robot
かかわる
スナ@@
ゾル
プランクトン
亡@@
凍@@
本気
甘@@
破@@
賃金
CN@@
LDS
お話
かた
シナ@@
シルエット
ヘテロ
余地
大いに
帽子
末@@
海面
移送
鍛造
Insight
Polygons
たった
インパルス
Foundation
Shell
Tra@@
adm
ke@@
とく
浅い
遺跡
陰陽
飲料
DO
ff@@
けん@@
レイノルズ
味方
Limit
Mirror
Store
ドックプレーン
ビア
待た
民事
鋳
ir@@
サル@@
マスタ@@
人形
封入
怖い
才能
殺@@
話し@@
麻疹
Right
im@@
いし
かね
ディレクトリ@@
上層
保っ
噂
桜
浸@@
皇女
緩やか
ﾃ@@
Lighting
Ru@@
ld
ふっ
イメージング
コンサルタント
サフィックス
ステント
省エネ
鎮@@
NX
Units
install
one
スペック
チップ@@
清掃
砕@@
立地
船長
セカンダリ
プロフェッショナル
削
220
HP@@
危@@
四つ
字形
引張り
案件
近世
重金属
480
Demand
INSERT
ipt
いか@@
欠如
美術館
荷物
Plug
Sch@@
init
スク
プレイヤー
モジュール@@
債
入れ替え
告知
宗家
照
附@@
model
ショートカット@@
スピナー
バルジ
フェニ@@
ベストプラクティス
依然として
膨@@
Wireless
▲
カメラビュー
堀
屋内
珠
Celeron
Ta@@
とう@@
カタ@@
ダイレクタ
リジ@@
医@@
奉@@
如
意志
戦う
担う
生年
衣服
見出さ
誘拐
課
Hy@@
MFG
》
あまりに
ウラン
キャラクタセット
少額
直感
買う
60@@
Groove
けろ
上隅
代用
山田
被曝
西日本
ﾒ@@
tional
彦
投げ@@
逃げる
OFF
Wi@@
tri@@
クイ@@
ボル@@
ポインター
手がかり
歩道
Print@@
ぱらめ
エア@@
ビーズ
得点
提言
決算
浅
999
Split
モディファイヤスタック
農
Admin
Catalog
ty
インターフェロン
オブジェクトスナップ
コリン
コンター
ダンピング
内臓
測地
辛@@
順@@
BD
Function
Mbps
NTP
Solver
ぶろ
テクニカル@@
ワイヤフレーム@@
視神経
csv
わせ
チュー@@
トロン
バラ
ファイナル
レジスタ
中将
執@@
山形
改修
段@@
消す
脱落
鎖骨
こい
アイテム@@
マツ
楽器
社団
祭@@
胤
FB
IEC
PLA@@
Shapes
Te@@
ce@@
牛@@
釣@@
魚類
EIGRP
Local@@
サジダ
タイプ@@
失い
招く
整復
映@@
毛細血管
1984
Sup@@
doc
メーター
仕える
共用
神経症
脇
詳述
Fi@@
Production
XSL
口径
奏
恩
色彩
ｱ
BN
VIEW
スペシャル
ネート
乗せ
発散
MW
Pb@@
os
レンダリングイメージ
五郎
柳
登@@
福知山
Fi
Off
bi@@
ni@@
ダイ
トラフィック@@
ペレット
仙
撃つ
敬
沈下
集落
All@@
CIFS
DRAM
Format@@
ted@@
がり
プロシージャ@@
ED@@
EL@@
ab
こんにちは
ポリシー@@
付く
偶数
発足
誤解
野外
Documents
Lionbridge
Red
すみ
に際し
データベース・@@
パーティクルオブジェクト
プロパティー@@
ヶ
傷つけ
写像
DES
ッパー
口蓋
唱え
宋
昨年
結構
CuO
Parts
Wi
mr
コンピテンス
牽引
重み付け
飛鳥
MAPI
SG
XX
アテ
グレー@@
創建
創立
発する
神奈川
養成
Cell
Paste
TT
UX
Utilities
are
cluster
end@@
poly@@
つながっ
らしく
アトリビュート@@
ビット@@
ボトル
二度と
供託
創設
手間
橋@@
率い
320
Root
ぶる
わい
アミロイド
イング
オール
単体
荷@@
負け
陸奥
雑
Cur@@
Initi@@
boot
ked
ドキュメンテーション
愛知
油@@
締め
艦
量産
FG
IQ
ITS
hi@@
あとりびゅ
インデ@@
ゲートウェイ@@
次々
病棟
皇太子
種苗
里@@
ON@@
PID
ot
がい
トップ@@
ドック
フェール
幼児
疑似
賛成
CTL
KE@@
LOV
Views
バンク
ミクロン
ラジ@@
尻
振@@
挿管
掃除
更
省力
研
chm
der@@
king
○
スプライン@@
トランスフォーム@@
温室
高価
OF
empp
os@@
pp@@
タル
ピット
ピリ@@
ベンチマーク
マイクロソフト
マニ@@
交雑
供する
倒
劇的
溶質
苦情
配送
高級
Types
access
もともと
ダイレクト@@
ビューフレーム
上り
不服
全域
尽くし
崇拝
沈降
片方
鉄骨
One
Pe@@
Sketch
ker
ω
きのう
クエリー・@@
丈
備える
切ら
Hide
Ref
out@@
マルテンサイト
172
しょ@@
公認
手首
本店
生きる
落ち@@
SmartArt
ふ化
ガソリン
ニュー
バイザー
不思議
姉妹
担っ
神話
臼歯
let
oc@@
せっ
まえ
アップグレード
招集
樹@@
滅ぼし
盗@@
過酸化水素
Keep
Solution
なくなる
コンテンツブラウザ
後世
熊本
菌糸
address
ae
クライアントコンピューター
側壁
Cl@@
Formula
HR@@
さぁ
ゴミ
スリップ
トール
ネーション
プロパティページ
ロープ
住居
内国
功績
継ぎ目
ADL
NUM
それでは
サーフェイス
劣@@
古事記
国道
外交
水深
滅亡
紀@@
至@@
SIM
UP
わす
インタビュー
マンガン
Enabled
Members
Sphere
ou@@
ws
そく
ウソ
噛@@
日射
痕跡
長野
IFC
www
エレクトロ@@
スロ@@
ナン@@
島津
沸騰
起こら
集まっ
OSS
やっと
ウィザード@@
カロ@@
岡@@
セクション@@
テーション
ドウ@@
ブロガー
ロータ
弘@@
籠
結び@@
読@@
迷っ
◆
コリドー@@
不快
剥@@
情@@
様相
況
漏洩
激しく
羅@@
飛躍
Name@@
すばらしい
に従う
プランナ
上肢
分担
改変
着く
藻類
65@@
Adaptive
age@@
アンチエイリアシング
イオン@@
ミキサー
ープ@@
寺社
差@@
給排水
親水
127
ALS
SIP
おかしい
でん
ドライ
リミット
但し
備@@
名誉
御家人
漏出
自由形
高信頼
高慢
Profitability
mass
タクシー
プロテ@@
モルタル
包含
区切る
既
東大寺
極小
Tran@@
万有
叔父
安置
手配
Joint
Tasks
off
red
sm
イントラネット
ジン@@
ドン
ログオフ
小形
徹底
戻ら
狂っ
続@@
覚@@
NOT
old
やって来
アセスメント
フライ@@
マルチビューブロック
右大臣
救@@
海馬
Stream
Tag
ata
can@@
サイ
バックアップファイル
伸張
公平
日曜日
温熱
西郷
CODE
Hypergraph
Top@@
ee
かせ
グラフィー
ブリ
天気
左手
深層
羊
Dynamics
TF
ation@@
スピーカー
ッティング
凝@@
双曲線
如来
恐@@
求@@
瓶
ACTH
Resolution
られよ
加わっ
大社
奇
妃
完@@
覆い
頬
RDS
float
ガイ
ガン@@
フォル@@
全然
歩@@
秋田
衰退
ぉ
アセチル@@
コンダクタンス
マネージャ@@
妨げる
連載
｝
CRP
GPa
Repository
えっ
ボク
リピート
尼
延伸
昇叙
測度
胸膜
茂
軍勢
開ける
￣
sql
いっ@@
エビ
スロー
AG
Cut
Esb@@
コンフィグレータ
テー@@
京極
八幡
現に
AAA
HD@@
KEY
LAP
ol
――
ひと
れれ
アカ@@
フェード
乾
兼任
坂@@
婚
｛
Lin@@
Op@@
VR
database
pre@@
this
パッチ@@
出せる
取り込ん
布地
延喜
自治体
ity
がち
インフラストラクチャー
シア@@
フレームリレー
マーケット
ローマ
割り付け
匹敵
毛@@
逃げ@@
ADM
script
ヘルプ@@
加わる
地震動
教える
死な
為@@
Installation
カク@@
グラフ@@
グラフィカル@@
妊婦
妙
強盗
日本海
破綻
PU@@
Premiere
円盤
水力
Bridge
Browse
FN
Last
Queue
すて
またがる
イス
ゼ
四月
盛り@@
Cube
down
ク・@@
パッシブ
ベント
リガンド
・リポジトリ
在来
財@@
金庫
MRP
part
ならびなく
オリゴ@@
カルボニル
一揆
具@@
凹凸
強かっ
MAR@@
ei@@
lic@@
su@@
併@@
冬季
受精
天下
客@@
摘術
演@@
結び
藤原@@
資する
階級
2950
SDLX
ine@@
コリジョン@@
前庭
思い出し
講@@
EE@@
ce
カード@@
キング@@
データソース@@
ペアレント
リフレ@@
国外
急増
挨拶
Materials
NUMBER
WA@@
ari@@
くだ@@
タッチ
条@@
緩@@
Particles
、&amp;
ッシャー
リジン
・ウィザード
常駐
我が
計数
防衛
･･･
DELETE
グルタミン酸
チャット
レイアウトツール
呼びかけ
多彩
改め
渡り
然
相殺
Ru
ログファイル
喜
多言
横隔膜
非公開
SL@@
ぴ@@
ネコ
マイグレート
リグ@@
レセプター
ヴェ@@
悪意
DELMIA
Style@@
TLS
ig@@
≪≪
ストレ@@
デノ@@
ノン@@
ワット
乱数
天武天皇
幽門
本手
疑
預@@
Batch
LIN@@
Sky
耕
304
Start@@
VTP
ピリジン
営@@
固め
微視的
炉心
育て
象
JT
SW
司法
大内
心肺
恋
抱い
敗血症
母体
純@@
谷@@
MOS
NLS
コネクター
労
掲示板
狭@@
税務
空隙
縮退
DATA
GI
Maps
ケット
ヶ@@
税率
金持ち
Density
ぁ@@
ドリフト
九@@
曲@@
祭り
空中
防火
Release
SOAP
Ter@@
VD
ゲル@@
リポ
刊
害虫
横浜
結膜
計@@
誇り
踏み@@
%&amp;
CenterStage
Opacity
Program
VALUE
ys
この間
すく
ハル
マイナー
卓越
尋ねる
未熟
胞体
院内
龍@@
Total
mmHg
ぐり
ち密
スタートアップ@@
ナビゲーションツール
ニワトリ
ボランティア
ルス
律令制
救助
組み合せ
踊り場
107
;-
Container
OL
cs
かか@@
セッション@@
付し
公害
半角
墨
夏@@
定理
暖@@
曲がり
膨潤
逃亡
ﾈ@@
CEF
EtherChannel
title
めまい
ング・@@
・フォルダ
多大
閉
ts@@
カリキュラム
呼
異動
補修
MTU
SK@@
ang@@
syslog
vis@@
アク
リル
上洛
刊行
半島
大戦
夫婦
澄
種別
86@@
FL
GP@@
KM
SnapView
けい骨
デジタル@@
ミッド@@
接@@
施@@
秘
締@@
離す
DIT
bin
すん
はり
イー@@
キャビテーション
サクセイ
ラダー
不在
夫人
局長
徒歩
欲
点火
講習
ソル@@
挿@@
西園寺
Nodes
ft
ver
レス@@
刺
吉報
貰@@
NPS
REF
ten@@
たて
エスケープ
コラ@@
ザル
セパレータ
トリック
衡
DR@@
Navigation@@
SLE
アンチ@@
ケン
デート
プレイ@@
レンダ
倒@@
権@@
農民
駄目
row
xls
むへんすう
サラ@@
他社
収納
司@@
土佐
恐れる
服従
Effect
Man@@
SLA
SSID
low
グレート
シャル@@
トラブルシューティング@@
プロモーター
中和
創@@
折りたたみ
120@@
上野
出かけ
摂津
改称
新選
機体
番@@
食欲
80@@
BCL
PZT
XPath
コンセントレータ
タール
チュ@@
借方
嫡男
皇位
ｳ@@
Hall
Operator
Station
XSLT
アドバンスト・@@
ダイア@@
パイ@@
出雲
指名
特急
経年
And
Elements
Memory
Simple
あい@@
オプ@@
デバイスドライバ
トンネリング
ビーコン
熟練
象徴
踏@@
頚椎
7200
CHAR
Development
Eu
Hsf
rdsh
ジョー
ワークベンチ
契機
守ら
沼
流派
貸@@
除@@
魔術
34@@
DX@@
KDE
run@@
コル@@
ベジェ@@
レストラン
切り取る
無秩序
矢@@
長州
Fluid
Links
OracleAS
Screen
level
そうした
スムージンググループ
フト
昌
終わら
210
FROM
MF
Variable
にくく
ソーム
ュー@@
手前
組ん
覚醒
音量
ADDM
ECAD
files
ウォーター
ブチル@@
一端
不整
救命
日々
水槽
溶射
進出
1800
Ant
Du@@
situ
しょう@@
クラスター@@
ヘイ@@
ホップ
ンク
弥@@
急冷
摘@@
玄@@
EPS
Of@@
TN
ho@@
エピタキシャル
ニス
パース
ビヘイビアー
ヘノ@@
レンダービュー
作家
文政
copy
pthread
パリティ
即@@
昇
易い
皇室
砂糖
綿
LOD
Pivot@@
WSS
ライター
先日
公益
埋める
心身
減り
見やすく
貧@@
Float
TL
インドネシア
ダスト
ピロ@@
人員
利尿
実地
結成
育@@
Mg@@
Of
をもって
んで
キレート
リソグラフィー
故
正味
海綿
狙い
由@@
虫垂
透水
鯨
100@@
EN
ments
オーバ@@
フライト
ベンド@@
リム
基部
寒@@
所持
育
AV
BU@@
CMP
Dec@@
line@@
クォーク
ファーディスクリプション
要る
農場
lock
ぉ@@
アプレット
エジプト
スタンド
ツールバーボタン
ビート
上司
円グラフ
同盟
寒冷
軍隊
ﾎ@@
Technology
select
tr@@
オーステナイト
ジェネ@@
スケッチジオメトリ
スリット
ピボット@@
プレー
リポソーム
下面
卑@@
揚げ
葛@@
Clusters
map@@
ギガビット@@
デタッチ
且つ
丹後
整流
東京@@
業種
納@@
裁@@
読者
陥っ
1100
BPDU
MV
ru@@
そうね
スタブ
ハッチング@@
ビューウィンドウ
マグニチュード
優
地層
忙しい
開拓
飛散
108
Copy@@
DAE
VM@@
せつ
エレクトロニクス
クッキー
コンサルティング
スレッド・@@
マス@@
メッセージキュー
ロース
縮@@
習@@
貫@@
33@@
pi@@
ut@@
スタン@@
巻き@@
漸近
省@@
読替え
魔法
If
Linear
ber
いち@@
ポスト@@
主催
当たっ
征夷大将軍
慶@@
焼鈍
虎
Year
tic@@
ゆく
らか
フォワード
マテリアルノード
ンジ@@
敷
格@@
胸水
脳卒中
革
IgM
Plan@@
Soft
do
シーム
スポー@@
チア@@
ピーター
光化学
服@@
水性
濃淡
真言宗
陽@@
Customize
ence
update
コロイド
タグ@@
概算
藩士
Creation
EB@@
source
ちゃう
なかつ
アダプティブ@@
アルキル@@
サイズ@@
比べる
DSN
OT
あたし
チョウ
ホ
冷水
境内
拡幅
腰痛
贈@@
720
スーツ
左大臣
散逸
真っ@@
神宮
総括
ﾗ@@
org
pe@@
ふじ
プリンタドライバ
寸
散在
番台
起る
雲@@
CAP
DV
Draw
LOG@@
TER@@
Unwrap
カート
クリスマス
スラリー
メンバシップ
停電
単調
落ちる
逃れ
115
IL@@
fc
アパート
ズム
センサ@@
ブ・@@
プロダクション
プロダクト@@
何者
入国
動脈血
太政官
干@@
満期
backup
ot@@
インダストリモデル@@
ステップ@@
上空
内面
台風
寄り
気に入っ
深き
発射
目撃
見れ
那@@
SmartView
UFS
サージ
ストン
及ぼさ
本社
査定
気付か
見いださ
連想
銅@@
青年
$&amp;
Analytics
JDK
Translate
led
タイムラインパネル
ベイ
ミング@@
休眠
倒れ
手当
現像
眼科
買い@@
越前
重ね合わ
鋳鉄
雑種
離婚
Save@@
mu@@
イト
ジュークボックス
抗癌剤
財
過半数
Transaction
およぼす
さっき
ハート
ビデオカメラ
乗る
勘@@
Collide
もはや
んと
エキス
スレッショルド
セ
ラジ
嗣
岐阜
潜@@
腹膜炎
詐欺
野球
650
References
iProperty
ia
sub@@
イラン
サイクロトロン
シュウ@@
デル
データリンク
ドロップ@@
他@@
伊藤
兵器
描写
癒合
硬@@
磁@@
脊柱
state
さらなる
ゾ
ビニル
プルダウンリスト
ペイントエフェクト@@
円周
創出
取付け
学問
恵
損@@
架
絵画
肌
%)
183
Contact
Edit@@
Engineer
sh@@
リアルタイム@@
中宮
休
勅@@
我慢
東アジア
湾曲
赤ん坊
通路
高層
Architectural
Re
ber@@
dc
jpg
もり
フィギュア
ポット
ロールバック
慈@@
擾乱
control
ry
プロパティダイアログボックス
レジストリキー
下がり
誠実
"(
Auth@@
COGO
DFS
コバルト
ノル@@
パブリッシュ@@
学術
施す
県@@
筈
解読
質@@
醤油
重なり
｡｣
ｱ@@
DH@@
EXIT
Gauss
service
そっち
ストラ@@
マジ
ロング
安政
宣@@
履@@
点数
笛
縁@@
輝@@
陸@@
きっかけ
アクセラレータ
下回る
便@@
兆
公的
利率
北西
帖
帰依
抱@@
止@@
求
破れ
適性
CMTS
Connection@@
Group@@
VBScript
グル
デフォーマ@@
博@@
大勢
役に立ち
端数
香り
CDP
Enabler
KS
Loc@@
Modi@@
Non
UC
fy
オプティマイザ
クラック
スプリンクラ
バインド@@
ポートフォリオ
マトリクス
別途
取り組む
外注
広げる
机
正中
陸上
Integer
OWB
TGF
Writer
デリバティブ
ビューテンプレート
マイグレーション@@
マークアップ@@
摘除
着手
移住
螺旋
BASE
Computer
GO@@
IPX
Patch
gi@@
イス@@
エキ@@
ネル@@
マイケル
共和
否認
挑戦
普遍
狙っ
管@@
Attach
HDL
YZ
あり@@
下がっ
両手
産地
間違え
餅
Driver
Query@@
he@@
りょう
ユニバーサル
享年
光秀
励振
指@@
法務大臣
用法
聞き@@
貫
AVI
age
むら
スレッド@@
バッ@@
リジッドボディ@@
揺@@
擬
汚@@
点滅
税@@
襲っ
Coulomb
link
width
びまん
トポ@@
一酸化
例示
小屋
延滞
添え
皆様
祝福
約定
草案
藩@@
行お
裏面
サブディビジョン@@
再興
染@@
比重
浜@@
湿式
移り
貴@@
;［
シリコーン
スプレー
ドレイン
一旦
下手
余り
厳しく
報い
奴隷
妙@@
或
135
:%
Alpha
NMO
TiN
∞
くさび
それだけ
サーフェ@@
デュアル@@
モデリング@@
ログオン@@
下腿
井上
崇
廃水
滞留
理念
積雪
考え@@
閉込め
At
delete
param
ph@@
やはり
イラストレーション
ストール
センチメートル
居場所
抜い
碑
組込み
Migration
Seek
Shape@@
bp
オーディオ@@
コールド
不定
困っ
大小
襲撃
輔
URE
Viewport
らく
ヌ
フランク
ヘテロ@@
ペンタ@@
交代
別当
増進
相似
通報
釈放
Cycle
Define
Num@@
Oper@@
Plot
ly
tro@@
オリ@@
スパイク
チャプタ
ドメイン@@
常温
済む
科@@
簿
苦労
角@@
鼠径
Control@@
Read
XRD
ica
なれる
ダンス
ビーム@@
上京
各部
溶存
遺産
音源
Ball
DSC
LOB
VO@@
WPA
reactor
sion
zone
アクセシビリティ
ッター
ファイン@@
ヘリカル
モールド@@
リモコン
了
北米
秘@@
随@@
000@@
10000
CYP
HOME
Move@@
ポリゴンオブジェクト
会長
孝@@
平気
模倣
歩き
賀茂
ADMS
Metadata
UID
coccus
スプリット
ノイ@@
一部分
伸ばし
庄
栄
法定
洗練
玄
称@@
電機
ゲート@@
プリンシパル
修行
氷@@
漏@@
買
送出
難い
550
Har@@
NSR
bs
たれ
タイト
プロジェクション
停@@
厚く
叢
導@@
強固
成っ
掲げ
業法
爆@@
裸
記@@
45@@
Tool@@
disk
ぁ
アセチル
ウル@@
シンク
プレドニゾロン
最中
毎週
耐火
躯
El@@
MPEG
Power@@
Public
acad
ms@@
まっすぐ
シラ@@
セカンダリ・@@
プロパティインスペクタ
ロン@@
徴
推力
救い
迷@@
pylori
write
えら
ぶら
スプレッド
一門
休日
整
近鉄
Me
Tur@@
ビュースタイル
レーン
ローン
作り@@
勅
可変長
売り@@
実に
得@@
核分裂
水稲
潮流
重水素
顕@@
Retrospect
act
ょうじ@@
ジャン@@
スワ@@
マテリアルライブラリ
モル@@
天体
寄
役者
浄土
男@@
超@@
鳴
BCV
COMP@@
Extensions
アナリスト
コマンドラインオプション
ボール@@
四国
洗濯
蓮
鼻@@
DOCSIS
Playback
Tables
ay
ウェーブレット
エピ@@
ディジタイズ
トラック@@
ペット
優勢
奇数
絹
DH
HSV
PAGE
cell
integer
password
ぇい@@
キリスト
ッカ@@
パルス@@
フィリピン
リプレゼンテーション
ワイド
民主
砂漠
累進
繁
胆石
茂@@
表面張力
誓い
鉄筋コンクリート
除け
養殖
device
あく
アフ@@
グラディエント
ソウ@@
ネゴシエート
伊
内因
図書
忍@@
担持
有給
満ち
点滴
集束
230
845
Cell@@
Guard
be@@
ガンマ線
パッシブ@@
ホモ@@
ミック
モールド
中間子
入り口
分ら
怠@@
緒
FI
rms
ばり
クリス
ジル
ファックス
リンゴ
ーリング
三男
寒
感知
渡る
絞り込む
織物
述語
銘
ｿ@@
Card
ETL
LR
font
iz@@
ぷろじぇくと@@
アナライザ
アーティスト
ディスプレイ@@
ヘル@@
ボン@@
ユダヤ
日光
測@@
算入
Acc@@
DSM
Existing
officename
えん@@
エッチ
ブラウザウィンドウ
切り離し
換える
答える
胴体
脳症
3550
Click
ORDER
ci@@
co
ナス
取付
夕@@
嫌@@
弁護
待ち@@
浴@@
説@@
趣味
鋼材
頂@@
Rights
はじめて
ズ・@@
リファイン
厳
型式
賢い
込める
ASIC
Extended
アレルゲン
ジェネリック
セント
取り付ける
寛@@
経度
？"
MHD
Package
Voice
jar
local
アクセント
アンビエント@@
ファミリ@@
ベースビュー
ボー@@
ポリエステル
ループ@@
丹
代償
因@@
宅
往復
応え
恐ろしい
栓
編@@
虹彩
誘引
Pivot
ばい
インテリジェンス
トルコ
ト・@@
傍@@
差出人
引受
捉える
決断
煮@@
CRL
Fac@@
Showcase
Statistics
enable
iam
mail
val
ともなう
グランド
スー@@
デル@@
ヒドロキシ
ボディ@@
両立
北東
夏季
泉@@
熊野
監@@
責め
酷い
DEFAULT
Free
Pri@@
この世
ウマ
セレン
出庫
宮中
後悔
後退
陰@@
CSP
Operation
SMB
label
ビジネス@@
フィル@@
ボタン@@
装@@
Bend
lib
てろ
クール
プロビジョニング・@@
ペルオキシダーゼ
国籍
惑
挙兵
覆う
踏み板
通り@@
ｵ@@
11@@
DSCP
Duplicate
Font
Fx
TIME
UNC
Update@@
ser
アシ@@
トラ
ホモ
ポートレット
マラ@@
向く
商人
放っ
狭心症
白熱
費やし
もうすぐ
アドバンス@@
エー@@
コンピュータ@@
プロト@@
リュ@@
内大臣
割り
薄板
語る
読み取ら
飛ん
2500
Cache@@
Mn@@
PBM
しゃ
どうし
アドバタイズ
スト・@@
俗
反し
明治維新
着火
Ce@@
Customer
Post@@
dom
ふく
三好
切替
念仏
掛
洗@@
風車
）;
37@@
dat
lu@@
しよう
りす
ウィルス
デオキシ@@
フード
噴出
大手
貴
音素
預託
850
PIN
QU@@
SCC
Wd@@
mp
リモートデスクトップ@@
ロイ@@
再燃
戻せ
甲斐
行頭
過大
ﾔ@@
!--
')
Not
TIN
des
filename
res
アスコルビン
エコ
チャネル@@
ビルド@@
ポリイミド
ラミ@@
ヴ@@
ーション@@
倍@@
太い
幹部
成因
横行
法皇
突入
追
週末
重層
EU
Green
TAC
~~
パイピング
パルプ
ファインダ
ライフ@@
丹@@
乗じ
偏心
判
効@@
大路
蔵人
診察
輪@@
願っ
IES
Products
SOA
bb
iAnywhere
◇
テロ@@
プレイ
レバー
ングル
任官
国会
国境
比叡山
触@@
軟部
!)
Clusterware
Fill
Rep
rf
ねー
アイランド
アンチエイリアス
ターボ
ダブル@@
ラジオ@@
南朝
押出
救済
無形
討@@
追って
雌雄
ORACLE
タイムアウト
ダイアログ@@
モディファイヤ@@
各社
来し
稲@@
護
需給
323
MOD
Primary
Trac@@
mia
♫
き出し
すず
インシデント
ホスファターゼ
レスト
ワード@@
ーム@@
喜@@
尊重
有り
1960
Account
Initial
Loader
MAX@@
With
XOX
check
command
trans
キャンプ
ソリューション@@
トラッカー
付さ
書き換え
満了
硬質
管財
貨幣
Dell
Link@@
red@@
アイテム・フォルダ
セッ@@
リボ@@
報@@
憩
戸籍
掟
著名
警@@
路面
陣@@
Contents
ICS
MF@@
MIC
WWW
サッカー
ソリ
ピラ@@
メル@@
ローダー
交替
亭
対価
従@@
愛する
斑点
朝食
管領
織@@
適する
驚き
Menu@@
RH
gr@@
やり@@
カスタマー@@
チング
プロモート
レイヤーパネル
不利
伝わっ
奏@@
既設
準じ
細部
買付け
鐘
開こ
いた@@
どき
ぷり@@
ティー@@
ポルフィリン
ヤング
月経
男の子
BitLocker
FF@@
Video
おめでとう
ペ
ボン
ポジ@@
ポリア@@
中旬
入れ子
制@@
急行
既報
発振器
納得
見なし
軽く
類@@
）-
AF@@
Reynolds
Rigid
Snap@@
ic
あん@@
それなら
ガキ
応える
爆
計器
軟膏
ﾄ
ゼン@@
六角
十郎
受け付け
市営
継@@
落とす
譜
負傷
返っ
違法
CAL
EMS
Itanium
VER@@
Zone
℃）
かみ
さらさ
アカウント@@
ウォッチ@@
クォータニオン
中立
撮っ
系統的
貸方
集める
dpi
イスラム
ブラシ@@
公示
半年
多神教
密閉
戻れ
校閲
聞@@
誠に
(%)
)-
EGF
Manual
Projection
アセトン
オキシド
ヒュー@@
ブドウ
並み
名義
大久保
性差
旗本
浸出
精神病
練
色分け
適宜
頑@@
Nor@@
SIZE
SMS
なら@@
バスト
ヘン
リシ@@
放す
欠@@
歓迎
沿う
黄だん
ﾃ
JOB
Preset
Quick@@
form
カルボ@@
スケール@@
テル
プライマリ・キー
リビジョン@@
和解
四角
度数
手持
技@@
紙@@
製法
Char@@
Frame@@
LV
PPD
ep@@
いったい
オブ@@
コリ@@
スタンドアロン@@
ブラケット
信心
候
加療
如元
杖
滅@@
牛乳
買い
返事
ASN
Background
Embedded
IX
Stokes
きん
さい@@
はずし
ひどく
・サービス
稲
食塩
109
om
データム@@
ノックアウト
ピボットポイント
交
冬期
利便
波浪
辞任
Stre@@
Sub
Universal
and@@
たっ
ウェイトマップ
エピタクシー
オブザーバ
カルボキシ@@
スクラ@@
ョ
官職
浮か@@
申し上げ
縦@@
112
915
CAI
Double
Tolerance
ble@@
こん@@
シュ
スペック@@
タイムライン@@
パーティクルビュー
ベトナム
互い
優しい
向ける
宮城
応永
脅@@
遠方
36@@
LM@@
Member@@
Ri@@
Sho@@
ling
そりゃ
ふぁいる
ゆる@@
エリア@@
ロータ@@
栄@@
鼓
49@@
ALTER
Example
Send
Torr
WINS
グリコ@@
ビジー
和歌山
堺
夕
模
正解
糸状
象牙
ADD
FAST
KDC
Offline
Poly
RAW
Scripts
UPS
ley
vsintg
メニ@@
予
会計士
住み
呪@@
有線
椎間板
輻輳
間もなく
HBV
LL@@
RMS
Transport
ina
つと
イタ@@
ダイナミックシミュレーション
トレーサ
ブタ@@
ワールド@@
入門
吉野
地殻
封@@
損なわ
牧
益@@
賦課
MAT@@
PH
queue
はじ@@
ターン@@
テク@@
ハー
切れる
天候
寛文
望ましく
柳@@
競@@
CMYK
JumpStart
くそ
くらす
らさ
パーソナルコンピュータ
リニア@@
代々
到来
前日
割っ
勝つ
密教
湖@@
ION
ODP
ck
fication
stat
カルス
ソリッドモデル
乏
大会
平方
胎盤
衛
被災
賃貸借
BR@@
FET
Threshold
options
うけ
さっ
なんと
ぷろぱてぃ@@
ガイド@@
キャパシタ
スタジオ
プレビュー@@
リアン
労務
卵胞
実線
押し出す
根元
阿
Current@@
Fit
Spline
{{-
スカルプト@@
会わ
混ぜ
脳幹
辞@@
黙@@
CTION
Cloud
Hierarchy
Post
TFT
min@@
じゃ@@
なん@@
やく
アナリティック・ワークスペース
トリプシン
プラスミド
反乱
消防
痛い
通電
錯@@
1983
CAA
HVAC
PTH
cMuscle@@
トキシン
ヒ
フェノ@@
下水道
人種
出会っ
治験
腐@@
表紙
試体
運ぶ
Human
SFP
The@@
トン@@
ヒンジ
リジッド@@
体型
審
平等
悔悟
策謀
語り
讃
離さ
ﾏ@@
Animate
DDR
IDS
OU
Vision
わさ
アセト@@
キラル
ストリーミング
モバイル@@
ユース
単色
DAR
NetWare
Qtr
エミュレータ
セックス
トナー
プライオリティ
ポインティングデバイス
ローム
崩御
断続
業火
毎回
見よ
見積り
157
DAT@@
MIME
ND@@
Sm
シェル@@
パイ
パノラマ
ペイ
ワーキング
下旬
内また
出土
巡回
揺れ
殿@@
漫画
級数
腹@@
虐待
FU
For
SRM
Tag@@
Vo@@
ters
トルエン
フラン
住人
俊@@
山科
憲
捕らえ
福井
証書
貌
27@@
Errors
Main
NetApp
ガイ@@
ログイン@@
下地
共生
実在
播磨
発泡
Aironet
AlN
CIP
Check@@
Dialog
Mso@@
つま
らせ
グラフィックス@@
伊達
倉@@
入学
勝ち
引合
情勢
荒
返却
鶴@@
Begin@@
DIR
UP@@
UVs
ative
longhorn
wire
まもなく
アポ@@
インストレーション@@
コレクト
チル
南西
変革
後醍醐天皇
歯肉
陳述
Lab
SET@@
ac
ana
ッツ
ファイナルギャザリング
マグネ@@
マーク@@
リプレイ
及ん
同軸
従え
患@@
戒@@
消息
照@@
ｮ
Canvas
Mark
SEC
SOD
XML@@
ha@@
na@@
おお@@
こみ
び漫
めん@@
スタイ@@
ダイズ
ファイバ@@
プーリ
マク@@
先週
堂@@
戦死
揃える
教訓
答
首相
GRP
MISSING
Multiple
Operations
STATE
まさ
オオ@@
タングステン
典@@
城主
寒天
手助け
操@@
筋ジストロフィー
表わす
Item@@
Sequence
Space@@
TU
YES
アイデンティティー
キノン
クライ@@
トラバース
ネイ@@
下隅
据@@
用地
縄
試
途@@
Discovery
Gd
NI@@
Side
Tekla
あー
アクティビティ・@@
オーバ
スケマティクビュー
ダンパ
気付い
飾@@
(-)
FRU
Read@@
Shadows
とらえ
タブ@@
ディスプレイスメントマップ
プログラマ
使者
太陽熱
峠
師@@
高まる
Engineering
GPU
PEL
Rename
ds@@
ite
space
スポ@@
ホロ@@
ホン@@
付け@@
原型
湯@@
破っ
許す
道長
ﾘ@@
CUIx
Hand@@
Hel@@
LDH
style
チャー@@
ビスタ
半減
幼@@
構え
登
端@@
見地
阪神
CIA
Source@@
til
win
きゅう
なかなか
シャワー
スマ@@
テクニカルサポート
ビュー・@@
ローカリゼーション
器@@
生地
疑問符
社外
遂げ
Db@@
たま
カンスウ
モデルビュー
ラウンドアバウト
不幸
代金
引き出す
彼等
橘
TCO
シャトル
スチン
タワー
バス@@
パートナーシップ
ベス
占
既@@
自信
1868
SAR
SMF
mdb
がれ
エディットポイント
コラボ@@
スレ@@
ッグ
ッパ
ブン@@
ベンダ
ヨー@@
信濃
前線
浄
胴
臭い
試算
酸@@
震源
顎骨
ﾋ@@
12000
MMP
atch
pr@@
step
スライドアップパネル
ニトロ
ラント
賀@@
身元
APP
InP
Labels
ly@@
ギリシャ
スキュー
マテリアライズド・ビュー・サイト
創り
劇場
察
左京
御前
旧法
殺せ
産出
破片
立た
陛下
Digital
Ho@@
Resources
SketchBook
mt
すた
アルカリ性
マニュファクチャリング@@
メガ@@
ルー
乏しい
仙台
壊し
宣下
税額
立案
精細
芸@@
1900
App
max@@
ひと@@
アングル
エネルギ
ファシリティ
フラッシュ@@
ムハンマド
一軸
市川
或いは
敗
樹立
自治
造営
隠居
Mon@@
イベントビューア
ユーロ
レーター
偽り
出頭
吸気
康@@
摂政
糞便
血管腫
錐
($
6500
LONG
stage
サブルーチン
メカニカル
リカ@@
・ジョブ
側近
固溶体
寛政
本堂
痛ましい
補給
Be
CAE
ILM
Node@@
はかれ
インスタンス@@
コア@@
ション・@@
テニス
ハーフ
ヒートポンプ
ピラミッド
坑
忍
文久
能楽
裁定
静電気
55@@
DSL
めにゅ
やり直す
アドホック
バリ
ホント
ライブ@@
上述
値@@
国守
汗
砥石
繰り@@
蜂
誓っ
AIX
Star@@
れん@@
アザ@@
アマ@@
エージェント@@
コークス
切り換え
奪@@
本山
英@@
須@@
;"
Behavior
CRT
Edges
MIN@@
Matrix
System@@
ons
まぁ
シンガポール
スルホン
両人
合法
忌避
怪我
最先端
監事
評議
遺言
＃@@
1982
Bluetooth
Effec@@
Fr@@
Lights
OCR
gate
pj@@
きれ
アクセサリ
ユーザー・@@
伸
鉱@@
Bri@@
Hyper@@
Normals
エクスプローラ@@
グラファイト
ザン@@
困@@
外力
希
抜去
炭化物
観世
足りる
載せ
順序付け
SOI
SSP
VEGF
tions
トランジション@@
リノ@@
代え
古今
待
枯@@
武装
民法
盲腸
管状
="
AML
CSM
Document@@
Geo@@
MetaSL
Nucleus
Setting
mb@@
selected
user@@
創作
勇気
新田
濡れ
相乗
dg
ご存知
グラウンド
ショナル@@
メチ@@
ロック@@
構内
AppForge
BL@@
br@@
エクステンション
クリル
シリーズルータ
データソース
元和
功@@
性的
移っ
稚
育種
議長
Factor
SUR@@
アクティブビュー
オキシダーゼ
ガウス
クロロフィル
チトクローム
トランスフェラーゼ
プロパ@@
マグ@@
モーションキャプチャ
労力
名乗る
変電
式部
止まっ
王国
等号
豪族
鎮静
飲@@
Captivate
Zoom
lib@@
しかれ
せっ@@
そしゃく
カーテンウォール
フロン
ホルムアルデヒド
ボンド
・アイコン
刻@@
思春
赴@@
ESB
LCM
Lite
ha
カイ
フォン
ブン
位@@
園@@
差し置い
律速
後見人
業@@
注@@
紫@@
追っ
雄@@
Child
FW
おこ@@
ふり
グレーディング@@
リフト
地名
池@@
逸@@
部長
題@@
（.
ASR
Filters
RMA
Render@@
attribute
lex
ob@@
っし
ストレート
ボイラー
リカバリー
ージャ@@
一斉
判@@
成体
曲がっ
混濁
笑っ
OID
PAP
なんらかの
スプリ@@
会津
捜し
擬@@
発掘
絡@@
群@@
脱硫
随伴
LF
MediaStor
Pose
あに
サイクリン
ヒープ
マレーシア
リターン
伝染
動静
史@@
床@@
抑
抗力
現われ
確証
背く
試用
重ねる
｡@@
HI
NG
Rule@@
STS
cher
right
アセチレン
オク@@
ヨウ
庶民
親族
END
Monitoring
SCS
light
new@@
たいてい
ょん
ツー@@
フォード
プレフィクス
ミオ@@
向かい
埋設
天台宗
度@@
時に
核酸
職権
限っ
ﾉ@@
Mail@@
Mold
Shade
ary
con@@
アグリーメント
ェ
エミュレーション
エンタープライズ・ビュー
コムギ
ペリ@@
レンダーパス
偶発
創っ
原子核
奪わ
字幕
家電
小切手
捕虜
殺そ
殺虫
警戒
AMD
Toxik
こんなに
まっ@@
プリン@@
ミア
収める
呼@@
府@@
放物線
池田
贈
鉛筆
ｰ
AST
PSSession
Sig@@
ボトルネック
マメ
レター
休憩
敗れ
楽しむ
欠き
淡
甥
継ぐ
義仲
脳@@
ｾ@@
ﾕ@@
22@@
AMP
Complete
ジオメトリオブジェクト
ニド
マニュファクチャリング
改定
斬@@
減っ
滑走
眠っ
運ん
ﾞ
Beans
CNT
Java@@
Mat@@
Real@@
Using
WEP
lin@@
sys
なき
スケッチャー
ホス@@
ミオシン
並進
大脳皮質
宛て
廊下
数々
敷@@
硝酸塩
給餌
迫
院政
MX
ねん
ハッ@@
ライア@@
叩@@
吸水
巻き込み
待@@
燃
Bind
Include
Invista
Scorecard
expression
sm@@
アセンブル
スイング
トップビューポート
メイト
ンス・@@
前腕
劣る
厚@@
名乗っ
姫@@
投薬
架空
次号
税法
裁決
誇@@
Record@@
Spreadsheet
TrueType
day
ぜん@@
ワークフローテンプレート
人的
勝っ
数種類
漂@@
災厄
Execution
Gl@@
Loop
Spring
TOR
open
どり
メモリ@@
不法
処罰
右衛門
基幹
忘@@
清盛
知り合い
触れる
113
Category
SB
go@@
だい@@
アンプ
ウェイトペイントツール
セロトニン
ブース
マネージメント
写@@
式@@
後見
焼失
香港
Tg
Wall
active
やってき
サブオブジェクト
俳@@
全能
少将
珍しい
竜@@
訪れる
貸金
Based
Collaboration
EmailXtender
Productstream
domain
drop
range
どんなに
ラム@@
併合
後処理
摂関
橋脚
足首
Deformers
Draft
Earth
Stage
ノッチ
プラ
ミル@@
准
直さ
越後
量的
高位
ｨ@@
)：
IG
Write
ade
firstref
gg@@
ta@@
use
τ
さく@@
すけ
テンション
フォール@@
ページング
壺
太政大臣
張っ
検察官
注意深く
起立
Action@@
PGA
ウッド
シェー@@
プロジェクト・エクスプローラ
ミルク
乾式
修了
前部
幅広く
平野
条例
没し
002
Generate
Grid@@
Login
Macro@@
dd@@
ness
sch@@
よっ
ダル@@
ホー@@
ライ
ランタイム・@@
リファレンス@@
乗客
専攻
幼生
替@@
期末
木目
積み上げ
給@@
背中
補佐
麺
LO
Sto@@
Tl
ie@@
pro@@
setup
トランキング
ヘパリン
尊敬
幾@@
指図
関ヶ原
かきだし
なくし
アラート・@@
サイン@@
スプライ@@
デシ@@
デフォメーション
ポジティブ
ランド@@
中身
土砂
塩水
星@@
顔@@
Bul@@
Front
PK@@
TM@@
エミッション
ヘルツ
乗車
入り@@
市長
押し出さ
築い
講
豆@@
LPS
MW@@
Reach
Title
cAMP
クラウ@@
シンボル@@
タウン
チック
チューニング・セット
バナー
フィンチ
ヘッダー・@@
役目
迷い
釈
鑑
SPS
Samples
im
シャ
トウモロコシ
バネ
モーションキャプチャ@@
制動
喋@@
拠出
母線
混同
演
結婚式
鈍@@
Deployment
Orientation
びらん
ケー@@
バッファー
勘案
宗派
微@@
望遠鏡
紀伊
網羅
脳炎
裏側
ｶ@@
190
79@@
Outline
policy
よみこみ
キーパー
ヌーフ
バリア@@
ヒューマン
メトキシ@@
予め
光ディスク
処刑
寝る
抜け@@
考
雨水
願@@
願う
飯@@
Trim
UR
ble
そり
ウェル
エンクロージャ
ニュートン
ランス
一行
予知
図ら
圧密
富む
寿司
疑う
祖@@
肋骨
謎
非特異
BayStack
DDE
NEC
save
くも膜
バウンス
メガ
今川
停車
妄想
撹乱
散歩
暇
畳
義歯
銘@@
CPS
Clone
Design@@
Zn@@
ity@@
また@@
ファースト
ヘン@@
メー@@
整え
東海道
消える
立像
脆性
難民
騒動
BA@@
IPMI
pst
り病
エレ@@
シートビュー
スピンドル
パブリ@@
レイアウトビューポート
外周
曝@@
構わ
蝦夷
Op
nHair
タッチ@@
家老
懐@@
戻@@
玄関
胎@@
菜
見た目
見込ま
視@@
負っ
0001
Folders
MBE
RAS
Tab@@
Visible
cmd
order
かく@@
ぶっ
グロ@@
スライド@@
ディシジョン
モルヒネ
レット@@
供養
飲ま
）&amp;
PEG
PPPoE
≧
ぽ@@
みなさん
ようやく
ソリッドボディ
ティブ@@
デヒドロゲナーゼ
バウ@@
ピリジ@@
人為
崇@@
挿
陥@@
1981
9000
BF
Blur
Construction
Previous
code
menu
オペレータ@@
ファイルシステム@@
ボクセル
ポジションリプレゼンテーション
別段
勤
変質
文脈
更改
湿@@
琵琶湖
職種
迷う
途
BL
Buffer
Disable
FSB
Journal
Noise
QuickTime
connect
ぶら@@
セットアップウィザード
ノー
パート@@
変速
奇@@
挙げる
独占
病歴
良質
ｷ@@
CaO
Primitives
help
sa@@
ブラン@@
分る
単線
収差
宛
待ち時間
恋人
暗黒
猿
結ば
迎える
防食
高速度
Download
Selector
「」(「」)
たぶ
ゆえ
カーテンウォール@@
コロ@@
コンポーネントビュー
ゴルフ
フィックス
レポート・@@
依@@
俳優
山崎
店頭
急げ
盗ま
直近
譲@@
長者
ﾓ@@
Flat
LRO
Pas@@
Place
めろ
トニー
ハイパーリンク@@
パーティション@@
プレゼント
北陸
害する
当日
掛ける
督
筆@@
致
読誦
論議
電球
CMV
book
fbx
ra
ran@@
インダクタンス
インディ@@
エクスポート・@@
サイレント
ヘンリー
ポリペプチド
ラル
仲裁
加減
回転子
放熱
義満
薬品
Capture
Label@@
ORA
たく@@
アタッチ@@
インベントリ
ダンパー
ユニ
ラグ@@
ラジアン
不明瞭
尽@@
憎@@
本日
英雄
読み取れ
電話機
面会
57@@
GR@@
PerformancePoint
ash
maya
tx
チノ@@
ニック@@
フェース@@
プライマー
ベーシック
三河
不振
人格
大度
対向
恩@@
書記官
月曜日
線@@
調書
警部
蹴@@
ｴ@@
Ag@@
East
GPT
ations
ρ
まずは
シャント
ステータス@@
パフォーマンス・@@
ミュ@@
中学校
伏せ
在住
寄っ
抑止
文部
核@@
歴任
水量
満た
発送
見事
親父
討伐
DY@@
Dat@@
ESSCMD
FRP
GRUB
PWM
Pages
Sm@@
ta
オンサイト
ガム
ギガ
タンス
一生
幼少
度目
最古
湿潤
田中
絶
電鉄
飛
ISL
Rows
State@@
read
sun
んじ
ウェルドライン
カッ@@
ヒョウジ
プリント@@
刺し
台数
局面
岩倉
岳
快速
波数
発話
航行
ECR
Look
SolidWorks
auto
ほ乳類
まさか
イニシアチブ
インタフェース@@
フォワー@@
ローズ
ワシントン
一条
吹き出
烈
無実
臼
興福寺
規範
詰
EXEC
INPUT
PW@@
media
てぃ@@
コンパイラー
ゴン
ダイヤル@@
データプロバイダ
フォロー
仮名
夏期
官僚
探る
給水
胸骨
逆行
違@@
AIR
Dri@@
TSH
raw
とめ
オポチュニティ
テイギ
モールディングウィンドウ
上旬
因果
校@@
雷@@
Alert
Left@@
Team
block
den@@
°@@
あっ@@
っけ
まと@@
オリ
カプ@@
カム@@
デー
一員
今や
励@@
延暦寺
捕食
InterTest
Ph@@
SX
TACACS
Veri@@
Weld
option
たつ
やぁ
エアコン
ソリ@@
取り巻く
構い
災い
空い
船体
蛇
課程
External
HomeBase
ICM
POP
それ@@
アクセラレータ@@
イノ@@
デモンストレーション
ラウ@@
丸み
体長
惟@@
生み出す
訳@@
121
144
IPM
MDL
ORT
input
nConstraint
ν
イオ@@
ディス@@
パブリッシング
ボールト@@
加わり
成型
盆地
絶滅
DTC
EA
Entity
JA@@
NB
NU@@
Rainfinity
il
お茶
ウォーカー
カリ
サイド@@
サマ@@
チョウ@@
体液
当てる
晩年
果物
納め
追討
釘
Bake
CoS
Doppler
Micro@@
WF
ast
core
あたっ
アンギオテンシン
エチレン@@
ブラインド
不確か
侍従
堅@@
招い
朱
概@@
没@@
苦痛
ﾝ
Bit@@
Sol@@
Survey
こし
さし
さら@@
アドオン@@
エレベータ
ギング
コパイロット
コンポジ@@
ペロブスカイト
ミキサ
下回っ
埼玉
壬
推算
献@@
発色
農地
闇
露@@
ﾂ@@
440
Mass
PORT
curve
ianywhere
れき
タリー
ッセ@@
プレイン
ミネ@@
介する
債券
押さえ
極度
泥@@
浄土真宗
筑@@
降
頭頂
飛ぶ
('
CTS
INFO
Netscape
カット@@
コネ@@
サンドイッチ
バラ@@
吊@@
微妙
機材
終結
通院
駒
Phong
Warp
bat
ぜん
インスペクタ
サイロ
セリン
ナイロン
執筆
所蔵
柱状
格差
相棒
緑@@
親友
駆@@
LIS@@
auto@@
character
プログラム@@
ポリスチレン
初頭
憲@@
洲
済ん
確
腐敗
270
DIM@@
GMT
ProClarity
TaskSpace
Val@@
net@@
インバースキネマティクス
ルーティング@@
ループバック@@
体力
俗@@
石膏
羽根
開封
麦
ColdFusion
DOF
Measure
PVI
SPAN
cc
ll@@
→@@
キャラクタライズ
システ@@
パブリック@@
モーションキャプチャデータ
担@@
発赤
皇帝
縫
Database@@
HL
INI
SVC
gin@@
la
とりわけ
グルー@@
ターニング
チャン@@
プリズム
ムスリム
モザイク
ライニング
ラーメン
ルピア
レッ@@
好ましい
広まっ
智@@
Call@@
Imp@@
length
ue
ゅう
クション@@
コレ@@
ビュープロパティ
フットプリント
プリフィックス
レクチン
ローカ@@
伺@@
其@@
原始
口頭
外貨
好む
師事
往@@
柵
熊
逸脱
114
1400
Direc@@
Processor
Styles
Synchron@@
がけ
エアー
オヨビ@@
ゼラチン
フィーチャルール
プロジェクトビュー
リップ
冷泉
問@@
四条
大網
女房
扇@@
手足
改めて
桐
欠か
経理
葬
討論
閉経
SUB@@
Servers
ill
inf
オリバー
オーク
コンソール@@
コーディネータ
ッキング
ハミルトニアン
パフォーマンス@@
メトリック・@@
加賀
半円
大衆
時空
欠く
水戸
硬い
航海
追わ
韓
高熱
131
MLS
RED
SAM
Welcome
Wide
pro
way
η
χ
カテ@@
キャンパス
ヅ@@
パーキンソン
ヘッダー@@
ラッ@@
リアク@@
上陸
振る舞い
排卵
漬@@
焼け
BRI
Discoverer
PFC
mon@@
stop
いただい
おう
すぐれ
乳幼児
多用
燃費
移る
365
Break
DMA
HTLV
Overview
PowerSnap
Project@@
Uniform
its
おっ
さる
ぷら@@
インド@@
インフォメーション
キソ@@
サブスクライバ
ブレンド@@
宣伝
心地
降っ
?」
Application@@
CDMA
Ex
LI
Notice
Vis@@
flow
gh@@
pa@@
して@@
コンター@@
シノニム
ソーシング
ボソン
両方向
勇敢
取りまとめ
工数
息@@
敏
渋滞
発音
確かめる
空気圧
統@@
訳注
ir
sec
っち@@
ひび割れ
アナ
ビジター
ポアソン
内定
宿題
笑い
遅れる
Defined
PPLS
Select@@
ZrO
file@@
top
インタラクション
シリアル@@
タプル
以
放射光
旅客
留保
眼鏡
磁区
紐
絞@@
老年
謝@@
追う
選@@
顔料
119@@
380
Emas
Lotus
SGA
Supply
けれど
ニューロ@@
バラン@@
ビニル@@
リオ@@
リターゲット
レガシー@@
休業
侵攻
協
名詞
吸
神様
総督
茨城
製鉄
醸造
鉱山
食糧
Clear@@
Handle
Precision
Relationship
ach
ばい@@
サファイア
ソルバーパラメータ
器質
声明
奏効
恒久
熱心
記者
輝
4500
Jet
Restore
dit
ザイ@@
シヨウ@@
バーチャル@@
フェル@@
伝来
国連
懸案
撤退
整っ
書籍
申し出
畠山
裂孔
課@@
鳥取
鳥羽
BMI
Compare
Met@@
Pipe
VTune
ns@@
もらえる
イヤ
ゾンビ
パースペクティブ
ブチル
会見
前年度
対角線
潜水
眠
請
90@@
Er@@
Sysprep
essbase
url
カスタマイズ@@
チーズ
ヘリ@@
ユースフ
ランナー@@
ンズ
・ファイル
世帯
位階
嘲笑
穴あけ
試す
122
GRE
ant
flash
sis
アノ@@
インタラクティブ@@
キッチン
キーポイント
ジオメトリキャッシュ
スウェーデン
問診
大した
将軍家
届く
年々
故郷
演出
漢@@
犬@@
頼み
(［
DEV
Physical
WC
コースティクス
テレフォニー@@
ムー@@
余剰
倒し
当てはまり
活かし
生し
賦活
軽微
閣@@
;$
Allow@@
Calendar
iso
はっ
アセ@@
オーガナイザ
ケツ
シリーズ@@
ネット@@
停滞
免@@
内耳
葬儀
造ら
遊走
AO
Ani@@
LI@@
RTF
Widget
うれしい
ちょうだい
ぼっ
われわれ
バイヤー
ルーフ
不可逆
問い合わせる
泥棒
畿内
評定
謀
貧困
遊ん
避
麗
Ab@@
Change@@
IGMP
Ori@@
board
おはよう
オートチェンジャ
カウンター
フッテージ
ード・@@
上回っ
努める
可愛い
品位
国王
度々
応仁
忠告
生さ
祀ら
臣@@
行ける
贈り物
鍛@@
ATO
And@@
Bump
INF
ITY
ふる@@
スチレン
スパイン
ヒップ
ヒョウ@@
ラッシュ
リバースエンジニアリング
丸い
処
反逆
多段
撰
物事
画家
礁
究明
空腹
腐
迷わ
CIM
FCurves
NR
material
タイマ
ノサクセイ
メント・@@
奪っ
意向
是
総量
編入
聞
Constraints
XZ
foo
クリック@@
コドン
セットアップ@@
チオ
ディスプレイスメント@@
ピックアップ
プロパティシート
写本
利子
創傷
単発
后
墓所
幸@@
座席
放牧
緊密
運ば
高炉
ﾀ@@
AUTO@@
Bug
Email
Form@@
HCC
Handler
Last@@
Mask
PLM
Pool
bl@@
lx
ぴ
エンティティー
ストア@@
ストレージ・@@
テール
喉
多岐
恥@@
推薦
林業
決定的
眠@@
証@@
Actual
Associ@@
CLE@@
COUNT
MQ@@
OUT
Path@@
nil
our@@
tab
クエ@@
ネマチック
ユウ@@
レンディション
味覚
招@@
施さ
架設
病原菌
訴える
食用
DTP
READ
Strength
ash@@
count
int@@
re
ref
ジャ
ティック@@
ピル
プロキシサーバー
プロペラ
ライザ
リスニング
健@@
吟味
増設
泊
澤
盆
薨去
鶴
､&amp;
1950
Destination
JRE
smex
かんすう
せれ
エピソード
ボーダー
伊豆
会場
喧嘩
常陸
抜く
握@@
照らさ
目視
突合せ
赤道
;;
Colors
mann
アドレナリン
アルファ@@
システムブラウザ
シャッター
ナマ@@
ブロード
ベジェ
取れる
回る
快@@
本紀
穀物
納税
詰@@
議定
骨組
117@@
AutoGEM
Legato
ょく
ァ@@
アライン
エピタキシャル成長
マネ@@
二酸化
刑@@
垂@@
引き上げ
抵当
法規
禁煙
虫@@
Cloth
Curvature
RU@@
XS
おすすめ
アクリ@@
ケーション@@
作曲
例@@
地蔵
外す
撤回
景色
植@@
率いる
画期的
継が
繋@@
苦
親会社
訪ね
評@@
麻@@
BM
CC@@
Des@@
FIX
HDR
LMS
Preliminary
Roles
iAssembly
トリメチル@@
ネットワークトポロジ
一方向
励磁
拡@@
民衆
狂言
置き換わり
:」
IMS
Installer
Oc@@
PBX
SPACE
mA
ture@@
やめる
ブルー@@
ヘリ
人権
南東
問う
恵@@
書き込め
渋@@
粗@@
脈動
鞭
Error@@
ONS
SecurID
route
あっち
どうしても
なぁ
よろしく
クライアントリソース
ブーリアン
ラテックス
レンダータイプ
乳化
愚か
昇@@
発行済
見出す
路@@
遠ざ@@
鉢
133
7500
Ob@@
mb
non
はね
アーティザン
カドミウム
ゴー@@
ディレク@@
ドーパミン
ハロー
パキスタン
フィレット@@
ブログ@@
亀@@
信玄
切り取っ
動詞
寄付
揺
本数
東海
横切る
祀る
適度
長波
Hot@@
Proven
display
login
する@@
っく
イエ@@
エクスポータ
サテライト
ミン@@
叙
型@@
捨てる
甦ら
雇@@
青森
FLO@@
GB@@
GER
Image@@
Message@@
Off@@
ded
カント
ショット@@
スプレ@@
ニオン
パイピング@@
パーティング
プロパティインスペクター
ヘルメット
後腹
掛@@
日野
明記
札幌
父@@
移さ
糧
統括
討ち@@
謄本
財務省
返る
選出
CLA@@
Can@@
EMA
Flip
SK
Storm
ching
mod
きたす
並ぶ
伊予
元服
半ば
届い
張る
読め
高架
Generator
Lines
Low
Sec@@
Use@@
dd
tic
キョウ@@
ダーゼ
バード
フェ
世間
人質
勇
取り外す
同心
宅地
家屋
張り@@
悲しみ
感性
扇
明智
漬け
粗大
補う
ACK
AliasStudio
Ren@@
WB
しゅ
インテル@@
キャパシティ
スニペット
ノース
ミノ@@
・パーティション
一生懸命
係@@
扱える
茶道
風景
DCO
Emit
いたる
ぇす
くら@@
つぶ@@
アス
クオリファイア
パケット@@
ヘム
ワシ
互@@
合同
差し
平方根
沈
消耗
皮@@
表明
読み替え
陽電子
3600
HIK@@
RPM
SCM
ators
pdf
さい帯
サムネイル@@
ハロ
フォトン@@
ヘッド@@
ポルトガル
ージ
包囲
国人
審理
戒
擦@@
書体
浴び
百姓
誘因
負い
MIDI
PERT
Ser@@
lin
ning
window
アンビエントオクルージョン
エンタルピー
エンティティークラス
シテ
ライド
リグニン
リムーバブル@@
交尾
同心円
採血
揃っ
没収
淡@@
菊
諱
貧しい
Boot
Gen@@
Pass
ct
fi@@
オフセット@@
キャリブレーション
コーディ@@
シャン@@
スタッド
ファイルブラウザ
フィア
ミドル
メソ@@
リーダ
ージング@@
兆候
嵯峨
師範
役立てる
血尿
託@@
賞@@
迫っ
雑草
Constant
OLE@@
REG@@
ROW
Ra@@
ella
emc
ぞう
ほぞ
アイソパラム
アンチ
乾物
奉仕
専有
本名
浦@@
火事
臭気
落ち着け
ﾅ
Cd@@
Commands
Is
Pl@@
Role
VAL
ps@@
くり@@
エラ
シートメタル@@
ネイルボード
バリュー
パフォーマンス・アナライザ
マイト
出来@@
含浸
発想
移す
続発
Curie
Filter@@
International
Marketing
MultiTerm
TAB
undefined
カットオフ
グリップ@@
サブアセンブリ@@
ホール@@
吹
太夫
崩れ
車椅子
閣
降り@@
!!
225
Full@@
IGE@@
Sta@@
TimeFinder
WMS
alo@@
import
℃@@
あては@@
シリカ@@
ドール
ノウハウ
リリーフ
匠
南極
吾妻
将@@
手伝い
正に
沿@@
祭神
菌類
長かっ
騎@@
960
;_
Aec@@
Audio
Lagoa
ROI
ふろ
サブマテリアル
トゥイーン
ドリー
ピンク
フィー@@
中でも
事後
同胞
垣
承知
栄え
炭水化物
生み出し
示差
隣り
CRC
HCl
angle
show@@
ちなみに
つくる
の間
やし
エスカレーション
エチ@@
エナメル
クモ
ントン
充当
刻み
号@@
告示
塾
大学生
微粉
架@@
短所
老中
950
ACIS
FO
Hfm
Quick
{@@
ざひょう@@
シャン
ゼーション
ダイヤラ@@
デュー@@
トランスフォームノード
ヤマ@@
会える
史上
圧下
好ま
悩@@
沖@@
淡色
漢方
移@@
紫斑
闘@@
Play
Renderer
ca@@
gr
surface
きょう@@
じゅん
ァ
アタ@@
ブログエントリ
哲学
嘉@@
帰宅
教員
狼
糊
給湯
総務
重畳
魔女
Buil@@
Model@@
Rou@@
SCL
all@@
cl
どら
アシスト
シース
勤め
枝@@
概ね
歯根
系図
血縁
遣
遣わさ
CMS
Coun@@
Ps
SUM
Stand@@
able@@
qanywhere
って@@
コンポーネントプロパティ
ジル@@
スキャン@@
メッセージング
全文
去り
恒@@
掲示
有罪
死刑
泊@@
相補
脚@@
EF
Icon
Snapshot
image
ok
いこ
ところで
ぬれ
アンタ
キーボード@@
コントローラ@@
伊賀
威@@
官庁
室@@
山岳
引受け
意欲
払
改札
歴代
珪@@
秦
究極
過ごす
38@@
ART
Del
Fabric
PAT
RBAC
Rails
{&amp;
ぃた
くず
しわ
ちょう@@
とい
ひ素
プロセ@@
地方裁判所
地頭
末日
水車
162
AU@@
Input@@
Pack@@
Pan@@
Replicator
グアニ@@
コム
サルコイドーシス
トロイ
ニア@@
フェン
リボン@@
レスト@@
呼気
堅牢
帰ら
忌
抹消
溜@@
潜伏
無力
縫@@
蜂@@
西側
要領
軍人
銘柄
DLName
EG@@
you
どん食
アルドステロン
オファー
クター@@
ダイヤ@@
ボブ
充満
凹
嫁
畜産
襲わ
近所
開通
食い@@
騒@@
麹
Access@@
Bur@@
CONNECT
DQ
ak
auth
pri@@
ウィン@@
エフェクト@@
ギア
スティック@@
トークン@@
ドライブ@@
ピアノ
フタ@@
プロテオ@@
元本
大都市
房@@
整@@
空海
規
麻呂
Border
Hss
atus
きちんと
エイズ
キャッシング
タスクスケジューラ
プロスタグランジン
ルートフォルダ
商売
悔@@
標@@
毒@@
磨
識
CDC
Distribution
FIN@@
Shi@@
ori@@
さび
アイソメビュー
シンプル@@
ニュースレター
フランジ@@
刀@@
幹線
故@@
流れ@@
税制
精通
給料
総説
菊@@
随時
Advantage
Arg
Director
MAP@@
Mouse@@
Swit@@
Transparency
atm
cy@@
gen@@
remote
それと
ぷの@@
ぼう
アンナ
イン・@@
オーサリング@@
カソード
セミ@@
フォント@@
ポン
一因
一言
北側
厳格
右京
子女
引き付け
角速度
造成
ｯ@@
1979
310
FR@@
Gb
Graphics
Trace
par@@
ゃっ@@
カンバン
クロマチン
コツ
サブインターフェイス
モーフ@@
乗法
係わる
古来
国内外
打っ
掃@@
斯波
東国
終局
読み上げ
退屈
）＃
##
116
2600
Actor
CK@@
Hi@@
IMAP
INST@@
Wrap
slot
vPro
スパイラル
ブロッキング
何事
内裏
切替え
取込み
捧げ
望@@
知行
絶望
股
輸@@
遷延
ｹ@@
mer@@
process
かご
エネルギー@@
フーリエ
プロセッサー@@
任@@
側@@
座金
探し@@
栄養@@
連立
邪悪
Build
Hg
MG@@
Mid@@
PDA
Platform
WB@@
cis
num
run
trace
サイクル@@
ジョージ
ネガティブ
ネットワークトラフィック
モニ@@
之助
入浴
堅固
奥州
守れ
崩
有理
朱@@
煮
行間
鍋
CGM
Fortran
UE
amp@@
pc
ゥ@@
ビューモード
プローブ@@
ペイントエフェクトブラシ
四捨五入
巨視的
用具
紫色
絞っ
踊り
風邪
Kit
Market
mW
project
いたん
めぐる
もの@@
アノード
インターロイキン
カロリー
グローバル・@@
スキーマ@@
スポイト
ズームイン
ダニー
デフォルトゲートウェイ
パラジウム
幼名
抜ける
監
腕@@
読み出し
赦さ
(#
BLOB
ECM
FL@@
FLA@@
MvPart
Related
UT
イラク
オレフィン
コーナ
ブラウザ・@@
ブレンドシェイプ@@
ベイ@@
・ビューア
下がる
傘
出そ
副産物
同族
大谷
稲妻
経歴
身性
BB
are@@
オウ@@
オキサ@@
カスタマ@@
スナップモード
パースペクティブビューポート
卵黄
媒
損なう
敷設
評判
貸付
郊外
ｺ@@
DOE
IPQoS
PKC
Relative
Segment
search
アシル
ライゼーション
作為
墨@@
成層
爆破
稿
筋腫
腰部
見つ@@
%、
DAS
STD
TAE
alization
query
ぷしょん@@
らっ
ステー@@
ティア
デバッグ@@
デュレーション
ヒーロー
ピボット・@@
リピ@@
三浦
付き@@
切り取ら
前もって
思い出す
掘
火花
申込
町村
皆@@
線型
辿@@
達@@
食餌
420
Address@@
COPD
FFD
NTSC
Sort
av@@
cache
ini@@
ound
read@@
tree
イミ@@
サブクエリ
スイス
ファイルシステム
ファクトリ@@
マリ@@
囲@@
木製
転任
領地
7000
FAT
Λ
じっと
カバ@@
シンチグラフィー
ドロップダウンボックス
大宮
病的
隙
高知
Disk@@
IST
ObjectARX
PRODUCT
Thickness
man@@
うそ
つな@@
ウォルター
ウォレット
キーストア
ソルバー
デリ@@
ヒョウジ@@
卒
帰
当期
態@@
消しゴム
留まっ
目安
称号
脱臭
腹壁
辺@@
造船
ｺ
8000
Adviser
Criteria
EDTA
Facebook
HUD
ear
export
tho@@
エド@@
カリキュレータ
ジェット@@
セグ
チェックサム
ナレッジ@@
ネットワークレンダリング
パラフィン
ビリルビン
プラス@@
マニフェスト
催告
冷蔵庫
告
小児科
忠誠
槍
気づか
近づける
邦
頑張っ
鹿@@
126
CAL@@
Falloff
SYS@@
UA
ex
ure@@
うつ病
かき
たべ
もた
キサン@@
スカルプトツール
スプリット@@
ヌス
バックグラウンド@@
ボディモディファイヤ
モーフ
レンダリングマテリアル
兎
大師
大理石
扶養
期首
辻
難病
Custo@@
Fin@@
MENT
PAC
Timeout
cnmk
じて
つけろ
コマ@@
トランスレーション
マラリア
役立た
振舞い
早朝
映
目立つ
算@@
肺@@
胸@@
見せ@@
許@@
返済
騒ぎ
AFP
Clo@@
Displacement
Font@@
Serial
Series
Sun@@
Xe
button
グロー@@
トレイ@@
パブリッシャ
レベルリプレゼンテーション
北京
深夜
胸壁
落語
走り
AH
OUT@@
POST
Slider
ams
rfa
support
「%
いり
かめ
こく
ふく@@
サンド@@
シグナリング
スプレッドシート@@
パッシブオブジェクト
リアクション
一説
初心者
尽力
帰着
揚力
新案
普段
淡水
疑@@
艦隊
近藤
釣り
響
駆使
203
Defin@@
IK@@
change
cu@@
the@@
こり
イング@@
クラン@@
サウ@@
サークル
ツアー
ユーザインターフェイス
ユーティリティ@@
予報
佐賀
分析計
売る
寄生虫
山名
投射
月次
滝
給電
胃腸
蓄@@
酢
3500
ALT
DPI
Lattice
NetBIOS
SPDesigner
Wallet
ali@@
attr
gp
lister
modem
エクスペリエンス
ディス
ポル@@
反抗
味噌
熊@@
線上
練@@
豆腐
転じ
LAYER
Logic
Ratio
array
member
×@@
かぶり
ばら
オフライン@@
キーフレーム@@
クアッド@@
シェイ@@
ミジン
天明
安息香
招き
排便
植え
酷@@
錬
ﾍ@@
.)
IDC
Nothing
Spl@@
USE@@
app
sen
おれ
ギョウ@@
ショ
センタク
テーブルビュー
勘
堀@@
尖@@
曼荼羅
正則
混成
留守
白人
瞳孔
突発
蝶
触覚
軽症
輻射
醍醐
閉ループ
類型
INTER@@
Lock@@
Smarts
WWN
ang
かんす
とう骨
ねじ切り
ソリューション・@@
ハイブリダイゼーション
ブーム
ベーション
他者
供用
務める
商談
桓武
漏
琴
磨@@
紛失
締め@@
翁
胸痛
ｼ
Delete@@
EMI
FrontPage
Gener@@
NL
Non@@
Ox
Schematic
UGS
ings
ins
nsr
ok@@
ましい
インテグレーション
シカ
レンダーレイヤ
付帯
危害
埋立
快
最少
病状
相模
笠@@
親指
諸説
近づけ
1978
CMM
DTrace
Pol@@
ない@@
エディ@@
サードパーティ@@
スピーチ
ツールパレットグループ
ドラフト@@
ピンチ
ポップアップ@@
モリブデン
優れる
充足
劣っ
双@@
山々
破滅
祖母
)、@@
ABR
Cyclades
DIM
Find@@
GN
PAS@@
Person
Pu
Str@@
くえん
アウ@@
アウトライン@@
アニリン
インテル・@@
エンタープライズインダストリモデル
ガイヨウ
シクロスポリン
スルホ@@
ドラゴン
プロファイラ
マスカーブ@@
ルド@@
レイアウトグリッド
団@@
圧倒的
執り@@
報復
捕え
求償
積み@@
類する
｣(
ICU
IPS
JScript
PWR
column
print
qu@@
スピーカ
デジ@@
ポリシング
マウス@@
代り
促し
悲しい
迄
139
Fire
KCl
カーテンウォールユニット
ソウ
ディー@@
レイアウトタブ
之@@
存@@
巨細
禁
繰越
載っ
送風
810
Bl@@
Devices
IGF
SCD
いんす
か国
なるほど
ゲイ
バッファ@@
フィニ@@
フリーフォーム@@
不自然
九条
取り戻す
壮@@
天地
延べ
日蓮
景@@
航法
遇
Drive
FAC@@
LWAPP
log@@
mutex
そろそろ
ダイナミクス@@
ピッ
値段
前田
取り出さ
奪
実生
州@@
引渡し
洗い
見なす
67@@
Emitter
Micro
PMMA
Pixel
STREAMS
Topology
XBRL
message
pl@@
raid
いかが
エコ@@
ケーション
スティング
前向き
前頭
成し
洗
浮力
簡体
縛@@
話せる
賭け
飛ばし
：@@
APS
Flex
Javadoc
bu@@
windows
くに
インターバル
シェーディングネットワーク
ジー@@
スペーサ
セラ@@
チロ@@
ノルム
ラッチ
ロイ
山間
曳@@
爵
現われる
蹄
InCopy
LIB
env
rec@@
たん@@
アス@@
オープン@@
スクリーンセーバー
スタイラス
スターク
ヒートシンク
ホイ@@
レセ@@
レーダー
北緯
家事
征
拾@@
病死
蹴上げ
MPS
Sa@@
cisco
kb
rpm
sql@@
うまい
くぼみ
ケイサン@@
サーフェスメッシュ
ジエン
スカラ
ダイヤグラム
フォトメトリック
ブラー@@
ポリライン@@
メトリ@@
ヤード
下野
大分
握っ
昼食
癖
褒@@
閥
AG@@
cat
けれども
ぜひ
アクチ@@
ウエア
スラッジ
ライズ@@
下大
事柄
兼ね
和田
噴@@
怪物
扶@@
替
朝倉
淀川
熱傷
発情
舎@@
裁
280
Blue
BrightStor
Documentation
NHK
NS@@
Requ@@
pool
tive@@
おおよそ
インプリメンテーション@@
カイン
ガラ@@
マトリックス@@
ランダム@@
世襲
僧@@
山地
後に
慮
明証
来週
王権
相撲
群落
育っ
金曜日
風呂
260
Analy@@
PW
Toolkit
VER
sales
アミノ
インストールウィザード
オリゴ
サマリ@@
シタ@@
タウ@@
ヌクレオ@@
パブリックフォルダ
プロジェクトプロパティー
墓@@
宮崎
富ん
志向
滅菌
茶色
覚悟
､@@
ｽ
132
MAXWrapper
Pr
ard@@
fps
resource
かわいい
しむ
すり@@
キャベツ
キャンバスプレーン
ジグル@@
トリグリセリド
レンダーノード
ローダ
区@@
同日
埋@@
橋本
維@@
華族
129
1871
Attr@@
Certificate
Events
FCurve
Push
TRANS@@
em
scale
アルツハイマー
クォータ@@
テクノロジ@@
トップダウン
ビリティー
ブリッジング
ホウ
使命
入所
召集
大権
奨励
富山
徹底的
恥
感光
推計
水腫
至ら
落葉
衣装
豪@@
防水
).
City
DD@@
IPC
LNG
Load@@
アデ@@
インクルード
オンデマンド
プト
プリプロセッサ
プリミティブ@@
ベンジル@@
ボンディング
マシニング@@
動員
払わ
旧式
村上
縫い目
論述
1300
Dy@@
FLV
Hit
IFF
create@@
ray@@
スタディタスクペイン
スプー@@
ブートフラッシュ
ホログラム
マルチタスク
有料
泣い
発火
芝
英知
陳
ACF
Budgeting
CHM
Changes
DEC
ESP
Tex@@
pm
ジャーナリスト
パネルメニュー
パース@@
ポリメラーゼ
去年
忌@@
椎骨
細か
胎
通勤
逸話
119
CON
MC@@
SERVER
sl@@
ウィン
ウェア@@
サブアセンブリ
シンメトリ
ジッ@@
ストアドプロシージャ
マックス
伸@@
加盟
却
哀@@
森@@
経っ
育児
ﾆ
118
165
85@@
92@@
HMX
Missing
Mu@@
OT@@
USER@@
ame@@
expr
studio
たた@@
はん@@
アム
インストールフォルダ
インフルエンスオブジェクト
カラーピッカー
コンテナー
チャン
ハブ@@
ホルダ
凹型
坐
小笠原
怖@@
用水
Anim@@
Condition
Owner
Tx
UD
VO
Visibility
ads
prt
だらけ
ザ・@@
ドーナツ
プロテイン
安い
対面
桃@@
災
祭祀
築@@
純資産
菅原
豪
ｵﾄ@@
0000@@
Case
EPMA
Lightweight
Pre
Spread
Structural
particle@@
お腹
みれ
ケート
ゾーン@@
ハロ@@
ブラックホール
プス
ミュー@@
リレー@@
仕業
切腹
参入
同化
囚人
孤独
定規
期@@
深め
磁率
穀
自害
迷走
駿河
---
1869
Cross
Fil@@
MPx@@
Maker
PSA
RTP
Specification
くう
はく
オキシ
クレジットカード
シグネチャ
スタイルプロパティ
ディフレクタ
フェン@@
フロント@@
ベクター@@
メタデータ@@
作り出す
例題
充
和物
岩手
彫刻
琉球
疑わしい
祐
腔内
232
Light@@
MBean
Tele@@
UI@@
clear
filter
mer
ser@@
いただける
アソシエーション
クラウド@@
クワ@@
グリカン
タリング
テストステロン
ドラマ
ナム
パスワード@@
フェルミオン
モチーフ
前頭葉
大宝
引き受け
復讐
敷居
朝鮮半島
欧
汚濁
真ん中
礼@@
私的
Firefox
Horizontal
PCM
Static
ふさわしい
ろう@@
コンフリクト
テント
トレランス
ハリ@@
バエ
リズボン
レイアウトビュー
付か
冠@@
分子生物学
厳重
叙せ
柏@@
洗面
直方体
立ち上がり
406
Accept
POINT
RGBA
RO
Rh
ep
ぁいるの@@
すむ
アム@@
オクタ@@
ッキング@@
デザインビューリプレゼンテーション
ポーター
ミリング
元来
婚姻
実物
本当は
杉@@
横線
歳@@
無菌
立入検査
転化
鋭
閉じ@@
黙れ
CER
Ol@@
Sync@@
application
iLogic
ウォー@@
エアターミナル
ジョイント@@
ドゥ@@
ドラム
ナビ@@
ブラウ@@
不動
代行
及@@
嫌っ
弥
東南アジア
留学
臆@@
話者
88@@
Analyzer
Init
Period
Sal@@
Solutions
Toggle
WT
mgr
ox@@
クサ
バクテリア
フォース@@
レイトレース@@
レー
ワトソン
一体化
借
大まか
恋@@
濃@@
篠@@
荒削り
説い
跳@@
頓
頼り
CrowdFX
ESS@@
FT@@
HV
RSP
tt@@
まつ
アセチルコリン
オーバーモールディング
テイ
ネーム@@
バリウム
レプチン
也
云@@
五条
公方
刈@@
受付
圧痛
埋葬
太鼓
始末
潮@@
物資
田舎
農産物
返答
509
Audit
Chart@@
Final
Machine
Wal@@
コンセンサス
コースティ@@
サ・@@
ソーシング@@
マグネット
レンズ@@
一対
光栄
実力
当てはまる
御名
文末
正体
直通
耐用
肝不全
解き
遷@@
配下
DBCS
Exit
Fore@@
VGA
lar@@
module
ven@@
たす
ぷりけ
アメ@@
シンタックス
ジェイ
ソルバ@@
ネットワークライセンス@@
偶像
医学部
厚生省
成就
日程
砲@@
設@@
責務
運航
陰謀
BY@@
Book
Cross@@
KT
LY
ui
またがっ
めい@@
らえ
アスファルト
グリア
サスペンション
ドデ@@
ドレ@@
フェールオーバー@@
リウ@@
レート@@
予言
先祖
切り抜き
国衙
天守
奉
摺
浪
督促
租税
職人
訓
通す
ﾙ
APP@@
Average
COS
CTRL
High@@
ORY
RG
Sha@@
Vari@@
global
od@@
ケース@@
サブネットマスク
スコ
チェーン@@
トータル
プロジェクタ
和泉
宮津
射影
悪臭
気胸
複素数
陶@@
隆@@
02@@
GOST
JNDI
REAP
TEX@@
WebSphere
dialer
hello
ron@@
ばる
カーボンナノチューブ
コンポジット@@
サンゴ
セキュリティアプライアンス
タミン
トリノ
ホールド
ポーラ@@
マップエクスプローラ
マネージ@@
メト@@
体位
宿泊
折りたたむ
控え
欲しく
波状
潔
衰@@
起電
AI@@
Gr@@
Routing
item
tar
せってい@@
エキシマレーザ
グリセリン
システム・@@
スモン
タイトル@@
プレースホルダ@@
ロイド
八幡宮
判事
慶喜
捕まえる
改名
次ぎ
焦@@
笑
英字
詩@@
謀反
錦
阿弥
高画質
175
Anno@@
BIP
Integrator
Roll@@
SPE
String@@
Syflex
TITLE
dr@@
ous
sets
target
てきす
らい@@
オートデスク@@
プロバイダ@@
中国人
冷たい
嘱託
帰れ
打撃
文治
紡錘
組立て
綴@@
習熟
路上
辞職
醜@@
Assi@@
CGR
Es@@
OW@@
RECO@@
Random
Training
lines
エンドエフェクタ
エーロゾル
クライアント・アプリケーション
コレクション@@
コンビ@@
テラス
フォーマ@@
ローリング
一色
抜粋
李
減数
芝居
観客
飼
1975
Activate
Mia
Sessions
TCB
exec
selection
tal@@
くろ
そもそも
オレ@@
スパイ@@
チャーリー
パーク
ホルダー
兄貴
光明
妖怪
工芸
徳天皇
疎@@
笠
融雪
買い物
ﾁ@@
IGHT
MIDlet
Paths
form@@
left
men@@
nt
おいで
かっ@@
カキ
スクラブ
パイプネットワーク@@
ミネラル
出入り
取上げ
性腺
悪事
水流
烏丸
禁忌
走@@
.｜
142
AMX
INDEX
PGE
Pencicle
SNP
ぶつ@@
アシドーシス
ガラクト@@
セミナー
ビオ@@
レンダリングフレームウィンドウ
垂
増分値
把持
数える
母子
気が@@
143
;###
Av@@
Demantra
FLA
ICC
MH
Site@@
Stretch
Subdiv
WA
offset
うどん
ばさ
りゅうと
クライアントアプリケーション
クリーム
セクター
デフォーム
ナート
マト@@
ミー@@
メロン
リアリスティック
召@@
噴火
大橋
対馬
摂@@
文句
楼
著書
街路
近辺
DLC
START
Submit
Targets
ax@@
vs
いかん
どる
アブレーション
カルボキシル
ケル@@
ツリー@@
フィブリ@@
ブリング
メタデータ・@@
下向
天才
巻き込ま
往生
皇太后
積立
穏
証跡
ﾆ@@
Bezier
Block@@
IPMP
Runtime
Unit@@
XR
cr@@
sc
≒
こま
しびれ
アイソザイム
アスピリン
カウ@@
スカイ@@
ツイッター
テロリスト
ドロ
ナビゲータ・@@
マニュファクチャリングアセンブリ
出演
坐像
技師
抑圧
砲
積み重ね
通訳
麓
ﾐ
Attr
Dope
Export@@
Focus
Global@@
Land
Markup
NG@@
NURB@@
OE
PVA
Transformation
asm
ba@@
ery
icon
ize@@
かき@@
しょ糖
シートメタルパーツ
スケジュー@@
ソーダ
トリチウム
ネジ
パーティクルフロー@@
傾け
博
周@@
寒い
察@@
将門
復
聴い
育苗
配し
馴@@
黒田
ORT@@
Persi@@
ec
product
tt
アダプタ@@
グローバリゼーション
システム・ビュー
スタン
フォローアップ
ボストン
争っ
企@@
原文
夢中
平安京
怪@@
書物
溶化
蒸@@
誠
賜@@
Generic
IDD
RV@@
Rayleigh
Visor
Xl@@
とけ
ギャング
ネック
ンプ
一家
合せる
吸い@@
多面体
歓@@
漆
竣工
辞退
飛しょう
)｡
46@@
Blinn
Creator
ECC
HY@@
Ray
ading
pg
sd@@
さき
だけど
ちょっとした
つの
みこ
やむを得ない
シンターゼ
ッサ
ノブ
ピエ@@
ポリプロピレン
劣
塗りつぶさ
失禁
孤児
描@@
法案
泣き
清和
肯定
蕎麦
警
頂上
Baseline
PLO@@
Radi@@
ating
ev@@
サーバー・@@
ッシング@@
トカマク
ファイナルギャザー@@
ファイル・@@
休ん
撤去
浅井
渡
辺り
,"
Ci@@
EST
Enter@@
FDDI
GlassFish
Por@@
dot
iCopy
obj
tool
お話し
ほん
やりとり
コンバ@@
シスプラチン
スタック@@
セーフ@@
ッピング@@
データムカーブ
リソ@@
上人
化膿
去
叫ん
宝永
書き込ん
準@@
田辺
肺結核
Er
Mapp@@
Sculpt
session
おこなっ
おぶじぇくと
アクセプタ
ゲートウェイ
スタイリング
ゾン@@
ダイナミックス
モデルジオメトリ
ョウ@@
三種
値する
外見
市立
幽玄
於け
束@@
照らす
骨髄腫
］@@
QL
Scope
Special
yo@@
しん出
サク@@
スミス
チェン@@
ナ・@@
パニック
ブリー@@
メカニカル@@
ンド・@@
上演
個所
出会い
動植物
女御
小麦
規準
026@@
BMC
FOR
Foot@@
HIK
Privileges
Route
Tutorial
WG
dsmax
eu@@
ics
ne
ゅうり@@
アイ
コードセット
サーマル@@
ショッピング
スプリッタ
チャンネル@@
ヨード
伸ばす
恒
甚@@
絞
近親
通行
鉄鉱
雇っ
3750
AuthenticationManager
Continue
PDP
Payments
Product@@
jsp
こうしん
なめらか
コンパクト@@
コードビュー
ハイエンド
フェムト
ブラウン
ホームビュー
マッパー
ミスター
モア
ルックアップ@@
外気
子葉
愚@@
打ち上げ
掛け@@
洞@@
病害
言お
読ま
趣旨
錠剤
長老
LT@@
Mac@@
Pattern
mV
mk
ぐりっ@@
アセンブリー@@
アラン
インプリ@@
ジュン@@
ストライ@@
ニコ@@
フラ
ワークシェアリング
乾せん
今週
周知
天国
成り@@
指輪
気の毒
溺れ
群馬
腔@@
転がり
食生活
815
Class@@
Dele@@
Emdw
Fo@@
PROM
Rb
SB@@
ai@@
cm@@
report
start@@
すく@@
まずい
サブジェクト
ジュール
チオール
ブラウズ@@
マテリアライズド・ビュー・ログ
ワープ@@
仙@@
入社
公称
包絡
口唇
夢@@
抱える
政務
浅野
熱容量
略語
病菌
移民
義昭
見積もっ
転帰
1976
Done
JavaServer
LAS
SPE@@
STAT@@
つなぎ
なぎ
ふく射
サインイン
シーズン
レル@@
乳牛
凄い
原油
国鉄
罰@@
芸能
部数
郵送
CPE
Hb
Learning
Metal
PER
aaa
lation
ƒ@@
エビデンス
キサン
コヒーレンス
ターボ@@
チュア
テリ@@
トレース@@
ネットワー@@
フルネーム
リストア@@
下ろし
仕掛け
光通信
化生
執権
征伐
政党
昌@@
月末
本能寺
深める
那
難易
Archive
Navier
Private
WT@@
Wa@@
ras
ware
wi@@
んど
インポートオプション
クルー@@
ルール@@
ージー
中東
利休
台所
搬@@
敗北
版@@
真剣
経典
耳下腺
貼@@
賃
鋼@@
順応
黄色い
CSA
FS@@
QT
With@@
mount
つき@@
エクスポートオプション
エラ@@
キャリー
コンパ@@
ジルコニア
ジング
ノシ@@
ノセッテイ
ハン
バーナ
メラニン
ヤク
リトラクト
ルトン
下す
任期
同母
帰さ
恵まれ
明王
果@@
管制
絞り込み
薄型
詮
GOT
Notification
about
ax
berg
アリル
カイラル
コフ
コミュニティー
サンプラ
スカート
ヒータ
ピボットテーブル@@
ブリッジ@@
台無し
吸蔵
役所
报
短波
赤穂
飼養
鼻炎
ASE
Dim@@
PAS
WIC
component
connection
ide@@
php
profile
お客
にも
やっぱり
エクステン@@
コーム
デザインアクセラレータ
プロトコール
モデルブラウザ
リムーバブルメディア
内在
初発
土曜日
後任
折り
拷問
東寺
泡@@
深海
磁
終える
興行
討ち
鎮圧
Amount
Budget
Diffuse
Quantity
RTR
Relation
Rest
STYLE
def
go
nopage
xxxx
ガル
ハイドロ@@
ビリ@@
フェイル@@
ユビキ@@
下車
倦怠
塗りつぶす
広場
折れ
捜@@
故意
旋@@
早急
春日
書道
治安
炭@@
腸閉塞
落ち着@@
視認
近づき
164
Age
BG
FRE@@
LSP
Pop@@
SOL@@
Twist
Vol@@
XX@@
crypto
num@@
rt
かから
インスト@@
ソー
ラーニング
公務員
占@@
占拠
天智天皇
心血
数個
果樹
演じる
耳@@
若狭
装用
褐@@
賛@@
鈴木
電卓
電灯
768
CW
Hat
Int
PU
SQUID
WS@@
none
ずみ
ガベージ@@
グリセロール
ッジ
ノーゲン
ハム
フィング
フェロ@@
レド@@
及ば
反面
埋め込ん
売春
捏造
果て
混和
漁場
潰@@
系譜
絶えず
赤く
銃@@
ITO
Modifier
TIMESTAMP
mm@@
インタプリタ
ガント@@
サーフェススタイル
シダーゼ
ステン@@
テンキー
ナシ
ブロッ@@
プロパン
メーション
ヤー@@
伸びる
列島
則@@
名目
庄@@
成年
打つ
旋
気づき
法廷
紛@@
融資
重荷
閏
食い
ArcSDE
Publish
Works
exit
section
ste@@
timeout
かえ
こむ
べき乗
フェデレーション
マルチプロセッサ
レプリカ@@
一元化
押し込み
播@@
氏族
法華経
発汗
遭@@
配する
410
ATB
Comple@@
Hello
ROMmon
ame
manager
じょ
コスト@@
シェーディングモード
ジア
プランビュー
ペナルティ
マルチスレッド
ラーニング@@
優性
常用
座り
強め
断絶
暗示
混雑
臥
鉱床
CVS
Chec@@
Datum
Flag
HB
Hidden
JPG
LAY@@
Ne
REPORT
Ramp
STATUS
Temp@@
VR@@
WIN@@
ach@@
sting
ぃる@@
ウェル@@
デンド@@
バックボーン
フレー@@
リティ@@
リーン
仕掛
保健所
半月
書き留め
歌っ
洛
清水
譲位
Cha@@
Cs@@
DF@@
EFI
MSDN
gen
ゆき
スティー@@
センシング
メインメニューバー
モノマー
ルックアップテーブル
公判
嘘つき
図法
大仏
懲戒
昭
砥
CCM
ESD
PCA
Plu@@
SERV@@
SNAP
Sequ@@
VIZ
gu@@
ぇす@@
アベイラビリティ
カ所
グラム@@
スプ@@
タケ
ハンドリング
台車
国産
嫁@@
幸い
柔
機嫌
溶性
着る
路盤
音質
BLE
FY
Gradient
HE
HSP
Incre@@
Lab@@
OL@@
Process@@
Sel@@
VAR@@
audit
free
over@@
xi@@
ぶらり
アオ@@
インストレーションウィザード
シュー@@
データ・レイアウト
バッジ
フィラー
フォーマット@@
プリファレンス@@
レイル@@
ワー
三成
史跡
団地
宝石
就職
屈辱
暗闇
標示
熟成
運賃
題材
骸
138
Br@@
CVE
Date@@
Dimensions
Fillet
Num
ates
ftp
tivity
アポ
カルテ
ギュ@@
グリシン
ジュウ@@
スペキュラ@@
スマン
タル・@@
ディレクショナルライト
ナビゲーションペイン
メタン@@
リアクティブ
リド
二月
侵食
処せ
婚約
屋上
役人
拝
止めろ
河口
熱い
燃え
Apple
HGF
HS@@
OPTION
SMA
SSD
Ultra@@
ick
kbps
spoke
ぃんどう
こぼ@@
アドレ@@
バーグ
ボウ
リル@@
レンダリングモード
交え
反省
売付け
帥
苗@@
賛
進め方
配達
駅@@
黄金
;+
EBM
GEN
Glow
OD
Reflec@@
Report@@
TI
af@@
height
ouse
おん
たま@@
てい@@
とろ
ぶれ
ほ乳
ウインドウ
エイム@@
クランク
ケラ
セルフコリジョン
ダイアログコントロール
プレイブラスト
ボーリング
占領
合図
字@@
弱点
後段
東経
水滴
沿面
泌尿器
父母
相反
繁@@
羽根車
量@@
Hal@@
MOCVD
Pj@@
Spatial
Tax
TimeLiner
Trend
VOC
Value@@
WHO
download
lsp
van
つなぐ
なみ
ガル@@
ダイヤルアップ@@
ダメージ
デカール
マウ@@
促@@
南側
同名
弁論
数理
栄光
生え
留まる
辛い
鉄砲
ABS
PathData
Speci@@
WDM
template
uBR
いき@@
びる
アニメーションレイヤエディタ
グルタチオン
コナ@@
コリドーサーフェス
ショウ
ニコチン
フィーチャデータ
プライベート@@
プラズマ@@
共済
北方
国々
寄進
廃液
易@@
概況
法名
発起人
繰@@
芽@@
話し合い
ｴ
147
CHECK
Drill
PARA@@
QUEST
Right@@
edit
proc
みち
エクステント
カナ@@
カーター
ソン@@
テラ
ニュートラル@@
フィード@@
プラットフォーム@@
一団
住職
偽装
厄介
授与
美人
過料
難波
Beast
Cer@@
Deli@@
Identifier
Implementation
Meta@@
Minimum
Partition
Ref@@
tes
xes
ちょ@@
わら@@
エフェクティビティ
シェーディンググループ
ストラクチャー
ミキシング
ラウンド@@
ラバー
伐採
受刑
喜ぶ
大伴
大佐
感嘆
我@@
概
殴@@
波及
流さ
演説
熟@@
真に
苦しん
錆
640
DIESEL
Palm
Pane
Quad
RDBMS
WR
じき
じん@@
たばこ
クラッド
クロル@@
センチ
デマンド
パフォー@@
マテリアライズド・ビュー・グループ
ラクトン
大蔵
幽霊
広大
弾丸
応援
慣習
捕まっ
枠組
浪士
環境省
網状
隻
ﾙ@@
CES
CMC
IMA@@
Resource@@
TextRange
WN
acy
car@@
hosts
lan@@
nn
イエス
シス@@
パッケージング
ビットマップファイル
ブス
ヴォ@@
信じ@@
前段
取り入れる
愛さ
斎藤
湾@@
発疹
角柱
調味
譲
騎
黒人
Anim
Ko@@
Mob@@
Promising
Surface@@
TIVE
lu
myDocument
がし
ひき
ひん
ぼり
キーイング@@
ダンプ@@
マスク@@
敬意
灰@@
狩野
脅し
行程
衛@@
講座
BAR
CRE@@
Configur@@
DISPLAY
GRO@@
ICE@@
Lookup
MnO
NONE
Search@@
TIL
ca
long
tations
ze
つも
アレックス
カバレッジ
カラム@@
サブオブジェクト@@
シリン
スチール
ズボン
タク@@
ディジタル@@
ビューフレームグループ
フェア
ヘッ@@
ペプ@@
取り除き
基い
撃て
木質
正しかっ
漁
焼い
発声
破り
精液
綺麗
肉体
脳神経
要ら
足場
金利
闘
駆
魔
''@@
ANP
Hps
Langmuir
NEW
RFLP
Sim@@
ジオメトリック@@
スペシフィケーション
スラスト
チオフェン
テナ@@
ドウ
ハウジング
バター
プタ@@
メタロ@@
ョ@@
保温
免れ
広報
引き継が
抱く
明治天皇
毎秒
気管支炎
眠れ
窓口
絶食
親鸞
重臣
雅@@
COM@@
Drag
ISE
Instal@@
JOA
main
public
Σ
いく@@
アパタイト
クビ
コンストレイント@@
スウィ@@
ハロルド
ポイントクラウド@@
ミサイル
並べる
攘夷
敵対
東日本
栃木
民俗
稔
補任
邸宅
高野
？@@
Ambient
Attribute@@
DDS
Fre@@
GO
Join
Transact
XL@@
alt
station
げよ
し好
すっかり
アジ@@
アフガニスタン
オートコンプリート
クレア
グラフビュー
シンチ@@
テーション@@
フィルタリング
地すべり
多目的
小倉
戦前
指先
未成年
番地
秀忠
蜜
車載
運び
865
LINK
NU
PRC
SiH
Sil@@
Spacebar
WithEvents
エンターテインメント
シーンエクスプローラ
ッチング
ファイアウォール@@
フィブリン
マダ@@
マトリクス・ストレージ・マネージャー
メトリー
リムーバブル
作法
四郎
外務
大神
山内
手のひら
持て
排@@
糖度
脅迫
Call
Code@@
FFT
Hyp@@
PKCS
SMP
UM
assistants
output
とど@@
りゃ
アプライアンス@@
キュウリ
ジェン@@
ジョン@@
バッフル
ベリー
作出
依
兄さん
彰
積み
遮@@
鳥類
ASO
Break@@
DRM
IDs
RRAS
SERVIS
Scenario
XSI
fer@@
。@@
とんでも
アップロード
ウェッジ
エレベーター
ヒケ
プロビジョニング@@
ホック
勲
右向き
唱念
山本
延長線
慰@@
折り@@
方形
生母
袴
誓約
駆け@@
鬼@@
（&amp;
1972
FBX@@
Ignore
LV@@
Mc@@
RDF
Walk
inter@@
ory@@
tors
volume
ぐらふ
すか
とっても
とりまとめ
ゃく@@
アプリケーション・ビルダー
コンプライアンス・@@
ジクロロ@@
ジュース
セツゾ@@
ツノ@@
フィレットサーフェス
ホーン
ライセン@@
中堅
切り上げ
削@@
国造
宮家
岐
懇@@
欲しかっ
流す
窮@@
胃@@
遣い
148
430
EX
Levels
MergePoint
Phys@@
Road
ich
≫,
アレ
シリル
スプロケット
テイク@@
デプス@@
ベアリング
リョ@@
レトロ@@
助手
勧@@
弓@@
拒ん
津波
流水
片面
牧草
球@@
破る
落とさ
薬局
追及
遊
電化
顧問
ｮ@@
Binary
Ed@@
FileName
GA@@
IDF
NOR@@
Second
Soc@@
ram
さかの@@
ウェイ@@
ゴマ
ゴールド
デッドロック
ニホン@@
フレキシブル@@
ポップアップメニュー
マンホール
ワーキング@@
半期
取組
啓発
回旋
回覧
大阪@@
奇跡
小便
島根
必@@
攻@@
木津
東側
瀬@@
無知
肝@@
舞う
遠近
陰部
214
254
;)。
ATC
Features
MIN
Maintenance
MicroStation
PCMCIA
PTFE
RF@@
Word@@
fer
fr@@
idw
ring
おおむね
っち
ふぉ
オピオイド
スタンドアロ@@
ターゲットサーフェス
ビッグ
フラーレン
冒頭
悲劇
探知
擁
操
消光
灯@@
烏@@
盗み
眺め
緑化
苔
談@@
AWR
CURRENT
EXECUTE
Reflection
ass
body
cap
xSeries
エキソン
クラシック@@
ゼット
チュウ@@
ヒメ@@
ボーナス
側室
優しく
受入れ
差押
引き受ける
振る@@
毛髪
激怒
特集
脇@@
邪@@
飲み物
APPLY
AQ
COX
Compu@@
KL
Kbps
ONE
WORK@@
bacterium
こと@@
ぷらぐいん
るい
アア
ハムスター
仏像
含@@
塩類
増量
嶋
徴@@
悦
教科書
諦め
財布
面し
1700
Encryption
Expert
Finder
Modeler
NER
Preference
SFC
TAG
TY
pan@@
じっこう
たどっ
てき@@
シップ@@
テッド@@
デカ@@
デレ@@
下腹部
大石
婆
小野
尽くす
山寺
戦場
節減
表わし
身近
閃@@
開山
頼っ
CY
FULLPRODNAME
IME
Other
Ray@@
cable
ppp
sendmail
threshold
vol
アトラ@@
エピトープ
キャパシ@@
シアノ@@
ジョイスト
トレンチ
フラグメンテーション
レータ@@
ージング
並@@
何もの
居所
所管
所長
抄@@
本態
淀
罪@@
自慢
裕福
鰭
)」(
155
Equ@@
GTP
Lambert
Press
RM@@
Scale@@
channel
make
うんざり
シト@@
スキンウェイト
スタンダード
スピン@@
ハイフネーション
フルオ@@
ヤギ
使節
兄@@
夕方
存する
帝@@
献上
美し
見逃し
郎@@
食中毒
駆除
Atom
Balancing
Beta
FCC
Fdm
Plantype
Sen@@
nDynamics
nt@@
なくす
ぼやけ
アントラ@@
オリジナル@@
コマンドラインツール
コンストラクションプレーン
システイン
シークレット
スクリプティング
スケマティック
ソロ
ツイーク
テックス
ビジ@@
ピック@@
ブロモ@@
ヘンシュウ
ページ・@@
ポン@@
一直線
助成
務@@
危ない
商店
失望
婿
引退
炊@@
筆頭
置け
膨満
蓄電池
金堂
鎖@@
黄体
ALP
Allow
BW
Boundary
Insert@@
JAX
LCP
Maya@@
Organization
Pen@@
apply
gre@@
rate
ずり
キャビ@@
キーフレーム
サービスクライアント
サーフェスエッジ
シリア
スキャナー
ッション@@
デカル
デスティ@@
デフォメーションエフェクト
フォトリ@@
フォースフィールド
プラーク
ポンプ@@
ポータ@@
ルド
レニン
ローカリゼーション@@
ータイプ
即し
張@@
怒ら
掴@@
曹@@
東洋
浪費
淡路
濃厚
複線
覆
造形
金剛
阻@@
隆盛
Accounting
Evaluate
Flo@@
GeV
Head
LET
NSE
Pull
Sn@@
Window@@
ess@@
we@@
あちこち
かしい
だす
アドイン@@
エーション
サーフェスセット
ドロップダウン@@
フィリ@@
プロトプラスト
マシン@@
ルギ@@
光励起
営利
完結
定植
富士@@
模索
生まれ@@
繁栄
罪深い
賃貸
過熱
除草
頭蓋骨
COP
DEF
GCM
Jan
LEVEL
Layer@@
bytes
dwt
ear@@
ports
ぐら@@
めざし
グラフィックプロパティ
ソフトウェア・@@
ドープ@@
ネイティブモード
ポイントツーポイント
モーションフロー@@
リッチテキスト@@
リポ@@
帯@@
弾力
徒@@
成す
文庫
検疫
武力
決意
浮き@@
瓦
留まり
精神分裂病
縦覧
荒廃
謙虚
迎@@
電磁場
BLOCK
HPV
Send@@
TIN@@
`@@
hal@@
lot
objects
ぃぺんでんし
つくり
カレンダ・@@
グループポリシー@@
サンド
タキ@@
ダー・@@
デュプレックス
デンマーク
トミー
ナビゲーション・ツリー
バイク
フォアグラウンド
メタル@@
モビリティ@@
レッジ
レリーフ
丼
加藤
労@@
変色
奮闘
嫡流
易く
次ぐ
歪ん
濁@@
稼ぎ
等角
茶屋
菱
還付
1394
224
DROP
Forward
GeometryClass
Interval
Trans
UTC
Young
dic@@
lang
mar@@
press
sky
ぜ@@
ゃん@@
イーズ
オン・@@
オーガ@@
クノ@@
ヒノキ
メラ@@
レジストリ・@@
交叉
地磁気
彩色
査
穏やか
細く
結びつい
蘇我
読書
44@@
Availability
DIMM
Gra@@
INTE@@
Interior
MSI
PSK
configuration
if@@
ill@@
js
pin
switch
きる
ぷれ
まさ@@
アンダー@@
エタン
トランザクション@@
ニトリル
ハウ@@
フロータ
ミュージ@@
ワイヤー@@
働
國
市外
決心
短かっ
虫垂炎
話そ
赤松
針@@
養育
鮮@@
Birth
Client@@
DER
HH
MirrorView
NOS
Param
Payroll
SwitchView
position
えい
ご飯
ざい@@
ギヤ
ジェイ@@
ダイアル@@
トリムサーフェス
バインダ
ヒドロキシル
ビルディング
プリオン
メッセージ・@@
リプル
レオ@@
乗れ
効能
取り戻し
名人
寂@@
弁当
救出
朝臣
粉@@
食後
館@@
1010
370
CV@@
Dependency
Sign@@
Take
YE@@
defined
dy
faces
ick@@
かかわり
くりこみ
さっさと
アズ@@
カスタム・ビュー
クローン・@@
ケミカル
ッグ@@
ポリゴンモデリング
取り除い
叶@@
名づけ
恒常
抗@@
放散
残業
民生
漁船
父上
真珠
群れ
西欧
316
Extrude
IOM
JUnit
Password@@
Through
any
express
object@@
port@@
ぇくとの@@
おかしく
っぱ@@
ついてる
ぴったり
ゆう@@
アラインメント
エンド・ツー・エンド
コリドーリージョン
ップル
トロール
ヒドラ@@
フィン@@
ンチ
万葉集
作り出し
勿論
崩@@
御用
懐
蚕
詩人
酪酸
1977
Alembic
BCC
Drop
Imperial
PAL
Service@@
Spot
USE
az@@
io@@
sed
si
アテ@@
ェ@@
エポ@@
コミ@@
フィッティング
フェデレーション@@
ブータブル
プロトコル@@
ヨ
レンダリングスタイル
ログ・@@
ント・@@
乱気流
佐々木
偽造
前身
勇@@
合わ@@
唱
定性
平治
後遺症
惨@@
拘@@
曇@@
生ん
直接アクセス
約@@
聖徳太子
賢@@
遺族
?&amp;
COLOR
Choose
Constrain
MOVE
Organ@@
Pat@@
Piping
RGM
Reverse
SLP
Separ@@
WDS
of@@
sen@@
アシル@@
アダ@@
エマルション
エンベデッド・@@
グルタ@@
ソリッドジオメトリ
ディザ@@
パウ@@
ヒューズ
マシ
一式
丁目
丞
使@@
傾い
大震災
対応付け
蘭
：&amp;
Archi@@
Before@@
EV
Nam@@
PAN
SDM
YBa
front
ization
ふと
アレー
ケト@@
コネクション@@
コブ
スケッチャー@@
セキュア・@@
ソール
ッシャ
パッチサーフェス
ヤマト
ロックアウト
令状
売ら
定員
小川
昨@@
波高
浄土宗
消炎
粗く
緩徐
脱毛
討議
語ら
講師
負わ
起っ
ｬ@@
5500
Connectrix
LAC
Mod
PQ
Response
SAW
Sc
WITH
はい@@
ぷろし
アイコンメニュー
イラスト
ニング・@@
フェロモン
ブリーフィング
ベスト@@
マティ@@
リオ
リフ
南方
吹き
寝室
嵐山
常識
振れ
提@@
東宮
滞@@
目立っ
筋炎
CY@@
Corner
EMENT
ISOGEN
Newton
OCT
OMAX
Round
SYSDBA
TOC
What
sy@@
がい@@
しゅう@@
ゆがみ
アセンブ@@
アピ@@
インデックス@@
クマ
クレアチニン
コルチゾール
スキャンライン@@
チャレンジ
ベント@@
ボラ
ポータルサイト
リンカー
ルイス
掘@@
斑@@
昏睡
水平面
牌
組み合わさ
繋がっ
脆
色合い
認
謡
Configuring
GW
Hyper
IDM
NET@@
SETUP
ba
intel
stro@@
tric
ぎり
インスペ@@
コア・@@
ゴウ@@
サプリ@@
サム@@
ジャケット
ティクス
デッド
トリフルオロ@@
プルダウン
ライフスタイル
リビルド
リミ@@
仰@@
会お
傷つける
北朝
御門
感動
戦士
更@@
海峡
相応
胃炎
魔@@
115@@
About
Employees
ack@@
ai
directory
dt
ld@@
span
ute
ともなっ
まて
アイソパラメトリックカーブ
ウレタン
オクルージョン
カモ@@
クイーン
ジオメトリック
ステート@@
バナジウム
ビス@@
ビニ@@
フェイ@@
プロパティセットデータ
ライゼーション@@
仕分け
余儀なく
各人
大尉
広義
必然
救わ
明かり
滅ぼさ
耐える
閉め
204
75@@
BO
Comments
GSS
LINE@@
PIP
PLL
alize
ally
pp
vers
vo@@
ひょうじ
アダム
ジェスチャ
ティーポット
ハッチ
ロールバック・セグメント
一杯
嫉妬
嫡子
巧
惜@@
按分
撃@@
杉
漢方薬
繋がり
芯線
葷
酒造
阿弥陀
146
Deformer
Generation
Gravity
LSA
Landau
MIDP
Plugin
SMARTEAM
West
cf
master
ton@@
くち
とら@@
エクソン
エルゴ@@
ケミ@@
ソリッドオブジェクト
ッカー@@
ドクター
ニッ@@
リモート・@@
削り
同行
専門医
尉
店@@
擁立
斜視
曲げる
枯渇
獲
私立
立上り
花火
調剤
費やす
間引き
==
Array@@
Company
DAO
Fas@@
Iso@@
MER@@
Proc@@
ical@@
なんとか
へい
クリニカルパス
コンディ@@
スウ@@
スクリプ@@
スプレッドシート・@@
ドキュメン@@
ヌード
ハッチングオブジェクト
ベジエ
ラスタ
・レポート
二色
代官
効用
外面
失脚
己
思える
想@@
新興
水野
略称
薩@@
見い@@
論じる
Disp@@
EP@@
MPLS
PeopleSoft
RL
Remove@@
SUNW
Workbench
by@@
request
sive
たか
クチ@@
コサイン
ジャガイモ
ズームアウト
セツメイ
チャンク
ディスプレイス
パッ@@
フロントビューポート
ブレンドサーフェス
ラフ@@
信念
刷@@
台形
惑@@
最上
月間
盗難
臭素
酪農
駐@@
Appro@@
Extreme
Fu@@
ISA
inger
ner@@
settings
ニュージーランド
パイロ@@
ボット
ボリ@@
マッカ
マニュファクチャリングハブ
レプリケ@@
ージャ
享受
分り
嘆@@
太平
弱かっ
格好
牛肉
生子
福寺
装束
道徳
隔壁
養老
830
Air
Alerts
Debug
FORM
Frequency
Note
Priority
SCA
SHR
TXT
Wil@@
direct
pu@@
Γ
ぷと@@
みつ
エグゼ@@
カスタムビュー
サレ@@
シリカゲル
ゾウ@@
ツイカ
ハーネス@@
フォーク
プロパティデータ
ヘビ
ロビー
一目
冒@@
切り離す
別紙
反する
右足
桑@@
江戸城
生む
稲荷
等分
讃岐
金沢
鋳物
2200
ADP
Index@@
Main@@
OMath@@
agent
back@@
ぷる@@
アノテーションフィーチャー
カラ
ジョブマネージャ
ダニエル
チベット
ドリブンキー
ビーチ
フローサイトメトリー
プロパティグループ
ポータル@@
ラッピング
レンダラー
下ろ@@
不動@@
合議
哀れ
庶@@
戻
握り
標準時
看板
脳死
足し
都心
鉱石
離陸
頼ま
Ber@@
Bottom
CIR
DSA
Forwarding
OracleDecimal
alis
br
ell@@
gs
oracle
pattern
vista
こうそく
った
にとり
エンコーダ
キロ@@
クソ@@
シンボ@@
タンニン
テクスチャプロジェクション
デコード
ビットマップイメージ
ビューア@@
ファセット@@
ブリン
乗員
取り扱っ
呈
坊@@
待遇
携@@
擁護
斗
母音
生前
着け
祈願
著し
衣@@
遊ぶ
釈迦
降りる
電位差
1973
340
ANYDATA
CMU
CoA
FIB
Models
NSA@@
Saved
Status@@
Supplier
Tuning
cat@@
mel
mes
いっしょ
てれ
どい
ふり@@
ぷろじぇくと
シップ
ジメチル
ジャン
ベーチェット
ホワイト@@
ラリー
リック@@
レントゲン
ヴァン@@
丁度
京都大
偏り
急ぐ
指し@@
月数
欺@@
疹@@
聴く
肥@@
苦しみ
鉄心
関西@@
Append
Children
Day
Deploy@@
Direct@@
Euler
Install@@
MES
MRA
Maxwell
PDD
Roll
Sign
Spacing
cn
dia
sys@@
ふん
イチゴ
シット
スープ
データムターゲット
トウ
ドーパント
ナフタレン
ノヒョウジ
リモートセンシング
告げる
大日本帝国
延ばし
押出し
未読
無数
縁石
複@@
誤認
貰っ
迫@@
828@@
946
Bragg
FIE@@
Obj
Shader@@
TES
aries
gbXML
high
sg
▼
ずい
つづ@@
インジケーター
エクスポート・ファイル
カルチノイド
キュービ@@
ゲー@@
ゾーム
テッド
ビューア・@@
ファスト@@
プリエン@@
マージ@@
ロバート
不可@@
両国
主君
今晩
出かける
切り離さ
助長
咲@@
国債
好ましく
延び
拡充
潜熱
縄文
距
輩
量子力学
飲食
首長
CATDrawing
Fog
Hu@@
NI
SHA
SSE
da@@
microsoft
ぽい
アイス
カスタマー・@@
ガバナンス
クライアントソフトウェア
ドロップオフ
パーティション・@@
ビッド
ホームズ
リモデリング
中央@@
先立っ
全額
思い起せ
抜
教示
歌手
止まり
氷河
箇月
義政
西南
見当
見積@@
識@@
際@@
DCS
ICH
LX
MDB
Math
PAM
TIM
ULT
cel
ik@@
place
くん
たどり@@
アリル@@
オキ@@
クォー@@
グロス
サクジョ
ジョー@@
トリス
ベラ
ワークスペースサイト
国有
新築
来れ
禅宗
行幸
逃走
陰茎
障子
ﾌﾟ@@
166
Before
Measures
RB
Required
TAB@@
TSM
TiC
YBCO
stance
てよ
よみ@@
クリティカル・@@
フィット@@
ブートストラップ
プロテイナーゼ
メディア・@@
乙
亮
仔@@
仙骨
個性
光波
募@@
収まら
壊滅
大使
官軍
朱雀
柔@@
栄誉
線条
装具
請負
過ち
鱗
Auger
DIS
FLARE
Graph@@
Over
Technical
ya
じめ
エンジン@@
キロメートル
シンチ
ティ・@@
ヴ
三菱@@
周回
揺らぎ
東京大学
毒物
気に入ら
火星
眠り
聴か
被っ
覆っ
跳ね@@
長政
養生
駅前
1872
Depart@@
FSG
NDS
OPK
SCREEN
Supervisor
cpu
ice
key@@
od
view@@
その@@
だか
っきり
やさしい
コマンド・プロンプト
サブディビジョンレベル
ジヒドロ@@
スケーラビリティ
ヒル
マイクロプロセッサ
ミナ@@
レオロジー
不妊
全角
勧修寺
同志
小林
掛かる
暮らす
耐候
蘇生
行内
記す
辞め
遅@@
Argu@@
InterScan
Sound
ix
limit
rmt
tus
たいへん
アンドロゲン
エリテマトーデス
ジアミン
スム@@
パートナ
ポー
ールド@@
今出川
備考
外因
官報
封鎖
尾上
我ら
梨
狩り
目立た
相場
筋@@
築
紀州
販
ACA
DHCP@@
Fit@@
MSC
PBC
PUBLIC
PUT
Perl
Sections
Twitter
don
つり
イブ
キー・@@
クシ@@
コンサート
ショナル
スケーラブル
セール@@
トライア@@
ヒーター
フォルダパス
ベベル@@
ベースライン@@
亀岡
借金
出陣
境@@
左足
珪藻
着物
突
総裁
緩
腱
込も
遅刻
食味
Association
ITU
POS
Res
STAT
USA
Vali@@
XMLType
air
na
ただ@@
っていう
です@@
ひめ
アイディア
スティン
トロンビン
ホウレンソウ
マルチライン@@
伴@@
便秘
優良
分家
屏風
敗@@
本論
汚い
白く
稚魚
究
通用
陥る
(%)｜
208
222
IOL
Mozilla
PSS
Sector
Spe@@
VAV
Warning
upload
via
ぺいんと@@
キシド
コンバージョン
コンピュータグラフィックス
ッチャー
ノヘンコウ
ミカン
事物
出仕
分節
密集
属さ
役@@
持ち上げ
捻転
掌握
段差
油脂
竜
老齢
較正
養女
ABAP
AGE
ANY
ActiveSync
DWT
Extend
Km
Mach
Scrip@@
Syn@@
tif
いふ
いぶ
たき
てき
アスパラギン
アラブ
オリフィス
クロロホルム
コンピテンシー
ダイナ@@
ディスカ@@
フロート
・アクティビティ
上総
各層
執
帝王切開
時には
止まる
毘@@
泰@@
漂白
焼か
直属
県立
稼い
膳
葬@@
裏付け
説話
農林水産省
;「≪
CWM
Diffe@@
Envelope
Fill@@
Lar@@
Medium
Messages
Specular
UUID
gn@@
lic
site
なう
カレー
シェイク
フォルダファイル
ローミング
世の中
何ら
呪い
対戦
挙@@
挟ん
棒状
楽しく
渡辺
特典
示
起伏
返送
開けろ
阪@@
飛び
鮮やか
Credentials
DATABASE
Globals
Hibernate
InAs
Leu
NV@@
PK
Replic@@
Specify
TING
hor@@
lar
tain
おいしい
せんす
ひょう@@
エージング
ガイダンス
コージェネ@@
ノルウェー
侍@@
均
完
差押え
弥生
郡@@
阿弥陀如来
高山
;,&amp;
FAS
Plot@@
Slide
USD
VTR
ay@@
doc@@
ea@@
est
fec@@
ors
いまだ
アーダム
シュウ
スケーリング@@
スティッキー@@
テープ@@
ピコ
フラップ
ブロード@@
プロダクトエクスプローラ
ベンダー@@
ポスター
ージオメトリ
伽藍
廻@@
本拠
松本
沙汰
浄水
祝日
総代
航路
裏切っ
158
Driven
Expand
FLEXnet
Legen@@
NaOH
RES
Zip
sw@@
えり
くす@@
つれ
タイピング
パンダ
ブロディ
ミクロソーム
ライブラリフォルダ
全力
出兵
大字
拒み
授ける
政変
料@@
果た@@
柔らかい
楽しかっ
特質
積載
観念
言い方
貫入
踏面
ｷ
;?&amp;
Entries
Flags
Ln
NLB
Relax
Swing
TOP
dwf
function
render
sia
おじさん
しめる
ちまっ
とどまっ
わりあて
アクタ
アミロイドーシス
イネーブラ
カツ
クライアントファイルインデックス
クローズ@@
ティス
ナレッジ・モジュール
レイバー
ワークフロープロセス
例え
塗@@
巡る
幼い
弁別
探っ
樹冠
洗浄液
磐
蝕
議題
返せ
152
First@@
GenericName
Origin
Presenter
RB@@
RTA
ides
ti
use@@
むす
インポートウィザード
エミュレート
ケータ
スペキュラ
トンボ
ファンクション@@
ブレット@@
ホルマリン
ラッパ
一帯
争@@
出羽
初日
労働省
取り扱わ
大島
大河ドラマ
実子
山梨
幣
建設省
引力
懸@@
援護
有形
朗
枕
篤@@
縁起
199
Aggre@@
Agile
Assignment
CLASS
Crohn
DataSet
Import@@
Microsystems
Pressure
Qt
very
っぽい
ともない
ひき@@
ふう
チョコレート
ツイート
テキサス
デラ
パンフレット
リバー
人手
倣@@
号機
坂本
宴
嵯峨天皇
市区
手引き
拭@@
掘り@@
枚@@
消火
皮肉
道真
随意
19@@
Clip@@
Dictionary
FID
Hand
JES
PCNA
PRI
Pho@@
REN@@
SCH@@
Small
Sound@@
cp@@
あき
かゆみ
じゅん@@
どんどん
アルギニン
インペリアル
ウィル@@
サンフランシスコ
セロ@@
チロシン
デプスマップ
デー@@
ボトムアップ
モリ
ラミネート
出張
含
悪行
改ざん
沈み
締め切り
繰延
解雇
運輸
重なり合っ
預け
*）
330
CDDP
Diff@@
Selection@@
Serv@@
WE@@
mon
がたい
ため@@
つない
カウン@@
サービ@@
ジオール
プロジェクト・ナビゲータ
メモ@@
主力
備前
各面
啓蒙
四方
在位
年令
海道@@
用いれ
祇園
網目
美しく
肺気腫
芳@@
蛇行
課金
譜代
適う
避@@
還流
陶
++)
Sheet@@
Smo@@
Square
Super@@
TMC
UTP
_&amp;
dr
loc@@
ther
users
ぐらふ@@
ウェーブ
カルシ@@
コールバック@@
ジフェニル@@
ジャンパ
フォトレジスト
メート
リゾチーム
レント@@
ロフト@@
保育
原本
成し遂げ
挟@@
暑@@
源義@@
燃え@@
的@@
磁歪
認@@
過失
重く
門部
",
206
BOD
Josephson
MPv
WL
War@@
date@@
double
ga
おもちゃ
ごらん
たどる
エンドキャップスタイル
ジオメトリタイプ
スモ@@
データベース・プロパティ
レギュレータ
一見
充てん
出ろ
喜捨
妥協
後日
怖く
更正
概念的
溶鋼
目覚め
粥
詔
飲み@@
975
APEX
CCR
DK
Distributed
Ia
OracleInterval@@
Ran@@
SrTiO
Terminal
aria
console
ending
»
とも@@
はいち
アドレス@@
カンジダ
シャル
ジゲン@@
ストリーミング@@
スレートマテリアルエディタ
フェリ@@
ランニング
レシーバ
幻
庇護
患
挑@@
断っ
栄養素
毛細管
海藻
滞
犯す
看@@
粕
被り
視察
課さ
警察官
1920
:)
;）
ADMIN
Bookmark
EOF
LOCAL
Lister
Manag@@
Next@@
dot@@
fix
onic
row@@
sum
やれる
ゅうりょく@@
アレイ@@
イニシエ@@
ォ
グレイ
コイ
ターミネ@@
ディーゼルエンジン
ヨル@@
リモ@@
受け付ける
同誌
名乗り
天敵
実情
尼@@
情熱
景気
正気
父子
粉塵
苛@@
薬効
角錐
読取
鎮守
飼@@
Condi@@
Hole
IBL
Impor@@
RN
Shar@@
Yb
pd
rd@@
くら
めし
エージ
カ国
スパン@@
タイン
ディスカバリ
デューサ
ネル・@@
バイン@@
パズル
フラクタル@@
プロピ@@
メチレン
モバイル・@@
協約
替わり
服飾
此@@
殴っ
討
費やさ
輝く
追いかけ
遮
須
高校生
AMS@@
CATI@@
CIS@@
DESC
ICA
Mor@@
Pub@@
Stu@@
Tb
Working
ZnSe
app@@
ink
walk
あくまで
アンパサンド
イニシアティブ
ウレ@@
クォ@@
クリエイティブ
グレースケール@@
スパニングツリー
セマンティック
トランスフェ@@
フェー@@
フローグラフ
マシニング
ミズ@@
一瞬
中層
二分
取締
宣告
幻覚
払戻
整い
水泳
法然
法華
海賊
転落
邦@@
鉱業
鶏@@
'$
GBIC
Stack
TDM
ppb
tra@@
あけ
なおす
ウナギ
ノウ@@
プロゲステロン
メートル法
下総
僕達
勢い
向か@@
在日
多核
宇都宮
工業@@
彼@@
清潔
済@@
自在
連盟
高野山
BX
Board
Communicator
FORMAT
HA@@
JOIN
VisualSRM
WM
XXX
char
phone
point@@
role
su
ves
たず@@
なるべく
むだ
ウロ@@
ガントバー
クチン
コントリ@@
シーケンシャル
セグメント@@
プロキシ・@@
リビール
ロールアップ
不適合
乞@@
亀山
伊勢神宮
地方自治体
埋め@@
安芸
幡
序@@
控訴
格式
滝@@
漸減
研@@
鞍馬
)—
5300
AMI
AX@@
CEO
Capital
Firewall
PTCA
Rap@@
SMC
Symbol
ces
イイ
エストラジオール
コモン@@
シカゴ
システムズ
フローティング@@
プロポフォール
ボア
ランタ@@
レガシー
ーブル
伝言
単精度
双対
吊り
告発
唯
問い合せる
大声
手元
松山
校長
無罪
目覚@@
縄@@
訴@@
階@@
離職
CMD
OBJ
Presets
Processing
SMI
Usage
ck@@
lay
load@@
ou
sor@@
tero@@
√
よせ
オリンピック
カフェイン
キリ
グラフィックス・メディア・アクセラレーター
ジョーンズ
チェッカ
トレードオフ
フィンガー
プレゼンテーション@@
プレース
プロピオン
メイ
冷静
号線
差額
持ち主
敦
昇圧
清水@@
猛@@
相次い
祈@@
胸椎
読める
追いつ@@
部会
(@
CFRP
Curve@@
ERCP
Picture
SOR
TARGET
Tim@@
Used
Zr@@
chi@@
tica
ざん
ほう酸
アグリ@@
アーティザン@@
カツ@@
カビ
クロップ
ストラテジー
デプロイ@@
トンネル@@
ネイティブ@@
ビューラベル
リハビリ
余計
家光
岸@@
攻
枚数
淵
減る
渡せ
神武
紅色
贈ら
鑑@@
',
Agreement
Bitmap
EXAFS
MSD@@
Mic@@
Sort@@
Sum
ati@@
ture
wn@@
』@@
もしもし
ょぶ
アセトニトリル
エータ
カーン
キャスト@@
ジピン
スメクチック
チェス
チラ@@
フレーミング
フレームワーク
プレー@@
ラクト@@
ワーカー
併存
出よ
大国
家紋
岬
揚水
旋盤
欠ける
欲し
町名
等式
黒く
()、
ANCA
AQ@@
BI@@
CTI@@
Checker
Containers
FDTD
Fix
Foo@@
Mode@@
Pricing
criteria
du@@
ind@@
node@@
py
いす
いと
じっ
クリー@@
スクラッチ@@
データブロック
ドロップダウンリストボックス
ネオ@@
プリセットブラシ
仕切り
任せる
凶@@
合板
堅
壊
度合
廉
折りたたま
犯行
甘味
生き物
瞳
莫大
詠@@
連歌
遡@@
降ら
震@@
黒潮
￼
Cash
Circle
Close@@
FCheck
ITEM
Internal
KD
SCO
SKU
Selec@@
TBC
Validate
WI
bali
ell
ero@@
sd
sions
ved
えと
ぉる@@
お礼
インターフェイ@@
エステラーゼ
オーケー
キューバ
ケイト
コミュニ@@
ジョグ
スニ@@
デマンド@@
ドラ
ネットワークダイアグラム
パネルレイアウト
フィンランド
ブナ
ヘリックス
万全
付き合っ
僧正
引き金
湛
美味@@
若く
長女
1867
1945
202
Align@@
ET@@
FPGA
Perspective
SCA@@
Schedu@@
Smith
Tip
Unified
css
ech
err@@
lip@@
sphere
いつ@@
つくっ
でき@@
わざわざ
アト@@
イミド
ウイ
エアロゾル
ガリウム
ズラ
センタク@@
ゾーニング
ディア
ノート@@
バッチレンダー
パーソナライズ
フルナビゲーションホイール
マルチプライヤ
メンバ@@
亜@@
仕立て
何れ
去ら
句読点
可燃
坐@@
宰
幾
後藤
樹皮
歯槽
片岡
神事
移管
箏
表れ
西国
迂回
過酷
遷都
鋭敏
降格
風習
CRM
Compati@@
Exclude
Fax
Specific
Yes@@
based
den
かし@@
ぷろぱてぃのせつめい
アウトプット
カギ
クロロ
ケル
コルチコ@@
サマリー@@
フィーダ
マッハ
メチレン@@
ランキング
リティー
ーション・@@
上海
威
山頂
平定
往来
慣@@
手掛かり
手袋
捨@@
耕作
謀@@
賢明
跡地
酔@@
釜
長岡
閾値
ｨ
"、"
15454
2900
CLO@@
Frames
Intensity
MSG
Statement
Vertical
VirtualCenter
tering
®@@
≫」&amp;
■≪
じゃん
のへん@@
ぷれ@@
アクセラレーション
イチ@@
エピ
ゲナーゼ
ダイアログボックス@@
フィッシング
ベロ@@
ミシ@@
ヨウゴシュウ
リサーチ
リスタート
仮に
伯
嘆願
大友
宇治@@
彫@@
忍耐
授かっ
明和
果し
渡来
誠@@
謝罪
護衛
負数
雛
171
200@@
Book@@
Cen@@
Manipulator
RSM
RULE
Requi@@
SIN
memory
rdbms
━
じり
ばか
アウトラインコード
エミッタ@@
キョ@@
ケット@@
ゲノ@@
コンタクトレンズ
ゴール@@
トランスジェニックマウス
ドル@@
ネパール
バックス
ビルディング@@
ビルド・@@
ファームウェア@@
フィー
メトリック@@
リサ
中型
医用
土台
寂
役立っ
改易
明け
服装
本州
済ま@@
演技
狩
甘い
素因
葉酸
蘇我@@
ﾗ
BINARY
BITS
Collec@@
Daily
Exchange@@
Fixed
JMX
LANG
Namespace
Water
event
result
ut
va
workflow
xy@@
お嬢さん
たち@@
つく@@
ですから
ふざけ
まき
やっ@@
アプ@@
アプライアンス・@@
データ・ディクショナリ
トランシーバ
プラズモン
プラットホーム
ミニツールバー
ユニファイ
リレーションシップエディタ
中規模
免税
報いる
寸@@
帯び
廊
憎悪
憶え
晩期
曽
療
眼@@
碁
胎生
融@@
詰まり
迷路
道場
錯
阪急
(%@@
(.)
Bone
Doc
Film
Locator
RW
SMA@@
SST
VSAM
WH@@
duc@@
ents
しの@@
なにか
やま
イラ@@
カップル
デビット
バージョン@@
パラダイム
ピング@@
モノマ
七月
中華
傾ける
台頭
在留
宜@@
寧
小田原
心から
成層圏
才@@
無作為
煉瓦
生薬
空欄
臨済宗
草地
見掛け
近郊
造っ
Characters
Content@@
Ising
STR
cc@@
dx
face
match
tre@@
すう@@
はか
もた@@
アイルランド
アニメ
イラ
カタログデータ
コンボ@@
サミン
セファ@@
デプロイメント・プロシージャ
フェイルオーバー@@
フォトニック
フォルト
ペギング
リファ@@
・セット
上る
出世
多面
懐中
手軽
改築
無害
眼中
苑
頭骨
鳴っ
Cancel@@
FACE
Nav@@
PIM
Pc
SmartReports
VRF
Wel@@
dp
rc
tage
⇒
ぐろ
つくら
インジウム
カエル
バーチャ@@
ビジュアルデザイナー
ピクセル@@
人民
先立ち
凡そ
和服
大海人皇子
失業
定位
小僧
就
引っ張り
徳島
思い出せ
据え
流産
清め
田川
真似
笑顔
細工
薫
軟弱
遅かっ
野村
領収
高倉
)』
Bias
PDS
PHS
Param@@
SPI
TCA
iting
units
こめ
ふた
ふるい
ゅめんと@@
アセットエディタ
アーカイブ@@
インストーラ@@
グリーン@@
ジュリア
ストリーム@@
スプライト
スーパ@@
セントラル
ファレンス
フッ
レール@@
下京
享楽
備中
剣@@
受験
周年
実権
寿@@
揚@@
文人
斉@@
株価
極力
歪@@
活力
淳@@
真言
石田
紳士
結膜炎
肖像
艇
読み取っ
起業
逃れる
逆数
雅楽
風化
飾
1863
Editable
FILE@@
GABA
LENGTH
OPEN
OSM
OracleData@@
PEAP
PPS
TSO
Tablespace
actions
current
fcc
mTc
progress
vt@@
ごう@@
つとめ
ぴんぐ
ょり@@
イメージファイル@@
カク
ジオメトリポイント
スピネル
タマ
ダイナミックレンジ
ツイ@@
ドリルスルー・レポート
ナルド
ハワイ
レダクターゼ
ワル@@
予告
仕上
参詣
埋没
天狗
定形
幅@@
悩み
於い
旬
枯れ
模@@
溶け
無くなっ
箸
細長い
製薬
西日本旅客鉄道
託
資@@
)）@@
1873
;*@@
DBI
Diagnostic
Glu@@
Gre@@
OPTIONS
RAY
RHEED
XSI@@
atch@@
hostname
ies
kin
shared
son@@
いっそう
くも
たけ
エクスプローラー
カテゴリ@@
スカ
チリ
ネゴシエ@@
パトリック
ビュータイプ
プロンプト@@
ホールド@@
ポリゴンサーフェス
モニタ@@
ラティス@@
ラメラ
リソースビュー
リポジトリ・オブジェクト
ルックアップフィールド
レコード@@
五月
取り除か
吏
外装
峯
平清盛
怒@@
故に
敦@@
晩@@
自閉症
郷@@
阿波
##@@
APC
COD
DMS
FTIR
Fas
Fol@@
MPO
Now
Ready
border
itude
location
nu@@
oun@@
passwd
property
radius
tl
vision
しけれ
ウィル
エクストラ@@
カウンセリング
クリニック
コストダウン
ズーム@@
ベリ@@
マントル
レル
一人@@
伝ぱ
冊子
及
喉@@
専念
引っ越し
押さ@@
振子
政所
検校
気化
河原
登る
紙幣
肥育
諸君
鉄塔
;.&amp;
CAD@@
CZ
Cylinder
MUL@@
Mechanism
Radial
Stra@@
UND
Wave@@
YM
ages
document
send
shape
ular
ぐれ
ちん
まつり
オフィ@@
キセ@@
スタート@@
センター@@
ソレ@@
ッジ@@
テーパー
トラフィックシェーピング
ハッカー
ビジネ@@
プラトー
ライティング@@
低位
勅撰
同数
吸湿
好意
安永
封じ
年貢
正統
汽@@
解答
香川
鴨
鵜@@
$(
98@@
ADI
Drop@@
Empty
GVHD
Hol@@
PIC
PLA
Posi@@
SPC
eDrawings
one@@
かび
すと@@
それなのに
たびたび
ひな
ふぁいる@@
べし
アサイン
アペンド
インクリメント
エクスプレッションエディタ
オプションダイアログボックス
ギー
グリコ
コンフィギュレーション・ファイル
ザン
スイッチング@@
ファイルフォルダ
フォトメトリックライト
フライアッシュ
ブッシュ
ユ
リノール
内装
冬@@
割賦
勃発
同情
大抵
惣
本章
沼@@
渦@@
短距離
移り@@
耐糖
財務局
長又
)」@@
Bus
SPML
Serv
Simulate
Sources
Var
fications
meV
やい
アナタ
キラー
コピ@@
ディフュー@@
ドライバ・@@
フォロ@@
プロキシオブジェクト
プロパティパネル
ペアレント@@
ボックスコントロール
ポリライン
マルチレベル
ラート
伯@@
取次
売り上げ
嵯峨@@
悟
果皮
生き残っ
相性
罠
表側
譲り受け
食堂
麦@@
--@@
AcSm@@
ComboBox
Dialog@@
Feature@@
IMP@@
LAN@@
ORF
OSD
Port@@
RS@@
SES
SWIM
York
ger
license
ord@@
ose
けつ
しゃく
そうにゅう
アクセラレーター
インテグレータ
インフラストラクチャ@@
キチ@@
セッテイ@@
ファイルプロパティ
ホスティング
レギュ@@
内包
匁
大寺
家格
必死
手帳
検量
涼
淡い
片付け
登っ
脈拍
記名
逃げろ
造る
151
ACH
Adap@@
BPA
DISM
ORE
Sewers
Textures
our
try
ずいぶん
アサイメント・@@
アデノシン
アース
インジェ@@
カゼイン
スペクトラム
バレ
ファージ
ブレッドクラム
マニプレータ
一派
介助
先月
公然
創業
大金
奴等
希少
平日
広葉樹
建材
急峻
打た
援
是非
海難
激減
申込み
発祥
硫@@
至り
色付け
蘇
42@@
820
ISY@@
LUT
MFn@@
MN
MSA
Novell
Poisson
Sli@@
Sticky
Validation
coli
tan
いに
かみ@@
すす
っか
カスタ@@
キチン
キニン
サクセ@@
ジグザグ
ジミー
スラッシュ
ダシ
トロ
ニンジン
ハイドレート
バート
パーティング@@
フェールオーバークラスター
マリア
参画
固着
好ん
安く
安倍
宿禰
山中
栗@@
植え@@
石山
硬く
磁器
肩@@
育てる
肺門
見い出し
車内
酔っ
."
432
COMMIT
Cop@@
EventArgs
GV
Gen
Im@@
She@@
Synergy
XVL
japonica
lement
reg
おと@@
ささ@@
そういった
びでお
インダクタ
エグザンプラ
キーフレームアニメーション
サーベイランス
フッテージアイテム
ボトム
メイク
三味線
位置@@
可否
土岐
宮殿
尋常
折り畳み
採掘
昇降
母乳
沫
漸増
視界
誘惑
輪状
鶏卵
%」
58@@
Cat@@
KE
Lewis
MEM@@
SCALE
Sym@@
Ul@@
ap
controller
ode
proxy
ub@@
waveset
‑
おの
そちら
インクリメンタル@@
ウォーム
エイリアス@@
ジグル
ディスクリプタ
ナール
バーン
ヒューマン@@
・アドバイザ
仮性
伝票
光景
喫@@
国寺
巡礼
悪夢
支払っ
改める
最早
析@@
歩み
由
聴聞
話しかけ
釈迦@@
鋭角
響@@
-）
136
Cable
clu@@
old@@
td
ten
ust
かげ
どし
めれ
イコ@@
イメージファイル
グリル
シヨウ
シンポジウム
ナフ@@
バレル
ピク@@
フルバック
プライマ@@
ライス
ロッキング
ワークグループ@@
受胎
急死
日曜
発せ
百済
皇@@
紅@@
視差
過小
酒屋
開発@@
ATT@@
CNR
DLSw
DST
Editing
Mer@@
Navigation
Nb@@
PFS
SCO@@
SRC
Spec@@
VI@@
aw@@
ize
pr
tis
try@@
いろんな
はかる
もしも
りんご
アライメント
エリスロ@@
グルタミン
サリ@@
シアニ@@
ステム
タイル@@
ダイナミックドキュメント
トリプ@@
パラメタ
ヒラメ
フラッディング
レシ@@
久しぶり
事業@@
双子
受け取ら
圧入
報わ
宣旨
張ら
有能
染め
毎@@
清酒
細目
薬学
迎
149
ADOX
ASET
Databases
EBV
FDG
Header
Limits
MHC
NiO
SCP
Test@@
build
dae
time@@
こだ@@
めとり
アード
カーニング
ジェシー
ソルビ@@
ッコ
デント
ネクストホップ
ブローカ
ヘイ
ポリウレタン
ユニキャスト@@
一対@@
乏しく
南アフリカ
基数
定価
平方メートル
彼氏
挫@@
濃く
牧野
玉座
発端
裂け目
譲っ
養護
鮮度
ｿ
*」
530
BCG
BH
CLOB
Exporter
Iterations
Phase
Procedure
SESSION
Stroke
UAC
har@@
home
ium
mc
rent
ふさ@@
エンタイトルメント
エンベロープ@@
クリッピング@@
コンベヤ
スリーブ
タス
トゥーン@@
ナガ@@
フッタ
ヘキシ@@
ペグ
ミツ@@
メカ@@
レプリカ・@@
不審
当面
微粒
斎@@
日本国
明石
桜@@
潅
狩@@
築城
終り
貴女
186
Download@@
Env
Gly
IAA
Relations
SEL
SONET
SketchUp
Syslog
dro@@
dynamic
ka
さす
とりあげ
どうせ
アドバン@@
カテコールアミン
キメラ
クロン
グレゴリオ
コンジット
ジャイ@@
チャート@@
トゥイーン@@
ナビゲーションモード
プター
ペプチド@@
儒教
先ほど
冒険
半値
坑@@
声帯
延びる
書士
浮体
病者
癒@@
神聖
移流
童子
脱退
見逃@@
象限
過誤
1974
9999
Classic
Conditions
Disc@@
Hub
Kerr
Lea@@
SRAM
Sys@@
Tre@@
Vault@@
WBS
element
tl@@
られれ
クリプト@@
クリン@@
ゴミ@@
ストリー@@
スペクトロ@@
タマ@@
ネフローゼ
ノック
フィ
プラー
プリンタ@@
ポジトリ
乱視
免責
労作
垂線
太田
審決
干し
急が
晴れ
洛@@
漸@@
真宗
米ドル
賞賛
隊員
1280
1864
AcDb@@
Arch
BCWP
Binding
Dir@@
Number@@
Oraolap
This
Tok@@
kin@@
rr
zz@@
ぃんどう@@
どころか
に当たる
アホ
カニ
スケマティックライン
セス
セー@@
タンゴ
データグラム
ノキ
プロジェクトプロパティ
ペプチダーゼ
ポーラ
加味
奥様
定時
括約筋
有り@@
流し@@
流下
祇@@
範@@
絵巻
聖書
般@@
門跡
39@@
ClO
Def@@
EG
EUS
FIRST
HL@@
HRA
OLS
ONE@@
Printer
ROMMON
RPO
ek
list@@
logging
png
しき@@
もらお
アイツ
アゾ
アミド@@
イントロン
エンタープライズグローバルテンプレート
クリ
ソーシャル@@
テオフィリン
フォン@@
プレーヤ
プロキシサーバ
ボリュー@@
主人公
亘@@
儲け
兵力
取材
営ん
在り方
愛宕山
未定義
漏えい
盗聴
第一@@
降る
領国
ﾎ
(_
176
1889
235
Customers
GMP
KA
NCHAR
Percent
Session@@
VB@@
cep@@
sto@@
vlan
かまわ
まう
キャロル
クリックアンドドラッグ
ケ月
ティックマーク
デス@@
パスポート
ビルト
マルチポイント
レビュー@@
休息
喜ば
奪う
対外
崖
性器
暴動
柴
正徳
淀@@
演劇
焼酎
真性
騙し
1020
184
Confirm
FER
LAST
Pepe
Permission
SPA
SSI
Stats
VAL@@
VMFS
WO
kel
res@@
ا@@
“@@
さよなら
りん@@
アナウンス
スケーラブル@@
チャールズ
データベースシステム
ドレスアップ
メロ@@
リーナ
レジストリエントリ
五つ
儒学
取り囲む
合力
弘安
従兄弟
拡がり
権勢
樽
気性
熱線
知恵
突き止め
蒸散
蘭学
進ま
難し
飢餓
11000
167
73@@
Cap
Conflic@@
EDIT
FSH
PMP
Unix
cgr
gon@@
ono@@
しくみ
たど@@
ひも
アラニン
イソ
エバ@@
クレア@@
サプライヤ@@
シテ@@
トロンボ@@
フルクト@@
プロセシング
・センター
丸く
佐藤
光ファイバー
内線
制圧
印刷物
参り
句@@
君主
器用
実家
検非違使
没後
用心
碍子
線画
調べ@@
遥か
()。
1050
ADE@@
Aero
MDF
Modules
Mul@@
ResultSet
Tun@@
UNI@@
dialog
dimension
iray
motion
pb@@
py@@
rs
☆
きゅう覚
なおし
まとも
イムノ@@
インポータ
エジェクタ@@
オムニ@@
ザンブロット
タスクビュー
ダイコン
ノコウ@@
ノルアドレナリン
バングラデシュ
レイプ
不可視
凡
処遇
化成
十月
大物
宇多天皇
梅雨
湖沼
無意味
蒲@@
蓄え
越冬
追尾
配流
鈍
閣下
電磁石
黙示
：^&amp;
(;)
2100
47@@
Black@@
GF@@
MCS
Parasolid
SPDesignerGeneric
SPM
StorageScope
cal@@
delete@@
hy@@
ki@@
はく離
めて
もろ@@
アップストリーム@@
アドバイザ@@
アノテーションセット
クセン
サブスクライブ
ジド
スコピー
チューナー
チューブ@@
デバッ@@
パワーディメンジョン
フタロシアニン
ポーランド
リタイム@@
・ガイド
一郎
乃@@
十二月
卵白
同義
吸っ
呼べ
奮@@
慢
探求
操舵
糖化
考課
遮光
駅舎
212
Arc
Bold
CEPT
Deform
DirectConnect
Photo@@
Thresholds
VLSI
cp
han@@
mib
qui@@
rules
tan@@
ula
valid
おや
きっ
ぱぶりっ@@
インライン@@
エスカ@@
オーバーレイ@@
ゼーション@@
タイム・@@
テクノロジー・@@
ポストプロセッサ
マルチパス@@
リーダーシップ
不溶性
充てる
再編
北九州
墓地
尼子
感受
払い@@
拘禁
斜@@
明暗
曾@@
渇@@
秘書
約款
繋がる
被爆
裕
要旨
解け
話@@
転用
退去
遂に
ｵﾄ
1870
ACT
Bulk@@
CIS
CRS
John
MAN
Note@@
PN@@
Sur@@
XA
por@@
static
top@@
くえ
くれれ
せん妄
そこ@@
との@@
のき
オートマトン
カスタム・@@
コネクションエディタ
コンベ@@
シャドウ・@@
セキュリティー@@
バンチ
ビューワ
ペニシリン
マーキー
メーション@@
モールドベース
リカバリ@@
切符
卒@@
南米
商法
工期
急ぎ
所望
暁
脚本
見付け
責
軍曹
風向
ﾈ
14001
2014
404
ATL
Consoli@@
DCA
Down@@
GLE
HO
Mesh@@
NH@@
Noti@@
Pass@@
TTL
blue
bus
fin@@
graphic
md
がん@@
くっ
すば@@
はずれ
まくろ
インフォームドコンセント
ウェイン
カナ
クロマトグラフ
シュツ@@
シーク
チェンジ
ディジ@@
パンツ
ファクシミリ
ブルース
ラテン@@
レイアウトモード
レイトレースシャドウ
ーシス
一般に
刑法
創製
加増
勝負
取り引き
声@@
大学院
孫@@
居城
平城
径間
撃ち
早生
紀元前
考@@
蚊
西線
見張っ
見積もる
鴨川
%）
1930
CLIENT
EMP
Enum
Execute@@
HPS
Kynapse
Len@@
NAL
NodeId
PIC@@
Temperature
YSZ
ater
post
wim
おける
ゅん@@
アクセシビリティ@@
エントリ@@
コロンビア
ステロール
ティン
ディストリビューション
デフォー@@
ファイナ@@
ブリック
ポリゴントポロジ
ラジカル@@
ランス@@
ワーム
乗用車
唱える
墜落
大和@@
家元
底辺
影@@
征服
急務
拒む
本家
正負
歪曲
潮汐
胸郭
臨
行末
鎮
飢え
鳥居
ｫ@@
07@@
1971
ANSYS
ActiveShade
CACHE
Defaults
Diag@@
Dir
Dr
IGBT
Inspec@@
PrintOnly
RX
Schottky
TIME@@
UDB
XLS
eval
たさ
とじ
シリコン@@
スズ@@
データムフィーチャー
ハンドヘル@@
ビッグ@@
ビュー・ペイン
プロポー@@
ペー@@
ャ
下腹
侮辱
八月
喜多
小麦粉
巻い
拡大鏡
探題
暮れ
沖合
法師
発効
神仏
親しい
課せ
輝き
連帯
重油
68@@
77@@
;：
ADH
AUDIT
Any@@
DIF
Identi@@
MST
Paragrap@@
SGML
SUN@@
Scheduler
Storage@@
SymDump
WI@@
YouTube
mac
through
ving
こまんど
まん@@
むの@@
もしか
エレクトリカル@@
オブ
オブジェクトスペースモディファイヤ
オーバーライド@@
スライディング
チャック
パーサー
ピザ
フェージング
ブライ@@
メール・@@
ラスタ@@
不備
剃@@
包ま
吾
変成
宛名
忙@@
戦術
最澄
登り
直義
租
練り
脊椎動物
術@@
角質
諮問
譲受
賊
過電圧
頼る
2048
4400
CFC
Cushing
Explo@@
HbA
Ki
LG@@
OpenEXR
PRL
Queu@@
Register
SCR
Tel@@
Thread
UUCP
gm
lla
lob
っぽ@@
どうやら
のべ
ゅれ
アリール@@
シグ@@
タスクダイアログ
ディメンション@@
データストア
ビフェニル
ブリーフ
ポリゴンプリミティブ
モーダル@@
ラスタライズ
ロケータ@@
ワークシート@@
ヴァ
三宅
上っ
卵@@
原稿
国税
塊@@
大き@@
大体
定法
尹
年中
来す
極座標
水軍
油膜
真下
納豆
縛
虐殺
表わさ
触診
載@@
雲母
178
ACC
ASH
BIM
Channels
Cone
Her@@
KY
Let@@
Py@@
RAN@@
Rail
Rib@@
Unique
ods
ore
sts
うるさい
くっ@@
ぺいんと
イプ
クイズ
グループ・@@
コンダクタ
スクエア
スポンジ
ティブ・@@
テーパ@@
デイライトシステム
ネー@@
フクスウ@@
ヘマト@@
ペンティアム
ライタ
侵略
六角形
取水
受粉
受給
壁画
大輔
女優
干
思慮
携わる
暮@@
最下
競売
耐酸
膜@@
蛇@@
街@@
起し
#&amp;
Has@@
Illumination
Ric@@
Stiffness
Subversion
Wor@@
ZT
Zero
boot@@
ea
ele@@
ert
javascript
next
wait
っしゃ@@
ひらく
ろい
アーサー
アーティ@@
シスコ@@
デフォルト・@@
ナギ
ハンク
ビューリプレゼンテーション
ファレンス@@
フォルダ・@@
マグネトロンスパッタリング
ラピ@@
ールド
下着
同志社
塞@@
変更子
弾圧
憑
手伝う
書院
柔らか
歌う
泌乳
盲目
組子
綿@@
藍
見学
訊@@
辛
髄質
高橋
鷹司
ﾓﾃ
BSP
CAO
Contin@@
Creating
Domino
Fab@@
Family
Glo@@
Lang@@
Machining
SIMS
Shared@@
Vol
Wind
cursor
ker@@
sheet
sin
いける
かた@@
じれ
インプリメンテーション
クラスタファイルシステム
シキ
シクロデキストリン
ディスク・@@
トリクロロ@@
ベンチャー
リプレイ@@
ロールオーバー@@
中耳炎
仮設
係属
刃先
叉
圧排
攻略
曜
無条件
無水
皮下脂肪
盟@@
礼儀
神楽
等化
紡糸
起き@@
蹴込
銃撃
鷹
955
ACPI
CALC
JO@@
MSR
Planar
Posture
SIG@@
VCS
feature
her@@
running
security
sym@@
アクティベーションコード
コーパス
ショニング
ジェネリック@@
スーパーバイザ@@
セマン@@
チェイン@@
モディファイア・@@
モンゴル
ラクタ@@
リファレン@@
リモート・レプリケーション
上段
印字
君@@
変容
本土
格段
樋
没落
結び付け
膿@@
見つけ@@
貸し@@
賃@@
賜っ
ﾇ@@
2948
300@@
After@@
Bor@@
CCP
Caching
Citrix
Clean@@
Editing@@
GRA@@
ILB@@
INE
Ms
NVRAM
Pad
Percen@@
Provi@@
READ@@
´
さつ
イライ@@
インクルード@@
イーサネットインターフェイス
ウン
キネ@@
キネマティクス
ジエチル@@
ステータスアイコン
ストラ
デス
バナナ
ヒン@@
ブートイメージ
プリフェッチ
マーケ@@
ミャンマー
伯爵
体裁
係留
域外
奈良@@
奉納
始めよ
宮内庁
嶺
折り畳@@
斜線
植民
法隆寺
混載
直結
着き
矩
秀次
種族
綱@@
総和
罰する
聖武天皇
迫害
還@@
風味
鳥羽@@
Are@@
Asp
Child@@
Extensible
It
MCM
PROC
PX
Personal
TOF
dent
gular
library
mark
pi
rac
}--&amp;
おう@@
かせる
じょう
グラ
サービスプロバイダ@@
ナビゲータ@@
マウン@@
マット@@
ユーザインタフェース@@
ユーザーインタフェース
ラグランジ@@
住吉
大使館
大王
太刀
太陽@@
引き裂@@
愁訴
携わっ
沢@@
波面
流罪
穴@@
羽化
起訴
迫ら
ﾊｾ@@
43@@
Am
CAB
Candida
Clamp
LGA
Month
PAT@@
Pur@@
Same
Segments
Visual@@
XED
open@@
tch
tw@@
vlax
ぃるた
ぬりつぶし
クオリティ@@
サムード
シグマ
ダイナセット
ダーク
ツイカ@@
パラメ@@
ファリン
プルダウン@@
マイコン
マスト
ムービー@@
レチ@@
中島
乾杯
元治
勃起
堕@@
売出し
寄せる
弔@@
応急
敵@@
最前
沸
登山
窮
紋@@
絹本
績
落雷
長大
食材
麿
Attachment
BER
Categories
Cryp@@
HDD
HSM
Optimization
PPTP
Passes
Repeat
Safe
Sales@@
Samp@@
VIS@@
ability
ey@@
len
spaces
ぃす@@
ぃんぐ@@
うじ
きか
とらえる
ばあ@@
ウニ
オフロード
スルー@@
デプロイメント・@@
バクテ@@
フ・@@
ペクチン
ホイス@@
ミュージック
リム@@
レオ
ヵ月
上告
凸@@
厨@@
去@@
受精卵
土御門
在地
壊す
天神
情動
拳
散発
浴室
消さ
猛
生かす
着地
築造
粟@@
結末
耐圧
耗
背い
衆議院
貢
長尾
雀
鞍@@
飲
154
5200
AZ
Blu
Integrated
Lyapunov
MEDI@@
Outside
RY
SNR
Scroll@@
SnO
Spec
Sti@@
THA
ack
ane
autofs
axis
ry@@
za
たの@@
ついて行っ
キャレット
グリース
コーダ
サブプログラム
スター・@@
フリンジ
フルオロ
ポリカーボネート
メータ@@
中山
伊勢@@
分かれる
大差
定か
小角
広汎
恋愛
批@@
探せ
武者
毛管
生き残る
異論
着実
紡錘形
義教
請い
駿@@
520
Cli@@
Follow
Kondo
Oy
Play@@
SEP
cookie
force
keys
ko@@
yl@@
いる@@
お送り
わたっ
アクセス・@@
アフィニ@@
エノ@@
カラノ@@
サンショウ
ジョイスティック
ソ連
トグル
ヘルペスウイルス
ポータブル@@
ミナル
ライトウェイト@@
交わる
圧接
失踪
射撃
局番
差し引い
彫り
拘
拘ら
摩@@
新宿
焼入れ
目盛り
自国
鑑賞
169
ATS
Addi@@
Balance
CATION
Gri@@
Interconnect
Interpolation
Jiggle
Mapper
Msg@@
ORD
Ops
Original
Pic@@
Star
Ware
ZnS
area
cen@@
izer
job
late
teri@@
vol@@
¥
うかが@@
カスパーゼ
カリング
ジオメトリエンティティ
ダクト@@
バージ@@
フラク@@
ポンピング
メチオニン
レコーダー
レンス
ローテーション
井伊
会館
作り上げ
備品
利き
妊
定値
悟り
搬送波
放線
桶
水源
浸炭
秀頼
網@@
肋
見捨て
高品
1582
1968
Absolute
CHO
Comb@@
Dim
Duration
Elec@@
Extract
GFP
HBs
JS
Resistance
Wei@@
acad@@
dium
les@@
あず@@
もとづく
よば
アプリケーションリソースグループ
アリス
アルバ@@
オービット@@
グレイン
ジャイロ
スーダン
タリ@@
トイ@@
フロッピー
プロジェクション@@
ベーン
主役
倭国
冷蔵
別記
名所
披露
教義
方々
日蓮宗
暴行
本多
棄却
法要
浄瑠璃
渋
測る
湿地
禁錮
配属
高麗
ｬ
193
Charac@@
PAgP
Rebuild
TAM
Tor@@
XM
cache@@
each
ess
link@@
parent
rad
あき@@
しら
たって
やって来る
インベン@@
ウォル@@
エクスプレス
カーペット
ケーシング
シングルサインオン
スムーススキン
チューニング・アドバイザ
ドロップシャドウ
ネラ
ノヘン@@
バウアー
プリル
リボソーム
侵@@
出国
励む
国学
在院
災難
煩雑
琵琶
異質
眉
童
組み立てる
製作所
試験場
起す
辰
頂き
ACI
APT@@
Ionix
MU@@
PHA
PortFast
cor@@
els
msi
tter
ulation
おし@@
くい
へる
やす@@
アリン
キープアライブ
サリー
シンチグラム
セラー
テッセ@@
トラッピング
プロセッサ@@
プロピル@@
ヘキ@@
ポリビニル@@
ラグ
・プロバイダ
両性
両足
入れ替える
兵部
剣術
大乗
大隈
戦時
抜歯
揃い
根絶
櫓
水酸基
累乗
綱吉
裁き
見つめ
誤動作
追い
過ご@@
間に@@
風俗
食肉
高松
鼓膜
005
205
FCS
KO
LANDesk
LN
METER
Panels
Parallel
Presentation
Pseudomonas
ROW@@
Startup
VAR
WOR@@
Xml@@
acct
first
last
lium
ng
odg
ous@@
yl
ぁれんす
すと
そしたら
へっ
アディ@@
インボイス
ウサ@@
オカ@@
クロマト@@
ゲーム@@
スキンウェイトペイントツール
ゼン
タクソノミ
ノホ@@
バッファリング
ピボットグラフレポート
フェンタニル
ホッピング
マキノ
マーフィー
リファクタリング
ワイルド
上半身
下級
丘陵
入道
勲@@
宝亀
強大
愛媛
斥@@
月別
未然
東方
楽観
独身
結びつける
軽油
重なり合う
隣人
頭文字
驚@@
ﾓﾃ@@
(?)
Blade
CADprocess
FIPS
GSH
Goal
HTML@@
Make@@
NY
OPS@@
SALES
Structures
Ve@@
ada
dx@@
localhost
mesh
tation
あくまでも
つかん
ぱす@@
アップグレード・@@
インストレーションガイド
コウセイ@@
サロ@@
シー・@@
ジャパン
チェックアウト@@
ハザード
ヒアルロン
プリミティブオブジェクト
ポピュ@@
レコーダ
創始
卸@@
大宰府
奈@@
富士
支局
救援
暑
次期
注し
珍
胡
訪@@
通じる
除か
電導
飲め
78@@
AH@@
ASME
AeccDisplayStyle
Bal@@
DOC
EFS
FGF
HI@@
OPLL
PIV
PRO
RV
Redo
Val
XS@@
after
fsck
gl@@
かえ@@
かに
ウェルカム@@
カメムシ
サケ
ショー@@
ディレクター
トモグラフィー
ニオブ
ハエ
マニュ@@
メッセージ・クライアント
メディアフォルダ
挿し
棟梁
泳@@
瀬戸内海
無用
発砲
真上
絶え
翻@@
貝@@
買掛
陀
高額
1910
Ab
BSA
ByLayer
COPY
Continuity
Elevation
Employee
Hosts
INV
Ig@@
OS@@
SRS
TEN@@
play
pt@@
rro@@
username
ぱねる
ろし
わく
アルカリ@@
アルギン酸
インスタ@@
オービット
カンボジア
ケガ
コンソ@@
ニチン
ネットワークフォルダ
ファースト@@
プリン
プロットプロパティ
ペンギン
マグマ
モディファイヤリスト
ユーザー・プリファレンス
ルシ@@
ルートファイルシステム
不利益
伝授
個@@
入内
内陸
出自
劣性
勢@@
博多
友情
大江
嫌う
学年
少々
愛情
憂@@
河原町
漢詩
玄米
盗
磨き
祥
綾部
罷@@
輿
遠慮
((
308
775
BMD
BaTiO
CALS
DIST
EIA
Help@@
IA@@
Id@@
Ra
TKA
YY
boolean
data@@
insert
pos
ump
あがっ
お手伝い
しょん
ちら@@
イソフ@@
イツ
ガスクロマトグラフィー
クリーン@@
コナゾール
ジェームズ
セルビア
デザインスタディバー
トヨ@@
ドラフティング
ハイビジョン
ハドロン
ヒール
ビューセット
ートン
作れ
側部
允
助かっ
向っ
国府
役に立た
日向
早世
曲がる
有難う
未詳
溶体
特記
較べ
輔@@
降雪
隠れる
集まる
黄銅
Brocade
DocApp
FIFO
KrF
Order@@
Result@@
WRITE
XDocument
XE
assi@@
mission
storage
ごとく
たまたま
にかけ
ばら@@
アクリル@@
キル@@
ゼル
トリア@@
トリー@@
ナツメヤシ
パレスチナ
フロリダ
ムーブ
メリ@@
モリ@@
俵
切り子
古紙
墳
士族
天王寺
嫌わ
幕@@
新聞@@
新薬
最多
栽
歌詞
湧
率直
町人
盾
鞍
Best
Cursor
DFC
Displace
Hyperlink
IHTML@@
Ku@@
LAK
Lag@@
Licensing
Lu@@
MOX
Macro
Plastics
SION
STRING
SYM@@
Squ@@
TPA
Tit@@
bo
ile
ink@@
isdn
lac@@
rac@@
ram@@
tional@@
てんぷ
アルカロイド
インタラクション@@
インターフェイスカード
エフェ@@
ガード@@
クショ@@
クライアントマシン
シャドウコピー
チーム@@
パフォーマンス・メトリック
ファジ@@
プライマリ・データベース
プロパティダイアログ
リアム
ワークロード・@@
一向
何もかも
償@@
出来よ
分母
呼ばわり
娯楽
山脈
払込み
抜か
振り子
昨晩
最強
桑
欲望
毎朝
煙草
特許庁
畜@@
磯
緑地
複数個
試行錯誤
遺構
間伐
電離層
高原
（-
Bills
CABG
Coordinate
DG@@
Diagnostics
IDMS
Master@@
SHG
Symmetry
TextBox
Undo@@
WW@@
aper
アボ@@
オオムギ
コンフィギュレーションレジスタ
ゴー
サーフェスオブジェクト
セグメンテーション
テリア
デバイ@@
バブラー
フォトメトリック@@
プレドニソロン
ペイントツール
ムチン
リンダ
・システム
乳母
予熱
今年度
共感
勤続
壬生
定家
居宅
届か
役立て
撮@@
止まれ
洗剤
洞察
番線
突っ@@
筐
紡@@
結実
胎仔
踏切
軟磁
連行
門院
驚か
魅@@
黄砂
ﾃﾎﾄ@@
5100
Audition
CellsSRC
Cir@@
DVI
Evaluation
Feed@@
HDTV
Icon@@
Images
Mobility
Np
Pin
Proce@@
RMI
Resize
SSM
SUA
Started
Stere@@
Target@@
WEB
eno@@
voice
がす
へき開
アラビ@@
ガラクトース
キャラクタエクステンション
クライアント・ソフトウェア
シミュ@@
セラ
トラベル
マタ@@
メイド
メニューバー
刺さ
動け
参拝
叔母
実感
専ら
愚
持明院
産ん
置き換@@
腫瘍
藁
西暦
++&amp;
1928
Button@@
Convert@@
FEREN@@
LLQ
OPS
PCL
PST
Partial
Ph
ProdNameShort
SER
Upload
Webtop
cr
dat@@
dev@@
dreamweaver
surfaces
°，
あう@@
あし
いとこ
ざし
なお@@
もとづい
らう
らみ
インドール
グルーブ
コンピテン@@
スタット
ストリート
ツィ@@
ピロール
フィラ@@
フルーツ
マイル@@
モグラフィー
リョウイ@@
余弦
医薬
原簿
土器
太く
実演
年輪
招か
搬入
本殿
楠木
獅子
異説
葬ら
蘇@@
見分け
越す
過激
過飽和
鈴
＃（
252
506
AVM
BWR
Cont@@
Def
EI
FeO
Layered
MQ
Modified
NM@@
Slide@@
WFQ
deg
ens@@
put
sus
tm
ぷと
アクティブビューポート
アメリカ@@
アルコ@@
エンハンス@@
オス@@
カンリ
サイレージ
シュリンクラップ
ジャンクション
ジルコニウム
ストレプト@@
スノー@@
ッツ@@
ドリル@@
ハードウェアアクセラレーション
ファクト@@
フィーチャクラスフォーム
マスコミ
中学生
人事院
仰角
原虫
吉川
奥行
宸@@
憂い
掻@@
教団
欲する
歌合
正午
泳ぐ
減じ
癌腫
盗む
耐え忍ぶ
菊池
襲名
ﾟ
Alter@@
Black
Hc
IVE
Margin
Preserve
Selected@@
TMS
Variance
YPE
audit@@
head
inst
tech
だいたい
アナフィラキシー
アーチ@@
インスタン@@
キャプ@@
クローズド
コナー
チア
ップス
ツリ@@
バス停
バレ@@
ヒストリー
ビリー
フラワー
ブラックボックス
マグロ
モデルプロパティ
ルックア@@
ワックス
不眠
伊東
優勝
噴門
園芸
増や@@
御陵
暖かい
来年
枯死
棺
演目
潅水
異母
磁壁
空け
諜報
CBF
Combustion
Connec@@
DCX
EditablePoly
Gal@@
Granite
Med@@
TTF
VF
commit
href
lan
primary
sel
wd
おこ
っぽ
ぴん@@
インシュ@@
エクスポートファイル
グリコール
コンプレックス
スコット
ディーン
バンプ@@
ビデオ・@@
フッ素
フラグ@@
ブル・@@
ブレーン
ボラ@@
ヤン
主筋
介@@
公演
到@@
去勢
坂上
変種
外さ
宇宙船
密封
御存知
思い出
成り立っ
旦那
殉@@
波紋
病床
結びつけ
蛮
謄写
象@@
退却
適さ
錦@@
門下
頑固
類縁
魏
54@@
ARD
CTI
Calculate
Fix@@
Ground
Highlight
IOR
JBI
Kal@@
Langu@@
Like
Mas@@
ORS
PKI
SAVE@@
VMI
Vertex@@
bind
dev
msoTrue
stan@@
どけ
アデノウイルス
クイン
コレラ
ジェダイ
セント@@
バマ
フライアウト@@
プラグインマネージャ
ボーイ
マジック
モデルエクスプローラ
ルーメン
・リスト
不等式
仏殿
千家
垂れ
大山
宮廷
寵愛
府県
引き伸ばし
恨み
慣例
旧制
曖昧
死滅
気づく
気味
狩猟
膝@@
舞踊
苦難
萌@@
起こ@@
辞典
郵@@
頒布
飛行場
高田
.*
156
Ali@@
Bacillus
CBR
CNC
Cameras
Connector
DCOM
Den@@
Encore
NASA
OFDM
Planner
Rx
Script@@
Unigraphics
Variables
WIN
WW
avi
custom
ek@@
ib@@
items
せっけい
インフラストラクチャ
イーサー
ゥ
エクスプレッション@@
エンドツーエンド
オロ@@
コンパートメント
スキー@@
スフィン@@
ソルバー@@
データノ@@
ナビゲーター
ナレッジベース
ハナ@@
プレファレンス
ペルー
マウント@@
リボンコンテキストタブ
三叉
内層
取り上げる
尚@@
庭@@
復位
旋削
栗
直立
紅茶
花芽
貧
遍@@
髭
CSI
CgFX
Inher@@
Invoke
Iso
OW
PPE
Plac@@
Profiles
Red@@
Reference@@
VIII
ance@@
factor
ph
rule
tru@@
しま@@
すっ
サクセイスル
サーフェスプロパティ
ドキュメントワークスペースサイト
ノーマ
ハリー
パーツフィーチャ
フリ
フー@@
ブローカー
プライマリコンテンツ
ペルオキシ@@
ヨン
乱用
六方
同性愛
團@@
堀川
声門
委譲
座主
惣@@
政子
水色
溶離
茶碗
葉状
謙
豊後
遣@@
鳳
++:
1969
216
63@@
AMP@@
AMT
Air@@
Boun@@
CESS
CellsU
CommandBar@@
DCM
Delta
FRAME
Flu@@
Inde@@
Matte
PGP
PPAR
Pt@@
dw@@
liance
light@@
ong
pkg
おかしな
かえって
とき@@
どころ
エンドトキシン
サイエンス
サブパーティション
サプライ@@
サート@@
テクニカル・@@
トラス@@
ドリルダウン@@
フェード@@
ヘルペス
マルヤム
メア
ワイヤレス@@
ワークシート
一条天皇
一流
儀礼
午
叫ぶ
奨@@
妊@@
定点
実寸
尤
播
斬り
東北@@
死ね
気密
瀬川
灌頂
灘
猶子
生計
発着
目論見
築く
絹@@
維新
見分ける
貪@@
遠江
金具
額面
ｻ
ﾍ
#)
1890
1965
=""
ARC
GG
Graphic
MAYA
Quar@@
Roof
Solo
TCR
Typ@@
VLX
ZX
background
del
fr
gon
points
tical@@
tin@@
がく
ご存じ
アトリ@@
アルミ@@
カス@@
クズ
タンパク
チタ@@
ビジュアライ@@
フェノメナ
ワークフロータスク
乗り越え
但馬
唄
図解
土方
壊さ
密か
小惑星
巡っ
微少
恥ず
慈善
扇形
支保
新人
昇っ
春日@@
本拠地
無量
現物
立ち入り
脳出血
触る
調合
門人
＃@
ﾌ
(_)
++@@
=%
Account@@
GLOBAL
HEC
JSR
Marvel
Premium
RESTful
Spine
bcc
dBm
fy@@
shader
あた@@
そっくり
のせ
まとまり
カワ@@
ゴルジ
スクラッチ
ゾクセ@@
ダイレ@@
ダクション
ツィーク
テトラヒドロ@@
パーツブラウザ
プロポ@@
ヘキサン
ヘリコプタ
ベラ@@
ボロ@@
ポリエチレン@@
マネージャー@@
メンテナンス@@
ラッパー
レジュー@@
ローカルフォルダ
不同
主演
使い慣れ
備後
同然
命ぜ
年月
当っ
擁@@
縁組
語り@@
賜物
近視
鎮座
閑@@
AUTO
Both
CSR
Collaborative
FOSI
GIST
Knowledge@@
Mag@@
Propagation
SCT
SELE@@
Stencils
Thermal
hr@@
side
sing
tup@@
あえて
はずす
べつ
ほうこう
アソシエ@@
イタリック
イノベーション
オフサイト
クセ@@
クリエイ@@
コリドーモデル
コルチ@@
サマリ
スライマーン
セレクション@@
ソースフォルダ
ッシャ@@
テレビ@@
ハンマー
バウン@@
ポリオ
ミクス
メッキ
ヤク@@
ロード・バラン@@
中葉
九月
再送
団結
執事
培@@
導き@@
局@@
布教
強直
拘留
桜井
歯髄
狂
磁極
襖
見いだす
避雷
青木
AutoStart
CASE
DASD
DAT
ERS
Life@@
MEMS
Registry
This@@
dy@@
ifconfig
instance
interval
ise
ll
nas
ric@@
ski
tag
tftp
すい@@
ずら
つぶし
アート@@
オーバーフロー@@
ケモカイン
シャフト@@
スリー
デフォーマノード
バイナリ@@
パッキング
ヒツジ
プロセス・@@
モヤ
・モード
ーミング
付け加え
使い分け
告訴
塞
座る
後頭部
悪人
拾遺
整える
某
楽し
洞窟
海里
浸食
田村
甲状
答弁
襲@@
賭@@
酷
鋭く
頻発
ｳ
1180
207
672
729
AAL
Beam
Chi@@
Detec@@
Markov
QOS
Steps
Str
YY@@
del@@
ense
ho
initio
ko
pentium
stent
さま@@
しおり
ちなん
ぱねる@@
アゴニスト
インジェクション
ウエスト
エミ@@
カラーチューザ
ガラス@@
キノコ
タイラー
ツールプロパティ
フタル
フット@@
ペイ@@
ポイン@@
マイコ@@
ライアン
不注意
中古
乳酸菌
取次ぎ
小松
川崎病
市街
平城京
抜き@@
採択
放火
新旧
泳い
獲物
窒
箋
育ち
製紙
過多
養分
高低
魚介
ﾚ
Fri@@
Graphic@@
INS
Ir@@
mit@@
sample
textureMap
じょ@@
ちゅうし
イロ@@
エディット
クラッチ
クーパー
ケツ@@
スペア@@
タクロ@@
ダイアモンド
デュアルコアインテル
ピボットダイアグラム
フルスクリーン@@
ブレン@@
マイクロコンピュータ
リッチ@@
中耳
内藤
卵子
多田
届き
戊辰戦争
捺@@
撃ち@@
旅団
普
木の@@
梵@@
歩合
殊
求心
沙@@
溺@@
無痛
物部
緑茶
蟻
防い
雌@@
鳩
69@@
Arc@@
Arial
CAR
CBI
FQDN
Fc
IGRP
Knowledge
POSIX
Pip@@
SCRIPT
Slice
archive
ari
cho@@
priority
tr
いや@@
うぃんどう
すかし
っこ
アイデンティ@@
ウェー@@
カーテンウォールユニット@@
キトサン
クトリ@@
シリン@@
スケマティック@@
デスモ@@
ナイジェリア
ヌル@@
ファスト・@@
フィブロネクチン
中尉
倍加
其
同居
多額
学識
巧み
律@@
後代
応報
村田
火曜日
蒲生
薬液
試練
顕在
ｪ@@
128@@
2400
AUT@@
DIP
Erase
Failed
MESSA@@
Messenger
ODS
STE@@
Tangents
Workforce
ZE
^@@
arg
crontab
dle
every
pa
snap
おこし
ぷりん@@
らめ
アウトソーシング
アクティベート
インクジェット
インターネットサービスプロバイダ
オーバヘッド
コマ
サブディバイド
スロー@@
ゼリー
ドメインネームシステム
ノキ@@
ハイパースレッディング・テクノロジー
パイン
ブラウザノード
マンション
リモートアクセス@@
中川
付記
兵隊
兼務
大覚寺
感応
横向き
法務
起り
ﾅ@@
08@@
CATE
Enhanced
Jc
MCP
MGMT
NAD
Quad@@
SOURCE
Wo@@
ches
ences
ze@@
ぐぼっくすの@@
アゾ@@
アドイン
インク@@
クエリー・デザイナ
ケーション・@@
コレステ@@
チノイド
デーション
トピックス
トライボ@@
トレー
ナレーション
バウンディング@@
プログレッシブ@@
ヘルス
ポリアクリル@@
ミリ@@
モンド
リドカイン
先取
処し
告@@
大徳寺
宝物
尋
後発
慌@@
挟ま
文部省
殴ら
毎晩
汲@@
法華@@
狭義
真田
知らさ
磨耗
絡
軽水炉
開祖
顕微
1918
1940
74@@
ADS
Device@@
Pu@@
SIN@@
Scaling
Solve
TMR
bert
center
content
enti@@
nel
々しい
えー
おの@@
おやすみ
くき
なが@@
アカデ@@
インターナショナル
オプティマイ@@
クジラ
クレデンシャル
グラフィ@@
グリコーゲン
ケード
コンシステンシ@@
コンテンツデリバリ
シロキサン
シンクロナイザ
ジスルフィド
スパッタ@@
パレ@@
フォームビュー
プレス@@
ポリゴンフェース
レベ@@
付する
加害
十字@@
叙任
喚起
大形
太子
夷
左向き
年寄
成り立つ
拍手
掛かっ
推古天皇
掴ん
末裔
條
機内
測位
独
粉じん
纏@@
義務付け
致@@
虚言
詠ん
語い
輩出
通風
飲用
04@@
Amp@@
Between
CONTROL
Currency
DTE
Hubbard
INVALID
ITP
MODEL
Moessbauer
PY@@
REST@@
Share
TIONS
Vertices
WebVPN
assembly
hair@@
include
ips
ye
くらべ
こう丸
たいぷ
っかり
ゃく
わり@@
アトラクタ
イスラ@@
インテリジェ@@
オキシド@@
カテプシン
グルカン
サムネイルイメージ
セーブセット@@
ナック
ポリマ
モーター@@
リーチ
久我
侯
出芽
医科大学
受光
召し@@
同国
向かい@@
堤防
大江@@
広め
引き継ぎ
悪心
書状
来たし
歩幅
神父
聴き
質的
遮音
驚異
1899
234
Aim
GST
HIKCharacterState
LLBACK
Launch
OFF@@
OracleXml@@
Pag@@
Records
Revi@@
RuleCondition
Talk
Technologies
Tessel@@
Toolbar
full
kD
less
ong@@
scape
software
util
がみ
のぶ
びっくり
ふくそう
り込み
イミダゾール
ウイルスベクター
エラスターゼ
オンラインレスポン@@
グロビン
ジーン
スパムメール
ダッシュ@@
チェックアウト
ッタリング
ドレープ
バラツキ
ビューコントロールバー
ファイナルギャザ@@
フク@@
プレイバック
ャ@@
リチャード
ルミネセンス@@
二条
動かさ
動産
呑@@
巾
幻@@
張れ
暦@@
栽@@
概して
武道
浸し
糸@@
聖なる
芳
製鋼
貯水池
（%）
010
1898
ALLO@@
ArF
BIND
CubeQuery
DCE
Deri@@
ESC
Email@@
Gbps
Host@@
Kine@@
Marker
NPE
Profile@@
RTD
Research
Tm
XO
art
di
metric
phen
rap@@
scope
va@@
vector
wav
å
ぼけ
アセタ@@
インターチェンジ
エイリアン
ガーネット
クラスタノード
コサ@@
コマンドラインインターフェイス
コーポレーション
シロ
スリー@@
トランケート
ニュウ@@
ネギ
ビニール
ピート
フィジ@@
プレース@@
ベンズ@@
ベンダーデーモン
ライセンスサーバ@@
企て
充@@
収まっ
外層
寛大
導線
抽@@
撮る
格付
楽しめ
漏らし
珍しく
筒@@
老朽
脱色
茶室
謙信
這@@
進路
離せ
馬鹿げ
｜@@
209
Blo@@
Composite
Door
EPR
Header@@
IONS
Libr@@
NST
Ports
RTO
Synchronize
UDT
case
close
mlsrv
mus
ties
あきらめ
かく乱
がっかり
こうか
ときどき
のぞ@@
びれ
イエロー
イメージング@@
エイム
エクストリーム・エディション
エチレングリコール
グローブ
コンストラクション@@
サッシ
スタンバイ@@
スターリング
セキュア@@
ゼパム
ゾクセイ
チド
ツウ@@
ヒアリング
ラー・@@
リアクタ@@
一気に
乳剤
信書
出動
務省
困る
執行官
女神
嬉@@
年上
挫
欠い
欠乏症
浮世絵
監禁
積ん
者@@
覆@@
豪雨
重盛
隋
ﾞｰ@@
673
BOCS
CTD
Collapse
DPA
IIP
Ins
Japan
Lic@@
MAL
NADH
PXM
TCAM
XHTML
ans@@
ial
mapping
serv
sti@@
stitute
un
あげよ
あたい
しら@@
ねじ@@
ひし形
まね
インスタント@@
エンタープライズプロジェクト@@
コンフィギュレーションファイルオプション
サーモ@@
シャル・@@
ステーション@@
ビューブロック
ブランディング
メトキシ
ラクダ
ラグドール
供述
働きかけ
処方@@
取り外さ
吉良
吸音
如何@@
姉さん
峰@@
庶流
庸
後天
戻入
振る
撮り
数え@@
果す
歳児
消長
相応しい
至福
衰え
親しく
遠ざけ
間仕切り
需
ｷﾖ@@
;?
Circuit
CustomXML@@
Detach
Keyframe
LEGATO
LY@@
More
Ocean
PDL
PTP
QCD
VBR
destination
gl
method
mos
remove
tab@@
tenv
vl
せっと
たえ
たたい
たんぱく質
ちょ
とこ@@
ょうの@@
をめぐって
アリング@@
カラス
キログラム
クエリー・セクション
グリップスナップ
コリジョンレイヤ
スコー@@
ソフトウェ@@
タンデム
チャンバ
ハル@@
ハンガリー
プッシュ@@
プレキャスト@@
メルカ@@
リブ@@
レンチ
一期
万一
公務
切手
召し
所轄
折り返す
抱合
時間@@
無傷
稲葉
背信
見直す
議案
金銀
$$
1949
ABLE
Cour@@
Cys
Face@@
Glu
QUER@@
base@@
cd
ets
late@@
けっ
げん@@
さも
した@@
どうにか
んな
エレメント@@
ギター
グレーディンググループ
ゲートキーパ
コントラ@@
サイドリンクバー
シノ@@
ジオメトリキャッシュ@@
タイムライン
タスクバー@@
チオン@@
ナレッジ・@@
ハプロタイプ
ハンター
バイオテクノロジー
バックプレーン
ベニ@@
マイン@@
ヤアコーブ
レス・@@
先導
先駆
判官
半身
取ろ
名家
味わえ
央
微弱
手錠
教養
文字通り
文様
斥
消灯
涌@@
無く@@
王女
肺葉
落と@@
衝動
語源
諏訪
警護
障@@
BQY
COL@@
Calendar@@
Jones
LC@@
LiNbO
MSN
Mach@@
Man
PRINT
PUR@@
REE
SORT
Study
Symantec
for@@
handle
oth@@
standard
tal
ther@@
trac@@
インキュベート
ストレーション
ダイス
チウム
ドン@@
ナイ
ナイト@@
ナル・@@
ハッキング
ハンドル@@
ビオチン
ファッション
フラム
プライマリサーバー
プレミアム
ベルリン
モロ@@
ライダー
ライナ
リノベーション@@
ヴォール@@
主因
佛
元老
到
加茂
同類
士@@
延命
思いやり
戯@@
明天
母屋
測っ
産婦
疫
粛
納品
純正
見回す
見開き
覚える
踏み
長慶
陪審
領土
925
ACAD
ADER
BOF
Bit
Chooser
EMO@@
Frac@@
HIP
Life
MBR
PSC
Parkinson
REG
Ring
SGI
VIEW@@
Wave
fied
fx
hm
iSNS
lations
lec@@
mask
あく@@
あふれ
かきだす
アニメ@@
アバ@@
イニシャル
インヒビター
ギザギザ
シャットダウン@@
シュミ@@
スクラップ
スプラッシュ
ゾル@@
トリン
ニャ
ノルエピネフリン
パースビューポート
ビメンチン
フェナ@@
プロパティフィールド
プロンプトライン
ボウ@@
マテリアルプロパティ
ロックアイコン
ージュ
二条@@
兼ね@@
北極
北野
叩き
富士山
従軍
思い出さ
意味合い
明神
暖
書写
狭小
療@@
苦手
薬師@@
誓
読込み
豚肉
阪
隠し@@
1966
Adjust
Always
Deploy
Dou@@
ESI
Influence
LogMiner
SnapSure
TU@@
Ten@@
Transformer
Uplo@@
Var@@
WinRM
acle@@
authentication
jec@@
lm@@
こりゃ
ちく
めっせ
アント@@
エミリー
コイン
スコア@@
ダイナミックアトリビュート
テトラ
パシー
パーツプロパティ
フレクサ
プロパノール
ルテニウム
ワイヤレスネットワーク@@
ヴィス
九郎
作れる
刃@@
切り替わる
勧進
叙爵
四天王
妖@@
妻@@
対人
当たり前
投機
溶湯
生駒
男爵
直系
紗
逃げ出し
選べ
174
1946
1967
293
478
AIDS
Anchor
Blue@@
GNU
Horiz@@
OM@@
OracleAQ@@
Parti@@
Sco@@
Sprite
TUR@@
Trigger
acom
adsk
fire
fl@@
land
orn
reference
↓
あす
びん
ぶち@@
アブラムシ
オーストリア
カイコ
コリジョンオブジェクト
コンクリート@@
サインオフ
シェルフ@@
シュリンクラップ@@
スティーブ
ゾーイ
デート@@
トリプトファン
ネルソン
ハンス
パディング
ラニスター
上院
制服
土質
塀
廷
怖
振っ
新星
木戸
横書き
気象庁
津線
温州
真面目
緊@@
衣類
討た
貯金
野山
飛ばす
Acad@@
Author@@
COL
Camp@@
Edge@@
Flex@@
Lorentz
MOV@@
Plate
RMON
St
VC@@
VII
VSTA
Visualization
bFGF
cle@@
sup
xsf
おる
かなっ
ふくらみ
エリック
パーソナ@@
ビスマス
プレースホルダー
プロパティファイル
マップファイル
レンダリングエディタ
ージョン
一角
仔魚
仮処分
併科
参戦
叙位
吐出
命じる
国史
塗り@@
大成
天台
安堵
川崎
慧
戦わ
手本
散見
月曜
畜生
秘め
移築
羽柴
賜
踊っ
陳@@
470
BOX
Bevel
CFG
CONVER@@
CTC
Consi@@
Critical
DAS@@
Del@@
ENTER
Foot
Jac@@
RPA
SPICE
ShapeRange
Solid@@
Tags
bon@@
iRecruitment
shutdown
str
sub
tics
von
ال@@
うる@@
かな
じょする
なかでも
ぱす
ぶん@@
アジュバント
アニメーションレイヤ@@
ウィンドウサイズ
キツ@@
グラデーション@@
ココ
コンジット@@
コンプレッサ
ジェネレーティブ@@
ステアリング
チオン
デリミタ
トーチ
パイル
ホース@@
ボールド
ポーズ@@
マニア
リバー@@
ロウ
ローブ
ワイ
ヶ所
住友
入室
受け継が
周防
嗅@@
売れ
帯磁
床下
後鳥羽
於
未だに
機上
浮気
疫@@
立て@@
素晴@@
義輝
胃酸
覗@@
貴金属
陥り
鳴り
1963
Apple@@
CONSTRA@@
DMD
ERG
INIT
Live@@
MIM
NADPH
PING
Progress
RSC
Scheduling
Times
VAT
VH
gging
interfaces
micro@@
いまだに
アルゼンチン
イム
キャディ
クレイ@@
グリセ@@
コンテナ@@
サーベイ
スサノオ
ステレオ@@
ソフ@@
ソフトウェアレンダリング
ニオン@@
ノイド@@
プライ
プラグアンドプレイ
プロット@@
プロップ
リシン
リットル
レイヤキースタイル
上天皇
京阪電気鉄道
大化
失速
婦@@
捻@@
撞着
時価
暑い
洗い@@
渠
猿楽
瓦@@
生き残り
見張り
随
隣@@
.」
003
;)、
CATRig
CNS
HIKEffectorSetState
ICT
Logi@@
PAF
Studio@@
UN
ference
ft@@
hook
lo
monas
ress
ありがと
きめ@@
ちり
どん@@
アプリケーションプログラミング@@
エイリアシング
キーボードレイアウト
ギズ@@
クライアント・コンピュータ
コンバー@@
コーラ
ジストロフィー
スタイプ
スロット@@
チェル
ディク@@
ユーザーアカウント
ライダ
リモートアクセスサーバー
世阿弥
優る
公事
募
嚢内
悩まさ
法親王
浸水
特約
磁気圏
祀
祝い
絵師
罪人
芋
苦味
言い訳
誓@@
退色
逃がし
逝@@
ﾂ
(=)
118@@
AK
Amer@@
COR@@
Center@@
DME
EPA
FMS
ICEN@@
ICG
Initial@@
LCC
Leg
MDI
Ma
NEM
OSDM
Optimize
PPLX
RANGE
account@@
bacter
hh
ized
li
nat
native
processes
pvT
sk@@
ud@@
いんと
うーん
おもしろい
なた
アフィン
アンジオテンシン
アーティクル
オイ@@
カント@@
クイックプロパティ
クラスター
コモンスペース
ザイム
シエ@@
ジョニー
スケルトン@@
スポット@@
タイズ@@
デカン
プロジェ@@
プロッタ@@
プロラクチン
メルト@@
ロビン
ンスル@@
了承
令@@
切欠
協@@
口内
引き継い
握る
文武
母国
泳ぎ
済ませ
給油
耐え忍@@
蓮@@
褌
親戚
退行
遅らせ
2015
Cust@@
Em@@
Higgs
ISO@@
NOR
Program@@
RTG
Section@@
Suc@@
hub
lat@@
ond
pkgadd
render@@
sr@@
tract
web@@
word
ぐこんとろ
ぐぼっくす@@
つる
アウン
アトリビュートペイントツール
インプット
ウエイト
エイリアスセット
カメラビューポート
クラスタ・@@
クリアー
グラフィカルオブジェクト
グレン
スィ@@
セーブポイント
バッチレンダリング
ヒメ
プロダクション@@
ヘリコプター
マゼンタ
マニピュ@@
メタクリ@@
モスクワ
モックアップ
ランディング・ページ
リラ
ワークプレーンセット
交信
交易
仔
便宜
卸
原田
向き@@
和睦
大軍
失神
引き寄せ
水痘
汚
渓
激
申し込み
畏@@
聞き取り
脱皮
触ら
近かっ
通説
邪神
陸棚
震度
鱗@@
Accounts
Ala
Assignments
Extra
HPC
Kon@@
Mr
PRODUCTNAME@@
RECE@@
RODC
Sanitary
Scheme
XM@@
Ze@@
ake
bps
default@@
est@@
fold
nodes
non@@
protocol
que@@
かんり
こえ
しゃべ@@
つまみ
アクティベーション@@
アビ@@
ウォーター@@
オーディ@@
クラシックユーザインタフェース
ケラ@@
ゴードン
シクロホスファミド
ジャー@@
ストーリー@@
ダイナミックディスク
トラックビュー@@
パドル
ビヘイビア
ホジ@@
リアン@@
リッスン
ルス@@
レンズエフェクト@@
上気
凶器
名札
城下
塗抹
夫妻
富士通
当ては@@
情緒
昇る
月頃
歩兵
油性
物価
白川
石器
老い
耕地
自給
葛城
蒸し
解っ
遊泳
闘争
電信
非金属
!&amp;
.%
911
ARM
Appearance
BIT
Begin
Branch
CHANGE
CSC
Cells
Connectivity
ELF
IDP
National
SBD
Scen@@
ace
ename
isp
len@@
listener
low@@
rep@@
≫（
さいし
たいした
アデノ@@
アラキドン
アンペア
アーカイブ・ソリューション
インプレイスファミリ
ウラシル
エール
オフセットサーフェス
オークション
ガソリン@@
キャリヤ
ケニア
コンフィ@@
ツリー・ビュー
ナフト@@
ヌクレ@@
ヒー@@
ファブリ@@
フラグメント@@
ブロー
マイター
マスプロパティ
マテリアルリスト
メット
ヨード@@
リジッド
リゾ@@
リポジトリ・ブラウザ
ワイヤデフォーマ
下段
不死
争う
付き合い
出し@@
勝て
勤しむ
尽くさ
山水
強風
惹@@
梢
検事
欧文
照準
生起
用材
痩@@
竹田
至高
葺@@
通商
酪
重文
降ろし
隊長
ﾓ
APJ
Additional
Ballo@@
Bars
Cmd@@
EMT
Emission
Eu@@
Fun@@
Gol@@
Hop@@
Keying
MSM
NEL
NES
NTLM
Networ@@
Orders
SIS
Secondary
ards
locks
ple@@
rb
steps
whatsthis
ζ
​​`
いらっしゃい
ざん@@
ずらし
つらい
つり@@
ひろ
びき
ぼん
アスペルギルス
ガストリン
ガンダ
クエン
シブ@@
ジョイ@@
ニュートラル
ファル@@
フグ
フレーク
フロキサシン
マッチライン@@
一大
一般@@
伐
修め
公団
反撃
反比例
吐き気
囲
寂しい
寄る
忙しく
恒星
悪党
払戻し
拠@@
日内
本棚
此処
注い
火薬
狙う
稲作
葵
解き@@
遅らせる
長浜
陵@@
飼っ
------------@@
460
ACP
Comp
Cro@@
Debu@@
ESRI
Enginuity
Expen@@
Expres@@
Functions
KI
PARM
Rob@@
Sites
XMP
YS
acc@@
ced
ding@@
ice@@
information
multi@@
save@@
tran@@
tric@@
tur@@
ぃれ@@
せつ@@
ひだ
ろく
わざと
アクター@@
カネ
ガスター@@
スイープブレンド
ッセル
テキストレイヤー
フェードアウト
フレーバ
マジ@@
マテリアルエディタ@@
リストア・@@
レツ@@
上着
低迷
体格
凄@@
威力
実業
実車
尺@@
尻尾
幕政
引き継ぐ
当地
感想
抗争
斎宮
枕@@
沈黙
沸点
然と
異形
直観
裏切り者
補綴
貧者
釈@@
239
Emai
His
ISS
ISV
NGO
SDP
TEMP
TERM
TEX
Trouble@@
Wheel
Where
cer@@
complete
ey
lock@@
msg
ぇすの@@
まろ
アプリケーションステータスバー
アンド・@@
エンティ@@
オッ@@
オプティカル@@
キノロン
ゲニン
コンタ@@
ソース・@@
タマネギ
ダイン
ッサー
デザインワークベンチ
ハッシュ@@
フィール@@
フォトンマップ
ブートインストール
ペーシング
ユビキチン
・テクノロジー
ージョン@@
倒産
凶
勝ち@@
嗣子
大蔵省
天文学
家中
差し引く
復古
恥ず@@
意外
支社
朗@@
水冷
着生
精錬
臭@@
荷役
著しかっ
見失っ
観音@@
詰まっ
邪
餡
1884
ASCP
Accelerator
Ajax
CGMP
DDI
Logical
PIP@@
PROJECT
Recur@@
SAA
SAMPJCL
VENT
^^
dm@@
edit@@
fg
grade
pn@@
pped
reg@@
ro
sl
telnet
tern@@
win@@
~&amp;

あいだ
ちゅう@@
アイド@@
エタノール@@
ガレージ
グー@@
ザック
スプレーン
スペック・アップデート
スペー@@
ダイジェスト
デカ
トライ
ドロー@@
ニャ@@
ピュ@@
ボク@@
マッチ@@
リゾート
北山
告白
嘆
垣@@
宣誓
常勤
悲惨
戦え
旭@@
書簡
最速
有毒
松井
染み
独裁
畑@@
砦
稽古
空手
繊細
航跡
良品
被写体
解か
誘っ
通り抜け
遂げる
門徒
鴨@@
ﾑ@@
(*.*@@
CDM
FONT
Fast@@
GaP
Gn@@
HAZ
HMM
Impress
MGX
Mercurial
Metrics
NUR@@
PAR
Policies
QTO
RG@@
SF@@
SOUT
Sci@@
Short
Side@@
Wilson
ader@@
ple
ulate
unit
あたらしい
がかり
くる@@
こっ
なり@@
りる
エーター
キサンチン
キャプテン
キョウ
グラファイト@@
ケビン
シンク@@
ティング・@@
トーマス
ドラッグ@@
ベンドテーブル
ムス
ユリ
ラセミ
リリース@@
レボ@@
レント
乗務
任さ
即
名声
土中
域内
媛
小判
探検
援@@
援軍
散ら@@
正成
泣@@
港@@
然@@
牧場
自衛隊
遠距離
部族
重なら
長径
骨膜
""@@
;(&amp;
Box@@
Cho@@
Computer@@
Cp
Faraday
Gate
HM
JE@@
MSP
Pal@@
Partic@@
Resol@@
disk@@
enabled
entry
fluid@@
ico
kPa
que
sv@@
ty@@
けない
そろ@@
におい
ひっ@@
ぷろぐらむ@@
みつ@@
もん@@
ょうと@@
るし
わか
クライアントシステム
ゴウ
サーフェスハッチング
シクラ@@
ストラクタ
スポーン
セマフォー
センチ@@
デ・@@
ネイバー
ハイテク
ビング@@
プロパティタイプ
マルチテキストオブジェクト
ルールド@@
主治医
倒す
入場
受渡
在職
売掛金
夜中
大原
審判官
幼稚園
後白河天皇
撰@@
方偏
残ら
気付く
水酸化物
混ぜ@@
煎茶
盛り
答@@
脱走
自由@@
芹@@
虚しい
虚しく
西方
誇る
説く
買え
走れ
車庫
ﾟ@@
Collisions
Dependent
EssOtl@@
FPD
Friction
Ha@@
Incandescence
Mes@@
NASTRAN
Profit
Rectangle
SCE
SQLite
Tar@@
VERITAS
dg@@
ide
image@@
kets
recover
sat
いま@@
おか@@
お祝い
たけれ
アメーバ
アラー@@
エロ@@
オブジェクト・ブラウザ
グルココルチコイド
ゴシック
サーフェスデータ
スズ
ドライティング
パチー
パラメトリックパーツ
ベレ@@
ミスト
ムーブルール
レイン
レタス
ーフ
不便
作業場
傑@@
優遇
助かる
北朝鮮
反論
塊状
尽き
属す
布告
廟
悲しん
時半
松竹
査@@
棲
洗っ
涼@@
用件
発動
白斑
貴様
過ぎ@@
違和感
都度
関係@@
関連づける
185
1904
211
Artisan
CONFIG
Connect@@
Dropoff
LEC
LLC
MK
Membership
Menus
Palette
Preferred
RVT
ULA
WAR
Wireframe
oul@@
ull@@
かぜ
っ子
の子
ひ骨
ほんとに
もうけ
るげん
アトロピン
アナライザー
アナリシス
アライ@@
アランス
オム@@
カレンダ@@
クラッシュ@@
シンチグラフィ
ジャンル
セージ
タイザ
テンプレートファイル
トコフェロール
パワ@@
パートナ@@
マクロライド
マール
ミラ@@
メカニ@@
リモートアシスタンス
ーズ@@
ーツ
中華@@
修繕
償
召さ
坐骨
大工
奉じ
岡崎
抄本
真夜中
知性
磁心
突破
経る
義貞
肥後
触っ
集成
1862
187
AIM
Autoloader
Bro@@
CdS
Kenai
MWF
OracleTimeStamp
Partitions
Poc@@
REMOTE
Resi@@
Xdata
adata
econ@@
owner
pkg@@
return
xy
さり
びら
ぶし
めったに
もみ
インストラクター
ウェイトカーブ
ウクライナ
オイル@@
カットアウト
サイリスタ
サーマル・@@
ショウジョウバエ
ストローク@@
トラフィック・@@
パーティクルシード
フェデレーションサービス
プレイリスト
ユニバーサル@@
ルーク
人殺し
分科
吹か
国名
子育て
家業
小径
引き渡し
復し
早かっ
景勝
苦しい
離宮
頓@@
（+）
ﾏ
.&amp;
198
290
ACM
Alzheimer
DAY
Eclipse
PROCE@@
PSP
Prefix
Pres@@
QueryDef
Refresh@@
ders
drive
fo@@
ino@@
jav@@
mary@@
ole
restore
ron
tes@@
world
うねり
ちがい
ょうほう@@
アルカ@@
アーキテクチャ@@
アーロン
インポートファイル
オレイン
サブクエリー
シャー@@
テック
バク
ヘンコウ@@
ホスファチジル@@
ポケット@@
ポラ@@
マルト@@
メガネ
リストアップ
レシピエント
ンブル
借地
分け@@
判読
助産
勘違い
原案
好適
慣れる
担癌
持てる
支配人
段数
激化
焼却灰
異数
直上
砂岩
箱@@
耐水
融通
誉
近衛府
通し@@
電磁気
飽き
骨肉
159
1964
Ath@@
Changed
DEP
FLV@@
Flange
Helicobacter
Instru@@
JP
Ka
Ly@@
OE@@
Parameter@@
RBS
Remedy
Surf
____@@
hCG
sn@@
sten@@
はしご
り上げ
わしい
わせる
アブラ@@
アロー@@
イーズ@@
ウイルスバスター
クエンチ
クッション
ケーソン
コト@@
コンポーネントジェネレータ
ゴールウェイト
サス
スパニングツリー@@
セカンダ@@
ソーシャルメディア
ツイスト@@
デコーダ
マングローブ
マーカー@@
モールディング@@
ラクタ
レンダリングプリセット
下賜
中年
企ん
公使
南海
嘗@@
大野
帳@@
年長
府立
慶安
拠
探偵
暫く
果たさ
沈む
混練
火山灰
用例
皇居
硝化
神護
結城
翌朝
芝生
質点
通達
風土記
飢@@
ﾊﾟ@@
1099
1907
1929
223
302
Arm
Commit
DID
EXP@@
FISH
FLEXlm
GV@@
HG
KP
Kno@@
LDA
MAIN
MSS@@
OPMN
QC
ROWID
Recei@@
Short@@
UG
When
Wr@@
align
bc
dtrace
ender
ich@@
ount
vr
xsl
「-
かっと
ごう
さほど
ちがう
アクティブ・@@
カシ@@
カスケ@@
カタラーゼ
キセノン
キャリア@@
クリスタ@@
クリスト@@
グラウ@@
コク
サク
サブアセンブリー
スイート@@
セグ@@
ソフトウェアレンダラ
テストケース
ナジ@@
ノツイカ
ハードウェアレンダー@@
ファジー
ファントム
プラッガブル・マッピング
レイアウトパス
充血
切り出し
加湿
勧める
塗っ
天然@@
孤
対物
少佐
怖がっ
戯れ
掻
改廃
歩留り
渓@@
献血
通産省
1895
AREA
Admins
Extender
FETCH
Normal@@
Pase
Provisioning
Shaded
Simple@@
Xtender
attributes
cb
cer
cul@@
edge
hn@@
ja
lmgrd
mentation
names
parameters
reset
stance@@
うい
おじ@@
きょ
さようなら
ちら
ねらい
エット
クロミ@@
スターター
スヌー@@
スポンサー
ックリスト
ハニ@@
ハールーン
バックアップ・ソリューション
ポリエチレングリコール
リアリティ
ロング@@
企
係争
宅@@
容赦
寄託
患側
担
放せ
早川
桐@@
焼く
精米
英文
見つけ出す
農作物
逢@@
針葉樹
###
06@@
:(
:.
CUSTOME@@
Clash
Equipment
FEATURE
Gall@@
Gigabit
JA
Lightscape
Mb
OracleTimeStampTZ
SDI
Scal@@
Scan
Siebel
TEC
TRIM
TableDef
Tube
Tut@@
Two
UNITS
Unlimited
Xerox
ants
cil
score
task
test@@
いわば
ざいん@@
ていぎ@@
アンディ
アーカイ@@
インバースキネマティ@@
カジ@@
ツールチップ
ディジット
ディゾルブ
ドップラー
ハラ
ブレンドモード
プロファイ@@
マシニングセンタ
ムリ
メッセン@@
ライセンスサーバモデル
リサンプル
ワリアテ
三井@@
借入金
内省
再審
博文
微動
恩賞
括
摂氏
故実
木炭
権現
求職
測光
漫
王妃
磯@@
胎内
該各
輸
遷音
頭上
ﾑ
.*@@
ATTR
Activation
Affec@@
BACKUP
CTP
Che@@
Computing
Crystal
Excel@@
IETF
Iflash
Ig
Jobs
Lim@@
MTX
SUP@@
Tou@@
desk@@
ki
nd@@
pc@@
sec@@
sign
sity
いもち
この@@
しよう@@
つま先
ほん@@
らく@@
インターネットプロトコル@@
インテルデスクトップ@@
エリアフィル@@
カオ
カメ
ガニ
サンタ
ジョーク
トラフ
トルク@@
ドリン
プレーンテキスト
モジュラ
リップ@@
レジューム
中学
体質
加護
受諾
呉
員数
因数
奪い
対流圏
山陽
崩し
巡査
幽@@
弓矢
怖がら
悩ん
敵意
時宗
普請
曽@@
東芝
松永
権守
欲求
正親町
汚水
牧師
独創
生み出さ
立憲
草子
襟
規律
親権
言うまで@@
跳躍
隠蔽
馬子
1876
64@@
Along
BAC@@
Bq@@
Confirmation
DirectAccess
Financials
Indu@@
KOH
LMP
MIS
MIT
OC@@
Otl@@
PRP
RCS
Span
Subscri@@
Transition
bor@@
employees
links
mg@@
stein
tex@@
あにめ
うっ
かけ@@
しり
ぼれ
りつけ
り合い
アラート・ログ
ゥー
オーナ@@
オール@@
カスト
カセット
カレン
グレース
サウンド@@
シアナ@@
ダイナミックプロパティ
チュウ
テイギ@@
ノリ
バリアフリー
ブランケット
ペット@@
ボス@@
ボット@@
ポリアミド
マスジド
マッサージ
リセラー
リフ@@
レナ
丁@@
与えよ
並べ@@
亜熱帯
合衆国
寇
惚れ
手話
旧来
早め
本所
源頼@@
煩@@
畳@@
眠る
舞わ
葺
親密
買わ
遠ざかる
醍醐寺
雷撃
青銅
飼い
-（
173
1881
221
275
760
AND@@
Ac
DMZ
DSS
GLS
HV@@
LG
NV
ROS
Strepto@@
Tracking
Trusted
VALU@@
XREF
arri@@
ie
nMesh
store
←
かわいそう
とどまり
まして
みな@@
よう化
アセンブリフィーチャ
インクリメンタル
グランド@@
コレーション
シキ@@
シンボリックリンク
スタジアム
スパーク
スルニハ
セルラーゼ
ダイバータ
チェックボックス@@
ックリ@@
ディペンデンシーグラフ@@
トレーサ@@
パール
フィルム@@
ヘッドアップディスプレイ
マツ@@
メニューコマンド
ラジオシティソリューション
ロバ@@
信任
倒立
八木
前方後円墳
堅く
少な
怒る
恥ずかしい
手遅れ
洋服
浮かん
減額
特徴付け
立太子
肝要
落ち着く
軟質
騙さ
髷
1947
238
510
5400
DHA
Desk
END@@
Einstein
Filename
Hi
ISAKMP
Lev@@
OPM
PF@@
PTF
QM
Room
SIGN
STOP
World@@
Write@@
ane@@
buffer
disable
hole
ned
order@@
pair
えでぃた
ぉるだ
お陰
くつ@@
さくせい@@
じみ
はる
ぶどう@@
れろ
われる
アマ
アリバイ
イスラーム
イネーブル@@
コラー@@
シナ海
スケジュール@@
スタンプ@@
セーブ@@
ツェ@@
ドク
ニューラルネット
バリオン
ビデオ・ビューア
フラッタ
ホッ@@
マシ@@
一応
主眼
二条城
京都@@
他国
伯父
先代
刈り
叫@@
名字
大西洋
寛平
巧妙
愛宕
支
昼夜
曲り
法制
浄@@
環境庁
申し
石室
菩提@@
裂け
論ずる
諭@@
貞享
走ら
赴任
退治
逓@@
雨量
高槻
ｶ
+」
ALIAS
Anti
CLUDE
CPC
DEFINE
Gather
LTM
MEMBER
Manip@@
NAMES
ONLY
Publishing
RPF
Updates
dbs
igs
lia
operation
summary
war@@
≫□」
あたかも
きの@@
ぐる@@
なじみ
よこせ
らせる
アキ@@
エイミー
エトキシ@@
エロージョン
オシ@@
キャップ@@
コカイン
サルモネラ
シェーピング
シュト@@
セミ
データフィールド
ドリブン@@
ヒラ@@
ヒ素
フェール@@
フレンド
プター@@
ベルギー
メソッド@@
リソソーム
ルーム@@
利家
前歯
割る
千代
叫び
士官
強迫
扱え
撤@@
柔らかく
気に@@
渦巻き
滴下
真相
突き
船員
蓮如
近距離
連係
金曜
長谷川
霜
196
2800
303
3100
773
ARX
Bound@@
Bre@@
Codes
Collector
DMSO
Dig@@
Execu@@
FG@@
Fock
HOLDER
HTM@@
Han@@
Hold
Maven
NIDDM
PVD
States
Sum@@
Tabs
Toolbar@@
Tot@@
UPD@@
Viewing
mac@@
nParticleShape
stants
ura
ついて
には
ばく
アプリ@@
アリール
インストーラー
ウェーブ@@
ウール
オリーブ
オーソ@@
キャラクター
サポニン
スペクトロメータ
トゥーンライン
ナチュラル
ニキ@@
ネズ@@
パブリッシュオプション
ファレン@@
プルーム
ポリマ@@
モノラル
リッジ
レーザアブレーション
一途
不自由
仕上がり
仲良く
依然
僧都
児@@
出所
勉
勲章
右腕
名跡
君達
周縁
図式
土曜
土着
堪@@
塗り潰す
大胆
天球
好奇
対症療法
巫女
恭@@
情景
炊
狙撃
盲人
祥@@
紅葉
組込ん
結露
醍醐天皇
ｼﾞ@@
',@@
1573
1880
227
ACSLS
BODY
Distribu@@
Electr@@
Heisenberg
ICO@@
NetBackup
PCF
QP
Raw
STA
TAL
ature
cel@@
gation
mm×
ols
samples
scene
stream
​​
≪@@
さすが
ぱれっと
アイソレーション
ダ・@@
ティビティ
ディレ@@
トランスミ@@
ドミ@@
ブレイク@@
マスター・@@
モンド@@
リソースマネージャー
ロイヤ@@
ワサ@@
中絶
剛@@
化し
北畠
吸虫
回す
回遊
地歌
委@@
季@@
強烈
想起
捕ら@@
歯形
汚損
白紙
積み立て
笑う
納言
舵
著@@
蔓延
診@@
議院
貴社
賄賂
踏
選び@@
阿部
黒毛
1000@@
195
CGI
COBOL
Coordinates
EQ
HER
Mem@@
NMDA
PMS
Permissions
QR
Revision
Scalar
Schroedinger
Seg@@
Subject
cing
ius
med
pe
きり@@
ぷれびゅ
イメージセンサ
インフルエンス@@
クルー
ゲイ@@
コンテスト
ダイエット
ダント
テレフォ@@
デカルト
トカ@@
ビューポートラベルメニュー
ピ
フェイルオーバー・@@
フォールバック
プロピル
ベイク@@
ホメオ@@
マリ
リウス
リクエ@@
リバ@@
レーションシステム
ージョ@@
仕上げる
付値
古河
回生
墳@@
壊れる
奉還
子爵
審問
引け
担い
搾乳
早送り
昆@@
楽曲
水物
無色
疎通
締切
繭
羊水
血幹
鋳@@
鳴らす
95@@
Advi@@
Apply@@
Bip
CHF
DIRE@@
Failover
HDV
MEN
PSR
Shaders
Smoothing
TAN
TCE
Temp
WebDAV
aster
ator@@
bers
cal
comp@@
div
fast
generic
host@@
parameter
あわ
いわ@@
みそ
りに
アドバ@@
アンビエント
エンジニアリング@@
コンポー@@
ジェン
ストップ@@
トークン
トークンリング
ネイル@@
ネタ
ネッ@@
ハイパ@@
バイオリ@@
ヒント@@
フォールト@@
プルトニウム
プー@@
ベンジル
ボーイ@@
マリン
メジャー@@
リトラ@@
レイヤエディタ
ロケ@@
中頃
任せろ
公文書
内務省
刻ま
囃子
城郭
天皇@@
家集
幕臣
愛護
憤@@
来日
根粒
歯牙
睡眠薬
福山
終期
総長
考えれ
輝い
陽成
雇わ
髪の毛
鹿島
='
CMA
Country
Gar@@
IMA
IMF
Layouts
Offset@@
OracleB@@
PDT
PEM
Perform
SAM@@
Shot
TextField
WMF
any@@
bin@@
car
catalog
kes
pat
scan
temp
tile
upgrade
viewer
お伝え
かん子
こら
しまえ
とどまる
とどめ
めざ@@
イソプロピル@@
カレン@@
キュウ@@
グラフィックス・@@
グラブ
ジオメトリキャッシュクリップ
チューニング・@@
ディン@@
ハイブリッド@@
ヒョウ
ミラー@@
メッシュプレビュー
ラドン
一等
佐渡
便益
備蓄
元弘
先駆け
因幡
圧粉
夜明け
委ね
巨核
帰納
府中
廻
所司代
掃
日長
有意義
木津川
湧@@
無益
爆撃
破ら
第一歩
耕うん
脱い
自家@@
被る
評論
近付い
震動
駒@@
鬘
1877
701
ADSL
Body@@
Bon@@
Clus@@
Delay
IMP
Intel@@
Liquid
Logon@@
MoveTo@@
QD
RRS
Sample@@
Scre@@
UK
VG
alias
bmct
bullet
ces@@
ket@@
ory
rRNA
tial
tioning
しだい
せっと@@
たし
にく
アンマウント
アンモニウム@@
イエメン
イネーブラコード
カ・@@
シアル
シノプティック@@
ジオメトリデータ
ソバ
ダイアル
ナップ
ナル
ナンシー
ハダニ
ビュータイ@@
ピクチャ@@
フラッド
フルエンス
プリスト
ヘブライ
ホスフィン
ボロ
マテリアルタイプ
マルチボディ@@
メソ
リガ@@
ルビン
ロサン@@
ワイヤレスクライアント
上げろ
全社
公社
利口
尾行
平地
授受
晒さ
果汁
止まら
異に
編み
胚
訳文
選好
離乳
震災
頭皮
騎士
2050
Aspect
DTS
Draw@@
ENA@@
GET@@
JRun
OPC
OracleConnection
Revert
SER@@
Saba
Sweep
TEST
TOOL
XC
^^&amp;
aps
configure
single
val@@
いう@@
おいおい
すの@@
わたる
アドバイ@@
アンジェ@@
ダイバー
チニ@@
ディクショナリ@@
ディスクレス@@
バース
フェノン
ホスファチジルコリン
マリー
ライオン
ラミニン
レピュ@@
五十@@
全量
咽
囲い
図上
地温
塗り潰さ
害し
御殿
敗戦
更年期
木村
梶@@
浪人
海苔
瑞@@
皇統
祈祷
築き
組む
肌@@
良し
辞し
農耕
追随
須賀
("@@
-----
248
400@@
56@@
ADB
Commit@@
GES
Guest
HPGL
LER
NKT
OSI
One@@
PLU@@
RES@@
Relational
dl@@
known
vi
و@@
ぃび@@
ともかく
エナンチオマ
エレクト@@
カスタムシェーダ
カンリ@@
キネマティック
グラディエント@@
シンメトリ@@
ジェリー
スウォッチパネル
スチレン@@
データ通信
ドス
ハイチ
パナ@@
ヒドロキシアパタイト
フィリン
プラグアンドプレイ@@
ベクロ@@
ミキ@@
モチ@@
ヤシ
レンダリングアトリビュート
万国
久秀
出入
外的
御子
怯え
検死
欄@@
水上
甲賀
石灰岩
砕石
硫
緩慢
芝@@
豪華
賢く
重点的
鎧
間に合わ
食器
1911
ART@@
Backspace
CATProcess
CaF
Clump
Corridor
Dy
Favorites
Gap
HAp
Lists
Managed
Numer@@
Requests
SEARCH
SEQUEN@@
VCB
Wa
conn
environment
like
rds
register
sect
study
values
wa
への@@
アクションレコーダ
アップロード@@
イザ
イテ@@
エナンチオ
キャスティング
キャリ@@
ケリー
サイトゾル
スペキュラハイライト
ソリトン
ター・@@
ディフューザ
ドッ@@
ドラフティング@@
ネーション@@
ヒンジ@@
ブリジッドボディ
ベア
ペネトレーション
ペルト
リベット
ローレル
作り方
修験
創成
台木
吸血鬼
库
昭@@
朽木
松尾
査官
横切っ
母方
泣く
注意深い
甘
筑前
蓄
襲い
設術
話し合っ
透け
降着
露地
音節
類義語
養父
騰
1923
213
560
ATTRIBUTE
CAPT@@
CONFI@@
Collections
DIA
LongView
MKL
Match@@
NY@@
Oe
Prompt
Secur@@
THz
Van@@
act@@
ape
begin
cy
family
let@@
plug
□@@
おび@@
どれほど
ほど@@
まだまだ
り出し
アノテーション@@
オーサリングアプリケーション
グラフィカル・@@
サイクリ@@
チンパンジー
ドリブン
ノイズ@@
ノシヨウ
バンコマイシン
フラボノイド
メールフォルダ
リョク@@
ロガー
初級
卑
園城寺
天津
天的
容認
帰し
弓道
昧
植皮
楽しめる
歌い
武術
追い出し
(,)
402
Accur@@
DNF
FBR
Hello@@
Ligh@@
Manip
Messaging
OMB
OVER@@
Pin@@
Setting@@
Shut@@
TIF
TK
Tric@@
VLA
WRED
Wood
Worker
XES
amount
anti@@
cerevisiae
here
iff
paris
ree@@

「.
いた事
ゆかり
アゾベンゼン
アフィニティー
アユ
オリエン@@
オリビア
サイトメガロウイルス
シック@@
シリアルインターフェイス
ステ
スムージング@@
セカ@@
ソニー
ダイマー
ダス
デンプン
データアクセス@@
トラブルシューティング
ハウス@@
ヨーク
レツ
レバノン
ロイコトリエン
傘@@
写実
勝る
収まり
天秤
太っ
小山
山縣
平田
形跡
怨@@
怪しい
抹@@
掛かり
早くから
杜@@
東大
派@@
滋@@
灯油
無断
畜
社名
童@@
経ち
講堂
貯水
預
｡"
305
508
AMPOW@@
DEM@@
EPO
HIKCharacter
ImageX
Lumin@@
Meeting
NB@@
NMC
OX
SHA@@
Shad@@
ShowMotion
Streptomyces
TIP
Water@@
XPRESS
ale
au
cos
ext
ul
vertex
ل@@
ぇっく@@
しげ
すまん
ずれる
ためらい
っくり
っぱり
とりあえず
やみ
アンビエントオクルージョン@@
イーサ@@
キャピラリー
クライアント・リソース
グリン
コホート
サーフェスポイント
ジストロ@@
デフィニ@@
トランスポ@@
ニウム@@
ビリティ@@
プラセ@@
プランナ・ワークベンチ
ラテン
リバース
リーブ
ルーシー
ーンズ
京田辺
仁和寺
低地
余震
倒壊
刷
友好
固有@@
在任
坊主
岐@@
引抜き
弼
愉快
有っ
歩け
沈ん
無制限
煙突
眠気
祀っ
空席
第@@
紹@@
聞こ
襲う
見極め
訟
踏ん
開基
陶器
頼通
1912
1931
1948
1951
533
Borders
Cart
Collabor@@
Isolate
MCH
NWORA
PROG@@
Pos
Primi@@
TrueView
action@@
activate
cus
depth
dit@@
ef
flow@@
kOe
kadov
ked@@
private
rDNA
skin@@
std
tent
tern
text@@
type@@
およぶ
った@@
まく
アサ@@
キャビティ@@
クローム
コリンエステラーゼ
サスペンド
シスト
スタティック@@
スピードアップ
スーザン
ダーウード
チロシンキナーゼ
ツアー@@
トラステッド@@
ドキュメントプロパティ
ニク
ネクタイ
ヒドロ
ブチ@@
ベクタ
ミド@@
ランチ
・メニュー
一声
上田
下がれ
世界一
出穂
升
坪
定額
帰ろ
引き上げる
抑@@
掛金
断念
施
柴田
民営
灯火
留める
直轄
石綿
祚
組み換え
腰@@
譲り
遣唐使
郷土
鈴@@
風船
ﾋ
;（
Brown
EMPLO@@
Empp
LZ@@
Naming
QAManager@@
RST
bone
cap@@
fb@@
gger
lay@@
mo
og@@
sol@@
umin@@
〒
おこなわ
すみやか
やる気
エピネフリン
オステオ@@
カメ@@
クロリド
グルカゴン
グレッグ
サキ
スベ@@
セクシー
ソウル
タフ
ツク
デクラレーション
トランジ@@
ドッグ
バニ@@
パイア
パウダー
ヒスチジン
ペロン
ムン@@
モルホロジー
ユーザーズ・ガイド
ヨー
リス@@
リターンコード
レイアウトパラメータ
・オブジェクト
丁寧
不揮発
二乗
壊そ
夏時間
安らぎ
尿@@
年寄り
建つ
戦乱
投げ込ま
支承
断り
日没
昇華
沿線
膨隆
苦悩
見越
規則@@
詰め@@
護岸
退い
途方
遷
間に合う
電気鉄道
飛来
高島
ｩ
ﾎﾞ@@
ﾖ
011
630
Authorization
BOOTP
Defender
Eng@@
Every@@
MNS
OracleTimeStampLTZ
PCO
PCS
PLACE@@
Programming
Spry
TITY
VL
condition
dxf
ression
stration
when
おこなう
ゃ
アップグレードプロセス
アワビ
アンバランス
イントラネット@@
インプレイ@@
カスタマ
ギン@@
クエリ・@@
クロッキング
コマンドエイリアス
サマリア
シングル・サインオン
スプルー@@
チキン
ノサクジョ
ビュータ@@
フェイス@@
フォルダアイコン
ペネム
マト
ランオフサーフェス
リスナ
レジ
ロジスティ@@
不況
中級
主権
乗っ@@
出会う
力行
勾留
塩化ナトリウム
庁舎
引起
当てはめ
思い起@@
折り返さ
推
攻め@@
教学
旅館
最期
水生
汗@@
海中
海流
灯台
疲@@
省く
神職
窯
経つ
行き先
補填
訪
軌@@
郡司
隠れ家
離れろ
ﾇ
1850
66@@
Ben@@
Boltzmann
Concrete
Day@@
Exten@@
Hodgkin
Lan@@
Navigate
OK@@
Pi
QAM
RELA@@
Receive
Store@@
Super
TNS
Weighted
Worksheet
Zoom@@
cn@@
find
has
ぃんぐ
いせん
くだらない
しく@@
たと
にたいする
ぱん@@
もとより
りつ
アデニン
アマンダ
イスハーク
イミダ@@
カテキン
コマンドプロンプトウィンドウ
コーディネ@@
サウンドトラック
サーバービヘイビアー
シクロヘキシ@@
ステータ@@
スーパバイザ
ダイナミックリレーション@@
ディン
ディープ@@
ネガ
ポリゴンメッシュ@@
マテリアルブラウザ
レッジ@@
一重
世論
亡くし
亡くなり
人民共和国
便器
出征
切り捨てる
初年度
別荘
半二重
吸う
奏者
学寮
左腕
徳大寺
懸垂
手伝@@
折りたたん
支流
敗走
昼@@
湿疹
灰分
犯@@
窒息
糖@@
終日
繊毛
胞性
臣籍
薩軍
薬師寺
蘭@@
衰
覚め
貝殻
郎党
長手
間近
面白く
香気
1875
1882
DIMEN@@
Folder@@
FurDescriptionName
Hartree
IAcSm@@
InGaAs
Integr@@
Kr
Lower
MODI@@
Multiplier
Not@@
Output@@
PRI@@
Playblast
Shield
TRY
VERSION
WinPE
ary@@
ast@@
failure
fic
flu@@
have
lish
op
ound@@
tutorial
weight
ي@@
ぇくとを@@
おこる
おしゃべり
きっ@@
ばん@@
むこ
エイ
オキシゲナーゼ
カンチ@@
ジェンス
スタートアップガイド
セボフルラン
ティッド@@
ディスパッチ
ナラ
ハッ
ビューポイント@@
フットボール
フライト@@
フレームジェネレータ
ヘンコウ
マサチューセッツ
マンド@@
メッセージング@@
レンダリングオプション
下さる
両替
中京
仰臥
体調
光寺
助けよ
品川
坂東
屯
廃藩置県
払え
方角
書店
検閲
浅く
深草
焦
焼灼
熱性
現在地
生食
突き出し
緩解
自作
蔑
裁ち
音韻
(「@@
231
931
CEN@@
Clean
Cube@@
DRA@@
Federation
Gate@@
Hf
IAS
Instances
Iter@@
JAVA
Keep@@
LHD
Masking
NEDO
NEXT
Os@@
SharingItem
TS@@
Versions
folder
glo@@
refl
self
startup
trieve
urb@@
ぐら
ないしは
アセットブラウザ
アラスカ
コス
コップ
シェーグレン
シクロヘキサン
ジチオ@@
ジャッキ
ソク@@
ソクリ@@
チェンバ
ディ・@@
データショートカット@@
トロニクス
ビューフレーム@@
ピロ
プロキシリファレンス
ヘルパー@@
メモリー@@
メンバプロパティ
リソースグループ
レンジング
ロウ@@
ロブリン
中新
中高年
乗組
催眠
凌@@
動き@@
届ける
応症
手先
投棄
投獄
有栖@@
有界
朴
油田
泣き@@
繋ぐ
美容
衆生
裏切り
解毒
課し
讃える
赦免
駄
-「
1886
1955
333
Bus@@
CJD
DopeSheet
Independent
Intero@@
Layout@@
MALT
OPE@@
Obj@@
OpenMP
PMA
Protected
SAVE
Sel
WAR@@
ational
cond
dbunload
fn
iv
more
opt
place@@
ret
teg@@
tex
Φ
かくはん
っぷ
みせ
やってくる
やま@@
エイリア@@
オクテット
サイジング
サツマイモ
サーチ@@
スカベン@@
スカー@@
ストリーマ
セットデータム
チー
テラ@@
テレビジョン
ディレクトリパーティション
デキサメタゾン
トラッカ
ドラフトサーフェス
ナッツ
ネリング
ノシド
フレキシ@@
マイカ
マギー
マレ
メダカ
レム
ロイシン
・グループ
一助
健在
固く
壁紙
担い手
掲記
敷き
方丈
槻
直視
瞬
穀@@
累
脱力
近臣
酒井
高地
1250
1943
ABA
AIP
Administrative
Aspergillus
Contrast
DCT
EBC@@
EDM
EMR
External@@
Flickr
Freeze
GDP
Locations
MY@@
PRS
PSTN
Roman
SCAN
South
VTL
addr
break
call
can
cho
lc
lon@@
psi
ush@@
zpool
こうじ
たっぷり
にたい@@
にまつわる
はやく
ぶつ
やせ
り込ん
アイドルタイムアウト
アカ
アルコキシド
アレン
オンラインヘルプ@@
カーテンウォールスタイル
ガタ
ゲイン@@
コネクション・@@
タンタル
ダイヤラ
ナズ@@
ハマ@@
パブリック・@@
ピバ@@
フュ@@
プレーナ
プログレ@@
マッピングファイル
リデン
一時期
串
伏せろ
倒幕
停留
全線
割れ目
勅使
勾@@
取出し
家人
引き続い
抱き@@
捨てろ
改元
日本銀行
日立製作所
本姓
梅若
楊@@
残酷
気付き
消防@@
湿気
牡@@
略記
発給
縫い@@
義務@@
聖人
脳性
蔭
請け@@
謝る
遂
金色
食べ@@
ﾎﾄ@@
ﾕ
"？
325
96@@
ACCESS
BCWS
Berry
Bin@@
Border@@
Broadcast
CAG
Deviation
Enable@@
FIR
FTA
HATCH
ITER
MIS@@
MSMQ
Passport
Recommen@@
Reser@@
Sampling
SavVol
Upper
Wistar
ci
inci@@
move
m×
ole@@
prompt
syndrome
table@@
おぶじ@@
がな
エマル@@
ガント
ガールフレンド
ゲータ
コンフィグレーション
サリチル酸
シェーダコンパウンド
シチ
ストラップ@@
スペースワープ
ナビ
ブラック@@
プラスチック@@
ベイクセット
モンスーン
リスタ
リプリゼンテーション
レイル
レオン
別人
国庫
基く
場@@
塔頭
女子@@
対し
撃退
景時
牙
石材
祭礼
素性
義理
苦しむ
表出
詠
退位
途絶え
連日
遊女
防備
震え
123@@
1925
ADDRESS
ADSK
ARE
BCS
CCO
Chunk
MPC
Notifier
PWA
Pay@@
Peri@@
Regions
Retar@@
SYM
SharedWorkspace@@
UB
Windows@@
des@@
ml@@
poly
zfs
「≪≪
かる@@
こっ@@
ちの
ひい
ぺいんとえふ@@
インキュ@@
カンバス
クトミー
クリア@@
コスメティック
コマンドラインユーティリティ
シャド@@
シャーロック
シンジ@@
シンボルビルダ
トリプル
ドレッシング
ノフ
ハラ@@
フレッド
ベリファイ
マトリクス@@
モチ
ランタイムエクスプレッション
リアル@@
リテン@@
三条@@
両開き
乙女
何時
偉@@
冶
吟@@
壁@@
天空
専任
従者
教官
新着
日立
明朝
曾孫
格付け
樫
知り@@
社殿
稼ぐ
耐え忍ん
脱脂
自力
葉柄
血統
裾
親交
1897
1926
780
Assy
Attract
Automation
Converter
EIS
IDATE
IZ@@
Ker@@
LMI
Logs
OLAPQuery
QUEUE
README
SHIFT
TD@@
Tree@@
Ya@@
airs
ality
company
dential
eries
gel
mation@@
pneumoniae
server@@
signed
stry
var@@
warning
くま
すいません
とおし
ゅつりょく@@
アクティ@@
アリング
アルベ@@
ガングリオ@@
コールアウト@@
シルバー
スクリプトプラグイン
ダース
ディクショナリ・ビュー
ディレイ
ハント
ファイルダイアログボックス
フォルダオプション
ブートアップ
ブートサーバー
ベタ
ポア
メーリングリスト
ラスターデータ
リムス
ロフトサーフェス
ワイド@@
ワールドアップ@@
上体
内蔵助
味わう
善意
四足
密告
尊厳
局地
差し込む
当選
心得
悟る
旨@@
検察
沸@@
油剤
治し
液@@
無音
燐@@
王様
発破
礎
結集
綿密
衝
読影
謹慎
酔い
魚肉
ｶｨ
!':
'-
1885
1908
ATR
BJ
Benefits
Flood
HSD
Ib
LEAP
MID
Meas@@
Network@@
RFA
UBR
Under@@
Vx@@
ched
computer
dated
direction
echo
ger@@
ju@@
nat@@
ounding
types
wind
‘@@
ぐの@@
つまらない
もう@@
ゃらく@@
よけれ
アンチモン
クラー
サバ
サブフォルダー
スペシャ@@
ダイアログバー
チョーク
ドパミン
ネス@@
パラメータリスト
ビルトイン@@
ファミ@@
フリップ@@
フリーラジカル
ベツ@@
ペント@@
ホログラフィー
ポリゴンメッシュオブジェクト
リソー@@
ーン・@@
久世
以南
佐竹
免状
入隊
公法
再会
凡@@
姉@@
干潟
幽
応じる
恐竜
捧@@
支部
文中
正数
歩き@@
溢れ
潜入
瑞
畿@@
縮減
薬用
裸@@
課徴
该
賦@@
集結
願い@@
-」
004
1953
253
ARS
ATE@@
Constra@@
Drawing@@
ESQL
Fire@@
MCA
MOLAP
Mill@@
NAME@@
North
Polyline
ROLAP
TRH
Utilization
VARI@@
clusion
context
cur@@
ire
solo
stor@@
workspace
あな
そん
たった今
ばれ
アクセスコントロールリスト
アジ
インダ@@
オートク@@
カキ@@
クォーテーション
クラミジア
ケンカ
シグナ@@
シドニー
シーリング
スレッ@@
セラミド
ソマト@@
デプスマップシャドウ
トリム@@
バッファオーバーフロー
ベジ@@
ベリア
ポルノ
メラトニン
リターゲ@@
ルダ
レイヤプロパティ
ロールアウト@@
乳汁
二元
二郎
今月
合算
喩
地下@@
尽
差込み
式内
引き渡す
従法
心当たり
控え@@
政界
救える
散水
未遂
本丸
注ぎ
滅び
牟@@
神祇
租@@
粋
組み入れ
署@@
苦しめ
適法
金剛@@
閑院
飛び出し
4096
Bank
CATV
CeO
Cla@@
Commun@@
Demo
Disclosure
Dot@@
HACCP
Kar@@
LDPE
Module@@
Pick@@
Produc@@
QAM@@
RATE
RCA
TLR
Wait
bri@@
check@@
hide
hol@@
othic
pos@@
rect
tention
vel
おも@@
かする
かつ@@
さや
すた@@
だんだん
びり
めっ@@
もっぱら
よそ
わき
エゾ@@
カスタマイ@@
キッド
キネマティック@@
キャリッジ@@
ギウム
コマーシャル
コミット・@@
コンパイ@@
サクラ
サブツールバー
サーバー・エクスプローラ
シグネ@@
シッ@@
シリンダー
スカル@@
ゼルス
ダングリングボンド
ディストリ@@
ノウ
ハート@@
パッシ@@
ヘンシュウスル
ペインティング@@
ユニット@@
上映
乗り物
付けよ
働き@@
光量
受け継い
名物
壊@@
岡本
帰京
底@@
搭乗
枢@@
棋
気筒
沈澱
派手
流布
減退
用事
目立ち
篆@@
肥前
胡弓
菅@@
衣料
解熱
軟鋼
遭っ
銃弾
鎌
離反
霞
177
301
ATOR
Attachments
BSO
Bas@@
CML
Contracts
DHE@@
DateTime
Descriptor
DisplayName
EDI@@
Enti@@
Fur@@
HOST
MY
ORDERS
PFGE
Pattern@@
SDH
Ser
Standard@@
Tech@@
VL@@
WebPart
exp
formations
lex@@
ost
sym
~~@@
م@@
おろ@@
ぎん
ことば
さらし
ついて@@
なわ
はかっ
はがき
はつ
びる@@
ぷらいず@@
れつ
アセテート
アルゴ@@
インストル@@
インテン@@
インプレイス@@
ウェスタンブロット
ウス@@
オキソ
オキソ@@
カブ@@
コンフィギュ@@
スラー
タス@@
チルト
テフロン
ディスパッ@@
ドア@@
フローインジェクション
ベンゾジアゼピン
マーキング@@
メラノ@@
メンテーション
ユーザービュー
ラジオシティ@@
リバース@@
レフトビューポート
一節
人前
光彩
共犯
叡山
地雷
埋蔵
太線
崇め
引渡
御霊
感冒
拍子
損金
東舞鶴
果肉
気球
決着
津川
狙わ
申し立て
痔
致し
花山
草原
菩提
蒙
説教
退け
銭@@
鑑識
駄@@
1961
6400
ASDM
AlGaAs
Axis@@
Clips
DMF
EDI
Energy
Home@@
ICD
ICR
Lesson
MCT
PAI
PSS@@
Preset@@
REMOVE
Shipping
TSC
Toolbars
UF
VLBI
Virtu@@
find@@
lion
locate
olu@@
pic
tang@@
tin
your
ぃくる@@
ぃっく@@
おもに
がき
すき間
すれ@@
びす
アセトアルデヒド
アニメータ
アミナーゼ
イーサネットポート
エコー@@
オブジェクトスナップ@@
グルコース@@
コンピュ@@
コールバック
コーン@@
ジェイソン
タンカー
ハンドブック
フェニルアラニン
フォロワー
フス@@
フミン
フロアコンタクト@@
ユーザインタフェース
レンダーオプション
乱暴
亜硫酸
側溝
先住民
創部
原研
和銅
四角い
園部
大同
天満宮
姓@@
寄り@@
屠殺
廃材
建てる
彙
思いつい
採っ
暴
橘@@
河床
潔@@
狐
篇
胃液
計る
配給
電器
1891
1927
1962
264
ASC
Bodies
COUN@@
CSD
Cabling
Cali@@
Config@@
Connected
Detection
Diameter
HF@@
INT@@
ISPF
MAT
MPMLink
MSG@@
Men@@
NTL
NetFlow
OBJECT
ORM
Reg@@
Remote@@
RemoteApp
SDLWebFlow
Spac@@
TEM@@
TLC
Unat@@
atum
dec
ecu@@
emp
hn
iling
myc
phy@@
stri@@
und@@
verse
vie
かま@@
つう
なのに
ゅめんと
イェ@@
イミディエイト@@
ウィーン
エラスト@@
オニ@@
ガンマ@@
クリスト
ゲーション
シートセット@@
ステキスト@@
チェコ
ピレン
ファラ@@
フォワードキネマティクス
ブドウ糖
ブリー
ブレイク
ブレンドカーブ
ミーゼス
・オプション
五山
併給
信忠
光明@@
千代@@
叔父さん
叱@@
史実
司る
囚
梅毒
治世
淳
渡航
煙@@
石垣
稚@@
立法
筑紫
舶@@
芸妓
菱@@
請う
連関
遠征
鋸歯
長門
餓@@
%.
215
AcSmSheet@@
CKE@@
Communications
Conversion
Failure
ISH
Intelli@@
MailMerge@@
SMES
SSS
Swe@@
Texturing
Username
VDI
ZP
cin@@
dation@@
dio
evin
fm
msec
plane
plate
ppt
standby
sul@@
tiva
wer
うん@@
そる
オブジェクト・ビュー
カタログブラウザ
コラボレータ・@@
サーフェスタイプ
シャドウマップ@@
シークエンス
シーケンス@@
ストリーク
セッション・@@
ダイナミックリ@@
ダイヤラインターフェイス
ダグ
テンポ
トグルボタン
トポグラフィー
ハイブリ@@
ハーモニ@@
バレー
ビームエピタクシー
ピンク@@
プリフォーム
プロフェ@@
ベイビー
ベンチ@@
ペンキ
ポーラロン
ミス@@
メトトレ@@
メラノーマ
レンダーターゲット
使い捨て
偏平
停車@@
処女
务
喰@@
国際@@
圏@@
太平@@
女官
孝明天皇
守備
少なから
廃絶
廻り
恭
掘り
植林
模範
注ぐ
源平
燈@@
特産
略奪
痛覚
秩父
置き去り
脱獄
艦長
資質
踊る
醒@@
音楽@@
順守
（「≪
1905
ANG
AccuRender
BEA
CHS
CheckBox
Context@@
DTA
Dynamic@@
GreenLight
KEK
Ke@@
ListBox
Mis@@
PART
PLD
Phe
Purge
QAManager
SSC
SUM@@
SYST@@
Timer
WARNING
XAFS
ah
docrac
dynamic@@
formation
lon
ospf
rence
soft
statistics
ward
からかっ
くみ
けっか
ことに
こんすとれ@@
の丸
エゴ
キツ
キャラクタリゼーション
キリシタン
コギ@@
サリ
シフ@@
セシウム
タオル
チェ
テンポラ@@
トレス
バインドポーズ
フィッシュ
ヘッダーファイル
メサン@@
ヤン@@
ヨミコ@@
リグスビー
リスティック
リンカー@@
リング・@@
レプトン
レーブ
ロード・@@
上手@@
中佐
使い勝手
儲@@
光源氏
吸込
城下町
堀河
外界
娼婦
投げる
死人
津田
湿原
焚@@
独り
磐@@
納める
習合
考古学
良心
見受け
輪車
違え
都会
！"
)。@@
1901
1957
52@@
660
AUX
CAI@@
CALL
CiscoWorks
DWORD
Euro@@
Gradi@@
JENDL
KK
MenuItem
NAC
Networks
Nx
PCa
PXE
RIA
Recipi@@
Rotation@@
Shortcut
Topobase
Ts
dl
lookup
oma
prefix
ume
used
ありがたい
うわ
そろっ
ふれる
もて@@
アサー@@
イグ@@
エル・@@
カルシトニン
ガラ
サイクリックボルタンメトリー
ジェーム@@
スティッキ@@
セキュリティ・プロバイダ
ディスペ@@
トップリンクバー
トレッド@@
トレハ@@
ドミニ@@
ナンバリング
バルブ@@
フォス@@
フリン
プリンク@@
プール@@
ベック
ホモジ@@
ホルスタイン
ライナー
ルック@@
合奏
堰
外戚
対等
山号
得よ
戒め
折畳み
日吉
春秋
時政
最盛
有数
朝方
樺太
民家
燃やし
病名
発覚
競馬
築か
聴衆
行進
見当たら
躍@@
車軸
鋭@@
頂戴
飛騨
飽@@
*、
1185
311
570
840
Automated
BLO@@
BREA@@
Background@@
CCA
CIE
COLUMN
Capacity
CoO
Correc@@
DEV@@
EMEA
Fa@@
GRANT
Ho
LABEL
LIB@@
Magn@@
OF@@
Optical
Optimizer
Overrides
PPGLayout
PROFILE
Packet
RAPD
RARY
Rod
Struc@@
aa
ani
derson
else
hp
meshop
miniDIN
mtDNA
ore@@
pal@@
pam
ply
pn
power
uler@@
づつ
なければ
はさ@@
はみ出し
ふまえ
みえる
アウトレット
イノシトール
インターカ@@
ウォール@@
エクスプロー@@
カメラシーケンサ
キモ@@
コンシステ@@
コンピューティング・@@
ゴッ@@
サムネール@@
サーボ@@
ソーラー
デキストラン
バスケット
バット
パイプネットワークパーツ
パーセン@@
ビート@@
フレア@@
プライマリ・サーバ
プロパティ・ページ
ムラ@@
メジャー・@@
ョウ
ラウンドフィーチャー
ロックトロ@@
ヴァン
ーク@@
中務
以仁王
倫
偵察
八郎
冶金
参謀
字句
宙
定住
屈筋
山陰
引き抜き
敏@@
新撰
暗証
板垣
清朝
熟達
繊維状
習い
脊@@
赦
通商産業省
闘い
防犯
饅頭
髪型
ｭ@@
ﾊ
1080
1958
AutoDrop
BNP
Broker
CAC
FULL
Flow@@
Gamma
Kel@@
OpenFlight
Operating
Shelf
Take@@
WHM
WORM
Whi@@
White
Xen@@
distance
eader
inet@@
lab
mize
nClothShape
nal
plus
sci@@
xyz
@@
あまねく
いやいや
うく
うっ血
おば@@
きき
なおかつ
ぷれっしょん@@
アミロ@@
イオンビーム@@
インターネットルータ
インドメタシン
エンザンシ
オーロ@@
カンパ@@
キム
クイックビュー
クエリテーブル
コンテンツビルダ
コンパウンドクリップ
シェーディングマテリアル
ストランド
ソフトボディ@@
ダラ
ットル
テロメラーゼ
バリン
パラメータプロパティ
ファブリック@@
フィラー@@
ブック・@@
ブライアン
ブロードバンド@@
プログラマブル
ペア@@
ラクタム
ラチン
・エントリ
乏@@
佐伯
函@@
判る
始祖
学院
山林
序列
後年
悟ら
新政
方向付け
月齢
末寺
柿
欽@@
止めよ
温帯
烏
無礼
産科
籾
腐朽
落書き
葬式
見舞い
試験管
財源
逸
面白
風疹
食っ
食卓
･@@
2020
873
ANCE
ARCHIVE
Activ@@
Allocation
Append@@
BAL
Bot
CUT
Communication
ElementCollection
Explic@@
HITACHI
MONTH
MSO
OpenLDAP
Pipeline
RFP
Redund@@
SHX
SPD
SZ
Safe@@
Schema@@
Soft@@
Spr@@
TGA
Taylor
Zones
ae@@
asp
ball
bqy
cre@@
endi@@
existing
grams
local@@
macro@@
metaLUN
modify
nf@@
stone
wanboot
「「≪
たわ@@
もら@@
らわしい
アンダーレイ@@
ギャップ@@
コンシステント@@
コンドーム
ゴナドトロピン
サグ
サブスクライ@@
スルホキシド
セラミック@@
バラバラ
バージョニング
パーツビルダ
ファンド
フェナント@@
フォグ@@
フレンドリ
プトン
ヘッドライト
ポジ
マニホールド
マネージャコントロールユーティリティ
ミール
モス
モンロー
促
学童
寛弘
届
師団
延ばす
志願
応元
我が@@
授精
整地
日の出
法主
浜松
海産
痛風
科する
精力
罪悪
自白
講じる
退化
逐
通暁
酔っ@@
隈
179
Alg@@
Art
BAL@@
CCC
CIO
Clob
Ear@@
Exi@@
FEC
HEN
HHV
IPF
LOOKUP
OracleMetaLink
PY
RISC
RU
SYNC
Tang@@
UNION
UPD
WE
Wild@@
bip
oe
seconds
texture
while
xsd
yr
うり
かさ@@
きごう
げろ
せん定
たまい
つね
ふら@@
むね
アントシアニン
イメ@@
イルミネ@@
ウェアハウス
オブジェクトリ@@
キャシー
キリスト教
クリッピングプレーン
サーフェスフィーチャー
トビ@@
ハードウェアレンダリング
パーサ
ビューパネル
プロー@@
ホチキス
メラーゼ
ユーザデータ@@
リターゲット@@
リュー@@
三島
中傷
主宰
今井
住持
分れ
分流
包み
化け
吉宗
呼び名
回顧
地平線
堅い
外耳
子息
幽閉
性交
戻ろ
水洗
消音
濫
火傷
現品
生き延び
生年月日
申@@
知らぬ
砕
積荷
穿通
翌月
耳鼻咽@@
菜@@
贈与
転覆
進軍
重用
限外
鳴らし
Dev@@
Invert
Job@@
LOCATION
Lens
SYSD@@
Toon
VT@@
ars
bottom
eli@@
gency
hum@@
ky@@
ni
strict
tz
xp
≫」、
うれ@@
ずし
だち
アパ@@
コーポ@@
ブラッド
モディファイ@@
久安
乙@@
仇
助け@@
同志社@@
変ら
心寺
折っ
撒@@
旦
段ボール
水曜日
汰
汲む
濠
灸
照査
生き方
異例
石灰石
硝
神経@@
答申
粉炭
群衆
臥床
萩
豊岡
足軽
軽視
選考
針生
銑
阿弥陀@@
高力
1919
Bran@@
ISC
abi@@
alter
cons
diffuse
found
gres@@
ite@@
kov
orith@@
truecopy
zon@@
ぷれっ@@
ぷろぐら@@
エディット@@
オープ@@
ジウム
スウォッチ@@
バルビタール
フォメーション@@
小さ@@
廷@@
戯
拾
晋
桂川
清原
滅ぼ@@
羊毛
蓮華
虐
釜@@
鼓@@
1874
384
390
500@@
910
Arch@@
Dimen@@
WR@@
administrator
cri@@
hin@@
ile@@
literal
matrix
nov
record
specific
stools
プロスペ@@
倶@@
問い@@
極め
橿@@
漸
知らず
肋@@
1888
1941
1952
540
Depen@@
Jap@@
bon
bye
draw
formed
hs
itz
ris
star@@
なく@@
インジ@@
スクロ@@
デザインスタディ@@
デヒドロ@@
トライ@@
フッ@@
巻く
徹@@
案@@
淘@@
祐@@
紛
詔@@
188
1896
1932
298
Categ@@
Merge@@
acts
aded
amed
capture
dist
dures
gree
init@@
kt
lp
paint
partition
router
tend
tnsnames
xed
△
エト@@
グレーション@@
ムーブ@@
慎@@
氾@@
獣@@
秤
策@@
1865
191
==@@
Func@@
True@@
abled
allow
amil@@
aper@@
catch
class@@
ens
gw
rows
spor@@
stor
tcp
よろ@@
ステロン
ブロット
ワイルド@@
壇@@
距@@
鹸
1011
386
405
alink
bandwidth
camera
esses
fdisk
io
that
timate
wan@@
wn
ywhere
ねる@@
アイソメ@@
アナライ@@
ジェス@@
トープ
ペイン@@
亡く@@
天台@@
朋
蓋骨
議@@
ｹ
1887
Long@@
XT
bound
branding
ced@@
connexion
normal
pen
pl
rail
rent@@
rp
sort
ssh
ston
variable
what
エレクトリ@@
カーボン@@
ドリルスルー@@
ージオ@@
搾
楕@@
窺@@
芭@@
蕉
蜘@@
选@@
週@@
違
隊@@
03@@
1944
829@@
CHI@@
SCRIP@@
Shap@@
Shel@@
dhcp@@
ener
hi
inus
ka@@
lip
tumor
ソノ@@
マテリアライズド・ビュー・@@
姪
斧
淋@@
爽@@
篭@@
胡@@
返
1183
1959
4200
ORA@@
alert
ckwave
dhcp
hip
ili@@
ipsec@@
mat@@
pass
post@@
prototype
sing@@
ux
views
©
ディストリビュ@@
プレックス
ボリュ@@
メル
吊
文字@@
燈
生児
絆
萎@@
ｧ@@
Land@@
Look@@
accharomyces
chat
critical
essor
fe
fs@@
itas
pre
terior
tim@@
vc
xref
イレ@@
キスタン
ニクス
パースペクティブ@@
プリンシ@@
ランダ@@
俣
晒@@
添
甦@@
糞@@
顧@@
馳@@
1954
Conver@@
SPF
ani@@
arm
biped
display@@
endor
geometry
ldap@@
mal@@
merge
pk@@
sal@@
shell
shortcut
sitions
ster@@

アップロ@@
シングル・@@
スピー@@
ルミネ@@
峯@@
株@@
窒@@
簡@@
見積も@@
錘
1615
375
65535
Acceler@@
Exp@@
Privile@@
Relation@@
Sten@@
Sty@@
Tu@@
Wid@@
ami@@
bar@@
blur
char@@
lst
marks
rl
torrent
wing
うつ@@
じゅ@@
すすめ
ねく
らない
エナ@@
グラン@@
コリン@@
スタッ@@
党@@
投
白河天皇
置き@@
蛛
責@@
踊@@
飴
ﾘ
1879
CONNE@@
Camer@@
Fed@@
cab
dings
exp@@
ged
gro@@
kit
lit@@
orials
recovery
struc@@
tory@@
xsi@@
っこう
につ@@
クトル@@
垢
埴@@
妓
涅@@
糠
膜炎
陀@@
+&amp;
241
Stro@@
ass@@
dor@@
duction
etch@@
fac@@
inting
ora@@
replace
tact@@
terization
ったり
シャット@@
ゼピン
レガ@@
卓@@
1184
1234
1894
723
Smar@@
cular
departments
hot@@
ility
jective
lace
las@@
md@@
see
すす@@
インメント
オプティ@@
ネクチン
悟@@
曇
曹
裔
諧
贅@@
1866
1956
Admin@@
Da
alth
dbms
diag
ere@@
itter
ours
pad
stats
strar
turn@@
using
wlett
zer
™@@
でん@@
ぱい
インス@@
オペレー@@
キネマティ@@
クローナル
タバ@@
デザイ@@
塚@@
悼
棲@@
此
澤@@
畔
譲り@@
醸@@
鷹@@
1021
3640
9600
asses
dge
hen@@
llouin
mul@@
ones
packet
rements
rit@@
rw@@
ヘモ@@
ペロ@@
搾@@
旗@@
槃
鮮
12871
670
825@@
AK@@
Advan@@
Fon@@
IDM@@
abc
defun
dn
iges
linear
minfo
mx
nium
rain
tect
æ
コンテン@@
ブレット
ポニン
モール@@
リッ@@
窃@@
1333
1858
1902
473
84@@
FLE@@
IDDM
alc
ano@@
aureus
autodesk
cels
comp
dim
disabled
emp@@
grid
ines
schema
ung
vel@@
アドミニ@@
イスル
インストー@@
コンパウンド@@
ッション
ナトリ@@
ビヘイビ@@
塁
宇
居士
殆
法務@@
繰
耆
蹴
隅@@
1483
580
76@@
Bac@@
SCR@@
Sph@@
coding
ev
failed
fier
ination
ish@@
iss
merce
pkginfo
rand
vement
verify
アンギオ@@
クロマ@@
ノール@@
ペラ
・ストレージ・@@
叙@@
当たら
捕ま@@
文化@@
榎@@
櫛
猪@@
珍@@
田原
臓
見いだ@@
饉
1440
295
710
875
ARCHI@@
Assemb@@
Prog@@
Reco@@
Remo@@
bel
bul@@
cell@@
errdisable
fetch
ga@@
ids
lab@@
ligent
main@@
now
ority
param@@
particle
peri@@
stock
tx@@
vation
ならび@@
はず@@
ビジュ@@
ルギー
ールズ
云
奈
揃@@
棒@@
蒔@@
邇
鉾
面目
ﾀ
09@@
536
Referen@@
bit@@
cd@@
clsetup
dger
ipj
jpeg
pak
エキシマ@@
ポップ@@
マトリクス・ストレージ・@@
ワークプレーン@@
劇@@
呉@@
妾
嫡@@
巳
杵
痘
眺@@
Dist@@
Manager@@
ecad
erci@@
off@@
soft@@
strmadmin
virtual
vy
wood
yyyy
ψ
なか@@
ナフタ@@
プラグ@@
リゼーション
囁@@
徹
梯@@
穂@@
穿@@
耽@@
譬@@
軌
近づ@@
245
532
Dic@@
allow@@
color@@
dB@@
hidden
ias
lman
rad@@
rier
round
select@@
share
simple@@
sla@@
ふざ@@
まつ@@
イク
ディング・@@
フィクス
リレーションシップ@@
咎@@
巌
帆
桂@@
熙
ﾔ
ﾜ@@
1942
228
??
Sing@@
api
assault
encer
err
itions
lgroup
pic@@
relay
rest
rol@@
signia
sor
sum@@
trans@@
だん@@
ましく
サッ@@
スタンド@@
バスケ@@
侯@@
嬢
戚
桟@@
炎@@
痺
聚@@
貨@@
跡@@
醸
鞠
ｵ
1903
1924
Extru@@
Vir@@
bgp
col@@
detail
med@@
ops
vie@@
vil@@
wap
★@@
およ@@
まる@@
アソ@@
オリティ
シーケン@@
ッチング@@
プタ
亡
宰@@
屯@@
箏@@
萬
蛍
誉@@
197
4700
490
Parame@@
aspx
ded@@
han
patch
protein
rb@@
uous
‖
停
廉@@
稼@@
穢@@
窪@@
萬@@
葛
錫
ﾉ
1073
1150
226
408
486
852
963
SG@@
alized
ances
bi
details
ditor
eb@@
kd
solaris
timestamp
ven
wr@@
ƒ
バッテ@@
バナ@@
ベット
午@@
害@@
芦@@
詫@@
--------@@
1590
1878
573
Hierarch@@
San@@
affe@@
amin@@
eck
eff
flag
hiz@@
ico@@
maps
nis
real
region
rid@@
senti@@
tel
tribu@@
tro
クオリ@@
スポン@@
スン
匂
喪
札@@
釣
鋒
**@@
ENOV@@
acme
cert
enum
flags
ht@@
jms
loop
nfs
oper
pline
warp
ぅ
はる@@
まん
レーティブ@@
ーニング
儒@@
孔@@
川崎@@
様@@
溢@@
衡@@
閤
ﾜ
1915
1934
233
Dop@@
Motion@@
UTE
Vec@@
active@@
anim@@
curves
ee@@
he
icy@@
mz
presentation
split
tainment
tooth
umbing
umeric
ush
xx@@
かわ@@
ざい
はみ@@
コマンド・@@
京阪@@
伎@@
匿
姦
玩@@
虔
1350
1550
1860
1913
219
855
Character@@
Fir@@
Mus@@
Rol@@
anger
description
ensi@@
hoo
inch
inter
kawa
mware
nn@@
notes
rm
stack
thin
tra
ved@@
シェアリング
ストラクチャ@@
トッ@@
ベースライ@@
ンジ
些@@
却@@
嗣@@
墜
展@@
普@@
枡
薪
蹟
1273
1892
2212
277
403
Gran@@
ange@@
bpy
drawing
gma
mate
nnn
placement
solid
target@@
tax
then
づ
ぼっく@@
センス@@
ディペンデンシー@@
ビューポートラ@@
亭@@
挽@@
授
揉@@
旺@@
槌
状@@
猪
袖@@
鞄
1019
218
425
Inven@@
Meth@@
apped
avi@@
before
bootflash
dation
hael
images
lights
look@@
make@@
pha@@
puts
px
’@@
イニ@@
エキシ@@
オーサ@@
パーソナル@@
值
凵
堆
户
王寺
祓@@
遍
険@@
駆け
駐
－@@
600@@
CUST@@
Surve@@
ag
asy
available
aw
basic
blem
ipsec
ori
plore
sel@@
vis
well
とん@@
デフォル@@
プレート@@
叢@@
奔@@
拳@@
殖@@
畝
1030
Dep@@
Elev@@
Formul@@
alpha
band
cept
closed
dra@@
editor
email
era
fo
ices
ig
ization@@
newyork
pen@@
quo
rag@@
viiv
war
zochralski
もち@@
ビジョン@@
喚
宜
崎@@
稀@@
虎@@
諭
15000
1906
251
Cri@@
Opti@@
PX@@
STY@@
Sie@@
Stor@@
Wiz@@
bump
fas
ined
mmx
pair@@
pol@@
rft
solu@@
tta
write@@
xsi
ycle
インピー@@
トータ@@
押
按@@
漉@@
盲@@
粘@@
趣
1015
680
division
icus
kill
lated
led@@
lp@@
management
mat
ov
posure
ppi
resource@@
scds
sync@@
tents
ups
オペレーティング@@
スケー@@
ダウ@@
ティス@@
テクニ@@
ナリ@@
套
查
澄@@
牢@@
瞬@@
穏@@
缶@@
荘@@
鎌@@
1585
1935
3200
arium
clo@@
density
fre@@
hel@@
ind
lb
medi@@
prop
sin@@
ぇく@@
したが@@
ヌー@@
函
合わさ
征@@
痢
翰
1016
1017
1173
1933
Chan@@
Encryp@@
aging
ama
aves
com@@
current@@
dbinit
dopsis
group@@
gz@@
ichia
menu@@
tracing
transform
way@@
wh@@
—@@
まず@@
ドック@@
パーティ@@
亨
棚@@
焉
祟@@
簡
衝@@
謝
194
401
ASC@@
CJ@@
Trends
cli
demo
divi@@
fornia
gal
ints
resources
sac@@
wa@@
yn@@
アライン@@
エステ@@
カフェ@@
俸@@
偶
江戸@@
沙
瀬戸@@
誕
諡@@
鼠
445
Bot@@
CLE
acl
aphylo@@
care
dw
ici@@
pawn
scha
sta
umes
und
†
いら@@
なる@@
カウント@@
キノ
コンピュー@@
ジェクト
トランスジェ@@
トロン@@
プシン
処@@
填
懸命
拓
械
牧@@
腿
舟@@
050
1012
1914
Brow@@
Butt@@
Ether@@
eat
ita
misss
page@@
rap
rice
shots
vss
しば@@
インパ@@
オブザー@@
サブネット@@
壮
慕@@
茸
覇
詮@@
諦@@
零@@
駕
ｲ
1179
1921
1922
344
770
Repor@@
Ther@@
adox
ben@@
cam
env@@
execute
fl
folia
groups
last@@
phases
setq
sn
stric@@
ur
@@
≫」、@@
した
コスメ@@
ジュー@@
ッキ
フュー@@
昔@@
湊
靴@@
1001
1156
189
355
Expor@@
curement
duce
internal
matically
rant
setuid
sv
vb@@
vin
we
ひび@@
イベ@@
ニューラル@@
丈夫
叔@@
寧@@
檜
甫
義語
蕃
詳@@
貼
1909
740
Emp@@
alt@@
args
bpc
def@@
errors
fic@@
fine
identifier
join
lm
oli@@
pid
svc
swf
ternion
traceroute
ばし
サート
フィール
プラク@@
ポイントツー@@
ルギ
ーシング
僚
叡
哲
裳
雁
1750
2223
297
307
309
620
Groo@@
ason
delay
dq
fork
frames
inia
mental@@
multiple
netstat
ota
pix
rg
snmp
stant
video
where
おや@@
アルキ@@
エジェ@@
スケーラ@@
チュートリ@@
フィブロ@@
プライバ@@
ラクション
峡@@
思いつ@@
择
括@@
跳
1939
730
STN
alone
duo
ering
services
tit@@
total
ぢ
ひら
まか
エント
ントリ@@
撲
稜
篠
耕@@
訓@@
1221
273
Popup
Shor@@
Simp@@
Uti@@
ato@@
che@@
define
formix
fu@@
itch
kon@@
mad
meter
note
nss@@
package
structure
tification@@
update@@
プロピレン
兆@@
分か@@
宴@@
披@@
族@@
羨@@
茨@@
衆@@
ﾛ@@
711
CHEC@@
CLU@@
INDE@@
Share@@
TCH
aceae
ata@@
bility
choice
cluded
customize
df
gh
lies
logs
ming
msc
qual@@
ri
trip
visible
work
”@@
インタラク@@
ストラク@@
スペースモディファイヤ
ヂ@@
バルビ@@
兜
憧@@
月日
謹@@
賓@@
込@@
025
1018
257
501
7600
8859
980
Dest@@
Lam@@
achi
byte
ctl
dered
eg@@
inder
mediate
numer@@
remove@@
rou@@
rous
stence
ths
tia
tom@@
おし
アカウン@@
アワ@@
キト@@
スケープ
ダニ@@
フィック
プログラ@@
リテ@@
潤
烈@@
詣
294
Phy@@
Plas@@
Proto@@
Volu@@
arc
doors
equ@@
isql
machine
motive
name@@
online
protected
ree
statement
ulata
usb
é
↑
もなく
ストラテ@@
セントラ@@
テクス@@
フリン@@
ボイ@@
マーン
嶽
巡
懲@@
撲@@
祇
絞り@@
舌@@
虹
辰@@
｣@@
53@@
973
Dynam@@
FRA@@
ITE
ffie
forward
ky
matic
rel
temp@@
thering
uring
wo@@
すべ@@
によ@@
インフルエン@@
ギガ@@
シーケンサ
チュニ@@
ロジ
味わ@@
恨@@
鍋@@
額@@
808
Alias@@
Boo@@
Corpor@@
Recip@@
Transpa@@
ancy
animation
anti
complex
elance
fix@@
generate
ino
oring
pfx@@
shi@@
sr
tions@@
つま@@
ゲット
サムネ@@
タク
プリタ
ホルム@@
ンドル
冥@@
十二@@
対応@@
汝
漆@@
董
閑
1111
1570
1893
89@@
Att@@
adapter
alloc
iii
move@@
nw@@
oly@@
ships
undo
une
yy@@
ばす
ショート@@
ルーツ
励
吟
宇宙@@
跨@@
1883
237
515
667
Compo@@
ached
chenne
chin@@
enter
joint
monitor
mov
ories
ough
po
proxim@@
sdp
sig@@
tain@@
tate
vent
ville
wm@@
work@@
zonecfg
²
えふ@@
しょん@@
アダプ@@
エグ@@
エンター@@
スメク@@
ミト@@
ーシップ
厩
大将軍
檀@@
煕
眉@@
程@@
稙
販@@
韻@@
05@@
4100
576
610
CHAN@@
ceptions
certificate
don@@
down@@
engine
ere
even@@
hu@@
inary@@
inated
lada
mc@@
orum
radio
replication
snap@@
traction
tum
uri
エクストリーム・@@
シアニン
セプト
メトリ
メートル@@
リンパ@@
切り替@@
幣@@
庫@@
憑@@
漫@@
腸@@
袋@@
217
=)
Pivo@@
art@@
att@@
cui
events
face@@
failover
fc@@
fel@@
ignore
jp
nurbs@@
odbc
perion@@
pm@@
probe
san@@
tical
tour
visions
ある@@
もし@@
ウンド
デザ@@
プレゼ@@
偈
巣@@
时
材@@
潤@@
篭
茎@@
障
':
1859
1938
306
535
Cisco@@
Jav@@
asing
bt
clone
cmd@@
comment
crew
cript
dep@@
fiers
ford
ican
ight
isher
llite
nc
obj@@
shadow
terminal
ula@@
valent
witch
zy@@
ジョ
ツールパレット@@
ブレッドクラ@@
プラスト
ルテ@@
尻@@
於@@
毅
辱
266
FLEX@@
aches
anese
ara
batch
bre@@
centr@@
eng
gc
gra@@
grate
ilis
inkle
mic
neighbor
ome
process@@
secondary
sq@@
イギ@@
キリスト@@
ディメン@@
ランダ
嗜@@
怠
拉@@
禎
釧@@
韓@@
1592
59@@
603
JN@@
bl
din@@
dow
ging
gram
headless
lower
ola
olation
ome@@
ran
small
uid
wards
ر@@
アスペ@@
カル・@@
スペク@@
ブロー@@
ヘンシュウ@@
倭@@
可愛@@
弄
梁@@
環@@
用人
知ら@@
頬@@
1013
1601
229
940
Sket@@
SteeringWhe@@
amo@@
atches
ban@@
bull
cross
draw@@
ential
house
ject
ku@@
lation@@
lished
mini
plan
rails
rlogin
rr@@
skin
snapshot
sysidcfg
tables
thread
track
」)
おそ@@
アスタ@@
アルド@@
アルミニ@@
エタ@@
専
彌
淫@@
痔@@
賤
388
767
Authentic@@
PRODU@@
SDL@@
Ske@@
assign
ays
bx
dcl
design
essage
fit
history
ication
igh@@
lers
mit
nie
ning@@
pans
philus
ref@@
rh@@
serial
sibility
tag@@
term
{{@@
α@@
いらっしゃ@@
サルコ@@
ナイザ
删
取り消@@
编@@
286
332
483
708
Element@@
bur@@
chemas
ef@@
final
lap@@
mult
multi
oi@@
rhenius
snoop
valid@@
void
カーテン@@
ゴル@@
ズン
フィーチャクラス@@
ミコ@@
伽@@
勒
卓
夭@@
審@@
溝@@
猿@@
癒
賑@@
趣@@
遜@@
酔
1473
345
860
965@@
Inte@@
Recover@@
Secon@@
Toler@@
adi
ano
appname
atin
beck
clock
du
ever@@
fa@@
fier@@
genes
graphy
initial@@
mated
netbeans
ptc
sib
tar@@
tis@@
vir@@
wide
イム@@
ウラ@@
オリン@@
セク@@
リット
呂@@
天王
潅@@
舞い
陪@@
012
1014
2300
801
BIN@@
Compon@@
albicans
ede@@
ign@@
mail@@
mgmt
orph@@
pers@@
sb
script@@
thi@@
tn
vec@@
velo@@
いただ@@
アベ@@
オブジェ@@
コンシュー@@
コントロー@@
ゴニスト
スルフィド
チニン
提
溜
艶
1252
373
8500
870
SFET
abilities
adi@@
asis
auth@@
bu
gb
gp@@
ilt
lope
namespace
nec@@
oni@@
required
tee
tropic
wps
いろ@@
ねり
ウィンド@@
コンダ@@
ターゲ@@
ナビゲ@@
フォー
凍
唱@@
掾
斡@@
檻
燐
瞼
籾@@
聡@@
臼@@
236
243
315
416
Decimal
air@@
anges
ats
avs
bro@@
cancel
eff@@
eman
forms
kbar
lets
lips
member@@
resnel
scre@@
second
sible
stop@@
tant
tener
thaliana
traffic
vbs
めんと@@
コーダー
セパ@@
ニアン
ネガ@@
凋
墾@@
奔
平方@@
思
戴@@
気圏
猟@@
符@@
粛@@
精神@@
艦@@
茹@@
覚寺
訂
麹@@
1937
9506
COMM@@
bluetooth
cover
flex
guide
kip
layers
prog
sctp
site@@
synchronous
trust
tured
two
virus
wheel
やさ
アンドロ@@
エンジ@@
ボルタンメトリー
义@@
属@@
弐
累@@
蝶@@
鋸
頻@@
258
356
366
DY
MEN@@
QUE@@
bridge
corp
dar@@
fd
fill
ftp@@
gue
gz
hns
ign
insecure
ny
pho@@
pose
pres@@
qa
rett
speed
van@@
vor@@
マグネトロンスパッ@@
リド@@
レンディ@@
欲@@
浪@@
硝酸@@
践@@
躍
辑
﨤
1650
1917
ATTRIB@@
Clar@@
Ele@@
MDA
Stic@@
arp
ham@@
inning
ony
ratio
rex@@
rmann
sim
specified
standalone
streams
tail@@
tert
tp
ころ@@
やむ@@
エピタキ@@
ォ@@
チト@@
デイライト@@
デッド@@
ハム@@
ポテン@@
マネジ@@
・ボックス
傾
圓
奄@@
峙
押え
稙@@
謡@@
访@@
鏡@@
****@@
090
1181
1936
265
288
423
823
Colli@@
Imag@@
Inser@@
Sec
Tol@@
ah@@
ao
constraint
endrange
esheet
ipn
jac@@
jan
lexi@@
mapfile
mem
mls
other
piping
pot@@
pref
range@@
surance
tools
xiliary
うま@@
くさ
したら
どん
れ目
コヒー@@
スプリン@@
パレット@@
ファイ
伽
叡@@
堵
娶@@
弊
秤@@
蝕@@
讒@@
007
180@@
247
389
8540
Cylin@@
ERRO@@
ables
gran@@
illing
iness
isakmp
nb@@
nis@@
pal
phase
posit@@
pot
spp
world@@
è
すな@@
フォール
ムギ
刈
又@@
巴
牽@@
舒@@
1521
1580
443
Mark@@
acto@@
ample
annotation
ase@@
controllers
cube
filer
fraction
leware
ntl
padding
pppd
resses
rix
sequence
shift
simple
sudo
thus
translate
ussian
wann
wit@@
zo@@
ن@@
ざり
もとづ@@
エンド・@@
チェンジ@@
埼@@
婚@@
率@@
踵
軒@@
12865
1568
1614
422
555
806
Attach@@
build@@
cess
dbsvc
lain
luc@@
ney
proc@@
rection
rpt
‚
″@@
にわ@@
アペ@@
ソーシ@@
ッセン@@
フレンド@@
プラズ@@
克@@
取り組@@
毀@@
燕
牢
菅
賄@@
順序@@
魁
32767
Mechan@@
STR@@
activity
cron
fe@@
her
intf
kl
layout
metal
ord
oryzae
sar
scale@@
shop
sit@@
thr
″
クラシ@@
フィギュ@@
プログレッシ@@
卜
吠@@
嘱
廓
控@@
爾
界@@
翼@@
蚊@@
鵜
2030
312
321
336
704
ENO@@
Ill@@
ail@@
ena
ene
eral
lied
matics
mem@@
oxy@@
selected@@
sta@@
validate
words
ぁれん@@
为
基づ@@
河原@@
洒@@
胆@@
259
456
562
748@@
945@@
Bright@@
Broad@@
Cou@@
Rele@@
Transl@@
asp@@
brker
card
crashinfo
etveld
fa
goti@@
lag@@
ler@@
loc
nsrd
procedure
rank
rename
servers
tu
オニン
フォワード@@
中性@@
寡@@
楯
熾@@
葦@@
誅
透@@
鐘@@
隔膜
飛行@@
2102
313
575
Rela@@
alk@@
ames
ami
ath
ause
between
izations
jb@@
lam@@
leaf
met@@
peer
typ@@
すみ@@
イノシ@@
スクエ@@
デック
ハミ@@
ブレイ@@
・・@@
傭@@
拭
涙@@
煎@@
贄
饗@@
(*@@
1598
3270
CONT@@
Employ@@
Hid@@
Protec@@
ashi@@
bed@@
bling
chus
cles
dual
ejb
ence@@
ever
item@@
laim
mll
patch@@
pgp
phys
pseudo@@
push
ql
quality
rte
sid
tiller
translate@@
unload
xim@@
オヨ@@
オーケ@@
カーボ@@
グルカ@@
コンプレ@@
プロスタ@@
レバ@@
希@@
把
曾
棋@@
椀
瞑@@
糾@@
級@@
闍@@
馨
騙@@
鷲
，@@
244
700@@
87@@
995
BC@@
Bol@@
Geome@@
MODE@@
Materi@@
Trus@@
________@@
ask
dsn
hic@@
jor@@
referen@@
some@@
spatial
stm
tip
zz
ة
アルギ@@
ドニー
猟
珊@@
稽
罵@@
过@@
0002
1595
1620
511
625
930
OME@@
aliasing
aris
bak
cf@@
child
col
dblsn
definition
divisions
has@@
ography
performance
registry
rome
room
termin@@
uck
variant
wdp
かの@@
もっ@@
オクルージョン@@
コルチコイド
サインオン
ザード
伍@@
偶@@
傲@@
噴
壷
役に@@
撚@@
擢
祝
緯
謁
謳@@
豚@@
逐@@
214@@
296
3800
Propag@@
Scho@@
Tren@@
authenticate
compare
cycle
features
handler
imf
pag@@
ply@@
pra@@
repeat
schost
tivities
tml
tos
vla
キャロ@@
コアインテル
ソリュ@@
プレット
券@@
割り当@@
否@@
團
握
暢
潟
琳
璽
疏
箇@@
綾@@
ｧ
,&amp;
1210
623
880
Environ@@
Publish@@
REA
SSA@@
Stat@@
Term
atest
const
dre@@
driver
external
gcc
hcp
header
itor
locations
mbr@@
person
plan@@
response
sig
srv
はし@@
スメ@@
ナンバ@@
噺
帆@@
爵@@
看
蒼
謂
靖
ｾ
262
920
Aler@@
blend@@
concepts
copy@@
eri
mized
pers
plot
plugin
rt@@
tri
ure
wave
ゾー@@
ナリ
ブラスト
ポロジ
ンドン
檀
濡@@
珠@@
畠
痴
籠@@
鳳@@
＠
1189
14000
242
261
525
675
690
827
9001
Flight
Media@@
Wire@@
bcl
children
green
language
layer@@
msg@@
provider
serif
solver
tories
いで
やさ@@
エンス
トラステ@@
マトリ@@
壽
弐@@
折れ@@
沃
綬@@
雇
140@@
409
ARY
aph@@
apo@@
cef
cfgadm
con
desirable
dest
drag
elt
gins
ining
installation
japonicus
ji
lamy@@
long@@
ommand
prim
sch
sk
spline
ull
わざ
中間@@
圀
弊@@
方向@@
明天皇
索@@
諾
較@@
006
1855
20000
249
7100
APE@@
Blin@@
CACH@@
___
anus
attach
bq@@
cast
cati
ian
iga@@
img
location@@
mas
pack
powermt
span@@
stat@@
tting
ufo@@
ural
xbx
ç
エンタイトル@@
サテ@@
セツ@@
ハイパースレッ@@
レスポン@@
俘@@
弛@@
恨
獄@@
葉樹
407
415
737
764
94@@
ATCH
Hor@@
Mol@@
TZ
acid
columns
connected
cv@@
eng@@
fb
hodo@@
index@@
lb@@
logical
mf@@
mitted
output@@
same
symbol
tags
uni@@
ξ
やけ
ジェント
フレクタ
录
往
拓@@
揮@@
殊@@
灌@@
研究@@
膳@@
袍
1916
757
Contro@@
EXR
SetState
Sof@@
ases
att
attr@@
cir@@
diagnostic
din
done
ested
fan
gle@@
nic@@
platform
radconn
rea
setting
signal
ster
til@@
ult
viewport
weak
‰
エジ@@
ネマティック
抵@@
旭
煎
爪@@
箇
臥@@
謙@@
1575
1599
1835
707
Ora@@
Wh@@
accdb
ade@@
board@@
bun@@
capsu@@
coun@@
dbname
door
eg
here@@
ight@@
ills
inside
ion
maximum
named
ounds
params
random
screen
silver
uti@@
ت@@
エミュ@@
コンサル@@
ビデ@@
ファク@@
フォーミュ@@
匿@@
彰@@
忙
漱@@
狙@@
盤@@
窓@@
霞@@
110@@
Dro@@
anim
ansi
bacillus
dations
dh
dii
dlopen
ene@@
erg@@
filter@@
fur@@
hl
insert@@
intensity
messages
mysql
parts
pd@@
plasma
ql@@
radi@@
sine
tc
tered
yy
にか@@
キャリブ@@
トコ@@
ドライト
メタゾン
创
寅
手の@@
詞@@
遼
鉢@@
1583
1586
1602
263
353
aks
bia
cla@@
clip
ct@@
dbtran
east
encoding
ency
evaluation
fication@@
gloss
iso@@
oc
processor
refr
sched
selection@@
ties@@
tracking@@
コロン@@
ズル
ニカル@@
ピオ@@
ヘパ@@
ポリン
义
哉
尤@@
恐ろ@@
报@@
撚
斐@@
时@@
朽@@
漑
誅@@
軸@@
鰻
246
283
Am@@
Pseudo@@
Stor
aci@@
agic
apply@@
binding
brush
convert
ellaneous
eting@@
ext@@
ferential
ffect
font@@
fying
gar@@
gid
hon@@
icker
live
mbr
obi
ocal
panning
prog@@
psd
rpc
semble
sheet@@
shooting
tblsheetcount
tblsheetnum
tency
uss
was
wsdl
ب@@
きわ@@
ほと@@
ギン
ケモ@@
サイクリック@@
ストアド@@
ペプチ@@
メア@@
丈@@
了@@
俣@@
名古@@
暮
曰@@
柱@@
漕@@
綾
芥@@
105@@
1160
1650@@
1853
601
72@@
ENT
RENT
agon
bow
common
continue
dis@@
ese
geo@@
guest
iler
minister
optimization
rick
sag
scripts
segment
sole@@
vp
ぷろぱてぃの@@
エストロ@@
コンシステン@@
プレゼン@@
プロバイ@@
ホルム
動車
埠@@
樋@@
问
霜@@
027@@
1040
1536
1840
485
8192
OLAP@@
Ret@@
aas
ark
aving
beast
deny
destroy
eigh@@
ests
fp
gf
ied
inet
job@@
mfr
mission@@
mt@@
netsh
novo
original
peak
pio
rev
rgb@@
rtf
rus
ship
stitu@@
tiff
tops
ع@@
ちな@@
もと@@
コンド@@
シティ@@
ノック@@
ワリア@@
掲
檗
炉@@
盃
相応@@
聘
辻@@
迷
1565
1830
268
455
97@@
RHE@@
aeruginosa
aming
analysis
ault
dial
dt@@
fish
initialize
ishing
mode@@
nel@@
onna
program
ret@@
sers
side@@
there@@
ttymon
verbose
ves@@
ytes
ā@@
の中
ぷらぐ@@
インターフェ@@
キャピ@@
串@@
丶
刹
厨
厩@@
姦@@
徽@@
撫
殖
狼@@
禽
聚
蘆
蟄@@
选
100000
335
923
Rel@@
Syste@@
Vide@@
____
brio
convert@@
cut@@
dap
days
dencies
dsk
dyn@@
error@@
ght@@
ik
loaded
obe
oce@@
oph@@
opus
pin@@
rotation
scan@@
sement
sort@@
sue
tmp
tool@@
tune
usage
vari@@
おい@@
すご@@
めぐ@@
キープ@@
ジャーナ@@
ツキ
喪@@
存じ
峡
禍
襞
謁@@
躊@@
鰹@@
1240
1603
1612
1842
318
327
608
645
ATTR@@
Dra@@
account
alog@@
asse@@
brand
category
connect@@
employee
ended
fixed
frequency
hyper@@
inode
into
lpadmin
oh
release
screw
seg
spend
stridium
task@@
usa
xlsx
zi@@
デンシャル
メキシ@@
レスポ@@
レージ
叛
墾
描
斯@@
晦@@
洪
炒@@
肪@@
鴎@@
278
314
359
647
Mir@@
aq
ave
bold
continuity
database@@
floor
help@@
identity
jdbc
mni@@
nbsp
nsradmin
pur@@
rm@@
savegrp
spec
tml@@
ulus
ving@@
yo
ن
ぎる
はや
アドミニストレ@@
イミディ@@
タンデ@@
チロシン@@
ノラ@@
フラッ@@
ベージ@@
ラニ@@
リシス
且@@
均@@
婆@@
拍@@
撥
燗
竿
箕@@
维
譚
该@@
躯@@
限@@
30000
324
3660
50000
590
733
866
Manu@@
ProdName@@
________________@@
ace@@
af
aka
arc@@
atom
entmake
gul@@
hone@@
keeper
kr@@
large
lite
np
oid
ona
org@@
query@@
rdp
rec
rf@@
sol
stl
tron
たば@@
シーム@@
ジオ
スペシフィ@@
傳
姑@@
慢@@
曜@@
楼@@
禄@@
章@@
遁
鍬
1467
1584
1854
1857
Jump@@
amine
arti@@
beast@@
bed
chain
erls
faec@@
frame@@
hik@@
ies@@
kine
mains
panel
rel@@
sporum
tation@@
tga
umber
シカ@@
ツー・@@
フロア@@
プラット@@
マテ@@
亥
喰
姻@@
席@@
ｪ
(-@@
1578
803
Certific@@
Crow@@
Manufac@@
Medi@@
UCP
abling
ati
bian
changes
chk
diff
drop@@
fil@@
foli@@
graph
hear
hierarchy
hino
lap
mf
mk@@
nail
nslookup
physical
pub
pv
sic
sw
こま@@
ぷしょ@@
イント@@
ピッカー
ファシ@@
プログラミング@@
ペニ@@
モンテ@@
ルドライン
乃
唾
堆@@
墟
彫
慮@@
憶@@
渤@@
牒
ﾒ
1155
Descri@@
Geometry@@
SCRE@@
Tru@@
alia
ath@@
but
dic
dus
ient
inters
lgrp
mens
orders
physical@@
reload
results
spin
spora
tol
water
xfnts
よこ@@
アスパラ@@
ジルコ@@
セマ@@
チェット
ドレス@@
ファーム@@
ポートラ@@
个@@
坪@@
塔@@
忘
慨
拙
旅客@@
瓜
礫
袈@@
采
｢@@
1587
1843
200000@@
Fer@@
acked
arch
bler
dump
flush
forwarding
icemail
icked
input@@
kan@@
macro
manual
migrate
migration
mis
mization
ower@@
parm
queror
reate
receive
root@@
slp
tribution
ttle
ync
±@@
きゅう@@
びで@@
ホスファチ@@
ミュニ@@
棄
棄@@
緒@@
繍
荻@@
跪@@
述@@
閃
閻@@
頁
鴈@@
267
269
604
Behavi@@
Duplic@@
aded@@
allocate
bmc
defined@@
from@@
iner
install@@
lis
locked
lux
ob
osp@@
path@@
permissions
rence@@
sco
sdl
tailing
therford
tid
ucli@@
«
アルデヒ@@
テージ
パーキン@@
壱@@
聾
脆@@
般
贖@@
酵
鏑@@
隷@@
鯉
1066
1187
337
352
451
476
807
MID@@
Mass@@
Plat@@
aga
ann@@
been
dence
elling
inner
inst@@
ist
ln
nap@@
ners
not@@
nrt
parent@@
qa@@
readme
receptor
rege@@
rug@@
sock
sortium
stered
uster
おめ@@
にく@@
アクセシ@@
アシスタ@@
アマン@@
アーキ@@
グラウンド@@
スウ
ドロップダウンリスト@@
峻
廣
朔
脩
薦め
覇@@
＄
1577
342
502
789
Cg@@
Fail@@
Whe@@
Wri@@
acti@@
anum
argument
bas@@
column@@
dies
gd
generation
hair
ington
nip@@
outside
rig
search@@
space@@
tad@@
transfer
trl@@
vid
will
wrl
wy
►
アクチュ@@
コンタクト@@
スルフィ@@
モールディング
リーズ
侮@@
哺@@
大蔵@@
悩
或@@
繊
＋@@
1628
272
412
448
6140
685
824@@
Budge@@
Twi@@
abe@@
acea
aga@@
ands
cha@@
compression
contact
container
edges
fct
ji@@
ken
lich
life
mar
mid@@
princ
relation
spec@@
struct
transparency
uary
wall
xing
怪
柿@@
滋
爺
臂
蒸
蛋
邑
醗@@
间
ﾁ
1190
1569
1571
1640
351
549
753
805
929
Args
aggregate
angulated
ank
brain
conversion
cv
cw
doe
eller
fven
fw
lli
mfg
motion@@
nsrmmd
opg
ople
reverse
rough@@
secret
slag
source@@
stu@@
tv
upffer
vent@@
@@
·@@
÷
セラミ@@
ドー
プラスチ@@
傀@@
儡
取締@@
唖
嫡
應@@
承@@
疏@@
訛@@
逼@@
･･
1004
1159
785
804
CLARi@@
Effector@@
append
bg
box@@
bus@@
conf@@
cop@@
cs@@
customer
dal
dgett
dsp@@
elem
extension
iel@@
inae
lein
mark@@
nas@@
printf
string@@
topic
uf@@
visibility
ware@@
きゃ
り物
ジェリア
ディスプレ@@
ョン
争
呪
拒@@
生み@@
疵
舷
裟
认
韻
1025
1591
1841
1848
285
718
BOL
DEFIN@@
Grou@@
apping
apple
asi@@
bic@@
both
dex
iring
kins
lf
lling
locale
mr@@
older
ometric
permit
plic@@
publish
reads
spect
switchport
tf
tolerance
ua
uli
zburg
zer@@
zoneadm
…@@
てぃ
びと
スプレッド@@
劉
届け@@
敢@@
枯
梨@@
椎@@
気に入り
火山@@
茅@@
菟
訣
1828
606
607
Kr@@
adsk@@
adv
attribute@@
bis
dba
func
gi
hes
ht
ish
margin
mdf
mol@@
onal
percent
qos
stp
tening
trunk
¨
トランスジェニック@@
ベーター
喝
壱
慈
抱
柄@@
櫛@@
窟
竪@@
羊@@
翌@@
茅
葡@@
長谷@@
雁@@
靖@@
ｫ
%%%
1579
1837
1838
322
Respon@@
TAR@@
WIT@@
adm@@
assy
cut
degree
department
etch
hat@@
law
loads
mapped
mesh@@
mmc
mod@@
mouse@@
negotiation
ock
pol
rcp
rgb
sensitive
sition
syn
tailed
tel@@
tick
ticus
vertex@@
zone@@
ざま
ゆる
ガング@@
ツメ@@
メージ
學
幹@@
榴@@
盧
睡
衷
詐@@
諌@@
迹
酉
1336
299
331
550@@
702
800@@
Mv@@
advanced
alerkin
bug
cfm
components
cpp
desktop
eq
fos
gated
gis
gri@@
hl@@
kers
kle
mv
nr@@
oce
ophy@@
phil@@
ren
secure
stamp
subtilis
super
vo
vpn
あろぐぼっくす
ウイルス@@
エンドキャップ@@
スリム
ネシア
ポジション@@
倹@@
吏@@
吐
喚@@
塩化@@
契
奴@@
憐@@
特徴@@
脹
詣@@
Hum@@
acnes
asset
combustion
fac
gateway
jo@@
logon
lop@@
motor
nia
quee
rotate
spot
stab@@
stdout
tail
threads
tral
uc
vic@@
zero
オブジェクト・@@
コンデン@@
ダカ
ビュート@@
マティック
埃
婿@@
寳
日立@@
沌
祓
綸@@
躇
髪@@
SAMP@@
Sketch@@
angles
ately
carcinoma
close@@
crypt
dant
dis
dns
dum
graphics
hom@@
illa
members
nard
navi@@
phy
rer
tol@@
topology
tun@@
ا
マサ@@
ライド@@
偲@@
囚@@
崗@@
戮
明る@@
科大学
簾
纒
耶@@
设
賄
1100@@
1845
271
292
Visu@@
ages@@
aturation
backburner
calendar
centric
conto@@
dim@@
ei
eing
falloff
gans
ida
mid
oh@@
oport
opsis
pax
priv
register@@
roll
schedule
sdk
sian
star
tiv@@
umann
vals
〝
エクスペリ@@
エンジニ@@
エンティティー@@
クリティ@@
ップラー
叛@@
唆@@
妬@@
帷@@
泌@@
煽@@
甕
禰@@
窩
維
苓@@
蔵庫
近衛@@
鈔
6061
877
Alig@@
DAV
Zo@@
accept
actor
adds
always
ange
block@@
cad
colors
dition
elements
export@@
fluid
manent
merci@@
mip
nes
nor@@
orientation
pick@@
printer
pul@@
refresh
ric
rikam
sld@@
snmp@@
tella
timer
tory
ully
vl@@
vlr
watch
which
wp
xsn
イネ@@
ゴニ@@
シック
テージ@@
デクラ@@
ビリ
プラチン
プロシ@@
勒@@
哀
國@@
婢
岳@@
查@@
次い
汁@@
爺@@
畦
艘
註
遽
鐸
隼@@
383
COLU@@
PROD@@
acac
ado
ago
arguments
arrow
astic
ausen
bac@@
binary
chr
cuix
dri@@
emitter
kiness
operator
pan
prin@@
print@@
sections
spl@@
uv@@
vt
Ψ
β@@
⇔
あろ@@
ゅつり@@
コンプライア@@
プレド@@
克
别
哲@@
嵌@@
淑@@
笹
購@@
較
鬱
鷲@@
鷺
435
937
93@@
Avail@@
Jour@@
Less@@
RESS
adder
ating@@
begin@@
big@@
bool
bose
cit@@
denti@@
designer
errno
extended
formis
full@@
gative
hard
hop@@
hou@@
ira
kr
lau@@
leman
mite
mited
onymous
ped
pon@@
sha
slice
stress
superclass
thro@@
tractor
train
twe@@
udm
unt
ゝ
エネ@@
オラ@@
スポリン
リチャ@@
児島
杓
湘@@
矛
祠
簪
薙@@
遥
霧@@
鯛
83@@
alle@@
ant@@
bel@@
coder
compute
eus
evolve
frag@@
glo
ination@@
iq@@
jected
maya@@
meta
mholtz
prodname
regions
satellite
tbl@@
tell@@
tho
tices
wt@@
¼
っき
コンポーネ@@
ヂ
デプ@@
トグル@@
ベート
リターン@@
ントル
傅
八幡@@
冑
噌@@
廬
彬
晶@@
柏
濫@@
濾@@
碑@@
类
腫@@
520@@
82@@
MetaLink
Pac@@
bios
bom
button@@
chan@@
che
event@@
facing
fla@@
forcer
imp@@
inc
ith
kie
logic
outline
pper
prop@@
quee@@
quota
relative
repository
rester
sei
sf
ship@@
sur@@
tangent
variables
want
wrap
xs
zen
↓@@
めんと
コンプリ@@
トム@@
パッケ@@
パラダイ@@
ビルト@@
安息@@
幡@@
攘
椿
湊@@
罹@@
而@@
舗
蒲
頚@@
＞@@
749
Inst@@
change@@
clip@@
cuts
eb
ech@@
fg@@
flap
global@@
graph@@
hard@@
hardware
hold
icola
iq
iss@@
leShape
missing
olor
ort
parmlib
passes
rdf
scen@@
scens
socket
than
toolbar
tries
ward@@
ws@@
xml@@
year
yi
zh
§
しゃべり
やって@@
インバー@@
オーバーフロー
デプスマップ@@
フッテージ@@
塵@@
弦@@
睦
舅
Dash@@
Engine@@
Il@@
Locker
SNS
acking
aki
ala
angoni
backups
bic
ecl@@
eds
ernst
ffer@@
first@@
gener@@
keyword
meta@@
minis@@
msfc
pv@@
rw
sketch
smith
srp
sted
subsp
switch@@
trim
س@@
カーボンナノ@@
ッセイ
デスクト@@
ナビゲーションホイール
ファント@@
プログラマ@@
喘@@
椋
椒
混
渇
瑕@@
臈
蓑
重なり@@
865@@
DEFA@@
PPPo@@
Sear@@
Trad@@
aliases
aro@@
cdi
chi
dbl@@
eps
fi
gents
hoff
lh
nings
oning
osity
phony
pps
prod@@
rang@@
rays
remote@@
reset@@
slide
svc@@
trachomatis
trap@@
trigger
vendor
ぼみ
インシ@@
カテー@@
コント@@
レプリ@@
久保
复
怒
您
戊
截@@
竈
紺
苫@@
醤
頁@@
Ax@@
Balan@@
Hb@@
atri@@
bra@@
dec@@
eda
etings
euro@@
gged
ham
hyperion
idle
import@@
ingu@@
ipx
located
nav@@
owen
polar
processing
sand@@
seed
servername
shot@@
thern
tives
ya@@
ylo@@
かわい@@
じく
イネーブラ@@
インフォーム@@
セーバー
ヒステ@@
但
卯
呑
娩@@
幟
悉@@
択@@
攪@@
杜
逝
麟

+)
450@@
Fai@@
assay
assigned
bits
cess@@
culated
datetime
dgn
diagram
ety
eval@@
ferred
je@@
nl@@
parse
plumb
porting
squ@@
sty@@
syn@@
teroides
thickness
uk@@
ulture
ux@@
versal
wf
ä
Π
‡
インクリ@@
インプレ@@
カルト
デヒ@@
ホスファ@@
厭@@
哨
孤@@
珀
肴
菓
藪
轢@@
采@@
麗@@
+）
Sou@@
addon
bend
bp@@
connections
eye
fem
fied@@
finder
homa
hun@@
icil@@
ided
mal
melan@@
nc@@
night
onia
ordin@@
preview
project@@
refs
rer@@
sem
skills
tine
tooltip
zp
『@@
こんとろ
すき@@
ゆみ
クエン@@
ディレクショナル@@
ピラミ@@
嚇
奢@@
斯
楠
渉
瀕@@
瑚@@
盟
紺@@
舐@@
蒼@@
遙
鍮
360@@
Applic@@
HIKCharacter@@
acle
angi@@
chart
chk@@
command@@
compile
cro@@
custom@@
devices
eth
gem
hem@@
hir@@
holes
ircom
izing
limited
ling@@
mination
other@@
permission
ras@@
resolution
rights
scal@@
sharing
split@@
ssl
tube
xels
zt
ف@@
●
テクノ@@
ドーパ@@
ナショナル
プロセッ@@
ライブラ@@
ワークス@@
凝
浩
瀕
薫@@
解像@@
隆寺
****
Front@@
Navi@@
OTP
Streng@@
ampl@@
aur@@
bot@@
brow@@
cystis
derma
dsn@@
explorer
gate@@
gers
handle@@
hex
negative
neo@@
noti@@
oides
override
pixel
plain
prof
rey
rsm
struction
synchronization
trum
wan
warn
インダストリモデル
クオ@@
サルモ@@
スケマティク@@
ヒスタ@@
メンテーション@@
天満@@
成し@@
是@@
瀧
纏
羹
耶
興味@@
蓋@@
裕@@
邑@@
454
Ado@@
adding
arx
axial
burn
chor@@
cid
contour
cyst
device@@
eded
ema
estion
far@@
flows
gence
ground
hash
inge
mdx
obacterium
pf@@
plural
quad
sad@@
shooter
shp
stment
surface@@
ulator
zing

é@@
うか@@
えて
へんすう
アクセラ@@
シンクロ@@
トロピン
プランナ・@@
リリー@@
使館
务@@
吾@@
少な@@
彩@@
慕
煤
獅@@
竺
蚕@@
迹@@
錯誤
TimeSt@@
accounts
aling
bd
brief
empty
fore@@
function@@
hop
initial
jb
jt
lob@@
marine
medium
moun@@
must
ordon
rab@@
real@@
risk
seph
shaft
spring
stris
ticum
↑@@
れっと
アスファ@@
エアロ@@
ボトム@@
吻@@
惧
惧@@
捻
櫃
琥@@
瓊@@
窪
諡
迦@@
遡
须
饌
鳩@@
ｦ@@
319
9999@@
WF@@
amples
apper
browser
bsiella
code@@
complex@@
dom@@
forma@@
gb@@
good
hab@@
hsp
jsf
liner
lun
mean
nex
nk
ono
ring@@
round@@
routing
scsi
sil@@
smtp
spa@@
yer
د@@
ルギャ@@
世界@@
中国@@
掲@@
机@@
标@@
歴@@
疽
磔
笹@@
緻@@
縋@@
芥
许
費@@
鮎
ｭ
Fav@@
Switch@@
bor
circuit
clean
curve@@
dependent
docs
dvb
effect
eria
geo
gnition
grade@@
grid@@
hw
hypo@@
iis@@
lates
lis@@
locking
mai
mn@@
models
nam@@
obac@@
olly
opacity
retrospective
scr
seq
term@@
vas@@
wiki
yst@@
」(「」)
おもし@@
スプラ@@
ベーシ@@
リラ@@
リーダ@@
偉
共和@@
卜@@
夫@@
宏
榊@@
滤
煤@@
畷
粟
繊@@
繊維@@
翻
蛙
裡
项
Appear@@
Gig@@
abs
apps
arly
ashi
asters
callbacks
charset
direc@@
dlsw
him
inf@@
invalid
llum
mor@@
obe@@
ourier
previous
references
rendering
ressed
rommon
she@@
spanning
stments
systems
tac@@
thouse
wm
これ@@
アンビ@@
コマンドプロンプト@@
ロープ@@
侶
冒
动
址
宍@@
實
嵐@@
庸@@
懲
托@@
柑@@
痴@@
緯@@
電気@@
137@@
Scro@@
achy@@
added
aff@@
anth@@
attach@@
behavior
dam@@
dating
dense
dep
diff@@
drag@@
fal@@
gal@@
gar
gml
gor
guard
kernel
lmtools
loader
mu
parms
pb
precision
product@@
prt@@
reserved
sb@@
suffix
tec
tera
there
ulting
value@@
xircom
ك@@
ي
–@@
〟
こんに@@
にあ@@
セキュ@@
チェンジャ
ニハ
ネクスト@@
バイド
ブータ@@
傑
儘
劫
喬
契@@
廿
歌舞@@
浄土@@
璋@@
隈@@
＿
Evalu@@
LETE
abort
aro
associated
broadcast
byname
checked
conn@@
connection@@
cost
ental
fig@@
fly
how
icum
imal
jobs
kmail
lati@@
mil@@
nm@@
notification
onics
pages
phi@@
photon
pine
restart
rip
send@@
sii
streak
subject
sure
terize
udp
utter
valis
vpdn
vul@@
xxxx@@
zi
zom@@
ح@@
„
さと
イントラ@@
インバースキ@@
スタンブロット
ステレ@@
ニトリ@@
ロールバック@@
塾@@
寅@@
帛
簒@@
脂@@
荏@@
蔑@@
鏃
頸@@
餐
鴻
398
FTI@@
aders
ama@@
api@@
avid
buffers
clear@@
click
constraints
desc
dity
dn@@
documents
fus@@
idae
justment
keep
las
materialized
myo@@
pentium@@
pipe
rpc@@
shx
sson
ste
syslog@@
thy
uro@@
vit@@
ª
スピード@@
ダイナミ@@
ディペン@@
ネマ@@
フォロー@@
プロトコ@@
メンテナ@@
匠@@
唯@@
囲気
姜
已@@
廟@@
惨
涜
稜@@
膠
蝉
蝋
該@@
謗
賊@@
農林@@
重ね@@
鉛@@
騰@@
125@@
Cle@@
Ite@@
Soli@@
^&amp;
blo@@
datum
ecd
gent
goal@@
heli@@
internet
levels
lobby
los
lost
menus
mix
msp
nb
noise
onry
pes
proj
projection
raft
rot@@
scanner
sha@@
smo@@
stroke
symbols
tire
toon
tunnel
weights
インスペクター
エンドツー@@
エンベデ@@
オートマ@@
スタイン
ダクターゼ
但@@
拇@@
放射@@
栓@@
漠@@
畝@@
籤
總
胱
膀@@
與
芙@@
葦
藻@@
諫@@
麩
Assign@@
Centr@@
Easy@@
Far@@
Mou@@
NbO
Premi@@
aca
aux
brou@@
cgi
contents
desk
detect
df@@
dv
encrypt
iens
irm
kipedia
master@@
oms
oth
park
people
reduce
sap
signe@@
silent
some
sound
square
tam@@
tasks
tb
they
thing
updates
wc@@
أ@@
たり@@
ろん
オピオ@@
ツジ
デマ@@
ヒスト@@
ロイコ@@
ヵ@@
一条@@
壕
奨
寵
梗
笙
蛾
賓
遵@@
銕@@
項@@
"、@@
(「」)
150@@
Virtual@@
You@@
adenoma
adp
asa
awa@@
bb@@
conduit
constant
defaults
dysplasia
ester
fil
gas
gia
hand@@
himur@@
ike
inum
ital@@
ken@@
laser
mono@@
mps
niture
ont
osm
poll
pping
quad@@
resh
rin@@
sar@@
shake
sioning
spha@@
ssi
ssid
tablet
thermo@@
tii
trail
tree@@
ue@@
upper
vertical
virtual@@
welcome

クリニカル@@
トーシス
ビュート
フロータ@@
佳
单@@
庇
彗@@
悠@@
愕
曼@@
盆@@
藉
衙
覧@@
鋲
----@@
Bay@@
Glass@@
Green@@
Hub@@
JB
JECT
QA@@
ager
angu@@
ardi@@
array@@
author
automatic
background@@
bai@@
bec@@
bes
bias
counter
creator
digi@@
doll
dst
elis
entity
essage@@
fol@@
gan@@
gdb
grp
gy@@
hide@@
icon@@
iration
isolation
istic
itation
ites
keyframe
modified
ophor@@
orida
pick
rain@@
rich
rowset
rtld
scn
specialize
sper@@
spi@@
ssy
stra@@
yam@@
ぅ@@
みに
りっ@@
クン@@
コバル@@
バージョ@@
パム
ンネル
丿
候@@
厘
庇@@
扱@@
気象@@
皺
祈
穢
竪
籬
註@@
闇@@
鞆
餌@@
麺@@
@@
========@@
ARCH
Bla@@
Gam@@
Mate
assembly@@
bolt
cade
calculate
disease
fcheck
ggable
know
lae
mas@@
parse@@
pool@@
privilege
redo
sey
system@@
tone
unix
vrml
zx
­
ه@@
だに
ぷらい@@
ハイフ@@
マド
悼@@
揖@@
杏
檗@@
睨@@
睫@@
确@@
碧
祀@@
筅
絃
虐@@
蛮@@
醪
錆@@
Drawings
IFT
Inf@@
ated@@
browse
daemon
deleted
estions
gingi@@
hang
head@@
idm
lax
lesion
linux
mented
mic@@
mn
neuro@@
onella
origin
partial
pop
power@@
propagation
pulley
satile
spar@@
sy
team
ticity
usselt
vascular
∞@@
≠
▲@@
カゼ@@
テンス
バブル@@
ヒアル@@
击
堯
徐@@
慌
栖@@
桟
狛
緻
肢@@
萩@@
踊
鄭
験@@
975@@
Dem@@
Generic@@
absolute
book@@
burst
cb@@
circle
claim
cone
dants
dian
does
former
hasis
hello@@
illus
ister
itro@@
kde
lep@@
lobe
loopback
many
material@@
materials
may@@
midt
mpt
mutans
pac@@
pap
paper
persistence
pf
pivot
pressure
ptions
related
rement
rigid@@
rn
runk
spawn
swap
tabs
teral
texts
utter@@
vx
′@@
らぎ
トリグリセ@@
ージー@@
ールーン
召
尋@@
岛
掌@@
日の@@
疇
经
聾@@
记@@
运
酌
鬱@@
ｦ
900@@
BQ@@
GLO@@
ales
assignment
attend
bitarray
callback
cart
cpl
cz@@
dal@@
disp
dry
enable@@
faulty
gan
hibernate
king@@
kip@@
kit@@
kl@@
measure
miz@@
modifier
mouse
put@@
shares
ssa
stre@@
stry@@
tk
trap
turer
vault
version@@
wizard
Θ
ل
グレータ
スクロール@@
ストリーム・@@
トラブル@@
パーソ@@
ーターゲット
囃@@
堰@@
弟@@
憐
懺@@
拌
撫@@
機物
毬
沐@@
瞞
確か@@
禊
素数
紡
翠
銚@@
錨
鍵@@
靱
RADI@@
aco
agv
aly@@
bility@@
bio@@
booth
changed
cnt
cot
csc
dbf
dent@@
deploy
dion
elo@@
exists
fractions
glass
gli@@
guid
ii@@
inted
ior
lymphoma
mag@@
metry
mirror
ocer@@
omy@@
oto@@
pap@@
par
period
piece
reco@@
rem
renderer
ru
runs
rx
sent
serv@@
sso
stom@@
talis
uro
vable
vb
worth
■@@
さっ@@
ひし@@
アセン@@
インヒ@@
キサシン
テナ
ドラッグアンド@@
パル
凧
剪@@
呈@@
塑@@
夷@@
怯
悔
托
斬
浮
炙@@
猶
璋
碩
蓉
雛@@
革@@
鴎
280@@
GEM
ascii
avocent
bell
caster
chy
cloth
cubes
cur
curren@@
dinal
dio@@
early
eigrp
equal
erase
gin
kinase
met
products
requirements
roles
rotate@@
sdf
sparks
sqlan@@
standing
take
tek
trich@@
tweak
uter@@
without
xin
ye@@
µ
たっ@@
ひど@@
オーステ@@
ジグ@@
ステータスバー
デキストリン
モンゴ@@
冊@@
劾
厄@@
咫@@
層@@
扁@@
晃
晋@@
耐え@@
苑@@
袱@@
贋@@
逍@@
閏@@
Designer@@
OLA@@
Quanti@@
abo@@
arity
attached
cali@@
counters
ented
focus
fts
fv
gag
gg
ima
ipp
isc@@
mab
minate
ov@@
pel
precedence
pri
pwd
ques
safe
scs
slm
style@@
subscription
supported
token@@
uv
vice
works
ype
á@@
エフェク@@
クトリ
プリング
プロゲ@@
ベツ
仁王
勧
圭
年期
昤
淑
腋
萄
鍍@@
鸞
ADD@@
BCO
accuracy
async
blank
centrino
cher@@
crum@@
dash
ement
fbx@@
filing
five
inium
later
leaving@@
leg@@
lig@@
ln@@
luminance
mec@@
nice
oral
para@@
pcf
pci
pip@@
pk
proto
qt
rella
replicate
reports
rollback
shd
shed
small@@
stem
toggle
tracer
track@@
unknown
vg
writer
ق@@
いて
たと@@
ます@@
アンモニ@@
サスペン@@
スタンダ@@
ディスプレイス@@
デリバ@@
フォア@@
マルチプライ@@
倫@@
圃
对
导
巧@@
揄
揶@@
斤
最大@@
毘
洩@@
災@@
甚
眩@@
顧
Corri@@
REA@@
SMAR@@
STRA@@
Tes@@
burg
cad@@
clic
client@@
decimal
divide
earing
emc@@
fax
fragment
ful
fullname
golf
growth
ils
japonicum
jo
lastic
ldf
lie
maker
minor
minutes
mv@@
omyces
realistic
sai
sample@@
scroll@@
sender
sle@@
store@@
swing
sx
talk
these
thri@@
userid
velocity
vm@@
whe@@
window@@
within
▽
こち
グレゴ@@
コンセン@@
スペクト@@
プリケーション
ロウイルス
ワト@@
丑@@
嘲@@
培
屠
欧@@
皐
礎@@
繕@@
组
蕩
螺@@
迭@@
鋤
750@@
Ken@@
VIE@@
axy
black
books
central
chap
closure
dscp
eco@@
eta
fair
fee
ffle
fields
fter
gener
gmt
hadex
his
ild
ille
indic@@
ines@@
iry
ise@@
lease
major
mun@@
next@@
offset@@
para
passive
plas@@
reboot
rein@@
ressing
shelf
smooth
spheric
spo@@
success
synch
tras
truck
tware
vial
xl
~~~~@@
¤
だん
つい@@
カーボネート
グラディ@@
コーブ
スケジュ@@
ドロン
フーリ@@
リーズ@@
ロールバック・@@
俵@@
共和国
庚@@
慎
棹
澪
目論@@
硯
稠@@
篥
舘
蒐@@
藝
隕@@
页
鳶
BACK
DisplayStyle
Monit@@
Thre@@
achi@@
acs
admin@@
akes
append@@
chem@@
conflict
cpc
dir@@
document@@
duced
dz
eh
essors
fact
flo@@
force@@
gly
helper
illum
kinje
lapsed
metadata
mus@@
offline
oli
pec@@
pit@@
play@@
presentations
ress@@
reven@@
serve
sign@@
sinensis
sional
surgery
tb@@
till
tionName
tize
trange
uk
undo@@
unsigned
uu@@
verti@@
volu@@
yon@@
º
しても
アプロー@@
ウォークス@@
クリル@@
ジッドボディ
スペック・@@
デフォメーション@@
トニン
ネク@@
ビキ@@
ベート@@
リプリゼン@@
允@@
吃@@
启
屍@@
履
弄@@
憤
槐
秩@@
薙
訶@@
请@@
遂@@
鴻@@
acy@@
adde@@
ased
atc
ato
bach
blocks
brun@@
call@@
cannot
chron@@
created
dness
dos
eae
east@@
epider@@
erhans
flange
forming
laun@@
lbs
lov
lun@@
myces
near
ntp
olar
ords
oro
philippines
ported
posed
pov
preset
racket
reachable
shel@@
sup@@
tual
uchi
ui@@
unnumbered
utility
valve
wc
wlan
やむを得@@
エピタキシャル@@
コンジ@@
ストラップ
フラー@@
マスキ@@
几@@
幌@@
栖
盪
第三@@
舜
葱
蒙@@
虜
鍔
AFS
CTR@@
Statis@@
aes
allowed
assert
bedded
bol@@
bundle
cals
capd
classes
clients
cols
component@@
conv
crease
curvature
dc@@
elbow
exr
finite
gap
holder
inii
ja@@
labels
logger
love
lum@@
mel@@
mixed
moved
nan@@
nou@@
operand
pain
pg@@
ready
ross
sed@@
sio@@
slow
src@@
stice
stoma
tem
terra
tification
tified
tissue
tty
tures
uctu@@
uration
ury
visi@@
wmf
xin@@
―@@
そうに@@
スパニング@@
スパム@@
スマップ@@
ヘリコ@@
モルホ@@
リハ@@
価@@
宇多@@
寮@@
小笠@@
并@@
浩@@
瘡
硝@@
股@@
虞
询
雉
鞭@@
馬鹿@@
魯@@
FEAT@@
IENT
Prod@@
Proper@@
Va@@
Wrapper
ander
auditing
camp@@
dbm
dfc
digital
dimensions
dk
during
ears
edi@@
eeprom
ela
eness
ethernet
extreme
france
idp
ipf
iro
logy
mations
mdl
mount@@
office
omp@@
ony@@
own@@
ox
revision
sho@@
sure@@
ularity
ures
vers@@
versions
vus
wald
week
³
ぃり@@
うこう
エキスパ@@
エント@@
エージェ@@
スペキュ@@
パフォーマ@@
为@@
伍
关@@
喫
外線
巌@@
惰
戟
抽
樟@@
欣@@
眞
膠@@
荼@@
萌
規@@
酛
鈎
［@@
Asp@@
Descrip@@
FAL@@
Pep@@
Rot@@
bone@@
business
camera@@
config@@
configured
creation
cx
ends
eno
ette
fasci@@
field@@
finish
format@@
free@@
ges@@
gn
heet
hy
installed
js@@
leu@@
listbox
mars
mui
numeric
positive
queue@@
repair
sam
sap@@
sensitivity
sep@@
simp@@
sioned
spacing
spir@@
stab
stick
substring
tery
tier
tum@@
utes
vm
weld
yu@@

Ⅱ
えで@@
われ@@
ガバナ@@
クテ@@
スレート@@
ディセ@@
フェデ@@
什@@
佳@@
委
孵@@
憾
捨
敢
灼@@
煌
碁@@
胞腫
菖@@
蜜@@
誦
Paralle@@
Sche@@
Spati@@
ache@@
ague
anda
aus@@
autocad
balance
blind@@
chase
ducing
dys@@
etc
evo@@
extend
ficus
flag@@
grant
gv
half
halt
idance
inner@@
instances
keywords
knowledge
logfile
mes@@
model@@
month
ocy@@
organization
orus
pdb
phen@@
pub@@
pus
pvc
rim
sleep
spline@@
sz
tap
translation
tti
uri@@
urus
windows@@
zo
zu@@
∝
ぃん@@
ぺいん@@
ゐ
アーキテク@@
エンクロ@@
キシー
コンピ@@
スクリプション
スタディ@@
ステン
トレジ@@
フラボ@@
プラッガブル・@@
プレミ@@
凰
卒中
員@@
寡
實@@
崋@@
庚
披
暫@@
柴@@
歎@@
珂
笥
絨@@
諺
謗@@
轟
输
PUBL@@
acu@@
ado@@
andtl
authorized
beans
blot
bosity
branch
brdf
brevi@@
control@@
dai
dict
dtd
dul@@
dular
ently
expand
fig
goro@@
grac@@
hd
hem
horizontal
how@@
hybrid
icol@@
into@@
jejun@@
lity
lung
mand@@
message@@
modi@@
neling
number@@
nv@@
olis
pathname
physique
plant@@
ries
sided
stable
sticky
tap@@
templates
tinel
tonia
training
tte
udb
ufs
vx@@
wb
yama
zoom
م
お嬢@@
こんにち@@
オリフィ@@
ソリュー@@
タクソノ@@
パノラ@@
喝@@
屍
岑
棗
毯
決定@@
燭
璃@@
砧
綜
蛉
蜻@@
顛@@
高年
！@@
(,@@
Ale@@
CATR@@
HAC@@
Mirror@@
ULL
abi
achusetts
aker
armor
bart
bean
border@@
bx@@
cardia
cate
chol@@
deas
dig
draft
grading
hot
hu
iti
lw@@
meria
meso
mobile
never
nit@@
oda@@
ouss@@
outs
pathing
pher
plex
proj@@
reas@@
roth
sat@@
syl@@
unique
validate@@
vec
xi
xlt

í@@
≡
アンギ@@
ジラ
ストリ
パソ@@
ヒスチ@@
只@@
启@@
图
憩@@
挟
撮
昉
梯
檜@@
洲@@
猩@@
禎@@
穣
綏@@
繋
膏
讃@@
认@@
赦@@
願寺
饗
ｩ@@
VALID
Workspace@@
another
arch@@
bitmap
blend
blog
bpel
candi@@
cast@@
ccp
cells
cgfx
cru@@
dbu@@
deployment
dh@@
directional
dog
eap
fail
fen@@
fera
fir@@
flav@@
gets
going
hex@@
imag@@
lateral
listen
lor@@
minimum
mori
moving
nig@@
nmo
occlusion
option@@
passthrough
paste@@
pim
pit
ploidy
plt
police
result@@
rsa
scheduled
subst@@
technical
thon
tle
wer@@
zon

Ξ
すで@@
わず@@
アシスタンス
コンストラ@@
コンストラク@@
タイズ
デンシー@@
プロパティセット@@
凱@@
原子@@
忽@@
灌
献
篳@@
舗@@
计@@
貢@@
賤@@
趙
辱@@
逗@@
遁@@
鐵
130@@
Dump
ORDE@@
PRESS
ROP
after@@
anonymous
atures
calculation
cmc
content@@
disp@@
eas
endo
exi@@
fiber
formo@@
got
hetero@@
icmp
ila
ilit@@
jn@@
kno@@
less@@
loss
mable
micro
minator
mir
mnu
mtu
nap
ntfs
numbers
ounded
paint@@
popup@@
projects
rata
reference@@
requ@@
sman
tance
technologies
tn@@
varchar
vlx
vp@@
vs@@
⊥
インクリメン@@
オクル@@
グローバ@@
サノ@@
タング@@
チレン
マレー@@
吝@@
嗇
宙@@
宮内@@
宰府
寵@@
崖@@
徂@@
徠
捲
柘@@
桁@@
況@@
碍
窄@@
笏
莫@@
蛤
蠣
贋
页@@
／@@
ERE
Sav@@
Sett@@
YA
aler@@
ample@@
antigen
asteri@@
atory
backs
bir@@
boo@@
bvh
cate@@
cg
cmp
cyclic
dents
dre
factory
filters
hara
hint
ignored
iner@@
ital
john
kp
lastname
ldr
may
meters
mine
oro@@
osa
ounts
parti@@
persistent
pfs
places
race
rai@@
ramp
rupt
sporium
squeeze
tability
tains
tc@@
thema@@
tiana
token
tp@@
transport
ular@@
vens
vera
vietnam
vmware
vst
vtp
vulgaris
xer

¥@@
Ⅰ
□」
にお@@
テク
デキサ@@
トリエン
ニワ@@
フレット
于
亮@@
内海
匙
吃
唆
尭
性愛
梓
榜
狗
皿@@
盂@@
秒@@
競
綜@@
蟹
襄
Isol@@
Tom@@
aemon
aller
amc
arab@@
aspect
assis@@
atom@@
attri@@
bex
cading
cli@@
compu@@
consistent
dar
dds
dimension@@
doctype
endo@@
film
flora
gamma
graded
graft
hand
hen
hip@@
hoc
icing
idx
increment
ism
lake
minder
nee@@
nippon@@
once
orial
part@@
plu@@
prove
radiance
rotation@@
rum
scriptions
sea
shot
shr@@
submit
targets
team@@
ub
vin@@
who
yz
ج@@
くせい
ぷり
アルブ@@
サツ@@
ゼオ@@
ディスクリプション
ドレナ@@
マスコ@@
媒@@
屁
巫
恕
慰
沿
疾@@
癌剤
蔚@@
趾
隻@@
晴
!!!
DTV
ain
ald
ancing
answer
atu@@
caller
cas@@
crypto@@
cu
delayed
die
fumig@@
gel@@
gii
grd
hat
human
hur@@
instor@@
ject@@
kam@@
kat@@
lambert
lamp
loy
lus
mate@@
np@@
nst
oria
otas
outer
pet
pix@@
planar
pressed
proved
rg@@
rip@@
ris@@
rtp
rus@@
ses@@
shapes
size@@
someone
tape
thumbnail
tls
too
trados
trusted
turn
unable
usion
zine
ā
エクスプレ@@
シーク@@
ディシ@@
ナチュ@@
モディ@@
仇@@
來
俸
勃@@
匡@@
卯@@
嗾
宥@@
岑@@
嵩@@
开
擦
昧@@
榊
瑚
碧@@
竇
臓@@
茜
衿
詛
识@@
黎@@
Topo@@
amide
bank
beta
bip@@
bly
bot
buffer@@
cha
chars
cls
collection
come
comments
diameter
dita
driven
encapsulation
encing
escal@@
essed
fall
figure
following
hosp@@
influenzae
jection
lav@@
locator
losa
loy@@
minal
ming@@
mini@@
mizer
nan
nav
niger
nus
nx
obium
pel@@
quorum
rose
salis
seek
servation
sher
sic@@
sof@@
sphere@@
sun@@
surf
thy@@
trace@@
ubo
ulls
ulo@@
uninstall
veri@@
wrapper
ying
zy
インフラ@@
エンベ@@
クトル
ソード
トリック@@
ドーナ@@
メラ
亦
僻@@
壌
壬@@
宵
徳寺
条件@@
枷
柚@@
楓
槍@@
殷
潟@@
熨@@
狛@@
甦
筏
类@@
聡
誹@@
諦
隠れ@@
騒
ｯ
104@@
MONT@@
SOUR@@
STAMP
ais
application@@
calc
cation@@
checker
coe
corners
corpor@@
deep
domain@@
exclude
ffi@@
ffing
firewall
geometry@@
invoke
iod@@
joegren
kii
konqueror
ku
kw
lad@@
leave
lins
lot@@
menuitem
middle
need
ource
preempt
pure
quote
rams
rs@@
sam@@
sata
speci@@
sphr@@
statements
steri@@
stra
sume
symmetric
tas@@
thel
times
tium
tomy
uz@@
vertices
voip
your@@
カテキ@@
スビー
フォメーション
ロシアニン
万葉@@
份
兌@@
凉@@
呆@@
喧@@
圭@@
户@@
珎
蕪@@
蜷@@
蝿
袿
褥
过
鮭
(_@@
Authentication@@
Candi@@
LEG@@
SLS
TAS
aid
align@@
angle@@
archived
ares
atable
ban
bering
bind@@
chen
cntl
collect
contains
dcom
defaul@@
dielectric
eas@@
element@@
embed
emit@@
endor@@
fast@@
fia
hart
hatch
hdr
hz
include@@
inventory
lide
lightmap
margin@@
nau@@
pag
privileges
pw
quilt
redo@@
req
sched@@
sheets
sit
srf
staging
stereo@@
taining
tea
ularis
ums
under@@
white
wil@@
yn
zombie
¿
いは
アナリティック・@@
スケッ@@
マク
レシピ@@
一体@@
侘@@
偺@@
勉@@
后@@
寶@@
嵌
权
桔@@
樂@@
櫻
滴@@
當@@
站
经@@
航空@@
艱@@
袂
該
请
豎
迭
闕@@
骸@@
鯖
Docu@@
People@@
YK
aa@@
ailing
amu@@
asc
bird
bla@@
blocking
bpp
cale
cau@@
celeron
completed
correction
discovery
distribution
drill
duplication
dv@@
eks
equals
ery@@
estr@@
execute@@
exposure
gam@@
gatekeeper
hal
hcet
heimer
inal
installer
ion@@
japan
jet
lg@@
ny@@
optional
ort@@
person@@
polygon
portal
proxy@@
pz
resident
runtime
safe@@
sal
say
semi@@
service@@
shad@@
shut
special
sten
strial
suppli@@
suppress
syring@@
than@@
three
tian
topo@@
ug
vac@@
wait@@
xeon
スパッ@@
ボラン@@
ミトコンド@@
ユニバー@@
レータ・@@
ーん
丑
个
乳類
什
佃
催
僅@@
匂@@
焔
燻@@
琳@@
航@@
蔓
蝋@@
裾@@
襟@@
设@@
遼@@
釘@@
Ambi@@
DBC
PPG@@
__@@
aba
across
allo@@
before@@
bold@@
cia
clamp
commands
crowd
cystic
disc@@
ece
ements
eri@@
exec@@
fab@@
fat
fault
flex@@
goal
highlights
honen
ire@@
learning
libr@@
lim@@
look
mis@@
nett
normals
olid
oratory
organ
oy@@
radio@@
rate@@
redundancy
ride
sampling
series
sites
spell
state@@
stromal
super@@
thor@@
troph@@
tz@@
ult@@
wal@@
workgroup
xa
しば
ケーター
コンフリ@@
ストロー@@
ゼス
テート
ポートフォ@@
仪
冴@@
凰@@
匡
历
备@@
孟@@
届@@
杵@@
泳
珂@@
秦@@
窯@@
篁
翫
联
胴@@
薇
衾
覺
誕@@
錬@@
鍾@@
頑
駝
鵄@@
黙
199@@
Interpol@@
abc@@
adam@@
aki@@
anion
bal@@
beam
bow@@
coming
confirm
csm
disable@@
dose
dsp
duration
eras
fab
ffer
grating
ground@@
high@@
hin
iaa
imu@@
ince
junction
lam
leton
lives
math
mech
mobile@@
multilink
objecttype
olus
phan@@
pil@@
popup
property@@
psc
quit
reach
record@@
requests
rho@@
sans
sccm
sius
skip
sparc
spot@@
storing
synchron@@
transparent
uca
uniform
uta
volumes
xt
¢
≤
うっ@@
とりあ@@
グメント
フェノメ@@
マルチテキスト@@
モンテカル@@
动@@
努
圀@@
坦
嵩
幌
昆
曳
涯
淹
猾
羂@@
茄@@
蕨
访
賭
賽@@
趨@@
酢@@
鉦
＾
Spread@@
ader
alog
ander@@
anisotropy
atro@@
bad
big
boundary
bum
canvas
changing
charge
chry@@
cisco@@
dem
deri@@
detection
dison
eh@@
emd@@
entric
eth@@
ez
fit@@
fun@@
gain
genic
ien@@
ioctl
itu@@
jk
ju
lc@@
loading
logoff
match@@
mond
nwf
objectclass
osd
packets
pass@@
pat@@
phi
photo
poo@@
poro@@
reflection
ria
right@@
rme
sche@@
section@@
she
shit@@
sophila
stream@@
switching
tai@@
tax@@
theme
therapy
thes
tomcat
tracking
trees
tsu@@
vacuum
vir
wise
ww@@
zen@@

¾
め方
ウンド@@
サード@@
ヒック
モット
ユーティ@@
レンス@@
仰
伐@@
像@@
吻
帐@@
挺
据
斗@@
标
楠@@
每
熙@@
狽
玩
盈
窄
胤@@
膨
薪@@
袁@@
误
貶@@
醜
鯨@@
鵺
240@@
CONTRO@@
Cit@@
Enhan@@
ania
anni@@
antho@@
approach
atsu@@
balancing
barrier
basi@@
bypass
clinical
community
connector
cpe
ctrl
ddi
dist@@
edo@@
eling
epi@@
flat
foot@@
gene
ghorn
gt@@
haem@@
hb@@
html@@
hybridization
ipa
iterations
itory
linetype
lox@@
masks
mbe
mill
mind
mmm
neu@@
note@@
own
parallel
pendic@@
pending
plo@@
pull
python
rapid
readonly
refer@@
replica
scheme
sf@@
strip
supplied
textbox
tha
tips
toc
toma
vlisp
west@@
wish@@
xn
インペ@@
エンハ@@
シグニ@@
バイザ
ポータ
マチ
乎@@
吐き@@
嚆@@
大日本@@
恐
械@@
檎
瑠@@
瓶@@
祗@@
祠@@
藍@@
藏
袢
賣
鮑
鯉@@
190@@
Pseu@@
Shado@@
ache
activated
amar@@
ambi@@
atur@@
av
catch@@
could
currently
defect
demand
dos@@
duplicate
edge@@
edition
employ@@
ergo@@
eve
exchange
ffy
follow
fusion
highlight
homo@@
idea
lea@@
lead
lighting
lower@@
lows
lt@@
men
miter
nested
normal@@
orities
parks
rational
recei@@
rectangle
relev@@
rod
route@@
sag@@
served
shin@@
sight
sso@@
stic
stics
styles
subdiv
tablespace
tg
transla@@
trip@@
vell
vesti@@
wip
wley
xslt
yan@@
ó@@
خ@@
ウインド@@
ジェクト@@
ボルタン@@
レプ@@
下町
准@@
唄@@
帚@@
弗
朧
框
楚
禿@@
紬
菩@@
蓬@@
諏@@
贔@@
跏@@
軋@@
这
遜
170@@
Dre@@
abe
access@@
acks
acro@@
again
aim
arm@@
bg@@
broker
cfd
cine@@
country
cpu@@
cred@@
day@@
defs
dge@@
dop@@
encryption
enters
evi@@
fibro@@
follic@@
foot
guchi
gui
heck
hours
hydro@@
inspect
ios
jdk
lier
liers
life@@
liver
lump@@
marker
merge@@
mpi
nation@@
nut
oka
ously
parser
pem
phan
pools
preserve
problem
return@@
ribbon
rin
seal
soma
td@@
tom
tomography
total@@
ulo
unch
unlock
urve
volatile
wf@@
wi
xdata
xe
è@@
−@@
クトン
ゲートキー@@
ネゴ@@
プロフェッ@@
ミオン
丙
于@@
亚
佑
冨
匹@@
卷@@
厄
姑
屓
搗@@
枡@@
榛@@
码
穎@@
脛
臀@@
蓬
襦@@
这@@
鯰
鹸@@
Agre@@
Fami@@
ULL@@
agne@@
agnetic
already
andy
angular
atyp@@
cation
channel@@
character@@
cluster@@
codes
degrees
delta
different
drail
dsl
eba
ellular
emf
erp
esday
flip
gates
gy
hyn@@
ido@@
imp
inti@@
je
joint@@
kdc
keyable
left@@
linked
mari@@
mil
modeling
modulation
moldflow
nam
naming
neti@@
nf
olyticus
onclick
paths
plication
price
proto@@
reaction
reader
reorder
sangu@@
schematic
spacer
tational
tet
trait
trun@@
tty@@
uma
ump@@
vic
volume@@
wb@@
wg
wire@@
wr
yellow
yx
zuki
←@@
ありが@@
そろ
イント
ゾロン
丞@@
人民@@
刊@@
划
叟
壌@@
处
嶼
巨
巷
扶
拠地
明治@@
曰
梶
樺
歎
毫
狸
琴@@
用車
痩
碗
禿
系@@
糾
繭@@
翔
薔@@
计
试
輿@@
鳶@@
鶯
﨧
Develop@@
LDER
Previ@@
adaptive
aec@@
anno@@
aphy@@
asci@@
bake
bas
bat@@
bble
blob
boy@@
builder
buttons
cfdesign
city
cola
contrast
crossed
dele@@
diagnostics
dump@@
edo
entre@@
ew
exercise
feren@@
ful@@
gm@@
hour
idi@@
imap
ingi@@
inline
inverse
kar@@
kle@@
leg
listening
ndmp
opac@@
opening
opy@@
orien@@
orient
ould
overwrite
palli@@
planning
pouch
presen@@
pression
pyo@@
quantity
quoted
radial
rail@@
rents
request@@
roll@@
rot
rv
samp@@
saved
scal
scap@@
schemas
seri@@
seu@@
shade
shaders
sif
slider
ssi@@
strong
thie@@
umbo
vr@@
what@@
wing@@
xc
xm
xz
zed
zel

[...]
