<pad>
<eos>
<unk>
the
.
,
of
to
and
a
in
is
-
for
you
)
(
that
on
'
with
this
or
:
by
are
as
was
;
be
it
from
can
an
&amp;
"
not
if
s
‐
i
at
when
click
which
select
use
were
have
your
?
file
all
data
using
we
one
system
set
1
has
will
new
no
name
type
information
object
time
view
only
create
he
following
used
also
then
value
t
2
box
more
_
other
been
but
these
method
gt
see
after
they
do
there
number
about
any
%
each
list
user
between
dialog
such
want
example
two
selected
than
up
server
into
change
so
right
model
out
its
default
group
control
what
line
add
who
properties
!
order
command
point
objects
files
first
how
may
page
results
must
table
field
part
application
database
3
under
current
text
display
same
their
based
enter
surface
values
high
where
them
process
paper
window
specified
options
lt
option
his
project
settings
ket
bra
specify
property
open
me
article
menu
access
some
available
level
analysis
tab
m
document
different
through
case
section
both
color
my
during
before
edit
make
because
image
had
drawing
those
item
changes
re
report
windows
cases
area
shall
work
like
should
size
paragraph
well
design
source
effect
network
down
found
created
button
does
function
4
displays
cannot
layer
material
made
check
over
service
get
now
choose
period
management
mode
tool
x
=
three
show
configuration
result
within
left
oracle
need
however
start
error
save
state
year
help
end
here
operation
content
form
cell
without
structure
parameters
next
location
while
software
date
single
items
types
apply
style
displayed
node
business
computer
5
component
temperature
reference
power
column
could
don
know
position
active
patients
performance
multiple
just
another
selection
most
panel
manager
rate
she
our
go
support
specific
key
feature
move
users
web
space
points
bar
run
d
0
local
back
him
setting
required
attribute
product
version
element
contains
range
defined
c
etc
said
specifies
parameter
folder
existing
would
family
creating
re@@
features
cells
site
applied
delete
automatically
act
format
test
many
path
search
sets
+
—
flow
editor
components
amp
interface
described
shape
old
including
off
standard
10
water
way
study
connection
dimension
code
low
shown
elements
map
shows
non
device
3d
lines
environment
status
amount
target
task
good
called
b
services
systems
us
her
years
treatment
place
day
people
resource
side
center
update
effects
whether
developed
un@@
copy
large
being
e
define
light
message
did
find
japan
load
region
id
second
either
attributes
v
present
appears
remove
storage
link
template
returns
member
provides
various
observed
modify
due
person
associated
geometry
showed
profile
development
groups
related
action
activity
custom
general
class
o
program
output
addition
tools
even
n
top
curve
security
long
obtained
directory
take
applications
necessary
very
step
6
uses
parts
total
small
import
include
methods
since
last
microsoft
note
length
account
important
client
frame
direction
p
materials
added
scale
body
technology
plane
main
address
fields
plan
names
problem
®
possible
performed
intel
describes
members
energy
pressure
conditions
lower
company
phase
higher
library
around
scene
log
examined
ll
installation
provisions
filter
volume
o@@
maximum
icon
given
input
block
office
character
commands
increase
above
base
axis
assembly
less
animation
investigated
collection
description
running
wall
y
characteristics
distribution
procedure
functions
rule
domain
below
already
event
ve
complete
string
8
export
read
man
details
please
controls
l
come
japanese
7
able
mesh
solution
variable
sql
carried
drop
t@@
edge
several
additional
disk
ok
definition
port
might
working
sheet
along
disease
*
views
autodesk
rules
installed
in@@
expression
let
press
normal
drag
allows
basic
host
problems
later
original
enable
angle
appear
simulation
p@@
got
listed
provided
s@@
close
index
query
k@@
condition
insert
creates
documents
instance
quality
life
return
again
surfaces
means
configure
distance
i@@
home
policy
v@@
browser
double
turn
increased
job
face
full
cost
measured
perform
products
sure
look
city
autocad
row
administrator
effective
days
provide
previous
proposed
tree
among
until
layers
global
n@@
d@@
once
assigned
every
.@@
reports
preceding
age
still
r
m@@
guide
against
production
compared
install
remote
unit
switch
release
request
media
processing
motion
sample
c@@
four
g@@
password
behavior
changed
dimensions
primary
tasks
toolbar
transfer
heat
dynamic
blood
script
world
think
label
administration
backup
contact
much
per
speed
memory
render
layout
e@@
studied
levels
r@@
determine
true
according
role
lists
supported
external
steps
times
appropriate
free
wizard
20
de@@
gas
channel
frequency
common
clear
k
pattern
images
research
ray
growth
advanced
considered
represents
useful
always
force
containing
individual
saved
why
resources
ip
calculation
station
patient
head
record
mass
going
b@@
columns
entry
connect
cancer
h@@
selecting
grid
includes
shared
emc
enabled
x@@
generated
air
failed
organization
became
l@@
adding
difference
indicates
contain
tumor
9
pane
print
calculated
acid
call
#
screen
setup
similar
editing
building
series
enterprise
generation
stage
nodes
contents
array
mechanism
session
cluster
cisco
factor
public
license
characters
explained
particle
film
mouse
emperor
own
clicking
–
12
width
mail
machine
construction
stress
give
module
human
a@@
cause
having
h
devices
keep
language
special
history
therefore
say
tables
too
temple
z
sub@@
measurement
f
stored
operations
units
introduced
enables
100
technique
offset
curves
simple
although
u
internal
g
models
density
texture
hand
exchange
messages
purpose
to@@
valid
magnetic
assign
best
currently
positive
real
styles
future
equipment
response
y@@
operating
pursuant
review
examination
opens
f@@
included
drive
reaction
known
kyoto
planning
allow
parent
changing
ji
connected
manage
directly
bottom
camera
detail
statement
yes
term
match
concentration
evaluation
located
internet
stop
di@@
solid
30
prefecture
mapping
initial
reported
done
ratio
category
forth
caused
ii
pipe
actual
height
named
physical
weight
edges
u@@
master
mean
visual
context
numbers
become
imperial
cross
areas
particles
instead
relationship
title
sequence
started
inside
xml
constraint
allah
cache
determined
15
boundary
red
significantly
diagnosis
better
multi
background
corresponding
al
al@@
early
track
dimensional
3@@
actions
automatic
improvement
en@@
recovery
video
follows
room
follow
son
together
max
presented
processes
child
making
j@@
court
agent
2@@
electron
workspace
limit
god
ability
word
keys
discussed
symbol
maya
therapy
strength
measures
thermal
experimental
try
little
requirements
resolution
matters
entire
customer
records
virtual
transaction
segment
metal
never
links
clan
sub
bit
ensure
beam
months
store
significant
schedule
five
upper
formation
government
pages
short
outline
financial
school
except
upon
radius
criteria
particular
sketch
relative
measure
third
w@@
reduction
book
yeah
fixed
an@@
se@@
clinical
modified
revealed
lets
figure
wire
though
improved
induced
established
share
optional
depending
activities
relation
vertical
further
longer
co@@
electric
root
examples
outside
put
pre@@
zone
children
joint
oh
cut
plasma
something
optical
sent
medical
configured
whose
rotation
servers
province
projects
sections
bone
tag
thickness
creation
processor
supply
mm
transition
constraints
written
networker
controller
average
operator
errors
unique
11
generate
fill
failure
am
ar@@
lord
gonna
paint
indicate
rendering
factors
utility
desktop
minimum
industry
tell
hardware
direct
least
wave
linear
graphics
send
away
console
gene
z@@
self
on@@
driver
rows
decreased
arrow
viewport
50
whole
diameter
laser
preview
essbase
entity
refer
core
needed
extension
respectively
visible
certain
protein
invalid
prescribed
films
species
complex
constant
16
terms
structures
correct
cursor
board
depth
states
vault
female
online
greater
recognized
co
continue
ate
front
detected
summary
verify
indicated
chart
℃
hold
starting
great
central
produced
land
removed
orientation
across
exist
4@@
conducted
middle
minister
drawings
faces
attached
often
resistance
works
treated
post
ion
basis
placed
makes
needs
2d
package
negative
taken
adjust
becomes
expand
especially
coordinate
near
quantity
care
authentication
referred
events
okay
versions
survey
connections
steel
zero
conversion
didn
separate
linked
sales
traffic
destination
shift
play
manually
chemical
entered
recent
loss
colors
desired
protection
seen
received
really
horizontal
evaluated
6@@
programs
clip
occurred
solutions
notice
liquid
mi@@
5@@
supports
si@@
requires
mo@@
references
formula
moving
defines
foreign
cabinet
hard
decrease
thus
combination
exists
fine
updates
occurs
increasing
workflow
death
reporting
major
theory
few
returned
deleted
convert
1@@
engine
demand
house
progress
chain
forms
_@@
updated
identify
cycle
replication
ground
formed
signal
skin
no@@
certificate
parallel
folders
24
so@@
built
liver
fluid
as@@
router
replace
health
ko@@
course
concerning
samples
templates
hours
limited
drug
obtain
navigation
write
comparison
structural
conventional
te@@
am@@
mechanical
floor
via
velocity
tests
analyzed
thin
plug
13
net
ro@@
prepared
prompt
half
cable
potential
transactions
kind
14
lot
efficiency
card
doing
affected
reduced
vector
hospital
alignment
shapes
graph
auto
completed
dependent
explorer
ted
appearance
final
national
pass
capacity
led
25
manufacturing
exercise
non@@
do@@
confirmed
designed
issue
sun
viewing
others
$
degree
secondary
sites
palette
reduce
execution
derived
digital
came
ti@@
catalog
algorithm
route
variables
hierarchy
false
regions
party
ca
findings
lo@@
hole
protocol
circuit
communication
accounts
successfully
topic
7@@
monitor
thought
sources
plot
picture
8@@
influence
mainly
saving
previously
procedures
expected
hide
corner
w
permissions
things
ho@@
improve
leave
applies
static
le@@
determines
receive
vertex
closed
wide
adds
died
font
larger
ms
handle
almost
critical
schema
injection
opening
easy
pick
allowed
er
knowledge
rights
go@@
father
require
extended
snap
equal
plant
noise
upgrade
carbon
micro@@
natural
printer
si
explains
sound
restore
tax
build
download
registration
affect
voltage
modeling
batch
permission
maintenance
white
equivalent
buttons
capture
safety
estimated
doesn
gets
molecular
muscle
controlled
studies
li@@
approach
imported
chapter
experiment
inter@@
labels
boxes
thing
turned
es
blocks
notification
assignment
entries
quick
issues
understand
ed
ordinance
causes
er@@
shader
empty
detailed
10@@
translation
trust
ts
repository
configuring
agreement
subject
electrical
18
reason
rather
easily
ch@@
numerical
locations
took
customers
9@@
band
crystal
correlation
frames
fact
40
split
ways
argument
suggest
finish
training
environmental
takes
matrix
instructions
ctrl
fast
lock
overview
provider
minutes
prior
loaded
zoom
url
databases
six
shortcut
customize
ers
combined
calendar
draw
vertices
queue
recommended
pro@@
personal
late
entities
medium
0.@@
recently
ab@@
ko
maps
count
usage
persons
32
enough
me@@
loading
actually
mr
today
currency
at@@
technical
rank
taking
specifying
suggested
plate
sort
nothing
bi@@
resulting
risk
accuracy
ac@@
occur
equation
administrative
transmission
defining
origin
elevation
documentation
computers
roles
strong
charge
yet
hidden
annotation
java
checked
unable
excel
moved
detection
profiles
increases
jo
war
intensity
deployment
fiber
onto
presents
cad
green
month
association
registered
warning
experiments
prevent
otherwise
sp@@
reset
food
male
ct
law
serum
immediately
kinds
standards
17
mobile
absorption
facilities
rotate
applying
missing
live
price
con@@
beginning
notes
provision
men
mark
functionality
html
woman
ministry
balance
hot
lead
team
far
lost
car
diagnosed
st@@
preferences
anything
pain
auto@@
gate
meet
edo
strain
terminal
designated
instances
macro
sign
segments
mutandis
mutatis
sa@@
hair
investigation
pre
fire
contract
surgery
payment
crmk
patterns
smaller
ad@@
classes
activate
meeting
rollout
movement
held
filters
night
monitoring
disabled
earth
60
specification
ag@@
market
sh@@
viewer
money
asset
express
os
percentage
opened
iii
usually
anti
or@@
ap@@
smooth
difficult
routing
ports
situation
modifier
believe
oxygen
differences
inspection
navigate
black
bo@@
transport
disable
@
percent
blue
composition
soil
de
fit
su@@
cooling
imk
container
mother
header
browse
tolerance
quickly
representation
q@@
ri@@
identified
requests
continuous
fully
corporation
learn
followed
wait
contained
rates
loop
ing
calculate
flat
highly
showing
ribbon
damage
respect
hi@@
manual
itself
presence
none
distributed
hey
consider
regarding
break
orders
}
ic@@
mold
sea
paste
ring
assets
interaction
country
culture
electronic
getting
tube
dna
private
ten
glass
ated
16@@
ma@@
〜
shrine
la@@
ine
platform
partial
ship
arc
mental
approval
radiation
it@@
graphic
es@@
branch
formats
rice
carcinoma
transform
unless
be@@
merge
infrastructure
ting
polygon
consists
gives
21
binding
evaluate
utilization
runs
insurance
infection
words
♦♦♦
over@@
went
door
places
formatting
measurements
ni@@
begin
moves
audio
inventor
walls
interactive
independent
2000
techniques
α
scheme
cd
multi@@
applicable
degrees
ating
libraries
tissue
coordinates
definitions
matter
{
ones
newly
override
per@@
functional
rename
grade
prince
implementation
scripts
nm
duration
observation
oil
slide
duct
logical
cm
earlier
passed
integrated
membrane
weeks
sho@@
execute
submit
big
categories
substrate
measuring
stock
deformation
ma
en
postoperative
64
statements
paths
serial
heart
migration
stability
ad
decision
symbols
publish
soft
managing
concrete
involved
cancel
dis@@
exit
eyes
uv
introduction
architecture
19
22
networks
q
×
ic
unknown
finally
installing
compound
alias
pertaining
past
scope
castle
po@@
ation
ds
keyboard
metadata
revision
flag
β
lighting
fuel
published
portion
impact
clients
latest
relevant
boot
diagram
pc
possibility
spring
threshold
metric
shadow
mask
api
um
pool
positions
audit
printing
syntax
lung
loads
integration
brain
se
ten@@
interest
lights
emission
hydrogen
road
testing
join
everything
poly@@
secure
designer
completely
typically
ins
90
pdf
connector
gave
international
forward
null
tangent
ide
purchase
looking
acute
bad
women
former
transformation
diseases
accept
week
describe
tic
matching
converted
produce
attach
trade
alone
synchronization
bridge
ever
phone
th@@
builder
outlook
spline
enhanced
classification
duplicate
shell
talk
entering
represent
typical
refresh
managed
compare
accounting
addresses
characteristic
calculations
copied
he@@
inserted
wind
understanding
engineering
locate
ki
tri@@
companies
won
repeat
subjects
nuclear
importing
recorded
demonstrated
scheduled
bank
investigate
15@@
authors
peak
remember
marked
smart
cho
learning
border
maintain
interfaces
modifying
confirm
square
depends
prodname
starts
seconds
tags
constructed
concept
ing@@
stable
avoid
modes
spaces
channels
1.@@
rest
ask
proxy
told
generally
antibody
composed
composite
experience
blank
buffer
ne@@
someone
variation
s.@@
cutting
temporary
adapter
0@@
chief
3ds
email
dwf
virus
costs
wish
examine
priority
anywhere
brother
remain
owner
wrong
deleting
ly
budget
dwg
tutorial
contrast
collected
17@@
isolated
april
university
circle
12@@
shi@@
regard
mixed
jobs
im@@
alloy
love
department
°
bring
highest
indicating
flash
coming
ready
ge@@
furthermore
interval
login
heating
delay
worksheet
sensor
statistics
trying
23
referenced
switches
idea
activated
placement
discharge
analyses
80
correctly
ur@@
catalyst
locked
yo@@
scan
families
info
anti@@
divided
tokyo
sheets
activation
dead
kan@@
""
copies
oxide
forces
suitable
adopted
is@@
chinese
mirror
invoice
prevention
sensitive
story
temperatures
plants
compression
coefficient
organic
fujiwara
introduces
motor
displaying
removing
practical
blend
regular
analyze
preparation
planes
exported
solaris
volumes
exception
packet
articles
codes
isn
education
plus
comes
march
appeared
young
draft
align
slider
ak@@
remains
slope
vibration
seems
stay
technologies
sometimes
get@@
symptoms
ago
highlight
river
fall
performing
tabs
2nd
compounds
ta@@
le
identity
facility
ya
efficient
selects
ios
ex@@
iron
brush
patch
pack
propose
issued
topics
environments
jo@@
expansion
focus
stores
bu@@
san@@
yo
14@@
ca@@
safe
operators
th
irradiation
integer
looks
marker
sensitivity
displacement
sorry
fish
syndrome
policies
mac
leader
te
simply
dependence
expressions
supplier
pe@@
properly
embedded
gap
revit
op@@
cold
severe
ba@@
choice
wife
remaining
january
inventory
registry
lesion
st
excellent
drugs
delivery
eye
mentioned
reverse
sphere
baseline
menus
archive
relationships
db
killed
bus
robot
sc@@
rats
gastric
pay
dates
intersection
waste
ions
inner
launch
outlined
27
))
ul@@
rendered
tip
division
daily
presentation
min
45
regardless
mind
car@@
maybe
finished
chronic
trace
13@@
extract
removes
collision
thread
develop
man@@
dose
assemblies
ter@@
ki@@
attempt
viewpoint
establish
amounts
register
limits
attention
topology
ward
ha@@
variety
checking
wireless
illustration
nor
nerve
fu@@
xr
artery
yield
daughter
gen@@
fix
handling
living
privileges
meaning
successful
partition
periods
ings
abdominal
rapid
roof
rigid
i.e
ka
checks
fe
tried
overall
deep
saw
appointed
tape
kill
ar
exactly
26
grain
north
configurations
behind
soon
photo@@
capabilities
min@@
recognition
plastic
spin
separated
connecting
ph
ice
question
ps
switching
ec@@
2003
cu@@
capital
defaults
scenario
circular
administrators
equations
eight
exporting
warehouse
targets
retrieve
seven
civil
town
exposure
replaced
dynamics
pointer
availability
visibility
diagnostic
28
2007
trend
army
round
enzyme
clarified
extraction
east
diffusion
shading
china
gradient
ter
removal
logic
sufficient
pin
social
highlighted
clips
bend
mar@@
da
expressed
na@@
comments
bodies
plans
ke@@
ph@@
letter
insertion
mon@@
random
vi@@
200
organizations
king
frequently
recording
70
excluding
fracture
spectra
lattice
author
gi@@
promotion
polymer
joints
achieved
ed@@
sharepoint
propagation
sum
el@@
community
modules
sharing
nitrogen
numeric
computed
projection
snapshot
executed
radio
practice
bed
calls
da@@
authority
appliance
principal
weld
chosen
trial
july
die
instruments
straight
simultaneously
consideration
alert
pulmonary
else
countries
les
precision
bound
voice
μm
weights
brought
stand
stack
lesions
undo
shin@@
packets
leading
protect
prod84
ses
na
cavity
31
restart
boundaries
et
toward
ol@@
pulse
1.0
ids
fe@@
repair
spread
throughout
tested
ends
ka@@
cloud
silicon
ous
cylinder
35
sen@@
writing
separation
preset
agency
books
employee
tracking
offline
navigator
validation
classified
hereinafter
hour
answer
asked
game
troubleshooting
icons
tunnel
approximately
amino
±
driven
existence
cu
december
sizes
scaling
feel
datum
transparent
june
accurate
j
cr@@
queries
identification
generates
printed
sides
october
hosts
relations
birth
20@@
fatigue
spacing
receiving
population
outer
concentrations
stroke
whom
heavy
corresponds
finite
solve
proper
uniform
native
cube
shadows
bom
san
represented
wanted
18@@
ku@@
moment
reading
pop
ra@@
electrode
powder
compatible
offer
cover
drives
himself
strongly
affects
logging
boolean
edited
ik
agents
generic
absolute
solver
strategy
set@@
drivers
ok@@
traditional
credit
moreover
hear
ant
english
super@@
mp@@
choosing
spatial
effectiveness
cl@@
consumption
us@@
outlines
subsequent
probably
imaging
train
arguments
renal
ws
official
studio
bios
clean
alt
questions
military
modification
deposition
sp
shear
updating
optimization
carry
battle
extend
guy
processed
my@@
micro
art
shot
pair
supplied
logs
occurrence
copper
em@@
fiscal
sa
adjacent
il
reducing
holding
receptor
axes
nurbs
thank
born
hell
machines
dc
consistent
acts
osaka
providing
publication
framework
sense
served
nonlinear
prompted
developing
scanning
debug
identical
analytical
associate
forecast
attachment
reached
spot
predefined
mt
consolidation
students
mount
district
kept
waves
abcd
iso
protected
bill
west
older
metastasis
mapped
transparency
ase
specimens
faster
poor
indeed
bar@@
considering
dual
pixels
xp
ga
enabling
industrial
copying
happened
regional
polygons
controlling
slightly
cs
finding
shares
september
raw
securities
surgical
employees
perspective
stream
clarify
pivot
synthesis
planned
achieve
biped
page@@
whereas
linux
recurrence
spectrum
affairs
feed
street
adobe
ni
strings
certificates
august
welding
ling
optionally
transferred
oxidation
sed
walk
00
hyper@@
evidence
advantage
iv
kin@@
dashboard
reasons
fails
ons
easier
completion
identifier
yourself
29
res
south
shogun
quite
reactor
clearly
pa@@
ke
ator
mu@@
music
pictures
ui
skeleton
tin
ga@@
sdl
descriptions
iso@@
filled
matches
prod140
reliability
wood
generator
establishment
ren@@
hatch
peripheral
replacement
relatively
pull
alpha
™
assumed
mechanisms
epm
gain
incident
leaves
den@@
par@@
drawn
partner
likely
authorization
tion
director
marks
requested
geometric
probe
genetic
ls
implemented
generating
binary
naming
principle
bakufu
aggregate
workbook
valve
deletes
han@@
rat
purposes
assignments
estimate
detect
optimal
scattering
ta
mb
har@@
society
oc@@
ge
reflection
ball
drill
edition
watch
encryption
concerned
girl
optimum
sect
ori
gu@@
wheel
refers
professional
themselves
rapidly
rich
bearing
holes
minamoto
grown
als
dragging
turns
um@@
journal
determination
specifications
adjustment
identifies
ac
survival
medicine
reach
oral
essential
theoretical
tracks
33
buddhist
hands
ob@@
ite
factory
des
estimation
publishing
extracted
hall
million
artificial
fault
hyperion
slow
atomic
latter
signature
ordered
rise
tea
says
db@@
movie
ste@@
boy
directions
tu@@
gun
submitted
clusters
1st
representative
compatibility
fail
player
yu@@
manner
pixel
whenever
dry
indicator
uh
alternate
ai
shaped
nature
february
governor
keyword
men@@
era
investment
lymph
hepatic
railway
streams
tor@@
effectively
welfare
constants
tsu@@
mice
machining
suppressed
fundamental
cerebral
began
maintained
supporting
promoted
representing
fi@@
met
recover
allocation
approved
the@@
sessions
solar
truth
il@@
exact
goes
formulas
com
consolidated
unix
ir@@
meter
01
november
cast
el
raid
economy
lens
%%
ignored
cal@@
residual
responsible
ce@@
ans
scroll
morning
ters
extra
elastic
western
contour
ha
ata
2008
canvas
fitting
alternative
piece
planar
raster
saves
ru@@
heard
foot
aspect
ver@@
ap
arm
deal
sync
electro@@
heading
pi@@
bytes
gel
helps
crack
tr@@
2.@@
crystals
dhcp
malignant
island
surrounding
intermediate
poly
decreases
startup
floating
ldap
continued
48
textures
cpu
sis
extent
guys
performs
ju@@
flexible
cr
kyo
paid
released
conflict
der
dns
ci@@
graphical
saying
gradually
constrained
experimentally
ations
resolve
benefits
goal
br@@
cho@@
diffraction
laboratory
novel
earthquake
titled
widely
roll
tumors
ve@@
particularly
passes
historical
modem
aged
decided
prepare
importance
minute
capable
fraction
labor
bi
interference
molecules
capability
curvature
feedback
flux
incorporated
palace
preference
fourth
reflect
300
junior
fusion
selections
tes
offers
dark
mg
shi
den
listen
reviewed
distributions
ti
ates
kamakura
carrier
pure
signals
toggle
lan
assessment
anyone
explain
om@@
gateway
spreadsheet
molding
aluminum
covered
du@@
consisting
foundation
shortcuts
kan
calling
prefix
cards
abnormal
officer
tive
inserts
resection
bitmap
differential
deploy
piping
2.0
reactions
rectangular
meters
out@@
ce
forming
mri
bulk
transient
preferred
intended
cy@@
deemed
accessing
claim
rare
friend
concluded
bacteria
news
id@@
forest
credentials
markers
trans@@
ia
ally
enforcement
granted
36
comment
lookup
science
filtering
up@@
packages
yellow
chest
disks
backups
ledger
handles
wires
accessed
34
paragraphs
genes
runtime
quantum
underlying
rectangle
legal
trees
ken@@
certification
responses
sir
discuss
century
calculates
releases
animate
processors
adaptive
clone
painting
zones
disorder
yl
yama
ent
corrosion
ks
mi
complicated
alloys
respective
500
dr
prompts
electromagnetic
editable
vehicle
assigning
prognosis
commodity
-@@
commercial
visit
compliance
talking
ns
platforms
turning
tokugawa
antigen
bending
scheduling
signs
sends
kai
cor@@
powerful
flows
manufacturer
atoms
languages
timeline
ality
acceleration
operated
normally
bio@@
beyond
objective
trim
γ
ages
comparing
prediction
originally
portal
speech
tions
driving
serious
stone
accident
dai@@
correction
resin
biopsy
resonance
proteins
hearing
sending
fillet
phenomena
playback
whatever
realized
construct
everyone
fonts
ra
coating
viewports
leaf
sho
dial
ment
oriented
sequences
perpendicular
attack
income
giving
wa@@
decide
hi
ss
bond
**
lu@@
buildings
ranges
lateral
situations
assistant
diffuse
searching
emergency
ncloth
succeeded
discussion
kami
clause
domestic
fs
raised
myo@@
clariion
col@@
incorporation
priest
phenomenon
guidelines
co2
pa
for@@
panels
ancient
workers
specimen
cd@@
grip
angles
meiji
suggests
filename
pr@@
commonly
pump
shaders
u.s
determining
mal@@
domains
pressing
upload
confirmation
implement
depend
police
concepts
exposed
microscopy
falls
lived
merger
nara
sleep
radial
annotations
advance
trends
converting
thick
greatly
stages
shock
vs
expanded
materialized
mis@@
ba
sen
mixing
pose
heian
controllers
aging
phases
theme
northern
strains
tv
rotating
amplitude
induction
degradation
neither
tan@@
0.5
defect
superior
ip@@
injury
shaft
underwent
characterized
extremely
fucking
schedules
renderer
produces
website
disaster
mid
belong
accordance
surely
gravity
wasn
score
‑
wavelength
transplantation
dependency
communications
trigger
iges
75
dictionary
curtain
mas@@
twice
combustion
discovery
mixture
waiting
cardiac
fibers
friction
incidence
pt
receipt
retention
welcome
colon
au@@
improving
allowing
alternatively
bs
aim
ded
programming
ep@@
corridor
ji@@
.1
coupling
ig@@
correlated
pen
pe
knows
fur
sodium
bounding
ho
can@@
minor
tray
sky
38
hit
positioning
directories
hypo@@
belongs
ler
adult
nc
nice
connectivity
ir
interior
ye
semiconductor
az@@
30@@
searches
guidance
checkbox
lesson
selective
seemed
goods
simulations
stations
wi@@
accepted
25@@
knew
we@@
fifth
customized
under@@
resulted
finds
requirement
biological
str@@
utilizing
50@@
tendency
cl
largest
stopped
2002
sampling
0.0
weak
ae
healthy
worked
logged
vary
nested
counter
validate
chemotherapy
shut
vessel
broken
regulation
flight
utilized
aligned
transportation
arrays
believed
specifically
42
af@@
ambient
restricted
vmware
.2
lowest
00@@
super
revenue
deposited
slab
sake
37
symmetry
contribute
success
closely
ol
parents
trusted
pieces
decimal
vapor
resistant
admin
happen
os@@
polyline
mo
fo@@
symptom
accompanied
southern
playing
towards
popular
bones
animated
tak@@
enhancement
rolling
happens
ole
visio
gb
photo
spectroscopy
chipset
back@@
prime
plays
cooperation
overrides
schematic
la
inserting
accessible
clock
substances
friends
dvd
bind
onset
dynamically
ics
recordset
dielectric
margin
calcium
3.@@
realize
toolbars
letters
decomposition
restrictions
migrate
synchronize
periodic
acids
employed
file@@
legend
koku
screw
exclude
fan
sap
replica
influenced
complications
gold
bandwidth
leg
respiratory
noted
admitted
mor@@
calculating
juridical
joined
angular
ignore
standing
ari@@
compensation
jet
bonds
illumination
operational
listing
neuro@@
oracle@@
contacts
macros
gone
xy
lie
bars
hope
tc
43
meshes
cat@@
cre@@
1,@@
behaviors
opposite
validity
clipboard
edits
slot
failover
utilities
drafting
visualization
span
united
vlan
workbench
ordinary
attempts
hr
handler
violation
deviation
tion@@
vista
yen
cash
fat
baby
ai@@
anterior
ink
placing
vpn
summer
freedom
amorphous
growing
runner
firewall
differentiation
lose
routes
filling
supposed
marketing
invasion
resolved
pending
assistance
simulate
animals
41
aqueous
rec@@
sts
coefficients
em
grant
tension
ethernet
simplified
stimulation
leaving
beams
selector
president
ness
residence
dad
52
proceed
repeated
committee
markup
keeping
played
precise
notifications
prefectural
feet
jinja
contribution
regulations
converts
simulated
synthesized
qu@@
additionally
39
samurai
separately
tom
ser@@
statistical
rig
sm@@
lin@@
proven
verification
pu@@
substitution
cameras
gr@@
doctor
resize
wants
approximation
initially
thanks
vascular
remained
elderly
defects
res@@
suspected
pen@@
satellite
nucleus
guard
namespace
relaxation
ators
reduces
tips
55
encoding
viewed
ku
regarded
atm
closing
coronary
hybrid
cleaning
cloth
endpoint
begins
nine
salt
cultural
v5
recovered
couldn
shu
catia
ou@@
ding
linking
pancreatic
attempted
circuits
axial
hon@@
vacuum
add@@
bl@@
pd
notify
suppress
extensions
fc
histological
conductivity
modern
preliminary
verified
vo@@
anchor
opinion
fear
stated
ami
wear
vendor
correspond
ada
40@@
dsview
thereof
400
ari
pl@@
taira
magnitude
ben@@
et@@
.the
senior
discrete
substance
carrying
village
customization
administered
narrow
wa
initialization
experienced
apparatus
opacity
younger
conduct
tre@@
organized
atmosphere
hydro@@
harness
mat@@
tissues
65
collapse
speak
advisor
corporate
lun
ss@@
compact
e.g
neural
unlike
producing
keyframes
diabetes
battery
ichi
serve
collect
t.@@
combine
mon
yoshi@@
analyzing
infrared
xref
recognize
fl@@
vision
ipsec
modifications
mounted
neck
localized
variations
animal
sized
keyframe
lives
2001
reconstruction
ton
excitation
view@@
100@@
fabricated
significance
reflected
remarkable
annual
1000
filed
href
decreasing
shu@@
av@@
fuck
proportion
proposes
diet
tile
finance
flip
prod137
funds
neutron
celerra
tensile
ly@@
observations
acquisition
delivered
nearly
timing
aware
chip
pretty
gray
laws
pp@@
routers
subassembly
computation
institution
economic
cylindrical
glucose
mountain
unavailable
causing
ura
44
microscope
receives
retrieval
1999
annealing
sister
urban
promote
sy@@
2009
ch
bile
disturbance
committed
com@@
hu@@
exhibited
automated
dr@@
molecule
partially
plates
user@@
explanation
tro@@
incoming
substrates
charts
cables
conclusion
disappeared
sto@@
fluctuation
km
post@@
adjusting
ultrasonic
alerts
push
relating
ken
pairs
rays
secret
arrangement
suggesting
seed
adsorption
explicitly
tuning
ventricular
commit
interpolation
eat
chamber
deployed
fbx
rf
catch
rehabilitation
translate
mono@@
benefit
temporarily
normals
labeled
timeout
app@@
bur@@
hub
mutual
coupled
customizing
lifecycle
transitions
projected
retained
ise
crisis
arrows
inverse
females
shit
disc
allocated
upgrading
aspects
representations
thinking
efficiently
indexes
95
blur
^
infopath
spectral
disposition
username
sex
mine
and@@
forced
listener
inhibited
urinary
netbeans
telephone
frequencies
designing
developer
john
firmware
vein
limitations
walking
respond
preoperative
1998
barrier
2005
installer
bits
gh@@
fight
++
fruit
insulin
maxscript
ton@@
uc@@
slice
besides
layouts
2010
hepatitis
publisher
deformer
proved
ending
probability
wouldn
subset
chi@@
hyperlink
merged
46
manipulator
recycling
1.5
suite
shaded
incorrect
socket
trouble
.3
holds
passwords
continuity
envelope
feudal
stem
suppression
expenses
@@@
ò@@
highlights
boards
parametric
assume
documentum
ang@@
tract
sugar
neutral
profit
membership
variance
centers
simultaneous
competent
semi
licenses
intelligent
ceremony
permanent
47
bun@@
56
appended
coal
revised
yl@@
ff@@
abnormality
political
odbc
evil
supervisor
steady
derivatives
subscription
breast
passing
autolisp
omi
travel
66
iz@@
yu
dispersion
2006
grow
restored
sing
circumstances
lowering
purge
bro@@
discovered
intake
ino@@
threads
partners
ensures
feeding
punishment
viscosity
val@@
vice
ized
indication
leads
choices
equilibrium
pan
radical
sweep
ven@@
guess
ml
redo
sm
ram
worker
impossible
pro
,000
rail
sei@@
vitro
config
alive
attachments
learned
parcel
acquired
twenty
cvs
agricultural
gland
ran
arranged
web@@
mutation
contextual
deliver
reserved
mobilink
restriction
unto
mappings
cur@@
computing
touch
ó
silver
chance
fr@@
rock
aku
circulation
che@@
screening
war@@
accumulation
inflammatory
0.1
alter
immediate
designs
comprehensive
productivity
connects
mn
aki
maintaining
54
combining
scenes
51
staff
ical
inhibitor
o2
quantities
metabolism
stops
haven
replaces
adjusted
posterior
d.@@
operate
rain
ms@@
individuals
snow
proceedings
institute
claims
fly
closes
byte
hypertension
pal@@
assigns
balancing
yoshi
predicted
usb
variant
acting
dy@@
gawa
solids
ah
ary
cone
cv
plain
open@@
locally
ments
countermeasures
table@@
europe
visited
72
prevents
cellular
grouping
sal@@
insulation
3.0
genji
ked
iscsi
males
ucs
advantages
grouped
ocean
interactions
pipes
practices
quantitative
algorithms
winter
provisioning
rd
buddhism
dialogue
literature
houses
passive
callout
farm
continues
pollution
cap
existed
4.@@
fu
productname
tracing
happy
exceeds
wing
isolation
offering
wireframe
localization
qualified
her@@
ipv6
aid
thyroid
captured
usual
ashi
encountered
authorized
seem
communicate
marking
exclusive
optimized
zo@@
49
alcohol
form@@
nas
captain
ideal
ity
artifacts
ash
voting
suke
steroid
evaluating
necessity
recipient
usefulness
quot
cleared
demonstrate
inspector
sch@@
61
dog
preserve
korea
modifiers
scenarios
ownership
cp
softimage
crop
parties
thermo@@
differ
beautiful
53
associative
stretch
ty
bias
solved
collector
manipulate
myself
continuously
fa@@
organ
ran@@
kidney
proof
sliding
optimize
cycles
introduce
metals
deletion
conditional
prints
gen
nt
opportunity
fax
officers
ming
2004
cultivation
fluorescence
combinations
cool
tablet
titanium
vi
interesting
collections
bands
concurrent
aggregation
assumes
constrain
expense
individually
tcp
1997
59
payments
restrict
stomach
nursing
hundred
owned
absence
adhesion
methyl
mathematical
60@@
ashikaga
overwrite
pcr
relational
translated
tail
ft
typing
formatted
tomorrow
solving
sl@@
endoscopic
67
lipid
melt
wild
obtaining
aren
extrusion
frozen
inactive
pan@@
ie
ultra
ber@@
ors
est
retinal
spherical
dai
married
150
600
68
signed
promise
privilege
hp
melting
arterial
licensing
sr@@
tiles
legacy
moldflow
subsidiary
pathological
lab
breaks
ically
accurately
blade
discusses
engaged
spent
slight
metrics
tm
of@@
flexibility
independently
tam@@
linetype
replacing
text@@
tic@@
connectors
fold
map@@
distinct
gather
vertically
aec
pointed
solvent
ization
immuno@@
cars
jin
mrna
sei
elevated
key@@
gs
accordingly
responsibility
float
operative
atom
executing
wpopup
end@@
collaboration
sn@@
mb@@
trains
classic
der@@
positioned
amp@@
cap@@
ne
t1
cyclic
rgb
retain
tank
dd@@
invoices
sounds
adjustments
nan@@
scales
bonding
exceptions
,@@
expert
sur@@
commission
polarization
air@@
empress
grids
guides
snmp
treatments
star
amine
buy
conflicts
sold
uvs
shorter
wanna
consequently
numbering
restoration
ev
integrity
keywords
ore
america
milk
minimize
cc
organize
summarized
zen
perfect
electricity
trunk
lac@@
feeling
hello
ard
ot@@
synthetic
evolution
retrieved
partitions
genic
incremental
falling
accelerator
conference
ltd
questionnaire
suspension
tended
apparent
coated
anesthesia
cat
etching
ful
flags
peace
rs
examinations
excess
sh
junction
kyo@@
prod145
―
reactive
zo
complication
symmetrix
24@@
couple
pt@@
imp@@
temples
reliable
·
peptide
avamar
po
ado
certified
varying
ach@@
temporal
overlap
gotta
subsequently
doped
festival
grips
shogunate
120
57
belonging
proportional
instruction
electrons
58
recommend
shrinkage
curved
kar@@
synchronized
thi@@
attempting
offices
chains
cmdlet
mhz
effort
kb
compute
shin
inhibition
taste
63
actor
mer@@
compressed
nis
smoothing
tablespace
kit
peer
ver
mpa
polar
line@@
huh
dedicated
therapeutic
skip
fuzzy
ism
hierarchical
locks
tw@@
dm
inherited
persistent
tap
justice
pitch
tor
asm
ghz
fer@@
brief
fed
intervals
rj45
ser
exceed
myocardial
analytic
uninstall
crown
familiar
lies
occlusion
vba
glossary.hlp
careful
epithelial
metallic
chi
renamed
dropped
intestine
containers
fell
damping
council
becoming
ping
collisions
stiffness
literally
dot
stair
seismic
data@@
loops
regeneration
engineer
noble
tt@@
85
ftp
nobunaga
800
keeps
tar@@
petition
crystalline
int
architectural
fabric
expect
transformations
hokkaido
gon
famous
sharp
identifying
orbit
gaas
mom
marine
enhance
mia
hara
ei@@
ascii
automation
heads
retired
1.1
char@@
saturation
compiled
abcd@@
balloon
cultured
compiler
dxf
matched
staining
infarction
describing
bureau
fair
thumbnail
torque
emitter
spiral
hormone
mobility
pentium
hydraulic
consisted
managers
5.@@
dependencies
involvement
facing
noticed
grand
mounting
bump
criterion
pole
ag
reuse
bay
deposit
trap
workstation
99
pri@@
slip
involving
token
mucosa
hideyoshi
figures
onic
debugging
increment
challenge
ori@@
ended
gamma
dynasty
differentiated
organs
photon
excited
blog
shoulder
bubble
groove
sand
ban@@
coil
instrument
chamfer
aortic
…
collagen
efficacy
agree
satisfied
ass
dioxide
ebs
mid@@
chloride
improves
ies
adenocarcinoma
diabetic
ssl
tone
holder
irm
similarly
lan@@
storagetek
acl
inputs
.5
css
marrow
reload
colored
ds@@
assuming
brightness
messenger
preservation
equity
providers
hardness
rotational
cord
borders
wise
doors
introducing
javascript
varied
agreed
downloaded
pm
fatty
plan@@
shipping
standby
0.0@@
new@@
pad
strip
acoustic
unexpected
ties
mostly
workflows
preparing
student
supplementary
rooms
work@@
mouth
pointing
80@@
patches
diamond
proliferation
nfs
hetero@@
pi
ze
ance
extents
schools
stenosis
synchronous
35@@
ceiling
conduction
dominant
excluded
intelligence
picked
shelf
explicit
cleanup
clipping
judgment
vectors
thou
campaign
comma
mel
realistic
drink
hemorrhage
morphology
guideline
princess
shinto
tional
sw@@
wrote
manipulation
proposal
bean
dust
corners
bilateral
log@@
illustrates
muromachi
efforts
62
cc@@
preserved
translator
lic
gi
fur@@
primitive
triangle
contracts
bin
gui
spinal
steam
consumer
unicode
warp
clearance
consistency
sorting
0.05
sions
stuff
gl@@
aircraft
breaking
improvements
sr
bacterial
gre@@
auditing
02
leakage
ts@@
bundle
activex
seeing
transmitted
directional
atp
statue
~
fin@@
provisional
workgroup
numerically
portable
cumulative
modulation
esophageal
aka
considerations
complexes
depression
cervical
gear
park
headed
labour
encrypted
american
county
extreme
indirect
kur@@
ramp
gl
ines
ker
ane
kawa
exterior
consist
territory
tur@@
freeze
disorders
locator
superconducting
convenient
pix
termination
sensors
employment
remarkably
kat@@
season
detecting
telling
ut@@
11@@
printers
spine
nextref
tooth
microscopic
packing
oda
secretion
usa
thousand
atmospheric
husband
offered
ame
eu@@
exceeding
nearest
presets
zip
tb
uji
98
ahead
comp@@
migrated
receivables
wrap
cam
gram
interested
convergence
ordering
chromosome
fresh
ana
applicant
nation
observe
ultralite
va
antenna
electrodes
everybody
judge
nor@@
180
fever
sequential
ats
somebody
broadcast
shop
asking
phosphate
ceramic
hy@@
quarter
weather
certainly
strokes
possibly
star@@
negotiation
pipeline
69
bo
csv
mit@@
reserve
verily
swelling
analyzer
difficulty
intestinal
mixer
overlapping
seek
・
hierarchies
mic
endo@@
miss
ushi
4.0
nozzle
dic@@
drainage
situ
daimyo
destroyed
decay
kid
append
lack
tomography
coding
spec
71
finger
subjected
2.5
yp@@
br
systemic
focused
substitute
1996
affecting
requiring
disconnect
protocols
microwave
sun@@
sic
agriculture
assay
patent
focusing
grounds
damaged
enterprises
relay
branches
echo
locking
regression
sit
witness
burn
universal
weighted
zn
ie@@
29@@
looked
rubber
74
ps@@
varies
urine
vessels
zinc
charged
architect
moto
appointment
deselect
grading
prototype
antibodies
conducting
hor@@
garden
resistivity
2,@@
officials
sd@@
max@@
callback
cyst
fills
gar@@
reveal
→
favorites
purchasing
modulus
snaps
001
downstream
pp
sk@@
ratios
son@@
storing
uni@@
frequent
pb@@
win@@
bills
routine
hurt
treat
δ@@
45@@
approximate
fittings
originated
wake
diagrams
eating
initiated
1995
ca2
mild
bleeding
mellitus
2011
intends
tis
za
preventing
promising
net@@
porous
buddha
pb
200@@
77
ine@@
kam@@
physiological
sin@@
egg
ev@@
flange
roughness
shrines
kon@@
infected
ita
majority
wet
directors
jack
ali@@
ceramics
complexity
reinforcement
ess@@
detector
grains
commander
1990
dense
girls
afraid
overhead
broad
fem
tutorials
union
clearing
permitted
associations
landing
charges
teeth
bal@@
tele@@
centerline
def@@
ty@@
su
ent@@
inhibitory
li
ain
clash
fac@@
lady
97
brown
dispute
shareholders
brand
eastern
mes@@
overlay
kok@@
scripting
sale
designation
0.01
angiography
conjunction
layered
casting
lobe
conservation
vehicles
360
breakdown
forget
radi@@
111
nat
underground
writer
horizontally
tex@@
rsa
lec@@
auxiliary
des@@
h2
indexed
insufficient
mag@@
felt
clo@@
lymphoma
mission
aga
defense
kids
adaptation
graphs
expiration
flower
fewer
candidate
involves
personnel
standalone
influences
carries
directed
jump
pneumonia
raise
theoretically
tors
french
skills
lated
nag@@
zu
.exe
delayed
furnace
tics
blind
oscillation
ships
syn@@
arbitrary
caught
1.2
demonstration
dir
tonight
trip
approaches
cities
referencing
submission
participants
xi@@
tier
suppose
duties
pricing
rom
sion
backward
coverage
handled
ao
palettes
packaging
corrected
longitudinal
slides
writes
mp
yamato
ants
bp
lo
switched
unstable
yam@@
museum
launched
un
extends
dissolution
settlement
fre@@
smoking
structured
shoot
generations
infant
ju
scheduler
88
declared
heated
islands
morphological
knee
sc
deals
bu
failures
facial
converter
suit
exe
ina
intersect
headers
mac@@
inclusive
tab@@
transformed
erase
geometrical
industries
asthma
cp@@
blocked
e.@@
ruling
crash
distribute
cattle
dissolved
ppp
alized
don@@
ff
ulcer
invisible
tubes
ously
ox@@
76
ato@@
peri@@
tad@@
dy
glow
macro@@
ham@@
19@@
fragment
guarantee
instability
exhaust
crossing
kai@@
kuni
num
hiding
reads
despite
examining
stresses
rough
trados
ld
satisfy
infectious
lc
md
escape
geo@@
interpreted
color@@
purified
abe
moto@@
extensive
digits
wan
nobu@@
symmetric
reaches
ica
korean
powershell
avocent
heavens
worry
perhaps
protective
adapters
thy
integral
smoke
receiver
by@@
logo
scaled
thereafter
referring
sentence
ves
aliases
facts
inherit
sided
subdivision
accumulated
graphite
vivo
deploying
unified
allocate
cri@@
ease
hiv
sia
closer
tically
advice
hel@@
backed
rating
wiring
apart
markedly
repeating
logon
stri@@
sol@@
78
chose
twist
ger@@
precipitation
closest
por@@
wooden
unchanged
forwarding
23@@
nmr
gh
tower
appeal
nparticle
powerpoint
technological
kvm
ence
infinite
leukemia
py@@
filtered
seal
cooperative
::
balances
duty
separator
supplies
counts
magnetization
bor@@
metastatic
viewcube
vitamin
extending
bypass
distinguished
exceeded
kernel
opinions
turbulence
soluble
guest
precedence
sight
favorite
sai
sio2
checker
mix
cholesterol
arms
moisture
alization
engines
olap
sword
basal
pancreas
upstream
gauge
kit@@
splines
eliminate
emitted
firm
lar
reinforced
breeding
uri
acceptable
turbine
hojo
movements
silica
79
alo@@
logy
fishing
jun@@
kata
kyushu
terminated
deflection
ro
tunneling
exports
hol@@
meat
run@@
placeholder
96
polylines
bold
eroom
lake
dance
stainless
games
worship
busy
thereby
equipped
sn
81
nd
relief
boys
cement
head@@
predict
82
aneurysm
resected
rod
sor@@
ple@@
inferior
reasonable
iterations
ryo@@
sulfate
sup@@
executable
implementing
injected
sin
rac
alarm
distances
ner
executes
nobody
plotting
rose
initialize
inter
pr
housing
workplane
participate
hito
replicated
teacher
triggers
bin@@
admission
phrase
suspended
stamp
ther@@
list@@
namely
demonstrates
outcome
pc@@
transmit
asa
coli
win
transverse
triggered
circles
explore
inlet
yields
grinding
objectives
84
chromatography
sector
swatch
household
invoke
outputs
110
ini@@
ano@@
faith
manufactured
throne
ex
seat
establishing
manages
rejected
utilize
92
complaint
od@@
tran@@
soldiers
aps
detects
stories
denied
ranging
religious
commencement
legs
are@@
progressive
modeled
unused
effector
reader
recipients
distortion
fun@@
pd@@
zen@@
ches
descendants
hin@@
locale
dan@@
impedance
mc@@
rear
mori
qos
anyway
oki
gan@@
pin@@
posts
jin@@
stating
70@@
enforced
n2
dori
asia
fixation
gaps
han
landscape
penetration
ri
minimal
cyto@@
ieyasu
hrms
pol@@
visitors
demands
helper
inflammation
sell
analog
liability
countermeasure
ents
asian
lowered
sufficiently
workspaces
worth
au
believers
muscles
indispensable
show@@
offsets
till
permeability
ref
enhancements
inch
payables
daemon
-1
oem
maintains
pilot
attributed
rotated
enovia
numerous
titles
sorted
deterioration
ethanol
joins
wh@@
kanto
arcs
lifetime
reply
vortex
1994
assumption
considerably
evaluates
ichi@@
create@@
gates
poems
harmonic
ry
severity
ders
extrude
installs
turbulent
terminals
dat@@
ll@@
subnet
multicast
quantitatively
bug
warnings
fabrication
magnet
necrosis
ono@@
illustrated
optic
roots
hence
accelerated
centered
ace
ama
creep
kun@@
cubic
helpful
molten
suffix
derive
immune
briefly
gods
lying
hip
irradiated
manufacture
zfs
anymore
catalytic
limitation
limiting
pic@@
bag
aiming
archiving
inf@@
gon@@
lay
crime
graft
sudden
nu@@
receipts
sick
lots
imports
sive
28@@
6.0
answers
mc
covering
peaks
shade
automobile
md@@
falloff
tells
authoring
clicked
salary
appliances
promoting
song
polymerization
pressed
covers
reflects
assist
brings
broke
isdn
seeds
calc
thirty
consciousness
lamp
sta@@
7.@@
anisotropy
beta
differs
flame
stopping
eggs
simplify
meant
1993
ash@@
organizational
actionscript
diskxtender
boat
enclosed
ear
quad
tin@@
ascending
atsu
understood
infiltration
ment@@
restoring
suffered
classical
multimedia
clinic
disposal
65@@
guards
ens
selling
fluids
dysfunction
oma
extracting
murder
trajectory
89
designate
migrating
putting
reflections
triangles
redundant
primarily
activates
adhesive
animations
omitted
pacific
sti@@
shipment
snapshots
ative
attaching
queues
spontaneous
aimed
hearts
iteration
jurisdiction
python
ble@@
descending
cystic
hira
hz
quotation
pivottable
footer
lengths
mer
worse
86
guided
searched
retrieves
grew
tagged
gan
intracellular
sha
sputtering
ventilation
drying
tem
ticket
nervous
springs
college
zed
cached
ian
gls
inches
modal
susceptibility
din
roads
dam
mapguide
cli
ley
prod@@
giant
0.2
enemy
ethylene
rebuild
reward
idle
specular
10.@@
datasheet
ibm
tangents
schemes
nickel
enters
iis
tries
bronchial
plots
wd@@
monitored
motions
sketches
ns@@
2012
returning
impression
mercy
adjusts
manufacturers
acceptance
crazy
ron@@
sec
epithelium
knowing
reboot
carefully
principles
pov
hiro@@
correspondence
modifies
strategies
6.@@
dl@@
huge
mur@@
ble
conditioning
precisely
128
255
di
slowly
ast
differently
dw@@
nuclei
chemistry
rna
yoritomo
burden
chassis
picking
plugin
tal@@
void
staging
delegate
luns
moderate
2013
acquire
endothelial
interact
ay@@
ideas
kei
bit@@
competition
crystallization
messaging
5.0
@@
calibration
sd
numbered
stick
aims
mus@@
scorecard
consent
jis
water@@
izing
idmgr
indices
varieties
kinetic
profiling
horse
ish
ishi
subassemblies
deficiency
fog
gross
05
ate@@
dental
f1
rac@@
substituted
fluorescent
transitional
arrange
drinking
fore@@
ito
ron
activating
metry
squamous
businesses
burst
loc@@
cf@@
unlock
all@@
dic
ery
swap
250
gif
87
boss
fication
spend
yuki
initiate
interpretation
achi
buzzsaw
elimination
infants
necessarily
workload
poetry
93
councilor
convection
ars
dro@@
satisfactory
trimmed
deformers
grasp
judicial
sat
ong
repetitive
tan
73
adequate
isolate
ths
xxx
blending
decisions
examines
ellipse
neighbor
reject
blocking
entrance
gra@@
occurring
hides
90@@
focal
destruction
wound
indicators
licensed
papers
hen@@
fy
plotter
hime
tool@@
mini
noh
privacy
pur@@
freeform
versus
diagnostics
δ
ill
participation
wafer
off@@
glossary
ade
enzymes
founded
obvious
eventually
mandatory
sql@@
ving
compile
editors
oe
radio@@
ric@@
ish@@
spec@@
ys
gizmo
portions
pulsed
m.@@
arch
virtualization
belt
hal@@
affinity
beside
deformed
neighboring
je@@
nar@@
ppr
suddenly
stationary
26@@
contraction
toyotomi
combo
dangerous
sam@@
yours
guid
oka
pause
robust
rt
centera
elevations
homo@@
itsu
om
polymers
caching
sad@@
afterwards
dreamweaver
successive
resides
var
eno@@
schemas
pins
pregnancy
deeds
irregular
parcels
elbow
graphy
48@@
deny
gallery
performances
uml
computational
iness
troubleshoot
cfdesign
leaders
scalar
bear
standardization
bul@@
photoshop
damn
swf
conceptual
extracts
quasi
spray
stones
doc
incomplete
methyl@@
cro@@
spite
exhibit
fun
gri@@
homogeneous
rebar
toxicity
completing
fund
ppm
kinase
umi
32@@
comparatively
server@@
studying
institutions
jima
punished
approve
attenuation
cancers
dll
implantation
ref@@
combines
ensuring
fibre
generalized
whoever
bookmark
down@@
strategic
estimating
convention
dos
killer
populated
time@@
webtrends
coast
dye
clothes
flood
interstitial
pl
sizing
sweet
basically
investigations
cer@@
membranes
troops
brothers
loan
top@@
gantt
networking
splitting
goals
themes
discover
distal
genesis
lease
miya
moon
sixth
engineers
kak@@
excessive
gro@@
issuing
shutdown
bri@@
expenditure
upgraded
clicks
divide
a1
nano
spelling
yesterday
obu
recommends
warm
derivative
alignments
conventions
lip
med
ax@@
bankruptcy
ritsuryo
compliant
diesel
thoracic
thousands
ara
cul@@
lp
php
reality
expanding
inspect
damages
distinguish
employer
mill
physically
prove
700
desirable
drops
painted
scattered
inc
mountains
ot
shige@@
stairs
outliner
dots
fluctuations
scores
protecting
succession
tr
abnormalities
excision
humidity
sum@@
dar@@
prevented
resume
valuable
sons
inclusion
rotates
stimulated
000@@
kin
plotted
red@@
zing
83
therein
massive
audience
instant
jar
tourism
initiation
totally
merging
reside
ci
fa
roughly
billing
clouds
recommendations
bac@@
catalogs
donor
nano@@
flowers
inheritance
tale
pools
ami@@
bel@@
disables
femoral
grams
rupture
dgn
edema
killing
normalized
energies
mol
tx
256
xy@@
assess
waveform
rings
tolerances
bus@@
descriptive
mary
freight
ultrasonography
cen@@
mortality
uptake
94
tag@@
wearing
99@@
zan
draws
hook
totals
median
nasal
mining
91
drilling
sdf
federation
dividing
part@@
considerable
apoptosis
ene
arrived
enjoy
york
accidents
lar@@
prefer
rack
alumina
1991
concentrated
constructs
gathering
limb
thresholds
expired
listening
1989
completes
dogs
retrieving
histopathological
european
suppliers
flare
occurrences
1992
cas@@
skill
lift
motionbuilder
contours
needle
outlet
foreground
stu@@
beneath
flu@@
mate
thee
challenges
dd
stronger
excuse
intervention
comparable
transfers
histologically
powerpath
adults
considers
installations
jr
rolled
genus
methane
miscellaneous
repeatedly
vc
acetate
burning
detective
compares
pore
acuity
anemia
clinically
iga
shifted
tuberculosis
collecting
uma
tomo@@
27@@
summarizes
polygonal
theories
ning
nb
snapping
imagine
absorbed
owners
consecutive
multiplier
shells
bath
lightning
nominal
punch
abolished
isometric
mistake
nam@@
sar@@
cracks
orthographic
purification
digit
routed
educational
acs
realization
serving
es.@@
pet
scientific
cascade
dev@@
hydroxy@@
lane
sitting
sting
violations
journals
ora
sam
stacked
assessed
fairly
tend
occupied
ze@@
ab
coffee
disabling
pile
adrenal
archived
formulation
ame@@
fluoro@@
illness
app
tai@@
attacked
blast
populate
postscript
collide
terminology
base@@
fought
unity
atory
bpel
cortex
quit
retainer
cuts
buried
destroy
residents
camp
intersections
assisted
departments
thereto
labeling
ure
altered
tie
fighting
ischemic
storm
tp
permanently
developers
lymphocytes
bolt
provincial
spoke
dwfx
equals
intersecting
infusion
1m
monthly
invoked
purchased
bladder
continuing
sketched
trustee
orange
ation@@
tra@@
sectional
acc@@
accepts
pressures
yasu@@
ei
reviews
3rd
ik@@
intr@@
mitsu@@
shipped
minus
rep
teaching
tooltip
watching
dispersed
handed
fied
ptc
somewhere
sys@@
speaking
age@@
equ@@
ano
maker
pseudo@@
sengoku
clay
enumeration
oxides
throughput
chemicals
toggles
9.@@
induce
conservative
cn@@
terminate
fragments
friendly
hoc
municipal
notified
use@@
intravenous
constitution
india
selectivity
undefined
1.3
ml@@
posture
tering
hex@@
indexing
detach
roku
takeoff
tick
vers
reversed
employing
prote@@
backing
compositions
gases
subjective
μ@@
8.@@
happening
elapsed
compass
headings
joining
55@@
actively
intend
milling
mn@@
sutra
fil@@
anybody
floors
newer
orbital
ani@@
mikoto
sintering
specialized
broadcasting
sem
buffers
freezing
reactivity
insufficiency
plumbing
popup
provinces
sludge
footprint
ono
regulatory
administer
sculpt
yeast
conversation
hyperlinks
preventive
applicability
doubt
qol
name@@
reviewing
simulator
ashi@@
formal
declaration
proton
truck
adenoma
dump
greatest
videos
.gif
pasted
mm@@
ranking
refine
methanol
allergic
dly
hardly
tl
pseudo
receptors
takeda
courses
primitives
silk
ud@@
centralized
constructing
methodology
date@@
kerberos
stabilized
ry@@
bake
bright
divisions
take@@
transcription
ultimate
creator
oid
viiv
entirely
moses
estate
meets
reorganization
electrolyte
genome
sports
basics
childhood
interactively
timestamp
elongation
contributed
humans
intensive
refractive
speeds
xeon
ces
ee
hang
stayed
usable
timer
dia
dollars
tho@@
accessibility
revert
cfd
ess
fro@@
surrounded
3,@@
mil@@
commissioner
television
announced
1988
bas@@
a.@@
magneto@@
permit
selectively
tang
jdbc
payroll
tight
renders
descriptor
duplication
laptop
hiro
particulars
ride
sco@@
nic@@
sas
waka
arising
jsp
sourcing
rc
eligible
rm
delta
deposits
hospitals
decline
matsu@@
redefine
soul
inquiry
microstructure
dissection
overseas
unload
bio
flex
potassium
appendix
powders
benign
enrollment
sensing
ansi
metabolic
resist
conductor
mg@@
ec
executive
danger
rotor
succeed
recurrent
assemble
trail
desk
opposed
uvw
downloads
sai@@
widget
mineral
arrest
hosokawa
agreements
ini
mailbox
submenu
consult
raising
digestive
ide@@
mediated
neurons
nobles
scsi
extruded
arts
logically
ure@@
urls
sps
xx
unnecessary
acted
hd
stands
viral
hmk
pul@@
sulfur
visualize
basin
collapsed
masks
amin@@
dried
forestry
intense
bc
criminal
losses
penal
posted
sid
gg@@
orthogonal
tune
expensive
daylight
dim@@
mirrored
muscular
packed
potentials
dermatitis
cla@@
ering
restores
spreading
wed
authenticate
bre@@
cathode
highlighting
ned
ow@@
sexual
trans
2.1
exp@@
peculiar
candidates
hash
ino
3.5
lightweight
prices
biliary
losing
appearing
fixing
ite@@
pasting
maximize
ozone
suicide
nutrition
ue
coded
pig
smallest
teams
appropriately
drain
1987
hand@@
≦
2.2
caption
discharged
populations
.4
anisotropic
grace
clones
positional
tun@@
founder
shots
spirit
surveys
viewpoints
dislocation
granular
mono
vicinity
c.@@
debugger
mic@@
ultraviolet
van
degeneration
gal@@
rounded
foods
shifts
centrino
revolution
22@@
submitting
illegal
outgoing
pv@@
conduit
filing
compressive
dm@@
climate
dri@@
monitors
adsorbed
animating
competitive
igg
taka@@
bases
consumed
integrate
treating
xyz
conclude
german
loader
typed
closure
intent
plas@@
robots
amide
enshrined
brackets
contamination
å
esc
increments
metastases
chu@@
encounter
onin
relax
eb
fingers
ionization
ky
kei@@
insight
surveyed
tee
mmc
sink
wor@@
chicken
ele@@
ber
7.0
attitude
mev
kw
taxes
03
cdna
dn
evening
hotel
rectal
type@@
var@@
initiator
she@@
dimensioning
ionic
retainers
scratch
serves
endpoints
perimeter
tracked
xrefs
accommodate
ads
allowable
fits
tt
asymmetric
cs@@
spare
stereo
outbound
ach
alkaline
gallbladder
sus@@
clamp
complaints
facilitate
mun@@
reposition
ying
cm@@
currents
elucidate
dies
economical
ky@@
mutant
tessellation
kda
y.@@
nd@@
uncle
ea@@
og@@
cn
oli@@
tg
electrostatic
hate
bell
dropping
jiro
kabuki
luminance
railing
similarity
helped
renaming
warming
bon@@
densities
prescription
resets
transforms
wsdl
mature
operates
opportunities
beat
gun@@
steels
traps
oldest
sanjo
seventh
wt
ifn
loft
revisions
sender
hostname
imposed
oc4j
dream
kus@@
.this
coordination
seasonal
ospf
cancelled
dementia
expands
initialized
miles
doppler
dor@@
judged
latency
underlay
workaround
dealing
monoclonal
telnet
fires
skeletal
workshop
cf
f2
gy
nose
pregnant
spinner
van@@
vm
dim
platelet
prospector
rated
victim
attacks
reactors
sel@@
validated
arch@@
csc@@
cvd
heterogeneous
distant
durability
sys
tabbed
0.3
ati@@
calculator
db2
spots
tively
aligns
yasu
shallow
dress
grass
successor
intact
sensory
essentially
r2
retry
.0
dish
mucosal
ware
inorganic
p.@@
.xml
ike
periodically
phi@@
rp
evaporation
filtration
tftp
trading
capsule
dinner
progression
swing
75@@
bigger
mdx
plastics
ups
zes
awa
capillary
complained
hospitalization
lining
met@@
positively
quiet
assembled
autumn
reg@@
spo@@
uchi
adverse
behaviour
hereditary
religion
ammonium
coarse
favor
larvae
notebook
fruits
phosphorus
unsupported
ose
replay
cation
fel@@
mol@@
fx
stan@@
sugu
dg@@
potentially
corrupted
tangency
•
safely
trials
yak@@
documented
margins
alize
bridges
ears
inline
vaccine
hmm
ryo
cha@@
dosage
tered
coat
endocrine
recommendation
behave
ischemia
pathway
worldwide
hs
redundancy
3000
cloning
ker@@
regulated
sdk
ved
asynchronous
fence
paddy
tai
conform
reconciliation
raman
footsteps
wastes
ger
lithium
ology
taper
additive
authenticated
bmp
obstruction
physics
ryu
tongue
shouldn
venous
cloned
cup
heaven
io@@
reynolds
throw
vss
kg
oto@@
pollen
diode
ear@@
favorable
obviously
ole@@
transformer
bra@@
germany
ula
procedural
1.4
depreciation
resonant
duplicated
ny
delivers
secured
queuing
citizens
din@@
keihan
jpeg
lords
tation
diversity
downloading
gyo@@
val
kinematics
largely
regime
abscess
actuator
meetings
transferring
500@@
deactivate
meal
read@@
researches
statistically
composer
crowd
hit@@
ale
finishing
partnership
psychological
atsu@@
monk
radiotherapy
rent
carlo
fushimi
lab@@
residues
batches
ghost
matte
overtime
beneficial
bonded
flowing
moments
tical
adm
mal
64@@
op
peritoneal
polarized
txt
fb@@
hide@@
monetary
monte
organ@@
sintered
ck
one@@
specificity
mr@@
bucket
slower
wn
cooled
cy
manipulators
ner@@
pocket
twe@@
worksheets
auditor
ya@@
pv
reminder
removable
tok@@
dt
gener@@
gc
polymorphism
satsuma
fashion
violated
abdomen
autopsy
rational
blo@@
developmental
disconnected
electrochemical
fourier
responding
counting
np
corneal
stro@@
zu@@
3.2
pot
pres@@
relate
gathered
participant
slave
xps
defeated
nitrate
requisition
ato
fi
plating
ruler
artifact
duplex
superelevation
swept
ani
udp
helical
cellulose
edit@@
sorts
taught
ferrite
fisheries
fixture
tons
101
debt
land@@
motors
scans
antibiotics
catheter
apparently
deform
nitro@@
risks
toolspace
xl@@
tens
cop@@
group@@
symbolic
fractal
sion@@
systematic
t2
￣
bringing
cirrhosis
command@@
high@@
interests
nox
120@@
dre@@
sol
vol@@
epitaxial
mw
sauce
accomplished
benzene
symmetrical
brick
suspect
.com
administering
hardening
realm
slices
hba
kingdom
momentum
scripted
hollow
hyper
discount
sil@@
ipv4
len@@
ening
verifying
ses@@
manikin
markets
intention
seki
1986
33@@
ef@@
phones
glad
0.00
aa
caches
machi
deity
gaku
rap@@
accompanying
magnesium
shield
drastically
laparotomy
c2
soybean
dynamical
inhibitors
low@@
poem
tly
cope
congenital
experiences
ht@@
emit
400@@
5000
6.1
hypershade
lineage
heir
obesity
orient
participated
exhibits
gained
maizuru
pigment
truly
excretion
headquarters
presenting
taiwan
glasses
tends
helping
inbound
ht
quote
replicas
0x@@
ances
deduplication
del@@
loved
pancreatitis
quotes
ial
link@@
reorder
adviser
recycle
rising
vulnerability
rabbit
clears
correlations
fying
linearly
masking
dit
va@@
bb
triangular
ak
magic
visually
vp
welded
mos
depended
mixtures
recovering
tal
uploaded
cos
p1
adoption
spheres
000
cracking
ester
balanced
katsu
charging
enforce
rip
seeking
engage
ethyl
authorities
char
diary
fired
smoothly
stabilization
rollback
indoor
mei
powers
shugo
vassal
wal@@
sac@@
tl@@
slots
cooking
toxin
alizing
invasive
squ@@
ink@@
sign@@
lands
odd
taskbar
wan@@
elementary
overcome
remotely
advances
bevel
propagate
suffering
pci
explosion
m2
prison
currencies
hr@@
shortening
signatures
bought
corporations
packs
preparations
arteries
cartilage
prolonged
td
feasibility
pharmacotherapy
wheels
analysed
exercises
fee
sketching
truss
3d@@
arrival
hosted
renewal
surviving
al2o3
anonymous
ched
emphasis
kinetics
leverage
mds
ams
bearings
deployments
ium
obligation
shiki
dom
test@@
annotate
autonomous
perfectly
belonged
gn@@
load@@
discussions
estimates
honor
overwritten
movies
refinement
auditors
ban
browsing
rss
billion
prod141
ero@@
justification
ignores
quota
v4
explode
sybase
wifi
ake
evenly
hemo@@
nparticles
promised
remission
saturated
seriously
synchronizing
immunohistochemical
naturally
opaque
amplifier
beneficiary
bt
entrusted
servo
ably
achi@@
fm
lic@@
sec@@
temp@@
infections
staying
eg@@
exclusively
uniformly
moro@@
1985
hairs
pos@@
im
isolates
marriage
coolant
automate
fractions
toxic
ular
wheat
bent
healing
transfusion
waters
aids
catalysts
doc@@
pas@@
04
isp
muhammad
replicate
sampled
atrophy
backs
copyright
flying
parentheses
communities
contrary
mib
screens
stupid
discard
holders
reform
bird
emp@@
agawa
check@@
convenience
dge
immunity
passage
recoverpoint
wildcard
luck
ligand
contributions
glyco@@
homes
300@@
sinus
taro
lymphocyte
0.5@@
absolutely
formulated
nat@@
cns
dera
embed
geospatial
agi
bgp
browsers
interview
lumbar
openings
slag
sparse
districts
vpm
yori@@
blends
bookmarks
dae
dan
fertilizer
fishery
guardian
linkage
ren
aorta
impurity
jesus
seam
task@@
washing
asks
comparative
laid
kaku
maternal
bon
field@@
geographic
designers
sv@@
doctors
notwithstanding
ols
ouchi
boron
concern
manifestation
squares
accesses
dba
fermentation
hospitalized
manifest
informed
jan
simulating
buckling
randomly
linework
path@@
tivity
colour
copy@@
globally
aga@@
lop@@
refused
trac@@
local@@
signaling
state@@
8.0
acidic
actors
aw@@
bitch
intra
merciful
pharmaceutical
els
ours
teach
farmers
hcv
condensation
dialer
disclosure
jodo
treasure
cle@@
ums
cell@@
hachi@@
investigating
proximal
tilt
twelve
ammonia
fixes
h2o
epi@@
exclusion
inertia
06
dialogs
ranged
suppressing
4000
alveolar
carcinomas
freely
spectrometry
counters
lap
900
consumers
gis
phy@@
png
catpart
gd
vii
wlc
asterisk
math
matsudaira
multiline
requesting
delimited
encapsulation
jointly
11.1
cli@@
shareholder
flow@@
terrain
unusual
club
ferroelectric
kpi
speci@@
composites
gastrointestinal
doping
free@@
originating
upward
confidence
palm
averaged
dium
mps
satisfaction
vendors
carriers
cytoplasm
may@@
pvc
37@@
fal@@
higashi
radar
fic@@
residue
servlet
apple
pcs
ruby
arthritis
atrial
e1
hypothesis
internally
intra@@
keying
boiling
corrupt
if@@
mismatch
silent
cb@@
kiyo@@
monogatari
resident
coagulation
cultures
iled
jane
traces
36@@
encoded
footage
innovation
intractable
retains
sty@@
ted@@
6000
behalf
boo@@
diagonal
inverter
mso@@
chiral
locating
mura
panes
sli@@
interim
pm@@
pu
bun
fistula
kore@@
obligations
aromatic
circumference
o3
pit@@
sel
waveguide
1,000
hyp@@
mention
bottle
phen@@
planner
soils
taka
canal
chu
optimizing
pie
sb
starch
stat
ut
quick@@
ray@@
ensis
recognizes
targeted
tooltips
hath
lations
1a
beauty
chemically
sul@@
archives
respiration
handlers
integrating
mod
polyethylene
powered
scanner
bezier
blended
customizations
dml
outstanding
zr
π
deck
profitability
alis
nit@@
oku
rpc
characterization
dh@@
dialysis
nas@@
refraction
dataset
lucky
miy@@
bullet
configurable
ram@@
equally
kes
mover
cui
emon
hereafter
illustrate
launching
pulled
3.3
comprised
ili@@
rei
stra@@
addressed
aperture
cop
forests
poses
france
headache
rou@@
toolbox
attained
corruption
definite
fractures
io
masses
rer
nt@@
â
fr
stained
birds
multiplied
saga
stars
missed
queen
savings
sune
yas@@
anxiety
gy@@
uniquely
warpage
gardens
pat@@
benz@@
declined
erosion
organisms
visitor
sl
strict
hat
reaching
recurring
worst
ep
resultant
strange
acrobat
calendars
eco
photos
texts
emissions
hemi@@
nihon
nitride
probes
ranked
transmitter
velocities
electrophoresis
idiopathic
kansai
maxl
organizing
dietary
kas@@
partly
puts
subsection
3.1
fifty
reconstructed
af
init
planting
pretreatment
que
rib
colorectal
reservation
iting
race
additions
intercompany
ize
piezoelectric
recall
hum@@
pg
cher
latitude
anomalous
canceled
gps
kita
sper@@
stp
builds
subscribe
fetal
ako
dp
forever
prohibited
sacred
wara
conductive
maturity
rid
trapped
mad@@
residential
cutter
macintosh
point@@
surveillance
lates
peptides
reinstall
desire
laying
meta
accomplish
backburner
cross@@
modems
uda
1.6
cytes
securing
translations
talked
0.4
125
lock@@
mes
meshing
percentages
wel@@
zer
argon
contexts
keynote
planet
sap@@
fin
rivers
eps
vassals
org
theater
universe
wider
airport
lunar
neurological
prefectures
save@@
34@@
africa
lev@@
12.@@
declare
earned
inhalation
okinawa
purity
reproduction
bow
owing
tio2
105
anomaly
breakpoint
dock
nijo
seizure
shooting
zz@@
navigating
tetr@@
ea
elasticity
reimbursement
shit@@
***
duplicates
nec@@
pond
pulses
rh@@
tumulus
phenyl
spindle
tied
warranty
boiler
spans
downward
presentations
uro@@
vari@@
identifiers
subsystem
incorrectly
perfusion
rms
angels
concurrently
cure
fk
hat@@
implicit
isotropic
subinventory
¬
38@@
ges
hatching
♫
checkout
habit
harm
our@@
sy
bubbles
confined
6.5
disappear
bends
invited
rocks
welds
any@@
governments
pho@@
propagated
finder
horizon
mat
viruses
escaped
fetch
oxidized
stencil
subscriber
volatile
amo@@
collaborative
implements
frontal
mpi
toughness
tsune@@
enclosure
invert
number@@
stuck
threading
fatal
scalable
cage
ced
viii
weren
bec@@
clothing
ige
molar
abilities
formerly
grave
insulating
allowance
diameters
nations
retaining
memo
ther
award
csf
object@@
quartz
radioactive
sat@@
shaping
widths
light@@
prerequisites
professor
roller
clustering
nic
rin@@
beans
node@@
smtp
wi
lib
priests
seedlings
tech
alkyl
deferred
glu@@
koku@@
loose
checkpoint
forgive
implanted
pine
bamboo
cyclo@@
deformations
flyout
param@@
parking
pos
prayer
sine
survived
manipulating
nishi@@
perforation
yori
burned
injuries
nest
electronics
intrinsic
cics
kobe
paintings
sha@@
ulation
unlimited
allergy
duodenal
graphically
parting
prevalence
rails
vlisp
capacitor
counted
hiko
registers
rotary
specially
ben
bet
brushes
dainagon
fungus
overflow
cancellation
sus
mercury
with@@
chord
consistently
involve
matrices
players
hplc
nutritional
google
p2
tion.@@
10,000
medi@@
russian
solubility
effectors
machinery
psycho@@
start@@
vlans
67@@
lia
midplane
occured
retro@@
mutations
registering
trained
glo@@
gm
scal@@
ω
mv
suppresses
cultivated
empirical
hundreds
erp
nacl
kers
notation
ome@@
oxy@@
suna
visits
worksets
governed
l3
luminescence
meantime
amplification
bacterium
dmu
emitting
bye
incompatible
insulator
omiya
pon@@
scatter
urgent
incubation
meth@@
has@@
mae
grayscale
kuro@@
solder
wonder
dam@@
faults
ful@@
ingly
poet
tas@@
eighth
externally
gastro@@
refuse
shortage
speaker
deeply
lig@@
trademark
avoided
blow
contracted
grades
nearby
solvents
versa
demo
khz
limbs
tubular
categorized
duo
runners
shrink
130
dashed
kannon
precursor
sleeping
spanning
acetic
crude
ja
difficulties
mode@@
releasing
collective
nurse
towns
07
chromosomes
resolving
c1
comfortable
devised
lit@@
proviso
traveling
gift
angry
entertainment
guchi
offerings
tomy
ae@@
granules
lh
tetra@@
v2
.6
antigens
merits
petroleum
solidification
wil@@
cam@@
ib@@
mrs
weighting
bomb
cake
fibrosis
g2
hyperplasia
vegetation
consuming
ejb
qualification
suspend
radicals
weapon
popularization
hitachi
prod161
signing
toyo@@
yoshitsune
ed.@@
enabler
nb@@
wine
herself
partitioning
proceeds
resi@@
gam@@
lisp
pac@@
prominent
researchers
rman
stm
valued
gaussian
intermittent
knot
outs
weekly
alkali
ddl
delegated
lsi
funny
iri@@
messengers
overridden
papillary
rebellion
ssh
utilizes
websites
antibacterial
balloons
dx@@
observing
ovarian
valves
consultation
fuji
balls
chm
inal
retirement
08
custom@@
gu
paris
scanned
85@@
coincident
launches
carotid
crops
ectomy
hits
merit
a2
aerodynamic
paying
shor@@
uesugi
diagnose
unwanted
wip
eliminated
experts
play@@
threaded
captures
harvest
recorder
regularly
terrible
window@@
g.@@
persistence
toku
fastener
hf
mori@@
resigned
tim@@
typ@@
bounds
dragged
esophagus
ong@@
rous
visiting
vital
ened
long@@
politics
hepatocellular
bowel
dol@@
legitimate
oun@@
practically
ranks
dissociation
esx
g1
jingu
navisworks
nihonshoki
ore@@
sata
ang
trimming
bis
exponential
interrupt
ladder
disclosed
ferromagnetic
grab
ignition
maru
organizer
row@@
warn
elucidation
flap
gas@@
oxidative
whoa
1000@@
ack
ishi@@
midpoint
104
acy
feeds
ix
subcutaneous
wat@@
bulge
interoperability
preserving
que@@
flag@@
hanging
behaves
sees
triple
weapons
wedge
additives
dirty
eb@@
hernia
les@@
pituitary
versioning
statuses
upgrades
adopting
promoter
system@@
letting
polymerase
chiba
counter@@
ocular
unicenter
cds
coastal
contributes
dec@@
escherichia
knots
pleural
callmanager
catproduct
haru
kitchen
oji
worried
l2
nurses
apo@@
desorption
fees
fixtures
ging
ological
shir@@
epitaxy
fillets
fukuoka
honey
nap
vent
106
clustered
cylinders
jitter
mai
fix@@
hydrolysis
secretary
threat
xx@@
nodal
penalty
code@@
eth@@
fus@@
mudbox
nin@@
photographs
reflectivity
shun@@
cytokine
ently
gastrectomy
hiroshima
reflecting
chil@@
configures
nucle@@
photons
tel@@
amino@@
antimicrobial
comparisons
drift
functioning
london
mei@@
aggregated
amendment
biochemical
cores
member@@
tracker
cas
commerce
controlcenter
sof@@
encrypt
gears
kag@@
lcd
reveals
wit@@
after@@
airway
biomass
nakamura
sediment
targeting
aliasing
dated
10.0
congestion
fer
hyogo
kum@@
recombination
settled
sf@@
wealth
alteration
arise
hei
highway
scared
suc@@
articular
carbonate
creditors
esr
increasingly
ist
koji
rarely
brow@@
capacitance
entero@@
indesign
prophet
anno@@
sympathetic
blades
side@@
atopic
otsu
plasmas
1980
dep@@
hill
newspaper
sliders
spac@@
deliverable
earthquakes
hybridization
iterative
jms
transistor
tures
achievement
albumin
antagonist
hurry
lin
recombinant
worm
chlorine
compensate
disc@@
prospect
smo@@
comply
detachment
embryos
knife
nagoya
smart@@
thumbnails
1500
quorum
spleen
verifies
associates
cured
ella
governing
meaningful
bovine
garbage
parity
potent
salts
seedling
vacancy
lecture
multilayer
pap@@
cabling
cin@@
hysteresis
premium
dra@@
generators
ul
analytics
birthday
dope
hei@@
neo@@
subfolders
102
camp@@
doses
gp
sig@@
tired
victims
accounted
action@@
realizing
tiff
undergoing
valu@@
folding
footstep
hd@@
bridging
s2
tane
achieving
statues
ablation
autoimmune
dramatically
lation
mul@@
quilt
sperm
350
4th
atus
buyer
discrimination
ii@@
memorial
quar@@
sso
angi@@
mankind
semi@@
qualitative
shiga
stacking
peers
shim@@
followsdescription
supreme
swear
tall
yn@@
academic
aki@@
effectivity
eness
envelopes
inst@@
lotus
mas
meteorological
scopic
ο@@
soy
tric@@
analyzes
chin@@
ethyl@@
hasn
inoculation
nagasaki
possessed
treaty
consolidate
ined
ingredients
strand
coloring
kaz@@
main@@
tapes
amazing
chips
faced
nut
rem
cubes
initiative
iodine
ras
5.5
erythema
haul
pyro@@
rotations
lat@@
layer@@
macroscopic
progressed
screws
watermark
reacted
shortest
sticky
160
calm
developments
eldest
eli@@
furniture
4.5
aaa
bracket
literal
rigidity
streets
tango
power@@
separating
tus
aec@@
crossed
junctions
omit
shortened
cis
intensities
lasers
2.4
caution
ching
tsu
vegetables
aru
induces
ligament
ourselves
ace@@
belief
bounded
coherent
influenza
lister
sera
string@@
wallet
juice
transforming
canada
photometric
ay
clockwise
concerns
ducts
grows
hongan
quadrant
regenerate
somewhat
stochastic
thinks
λ
adi@@
altitude
diarrhea
optimizer
ell@@
fertilization
occasionally
powerlink
publications
wrist
disp@@
extracellular
hla
hop
sustained
fade
helium
hot@@
liquidation
strengthening
yodo
4.1
coils
creative
differed
lit
miko
pit
refreshed
suited
1200
cmd
cortical
deficient
dishes
fragmentation
nucleation
visualized
xml@@
accelerate
fire@@
injured
neighborhood
outdoor
predicting
pronounced
passengers
uniformity
vin@@
12.2
forty
tei
600@@
definitely
dyeing
fibrillation
ill@@
peroxide
poisoning
thy@@
attractive
constructor
kamo
otomo
smell
busho
chro@@
elder
od
tablespaces
deputy
eng@@
fcurves
mfg
substantial
prospects
reversal
tid
tized
12.1
anion
bing
ils
1.5@@
1984
dl
farming
med@@
restarted
ridge
yed
draw@@
eliminates
fibro@@
mino
elemental
rely
σ
46@@
b2
dropdown
juvenile
protease
ultrasound
ah@@
apis
interpret
lessons
lithography
att@@
intermediary
pec@@
shielding
contiguous
expertise
imprisonment
perception
proc@@
sty
86@@
dwelling
guaranteed
impurities
ination
reproduced
cardiovascular
isho
operand
sw
avoiding
b1
ccd
stays
450
degraded
inconsistent
proximity
tac@@
arrive
hull
pers
proceeding
centrifugal
devi@@
proud
inform
evaluations
interfacial
lam@@
wcs
10g
interconnect
ld@@
lighter
tropic
5,@@
annealed
assurance
curing
pick@@
equipments
hypergraph
resting
apartment
aries
firing
rainfall
ryu@@
stereo@@
caller
chapters
medication
navisphere
painful
cations
d2
differentiate
ining
nail
strike
issuance
photograph
undergone
villages
0.6
flo@@
icity
participating
toku@@
anastomosis
frank
grandfather
kinematic
lis@@
pj@@
qa
therapies
classifications
cmos
truncated
dag
ey
gr
granting
lunch
obsolete
psd
tb@@
worn
awarded
cataract
cer
exits
passenger
servants
vit@@
aligning
cel@@
format@@
hue
impulse
shirt
toki@@
answered
armed
basement
wrapping
123
bosatsu
clearcase
exploded
mechanics
metropolitan
plc
ruled
sym@@
kv
presumed
remarks
streaming
configurator
guinea
budgets
ichijo
oph@@
peter
default@@
display@@
regards
rural
caps
corrections
mochi
pf
stylesheet
€
dent
enlargement
kugyo
lement
mgo
stretching
ases
chan@@
dispatched
dyspnea
gli@@
torment
anode
derivation
fireworks
motherboard
osteoporosis
asp
backgrounds
colony
inverted
naga@@
ndmp
vaso@@
ell
asu
hydrochloride
lou@@
poorly
sional
2.3
cb
owns
spanish
fasteners
agencies
capturing
kanji
milliseconds
ng
obey
ture
viscous
deduced
idal
nsr
pag@@
sim
aro
equi@@
gigabit
jac@@
mirroring
organism
supplying
tpm
valence
chap
minimized
pathogenesis
unfortunately
contributor
detached
interrupted
isotope
affiliated
arose
bid
ipart
refined
smoothness
clans
implies
mep
pleasure
regenerated
vol
0000
brake
directive
firstly
folk
shed
swimming
disk@@
ename
gin@@
ici@@
vir@@
caeasytrieve
ency
rad@@
reservoir
sds
tiv@@
12.0
biggest
ey@@
flush
kawachi
trailing
ub@@
costing
likes
mini@@
phenyl@@
stat@@
1h
aes
interchange
righteous
0.8
assumptions
cartridge
chloro@@
conversions
mandibular
240
arp
black@@
eliminating
1.8
framing
lium
peninsula
polishing
synchrotron
variants
0.00@@
attr
carbon@@
heater
hsrp
140
disappearance
rescission
convex
sequencing
systematically
career
coins
eu
helix
inversion
rejection
warring
fdm
incorporating
instrumentation
stood
dear
def
delivering
exec
yag
chromium
kane
meanwhile
thrust
uppercase
column@@
dispatch
oro
bip@@
control@@
emphasized
glue
rho@@
confinement
abundant
goto
lineweight
scalability
allocations
book@@
fn
office12
process@@
slabs
sle@@
dollar
futures
phenol
russia
trapping
daddy
enlarged
pn@@
sand@@
cookies
dome
permits
cha
discarded
elisa
hun@@
impairment
translating
universities
arrowhead
compilation
py
shopping
allo@@
chair
damper
forgiving
ladies
macular
odor
tru@@
twin
7.5
bloody
carbide
ieee
purple
radiosity
slopes
segregation
wrapped
conductance
hose
mel@@
defective
dorsal
portrait
prohibition
roku@@
silane
usho
workpiece
103
broker
forecasts
fungi
izumi
pal
songs
α@@
estrogen
mighty
receivable
cysts
discipline
lag
quad@@
spectroscopic
usu@@
fusa
hyo@@
system.@@
comfort
objection
restaurant
satisfies
thrown
tunnels
deaths
ft@@
mutually
s1
scn
sketcher
bcl
circulatory
grants
stimulus
suggestions
tives
auditory
cir@@
dist
tar
classify
dness
halo@@
inducing
model@@
sunday
accepting
aku@@
chat
kno@@
masterdata
volumetric
adopt
afm
chemo@@
consume
dec
forecasting
hood
mammary
multiplication
percutaneous
rin
clin@@
fies
fractional
proliferative
fas@@
ima
mothers
port@@
tour
descendant
ick
tear
approver
compress
mirrors
tured
ces@@
landxml
mad
characterize
everywhere
fermi
gged
latent
order@@
readme
shimo@@
shinkansen
strictly
ε
abstract
associating
licensee
bol@@
markups
react
rectum
tendai
update@@
arrested
dying
thermally
appearances
irrespective
outlook12
econ@@
longest
mysql
tracheal
trax
ves@@
x86
alright
develops
frame@@
judging
kev
magnets
ou
proto@@
tanba
winding
tnf
und@@
excavation
exchanger
icp
katsu@@
lib@@
telecommunications
treats
beach
cou@@
disappears
dismiss
eddy
euler
glaucoma
r1
survive
tohoku
translators
zation
atypical
bic@@
drama
sively
vel@@
warrior
wn@@
abo@@
ax
drum
geometries
nucleotide
scopes
stitch
addressing
avoidance
beer
d1
epoxy
impaired
superficial
tabular
vote
0.001
alphanumeric
ged
handwriting
icon@@
num@@
prod117
anchored
cg
focuses
hang@@
shoes
ass@@
box@@
etiology
ices
oper@@
trademarks
transmitting
vinyl
4.2
grand@@
laparoscopic
stl
campus
dun@@
groundwater
indent
merchant
neighbors
query@@
rep@@
semantic
anal
crew
df
hotkey
vibrations
wired
macrophages
maximal
accrual
activ@@
church
colitis
job@@
lawful
vb
extrac@@
ory
severely
silicone
t3
ala
bil@@
dpi
elucidated
mar
multiply
occasion
delegates
fcurve
hosting
immigration
reflectance
inbox
prostatic
cal
feasible
filler
readable
unlocked
uterine
application@@
lipo@@
suffer
wherever
abc
election
revise
smith
possess
posting
property@@
steering
tax@@
warriors
insu@@
mitochondrial
record@@
validating
cobalt
iw@@
pdm
readers
repositories
rounds
sophisticated
tes@@
bindings
butsu
expires
koto
replistor
rhythm
spectrometer
incorporate
possibilities
soap
wr@@
baked
chunagon
enter@@
fri@@
girder
tability
tracer
enzymatic
sentenced
stop@@
tened
thermodynamic
1.7
onenote
pelvic
pumping
pylori
roofs
sb@@
sprue
delimiter
gluco@@
oval
pulling
talent
abs
aside
hydrophobic
izer
tendon
teri@@
ade@@
immobilized
ops
qualifier
ankle
arithmetic
fuku@@
hon
phospho@@
photoluminescence
republic
cent
cops
aecc@@
attaches
mutsu
pathology
workset
chlor@@
ing.@@
instanced
real@@
beads
intellectual
showa
zeros
5mm
depicted
figure@@
grafting
horses
malignancy
ordinate
pyri@@
cx@@
kokushi
sad
corp
facet
nutrient
para@@
β@@
inf
lactic
nishi
pray
spar@@
apache
bat@@
dell
expressing
mf@@
nsr@@
pants
parse
prostate
retin@@
cough
del
astray
ich
judgement
konoe
oste@@
quenching
querying
rounding
vitreous
courts
eruption
far@@
learner
reign
4,@@
album
ancestor
artist
ur
wow
delegation
eleven
glands
intraocular
oh@@
privileged
sheath
vec@@
49@@
actu@@
legi@@
liked
phrases
bunch
factories
uom
μ
comprising
modelling
regi@@
sla@@
soup
cloistered
establishes
ith
officially
wlan
acet@@
akira
bot@@
ether
flowering
hik@@
hil@@
pavement
poles
ree
soci@@
conferred
izu
networked
temp
municipality
tagging
xsl
alternating
lowercase
mrsa
resizing
torus
bla@@
electro
mating
packaged
subtype
territories
baking
clean@@
consulting
navy
pay@@
prod75
alle@@
cutaneous
rule@@
transit
xes
zooming
guilty
notch
illustrator
pun@@
rh
superuser
sv
tame@@
voltages
broncho@@
deities
dita
fibrous
jsf
sak@@
traced
workstations
dcl
dipole
gran@@
pping
thumb
yourselves
int@@
ometric
reli@@
wins
cavities
dystrophy
fbi
lized
pcb
ret@@
revocation
seats
swatches
timephased
automotive
info@@
paralysis
sq@@
comple@@
contributing
fallen
lite
surprised
attend
phantom
polynomial
accent
broadband
fitted
gf
routines
invitation
jim@@
perturbation
sta
standpoint
57@@
uncheck
ature
connection@@
eap
integers
oa
cao
guns
platinum
polyp@@
teachers
vic@@
eaten
feelings
heavily
standardized
urea
cea
spe@@
weird
correcting
exploration
longitude
michael
picker
portfolio
shap@@
thailand
brace
confirms
bore
enhancing
ped
piston
diver@@
fea
forgot
planted
dimethyl@@
kagoshima
mentions
oems
syslog
vr
ious
retina
yosh@@
absent
banks
exporter
japonica
mdb
aspiration
clauses
hematoma
musical
swim
clear@@
cru@@
hc
p53
qanywhere
splice
diaphragm
e2
exchanged
hcc
pushed
reputation
rt@@
hemodialysis
mayor
premiere
prop@@
ables
cognitive
collects
holy
medieval
morph
nk
pigs
space@@
accused
bead
ileum
nov
shingon
tations
dings
implied
embryo
f6
ffs
manganese
precautions
recursive
retinopathy
design@@
dilatation
ext
fp
joe
laminated
liquefaction
opengl
pathy
recreate
afternoon
australia
cookie
epidural
goshirakawa
inhibit
manifold
responded
ado@@
indications
ldl
lied
move@@
see@@
sf
ntt
stain
toe
vt
ich@@
lb
rolls
sing@@
unbelievers
uncertainty
zi@@
confusion
constituent
unsteady
willing
entitled
incision
personality
sely
suggestion
trauma
denti@@
enti@@
exhibition
fol@@
forbidden
projections
pumps
remainder
surfactant
asuka
emperors
flavor
tradition
abort
ntfs
ru
sentences
catos
chipsets
faculty
oscillations
potenti@@
rheumatoid
ventricle
aggregates
divides
fused
gpo
independence
pla@@
spotlight
sumi
.7
actin
dummy
grating
osteo@@
sole
shops
daytime
postoperatively
announcement
begun
cart
cit@@
cont@@
nodules
shinshu
snap@@
7.1
reproductive
tangential
unclear
anomalies
auth
bashi
buying
cultivars
ography
refreshing
resetting
sigmoid
subway
titer
uno@@
decomposed
embo@@
kondo
recipe
shig@@
tosa
vis@@
dissipation
david
disturbances
kojiki
lds
lieutenant
unloaded
commas
dash
i.@@
magazine
regent
stance
adapted
elsewhere
evident
m1
microorganisms
o4
vd
monolayer
polar@@
readily
skipped
revolve
advertising
bite
confirming
expire
lization
pn
rever@@
sane@@
spi@@
alliance
kyu
polycrystalline
spraying
tant
yor@@
512
floppy
masa
metal@@
pathogenic
subordinate
tha
bal
disbelievers
enum
kaw@@
musashi
ski
tx@@
wd
anticipated
bir@@
bounce
dele@@
disbelieve
displacements
grasping
intranet
kom@@
pharmacological
storedge
stal@@
bes
crucial
kim@@
maturation
nitric
repeats
shon@@
uncertain
afford
artisan
deteriorated
fabrics
followers
michi@@
pass@@
aria
cache@@
fle@@
germination
observer
sab@@
secondly
site@@
vomiting
citizen
entropy
unexpectedly
bitmaps
unfold
anim@@
cow
dram
hypertrophy
volunteers
chooses
hai@@
hop@@
sero@@
telephony
fdo
svg
õs
dev
error@@
pharmacist
sible
sip
surplus
ast@@
distributing
ipt
reproduce
tokens
wisdom
computations
ion@@
kujo
tensor
transgenic
wl
acro@@
curb
jcl
refining
shima
une
-2
abroad
graduate
naka@@
thrombosis
undertaken
walked
woods
deeper
l.@@
outward
pinning
placeholders
sky@@
sui
vertebral
depressed
flex@@
flora
pulp
shoen
simulates
wonderful
zno
5.1
adjuvant
consequence
enemies
interferon
lifestyle
mike
reflective
seawater
topography
crystallinity
heights
nn
qui@@
reagent
reversible
thrombo@@
tidal
wastewater
youth
9.0
blot
california
chaos
finishes
kami@@
murdered
param
previewing
dation
expose
owari
railways
requisitions
coincidence
effusion
embedding
neur@@
scintigraphy
sensation
spoken
barium
kiyomori
multic@@
wizards
jim
medial
peroxidase
sug@@
calcification
communicating
cooked
dys@@
ities
predominant
subtract
celeron
discontinued
insect
miyoshi
x.@@
funding
sealed
shorten
tweak
boot@@
checklist
ile
kyu@@
sarcoma
sought
uclear
adapt
issuer
liabilities
pf@@
sushi
unsuccessful
nitri@@
tough
adsor@@
appreciate
cherry
conver@@
cry
cx4
destructive
spinning
toki
acls
computes
gradients
gradual
selec@@
sit@@
altering
appoint
notices
propagating
sewage
tender
behavioral
genous
gor@@
iaf
impacts
mistakes
pra@@
toba
vis
cascading
iner
kofun
linetypes
merely
physique
queried
sangi
sg
animatable
complaining
employs
epidermal
investors
rearing
spaced
ulate
ath@@
carcinogenesis
coordinated
eki
j2ee
namespaces
ncache
orientations
simplifies
complement
conclusions
exciting
inhabitants
ipp
phonon
reception
sanitary
style@@
tero@@
uta
≧
agrees
bulb
disciple
ejection
gains
intrac@@
let@@
meta@@
unauthorized
1.0@@
blame
compose
explaining
investments
rabbits
centr@@
correlate
hydrodynamic
inci@@
intraoperative
okayama
repor@@
snow@@
dotted
ind@@
nf
priesthood
batteries
compressor
dominated
folded
pia
accidentally
ator@@
centering
ometer
detention
enormous
redirect
sclerosis
dig@@
golden
inclination
monks
voip
hover
los
uki
valley
aring
breathing
crimes
disabilities
fluoride
insects
kaido
rence
repetition
tm@@
108
conductors
rai@@
rfc
systolic
tiny
uranium
matic
prize
validates
acrylic
cerebellar
relatives
yard
accessories
lag@@
mail@@
ongoing
pension
pores
resolutions
solicitation
violence
anda
herein
humanik
kir@@
quadratic
workplace
crest
ishikawa
kor@@
monday
product@@
takauji
tapered
5th
amplified
magnification
no3
nyorai
obstacle
proceeded
specialist
virtually
withdrawal
.ini
doers
dude
ishu
sar
successively
touched
arrangements
dbms
enhances
quarters
representatives
scr@@
terminates
1024
avi
concentric
hexadecimal
hisa
negotiations
oscillator
patching
thri@@
but@@
cotton
esters
fukushima
ileus
locators
prod134
sou@@
1983
earliest
gly@@
gyo
lcrs
nao@@
radii
resurrection
collectively
dtd
seriousness
comprises
rpm
distinction
irrigation
melan@@
msfc
priorities
styling
tel
44@@
advancing
indian
invite
nori@@
ped@@
reproducibility
amylase
grammar
hab@@
hen
las
subdirectory
substantially
tomato
utf
follicles
forwarded
modulated
ascites
choshu
diverse
foil
ritual
stream@@
victory
integrates
scopy
visor
zooms
3c
cra@@
crea@@
duodenum
niigata
secre@@
tionally
transferase
variability
whi@@
ambulatory
bly
cosmetic
destinations
lov
sequentially
shp
spect
stretched
wimax
distorted
historic
shel@@
volcanic
yamashiro
ane@@
fran@@
jaw
laminar
maki
manipulated
nichiren
plugins
topo@@
con
enclose
indo@@
luc@@
relates
simpler
tiered
2.6
anger
causal
erg@@
facebook
icmp
traverse
weblogic
.8
ambi@@
emulsion
fen@@
mem@@
mk
nav@@
noodles
pid
skinning
subunit
thrombus
wo@@
banner
cleavage
dpm
envoy
hazard
repaired
comprise
inclined
ocy@@
pharaoh
soga
splits
watched
wives
ashes
attracted
circulating
geothermal
lid
mf
statutory
annotative
commitment
demo@@
inv@@
patterned
__
aches
constraining
hemorrhagic
hydrate
hydroxide
image@@
kanpaku
profits
render@@
2a
access12
cargo
filter@@
lers
mus
ninth
professionals
refractory
dealt
figured
gated
hair@@
hard@@
instantaneous
setups
sourceone
strips
surge
tery
abandoned
analy@@
azuchi
federal
ferro@@
from@@
pinned
preserves
stokes
british
codec
develop@@
greenhouse
harmful
ida
lenses
ripple
shinsengumi
submucosal
c3
modular
alternatives
appraisal
buses
corresponded
deciding
fukuchiyama
minimizing
surprise
ush@@
yielded
beds
booting
chromosomal
endogenous
monomer
obj
objec@@
rene
rob@@
accessory
antitumor
eigrp
nerves
rises
ushi@@
attorney
cavitation
funeral
manuals
minerals
mt@@
sted
wards
acceptor
daigo
geographical
molded
oblique
pel@@
rhe@@
sag@@
seeded
strengthened
artwork
henry
momoyama
potato
predictions
rebuilt
supercritical
wells
σ@@
colli@@
continuation
inspections
microphone
df@@
meso@@
myelo@@
posthumous
promulgation
10.1
qty
seeding
tting
xslt
honest
ingredient
innocent
rocket
rope
shoku
tat@@
detailing
ema
ford
knees
spacebar
stabilizing
tones
ulus
150@@
adam
clusterware
electrolytic
expectation
fans
liable
liteview
refreshes
shing@@
ster
tol@@
wishes
yamagata
yoshida
apex
bullets
darkness
debit
ifeature
imag@@
inherits
instructor
mediastinal
mmhg
seized
39@@
arity
compiling
kuni@@
para
sors
stipulated
block@@
feels
lined
steroids
tomcat
asis
awareness
foam
strengths
unselected
09
beast
cedar
hepatectomy
illustrations
interruption
kimono
malicious
purchases
transduction
vul@@
workforce
3.4
beef
chaotic
crypto
realtime
toshi@@
arteriosclerosis
ox
poin@@
subscriptions
branching
certifying
chronicles
collateral
elliptical
lm@@
mit
nick
praise
solely
ye@@
immature
influential
mari@@
reopen
stent
tex
troubles
aureus
prognostic
protects
unchecked
associativity
gotten
promotes
s.the
amida
histamine
sms
antibiotic
attended
centric
constantly
exten@@
hcl
ides
immunological
leg@@
loo@@
tropical
arises
berg
centerlines
fading
igo
interacting
ome
proportions
reverses
suke@@
toilet
wedding
0.7
boring
scholar
underneath
allow@@
commen@@
defeat
filesystem
millions
parsing
wmi
aya
exciton
nippon
solo
sulf@@
thorax
199@@
achievements
hung
itis
railroad
10th
1982
bugyo
fla@@
grey
perceived
sucrose
5.2
6.7
corn
exiting
ire
shifting
tech@@
termin@@
twisted
0.25
epidermis
nephropathy
purged
uk
whichever
wp
21st
contaminated
inappropriate
stor@@
bundles
credits
gpa
higashiyama
0.1@@
boxed
cows
cyclotron
digestion
hydroxy
print@@
change@@
cleaner
directx
hungry
stre@@
underline
a3
angiotensin
departure
lawyer
slurry
dem
moderately
quanti@@
resins
sato
smoother
thio@@
cour@@
crane
encapsulated
ick@@
memories
sman
ute
complementary
gender
master@@
1970
claimed
diff@@
dist@@
indirectly
irs
preceded
rescue
ust
vaccination
bp@@
mx
tis@@
tou@@
braces
oss
tls
topological
blanket
discharges
event@@
lumen
marquee
mie
pst
sp2
torsion
riser
wakashu
agv
antiferromagnetic
delays
integrator
jpg
polarity
redirection
responsibilities
scre@@
situated
superconductor
yamada
ñ
automobiles
circum@@
deactivated
finer
hemoglobin
hero
marry
masa@@
masters
padding
proposals
quarterly
stats
buddy
cab
daughters
lca
rb@@
remo@@
captioned
cytochrome
echocardiography
env
jt
lips
overriding
pink
rj
stripe
tum@@
acetyl@@
collaborate
fastest
inherent
latin
loopback
paradise
scc
shizuoka
wafers
forcing
genomic
lap@@
sequ@@
taisha
tei@@
transcript
é@@
cher@@
chron@@
spool
supervision
tears
employ
gentlemen
globalization
hire
hl
itable
resembles
unspecified
walter
.@@@
79@@
88@@
borrow
horn
microbial
sparc
clarifying
emergence
iri
kanagawa
dip
fo
kagami
neuron
prednisolone
spell
succeeding
tance
vip
dehydrogenase
entrustment
lipids
multiplying
tide
xi
zon@@
ancestors
effec@@
fulfilled
geological
hb
jan@@
keyable
machined
offshore
partitioned
stole
undergo
yamaguchi
butt
clipped
fy@@
kumamoto
particulate
rommon
ticks
alg@@
constitute
followings
officename
raises
selectable
sulfide
absorbing
aero@@
attribute@@
cl2
dg
engagement
gatekeeper
lanes
restarting
banking
chooser
dono
leak
pathologic
producer
resized
rhiz@@
sins
translates
beings
fuku
modeler
reflex
was@@
xrd
active@@
breath
concentrator
coulomb
droplet
gp@@
hexagonal
jun
lob
rang@@
secretory
specialists
yoko@@
anniversary
endoscopy
mbps
monkey
optically
photoelectron
pig@@
secrets
soldier
follicle
genera
ln
poisson
repairing
tap@@
cryptographic
grid@@
jiggle
lae
mere
mu
olysis
ophy@@
polished
relocation
royal
twitter
fifteen
fir@@
pelvis
radiography
setsu
sity
surrender
tetrahedral
wash
abraham
aichi
bacillus
dismissed
ena
epidemiological
fission
sek@@
toolkit
admit
bowl
cfg
drastic
evoked
hinge
holiday
jugoinoge
tobacco
2o3
centimeters
contacting
contingent
dilated
legato
lor@@
mailing
mud
phil@@
phosphorylation
psychiatric
tester
echo@@
srdf
umin@@
unit@@
wherein
xl
aerial
extraordinary
james
kab@@
paralle@@
transistors
yoshino
arsenic
connec@@
crease
forum
journey
method@@
mitral
steal
tungsten
droplets
ered
flattened
innovative
iwa@@
lang@@
phosphatase
stolen
cere@@
cifs
katsura
neutrophils
remedy
taisho
vibrational
~~
attr@@
carbohydrate
mute
pk@@
shoots
stocks
yaku
2o@@
alphabetical
cum@@
hunt
meals
permeation
rds
silicate
therefor
θ
biwa
brewing
designcenter
detectable
oro@@
poli@@
skew
uria
vegetable
abolition
iling
millimeters
nationwide
10.2
explanations
inten@@
mann
reasoning
avi@@
erythro@@
harvesting
mortar
notifies
prepayment
retail
ship@@
sibling
stimuli
conformity
dimer
extensible
ingestion
ntp
pat
rd@@
sakai
segmentation
solvers
zn@@
cant
invented
precipitates
rot
suction
italic
likewise
mainframe
multidimensional
onal
responds
a.m
dine
lu
relevance
supplement
ational
cycling
endcap
glycol
safe@@
weakness
n.@@
smoothed
sp1
todai
107
harder
hips
leadership
14.@@
akita
contr@@
cropping
duc@@
rfq
submits
traction
udf
abundance
accelerating
cytoplasmic
enumerated
follower
green@@
grounded
oct
satan
uti@@
alien
blob
flexfield
forgiveness
h2@@
mec@@
millimeter
neutr@@
radiative
replies
subtotal
suture
tachibana
timesheet
trajectories
waits
1,2
analytically
budgeting
corona
experi@@
mechan@@
rollup
thinning
tial
annular
hint
ising
originates
postal
reconnect
rim
stor
topologies
violates
booth
breakfast
extremity
habits
hormones
obstructive
pip@@
skeletons
superconductivity
tual
cats
crashes
dv
elevator
lion
mtext
predictive
worlds
delete@@
foo@@
manor
melanoma
til@@
∞
aldehyde
attain
backwards
custody
day@@
embryonic
fortune
hap@@
mized
pap
pzt
reductase
reserves
reviewer
thoughts
aden@@
deli@@
graph@@
lm
saigo
able@@
baselines
implementations
ota
lubrication
oligo@@
sectioning
sixty
staphylococcus
toon
56@@
aborted
chairman
doe
earnings
philosophy
untreated
infocenter
kd
maxillary
no.@@
pleased
screen@@
alternately
cleaned
kashi@@
alities
clas@@
eff@@
neonatal
quotas
hemisphere
immersion
ocytes
pic
riding
somatic
town@@
0x
43@@
approvers
cic@@
dutch
embolism
etherchannel
nia
stabilize
tada@@
tire
vtp
x2
acth
anth@@
aqu@@
bronze
deg
fluidized
izumo
optics
prod153
proprietary
shunt
stepped
throat
127
even@@
excimer
full@@
htm
infec@@
mite
replenishment
spor@@
3h
amyloid
bers
calligraphy
concave
ets
loves
0.9
cancels
christmas
conducts
crp
docked
gravitational
imaginary
insured
jvm
mainstream
nin
ny@@
plantype
sac
spheric
tickets
1868
edi@@
lungs
supersonic
unsaturated
1600
chamberlain
eeg
effected
grandson
interfere
kiyo
meshed
mullion
option@@
osis
pagoda
soba
spectro@@
bei
cau@@
easiest
etch
failing
goddamn
midnight
relocated
whereby
yan@@
crosses
ordinances
6.2
asymptomatic
cyte
flowchart
hunting
inic
inno@@
interpreter
obi
pivots
solves
cing
dt@@
intersects
logarithmic
posed
previews
rough@@
seasons
skull
trays
dilution
fbik
fru@@
indentation
nets
outbreak
aided
autonomic
bare
cut@@
globulin
ham
implant
nuts
showcase
v6
11g
contractor
dictionaries
ecosystem
initializing
oy@@
procurement
rea
suits
switch@@
ð
8.1
livestock
lps
surgically
conf@@
fg
governors
lows
seated
unwrap
dbmlsync
delmia
er.@@
ifc
possession
rb
spin@@
sugi
borne
campaigns
coke
depths
efficiencies
emotional
extinction
inward
lean
plugged
speakers
terminating
timed
transported
wavelet
asse@@
jing@@
mutants
omi@@
recalculate
struck
voluntary
commercially
nap@@
practiced
qualitatively
simplification
tos
xpath
decal
dermat@@
downtime
friday
inger
kyogoku
oscar
pg@@
refund
stepping
abbreviation
classpath
eh
filament
fit@@
histo@@
implications
leveling
rot@@
115
bootable
inference
mitsuhide
tn
advertisement
astro@@
boost
chris
coin
ctl
echizen
feces
function@@
gist
histories
liquidator
lowers
navigation@@
ophthalmo@@
ration
smartart
str
tonic
bolts
exploit
hama
hatches
izes
jus@@
peg
scen@@
store@@
swords
thre@@
unilateral
cip
euro@@
qing
silhouette
transplanted
comp
faq
imi@@
kie
pep@@
tekla
track@@
xs
amplitudes
aster
carbonyl
ck@@
dismissal
empire
facets
hex
led@@
p.m
parental
runoff
turing
branding
depletion
enlightenment
lest
nls
advantageous
amines
anticancer
auction
bab@@
ico@@
kintetsu
len
ortho
promptly
qt
recognizing
reused
trunking
vation
dislocations
document@@
mtu
tomb
wak@@
φ
bushi
catalyzed
dsp
feeder
ipx
kidding
shimazu
stag@@
zeolite
5.3
asing
constitutive
nps
oxidase
sle
surf
xls
0,@@
anaerobic
approaching
centre
compositing
confused
drunk
ecad
oi
yokohama
biology
ceremonies
kbps
rers
sdlx
bud
database@@
eco@@
england
lcr
lobectomy
oni@@
pha@@
retardation
short@@
6,@@
autocorrect
dn@@
emerged
municipalities
radians
semiconductors
shiba
uri@@
1981
competency
corrective
hok@@
liquids
modi@@
obstacles
recycled
rel
sectors
usability
debtor
fibroblasts
sustainable
4.4
buffered
cream
cutoff
dating
guests
heike
hino
hints
merges
mikawa
nagano
statistic
ulo@@
ultimately
xin
begin@@
dancing
erased
feb
install@@
mis
slit
torr
treasures
γ@@
chang@@
disasters
dof
foundations
fts
impacted
obtains
profiler
sk
stand@@
unjust
anesthetic
burner
demanded
fake
item@@
mexico
overload
pod
porosity
assembling
call@@
feed@@
inferred
softening
trypsin
duplicating
gang@@
gation
haku@@
inte@@
itor
oring
pel
prod44
ris@@
angu@@
calc@@
cef
f3
hyak@@
oly@@
seams
shak@@
src
uploading
zaki
applet
believes
break@@
class@@
extremities
hp@@
lex@@
nec
origins
pathogen
reinforcing
steep
summarize
veins
6th
bluetooth
chondro@@
grasped
idi@@
kinki
maro
photovoltaic
220
aggressive
constituted
diagnosing
flooding
inde@@
menting
sal
sendai
step@@
tread
ug@@
wings
73k
antly
arthro@@
disciplinary
dopamine
lifting
trick
warrant
attract
bomb@@
diodes
frictional
intuitive
loid
occupy
ternary
ashima
chujo
disciples
happiness
invariant
rectangles
settsu
singular
anodic
constituents
crypto@@
direc@@
extensively
histogram
informational
likelihood
occupational
subfolder
thigh
ufs
uni
dressing
gasoline
pei
pencil
quaternion
ratings
search@@
sep@@
shore
tori@@
unassigned
wood@@
7th
aling
broad@@
cerebrovascular
deprecated
projecting
remodeling
strands
textured
arranges
gait
ib
interpolated
ov@@
presently
revolving
sputum
walker
dest
electronically
holidays
jutsu
ring@@
shikoku
surfac@@
telecommunication
weakly
wiki
2o
ald
episode
mies
negotiate
shelves
uli
underwater
12th
band@@
clerk
ef
esis
example@@
neuropathy
physician
plenty
v1
3.6
750
arrhythmia
ayama
breakpoints
concentrate
cular
fron@@
kick
unlikely
uro
47@@
cadmium
dable
decade
handicapped
herpes
iris
lacking
owning
saionji
snapview
solute
stressed
58@@
heap
kii
learners
minami
ney
pthread
qualities
unc
156
201
chim@@
drop@@
ese
fas
hur@@
ment.@@
purging
rust
scrap
steeringwheels
threats
verses
100,000
ao@@
centerstage
gifu
higashi@@
kano
mapper
occupation
prod181
shar@@
vy
zaemon
brands
conf
dashboards
fuji@@
ght
investigates
kob@@
kumano
lesser
performer
rearrange
referential
vl@@
bat
bed@@
colleagues
dfs
js
jusanmi
ql
voices
anna
caustics
cyp@@
darker
lex
tae
tomo
wss
arily
dialing
fathers
invaded
paul
souls
spreadsheets
surround
vacancies
11.@@
antennas
encounters
enjoyed
fuels
jav@@
kpis
mesenteric
productive
resonator
revoke
2n
ath
enlarge
hyperlipidemia
igm
kal@@
kawasaki
msg
myosin
project@@
turbo
15.@@
abrasion
axisymmetric
bd
everyday
kuro
shearing
smartview
cook
deoxy@@
dp@@
grapher
moiety
oned
owb
rebuilding
revelations
ductility
inclusions
mitochondria
proc
provi@@
spending
bn
excludes
hdl
mess
nmo
notepad
plasticity
recoverable
restricts
thicker
trusts
v.@@
arly
bump@@
credential
fishes
house@@
incineration
lionbridge
lv
win32
42@@
bicycle
callouts
expecting
grayed
kyoku
pastes
queued
spa@@
tang@@
atpase
digitally
histologic
invention
israel
physicians
syl@@
adjudication
agar
blowing
blu@@
consequences
current@@
disruption
experiencing
michi
newborn
opathy
suff@@
sunlight
yielding
cue
fellow
invocation
prompting
rdsh
reassign
viscoelastic
approximated
dial@@
locus
quin@@
reusable
touching
tuber@@
barrel
causative
conditioner
cx
flies
polystyrene
ann@@
conforms
eing
ere
fab@@
forearm
isothermal
kis@@
solitary
abuse
drag@@
dwt
emitters
lasts
pneumatic
teachings
thicknesses
thr@@
threw
tter
whe@@
azo@@
cmdlets
devoted
erythrocyte
follicular
forging
mhd
philic
adl
cytotoxic
ichin@@
justifiable
legends
litho@@
mach
predominantly
southeast
sterilization
3a
bipolar
chit@@
curriculum
dyes
fcc
grained
modul@@
programmatically
remittance
reversing
sian
squid
uid
writable
7.4
bcc
client@@
cmp
person@@
prop
remind
tac
tanks
thro@@
xed
13c
ared
asp@@
confidential
informations
inoculated
magneto
milestone
opposition
uninstalling
.htm
blue@@
consensus
ct@@
deviations
ech@@
expectations
impor@@
ket@@
massfx
mouse@@
negatively
quinone
scoring
share@@
tales
yon@@
cogeneration
colonies
comm@@
fier
fitness
formaldehyde
generative
golf
hbv
inated
reconcile
ssid
amachi
arabic
baseball
declarations
dit@@
parathyroid
unloading
amed
coordinator
dered
dermal
diagnoses
exchanges
featured
shoulders
spher@@
vac@@
workbooks
www.@@
170
3k
exi@@
harima
lpn
nodule
angio@@
fd
gak@@
hypertensive
intrahepatic
nf@@
parallelism
servant
shirakawa
spontaneously
upset
yoshinobu
attributable
dairy
disturbed
host@@
rr
servicing
stimulating
waveforms
0.2@@
audit@@
cep@@
lip@@
macrophage
movable
queueing
restaurants
ruptured
subdivisions
tiling
valent
applicants
aso
dehydration
dsr
excised
ganglion
leds
massing
oracleas
thinner
ulcerative
governance
lieu
satellites
warned
aceae
analgesic
cardio@@
dmx
hsv
lipase
dh
dtrace
exponent
expressway
hak@@
shaking
ster@@
ural
walkthrough
airflow
azole
dsc
ene@@
graded
menu@@
orifice
owe
symptomatic
zers
backbone
distributes
fundus
jdk
mrp
peritonitis
plural
torsional
0.8@@
bru@@
elected
hepat@@
logists
photonic
sung
tization
alzheimer
capacitors
clarifies
dian
domin@@
eg
eus
garment
piles
vag@@
yoshimitsu
≒
architectures
bob
cursors
lee
lla
nur@@
oth@@
probable
s_@@
tuned
1023s
13.@@
480
amura
aro@@
av
directives
dsn
nen@@
prosecutor
retar@@
salivary
stiff@@
subclass
subtab
chrome
conical
dges
enrichment
goro
inp
kana
lon@@
myo
nesting
parkinson
publicly
resource@@
shotoku
treasury
ylene
cia
coatings
equivalents
hachiman
mycin
neuronal
plaque
pushing
carriage
crossover
displace
eo@@
formations
had@@
immunoglobulin
personally
relocate
shiro
shower
sters
triad
0.3@@
5.4
ards
folds
ito@@
originate
saki
taishogun
ux
von
alcoholic
cdp
coexistence
conflicting
cx3
d3
dead@@
hepatocytes
iyo
look@@
matsuri
retrospect
tenth
tyrosine
1mm
2.7
charlie
curative
occupies
toc
1d
bread
editions
gestation
morphine
rev
7,@@
cmts
counsel
losis
mls
no2
retargeting
guan@@
histopathologically
metabolites
rvt
sang@@
separates
believing
cgr
evolved
fare
halo
naka
10mm
cryo@@
etsu
gai
genealogy
ig
mitsu
mq@@
simplicity
underscore
ung
casts
derives
ipr
kane@@
l1
magne@@
mausoleum
roman
somehow
cd4
dscp
fon@@
lay@@
okami
prefixes
sleeve
times@@
abc@@
borrowing
distribu@@
eric
gels
mullions
multilingual
pdu
persist
sas@@
shipments
tolerant
cartesian
eligibility
inland
seri@@
simplest
conciliation
deliverables
dermis
endeavor
extinguished
flesh
granite
rich@@
vesicles
cardiomyopathy
care@@
ceased
facilitates
idx
intermediation
muco@@
paired
poll
rm@@
scrip@@
subsets
wakayama
yoshit@@
battles
burial
charcoal
dramatic
icin
iec
incidents
mates
obligor
opt
tine
translational
adopts
angina
compost
detectors
faction
invokes
lymph@@
phyto@@
ppd
responsiveness
ume@@
washed
ytes
98@@
coccus
intubation
ists
nari@@
nil
oshi@@
pyramid
rollouts
sedimentation
affair
approvals
arab@@
bag@@
binder
chin
cousin
decides
ement
fiber@@
filaments
fulfill
hh
hira@@
jones
nay
posi@@
rods
seller
ville
fate
glyph
mound
shafts
sma
std
amphi@@
demanding
dressed
ek
epidemiology
megabytes
periphery
uneventful
visual@@
165
decree
prin@@
salmon
shortly
arian
efflorescence
formulae
norm
radiological
specialty
tf
aerosol
arc@@
conformation
economics
oxi@@
plateau
quoted
shutter
sumo
vt@@
yz
adhe@@
flour
fum@@
hid
lsp
pbm
tica
1979
composing
diastolic
fl
ido@@
insensitive
iv@@
pledge
populates
subdiv
toshi
135
advised
baseline@@
c2@@
hay@@
heartbeat
nal
predecessor
progresses
semicolon
til
traumatic
ately
cad@@
corridors
drew
emulator
etl
godaigo
illuminated
lx
manifested
nodular
reasonably
scrolls
spa
spider
109
7200
benzo@@
bifurcation
cease
flagged
flat@@
initiates
liber@@
otani
realizes
shuttle
susceptible
thickening
yer
chastisement
init@@
jig@@
pw@@
redox
rela@@
sod
weak@@
117@@
144
alcohols
devil
ecological
hepatoma
hl@@
iton
plo@@
preferable
projec@@
pulley
sales@@
troop
advocated
alarms
apping
compulsory
constrains
docuplane
hired
kde
logist
motive
saline
spl@@
tokai
vor@@
arranging
biosynthesis
boiled
corpus
coun@@
egf
exacerbation
jukebox
pca
proving
refuge
unhide
anus
button@@
embolization
gens
mito@@
painter
pam
reg
splitter
tent
tia
bling
comb
excavated
fuk@@
ras@@
wage
zukuri
blocker
cholecystectomy
fat@@
hoping
parameterization
quarantine
service@@
smear
sonic
yamashina
dendritic
gridlines
okubo
precious
siblings
spirits
uric
vocational
2.5@@
accumulate
anchors
assure
caa
debris
diluted
eti@@
fibroblast
harbor
necrotic
stub
surname
wer
case@@
condition@@
gaseous
photographic
remuneration
docsis
exp
festivals
fool
hear@@
kawa@@
sciences
suspicious
viable
119@@
borrowed
cheap
gers
latex
nx
soi
tane@@
wea@@
arial
body@@
conjugated
joke
retrospectively
tism
where@@
you@@
che
gasification
msi
polyimide
sant
udaijin
acetone
ack@@
algae
butyl
erection
esti@@
fec@@
fled
mgr
normalization
overwriting
persisted
shijo
shinano
vrml
word12
112
ache
alism
azimuth
docking
dreams
ecg
shige
spike
streamline
version@@
6.4
alia
die@@
fan@@
governmental
knockout
mam@@
palsy
relativistic
sects
spark
textile
vo
250@@
aberration
barley
columnar
deadline
desires
emerging
foot@@
iro
mark@@
nevertheless
opponent
parameter@@
tage
vbscript
viewers
winning
workplan
cus
girlfriend
hvac
linearity
multilevel
negligible
persi@@
tri
undone
violent
bles
cytokines
forwards
ichikawa
salinity
ted.@@
calculus
cw
farms
featuring
gateways
kira
lamin@@
marginal
match@@
orally
payable
rf@@
shaw
sue
theorem
academy
advisors
bitlocker
forgotten
hydration
inhibits
ja@@
overlaps
root@@
yang
zei
1b
adap@@
compartment
finch
longhorn
michinaga
pathophysiology
prod182
questionnaires
saku
tanabe
thirteen
veri@@
widespread
inflow
inoue
italian
nie
renewed
tta
.in
bacteri@@
customizable
cytology
hydroxyl
outcomes
pivot@@
reve@@
scrolling
transducer
3550
coherence
cts
customs
dimethyl
esoteric
excel12
itanium
ous@@
prospective
.txt
2,000
engaging
hob@@
inhibiting
jail
mix@@
mole
spam
svc
vortices
dat
diff
fidelity
homogen@@
netware
nis@@
portlet
resistive
seii
transmittal
widening
xox
copolymer
deselected
extra@@
ligh@@
nig@@
poets
regulating
sport
subscribers
collar
cps
das
decoration
ichika
kanze
loud
multiplies
session@@
thermoelectric
210
fulfillment
glossy
polling
predicate
rein@@
sealing
yte
zr@@
〈
･
chir@@
christ
conscious
deserve
familial
inductive
intentionally
invoking
lun@@
pointers
prerequisite
quran
sampler
seamless
sheep
sheet@@
throwing
unaffected
3.8
ange
creditor
hazardous
hiei
law@@
medic@@
multivariate
reviewers
77@@
anytime
ater
b.@@
brains
cantilever
distinctive
f.@@
locates
loses
meanings
photosynthetic
stan
talks
valuation
converters
exemption
mide
mune@@
parser
pes
provisioned
rites
roll@@
shake
smex
tennis
comb@@
escal@@
habitat
homologous
quark
screened
semantics
si2
sor
spores
toes
aizu
cerebrospinal
datetime
fossil
genotype
hydrocarbon
intending
payload
renovation
ribs
〉
actuators
grp
ianywhere.qanywhere
larval
shichi@@
takam@@
tox@@
visi@@
canopy
lot@@
magnetron
saturday
sten@@
ucle@@
15th
ashed
dex@@
disper@@
encumbrance
epilepsy
hardened
izations
phospholipid
pneumo@@
reflux
0.6@@
11th
68@@
acces@@
advancement
bathroom
collation
gob@@
milli@@
nes
otsu@@
reperfusion
spon@@
wash@@
barely
gaining
ints
jumpstart
lamina
me10
photography
radioactivity
securely
subtraction
unresolved
〕
78@@
dissemination
maj@@
program@@
requ@@
scorecards
territorial
transi@@
tween
abounding
advisory
antivirus
calf
cuix
eling
episodes
heparin
investi@@
segmented
supplemental
tgf
toluene
〔
7.2
asp.net
boun@@
custo@@
granulation
icho
inelastic
isha
linker
palladium
phenotype
ulcers
witnesses
amy@@
gosho
granuloma
junk
lea@@
peeling
proofing
synovial
eda
kong
restarts
rx
slate
sockets
vacu@@
800@@
babies
discrepancy
dq@@
exam
gut
intracranial
masked
miniaturization
persists
zuka
965
conjugate
electrocardiogram
elongated
flatten
instruct
itsu@@
kets
leather
ona
select@@
sers
worthy
xe
yoshimasa
barriers
dot@@
f4
grafts
ira
itated
merchants
notion
robustness
scar
sinusoidal
stall
synaptic
tachycardia
tanaka
ture@@
wavelengths
access@@
alkyl@@
bl
breaker
companion
fukui
immersed
isomers
lactate
satisfying
saver
so4
som
999
bipeds
cogo
commenced
ecr
ellipses
exerted
fork
hong
paper@@
plasmid
smi@@
unattended
vast
yoshinaka
320
650
adms
branched
centroid
deci@@
geography
icular
lovely
ners
oo@@
premises
programmed
seeks
struc@@
subledger
tetragonal
achieves
cationic
dum
graduated
itation
label@@
oshima
prayers
spe
trop@@
wave@@
14th
aver@@
brigh@@
crying
drinks
ela
exhibiting
finger@@
knock
oils
oku@@
problematic
responsive
ultr@@
uniaxial
aneurysms
anions
crt
ligands
resis
spreads
whosoever
wills
atrium
aux
boom
col
dus
entitlement
george
imi
inguinal
jaku
presses
tenmu
weed
bler
discs
efs
gami
incorporates
logies
morph@@
ovary
shoin
soa
stamps
who@@
2,3
angel
bugs
cin
dsl
iff
ity@@
manifestations
mounts
regulator
spir@@
stark
taxonomy
dawn
exu@@
fringe
juro
literary
mang@@
ord@@
poison
resort
revolved
siege
toner
wrapper
analyst
auth@@
boyfriend
cab@@
foun@@
mated
morpho@@
nichi@@
nowadays
produc@@
tamp@@
vic
wildcards
african
dimmed
encephalopathy
gating
homology
insert@@
sarah
vacation
vas@@
www
benchmark
bromide
cox
dioxins
iol
izu@@
lymphatic
morbidity
shing
tening
thermoplastic
ud
unrelated
vocal
woven
aln
aluminium
artists
chlorophyll
competencies
ed.the
fluorine
jumps
octa@@
phon@@
protector
replied
rush
timber
1960
autochanger
cava
kurodo
mbe
nan
restructuring
xia
08@@
6.3
astic
bip
boots
cies
hosp@@
koshi
miter
rayleigh
rheumatism
sketchbook
1,3
129
decompression
emi
fried
justify
kado
ning@@
noises
pivo@@
stein
subsurface
transp@@
é
1950
authorizations
bags
bai
captivate
endoscope
immunohistochemically
installment
lupus
positron
possesses
srm
ambiguous
ance@@
capacities
chat@@
compaction
discontinuous
dispositions
enriched
flexural
gus
help@@
inner@@
mers
umb@@
useless
vegf
asaki
austenite
barbarians
cmv
differenti@@
eigen@@
generalization
helmet
pharmaco@@
phic
reagents
section@@
smf
superconductors
8th
dsm
ical@@
incurred
omas
subtle
taxable
za@@
acknowledged
addm
allocating
arti@@
bia
condensed
connective
echigo
germ
hydrothermal
influencing
instantiation
r.@@
refrigerator
resorption
retarded
sumi@@
glory
hokke
impose
ler@@
mak@@
mediation
mmp
pumped
revising
taxi
trache@@
tren@@
asn
asymmetry
buc@@
existent
initiatives
patch@@
pathways
pediatric
sharply
allele
alterations
audited
c4
captions
cmd@@
competence
dispatching
edict
gram@@
makino
microorganism
mime
myco@@
pwm
recruitment
ris
silence
streak
tive@@
toroidal
tz@@
winds
acquiring
apostle
cervix
classifying
datatype
enes
fleet
kanban
motility
occasions
pathname
questionnairing
redraw
roundabout
sapphire
ste
daishi
extr@@
fig
glassy
glycoprotein
guarantees
haku
hata
hatamoto
inspired
j4@@
metastable
mochi@@
oto
scrap@@
tite
unsigned
1978
eta
fter
impeller
kang@@
listeners
mosfet
polyo@@
polyp
premature
sadaijin
tiers
cardiopulmonary
common@@
evalu@@
examiner
hb@@
iq
offsetting
okimi
relieved
renderings
revi@@
strengthen
wrest@@
annotated
aus@@
chole@@
esb@@
hydr@@
interconnection
pertains
secular
spacer
styrene
thered
weaker
adhered
aironet
betto
bloom
disability
operands
quicktime
remediation
shades
toyama
zoku
139
13th
2.8
apical
brilliant
burnt
cae
expresses
flexion
hadn
indonesia
jer@@
mod@@
ought
overwrites
tera
tted
aph@@
electrically
expects
ico
sloped
starter
tokaido
transcriptional
verse
volunteer
amongst
apped
dark@@
diminished
eshi@@
faulty
kimi
minimizes
parietal
pharmacy
shaku
takat@@
2mm
anatomical
asleep
creatures
daijo
iwakura
kilometers
lasting
pens
brittle
choroidal
dolly
face@@
geo
molds
ouring
thyro@@
tim
vitrectomy
weekend
yoshiaki
airplane
alk@@
castles
daijin
discontinuity
eth
fc@@
immunoassay
instantly
lim@@
mato@@
neoplastic
oni
playlist
quenched
ress
spp
thor@@
topical
walled
!!
accidental
acu@@
acy@@
bilities
deformable
erythrocytes
footers
govern
hg
instructs
kasuga
nonlinearity
offspring
penetrating
pillar
scop@@
ske@@
tated
aix
ama@@
explo@@
lob@@
lump
noah
polyester
uniqueness
yorit@@
121
5.6
algebraic
bench
fet
manuscript
multiplexing
nyo@@
perovskite
sediments
statin
copilot
foreigners
lod
mum
sav@@
smb
uk@@
2m
5,000
decades
diffusivity
du
glori@@
jacket
monster
ordinal
patri@@
subtypes
synchronizes
taxation
unicast
bang@@
broth
gm@@
iter@@
roadmap
rp@@
tablets
transmittance
vector@@
20th
aff@@
bootflash
cmyk
depressive
gla@@
heal
martial
troubleshooter
walks
agenda
assessing
config@@
cranial
donors
dragon
escent
htlv
index@@
masat@@
newest
oliver
pairing
pseudomonas
sound@@
splenic
surfacing
timecode
uv@@
act@@
admin@@
checkboxes
emulation
evolutionary
foster
fungal
immunoreactivity
leuk@@
material@@
medicines
mito
nausea
rtf
shame
thoroughly
vena
2p
4.6
blessed
contra@@
depres@@
hydroly@@
iss
parasitic
sekigahara
sumitomo
tribu@@
ushin
113
aml
brazil
commanded
conserved
dst
filenames
frp
hemat@@
lang
libr@@
mast
metallo@@
progressing
pus
ssp
2b
americans
bility
continuum
identities
ind
iproperties
pheny@@
phys@@
selenium
somes
sooner
sui@@
than@@
toyo
trun@@
vms
wordart
yaki
132
alex
coincide
cum
fauna
find@@
gb@@
h.@@
hematopoietic
prefixed
reciprocal
skilled
1s
bara
bri
briefing
crystallized
encies
hydrogenation
jaundice
kubo
methacrylate
northeast
noticeable
nutrients
settle
soliton
traveled
umber
virtualized
addi@@
autologous
fluxes
grounding
ice@@
interleukin
izo
microstructures
respected
sakyo
slide@@
wc
xide
zawa
alphabetically
comman@@
ethics
fascia
fps
hm
mab
wasted
270
63@@
9.3
accountant
ashing
augmented
bert
blown
celebrate
drafts
healthcare
magistrate
miso
rab@@
scan@@
scanline
sweeps
uc
aming
breaklines
candida
component@@
consort
gat@@
scs
tative
trench
uring
124
backend
curie
dioxin
ee@@
electrolysis
flipping
genicity
hal
jam@@
kon
neutrons
ots
seldom
sep
ulated
aba
aca
appends
aunt
commits
deceased
farther
paging
relaxed
repairs
sarcoidosis
sulfuric
underlined
95@@
cals
distr@@
immunosuppressive
ited
kiss
modulator
ode
ory@@
restraint
usages
whale
73@@
amy
conversely
enthronement
fortran
liar
metasl
popularity
pref
proxies
renderable
report@@
rerun
spawning
succeeds
survivors
technically
wholly
amori
binds
bullshit
clump
coping
descriptors
gal
nh@@
rel@@
roaming
rub@@
trophic
warps
xing
126
alloying
asi@@
atic
cabbage
cpus
csa
distress
exhausted
imagawa
lime
logos
mani@@
prepaid
relapse
tacacs
terrestrial
uji@@
univ
ε@@
aly@@
deliber@@
hydrocarbons
ignoring
mach@@
mediastor
predictable
promises
serotonin
singing
straw
stylus
720
abrasive
bolted
enryaku
makers
mdl
mucous
sag
sibility
tandem
tron
β2
1975
20,000
abst
counterclockwise
crl
elling
footnote
gid
glomer@@
grub
magnetoresistance
mitsubishi
shutting
sixteen
vulnerable
0.4@@
absorber
divergence
elec@@
eye@@
improper
insi@@
kofuku
melted
mpeg
navier
ocr
premiums
raytrace
scholars
slaves
tiled
arg
argu@@
compromised
fw
hamiltonian
kine@@
patience
saitama
tony
tottori
bestowed
breed
clarification
cm2
colonic
crawl
emul@@
firmly
hydrostatic
incidentally
nik@@
pellet
pyridine
snake
stration
ures
0.02
a4
asa@@
dde
earth@@
equality
gmt
incredible
irreversible
judges
las@@
rad
refrigerant
regulate
vertebra
continually
d945g@@
prism
sla
voids
alan
azuma
blogs
brave
differing
ech
globals
incremented
interferometer
ishin
jejunum
kochi
sawa
vel
emailxtender
enema
ghosts
glomerular
hud
molybdenum
seventy
shape@@
tertiary
´
8.5
c60
casing
craft
crohn
gumi
helpers
isa@@
joseph
kings
lasted
lau@@
mesh@@
pest
relies
.get@@
1100
boats
bootstrap
cape
debts
idine
lamps
leased
loci
narrowing
nm@@
periodontal
pppoe
productstream
raku@@
recrystallization
synthase
toler@@
unification
verbose
witch
143
92@@
constitutes
dx
etched
firms
kato
lumber
odp.net
oning
reese
reizei
remedi@@
rigs
rollover
server.@@
setting@@
vertigo
div@@
exothermic
implicitly
osmotic
priv@@
prone
reconfigure
swe@@
tec@@
twi@@
ω@@
802.1x
bet@@
coaxial
concert
coral
dean
hitting
liquidating
luminous
oul@@
printable
prof@@
ruin
ushu
wep
amd
clu@@
curve@@
divi@@
dysplasia
ecology
ecu@@
hokuriku
iran
lectomy
message@@
mononuclear
sapporo
suitability
tsur@@
115@@
122
450@@
angled
circul@@
cmuscle@@
daibu
firstref
hydrophilic
j48@@
keystore
nh3
reporter
rma
saliva
stock@@
ump
usai
2d@@
7.3
acis
behold
catching
deer
guide@@
importer
interferences
missions
nylon
rus@@
vb@@
wada
watershed
.br
12000
6500
bee
citrus
com.@@
dependences
exo@@
f8
imate
jon@@
launcher
picks
prt
qualify
rearrangement
villa
3.7
compu@@
desc
encode
encourage
finish@@
liquidators
parenthesis
seals
template@@
vert
10000
acquires
cortico@@
decoding
dged
exposes
fru
proportionally
strepto@@
strongest
thesis
unpredictable
bark
dig
doll
excel@@
jito
lac
last@@
lef@@
mess@@
myce@@
recalculated
vals
bub@@
gate@@
geno@@
grap@@
inari
invista
mapi
outflow
restricting
traditionally
7.8
cel
chromatin
genius
gokenin
hydride
intangible
kdc
lifespan
oscillating
parame@@
siveness
yoshin@@
230
apt
checksum
classroom
compensated
conic
drilled
enumer@@
ibaraki
prosthesis
zane
114
2.9
gion
hotkeys
imper@@
kaga
mentation
migr@@
not@@
orien@@
punctuation
quantization
reforms
reno@@
ribo@@
shingen
wes@@
wondering
ylation
λ@@
afterward
amended
baystack
joy
mented
nai@@
posing
ption
quo@@
raytracing
repe@@
skins
truetype
udon
usd
adjustable
awa@@
bureauc@@
dex
divine
elled
italy
ldh
lisbon
pinch
publishes
tory
zumi
20.@@
blan@@
christian
crystallographic
cyan@@
depicts
fav@@
iten
kichi
linguistic
parabolic
pdfs
precast
prepares
rescind
rikyu
spatially
ws@@
xii
abrupt
fb
inspected
mood
punish
rescinded
screenshot
thrombin
travels
02@@
abi
analogous
flips
grazing
h2o2
interven@@
ipmi
orac@@
programmable
pupil
translucent
tz
unidirectional
acti@@
arized
bastard
bonus
bow@@
gpt
initiating
ionized
possessing
presumably
subtracting
thers
tizing
travelling
acceler@@
actin@@
datums
devo@@
esb
evapor@@
exon
hir@@
instructed
insulated
nailboard
photochemical
pollutants
shr
spr@@
tif
undesirable
beating
capit@@
cms
elution
globe
insurer
inver@@
liberation
lv@@
barcode
bes@@
ceremonial
collapses
glutathione
hag@@
iam
logins
nab@@
osa@@
pix@@
rid@@
μg
.it
coc@@
collapsing
delu@@
depot
discre@@
explored
global@@
helicopter
intraperitoneal
monoxide
moun@@
onboard
reac@@
replicator
sandwich
sisters
smarteam

1.9
550
avoids
denotes
dou@@
jizo
magnetism
mentary
ometry
retroperitoneal
right@@
singapore
tori
tsushima
2,4
coa
contacted
dents
export@@
fsb
gadgets
intertest
tofu
vaults
.net
blin@@
crushed
cute
cv@@
demonstrating
dokoro
femur
haru@@
ile@@
kanrei
okura
phosphoric
reacts
recompense
reconstruct
refin@@
tatsu@@
1900
4.8
adi
arrives
autodesk@@
compo@@
diffuser
dyed
expor@@
gang
litigation
paramagnetic
performancepoint
petro@@
psy@@
source@@
subdivided
tightly
66@@
beacon
ductwork
glycine
hana
netapp
obstruc@@
routings
smc
stems
tam
there@@
turnover
ukyo
washington
accep@@
adiabatic
brac@@
disadvantages
ditch
ecto@@
edm
esp
hai
inks
nenbutsu
oic
pipelines
remnant
tsuru@@
waited
wounds
abbreviated
compressible
confucianism
idiot
istic
pound
rainfinity
roadway
selection@@
sfp
smile
squash
tails
tidings
vpro
alist
ascribed
bb@@
bush
cdma
consultant
hem
icm
mosaic
replic@@
rewind
staged
suspicion
watson
31@@
angiogenesis
attraction
bg
bred
colo@@
communicates
compromise
desktops
lipoprotein
lubricant
metabo@@
nozzles
ornam@@
preoperatively
rok@@
tol
ulent
ager
bricks
climb
encephalitis
flashback
fluidity
fly@@
home@@
lethal
level@@
mails
readout
sci@@
soot
zoning
128@@
1976
5cm
constitutional
dividend
eutectic
hatakeyama
kcl
manners
plat@@
reduc@@
superimposed
tec
vertex@@
yamazaki
164
bronchus
cautionary
criticized
dimensioned
fications
homebase
laugh
measles
preconfigured
reference@@
saito
script@@
beforehand
bled
carrie
chal@@
compilers
converge
curse
desc@@
endothelium
eshi
liter@@
mutex
pardon
rituals
splen@@
supplemented
vasculitis
11.2
3b
biased
callbacks
cosine
dar
dco
destined
diploid
earn
explanatory
isa
mmm
moral
nobility
ssi@@
vcs
algia
anthropo@@
aomori
dilute
grateful
miniature
muc@@
murakami
sculp@@
shoe
submerged
trus@@
versatile
cheese
d5
disordered
exchanging
functionally
illary
itai
nai
projector
roman@@
soli@@
story@@
yuki@@
aking
approached
desert
esscmd
harmonics
hertz
nesses
patho@@
pounds
prod56
programmer
rail@@
retrograde
s3
shoji
struggle
subsystems
thin@@
0.9@@
aw
cancel@@
conception
galacto@@
grafted
koga
lectures
parti@@
pth
railings
retrospective
stic@@
surrendered
tants
ascorbic
constituting
correc@@
diplo@@
ek@@
element@@
encouraged
endurance
fuse
matri@@
methy@@
methylation
migrations
multiterm
nematic
nephew
propagates
ruined
satur@@
scm
sprayed
thorough
uneven
acetyl
adv@@
asano
budgeted
detec@@
hdr
netscape
nitrous
outpatient
sex@@
trimethyl@@
x3
allied
cones
cornea
cortisol
dcs
discards
eosinophil
err
fluctuating
fx@@
kad@@
leap
mation
memor@@
passport
sole@@
stereoscopic
tail@@
tsh
zole
appending
array@@
ems
glutamate
gpu
instan@@
king@@
mile
minority
monkeys
nes@@
tumble
yuan
α1
3,000
cruci@@
eigenvalue
fetus
fuckin
intru@@
joist
lympho@@
peasants
powersnap
public@@
resolves
retic@@
sweat
airborne
atten@@
bounty
datafiles
font@@
freehand
gaming
histi@@
ips
jur@@
keep@@
kukai
propulsion
sensi@@
steroidal
striped
superoxide
triplet
unlink
vl
ñ@@
bai@@
big@@
chances
counselor
cur
datab@@
displaced
dur@@
eri
gd@@
households
kazu@@
proclarity
squad
tility
162
abnormally
aris
buil@@
chromo@@
daniel
debate
deformity
descended
elasto@@
harmon@@
leveraging
naked
oven
rei@@
superiority
tapping
tary
tees
viewable
widgets
,ltd
1972
==
apologize
arriving
avg
carcino@@
colum@@
frac@@
gre
lizing
reloaded
seizures
senile
shira@@
tian
tification
tritium
xz
algebra
amaro
blurred
discounts
h1
headcount
iliac
interlayer
miyagi
mizu@@
ooh
prod45
sightseeing
stacks
worshipped
xxxx
50,000
coldfusion
discoverer
intramolecular
nights
preferentially
revenge
uterus
4.7
abor@@
canonical
cytotoxicity
fetched
gutter
initial@@
laryngeal
peti@@
scram@@
si3n4
status@@
univer@@
vtune
9.2
bill@@
bou@@
committing
defend
folder@@
guarded
handy
hashi
kl
kyogen
m3
mars
ple
princes
pub@@
reprocessing
sagami
schizophrenia
scripture
segmental
shader@@
slu@@
smarts
solidified
thermo
toma
viability
5m
alko@@
aq
awesome
exercised
gaku@@
galvan@@
gin
grooves
hist@@
kinai
legally
polypeptide
poverty
solic@@
telescope
transporting
world@@
xan@@
ardi@@
asshole
buckets
continent
entr@@
granule
guiding
incubated
karasuma
monument
osp@@
place@@
rokkaku
ssa
stoma
testosterone
trachea
vable
117
52@@
asr
attenuated
capsules
carp
cnt
congratulations
disinfection
fill@@
fundamentally
inst
justified
langmuir
loans
logarithm
snapped
terminator
typhoon
wakasa
apps
belts
hu
i7
koya
ppls
stool
stripes
tft
transmits
vin
weld@@
2s
designates
footprints
framed
mama
notifying
platelets
prc
sourced
streptococcus
taylor
thir@@
trails
arginine
asthmatic
audi@@
essence
feature@@
gallium
hotspot
idw
igmp
interacts
ling@@
matics
naidaijin
stably
stoichiometric
tada
1869
announcements
artic@@
attendant
constructions
disputes
fecal
frontpage
gall@@
grad@@
homework
ias
mills
otomy
personalized
wb@@
9th
acad@@
aded
aerobic
bel
carboxylic
coplanar
cub@@
fasting
fid
infinity
mantle
mens
planners
shogunal
southwest
storyboard
190
2o5
accommodation
aire
ase@@
blogger
clon@@
crushing
daka
examin@@
exceptional
genetically
legislation
ossification
reservations
sketch@@
sx
transmissions
tuple
ventric@@
vill@@
coup
dtc
laboratories
methylene
particle@@
steadily
taskflow
wore
1871
3mm
bears
bject
buds
byp@@
cooperatives
csm
dependents
equivalence
primer
quantification
residing
securid
squared
steric
zro2
0.7@@
averaging
cerebellum
covenant
cycl@@
div
dyn@@
faithful
gou@@
kameyama
secreted
sement
ston
value@@
akura
blasto@@
concep@@
deca@@
emia
emphasize
matosis
miyazu
obese
perioperative
pickup
porphyrin
ration@@
spy
suruga
ventral
whatsoever
1977
acknowledge
advise
afflic@@
deficit
gojo
inevitable
overmolding
pathologically
renames
replicating
tiger
uchi@@
x4
anthology
badly
concretely
hankyu
later@@
leaching
occluded
plated
scat@@
serv@@
sure@@
tell@@
variances
afp
asses
atively
bundled
cane
chairperson
cline
concomitant
contrac@@
cuc@@
cysteine
doshisha
encrypting
fered
inactivation
jets
olar
oli
oocytes
refractions
stine
wages
wilson
116
agonist
antioxidant
bad@@
bridged
cave
donated
ecm
fermented
formally
hyperbolic
informs
insisted
kido
nowhere
olin
protest
recordings
respects
spawn
successors
1,4
artificially
auger
bronchi@@
convey
cooperate
drove
edta
gesture
kel
lymphoid
prod124
ques
sovereignty
writers
119
cabin
cim
complic@@
demantra
fluorescein
indium
lings
liqu@@
marble
pale
polymeric
reco@@
stratum
tint
118
161
192
1947
bathing
bc@@
catalo@@
chronicle
circumferential
copd
denial
immunostaining
irradiance
kn@@
nex@@
pas
precede
stere@@
steri@@
sticking
κ
acad.@@
amin
bilirubin
biz@@
bmi
chronological
coar@@
constructors
d8@@
dal@@
imply
kits
kr
matous
netbios
north@@
phe@@
phong
pneumoniae
prod163
ral
resses
tenno
truthful
69@@
argue
bmd
exiled
gage
gic
itu@@
lewis
miyazaki
paste@@
precursors
speaks
ultra@@
wt@@
aggravation
branded
cataly@@
eighty
enacted
extru@@
formalism
ital
lism
lubricating
onion
qualifying
redemption
reductions
resemble
roi
sett@@
stap@@
tubule
umbilical
upstairs
yearly
272
akechi
autogem
breakthrough
circadian
commissioned
dowager
ike@@
mentally
micron
n1
nah
negotiated
oshi
phar@@
postnatal
scap@@
subdirectories
syste@@
transfer@@
triangulation
wipe
3.9
automates
bmc
chori@@
convective
datac@@
degenerative
dma
inhomogeneous
intram@@
leukocyte
normalize
pharmacists
pleasant
reforming
regenerative
silic@@
taskspace
technician
unmanned
21@@
acetylene
dichloro@@
diseased
disposed
emits
expenditures
fig@@
formulate
hori@@
maximized
oxidizing
par
photocatalyst
substitutions
sugawara
turbines
adenosine
callus
cbf
checkin
datas@@
db9
deafness
dentin
gues
indented
liquor
lms
pert
predic@@
recti@@
switchover
vated
x64
yoshitaka
zai
zan@@
allocates
analogue
clamping
illa
inia
lately
ledgers
motor@@
psa
waveguides
yat@@
accompany
banding
charity
discrimin@@
fes@@
fiel@@
lace
lumin@@
mediastinum
midi
paradigm
pharmacokinetics
pots
scrub
slack
stromal
vanadium
wool
110@@
abu
bian
comic
conten@@
drained
faceted
imap
intermetallic
kushi@@
multipoint
odo@@
oscillators
outpatients
recal@@
resu@@
scl
solidworks
subcategory
zirconia
4.3
autonomy
blinn
dropoff
footing
fundamentals
gentle
gie
hakase
ineffective
kaya
malaysia
neighb@@
oshu
phe
phylogenetic
policyholders
simplifying
unde@@
yakushi
acidosis
anchoring
calves
changeable
chunk
creatinine
customi@@
cyclades
dynaset
grandchild
hepatocyte
hypotension
inductance
microscopically
photographing
plm
pped
probabilities
samp@@
sanitation
scent
shared@@
subnets
wns
attendance
crap
endometrial
eva
fir
friendship
goodbye
ikeda
inaba
ming@@
neglected
nucleo@@
numer@@
pathohistological
peel
regurgitation
scar@@
septal
shigen@@
sno@@
subpage
target@@
yoshitomo
0.75
133
catchment
circu@@
cisco@@
enamel
exponentially
glance
indic@@
lattices
nos
ortho@@
birefringence
breathe
cec@@
clip@@
conventionally
extender
html@@
insoluble
lending
liposomes
neo
nonzero
oms
osteotomy
rec
safer
spins
takan@@
β1
accreditation
aquatic
immunoreactive
nanoparticles
ods
pier
pva
quadrupole
receivers
redistribution
span@@
850
ark
async
bottles
cgm
chromato@@
dized
flipped
glycerol
incidental
jacob
k1
lf
manag@@
oath
ony
pigments
slo@@
stiff
texturing
aspergillus
brokerage
cardi@@
conven@@
diplomatic
hammer
infill
laterally
minds
muslims
photosynthesis
sche@@
sorption
suzuki
toolpath
transactional
vascul@@
washer
chitosan
cigarette
engages
hypotensive
incompressible
inva@@
ished
mathematics
multiple@@
oscil@@
polyacrylamide
profile@@
proofs
separators
serine
synthesize
teg@@
timefinder
varices
155
16.@@
2c
aman@@
chamfers
curry
deterministic
discussing
ductile
fic
fourteen
harold
illuminance
kiku@@
msc
plac@@
polymorphic
prolongation
sakur@@
shapesheet
soft@@
author@@
chol@@
dewa
enthalpy
gel@@
graves
perforated
piano
ρ
74@@
asymptotic
boston
danny
eval
ician
jog
laminate
monochrome
retract
secretly
title@@
unsaved
wai@@
watch@@
wide@@
φ@@
802.11@@
carb@@
dissolve
hypere@@
inemia
intermolecular
laughing
loc
ministerial
pet@@
pilgrimage
pursuit
viol@@
.conf
16th
700@@
9,@@
conspicuous
deep@@
foci
inversely
iwate
length@@
oline
overlapped
ria
salmonella
sandy
smokers
subquery
timely
umon@@
1973
aburo
buyers
commented
gyro@@
ilm
isl
javadoc
naval
operation@@
plotters
randomized
righ@@
stud
tase
this@@
threatened
vibrating
131
138
ally@@
bot
contradic@@
degenerate
disadvantage
doubled
eno
isotopes
lever
nanometer
pmma
popul@@
prostaglandin
quer@@
rag@@
recurred
spain
sputtered
structurally
tains
unbound
xer
0001
ave
center@@
dds
denture
dirt
durations
fractionation
life@@
lignin
lng
mandible
nickname
nr
oids
protons
resistor
sacrifice
saw@@
sclero@@
stroma
ui@@
allergen
aper@@
bering
counseling
dering
martin
pac
prisoner
rakugo
repres@@
shikibu
sni@@
sowing
withdraw
145
adhere
asakura
atc
cessation
emphysema
haiku
inate
instantiate
kage
overloaded
palate
presenter
progressively
substring
swirl
tedly
zy@@
bidirectional
canceling
capac@@
cddp
donation
enqueued
ipm
jre
kidneys
lwapp
mechanically
ogasawara
peerage
performers
pursued
raft
subunits
sym
synonym
sysprep
thermoplastics
tomograph
trash
workplanes
acyl
ant@@
attending
carter
cdc
colloidal
ety
flames
hypoxia
jumping
lavage
ola
panic
praised
pyrolysis
regret
tadat@@
thoracotomy
way@@
blasts
dazai
deno@@
excitations
forged
insol@@
lp@@
mandala
moton@@
pad@@
sada@@
scu@@
send@@
t4
wol@@
137
answering
aur@@
bcv
ch4
dhcp@@
err@@
fins
keeper
mites
myeloma
reloading
skirt
tobject
ua
vibr@@
wms
180@@
59@@
automating
cod
csp
drip
esd
groupings
harmony
ication
loyal
parap@@
pssession
race@@
robert
sic@@
statically
substituting
succ@@
toshiba
tty
unrecognized
wire@@
word@@
54@@
bombardment
grandmother
hn@@
kilobytes
machi@@
masan@@
ntsc
orthorhombic
recoveries
translocation
transplant
votes
accommo@@
averages
defer
evacuation
jen@@
kid@@
kilo@@
qualifications
reap
reorganized
resumed
syl
50mm
antagonists
attracting
buckwheat
classifier
costume
downtown
frost
geisha
hn
hoped
industri@@
interviews
loy@@
polluted
prohi@@
rg
scriptures
unnamed
yarn
carboxy@@
clarity
commercialized
contro@@
emotion
expec@@
expr
gma
hydrox@@
infopath12
input@@
kuge
lowing
maxim@@
nhk
nulls
onoe
orth@@
pace
quilts
rendition
rulers
smen
upright
304
approx
ary@@
dioxines
easytrieve
edo@@
fft
kono@@
measurable
renumber
sticks
white@@
abr
arrowheads
chika
curl
cyan
doub@@
exalted
honda
introduc@@
keicho
kr@@
minischema
multileader
newton
noisy
pressurized
reed
ryukyu
scott
9000
border@@
centrally
dare
diets
diffused
ecc
ipqos
keyed
mort@@
remembered
rite
soccer
surfactants
tch
thorac@@
tivities
tuna
zy
140@@
anc@@
bw
contest
deed
f5
favored
glassfish
hibernate
igen
liner
listings
meg@@
needing
notable
offense
sickness
subtree
synchron@@
troph@@
uta@@
0000@@
380
ail@@
bron@@
collaborator
diversified
ergo@@
expedition
fs@@
hep@@
honshu
iter
lacks
maeda
project12
propri@@
roju
sga
tioned
tit@@
trifluoro@@
adequately
benzyl
brightstor
clic
clue
collectors
datagram
exogenous
icc
isogen
keratin@@
kizu
olytic
other@@
plastic@@
propeller
teenth
225
advertisements
ape
arthroplasty
checkpoints
codon
curious
financials
g3
greek
hippocampus
institutes
itate
kichi@@
martensite
olymp@@
originator
pack@@
peric@@
precipitated
protrusion
questioned
recep@@
registrar
wars
2500
activator
adaptability
cisplatin
committees
conspiracy
ema@@
granulo@@
opy@@
pride
reared
saka
seiwa
tractor
ume
wheelchair
141
3o@@
7.6
anci@@
arization
ashiki
budgetary
cfc
dynam@@
eosinophilic
fab
frag@@
laptops
layout@@
loop@@
metabolite
occupying
opa@@
pits
preferential
pyr@@
titers
warner
151
3600
acetylcholine
awake
booked
cited
criticism
exploitation
flv
gol@@
incontinence
infr@@
locality
malt
obo
phosp@@
resizes
sf6
spikes
teria
withdrawn
4a
960
adapter@@
agon@@
alanine
arf
azine
c6@@
cluster@@
condenser
conditioned
cosmic
criminals
disconnecting
exploring
hemolytic
meti
mountainous
pda
protru@@
remove@@
sanyo
singlet
stator
stero@@
textual
thymus
vr@@
workcell
802.1q
9.1
adhesives
asy@@
bitter
chuo
crc
deser@@
extrapolation
hsp@@
jit@@
labs
markings
momo@@
mucinous
occu@@
perfor@@
perme@@
photocoagulation
pollinosis
quest
quicker
subscribed
theirs
turntable
6.8
accoun@@
anaphy@@
androgen
cnmk
daisho
deliveries
elas@@
follow@@
inden@@
leaf@@
masamune
mou@@
narrower
seki@@
synergy
virtue
alt@@
ania
clad
click@@
det@@
digitizing
heavier
isotopic
myel@@
nishin@@
obli@@
pati@@
pwr
rbac
scenery
shinran
sim@@
spdesigner12
sweetheart
ticity
traff@@
turbo@@
wind@@
142
14c
celebrated
couples
goddess
hv
motif
patterning
pbx
preprocessor
radiated
rasteri@@
sakamoto
striking
tely
5.7
anxious
awaji
conversations
discomfort
divorce
eds
faxes
force@@
hypersensitivity
izable
kanmu
multiplicity
prod183
separations
slp
stab@@
straightforward
sube@@
ternity
transact
abi@@
adp
anorexia
chiku@@
co3
cost@@
dain@@
haem@@
hrs
interprets
onium
pear@@
pkg
scientists
tooth@@
vietnam
4500
cleft
distillation
egypt
elev@@
erroneous
horikawa
humili@@
inertial
insane
integr@@
knowledge@@
logistic
lute@@
magnetically
mons
obligee
pepper
sherlock
touches
tsuk@@
underlays
yoshu
zine
amoto
d9@@
deletions
deuterium
domicile
hypertrophic
jscript
jushiinoge
kuroda
opposing
oscillatory
paraffin
pigmentation
pivotchart
researcher
restructure
sequenced
singularity
subarachnoid
surroundings
tio
tu
tuc@@
undertaking
vas
workability
wrinkle
19th
214
atch
copolymers
cracked
dozen
federated
firefox
garage
goku
hemodynamics
jam
ointment
researched
sour@@
tani
uninstalled
aly
authored
bother
commu@@
convinced
deaf
fra@@
inging
meningitis
panorama
rome
testis
thai
timeliner
turn@@
ugs
1,1
dealer
fibrils
fulminant
gly
gunma
harvested
hematuria
interpreting
isation
ison
kage@@
monies
nitrite
renew
ruins
sean
thering
ultrafine
acct
aplastic
asphalt
authorize
backlog
chapter@@
cmm
cried
giri
ima@@
mbr
newspapers
progesterone
shosho
simplex
tack@@
tances
tene
trivial
upside
vp@@
workloads
^^
append@@
blood@@
flanges
galaxy
hedral
inti@@
ound
p3
qur
renin
rumor
settlor
triglyceride
yamana
002
1948
32.@@
7500
adjoining
arm@@
assignee
breakline
distributor
dvds
farmer
genuine
heterogeneity
incopy
magenta
mucus
towers
accomp@@
asu@@
challenging
cohe@@
content@@
epidemic
football
gangli@@
gelatin
initializes
investor
lol
maxwrapper
name.@@
norm@@
oak
organo@@
orig@@
predicts
proper@@
redisplay
tate
worth@@
zygo@@
2000@@
abut@@
accountability
canine
commentary
cube@@
decentralized
ductal
esses
fia
inojo
iodide
minimization
ministers
po4
races
toll
will@@
armor
claiming
compressing
ddr
ense
epileptic
fla
founding
immunohistochemistry
inadequate
inity
lighted
precipitate
pts
reschedule
rewrite
shadowing
spoke@@
sprinkler
ule
visco@@
wpa
.a
aler@@
ati
blanks
chase
citrate
daemons
datafile
folks
fractured
gold@@
hap
hmx
ipc
mica
pendulum
subsi@@
supervisory
takakura
tosis
transporter
wounded
aspirin
assembly@@
awful
graduation
inquire
instal@@
miura
necess@@
pays
precedent
weldment
wraps
950
aci@@
contractors
datag@@
declining
eve
frameset
gaki
instantiated
interfering
ketone
lep@@
mommy
monomers
mortgage
need@@
pil@@
purpura
revoked
scroll@@
truncate
yin
192.168
ange@@
cco
convul@@
demon
directivity
escalation
explosive
flash@@
junc@@
keypad
materi@@
neutrophil
omycin
osa
polypropylene
revenues
sadat@@
swapping
terri@@
blow@@
brass
bylayer
cai
circumstance
competi@@
compositional
compressibility
corticosteroid
ejector
endangered
enic
envoys
epo@@
fetuses
lcm
melon
myocardium
planetary
pork
powerpoint12
prevalent
proves
scor@@
tangible
tious
tokamak
unassign
unidentified
verb
withholding
10j.86a
168
andy
blessings
chambers
cle
emails
encoder
ezo
fertility
fuj@@
hr.@@
inas
infantile
onco@@
phosphor
stirring
stripping
6.6
aaron
catho@@
conveyor
dao
dash@@
diap@@
halt
lection
nucleic
recru@@
remote@@
rhinitis
shelter
stratified
trims
urin@@
v3
ven
viz
accum@@
audition
automa@@
bleed
champ@@
characteri@@
colliding
criticality
detergent
fingerprint
hemic@@
kle@@
methoxy@@
odds
oko
sweeping
tibial
visualizing
write@@
178
199
203
30,000
clamped
come@@
enrolled
glyphs
ign@@
nau@@
optimizes
pes@@
psych@@
raku
region@@
rex@@
scri@@
total@@
websphere
yi
2k
adenomas
archi@@
choledo@@
cisco.com
departed
dilation
epma
forma@@
gloss
isomer
jomon
md5
passthrough
pesticides
seamlessly
settling
shou@@
supers@@
thru
advan@@
chocolate
doubling
gev
granularity
halogen
hus@@
hyphen
ideally
lover
miyake
phs
powdered
principals
prototypes
reusing
rol@@
sme@@
solu@@
sup
updatable
yaman@@
1965
99.@@
bankrupt
cholinergic
coma
combobox
contemporary
decrypt
defrag@@
fabricate
fastening
gypsum
hgf
imates
incrementally
obscured
playblast
promotional
px
rain@@
rectomy
stipend
tum
xmltype
zushi
accelerates
ached
annually
buoyancy
clashes
clever
cmc
concatenation
cucumber
d945@@
descent
dynamic@@
emp
hatched
hodgkin
igf
internationalization
kins
lessly
leth@@
leukemic
pillars
prepa@@
psychology
regimen
reinst@@
sensitization
sergeant
silo
sulfon@@
vola@@
yr
climbing
digest
direct@@
juku
kaku@@
lobes
looping
mediator
moder@@
objectarx
panning
putative
set.@@
sexes
shes
subo
tsune
tunable
umbrella
completeness
dis
disconnects
intu@@
islamic
medullary
morphologically
oming
phenolic
prisoners
resor@@
sculpting
staffs
toin
tricks
ulture
vali@@
acker
akashi
bedroom
grou@@
immunotherapy
imp
impressed
inpu@@
mgmt
ogawa
oured
outlin@@
rati@@
reconfiguration
revelation
sdm
seq
terpen@@
tuner
asahi
deriving
eyedropper
fancy
institutional
msec
onsen
pip
pluggable
pockets
polymerized
ruleset
specs
spur
storage@@
sums
tactile
term@@
thic
tob@@
undifferentiated
worms
zi
ader@@
cancerous
dipping
evidences
expan@@
glazing
heli@@
jiri
lize
martensitic
mycobacterium
phoneme
propane
reflec@@
reticulum
shimotsuke
tain@@
166
18th
abide
adeno@@
agile
bored
bumps
carbons
cladding
dbcs
deforming
disbelieved
entrusting
hoku
icides
mai@@
newsletter
orphan
osteoarthritis
reck@@
spares
substituents
swollen
thomas
unseen
wealthy
167
aters
bq@@
curren@@
dlc
fbx@@
gab@@
gravel
hashimoto
lear@@
lifted
mythology
nanotubes
preinstallation
sco
sensitized
topographic
vga
acknowledgement
antialiasing
assessments
atro@@
aviation
broader
door@@
dumb
hayashi
joa
lav@@
lb@@
leptin
moku
msg@@
occipital
opioid
pharyngeal
pneumothorax
rg@@
squeeze
tremendous
tsuna
uprising
venture
wax
ylated
zuki
τ@@
atago
atched
blackout
cl3
computerized
cpe
dism
graphies
hybrids
nac
nip@@
pakistan
pc3
reassigned
revived
skipping
supporters
swallowing
yag@@
alp
assass@@
beijing
concubine
controllable
dangling
deflec@@
evaporated
ferous
fore
gadget
hbas
here@@
lockbox
miyatsuko
nucleon
oya
parsed
sample@@
securitization
unmount
8,@@
assured
before@@
charles
consumes
crs
crush
deprived
diurnal
ila
mammalian
reconciled
redirected
sitis
sst
subtotals
vain
vie@@
violate
violet
1949
96@@
argued
art@@
coty@@
degrading
emg
essentials
flav@@
honored
ichiro
inductively
intercept
karyo@@
pathogens
philippines
plexus
sigma
snr
soldering
tetrap@@
toy
unconstrained
walk@@
webpage
zz
20mm
ackers
calorimetry
carbo@@
dwell
electropositive
fibrin
fouling
infer@@
lamellar
lidar
ligation
operability
oyama
pea
perfec@@
sanuki
squee@@
tation@@
tere@@
ulous
v5@@
zoomed
5.8
annu@@
enroll
jndi
mcs
network@@
oxidi@@
peaceful
sill
small@@
sort@@
stadium
unbalanced
alphabetic
alters
barry
bike
brody
chem@@
colonel
demolished
feder@@
gging
iron@@
keynotes
liation
olus
ophi@@
opho@@
papilla
paused
previewed
rationalization
responder
shamisen
similarities
subcommand
uncertainties
uploads
1872
dosi@@
doubles
fucked
itors
matured
mdf
oce@@
patents
reflector
reti@@
toxik
trough
twins
unfolding
xm@@
zer@@
afusa
alike
boshi
cont
cytological
degrade
dispersive
elliptic
hydro
incandescence
mics
proactive
resistances
sch
substituent
tc@@
tops
wl@@
wronged
3cm
addres@@
akawa
appointments
carcin@@
deform@@
disseminated
dtp
emo@@
euro
favour
floater
fort
hydrochloric
intestinum
lymphadenectomy
masakado
nick@@
prece@@
rit@@
skin@@
snippet
varic@@
4d
alex@@
ans@@
ayuki
brea@@
compete
dave
deciduous
decorated
ences
energetic
game@@
humanity
lectin
lingual
porphy@@
ror
slow@@
stly
substitutes
tsukuba
unequal
util
versioned
026@@
absc@@
chugu
consignment
eia
ffd
gary
hydrogenated
induc@@
inscribed
josephson
kanjo
kt
listbox
nitta
oes
password@@
restrictive
reverts
robotic
shiki@@
statement@@
subroutine
timescale
tomi
yn
asic
haw@@
histology
hydroxyapatite
knower
kurama
manageability
mfr
noon
northwest
pearl
penetrate
ramps
sities
textbox
una
zations
148
1974
945@@
analyse
boy@@
chart@@
corrects
losers
mitsunari
mp3
neu@@
outlets
pads
psi
sakone
sg@@
toji
aco@@
axi@@
courage
disruptive
diversification
hes@@
landed
methodologies
mpx@@
strained
substanti@@
traits
ushima
waist
xbrl
yon
406
culling
dative
dosing
encodes
hyperthermia
jes@@
meric
nhair
pellets
pelt
photoemission
stabili@@
stic
tational
tern@@
trunks
ueno
vaginal
wri@@
xm
τ
atures
bere@@
datasource
deflector
demon@@
enteritis
farm@@
feared
gifts
honen
infrastructures
lon
nationality
nopage
presi@@
sasaki
surgeon
yab@@
2cm
acc
amaterasu
analgesia
clinics
eccentric
electrolytes
fail@@
hydrated
loyalty
malfunction
pcm
pkc
split@@
summaries
transform@@
tsub@@
usha
uveitis
woe
10,@@
carbam@@
catches
chromatic
destroying
drowned
guessed
heiji
idd
instrumental
leverages
lg@@
neurologic
obscure
oon
organizes
prosperity
rgba
sequencer
smu@@
tco
1800
4mm
aled
bqy
competing
dip@@
first@@
informing
iono@@
jinshin
lcs
make@@
monolayers
o.@@
pir@@
policing
spyware
tetra
triggering
watches
0,0,0
17th
absorbance
anionic
bauer
billed
concatenated
converged
correspondent
ested
lad
melts
nc@@
pli@@
river@@
symbo@@
tadayoshi
tcb
trips
wolf
ating@@
axillary
conserve
dimension@@
kil@@
kim
kokin
overhang
periodical
subobjects
tium
tooling
usesadd
0.15
antic@@
boilers
burns
cares
concludes
crani@@
eae
exemp@@
fudo
ilogic
nakamaro
note@@
oama
plugs
relax@@
rs@@
stealing
straigh@@
varchar
watts
wf
assy
authenticationmanager
bulk@@
ceilings
cers
chromatographic
chus
contralateral
conveniently
cultivar
emer@@
fddi
ffed
flute
freed
igs
ipmp
lide
lipoma
lysis
marsh@@
mushroom
ologic
pedestrian
plot@@
radiographic
shonii
stepwise
struct
taiho
ultras@@
variously
zoster
aye
bf
bins
bulletin
embryo@@
kate
miz@@
mizu
objections
offensive
participates
props
scarcely
scd
spirals
spm
spouse
transformers
warns
wb
zaburo
3m
asserted
auther
beats
certifications
crafts
dlsw
efi
endor@@
irrelevant
marke@@
mesenchymal
moduli
mune
pursue
registrations
restraining
result@@
rev@@
spinach
vinyl@@
alizes
axially
bragg
breach
broadening
butyl@@
carbur@@
carri@@
chip@@
corpor@@
detaching
extingu@@
francisco
heritage
igi
illusion
obstructed
ocytosis
operatively
pops
pps
premise
qi
rdf
sarco@@
spi
ttable
adipose
amor@@
decei@@
ery@@
fraud
globin
ims
inexpensive
liberal
lins
mitotic
oi@@
poiesis
sash
spacecraft
surrounds
transc@@
ularly
yamamoto
-3
arthrosis
asymmetrical
attendees
belly
contracting
daijokan
dew
heel
hemangioma
inu@@
isol@@
jc
manyoshu
n2o
nephritis
noti@@
omo@@
rup@@
saul
subsites
subtitle
surface@@
sync@@
variational
vities
wall@@
wrong@@
ym
yolk
0,0
2,2
260
amber
amt
approving
arashiyama
cock@@
dms
halfway
hou@@
infringement
lender
mbr@@
mh
nancy
occult
oceanic
pencicle
rainy
retreat
rey
understands
vertebrae
xdata
amid@@
austenitic
blurring
bulleted
casein
classics
consolidating
creature
distinguishing
doctrine
hashi@@
inquiries
lish@@
multin@@
netherlands
observ@@
parenchyma
pharynx
phonetic
reacting
rif@@
srtio3
sulph@@
ungroup
vacant
wdm
wr
xpress
zone@@
2.0@@
768
apnea
cakes
cgmp
contractile
cz
deduction
deta@@
dialog@@
diam@@
diskette
dominance
farmland
gable
genital
genotypes
hygiene
impressive
ishiyama
kozuke
pods
proteinuria
speckle
ssi
stagnation
tomi@@
ard@@
auro@@
coercivity
debu@@
distilled
gently
hydra@@
icians
inaccessible
irrit@@
itating
kles
lum@@
middleware
mud@@
outage
rfa
roentgenogram
s.this
sheet1
shonin
silla
subdivide
xanth@@
aor@@
arisen
chrysanthemum
disulfide
feat
flattening
h.323
hatt@@
histopathology
landslide
monjo
netting
pains
ripening
rus
setsu@@
sparks
swine
tastes
terror
tra
ularity
uncompressed
zombie
ample
anatomy
breakage
conden@@
constriction
dbm
decorative
dir@@
disclose
elbows
fai@@
gau@@
gras@@
igawa
intern@@
kuri
mv@@
occlusal
personalization
publish@@
seismo@@
seventeen
sever@@
tentative
trouble@@
zirconium
1971
211
8.3
acqui@@
attentions
brady@@
calculated@@
convic@@
deg@@
dick
dru@@
effluent
equip@@
expelled
fierce
gative
gene@@
olfactory
omyo@@
paints
pitting
refriger@@
santa
sentinel
sprite
supernatant
thread@@
titem
tyl
und
unlocking
wished
woke
adrenocortical
ames
auton@@
cd8
cooper
discriminate
elu@@
forehead
herb@@
hiko@@
hourly
iassembly
icking
idan
immobilization
northing
oc
paren@@
psk
punish@@
purely
regenerating
sleep@@
tari@@
tose
weigh@@
xa
zealand
√
232
ales
anosuke
atrophic
bizen
build@@
ch3
ece
ecl@@
est@@
fiers
greeting
instruc@@
mass@@
nagaoka
okuma
opti@@
parotid
ppb
tessel@@
umo
1cm
2600
6to4
align@@
allotted
braking
caries
cene
cz@@
dependently
digitize
faqs
fcheck
glycer@@
hemostasis
inciner@@
iti
junii
lastic
mock
newtonian
ophilic
permissible
runway
sable
scavenging
sits
sne@@
som@@
touch@@
tourists
yel@@
2cu@@
announce
digging
fune
gost
multivalued
retries
rick
sunset
tribo@@
ubr@@
worksharing
175
99mtc
abbreviations
asser@@
calori@@
cated
ception
colon@@
conquest
enthusi@@
fragmented
gastritis
honjo
inconsistencies
initiators
kamigata
lcp
orbits
recessed
sliced
tate@@
thick@@
tyl@@
unmatched
veritas
wh
9.5
ando
appe@@
arsen@@
b6
cari@@
cushing
darling
grease
holmes
ity.@@
kamigyo
machin@@
manager@@
msdn
murasaki
porcine
ret
spotted
sprinklers
stitched
texturemap
tourist
weighing
xsi@@
zable
1945
280
89@@
burg
colleague
cve
defaulted
dihydro@@
discrepancies
dise@@
eo
gw
hybri@@
inspecting
intermediates
kiri@@
liquefied
mystery
programmatic
sdp
srs
travis
12.3
509
acidity
address@@
adsorbent
antihypertensive
assisting
bromo@@
dece@@
eighteen
estradiol
hopping
ikki
iom
julia
mergepoint
nondestructive
ohara
oxygenation
preemption
pruning
resumes
revealing
separ@@
shimane
shoul@@
ssc
testicular
tuesday
1867
altogether
amyloidosis
assault
boku
brocade
bud@@
carved
ciliary
dough
endo
eping
esi
floc@@
funnel
horrible
idm
incre@@
ington
interconnected
lah
levitation
limit@@
logistics
mination
phag@@
pher@@
phthal@@
prey
probation
reminders
revolt
satisfactorily
septum
submarine
telco
terrorist
thrombocytopenia
tibia
trucks
turkey
1400
aer@@
badge
chroma@@
confidentiality
easting
fermion
gay
hino@@
hpv
interpolate
mizuno
perl
remembrance
resisting
simp@@
visc@@
wilt
abode
abruptly
aliasstudio
ambulance
asted
atom@@
binaries
ccs
consulted
decre@@
endotoxin
facilitated
fantastic
geodetic
glutamic
hatch@@
jordan
journ@@
kiri
omni@@
perio@@
plankton
quaternary
some@@
swi@@
tubing
veter@@
w.@@
wm
1951
2h
d.the
dams
fresh@@
furu@@
hidetada
honestly
importantly
intensified
labelled
lastly
lend
mucin
parenting
pupils
q1
qualifiers
sheriff
taxa
upper@@
wetting
yoshimune
attacking
cathodic
cover@@
critic@@
crow@@
demoted
exca@@
gil@@
iga@@
numbness
olor
oration
overdue
pcna
polyps
predomin@@
reclamation
retarget
road@@
sali@@
sewers
tailor
teness
terrace
torn
unstructured
abstraction
accelerators
aeration
allowances
archery
assembl@@
basket
bli@@
chick
crossh@@
downs
electrophoretic
fos
glandular
glossiness
hemodynamic
historically
humidi@@
icopy
javaserver
jik@@
lam
lating
milestones
myx@@
neonates
semin@@
sher
soma
steve
subdues
succes@@
summit
tment
uno
absorb
bond@@
chairs
comfor@@
controllability
convert@@
cred@@
cyclosporin
dequeue
diverticulum
exc@@
excer@@
gations
gvhd
halide
injections
izers
kov
kun
lagrangian
lookups
lysozyme
math@@
musa
night@@
polysaccharide
populating
rests
rn
router@@
specifi@@
synonyms
timers
tof
tural
158
adsk
afu@@
arcsde
bilayer
bro
chicago
classi@@
debugs
described@@
ebv
eel
emerge
enjoying
execu@@
falsehood
fertilized
freezes
frog
fv
logi@@
markov
michit@@
microcomputer
mik@@
noxious
outermost
params
periodicity
point3
precincts
reachable
rheological
rie
seto
sharpness
sponge
syflex
tommy
tpa
wav
aching
ampli@@
arthur
atb
backspace
dlls
elasto
f9
ferrous
flank
gathers
h4
happi@@
hedron
kne@@
murderer
priori@@
resol@@
rsm
xiii
η
2x
4f
alongside
attenu@@
atum
bran@@
buffering
candy
centro@@
cession
corne@@
crystal@@
floats
follows.1
injecting
k2
lation@@
lative
lity
locales
matsu
murine
ophar@@
peritoneum
potency
precinct
prod30
propi@@
protec@@
realism
salvage
substation
transg@@
yamat@@
185
amplifiers
barn
blister
blu
bps
ch3@@
chromic
chy
declaring
halls
hooks
humor
inher@@
intelli@@
leys
maid
notebooks
oishi
omo
parks
pathdata
patrick
policy@@
probabilistic
spc
sugars
uplink
310
abel
acks
adjacency
aggre@@
arabidopsis
bsa
capping
commodities
contention
directs
edged
egg@@
endocr@@
erected
inactivity
injector
intravascular
journalist
lakes
lambert
lofted
lysine
onsite
perpe@@
ppi
primers
servis
spot@@
stitching
82@@
alley
aniline
booking
clinicopathological
crab
dbi
diamonds
esterase
exposing
ffing
hangs
hogen
iia
invested
isomerization
matsumoto
mist
ninety
nish
nosuke
revol@@
sado
tama
temper@@
thief
withevents
ybco
1μm
agnetic
alkan@@
antiviral
apoptotic
attacker
blew
cabg
cyano@@
ensured
fasci@@
flaw
fullprodname
hank
hw
inomiya
lian
mra
ouse
punc@@
reluc@@
rota@@
suit@@
userõs
149
153
aldehydes
assays
ccm
character@@
corps
corrugated
directing
foo
jason
lacquer
mond
nagamasa
nakatsu@@
olap@@
rokujo
sct
senders
shik@@
slept
sweets
synchronizations
thiophene
tribute
1α
4m
802.@@
akamatsu
atyp@@
blockage
bloggers
bézier
checkmark
coincides
eject
enteral
eur@@
fille@@
infiltrated
juichii
mosfets
nephro@@
nude
okoji
practicing
reactivate
residences
rflp
rtp
ryan
sessho
skylight
so2
titis
transcripts
157
amenity
antifungal
aristo@@
axis@@
bleaching
cascaded
claire
cled
conn
downstairs
femtosecond
guil@@
homogeneity
inv
kitak@@
lt@@
mastectomy
microstructural
mpls
overlays
pha
phil
publishers
pyo@@
rainbow
raz@@
sims
stir@@
try@@
unread
watanabe
1968
6m
ading
ambiguity
boarding
capillaries
craft@@
discharging
grief
hanshin
hosho
iemitsu
limestone
masako
mpo
nyo
ordinarily
rik@@
sally
societies
teapot
tempor@@
8.2
amer@@
analysi@@
avail
commemor@@
digit@@
einstein
fabricating
fib
gordon
hills
intran@@
jump@@
nails
nikko
occupancy
oy
pbc
pga
physio@@
productions
ptfe
rw
serialized
soc
synthesizing
tachi@@
timewarp
unreachable
xseries
affection
amer
assert
blunt
commun@@
confident
dazole
expander
goodness
hik
jesse
l2tp
maneu@@
mem
migrates
orn
persu@@
portuguese
resili@@
resour@@
tailored
tenchi
transparently
wholesale
api@@
ashige
catech@@
caustic
comprehensively
damp@@
desulfurization
encore
erasing
gum
hakodate
halftone
hall@@
idf
inert
intrap@@
komyo
lymphocytic
microstation
minu@@
oita
osm
pauses
pri
promotions
prostrate
rap
seminar
stimulate
theophylline
toxic@@
uss
1,0@@
adrenergic
aj@@
anydata
appendicitis
chugoku
commercialization
conformational
costly
cox@@
datasets
dif
gss
hec@@
horse@@
inset
mydocument
nihon@@
pgp
proces@@
prospec@@
proteinase
prp
quinn
rdbms
ries
robin
scape
senator
skill@@
tochigi
tsuchimikado
warranties
wds
afforded
basi@@
brighter
categor@@
continental
crowded
ectopic
enforcing
engineered
extrusions
gsh
infiltrating
jak@@
knowledges
lapse
nac@@
pcmcia
pyre@@
samine
shh
virtu@@
wistar
audiences
dac
ens@@
exacerbated
harry
holographic
impulsive
indigenous
kaoru
myoo
nam
nr@@
onto@@
pegging
plum
radish
recovers
scale@@
sr2@@
suspensions
switchview
synergistic
todo
μs
174
adversely
blotting
cephal@@
civilization
democracy
eclipse
eff
ethnic
flic@@
flutter
funded
heuristic
kanazawa
kuroshio
metalorganic
motion@@
org@@
puri@@
reboots
roc@@
sara
superse@@
teric
trou@@
weakened
1962
acin
ascended
boson
chickens
compelling
constric@@
dsa
ien@@
iraq
kevin
midlet
minated
moku@@
nephrectomy
ologically
pies
ressed
revaluation
ridiculous
saint
saku@@
sans
simple@@
stump
styled
subform
sunshine
vou@@
134
advertise
bm
caret
codecs
compacts
contamin@@
cysto@@
destruc@@
graphic@@
isoparametric
jumped
kazu
laun@@
maritime
moi@@
permittivity
quads
remembers
shiny
shizu@@
smon
sysdba
trates
ugly
172
anim
antiferro@@
asbestos
authoritative
azo
britain
cfrp
coccal
collinear
commence
dojo
erythematosus
exci@@
extruding
financing
intussusception
ition
kl@@
mg2
mocvd
pfc
prohibit
reclaimed
richard
synthetase
vestibular
xiv
3750
acous@@
albu@@
apc
approximations
awaiting
cardia
cropped
cuisine
decimals
dep
eosinophils
gies
grieve
homehome
imbalance
import@@
indi@@
lagoa
larva
lis
lisa
lox@@
michizane
morgan
parturition
plugging
r12
reorient
superposition
taxis
tioning
vil@@
violating
ware@@
znse
212
300mm
allevi@@
appetite
awards
blower
carcinoid
cir
coexist
dol
invading
latch
mirrorview
motivation
myeloid
pdp
producers
puncture
subgroup
tapped
tidine
tio3
torch
wy@@
yayoi
yoshinori
zhou
7000
adenovirus
arai
asal
assa@@
batt@@
cathe@@
caudal
computerization
daigaku
dder
ebm
enclosing
excre@@
gim@@
glycan
ground@@
gui@@
i5
inscription
manipu@@
maturing
motorcycle
nihongi
obliged
pathogenicity
personalize
purchaser
qua@@
quantify
refrigeration
scaff@@
stret@@
traded
visceral
yoshiie
ا@@
((
.for
184
ais
biodegradable
communicator
conjunctival
coupler
dging
differentiating
dispose
divider
fsg
fuc@@
gakko
hdtv
heed
kameoka
lengthen
nation@@
occur@@
ony@@
osd
programmers
ral@@
renum@@
scr
semicolons
shoshi
spawned
spermato@@
superconductive
william
0.03
965@@
bury
celebration
cie
coincided
conceal
conformal
discovering
dox@@
drawing@@
drm
emotions
hematological
ility
jimmy
lodging
mbean
omax
oriental
pertain
pharmac@@
pouring
pvi
quasi@@
repositioned
vely
yamanashi
12.4
bismuth
caffeine
cavernous
defensive
ethane
eyelid
hated
hypothetical
inase
inpatients
isoparms
lathe
lightening
listened
mage
makeup
menopausal
microsystems
penetrated
pim
reliably
sified
singer
spiritual
stretches
symp@@
syno@@
transportable
trol
utsunomiya
10k
12.5
7.7
addic@@
aero
ancy
atal
cking
cocci
disobe@@
glutin@@
isolating
landau
naoh
ov
peculi@@
prom
propyl@@
rc@@
rokuhara
signi@@
sinks
slant
smp
splenectomy
stomy
subju@@
takahashi
tates
tribe
umi@@
wu
year@@
absorp@@
anastomotic
appreciated
appro@@
carboxyl
card@@
categorize
cryp@@
defaul@@
delicate
designating
dsp@@
fibrin@@
icu
karyotype
kazusa
kindness
left@@
ort
peoplesoft
privately
rgm
sadan@@
salaries
skip@@
thymo@@
ultrastructural
ultrathin
unsafe
winner
1,000@@
100.0
176
2x@@
atresia
beneficiaries
combat
eal
epine
extern@@
inn
isakmp
itu
muscul@@
neutrino
organisation
outdoors
pharmaceuticals
polyurethane
pushes
rung
senses
sii
sphere@@
subtracted
verbal
bies
breadcrumb
cans
cartoon
counterpart
cryptography
depict
finalize
footnotes
galaxies
hypocrites
illu@@
kumi@@
lif
mbo@@
mistaken
saf@@
solicited
speculated
subgroups
taki
thou@@
twisting
wettability
3c17@@
abstr@@
arbitration
asth@@
chloroform
collabor@@
dv@@
eq
fearing
fibronectin
fluor@@
genin
hakata
isan
kishu
lanthan@@
lish
longevity
miracle
onmyo@@
patrol
prayed
qtr1
schottky
sil
smooth@@
snippets
steamed
suppor@@
suppressor
teru
tryp@@
3000@@
308
4.9
afghanistan
alkalo@@
andro@@
beg@@
bi2@@
confiscated
connectrix
corro@@
diabetics
dle
echi@@
eradication
fetching
flatness
foaming
freshwater
gamo
hemato@@
intrusion
keto@@
liberty
measure@@
narrative
predetermined
profound
rage
reckoning
scary
shadow@@
steep@@
tanka
titleblock
202
2o4
acupuncture
asak@@
compli@@
convince
cooler
courtesy
iop
jumper
kagawa
listens
mismatched
oblig@@
pertinent
prenatal
propofol
realms
resignation
rework
rix
shuts
sie@@
stranded
th1
th2
tionary
url@@
vf
vir
volcano
wag@@
warehouses
wel
zns
α2
5.9
afs
artistic
asting
blossoms
bran
clari@@
cytometry
desi@@
embankment
faint
fea@@
flanged
flexor
healed
hoshi
hyperfine
infer
inite
inos
kills
leaved
lst
malformation
neg@@
redefined
reseller
rinzai
secur@@
selected@@
thal@@
titania
ttf
ulum
unt
varchar2
voxel
whisp@@
writings
wt.@@
0.10
1863
alas
arate
bounces
collagen@@
communicated
creatable
decompose
engi
establish@@
ez@@
gizmos
gotoba
hemopoietic
hong@@
imf
jitsu
kita@@
laim@@
ldap@@
leftmost
liberated
licen@@
micron@@
muted
oplasty
oside
presen@@
prl
reddish
resul@@
resur@@
rmt
ros
smectic
softness
stray
tides
tn@@
utc
wicked
1873
abduc@@
ajax
assing
beth
bucks
catheterization
climatic
dc@@
derma
employers
hurts
loco@@
phased
phosph@@
pss
refrac@@
robbery
s.xml
settlements
shosanmi
technolog@@
thec@@
toposurface
toyota
vanishing
10μm
abortion
accrued
aemon
bang
berry
breakout
bursting
corn@@
crowdfx
cryogenic
cuff
cyclohex@@
extre@@
gir@@
hachi
izane
legen@@
linewidth
methan@@
output@@
peroxidation
polic@@
ppo
puberty
rheed
rigorous
seaweed
sells
seppuku
shita
silly
tris
vault@@
zoo@@
146
186
271
calibrated
coagul@@
conditioners
discontinuities
dopant
endoplasmic
gator
iki
inium
keratin
mineralization
osnap
ount
paraly@@
predictor
primor@@
pronunciation
reki
setup.exe
stasis
submicron
t_@@
unavoidable
usuke
victori@@
vinegar
wic
wo
zom@@
3.x
84@@
ador@@
affordable
anderson
animator
butterfly
clutter
crosstab
cues
dama
definitive
delicious
documen@@
forensic
gaba
jack@@
keyframing
linda
lw@@
pper
preparatory
recited
relieve
sendmail
spice
sq
sweden
uration
uvws
72@@
assassination
assists
autoantibody
biting
edy
eng
ensemble
gazette
gym@@
haz@@
hotspots
ingress
invoicing
linec@@
literatures
midp
obliter@@
pericardial
recite
ressing
rhizo@@
septic
six@@
spinel
stry
submit@@
supervised
ubiquitous
ukone
wwn
197
arium
arteriovenous
bacter
batio3
bble
bitonal
blockade
cand@@
collec@@
competitors
evol@@
exert
fluctu@@
hydrolyzed
inode
malaria
manure
manuscripts
nikki
nings
ost
phytoplankton
portals
pouch
prion
prosthetic
resembling
sanin
shaka
symposium
tdm
yanagi
yep
aceto@@
banned
bearer
bis@@
chemiluminescence
chiefly
consignor
deri@@
dorman@@
feather
gbxml
gv
inge
magazines
mines
parasi@@
photocurrent
plutonium
proficiency
sensor@@
shine
soda
speedup
whis@@
worship@@
ww@@
900@@
acho
apoplexy
asho
ason
atl
authenticating
billy
biologically
canadian
confucian
coo@@
dimini@@
disperse
domain@@
eless
exploding
forums
illumin@@
iro@@
logout
mari
monolithic
obedi@@
omegaly
preserv@@
renga
replicates
roe
shibu@@
trichloro@@
tuberculous
undoing
vegetative
wrongful
118@@
136
3,4
abandon
acs@@
ante@@
assi@@
cabinets
chs
coals
delimiters
depen@@
drilldown
dwarf
eh@@
electrification
enforces
fe2o3
foils
gloss@@
governs
hexa@@
iet@@
inaccurate
mammals
modu@@
obe@@
offender
old@@
percentile
proline
propyl
rul@@
ryoma
serv
suffixes
tweaks
waki
41@@
arterio@@
ashiro
attrac@@
authenticity
briefcase
broadcasts
cmu
constable
corium
cutout
d845@@
furni@@
ineal
intentions
junit
lem
luminescent
magni@@
mozilla
p4
pooling
prep
quantified
s4
sif
subscript
tactics
userid
wait@@
aldosterone
annihilation
atri@@
believer
blasting
brian
chen
crust
dayu
disappointed
duction
enantiom@@
gn
handsome
histochemical
inconsistency
initio
intervertebral
paras@@
pdd
perspectives
phin
poured
renormalization
ribbons
rulesets
rv
sometime
strated
subobject
tti
unfair
1864
8000
802.11
aceous
achika
advertised
affili@@
applicative
booted
bpa
bpdu
cler@@
culo@@
cyanide
ellular
formalin
fragile
gle@@
gregorian
impro@@
inadvertently
interfer@@
leu
lidocaine
lik@@
mata
mov@@
oracledecimal
paved
rison
sants
submandibular
topmost
2014
acrylate
adherence
biography
butsu@@
clocking
dant
ediscovery
elle
embar@@
extinct
freeing
gauges
golgi
gue
hf@@
housed
leukocytes
litis
lr
migra@@
ndynamics
neutralization
ogura
optimistic
praying
push@@
scl@@
sukune
theft
virgin
154
187
1907
acetonitrile
acsm@@
aminase
assassinated
blur@@
bottleneck
dimensionally
dividends
elic@@
embarras@@
girders
god@@
hopes
knob
lyapunov
nul@@
pk
psoriasis
ramp@@
refresh@@
ric
roughing
russo
sifying
suo
uncommon
undo@@
"""
adaptor
administrated
authentic
cac@@
chess
christians
chuck
designator
fond
gynec@@
itro@@
julian
kerr
kokuga
lightly
lyn
oki@@
ptca
questioning
reordering
replacements
resided
sectioned
sio@@
sustenance
textrange
torii
tsm
wavy
whomever
1964
432
atte@@
bject@@
cg@@
conjunctivitis
crank
educ@@
fukakusa
hexagon
hoo
incompatibility
intercellular
intro@@
ministries
nelson
nh4
perceive
practic@@
reapply
ression
supra@@
sutras
titudes
ultrahigh
10cm
1582
2.gif
aerospace
buff@@
catdrawing
cates
cholecystitis
conductivities
consultants
icious
intel@@
intentional
inus
java.@@
kara
kerato@@
luminosity
majesty
mations
monas
occlu@@
omni
remark@@
survey@@
syndromes
techno@@
udb
vocabulary
youtube
zygous
204
420
appreci@@
audits
centuries
flake
functionalities
gluc@@
grac@@
invest
league
leo
localhost
mapcheck
mox
murders
objectively
opk
orients
perturbations
plant@@
pursuing
recur@@
reef
sio
takatsu@@
techn@@
teen@@
vian
198@@
77k
aji
anticoagulant
aving
bern@@
chained
construc@@
elders
elicited
emphasizes
ere@@
erec@@
exile
extracorporeal
film@@
fish@@
hcg
homicide
kataoka
kotsu
linac
masam@@
multilink
nio
nonuniform
oin
parented
permeable
pour
prejudice
reloads
respec@@
round@@
snp
sume
tokushima
tropo@@
yoshim@@
07@@
chik@@
deuter@@
ellipsoid
fox
frees
gaze
ggle
heijo
hypoglycemia
iden@@
incredibly
miner@@
ories
presiding
prodnameshort
requester
restrained
scanmail
spati@@
stranger
thymic
tmc
triangulated
tsutsu@@
underscores
xs@@
163
1952
1969
5500
bean@@
dac@@
damaging
dept
devic@@
doom
fdg
gauss
glycemic
heme
icus
immunofluorescence
jiju
memos
mete@@
morphic
nial
ovulation
pak
pottery
satsu
sepsis
serous
slows
supercooled
vs@@
zt
大@@
1.8@@
169
1966
aal@@
alleles
amichi
arctic
arities
ascen@@
beg
containment
download@@
eur
fairness
freelance
ies@@
imadegawa
kenshin
nakayama
omentum
racks
retime
sies
specific@@
subsidy
suppressive
synch
uma@@
upwards
wang
wrath
yards
zip@@
18.@@
aces
anp
bodhisattva
bpdus
ccp
contrivance
depos@@
digitized
dilator
economically
examined.@@
flexnet
ghter
haplo@@
his@@
kik@@
metaplasia
omatous
organiz@@
outsourcing
parameterized
pave@@
plasmic
pus@@
roger
saburo
saddle
scanners
scp
skinned
taku
trailer
unfolded
urination
á@@
atur@@
cada@@
cass
ceo
commissioning
conformance
cu2
democratic
denies
elite
esh@@
gata
gle
hirot@@
human@@
imperfec@@
imprint
ketones
lays
microchip
modifiable
nlb
nursery
propagations
reminds
reshape
roof@@
shimizu
shochu
shoki
shomu
soun@@
stripped
taries
tetsu@@
ulative
urethane
vity
1300
1963
achy@@
analogy
ann
antho@@
argen@@
ather@@
cgfx
challenged
conn@@
constitu@@
decoder
eller
fulness
hyperglycemia
joystick
late@@
linearized
menopause
motherfucker
muslim
nurbs@@
opc
opto@@
serological
technicians
tral
yeasts
100mm
6k
allotment
aset
awr
branch@@
chars
cultiv@@
dden
document.@@
dop@@
dump@@
ecd
echoes
embrittlement
eving
flip@@
gar
geomagnetic
ghosting
giga@@
halluc@@
ise@@
overnight
pacing
redefining
surfing
tus@@
yasum@@
147
17.@@
1967
bifi@@
christianity
chun@@
coag@@
deodorization
diapause
glob@@
kicked
lak
nystagmus
ont
polynomials
precedes
pretend
proliferating
reminded
shrinkwrap
spinners
stle
stra
sway
tetrach@@
thermometer
tiva
trate
1394
1889
account@@
assign@@
atoshi
bursts
contractions
cwm
documentary
domino
exafs
fibr@@
fujitsu
good@@
kk
linbo3
macroscopically
manhole
methionine
mhc
neoplasm
nocturnal
photoresist
pulls
recon@@
rental
repu@@
resc@@
ridine
second@@
smi
solidi@@
stru@@
supposedly
sword@@
tadan@@
tetsu
unprotected
venting
vesicle
vlsi
5a
amaz@@
anca
antidepres@@
b4
boms
breeder
camer@@
couplings
dissoci@@
dopesheet
enqueue
eting
executions
flew
gib@@
hindered
hunger
hydrocephalus
laminates
midsize
narco@@
panel@@
pectoris
prof
recalculates
rowset
security@@
sweetie
uclide
unusable
validations
affec@@
alumin@@
atherosclerosis
attitudes
behavi@@
biom@@
cali@@
characteris@@
cine@@
docbase
effecting
enactment
exclamation
exer@@
hypothyroidism
ians
nst
ochi
operable
oracleinterval@@
pear
roy
rta
shrimp
slash
suboperator
substeps
suites
swa@@
tella
tessellated
thermic
tree@@
tribunal
tsunayoshi
vav
wim
yoshihiro
1931
810
acetabular
activesync
annex
discretion
doji
dolls
dor
enumerate
esuke
fentanyl
flam@@
flourished
fluence
fresnel
gtp
hubs
ibl
isada
lacked
mimic
nomura
orthotropic
ow
q2
saiban
scientist
skips
storied
suspects
teller
123@@
accessor
alve@@
appforge
arrogant
arteri@@
atives
background@@
characterizing
correlates
dangers
diffusive
dup
ehime
ethical
freak
furnaces
generous
geometrically
interferometry
kiz@@
loro@@
mitigate
nad
pfs
rejects
rhodo@@
sail
saka@@
shojo
shred@@
sojo
sporadic
stab
taifu
targs
tso
valid@@
wears
.dwg
172.16
254
catecholamine
cholangi@@
choline
cons
depleted
direction@@
glaci@@
glued
hic@@
hyphenation
initials
inmate
internationally
iss@@
joruri
kasa
nment
probing
pvt
qs
readability
refugee
sae
shut@@
sliver
synoptic
threatening
unify
yoshihisa
η@@
.as
4,000
500,000
amago
anesthetized
bangladesh
bidding
countersunk
deforms
forwar@@
fte
intercep@@
jaeri
jd
jushi@@
mises
morpher
obses@@
physiology
politician
polygon@@
sakanoue
subsidiaries
subsite
truncation
youngest
3he
5000@@
aboard
accumulating
asts
captive
cid
dispensing
distinguishable
eof
escence
gasket
gru@@
hori
interro@@
koto@@
listen@@
misasagi
multilayered
muni@@
nanotube
nics
obi@@
pkcs
placenta
ruthenium
text.this
thickened
transceiver
tsubone
uucp
watt
x1
yoshimoto
κb
1918
1β
300k
alum@@
asaka
bam@@
blend@@
catalysis
cheek
cohesive
consigned
covariance
creativity
desmo@@
eddie
ether@@
faraday
guarding
hologram
iaa
inability
inser@@
ius
mailboxes
mysterious
nagayoshi
nanbu
nighttime
origin@@
parade
psychiatry
pup@@
rehear@@
resp@@
senti@@
sph@@
splash
telo@@
titanate
vickers
akata
alised
apples
armies
bie
caster
critically
decode
elli@@
enrollments
environmentally
extensibility
facsimile
fg@@
frameworks
fred
guessing
hole@@
inven@@
iodo@@
kni@@
kuri@@
lance
lessness
obama
ocyte
plic@@
pto
rende@@
sensible
size@@
soybeans
sphing@@
sponsored
sprink@@
thr
treas@@
vigil@@
voc
ake@@
angeles
binocular
chop@@
conce@@
damp
diuretic
electr@@
ges@@
hotfix
monocytes
needles
nonsense
orian
rai
seness
shinden
soaking
spore
stains
stellate
stors
tomographic
transplan@@
twor@@
xp@@
911
aeruginosa
aine
calibr@@
coron@@
cytodiagnosis
deceleration
ejected
elastase
elegant
ements
exercising
fier@@
helicobacter
ikko
ileocecal
incinerator
inflation
intero@@
kabe
kitano
kongo
lightmap
ounded
pheochromocytoma
randomness
renewable
repulsion
retire
rett
rubbing
rum
seize
sie
slowing
sputter
stern
stratification
taishi
vial
voxels
astigmatism
auchi
autofs
avail@@
betrayed
caddy
consequ@@
convolution
declares
dil@@
east@@
formulations
fou@@
h3
hamster
hoo@@
iced
icidal
interestingly
lishing
ln@@
mainland
moieties
nipple
peoples
portfast
propo@@
sekkan
setup@@
stricture
subcategories
thunder@@
tilting
toxins
upcoming
ush
205
aa@@
amx
ancies
brun@@
cardiographic
carl
clocks
counterparts
deadlock
default.@@
demolition
depolarization
device@@
drawer
entrust
finely
fingerprints
flaps
fundoshi
grape
greg@@
heets
hut
icide
lawyers
locomotion
mibu
nests
omath@@
radiograph
raytraced
rhea
seasoning
shrinking
switzerland
toshim@@
tric
yamato@@
1870
200,000
200mm
200s
acad
agre@@
apply@@
cents
dicate
dlname
emissivity
ercp
eted
facilitating
imo
ishida
mapp@@
mma
passivation
pds
photorealistic
pollutant
puzzle
scenic
sses
stylesheets
swee@@
vc@@
won@@
alice
azu
choja
cholangitis
coexisting
dency
eccentricity
eigenvalues
eline
enterprise@@
entric
epitope
fov
gigabytes
hast
heterozygo@@
hypothalamus
inhal@@
internation@@
interoper@@
lain
liters
maxwell
microbes
mononobe
odawara
oppression
progeny
regul@@
room@@
selen@@
spermatozoa
surrogate
symmetrically
telephones
timetable
undoped
whiskers
agers
alphabet
arer
blink
buccal
clavic@@
close@@
combustor
configur@@
cranes
creators
declarative
deducting
disbelief
engishiki
engra@@
ez
hps
instabilities
itomo
kokyu
lightness
marie
module@@
moessbauer
moon@@
nth
photocatalytic
plume
pol
porcelain
priced
proliferated
puppet
pyrid@@
rains
shielded
sterile
sugi@@
transcrip@@
tub
willed
wrink@@
1700
adoptive
crosslinking
dator
eki@@
eradic@@
eraser
fcs
gelation
gt@@
hakama
idc
infinitely
intersected
kake@@
keyhole
kosa
lawsuit
moat
nonspecific
observers
ovi@@
regulates
rels
screenti@@
shocks
silkworm
sleeves
soku@@
streamlined
susp@@
tactic
tilted
tubules
vimentin
,000@@
193
7.9
acar@@
acknowledgment
actuals
ags
correspon@@
cups
dharma
dura
dynasties
equalizer
ette
exempt
hanazono
imagination
parm
phospha@@
plasmon
polytheists
ress@@
screwed
shite
sidebar
tetrahydro@@
translucency
ucleotide
vating
vulgaris
zx
abap
adh
auricular
autosomal
calendar@@
compensator
d.c
dozens
encryp@@
essbase.cfg
flooded
formability
graduates
hiki
lc@@
lro
microgravity
mobilization
moss
mounds
mst
oaza
penis
plantation
pruritus
pyramidal
roofing
seas
secu@@
servic@@
sino
slicing
sunrise
syllable
tina
transla@@
transpiration
trigeminal
whist@@
ylo@@
130@@
152
76@@
aks
circulated
connor
corrosive
dashes
depart
electrophysiological
equatorial
fertilizers
gst
heart@@
hra
idp
in.@@
indefinitely
itol
kura
lithiasis
livers
mocap
nen
nucleotides
polypoid
regimes
sedimentary
smp@@
sp3
stabilizer
tca
tiveness
togu
vibrio
zai@@
χ
apatite
attendants
autotext
cele@@
child@@
christ@@
competitiveness
consecutively
continu@@
customer@@
cyclophosphamide
determinant
dull
eras
eruptions
hepato@@
illuminate
incense
insulators
intercalation
kake
lacto@@
leans
liposome
mansion
norepinephrine
onom@@
ophthalmic
pasture
polymor@@
protoplasts
rewards
shining
shop@@
slotted
south@@
stationed
talented
thunder
thursday
tmp
tremor
ulator
wasting
workarounds
xsd
yb
0.0001
1980s
antiallergic
apostles
attestation
cautious
compassionate
compiles
diethyl@@
diffracto@@
discer@@
eis
hoko
instanti@@
join@@
liaison
liars
logram
movers
onomic
peap
pheno@@
pheromone
poisonous
quan@@
reconstructive
refuses
regre@@
scinti@@
segregated
simon
smartreports
sustain
tiering
ulted
3,5
370
ache@@
amity
appropri@@
depart@@
diagonally
drafted
executables
fap
fief
gur@@
ime
kawag@@
kengyo
kes@@
kikuchi
labelling
localize
mate@@
miti@@
mov
neglect
ogim@@
onate
outdated
peaked
prosecu@@
pulldown
raining
rons
stric@@
suzaku
texas
@1
adver@@
alizations
basic@@
bmt
catalogue
confusing
constipation
ddy
encephal@@
eous
explained.@@
florida
hoku@@
honzon
indu@@
iring
jagged
koso@@
laxis
multiplex
naphthalene
neurogenic
next@@
novels
oceans
precipit@@
prototyping
regenerates
reinforcements
signifies
syllables
unregister
vet
wandering
zak@@
addr
adren@@
amo
bold@@
cls
demerits
dichroism
disappearing
elections
eled
evolving
factor@@
flan@@
glomerulonephritis
manship
medulla
mission@@
novell
offenders
paroxysmal
properties@@
rebooting
require@@
scav@@
sily@@
softimage.@@
subtasks
synchronizer
ttl
weibull
1.x
attach@@
b18.6
cecum
celsius
chewing
compar@@
densely
diagram@@
dication
elect
erg
glucocorticoid
goat
handheld
hasten
heav@@
incidences
irritation
ishing
lie@@
membranous
onna
passwd
polycarbonate
prevailing
qtr@@
refusal
rock@@
shanghai
solomon
sures
tajima
thicken
tible
vane
vorticity
wrongdoers
1010
5.00
aberrations
arable
ascetic
australian
autostart
b.c
baekje
billable
blockers
chondr@@
csi
diar@@
dining
enzy@@
freshness
ginger
informa@@
islam
matsuyama
methoxy
missive
optimizations
pets
polyvinyl
q3
reoperation
revitalization
solid@@
tsuku@@
ureteral
win7
xsi
-5
6.9
alco@@
apparatuses
appl@@
beck
buty@@
candi@@
chainage
chitin
cleanliness
combinatorial
emily
goryo
ikoma
insomnia
ishment
kansei
kle
leaks
leases
mss@@
nn@@
normo@@
ob
olivia
orbi@@
pacemaker
pesticide
preload
shiz@@
sidase
sketchup
stair@@
team@@
tires
tricho@@
verbs
victor
worsened
1c
222
abe@@
ambassador
config.xml
consoles
consul@@
echan@@
forbid
gency
icle
implants
imposing
inactivated
iparts
itching
kari@@
literals
maximizing
offs
spasm
survi@@
tatami
tenjin
tsunami
tyler
unlocks
vsam
withstand
206
ampling
aoi
appreciable
ashamed
atability
awase
az
calci@@
chlo@@
companions
connect@@
curly
dal
dest@@
encompasses
evolve
extrahepatic
flicker
ict
iku@@
kishi
kiso
logger
mangu
mum@@
myc
potatoes
preselection
recreated
resists
ropes
sakurai
servlets
sonet
ssd
stn
strato@@
suck
supplementation
thalamus
ury@@
weathering
whilst
withdrew
yba2cu3o7
yoshisada
207
3p
ameno@@
asha
calligraphic
cock
conferences
conjugation
delirium
desperate
dug
elf
gno@@
hydri@@
jmx
koshu
lapsed
lepto@@
lily
lineweights
lion@@
location@@
manageable
matically
mirac@@
missile
ovaries
respite
rr@@
sarugaku
soaked
steno@@
tanol
thawing
timeouts
toggled
unaware
understand@@
utili@@
4v
aim@@
antagon@@
araki
associ@@
attractor
authentic@@
bas
concurrency
cords
core@@
count@@
ddi
defin@@
dissimilar
dnas
ed.1
immunodeficiency
japonicus
kimura
kokujin
lans
magnetized
manpower
murphy
nakan@@
penta@@
polymer@@
rene@@
repel
replen@@
retro
salicy@@
sewing
sfc
shiro@@
spdesignergeneric
stake@@
subordinates
sumiyoshi
traver@@
vaporization
weeds
ysz
.properties
8.4
applic@@
carpet
catastro@@
cnr
compensating
confocal
covalent
cyst@@
dang@@
dexter
diame@@
editing@@
epic@@
epiphy@@
epo
handshake
invalidation
jiki
koki
lines@@
miyako
multipath
mut@@
muta@@
observatory
orche@@
oviposition
paternal
programme
recogni@@
saicho
screaming
sensitivities
seven@@
shinsen
splices
strive
subsidence
torial
ula@@
vrf
watermarks
ype
yukin@@
316
340
absor@@
anhydride
bayashi
bungo
cable@@
decor@@
defec@@
eks
electroless
emc.com
expandable
firewalls
flights
hexane
inet@@
kap@@
microbe
mw@@
oft
passages
passion
phenotypes
preclude
season@@
silyl
stale
subcommittee
suki
teru@@
tot@@
triaxial
unrestricted
utp
yaku@@
yellow@@
aggregating
aug@@
bcg
chec@@
chill
commutation
decays
decisive
distinctly
ergic
excursion
fips
geometryclass
inc@@
itude
kabane
mca
midst
naniwa
natto
niobium
noninvasive
noto
onia
printout
resample
subclavian
testimony
thed
titration
utensils
yyyy
1955
ali
attainment
birth@@
bod
calli@@
camera@@
canned
chome
company@@
ender
equilibria
flexfields
gestures
hinder
idase
issu@@
mock@@
nyogo
oo
ovari@@
plywood
proxy@@
renderers
specifics
squir@@
stur@@
subclasses
sue@@
tandai
taxonomic
tbc
tize
toda
tonal
two@@
unprecedented
your@@
ν
173
amochi
apr
atization
azai
bath@@
cann@@
cast@@
cole@@
conforming
conquer
defini@@
discontinuation
dison
dsr@@
dumps
elec
elo@@
enia
epoch
eternal
garnet
gentleman
glycogen
individu@@
jaws
larynx
lazy
lettuce
lonely
lut
mcm
omed
oric
ove@@
penicillin
phal@@
philus
plaster
premier
rcp
resisti@@
resubmit
rier
sewerage
shimogyo
sprocket
struts
2950
agitation
amar@@
balancer
biaxial
boltzmann
brainstem
crucible
cypress
ded@@
drap@@
easiness
encapsul@@
ert
fighter
flexlm
flowed
fsh
gee
grassland
indicative
leve@@
neuroblastoma
ophen@@
osteoclast
polymorphisms
prioritize
prismatic
rebooted
stipul@@
strawberry
só
tcr
tert
tings
tournament
uac
vering
visualsrm
wayne
π@@
1928
201@@
acquainted
admi@@
airfoil
bels
biotin
caspase
chg
congestive
distortions
edrawings
elem
epitheli@@
eshape
foli@@
granulomatous
inous
jar@@
komatsu
manu@@
multipathing
naz@@
obj@@
ousness
proposing
radiant
resembled
ridges
sanetomo
sea@@
shot@@
surveying
suspending
urticaria
uru
xenon
.dll
agata
alin
atlantic
baffle
bund@@
crosshairs
dissolving
dpa
dson
ext@@
fdtd
fel
fusions
gagaku
genroku
hormonal
hypophysis
imagery
kou@@
kusunoki
merchandise
nadph
no.1
observational
prog@@
qa@@
repulsive
sctp
sharpen
temperate
twelfth
unlawful
valvular
vat
veth
53@@
8.8
administr@@
augmentation
butter
continuance
convulsion
description@@
dless
execute@@
fe2
fears
final@@
gloves
heisenberg
hem@@
hetero
hisam@@
homo
i.d
jedi
keystrokes
leucine
milled
nvram
peach
prolifer@@
rake
refe@@
riot
seg@@
sexually
shg
spill
ssed
suwa
tancy
tga
trabecular
vampire
11.5
440
6.x
828@@
agg@@
amides
antiserum
ashina
autocomplete
beam@@
borate
bottlenecks
ddm
dissociated
distort
geom@@
ght@@
gos
graphi@@
hatsu@@
instillation
kri@@
kudar@@
lial
m0
mii
monoton@@
nicot@@
noh@@
ostomy
phagocytosis
phone@@
postures
quiz
readings
rebel
rl
roshi
shellfish
substitu@@
yama@@
$$
1899
adenocarcinomas
amentary
ampersand
atable
autor@@
batch@@
bry@@
cai@@
chr
citric
cked
conferencing
dag@@
digested
dispatcher
dyl
educated
eizan
enco@@
favors
ferri@@
heishi
hv@@
ifeatures
illustrating
inian
ior
itus
jas@@
kling
lactation
leisure
m0@@
medicinal
naphth@@
neti@@
omy@@
ops@@
pai
piled
pious
politicians
radiol@@
scare
slender
stalk
tightening
unconnected
warden
wari
25mm
accord
bibliography
cerevisiae
colonoscopy
crm
cursed
drs
ener
enucle@@
ganglia
groups@@
guar@@
halves
hometown
hyperparathyroidism
intravenously
iray
iwa
krf
memberships
motsu
naught
navig@@
noting
olu@@
profession
provoked
spectrophotometric
tet
thema
ules
virtualcenter
wbs
wer@@
ο
410
abu@@
aggregations
alloyed
altar
ansys
apper
aroma
avalanche
calcified
cave@@
defecation
denote
dmso
eba
granulocyte
hidetsugu
hiring
influx
irregularity
isof@@
ital@@
mcp
nagao
pair@@
pau@@
physicochemical
pill
polish
sagittal
wei
yaw
yy@@
anecdote
architects
asci@@
assed
banished
beacons
c4@@
combin@@
compati@@
contaminants
cosmetics
differen@@
dignity
gfp
hemolysis
hubbard
insecure
inspectors
itz
jews
jinn
kalman
kink
lasso
magnetostriction
necro@@
obac@@
oblastic
occasional
ohashi
ounding
parasolid
pox
pptp
preprocessing
rando@@
ried
schem@@
shr@@
shui
subversion
taller
terab@@
tryptophan
ttr
ww
1896
1898
aoka
appointing
ashira
asynchronously
bays
chelate
coercive
cola
coloration
deactivating
defender
deline@@
deodor@@
deselecting
discovers
durable
elaborate
fast@@
flec@@
fructose
hae
hash@@
histidine
i_@@
inverts
kynapse
matical
midine
miller
misc
multipurpose
nchar
okin@@
omura
orphaned
palliative
parasite
perf@@
phospholipids
ppt
quadru@@
reducer
rency
reproducible
sphincter
spml
starvation
takatsukasa
theta
undercut
uracil
verts
xen@@
.dat
aah
angioplasty
arbitrarily
bouncing
buk@@
chap@@
chasing
chop
compassion
degenerated
draining
emishi
excitons
gestational
gracious
gs@@
instar
kino@@
kyle
nagat@@
nett
orbitals
parenteral
pity
placebo
preferably
proton@@
pvcs
scrubbing
shigemori
silage
ski@@
smells
soundness
streptomyces
subtracts
sweating
symdump
tau@@
teno@@
termed
tland
turbidity
typo@@
vascularization
vla
vmfs
yx
-4
440@@
apple@@
aryl
b5
bass
c3@@
carbonization
chloroplast
dairi
dependant
duck
effic@@
electroencephalo@@
ental
epitaxially
excessively
filer
flakes
humble
iges@@
invo@@
isshiki
jelly
karate
leu@@
logfile
masonry
mathematically
mentor
mpc
mrnas
msr
mtx
nuclides
omyce@@
propag@@
repell@@
robotics
sher@@
spun
tantalum
toms
wako
wm@@
workgroups
1946
1954
1990s
adapting
admonition
amid
ascertained
axon
buke
chicks
chiefs
chig@@
cleansing
electromyo@@
endometri@@
fiction
framebuffer
gratings
grow@@
heigh@@
isto@@
joi
kagura
lus@@
outta
pengu@@
poster
racing
resonances
servo@@
soviet
spanned
syllab@@
ticus
tms
transducers
transplanting
wom@@
wrap@@
yphen@@
159
1910
234
ank
benzoic
brass@@
ca19
ceases
cleaved
colloid
confronted
courseware
crystallites
devast@@
dus@@
enable@@
encapsulates
expulsion
fted
hideyori
holo@@
imagined
juli@@
keypoint
koh
lytic
metrically
mise
mvpart
ophosp@@
oxy
patched
pll
printonly
propanol
refer@@
relinqu@@
superlattice
tocopherol
udas
vow
webs
wordpad
yus@@
1961
8.6
adhering
assayed
baluster
breadth
c5
calibrate
cliff
commitments
edible
employ@@
enligh@@
fluid@@
gg
grill
harb@@
harsh
jealous
jnr
kanjin
kibi
live@@
lobby
locker
malay@@
mine@@
oling
paf
perinatal
phishing
pki
pron@@
rants
requestor
rob
saccharomyces
standard@@
summation
tems
tragedy
trendline
tually
turkish
unacceptable
15454
24t
302
aberrant
bando
baro@@
bingo
cd34
dce
dexamethasone
dio@@
diox@@
fluorocarbon
flushing
gakuin
horyu
multitasking
netsh
nurb@@
odg
oxygen@@
r3
retailer
revolutionary
spou@@
subacute
suse
ts.@@
turret
ulating
undertake
vacc@@
vine
vulnerabilities
zuke
1920
209
abata
agami
archival
bishop
bore@@
confrontation
congress
crashed
crosstalk
densification
dimensionless
disrup@@
emf
fen
feren@@
formul@@
four@@
honeycomb
iq@@
k.@@
litter
membered
mk@@
nds
nse
paddle
pagp
redline
rheumatic
scored
shichi
shipbuilding
slan@@
symbol@@
ularis
137@@
abo
abundantly
aci
aic
anne
assertion
bates
brigade
callback@@
dron@@
eman@@
encompas@@
flashing
hulls
kelvin
mesentery
nh
p.bio
pend@@
plun@@
radiographs
sidewalk
sincere
tenshu
thes
thyroiditis
treaties
xides
??
admins
analogs
b12
cate@@
contain@@
crawling
cyber@@
dcm
defendant
drive@@
drought
ethers
hypothermia
ileal
interpol@@
maize
makefile
mandokoro
mems
modality
molars
nephrotic
pened
petitioner
question@@
ragdoll
recurrences
regain
retreated
rude
sanc@@
scalp
separable
sidewall
summed
terminus
thyroidectomy
tozai
untrusted
vrml2
witnessed
ال@@
##
aton
battlefield
controversial
decan@@
denying
divergent
exploits
fbr
fifo
geki
higgs
indents
introduced.@@
inviting
my_@@
niddm
permitting
pizza
prefect
reportedly
repositioning
say@@
secting
sham@@
simi@@
somato@@
stiffener
supervisors
sura
tional@@
urin
wednesday
2048
640
acon@@
acr@@
alec
aning
atmospheres
bof
boshin
cole
commencing
compresses
cow@@
d0
direct3d
disco@@
eluted
explain@@
express@@
eyebro@@
handrail
inmates
johnson
minato
minded
nitro
nonequilibrium
pigmented
prophylaxis
quo
quotations
senke
septicemia
shocked
streamer
suji
sulfi@@
superclass
syn
umasa
vm@@
yoriie
yosho
223
abolish
adachi
aspi@@
bondholders
cesarean
chlorinated
chur@@
demonstrations
evacu@@
examinee
flaws
fsck
g0
german@@
graveyard
hy
hyoe
imperson@@
inder
invi@@
izawa
johnny
kelly
kosho
larry
masu
mida@@
msotrue
msp
nagan@@
nori
ocytic
pmp
shiget@@
staggered
superscript
temper
tendencies
uck
urethral
16s
appraisals
beaten
calcu@@
capsular
chel@@
cohort
conduc@@
dendri@@
depicting
dystro@@
embassy
enclosures
erasure
eto@@
excreted
expl@@
g4
habitats
hisa@@
hopefully
impregnated
instancing
irregularly
kamp@@
mater
multipliers
paint@@
pcl
pills
rant
rectus
tacles
toshiie
unigraphics
vastatin
vlx
yellowish
acidi@@
acpi
amycin
assuredly
ballo@@
blinking
breasts
c6
chelating
chen@@
citrix
colours
complain
cool@@
csr
cust@@
emit@@
epr
flickr
gem
handic@@
heroes
hesitation
ibar@@
icia
iip
inhabitant
kazan
keepers
lions
pers@@
rdp
remnants
rex
s.2
scarce
selectors
sheetmetal
shun
shy
sids
stenotic
suggestive
tins
uuid
wild@@
xvl
¶¶
í@@
ν@@
11000
160@@
absorb@@
accompaniment
alternation
anesthe@@
bule
ca1
carol
categorization
cipher
clumps
crustal
cusp
dg965@@
distor@@
dodecyl
dumped
dumping
exponents
himemiko
hour@@
hsp
ignorant
itan
kebiishi
konin
mega
mj
motives
oraclec@@
phenomen@@
pkg@@
ply
pulverized
recognizable
scleroderma
seque@@
shat@@
sionally
stamping
stride
synopsis
thrombocyto@@
type.@@
vil
voluntarily
yodo@@
06@@
100μm
1890
255.255
3dsmax
agon
attracts
avm
b3
bjects
consolidations
dampers
divertic@@
dobject
eleventh
exerts
fencing
fication@@
flowmeter
glazed
gz
hba1c
hbs
icg
informal
inin
jejunal
jitsu@@
lamination
lux@@
offsite
pcf
pepe
postural
predecessors
rand
rer@@
sovereign
storagescope
stria
stu
swift
tup@@
ulnar
235
404
activeshade
analysts
asme
blastic
bsp
catar@@
compe@@
condominium
credibility
deb@@
decrement
denoted
dequeued
drills
estr@@
exchangers
fare@@
fortunately
gian
homepage
hsm
kine
landesk
modernization
nl
openexr
opll
phenomenological
progres@@
pyloric
reexamined
regen
romantic
simil@@
sioned
slanted
thoracoscopic
ug
worldly
.max
208
4.2k
820
9999
_0@@
alembic
anin
antarctic
arthralgia
atric
biphenyl
celebr@@
cemented
counterparty
cs4
deserves
dive
dry@@
enjoyment
floods
fpga
fullerene
ghts
hec
imaged
iryo
laminin
laughs
lincoln
magnitudes
matthew
naive
oppose
plast
precepts
quietly
rying
sabcd@@
shoko
sprou@@
stereotype
strikes
transpor@@
turb@@
walt
webtop
ö@@
1e
accumulates
alginate
allies
antigenic
ataxia
backache
biotechnology
broadly
butter@@
compacted
compressors
dassault
dentate
diagno@@
echi
editorial
ential
exclu@@
exploiting
hippocampal
ilis
integrations
kaneie
onscreen
p450
parabola
pseud@@
redness
reproducing
sate
sgml
sno2
triump@@
trustworthy
tyro@@
1x
3c16@@
672
accredited
advi@@
arx
cgi
concluding
costal
defined@@
descendents
dme
eries
expres@@
files@@
flooring
gelatin@@
gia
gorgeous
hotels
hyal@@
hydrophobicity
improperly
inductor
interrupting
introductory
islet
joshu
jury
kawaramachi
kerning
knocked
kpa
leuco@@
lien
macroscript
masamoto
masanori
misci@@
monju
ofdm
practitioners
prepayments
quinol@@
refugees
responders
rumen
scrollbar
serial@@
strati@@
subtilis
systema@@
testify
undergoes
unpack
urgently
wiz@@
yomi
yoshiteru
1881
365
4,5
750@@
8.9
8mm
accretion
autoshape
contingency
dentist
esophag@@
extrav@@
geology
glove
ibrahim
instituted
instru@@
intellec@@
kenmu
magnifying
melanin
mening@@
metasta@@
mfn@@
microprocessor
mns
oligon@@
orium
orthop@@
otol@@
positivity
psc
recommen@@
repent
rescued
rib@@
robo@@
suffers
sys.@@
tapering
tka
toggling
tsuki
yoshitoki
23k
2948g
advisers
aka@@
amen@@
ayabe
biop@@
bronchitis
cambo@@
compartments
deregulation
destroys
dra
echoic
evi@@
fattening
fudai
galactose
gibbs
hoki
honey@@
hunter
icities
inequality
licence
mean@@
mental@@
morous
nematode
newsgroup
pier@@
propylene
pvd
radon
sanskrit
sarcom@@
slaugh@@
takakuni
trout
ulata
unite
ž@@
0.005
1.6@@
10.5
1953
506
advection
aeccdisplaystyle
aline
apo
atrioventricular
aug
backplane
bees
behcet
bony
bukyo
cephalo@@
combustible
complex@@
dbconnect
despair
duration@@
este@@
flashlight
forecasted
gag
genetics
indole
inflic@@
inspiration
lyso@@
maru@@
mont@@
nadh
omikami
pillow
polysaccharides
protruding
quake
repentance
severed
siloxane
sterol
tosh@@
tosho
transmitters
vaulting
workday
-10
1.2@@
10nm
1884
3500
4.x
annotating
attaining
bay@@
berlin
cathepsin
celi@@
chy@@
contemp@@
creases
cyclodextrin
daisy
detail@@
epithelioid
esteri@@
gbic
innovations
insertions
jor@@
kinda
llc
mailer
mats
mercap@@
miniatur@@
multiuser
mural
neuralgia
nl@@
nonresident
olive
parag@@
phen
polysilicon
pressur@@
prs
rsp
seal@@
shrinks
solenoid
structuring
surgeons
tempo
titu@@
toge
traditions
tsug@@
yar@@
zon
aliphatic
antioxidative
arrayed
bottom@@
brush@@
chaining
condy@@
cti
cutt@@
epinephrine
fist
fruc@@
hemag@@
hikone
hostage
immunosorbent
jinmu
juveniles
kow@@
lier
lumbago
manju
masak@@
minami@@
naito
nanometers
nection
notched
omics
parliament
perfused
phthalocyanine
plegia
prophylactic
puer@@
purify
qp
relying
sellers
simu@@
staring
tem@@
thine
transcribed
trip@@
vlax
wes
wing@@
04@@
1500@@
265
330
bacteriological
beveled
bfgf
c5@@
colori@@
commandbar@@
complies
coordinating
councillor
diskless
dispersing
dramas
dyne
eral
eri@@
erro@@
eyeball
gingival
hello@@
hlp
imasa
incrementing
itp
kp
llq
locomotive
lovers
marketplace
mium
nanoc@@
observable
oper
oru
shan@@
slic@@
somal
spear
wheel@@
workspace@@
y2o3
}}
87@@
ader
apa
bem
blessing
chie
contex@@
contracture
dialect
eable
ew
ferric
fms
hates
hog
i3
ilb@@
initis
jbi
knack
learns
metr@@
myanmar
na2@@
neutralizing
olding
oxygenase
proclamation
range@@
recordsets
rub
soto
thymidine
trp
vens
winrm
agent@@
amatsu
appen@@
armature
betsu
cams
clubs
composting
contributors
coo
deductions
desor@@
ding@@
duce
dvi
ellipsome@@
endcaps
fluorinated
geom
glu
impressions
iranian
katak@@
lyrics
magnifier
monsoon
multiprocessor
nad@@
nex
osteob@@
pagination
placental
plu@@
prefetch
prod170
rdna
reductive
resign
resuming
revolutions
sevoflurane
shinbun
someday
speeding
staircase
taiko
tha@@
ultrasonographic
wad@@
wee
zipped
.com.
09@@
196
30min
30mm
9.4
accor@@
babe
bunko
cellssrc
clearer
clutch
constan@@
evidencing
fossa
functioned
germanium
getsu
homegroup
hypercalcemia
ied
inducement
koshi@@
lead@@
lick
lobular
male@@
menuitem
more@@
papillo@@
peroxi@@
preface
priv
reach@@
receptacle
reflow
religions
repeatable
robbed
smar@@
spooler
tolerancing
train@@
vitamins
yawata
1180
24x@@
97@@
archer
capped
ccr
cham@@
chunks
daig@@
dcom
drosophila
eels
epa
focussing
forefa@@
glutamine
hairy
hawaii
hazards
heavenly
isoforms
jugoinojo
lineages
menu.@@
metro
mss
notifier
nv@@
pathic
photographed
quat
recessive
regents
rejo@@
rystals
saba
saveas
sjoegren
ssm
susan
thromboembolism
tomon@@
unfavorable
veloci@@
{{
4,4
aesthetic
aggres@@
aliased
alling
allogeneic
amne@@
asc
axle
ayu
breweries
caro@@
chan
civilian
deselects
directconnect
divertor
e3
ees
enrol@@
esophagitis
ffer
food@@
iic
immortal
itary
jet@@
kinin
lidene
monme
obeyed
phor@@
pion
repayment
repeater
rockets
rrna
sashi@@
spell@@
stabbed
straighten
studi@@
subinventories
tectonic
virtual@@
wanting
web.xml
webvpn
300,000
adduct
baud
bulky
carrot
chf
commonspace
cpu@@
crow
deceler@@
ellipsis
extran@@
flushed
fove@@
identically
intermittently
ionix
izan
joule
leton
lev
magnetite
meniscus
metat@@
moron@@
mother@@
naishi
nee@@
nutri@@
o157
offset@@
palest@@
phosphor@@
poorer
posix
pseudonym
respon@@
sations
sgi
smel@@
snowfall
srp
syring@@
tendons
ties.@@
till@@
vtr
yorinaga
yoshitada
05@@
100nm
221
775
ais@@
amortization
brushing
classifies
demarcation
discriminant
ede@@
enode
external@@
foolish
gulf
haz
herniation
injunction
isaac
kek
lasia
mable
mism
multibyte
nakagawa
noodle
noticing
otitis
restful
rrs
sram
telement
togoku
traders
vbr
vg
whales
xt
xv
yο@@
1050
accustomed
albicans
beliefs
brazing
cadprocess
cbr
cheaper
cinnam@@
consum@@
coordin@@
decl@@
denominator
deter@@
dissip@@
drone
ectin
glucagon
handwritten
hyperterminal
ille
inary
inobu
integrals
isen@@
iterate
kashima
naru@@
overexpression
petal
phyllo@@
prophets
recalculation
rele@@
reorganize
reticular
rightly
sanada
schw@@
services@@
shx
sinners
strang@@
supplements
systematization
thigh@@
toys
unmanaged
unmapped
vacuoles
vest
visu@@
1930
25th
aforementioned
alerting
ana@@
ashio
banana
bim
bital
cared
catalase
centroids
chondri@@
cond
cuo
dectomy
defen@@
dening
deploys
enor@@
entru@@
eper
erases
hin
hobby
infancy
inspec@@
jokyu
koyo
lifetimes
m_@@
micelles
mir@@
nega@@
ocrine
oneself
patented
profiled
progenitor
proportion@@
respondents
rester
return@@
revit@@
scallop
semen
slug
statesman
swinging
thrombotic
tmr
tricuspid
underwriting
unselect
unsuitable
00xl
530
5k
accli@@
agro@@
antiarrhythmic
aza
bait
bever@@
bium
bori
centesis
commanders
dcx
dea
defaulting
divalent
domes@@
fences
gratitude
groo@@
hig@@
higo
hijikata
hpc
impacting
intrat@@
koe
marcus
northeastern
nyu@@
petri
pharmacokinetic
pla
plasty
protests
psin
psy
pustu@@
recapture
sca
scars
slipped
stake
summoned
tightness
194
478
acknowle@@
aked
anthocyan@@
atous
authenticates
baku
cancelling
cellsu
coni@@
convey@@
cooperated
cpg
crater
depreci@@
dilu@@
discour@@
eager
engine@@
excellence
excep@@
ffec@@
fwhm
ga1
haply
intermedi@@
ization@@
kiln
lum
masu@@
meditation
mitigation
nepal
nineteen
oligosaccharides
oracleaq@@
ord
palpation
piv
ponds
project.@@
proof@@
pulsation
reformed
reopened
retribution
subdural
sudan
support@@
tain
taken@@
textbook
tsukasa
.rfa
03@@
10m
1929
4cm
5200
animation@@
backscattering
carotene
chlamydia
chry@@
concer@@
decontamination
dha
diaz@@
dryer
elder@@
encouraging
epiga@@
esulfon@@
fieldname
foregoing
glutinin
grooved
implying
intelligently
itake
mackerel
meson
metafile
nishiki
oscopy
ould
oura
papa
polyclonal
quadruped
randomize
reconnection
recursively
rejecting
replaceable
resync
sanctuary
ssy
stral
theatre
thesaurus
vents
viro@@
vx@@
x3@@
0s
512@@
acf
amusement
arte@@
astronomy
bwr
collides
completions
coord
cpa
culated
dent@@
discontinuance
dough@@
enthroned
exchange@@
exemplified
fk@@
fulfil
goro@@
header@@
inflam@@
jamie
justi@@
manip
meg
mimic@@
misspelled
muraji
murata
nate
nedo
negotiating
norim@@
ood
preflight
ptions
qc
rfqs
samaritan
sensed
shinko
sium
slaughter
smarter
sporo@@
stimulates
strative
syndication
teaches
tensho
tham
timings
urs
uster
wedges
wfq
yr@@
0.04
30th
abduction
abolishment
arab
atches
burdened
castings
councilors
coupon
damped
decoupling
dialo@@
disturbing
earl
enantio@@
excitement
ffect
heh
jax
jiang
lannis@@
masto@@
misunderstanding
mization
monzeki
myth
nun@@
pancreatico@@
pector@@
plate@@
promin@@
rape
rebel@@
rras
sands
sewer
subscribing
sylation
tabl@@
uminescence
were@@
zeami
216
2fe@@
360@@
50s
alists
amanda
arro@@
bruce
business@@
centigrade
chancellor
chubu
consortium
convertible
doug
efu
ented
expiratory
flexibly
gorously
gus@@
herni@@
hg@@
ient
immunization
infrequ@@
ingo
maxima
muro@@
narrowed
onitrile
opera
phage
portra@@
reconci@@
remia
saig@@
sorrow
speople
subbase
tearing
ttle
tweaking
vate
yoshiharu
1926
1943
1958
ambigu@@
ascertain
atch@@
basins
bull
clar@@
confuse
costumes
dajokan
degrad@@
descend
disassembly
genre
guitar
humoral
hydroxylase
impress
insist
isoelectric
jay
karo
kaze
kind@@
luke
maxilla
mim
ometers
optimally
ower@@
paci@@
posthumously
predicates
prospectus
psychiatri@@
quasic@@
readonly
reclaim
rtr
seis@@
silently
stern@@
summarization
surcharge
u.@@
uryo
yagi
1020
11.3
3.0@@
accomplish@@
actress
akin
amphetamine
archive@@
autoinvoice
aved
azane
biome@@
birthplace
blastoma
chl@@
composes
concei@@
cook@@
cushion
dca
diphenyl@@
dmd
dte
electrodeposition
exampleyou
expedi@@
guilt
humic
ifconfig
inan
kari
nasa
natur@@
nem
ninja
nitriding
pene@@
plunge
polypeptides
reinforce
reselect
restimated
software@@
surprising
sworn
tentatively
therefrom
ting@@
tp@@
unpublished
unset
ureter
vap@@
warran@@
wg
workshops
x.25
xhtml
yang@@
105@@
aerob@@
antarctica
anticipate
ashin@@
ddr@@
deducted
denitrification
discriminated
drill@@
dwellings
emergent
entrainment
essay
excit@@
floxacin
folia
hilar
idols
index.@@
irecruitment
ites
justly
kanezane
kidnapped
lec
magn@@
manors
mester
pixmap
plain@@
plaques
poe@@
ported
requisite
ribon@@
rsc
se2
sentry
singularities
snip@@
stimul@@
sz
texture@@
umbo
unic@@
woo@@
ytic
3s
a0
agonists
appname
archae@@
atr
bcwp
beli@@
buck@@
closet
cnc
conquered
convincing
documenting
eding
eosinophilia
estrus
favorably
fountain
gbps
glycosides
hito@@
hyphens
incur@@
je
kel@@
laughed
lucy
mammography
minent
mulberry
net.@@
octopus
pathohistologically
pattern@@
pete
pros@@
reinstalling
strugg@@
studio@@
superstructure
tempered
tengu
transbronchial
unin
unneeded
unsure
.so
195
2200@@
24h
adapts
addon
akami
alternates
beetle
bicchu
c2950@@
caisson
capitalization
capitalized
chester
cryptomeria
discourse
echography
encapsu@@
estates
founders
furan
gastrin
goto@@
ight
impe@@
imperfect
imposition
inoc@@
iru
kip
knight
laurel
less@@
malignancies
merge@@
mitsui
msfc2
odonto@@
okuni
peripherals
piers
polarizing
quench
relation@@
reproduces
requi@@
respirator
ribbon@@
sach@@
sagano
servername
station@@
sto
surf@@
swapped
syr@@
unmodified
writeable
1940
1957
2,6
adequacy
adventure
antero@@
ashu
aspx
assimilation
asuke
biodiversity
cag
cassette
coalescence
daitoku
dase
denaturation
diving
emi@@
hypoxic
identi@@
kerosene
menubar
mesher
mexican
nicotine
orbiting
pae
phi
phosphorylated
postmortem
rams
sinusitis
sku
spectrophoto@@
therapist
upland
ured
vac
voltammetry
yngeal
yttrium
ي@@
1970s
219
40,000
absen@@
admon@@
adreno@@
arousal
atmo@@
bol
brachi@@
census
chl
chloro
commuter
compositor
das@@
dbspace
dehydrogen@@
detained
deth
deviate
disgrace
dpp@@
eko
emr
fushiminomiya
gall
got@@
hashiba
hirano
kuji
letter@@
loom
mall
marketed
metap@@
narrator
notably
overshoot
phosphine
planets
pop@@
portability
precaution
put@@
rocking
smartt@@
sti
streaks
stub@@
stun@@
subinterface
tailed
takamatsu
thematic
toid
trick@@
voc@@
whisker
whomsoever
workplaces
430
9.8
adata
adducts
adv
amini@@
arteriography
autocla@@
bilinear
brid@@
dani
datatable
dimensionality
driver@@
eration
fac
handbook
hypodermic
ires
kashiw@@
kawan@@
leiomyosarcoma
metri@@
miocene
naph@@
nobutada
oxalate
pissed
plenum
position@@
rearranged
remark
sakura
seating
sharper
sig
skir@@
socio@@
stairwell
synap@@
torso
variate
warfarin
wmf
xform
و@@
1g
213
acdb@@
aky
amendments
appreciation
ation.@@
att
autonumber
base.@@
blamed
brazilian
capd
coffin
crawled
cric@@
dbase
demar@@
dimer@@
dts
extrapo@@
flounder
glial
goe
hashidate
hydrogen@@
hypotheses
igrp
lastname
limiter
manufactures
mati@@
meso
mip
mosquito
nobu
onwards
outr@@
oyster
phenylalanine
photograph@@
policeman
pq
practitioner
preci@@
proble@@
quadrilateral
recalled
softer
spino@@
standardize
std@@
subo@@
tachy@@
throws
tup
underway
vmi
wrec@@
xsf
1280
15.1
1876
240@@
advisable
amps
amputation
anthro@@
apar@@
atsuna
brane
bull@@
circuitry
concor@@
confir@@
conserving
converging
csc
customxml@@
decals
decomposing
desp@@
deteriorate
disallow
disciplines
drums
endemic
erup@@
fallback
filen@@
flue
ignorance
impinging
intimate
intraductal
kinship
komachi
lsa
missi@@
mohammed
noteworthy
null@@
opac@@
overex@@
overprint
pdf@@
profitable
quali@@
readiness
recursion
shark
shedding
shibata
tably
taji@@
them@@
therap@@
theses
torture
unconditionally
unpaid
yanagi@@
ó@@
1959
224
acme
advoc@@
ails
aniso@@
antipsychotic
atomization
ayasu
bau@@
bili@@
boro@@
cert
congested
cpc
cyclop@@
daim@@
divorced
doff
edematous
egress
emichi
emulsification
enteric
entrepreneur
ffles
fights
grievous
hdd
hears
hondo
hospit@@
igh@@
immunized
infiltr@@
iwan@@
listic
maxi@@
neovascularization
outputting
phenols
pneumonitis
posit@@
psp
rag
redistributed
refl
request@@
ripples
risky
routinely
shoten
spear@@
spring@@
sticker
strap
suka
tcam
terrorism
trabecu@@
whir@@
xdocument
zier
182
1923
afferent
anomiya
breakers
csys
dbs
dialy@@
distil@@
dithi@@
diversion
dormitory
earthenware
elapse
errdisable
exited
expel
explaines
facilitation
fibrinogen
fukuyama
gonadotropin
igbt
inheriting
intergranular
isu
jisho
kay@@
kilograms
license@@
mct
merchan@@
multichannel
nel@@
ogram
okazaki
osdm
osteosarcoma
paa
ploidy
reson@@
ril
serotype
snapsure
soffit
stirred
taiheiki
tenue
totaling
tracts
trade@@
unsolved
ventil@@
vibratory
woody
177
aerodrome
ander
aned
caffe@@
candle
cdm
cholic
colons
country@@
crontab
crowned
cytosolic
datareader
delinquency
disp
dum@@
edullary
ethan@@
femor@@
hack
hikari
hoop
hypersonic
into@@
isns
koho
langu@@
linear@@
maintain@@
malformed
mortal
muting
neck@@
o12
olate
photoinduced
poc@@
promulgated
rine
shatter
stoichiometry
subtitles
summer@@
symantec
syri@@
tea@@
underfill
wakes
x6@@
1877
2k@@
815@@
ain@@
amethyl@@
approves
arbitr@@
arded
atropine
beverage
bible
bloo@@
bracing
bula
chant
chargeback
cili@@
cyanine
dasd
dazaifu
deactivation
dimers
dong@@
expiry
goyo@@
graham
hay
heaters
hierarchically
identifiable
img
immunologic
informative
inspir@@
interconnects
metaphase
mil
missionary
mister
moscow
motivated
msn
musicians
navigates
neoplasms
nodeid
npe
otic
overthrow
oxo
p.iso
poro@@
proclaimed
proposition
protectors
rca
sition
slowest
splicing
spoof@@
stir
tds
tenv
transonic
unbounded
uncommitted
weeding
workbenches
181
1895
1904
1912
acea
acsmsheet@@
adenine
agen@@
amiya
auc@@
aval@@
benzy@@
brainstor@@
cauc@@
chamfered
cles
cog
concealed
cyclization
dictate
displac@@
ethi@@
examinees
facto
ferritic
frankly
harada
hau@@
hindrance
ihtml@@
interviewed
isocyan@@
koi
ladders
luxury
menstrual
minal
mn2
modulin
nakat@@
neph@@
nomiya
nonstandard
nw@@
oblastoma
ophosphate
pem
pyruvate
reconstructing
reig@@
senju
stil@@
strength@@
sus304
tpn
tripod
trolley
ubr
uclease
ukra@@
xc
3.5@@
acia
admiral
alga
angiographic
autoloader
cochlear
conjunctiva
d915@@
datastore
decy@@
derek
dialed
dii
dilat@@
disclo@@
doubly
emptying
everlasting
exploited
fes
fueled
gap@@
genko
goiter
hart
hida
infarct
invoiced
italics
laplace
lasing
luminal
mah@@
manifesting
micelle
millennium
mnu
multistage
netflow
normal@@
opar@@
overwhelming
pop3
ppg
prescribe
prosecution
punching
q4
relays
remap
shimo
staple
switcher
thereon
tom@@
whore
xlpe
zoo
accruals
ancestral
aspart@@
assistants
bac
banded
bitions
bose
bronchoscopy
clou@@
dana
destiny
dta
endure
exotic
faithless
fers
fictitious
garments
h2s
hypothe@@
inefficient
inevitably
irradiating
koban
metropolis
mosqu@@
msa
musician
nut@@
odori
omission
oncogene
oria
passi@@
phan@@
phonemes
promo@@
propellant
proto
ptd
purse
qcd
quadri@@
rat@@
rhabdomyo@@
sama
sounded
submenus
surprisingly
taker
tau
trait
transcatheter
trigon@@
uf@@
yoshimura
zoom@@
ψ
171
183
activists
affine
antiplatelet
basilar
biw
chev@@
cleans
cognition
deco@@
depositing
dispen@@
disrupting
freeway
genit@@
ills
lighthouse
lls
locals
louis
nova
p2@@
palms
peter@@
phasing
pleura
prostitu@@
quet
quickcalc
redirects
redistribute
rewarded
shinto@@
spotlights
swallow
watering
yoro
ل@@
1862
advisories
allyl
basho
booklet
borderline
chri@@
colostomy
conv@@
ddle
disten@@
eas@@
ect
endoscopically
exagger@@
finest
fringes
geographically
hemor@@
hos@@
indomethacin
inlets
japan@@
kajuji
maya.@@
meaningless
meningi@@
mercurial
micellar
minimally
mm2
modest
monocyte
nagahama
natively
necrotizing
nevus
oui
parametersthis
pertur@@
reactivities
sels
shields
sih4
surgeries
synchronously
teal
titude
vapor@@
venge@@
appre@@
category@@
cele
colleges
crypt
datacon@@
decubitus
dendrite
disposable
elong@@
entirety
exaggerated
fifteenth
fractionated
fruiting
fry
gnu
hardship
hrp
hypoplasia
idation
implan@@
karen
kusu@@
liste@@
lux
mber
meshsmooth
miserable
moist
nymp@@
opy
oride
patty
plugin@@
preven@@
proteolytic
rand@@
rewriting
righteousness
ringing
rme
sacrific@@
scho@@
shaperange
stationery
studios
subanim
tile@@
vagina
volum@@
1911
293
720@@
945
abdomin@@
acp
ante
awak@@
backup@@
bea@@
bered
cbi
chopper
danjuro
dehydro@@
denmark
disturb
eats
editor@@
fashioned
fetches
fronts
globular
grabbed
icam
illuminating
implicated
injustice
interlocking
ister
kc
lengthy
mandarin
muro
nun
ophor@@
orthodontic
orum
paradox
photoacoustic
quies@@
quit@@
relaxing
rella
risers
seminal
sick@@
snmp@@
steel@@
ties@@
traversal
wavefront
wee@@
winpe
yoko
350@@
alci@@
ard.@@
beard
bolus
carbides
chor@@
clonal
clusion
deflections
demote
diag@@
dious
diphenyl
dss
engraved
enhan@@
exons
fighters
fos@@
ftir
gallstone
geor@@
globul@@
hill@@
himeji
how@@
interception
joan
k2@@
lamp@@
masashige
monsters
morphologies
munemori
mushrooms
myelodysplastic
oban
pplx
qto
refdes
rooted
rum@@
self@@
sigh@@
smt
speed@@
steward
suiko
sx@@
tg@@
tumori@@
uph@@
vered
wagon
worrying
zziness
θ@@
1,500
1885
7m
accompanies
akiyo
algal
appeals
approxim@@
ascp
autoview
chain@@
deprivation
distinguishes
docu@@
drank
flee
flu
focus@@
interchange@@
kering
loving
metab@@
moire
naomasa
nearer
optim@@
perceptual
pivotdiagram
powering
remesh
rennyo
s0
salesperson
scleral
slippage
tabledef
unzip
198
5100
agic
amitabha
angiogram
annexed
antrum
athletes
bam
brav@@
brennan
bx
caf2
cardinal
chlorination
conci@@
conveying
cooperating
cruel
cytopenia
dlnames
dmf
entrepreneur@@
ever@@
faded
fh
floor@@
fluidi@@
fock
gbs
gium
haze
homeless
hs@@
inhab@@
intraoperation
katsumoto
keyboards
keystroke
laps
leucocyte
lossless
margin@@
methotrexate
metic
microstrip
minate
mz
nightmare
olamine
ordained
painters
pausing
percolation
pw
rained
rash
reappears
rogue
scds
scru@@
sdi
semic@@
shaved
structure@@
tabulated
tess
tonsil@@
trs
usters
uts
vesti@@
whitespace
xerox
123i
1u
217
adipo@@
affixed
anton@@
aphasia
apprentice
arachidonic
ashino
behaved
beneficent
carlos
charm
civili@@
cma
concre@@
ej@@
elevators
entang@@
envelop@@
familiarize
fillers
flares
forfe@@
ge2
heal@@
hikaru
histopathologic
hydronephrosis
icro@@
information@@
irin
jiuta
keen
leaked
lorentz
loride
mash
mycoplasma
negoti@@
ntlm
phonons
rect
rectifier
revival
shitenno
standardi@@
strum
substructure
sudo
takada
tectomy
tek@@
tish
toolbar@@
v5r@@
vent@@
0.35
252
6h
accountants
anticip@@
arians
assem@@
cesium
chigyo
chon@@
confining
convergent
cosmological
cubequery
delamination
glan@@
graceful
guardianship
icd
icy
icy@@
interactivity
iru@@
kingdoms
laparo@@
logminer
manage@@
methicillin
midsurface
nonworking
oracle9i
patency
pirates
plantypes
pms
poisoned
preferen@@
preform
recession
rhyth@@
sharpening
shochiku
shogoinoge
silicide
sony
sthe
strontium
swim@@
trapezoidal
truecopy
uncomfortable
unfilled
uso
wv
yorimasa
,000,000
100base
15n
1882
2015
6mm
abbot
acyl@@
alli@@
athe@@
aught
backflush
camel
carpal
ch2
chemokine
concentr@@
continual
cus@@
determinations
dino@@
disobedi@@
dity
ejec@@
exan@@
experimented
fe3
flavono@@
fosi
fugi@@
gai@@
granuloc@@
hela
hind
hydrous
hygro@@
iary
ilt
infin@@
inning
interpolates
[...]
