<pad>
<eos>
<unk>
the
.
of
,
and
to
in
a
-
is
，
for
)
(
be
The
on
with
'
or
"
that
:
by
as
are
s
you
not
from
it
at
this
shall
an
;
/
can
I
will
was
have
1
%
has
which
all
A
2
system
your
any
In
one
?
\
other
time
This
its
more
out
up
may
3
but
if
their
If
been
into
than
when
such
t
used
he
we
It
also
use
they
his
new
were
control
data
should
!
must
information
only
so
no
n
about
4
two
between
after
under
do
China
To
water
work
each
high
set
there
You
..
5
through
For
had
our
then
value
first
power
some
using
over
following
them
who
said
test
type
would
like
process
my
these
people
make
number
made
management
=
re@@
service
design
well
When
method
r
&amp;
line
level
her
see
We
S@@
name
file
before
during
equipment
based
me
year
development
part
operation
m
could
pressure
6
B@@
same
right
business
un@@
company
order
including
10
where
area
what
required
most
way
He
application
P@@
B
within
how
&bra;
years
i
&ket;
different
No
project
requirements
construction
quality
oil
good
end
D@@
T@@
off
air
current
down
case
0
very
need
because
H@@
change
back
M@@
C@@
C
And
being
us
three
long
""
point
take
As
both
G@@
n@@
in@@
support
But
want
click
provided
section
per
N@@
position
performance
him
does
get
many
group
specified
side
less
provide
7
paper
just
d
F@@
Chinese
day
8
A@@
without
All
material
L@@
R@@
model
K@@
available
while
life
market
e
now
E@@
those
products
main
temperature
Company
t@@
key
open
There
re
she
site
world
person
production
product
_
System
able
cannot
period
rate
low
according
results
b
server
s@@
form
field
analysis
unit
technology
place
surface
conditions
above
list
user
box
valve
o
–
On
storage
materials
circuit
know
—
W@@
important
found
systems
structure
safety
go
means
non
select
report
3@@
e@@
even
speed
device
2@@
view
much
network
standard
local
state
supply
They
V@@
function
date
20
effect
necessary
d@@
gas
$
access
example
check
o@@
machine
D
accordance
amount
9
body
light
flow
relevant
full
study
S
cost
vehicle
Article
p@@
related
help
size
still
O@@
services
New
12
large
table
mm
+
left
small
After
protection
include
Re@@
J@@
man
financial
days
against
last
risk
create
etc
own
every
Contractor
x
parts
ensure
top
result
An
engine
steel
selected
public
another
ate
switch
due
Project
30
total
working
code
4@@
computer
Party
front
error
around
1@@
single
c
.@@
k@@
connection
de@@
Group
content
Control
5@@
industry
software
next
Management
changes
T
At
load
space
plan
environment
start
P
research
whether
O
range
i@@
given
E
security
too
ing
specific
installation
es
complete
15
object
ed
property
country
until
special
y@@
source
L
possible
energy
account
below
What
I@@
assembly
don
mode
government
problem
free
drive
Use
lower
second
put
F
display
least
page
head
did
operating
R
run
price
pump
again
think
document
best
contract
class
address
ground
voltage
treatment
installed
here
great
b@@
These
M
areas
Select
g@@
er
old
contact
find
general
m@@
U@@
give
V
ve
building
11
6@@
term
room
shown
short
technical
With
times
*
land
100
party
increase
economic
present
components
law
One
show
50
files
program
a@@
customer
capacity
inspection
hand
X@@
values
policy
always
ated
four
g
c@@
better
points
al
methods
investment
might
&gt;
condition
So
database
become
dis@@
team
come
upon
Design
making
l
p
pipe
Remove
documents
higher
al@@
event
maintenance
meet
red
an@@
provides
base
either
l@@
cover
ation
sure
X
Mr
already
ating
signal
location
ted
activities
little
maximum
ts
called
problems
action
7@@
sensor
cause
heat
further
Check
Please
Data
ability
status
General
home
en@@
U
Windows
concrete
countries
ll
measures
appropriate
transfer
8@@
In@@
existing
message
subject
say
panel
works
together
age
fire
basis
fuel
cable
module
y
f@@
N
setting
However
reference
button
taken
Service
Click
international
Server
various
training
ting
output
applied
real
She
Application
am
v@@
effective
designed
going
door
let
Contract
says
US
remove
testing
force
meeting
foreign
growth
loss
plate
capital
version
Analysis
add
Do
items
Study
ers
ch@@
window
resources
approval
city
16
million
look
few
away
human
experience
distribution
plant
health
Co
Table
rear
major
G
default
damage
defined
keep
Y@@
types
wall
image
since
face
national
text
motor
return
along
whole
command
Z@@
configuration
di@@
strong
normal
United
tool
length
option
apply
14
running
course
EMC
internal
OF
close
processing
procedure
future
terms
ar@@
0@@
25
users
companies
properties
u@@
assets
co@@
board
addition
responsible
self
located
Test
h@@
common
im@@
improve
item
sub@@
State
applications
volume
°
bank
children
additional
layer
center
personnel
solution
social
sales
That
lines
money
interest
•
Type
r@@
approved
Development
active
needs
electrical
By
Section
kind
standards
enter
Ltd
several
often
er@@
13
Manager
wire
9@@
screen
includes
directly
How
costs
h
resistance
dialog
hard
members
#
ring
added
family
car
pay
turn
Agreement
Power
never
respect
tax
on@@
direction
food
connected
features
education
associated
payment
operations
shows
original
read
failure
station
drawing
created
basic
cases
component
details
having
customers
ter
parameters
regulations
record
rights
series
carried
natural
fully
minimum
stop
impact
phase
developed
Figure
five
among
levels
once
things
Research
request
ID
continue
students
x@@
electric
City
forward
menu
transmission
outside
color
road
Information
characteristics
communication
High
move
de
applicable
st@@
ti@@
settings
input
weight
third
AND
member
strength
procedures
bearing
hours
share
40
step
call
known
&bar;
frame
scale
job
interface
certain
w@@
review
Department
months
house
later
joint
States
press
fixed
prevent
Bank
-@@
individual
trade
u
done
con@@
style
10@@
ator
te@@
correct
ro@@
devices
H
issue
got
brake
at@@
target
love
objects
stage
Where
enterprise
is@@
office
18
school
big
organization
z@@
monitoring
included
Construction
activity
automatically
global
Part
pre@@
filter
far
Some
bar
card
role
try
Install
uses
written
multiple
f
K
International
functions
Based
really
units
contains
established
24
allow
ab@@
across
determined
rules
department
online
port
men
as@@
inside
Name
similar
external
Microsoft
clear
mainly
completed
element
notice
makes
month
tests
W
th@@
purpose
frequency
failed
potential
English
block
Web
held
client
agreement
enough
perform
From
prior
limit
via
engineering
book
wheel
connector
described
economy
reduce
over@@
bottom
le@@
play
k
copy
provisions
income
legal
otherwise
es@@
goods
Beijing
average
memory
factors
column
early
effects
determine
the@@
IN@@
charge
half
please
lot
media
received
demand
direct
led
percent
language
easy
implementation
Center
RE@@
performed
measurement
THE
tools
path
patients
proposed
metal
displayed
others
1.@@
valid
considered
groups
something
theory
projects
60
lead
response
Then
environmental
mechanism
particular
Water
Business
limited
ant
article
ri@@
to@@
credit
Each
disk
cut
increased
final
distance
inter@@
Services
primary
caused
tank
sp@@
parties
fault
relationship
ly
core
elements
needed
greater
issued
parameter
ine
care
17
De@@
suitable
seat
cylinder
ad@@
or@@
platform
delivery
See
staff
situation
actual
expected
week
paid
tab
install
People
Any
knowledge
region
During
balance
ic@@
University
gear
floor
facilities
allows
Technology
Standard
history
longer
simple
upper
allowed
si@@
issues
am@@
matter
shaft
19@@
lo@@
ates
built
practice
sh@@
Y
pro@@
significant
physical
came
ways
soil
taking
0.@@
Internet
king
II
housing
release
IP
als
sent
vehicles
hot
options
listed
Method
exchange
li@@
hold
heart
Office
bit
enterprises
American
According
~
save
obtained
efficiency
opening
map
require
automatic
feel
supported
en
ag@@
Q@@
ra@@
link
certificate
tic
past
corresponding
white
National
writing
removed
industrial
channel
feature
remote
choose
it@@
ac@@
el@@
search
decision
folder
especially
reason
clean
today
double
words
Using
sample
cross
Shanghai
hydraulic
net
21
Now
culture
near
evaluation
Other
carry
Set
specify
j@@
minutes
scope
thing
women
height
approach
Your
selection
plug
stress
influence
planning
thought
progress
Un@@
ship
bed
laws
ings
My
avoid
night
lock
closed
battery
changed
measured
build
instrument
ING
chemical
Quality
se@@
Con@@
reports
22
index
19
task
Note
insurance
however
introduced
personal
difference
mo@@
seal
employees
ic
ratio
ar
took
stock
●
Province
Hong
welding
usually
ds
backup
cell
anti
resource
IT
child
started
refer
ations
fact
spring
central
sheet
principle
develop
angle
except
traffic
previous
follows
Sub
immediately
sets
mail
overall
processes
agent
ding
steps
host
um
driver
son
why
Add
safe
format
understand
controlled
emergency
90
requires
nature
follow
wide
sub
Employer
v
act
traditional
ul@@
factor
phone
Objective
Board
records
sound
Kong
Time
Technical
dynamic
ap@@
electronic
assessment
mechanical
unless
measure
terminal
manual
screw
ST@@
ol@@
log
events
digital
per@@
shares
store
pre
live
liquid
Our
ous
went
medical
attention
recovery
zone
Equipment
instructions
ON
mean
specification
Safety
post
mass
multi
waste
seen
likely
registered
18@@
Security
collection
maintain
statement
hole
fine
requirement
et
wind
blood
guide
film
green
recent
31
th
manufacturer
thickness
80
cash
acid
Road
bus
2.@@
tube
positive
Is
yet
detailed
entry
degree
contain
cycle
paragraph
send
glass
presented
Law
character
transport
reported
Ch@@
Error
ing@@
Council
Co@@
manager
View
video
foundation
six
Air
First
cells
adjustment
receive
edge
purchase
annual
rates
diameter
appears
prices
Code
fields
23
ex@@
ded
art
young
private
drop
cooperation
Dis@@
Process
offer
Committee
il@@
domain
sign
coal
plans
tell
ite
ters
cold
responsibility
Di@@
TO
node
Only
billion
South
dry
Ex@@
Report
professional
Engineer
00
enable
tions
shape
strategy
he@@
transaction
…
bo@@
piece
An@@
Exchange
leading
2010
black
Open
controller
alarm
repair
Refer
Its
±
purposes
domestic
doing
occurred
manufacturing
calculated
ons
currently
entire
stability
chain
fit
cooling
combination
commercial
be@@
32
studied
12@@
File
Pro@@
ever
branch
Two
U.S
critical
question
IN
¡
middle
write
20@@
vertical
Therefore
word
sea
bolts
om@@
rule
comes
skin
administrative
initial
starting
forms
leave
placed
takes
connect
complex
consumption
conducted
w
persons
told
En@@
bring
developing
em@@
accounting
operator
itself
policies
Not
looking
controls
par@@
compliance
drawings
yuan
ED
models
difficult
Al@@
soon
el
living
Plan
ten
Press
World
calculation
e.g
stored
der
prepared
po@@
fluid
agreed
unique
referred
modern
discussed
id
game
equal
solutions
fast
America
screws
000
instance
focus
mind
Engineering
proper
recommended
authority
true
compared
update
whose
separate
valves
hardware
quantity
2008
RMB
properly
profile
medium
though
plastic
pin
28
appear
Date
op@@
integrated
providing
ER
idea
installing
manner
rather
Model
submitted
produce
attached
achieve
ma@@
disease
produced
characters
beam
rock
resolution
description
AC
plane
monitor
earth
track
secondary
specifications
Performance
registration
car@@
learning
pass
generated
Before
court
Create
generation
Network
actions
directory
respectively
200
evidence
Number
fall
ling
J
noise
schedule
no@@
belt
Industry
depth
carbon
01
won
identified
advanced
rest
trying
bad
ECM
CO@@
travel
Works
ally
quickly
funds
thus
wear
us@@
width
adopted
transportation
displays
Work
connections
harness
completion
saw
teaching
match
mobile
benefits
Make
ph@@
35
deep
God
reach
involved
behind
fund
package
lost
structures
500
OK
numbers
70
workers
Total
reasonable
ur@@
His
eyes
AC@@
Change
comply
movement
and@@
signed
establish
ans
community
heavy
entered
Government
deal
almost
Site
turned
asset
While
indicated
tested
District
technique
sense
ready
45
relation
preparation
measuring
ators
relative
virtual
Because
grade
DC
markets
Pressure
ago
pattern
independent
society
Q
reduced
steering
comprehensive
claim
contents
onto
2015
ps
continuous
improved
meter
handle
Since
showed
pl@@
3.@@
benefit
generally
train
death
names
15@@
User
political
variable
Support
replace
actually
Clause
se
note
believe
Well
26
2000
easily
exist
attribute
didn
moving
solid
do@@
protect
sides
ask
Li@@
Line
web
Director
analyzed
Product
non@@
Sh@@
under@@
master
poor
delete
Main
therefore
mark
session
TV
profit
friends
brand
torque
messages
driving
Storage
Oil
tes
affect
formed
supplied
Japan
ness
learn
European
equipped
expression
ent
micro@@
ked
obtain
tive
ve@@
questions
tion
late
13@@
tree
Operation
submit
asked
inner
pe@@
co
export
km
risks
instead
containing
sequence
up@@
nothing
List
accounts
round
beginning
ball
guarantee
manage
identify
rise
moment
North
ors
fill
ms
occur
music
roof
2011
ment
cultural
mother
examination
programs
affected
Removing
handling
Once
administration
Properties
mis@@
loading
operate
Unit
daily
generator
creating
increasing
2009
Enter
regional
Mar@@
covered
River
ne@@
assigned
remain
z
hour
securities
steam
supports
warning
te
discharge
urban
equivalent
SP@@
ter@@
cleaning
completely
finished
Global
survey
Start
opened
negative
Sub@@
reading
implement
detail
criteria
latest
00@@
science
detection
ance
studies
password
began
et@@
Area
rich
conduct
thermal
Supplier
16@@
bridge
combined
sources
patient
Europe
ec@@
27
ice
concept
Methods
behavior
May
2012
organizations
serious
President
met
factory
Class
infrastructure
Special
2007
sufficient
iron
acceptance
shift
consider
PC
Right
indicator
kept
me@@
Non
sale
indicate
res
coming
IC
plants
le
cutting
14@@
Yes
kinds
configured
soft
Gas
woman
expenses
ha@@
quite
axis
ton
getting
supervision
causes
seconds
wave
figure
stand
2014
Level
stone
horizontal
firm
surfaces
proof
fan
brought
template
Access
exercise
font
4.@@
Position
Financial
execution
promote
modified
Installation
Ar@@
gives
Bo@@
reduction
successfully
reached
Can
extent
banks
December
Steel
Asia
id@@
samples
indicates
returned
sections
2016
ks
ized
scheme
named
query
tasks
ist
ES
recorded
license
res@@
letter
County
les
war
secure
regular
Plant
ong
®
largest
buy
understanding
reasons
Z
sand
efforts
ir@@
filled
changing
marked
heating
doesn
becomes
SQL
curve
span
places
AL@@
anything
Material
exceed
representative
currency
for@@
director
bi@@
mentioned
sts
fl@@
extension
ke
holding
connecting
ping
AS@@
obligations
Under
density
improvement
treated
reporting
structural
2013
static
ob@@
definition
import
Le@@
gate
break
anti@@
rubber
regulation
Protection
themselves
invalid
zero
Car@@
population
lamp
FOR
cables
ones
ity
Low
skills
TI@@
50@@
RO@@
temporary
hands
exists
investigation
30@@
rod
compensation
identification
visit
string
provision
expansion
departments
debt
choice
military
Inter@@
out@@
cent
removal
hope
highly
algorithm
ality
Be@@
operational
ization
thereof
supplier
300
est
ang
sites
29
equity
layout
flat
scientific
Central
towards
cm
images
ty
pipeline
simulation
owner
technologies
river
stable
Are
Ad@@
17@@
passed
gold
Many
innovation
employee
became
qu@@
Page
square
MS
effectively
practical
Three
vi@@
bolt
CD
min
supporting
news
concentration
talk
Ro@@
everything
circumstances
enabled
buildings
cement
ten@@
gave
owned
integration
category
larger
OR
Of
accept
marketing
60@@
Value
corporate
duty
beautiful
followed
accuracy
ta@@
holes
blue
tri@@
Engine
goal
AT@@
ism
adjust
ver@@
bar@@
published
authorized
AS
）
dimension
interests
occurs
dust
cluster
Customer
III
ren@@
25@@
delivered
institutions
picture
someone
forces
ho@@
Schedule
pipes
fastening
man@@
Most
arm
ch
SI@@
kg
stay
mounted
Current
audit
ase
successful
wood
cl@@
rated
losses
labor
tion@@
ies
Com@@
trading
i.e
outer
throughout
Also
print
determination
define
Pre@@
correctly
seems
CH@@
positions
Republic
AD@@
ER@@
father
raw
books
replaced
AN@@
limits
settlement
checked
tics
Building
himself
authorities
ISO
EN@@
um@@
magnetic
Se@@
5.@@
beyond
feed
intended
Although
liability
title
documentation
Station
pull
drug
formation
protective
library
HP
ages
fc
clinical
holder
dimensions
passenger
Appendix
IS
story
Client
Cannot
contained
ge
background
Key
EX@@
qualified
2005
growing
delay
clients
Administration
servers
ses
SE@@
opportunity
pen@@
tape
remains
highest
exhaust
Form
goes
transactions
carrying
turbine
stated
variety
fish
Why
Let
fiber
corrosion
Systems
motion
hi@@
instruments
driven
Ordinance
former
sector
Inspection
Commission
la@@
6.@@
Maintenance
ste@@
concerned
efficient
pa@@
directors
IT@@
ore
entity
meaning
particularly
functional
inlet
ical
ins
constant
moved
Connect
advance
accident
（
root
optical
coating
principles
Production
2006
fair
ft
receiving
EN
clearly
Specification
approximately
vibration
June
detected
Manual
damaged
go@@
rail
36
reaction
tor
replacement
Fig
offers
TS
morning
protected
adding
injection
fi@@
container
wiring
register
75
·
Module
carrier
lift
statements
ni@@
East
Health
Software
CA@@
giving
radio
pool
simply
XML
ary
official
paint
ru@@
techniques
relay
yourself
alization
views
ii
AR@@
aspects
Effect
divided
Chapter
ad
33
ker
advantage
Supply
Risk
relatively
den@@
machines
shared
theout
UN@@
ders
characteristic
success
matters
reform
regions
resulting
24@@
so@@
earlier
br@@
implemented
centre
spot
sun
cities
40@@
3D
consists
custom
feet
row
Active
men@@
st
AP@@
useful
trust
Settings
excellent
straight
camera
lifting
context
signals
Even
Materials
saving
outlet
distributed
saved
meters
Mo@@
aircraft
competition
ia
achieved
verify
Gu@@
ang@@
eye
designated
hose
loan
icon
cor@@
mounting
Assembly
Field
alone
errors
chapter
capability
Results
der@@
lighting
St@@
Display
receipt
injury
Review
More
entitled
ge@@
perfect
Don
foot
die
IS@@
ments
increases
gu@@
configure
ls
weeks
website
bid
managed
multi@@
police
auxiliary
hair
thinking
scene
array
mon@@
ed@@
oc@@
su@@
Such
nut
TR@@
ends
Item
sing
nuclear
deemed
ying
diagnostic
Investment
grid
Public
century
Program
relating
locations
Association
band
fails
importance
poly@@
modify
×
rec@@
regarding
Document
ry
slope
answer
India
investors
fitted
January
sealing
AT
capable
Education
insulation
civil
flight
March
Requirements
pollution
Th@@
Edit
adjusted
wish
Japanese
consistent
Energy
prevention
essential
du@@
lack
smooth
Be
confirm
IP@@
trans@@
wrong
consideration
thick
edit
ma
refers
bl@@
felt
ES@@
sell
parents
nor
linear
fees
Determination
ful
facility
famous
operated
ise
ATION
Enterprise
deliver
2003
uc@@
ard
Per@@
accepted
thin
wife
shareholders
town
super@@
species
Owner
ics
izing
Sales
walls
ig@@
ching
Ma@@
availability
Series
IC@@
extended
subsection
decided
normally
finish
cast
Certificate
,000
Nations
experiment
,@@
100@@
sum
fee
requested
hotel
voice
mixed
smaller
sion
&lt;
pi@@
ver
Policy
trend
sensitive
leader
updated
gain
unable
ash
34
Reference
applies
generate
July
probably
begin
Guide
brain
recognized
55
ative
appearance
aid
Options
m3
Setup
Park
agree
assistance
pages
insert
parallel
Status
mine
significantly
inch
tu@@
route
visual
Configuration
Temperature
student
touch
drilling
September
missing
com@@
maintained
sometimes
Unable
empty
widely
serve
Products
email
48
practices
typical
95
bu@@
formula
arrangement
AL
popular
links
heard
revenue
calibration
sed
Institute
Insert
logical
ched
worked
Local
℃
des
happy
budget
planned
ou@@
wait
pieces
lets
released
cap
prepare
remaining
push
Po@@
signs
Both
Li
states
utility
logic
TH@@
Replace
Failed
friend
SC@@
relations
11@@
mi@@
vessel
seven
Seller
locking
Through
Su@@
plus
employment
ped
lights
CONTRACTOR
toward
Branch
label
PL@@
weather
wanted
roll
codes
estimated
architecture
Industrial
rural
electricity
forth
bio@@
reducing
reliable
flexible
West
composition
cu@@
joints
Switch
sold
rapid
Foreign
ignition
channels
Testing
guidance
EM@@
counter
opportunities
150
CL@@
flows
Africa
Electrical
Parties
ai@@
creation
printing
Basic
2017
desired
cf
accurate
British
administrator
Act
continued
ideas
dark
Here
ber@@
destination
arranged
season
reliability
trip
helps
Next
Corporation
copies
priority
cabinet
GB
graphic
copper
gauge
enhance
ports
deleted
looked
Environmental
raise
ish
leakage
Hu@@
strategic
ut@@
lives
Order
dy
agency
filling
previously
verification
1.5
ology
eat
nation
SP
exposure
gh@@
improving
mining
manually
partner
raised
80@@
permission
Fund
wing
1.1
claims
regard
north
Channel
decrease
eight
attributes
April
closing
relief
ancient
Sichuan
observed
realize
38
2.2
Authority
recently
linked
solve
Ensure
deposit
weld
portion
contractor
piston
win
Par@@
looks
covers
400
park
capabilities
advantages
officer
plates
Internal
dead
parent
2.1
estate
keeping
mental
flange
girl
depending
layers
sur@@
Every
feedback
Economic
diagnosis
drives
cancer
enjoy
DS
37
fresh
president
notes
forming
ches
visible
acquisition
hit
usage
spread
requests
AP
DI@@
1,@@
sis
quick
sort
Electric
summer
Point
loads
differences
reservoir
School
7.@@
Machine
leaders
principal
loaded
3.1
Nike
orders
diagram
rating
ants
chart
inventory
transformer
Address
finally
calls
ak@@
28@@
vacuum
modules
laser
back@@
cre@@
timely
performing
Flow
Property
confirmed
York
gets
financing
os
nuts
65
percentage
provider
presence
we@@
ering
Agent
else
huge
oxygen
cars
Mode
describes
amounts
hear
crisis
precision
everyone
Description
framework
sampling
Directory
EC
gap
spare
enables
rain
extra
climate
carefully
3.2
Maximum
animals
nearly
MO@@
Secretary
saying
forest
rooms
Finally
hospital
south
s.@@
64
permanent
Save
warm
businesses
London
keys
of@@
star
acceptable
machinery
bag
behalf
02
finance
effort
loop
He@@
drain
US@@
SO@@
mar@@
ines
ves
2004
broken
senior
compressor
corner
differential
thread
pursuant
grow
SH@@
70@@
Ac@@
ai
restore
respective
conversion
har@@
quarter
pile
represents
tional
EC@@
contracts
35@@
peak
Take
Structure
Single
Content
zhou
organic
ci@@
permitted
Front
Automatic
Land
consumer
instruction
liabilities
powder
fied
af@@
stations
Buyer
script
Directors
blocks
switches
tension
establishment
Price
discussion
Chengdu
Show
permit
jobs
Remote
transferred
"""
Ministry
engaged
disc
gi@@
committee
walk
goals
gra@@
showing
segment
playing
objective
slightly
Valve
accessories
da
Limited
chamber
sting
42
_@@
alloy
partners
Standards
seem
pain
1.2
payable
author
classification
sen@@
lists
stream
ca@@
industries
tors
ID@@
alized
yield
prescribed
yellow
Transfer
Just
Science
trial
powerful
els
degrees
AM@@
ler
teacher
compartment
Training
reverse
ning
attempt
radiation
Sensor
bound
minute
auto
OR@@
Contact
26@@
attack
trees
NO@@
slow
protein
cur@@
AR
regulatory
stopped
collected
spirit
Earth
although
pair
born
ke@@
tic@@
Finance
Step
Member
animal
payments
ned
Source
parking
Copy
ah
manufacture
tables
draw
applying
solenoid
lever
Evaluation
Trade
introduces
LED
comparison
duration
600
bracket
articles
batch
appointed
bear
BS
exposed
Year
SE
Specifies
shell
October
constructed
sky
ahead
Fire
expense
ner
Up
shop
evaluate
suspension
AN
drainage
charges
fail
coefficient
clutch
sports
agents
adequate
programme
acts
Second
telephone
laid
activated
turning
college
starts
west
columns
executed
Circuit
networks
cards
opinion
chief
entering
work@@
Cor@@
Fuel
audio
controlling
circuits
44
hydro@@
marks
27@@
Help
Treatment
MP@@
concerning
Day
communications
Place
experimental
French
sharing
discuss
ving
Team
responsibilities
For@@
tor@@
coolant
4.2
whom
pilot
symbol
End
Mon@@
particles
historical
Base
exit
PS
medicine
replication
Phase
disposal
bars
Account
av@@
wi@@
alternative
CON@@
suppliers
watch
kV
binding
selling
2.5
disabled
noted
doors
CO
Over@@
institution
qualification
EL@@
About
windows
feeling
boxes
ats
investigated
Yuan
8.@@
upgrade
tried
gen@@
ce@@
runs
Drive
composite
returns
classes
Operating
standing
strengthen
shaped
individuals
boundary
transformation
ray
dec@@
tunnel
iz@@
Annex
acting
ol
coupling
invention
velocity
meetings
duties
Rules
removing
retaining
tourism
leaves
DE@@
remember
ble
boy
can@@
PRO@@
Bar@@
Load
ties
derived
Documents
rolling
39
expressed
decisions
Specify
compound
Me@@
satisfied
Monitoring
offered
count
converter
Panel
socket
schools
worth
Qu@@
Tra@@
Speed
mirror
sensors
signature
Wang
setup
un
salt
defects
street
Object
BE
aware
Could
protocol
：
experts
pressing
reserve
ze
Over
teachers
SS
roller
heater
reviewed
Motor
Surface
Red
fell
Capital
packing
navigation
Market
Port
severe
granted
Distribution
transition
Long
summary
au@@
roads
Event
Germany
convenient
shan
4.1
Organization
Space
producing
CLARiiON
commands
Media
LO@@
August
dimensional
checking
ised
sions
investigate
ously
imported
Lo@@
chance
Zone
covering
locked
IV
waiting
connectors
rotation
ach@@
ended
Conditions
objectives
tower
elevation
min@@
analyze
criminal
ships
processor
Apply
ill
offset
officials
province
Their
Western
Invalid
Rear
41
bill
agricultural
November
UK
sl@@
Preparation
Ab@@
conflict
supplies
ular
spent
52
termination
Procedure
challenges
east
alignment
tr@@
ST
dam
51
wants
03
composed
wine
fitting
Environment
facing
axle
ved
Effects
selecting
Turn
competent
represent
contacts
Box
consent
tly
As@@
wa@@
governments
head@@
Editor
ns
assist
bodies
il
laboratory
categories
GE
graph
stainless
Tool
Vehicle
Bidder
ownership
bold
sive
Concrete
resistant
ize
particle
Today
Measurement
2002
panels
interior
employed
trim
Database
Cost
Digital
conditioning
topic
packaging
wizard
relationships
proportion
greatly
painting
29@@
statistics
tea
BO@@
expand
Regulations
IM@@
Max
launch
CR@@
ak
sleep
faster
PO@@
Court
Resources
Have
overseas
clause
subsequent
separately
tag
Net
female
thef
recording
tons
consumers
。
CT
charged
mouth
utilization
strip
ED@@
fo@@
Conclusion
cloud
border
Tools
nbsp
typically
thousand
Dr
API
examples
download
milk
observe
monthly
operators
ill@@
all@@
ty@@
lose
knew
piping
gradually
healthy
Another
German
join
Credit
managers
Electronic
console
depends
ordinary
adapter
reinforcement
bone
shot
Australia
Action
compression
deformation
Good
extremely
measurements
biggest
SA@@
Master
Street
offering
9.@@
fabric
AB@@
computers
air@@
6f16lang1024
profits
environments
Lu@@
intake
blade
expect
updates
player
0.5
arms
Head
120
ber
liable
85
No@@
ung
Delete
weak
Top
concern
200@@
clearance
1000
extend
ming
intensity
Shi@@
Full
drugs
sw@@
Or
describe
reserves
Bureau
lay
university
engage
Payment
vision
advice
printer
White
bond
Transmission
Verify
commissioning
tered
ths
patterns
fix
col@@
43
versions
peace
recognition
reflect
Working
House
drawn
Thus
mix
pumps
strategies
Device
tro@@
effectiveness
tech
ley
nodes
Tax
shut
virus
shock
pers
Size
significance
played
Trans@@
interval
died
proposal
hundred
Computer
John
exception
os@@
fruit
Canada
Regulation
competitive
arising
war@@
2001
az@@
reset
pe
faces
arc
processed
winter
identity
Wall
Foundation
Default
passing
ay@@
decide
str@@
friendly
edges
Or@@
firms
optional
Summary
ensuring
ure
stores
mount
agreements
teams
ars
Update
coat
TO@@
closely
rotor
scheduled
Measures
ali@@
matrix
Search
Korea
temperatures
wet
Period
outstanding
Im@@
abroad
colour
fication
Social
yl
printed
Ste@@
bro@@
railway
Cable
functionality
mouse
disaster
participate
To@@
certificates
ta
speak
oriented
0.0@@
trouble
Image
pick
thein
Provide
researchers
served
partial
ff
dangerous
furnace
Displays
ideal
deployment
Ms
Sheet
max
Human
allowing
rice
mapping
Heat
2.3
Move
2,@@
rent
games
geometry
xi@@
draft
explore
clock
ances
Ca@@
dog
mission
turns
Pump
Choose
mid
presents
atmosphere
loans
sex
France
sheets
diagrams
Oh
obvious
executive
ven@@
spend
technological
Planning
continuously
Man@@
Ne@@
baby
ological
division
realized
conference
ence
contribution
ET@@
programming
46
micro
diesel
Double
separation
45@@
embedded
£
anyone
Small
mer@@
Micro@@
Pe@@
gs
Life
interested
sustainable
promotion
adjacent
challenge
causing
boiler
ON@@
Connection
Region
aluminum
chosen
induced
lin@@
rings
timing
CD@@
colors
therapy
couple
queue
Force
directed
arrow
Light
bur@@
strictly
Color
fat
SM@@
inf@@
SA
crime
q@@
certification
Auto
periods
stick
cool
easier
Go
solar
grain
diseases
Dynamic
Chemical
creates
pack
Ho@@
ao
explain
suggested
confidence
49
Notice
Filter
sized
Rate
PR@@
optimization
ep@@
Russia
Advanced
variation
Drawing
blank
conventional
dependent
modification
damages
CP@@
cs
dual
AM
discovered
slide
scan
leadership
familiar
continues
leads
speech
bri@@
managing
ian
tolerance
situations
URL
DO@@
che@@
introduction
gone
male
deviation
Executive
dollars
mg
Ri@@
integrity
mesh
flood
tighten
Text
mutual
emission
pulse
→
Disconnect
leaving
Bi@@
committed
ink
m2
happen
satisfaction
med
HO@@
strain
sleeve
amp
fly
bright
opposite
wires
CA
zing
strong@@
ically
village
38@@
aggregate
Left
equation
coordination
indicators
assign
my@@
broad
mixture
SC
figures
presentation
cache
majority
DTC
pr@@
western
becoming
organized
5.1
Great
College
families
Output
Mechanical
down@@
USD
adopt
Specifications
coverage
demands
learned
lies
uniform
race
Convention
seek
reasonably
72
participants
rose
moisture
Volume
volumes
kers
specifically
LUN
spaces
47
fying
serial
happened
SAP
tight
mountain
guidelines
incurred
Tri@@
rapidly
Practice
Am@@
FC
margin
translation
recommendations
ys
cul@@
Details
5.2
OS
Parts
coil
matching
Voltage
herein
mal@@
February
modes
exactly
sealed
buttons
execute
exceeds
gre@@
taxes
wireless
54
origin
pping
bs
Last
emissions
ion
heads
isn
myself
contrast
Interface
Additional
thesis
authentication
actuator
tracking
notification
3.3
browser
Get
calculate
gr@@
obligation
powers
Close
thousands
sa@@
references
manufactured
engineer
Selection
SAN
ell@@
Card
slowly
compatible
Those
television
false
facilitate
bearings
Union
Assessment
axial
certified
confirmation
investments
La@@
excavation
loose
Pi@@
rising
Multi
formal
sizes
adjusting
tie
stages
experienced
collect
estimate
charging
marking
Medical
Si@@
meets
So@@
DR@@
lu@@
moves
mat@@
holds
tis
IBM
manufacturers
1.3
sec@@
AG@@
underground
clothes
Run
Pipe
fight
ordered
@
welded
Nokia
05
notify
atory
mixing
56
agencies
ET
threshold
variables
Fl@@
proved
coordinate
targets
tin
iting
800
indicating
ff@@
switching
Library
engines
000@@
tical
23@@
truth
ana
CC@@
association
frequently
newly
gl@@
flowers
clicking
probe
career
existence
syn@@
allocation
hydrogen
Real
@@@
EU
falling
Due
drivers
circle
fac@@
vary
clip
Meeting
excess
warranty
comments
Railway
Large
Discussion
hu@@
antenna
pt
her@@
Communication
Gra@@
cr@@
Hotel
fear
aged
od@@
Meanwhile
express
smoke
stra@@
routine
66
banking
pictures
Release
Dynasty
header
ga@@
conform
yl@@
semi
shoes
announced
Hydraulic
substances
fittings
Emergency
que
Israel
county
truck
proceedings
pure
LE@@
External
mid@@
shipping
represented
fundamental
ane
IR@@
theoretical
250
Block
Subject
Backup
fighting
ay
04
gene
miles
Measure
EL
99
ou
Function
Her
tur@@
Sol@@
arrangements
Middle
Calculation
doctor
players
focused
guard
encountered
Message
ABCD
surrounding
Input
enhanced
Securities
Setting
dedicated
split
alism
Har@@
Command
bra@@
friction
radi@@
Record
ky
restart
63
concerns
Controller
ess
4.3
Location
ventilation
drink
checks
pad
■
des@@
calendar
3.5
intermediate
cotton
Fit
reinforced
cooler
drag
perspective
communicate
hand@@
Minimum
Self
fer@@
residents
regularly
assemblies
Ji@@
plays
stem
classified
Do@@
offices
Solution
literature
adhesive
ably
spray
Accounting
displacement
val@@
addresses
ial
houses
mu@@
Home
Chief
LE
twice
suit
shear
assignment
vers
.com
FL@@
orientation
Asian
restricted
ly@@
stroke
reactor
ens
representatives
novel
Purchase
Pre
Free
LORD
occurrence
hy@@
possibility
opens
Zhang
tail
intelligent
Commercial
entities
signing
optimal
beauty
Intel
500@@
lowest
lease
na@@
extraction
Guangzhou
bonds
fil@@
interaction
dly
Pacific
tender
wheels
detect
steady
Fu@@
Range
dream
argument
aging
iSCSI
boards
era
aim
leg
perhaps
61
expert
COMPANY
Room
Index
90@@
sk@@
birth
NOT
determining
Parameters
talking
ue
tan@@
Min@@
Pa@@
eng@@
maintaining
6.2
resin
relates
Simulation
patent
permissions
conformity
BR@@
boat
observation
reality
drill
sight
Installing
reaches
aspect
proceed
53
Does
Ru@@
older
letters
PE
immediate
tically
district
Joint
rare
ile
PC@@
Visual
Processing
Bridge
forced
treat
Link
Sea
Disk
Insurance
mor@@
comfort
Bid
Taiwan
den
OFF
ute
publication
animation
terminals
smart
Purchaser
5.3
dr@@
crack
fy
workshop
applicant
cargo
apparatus
Obama
vo@@
separated
PLC
Sp@@
Resource
nFor
Export
zed
Failure
designs
fe@@
Division
plain
platforms
RA@@
exceeding
seismic
incorporated
breaker
logy
combustion
ined
ass@@
iness
breach
finding
Keep
Operations
prompt
tissue
casting
ely
Ti@@
AD
movie
faults
cra@@
10.@@
venture
ale
ging
ie
freedom
sending
cloth
correction
Anti
hyper@@
Used
analyses
slot
Who
award
jiang
62
dy@@
procurement
lining
actively
sm@@
Experimental
Changes
score
explosion
Pull
resolve
landscape
comfortable
Implementation
TC
partition
ati@@
silver
Lower
rer
breaking
ometer
Out@@
Ver@@
Legal
Notes
Primary
Stop
incident
purchased
owners
Tighten
Third
Pl@@
sal@@
Transaction
illegal
ery
auto@@
tra@@
lid
exploration
indication
Ser@@
Monitor
curves
CAN
launched
casing
Virtual
Work@@
Characteristics
dispute
vote
reserved
ished
absorption
wh@@
star@@
Sun
CN@@
warehouse
graphics
membrane
ong@@
scientists
sto@@
kes
grease
ina
internet
sy@@
Back
yard
random
chemicals
tre@@
hidden
Cl@@
Coal
crane
satisfy
Jo@@
accessible
pane
NO
absolute
uni@@
Centre
Lord
Post
experiences
B.@@
neck
ir
fourth
water@@
marine
ids
Case
Target
ton@@
shipment
introduce
ecological
dollar
editing
stocks
photo
commitment
interference
decreased
Import
Upon
duct
attitude
Files
Transport
organize
inform
ther@@
ges
SD@@
neither
academic
rack
doubt
WITH
migration
killed
ick
alize
ell
Stock
Green
tubes
68
We@@
CS
ade
ran
Direct
directions
ture
Tightening
ear
dance
clamp
2.0
husband
del@@
validation
positioning
suggest
onic
appeared
57@@
meat
unto
determines
mechanisms
garden
electro@@
Guangdong
Russian
seemed
lamps
Whether
spending
57
Bill
lots
bending
Jin@@
Wizard
ra
superior
Lin@@
Conference
bul@@
disclosure
Body
ware
ATE
buffer
strict
biological
mostly
roles
Shenzhen
pretty
winding
Read
hazard
Black
sensitivity
inserted
disable
affairs
earthquake
™
98
conclusion
Singapore
Brake
deposits
receiver
fashion
pole
Poly@@
2.4
Natural
helped
ation@@
shutdown
Clean
tip
flexibility
excessive
Yu@@
ger
Civil
ws
knows
Oracle
59
willing
Congress
ities
Like
mineral
Cre@@
filters
jurisdiction
styles
gro@@
ron@@
cal@@
ot
lie
Letter
SL@@
courses
appraisal
IEC
interesting
evaluated
defect
Bu@@
Cross
experiments
snow
satellite
ear@@
nominal
Er@@
promoting
Domain
ets
declared
1.0
\\
Women
conductor
enclosure
respond
nice
recover
preferred
labour
Bur@@
participation
^
post@@
eliminate
Multi@@
converted
integral
hazardous
acquired
trace
oxide
substance
seals
demonstrate
No.@@
island
DVD
ged
Normal
Repair
CC
Hydro@@
Du@@
geological
branches
falls
dic@@
involves
Representative
infection
capture
ser@@
37@@
Four
、
MENT
Component
alert
residual
Olympic
logging
Mobile
radius
acute
chi@@
passengers
valuable
1998
Studies
OL@@
Vi@@
funding
campaign
none
hood
lateral
vessels
mer
frames
motors
feeding
educational
simultaneously
fracture
forecast
worker
ine@@
portfolio
registry
hereinafter
wash
slip
quantities
fin@@
sit
6.1
happens
est@@
Unless
Partner
http://www.microsoft.com/contentredirect.asp.
theten
pu@@
cap@@
taste
Common
Dec@@
ases
Col@@
accidents
increasingly
suspended
War
representation
wed
Moreover
thy
photo@@
99@@
rows
productivity
secret
bil@@
Which
appointment
inspect
sliding
Acceptance
hereby
IG@@
ational
commonly
IA
Town
appeal
airport
4.5
entries
brush
corporation
nine
isolation
tering
Food
numerical
Ten@@
pricing
awareness
fur@@
Short
Major
ast
locate
ori@@
verified
implementing
Bar
bidding
aming
58
anchor
retail
tray
DNA
pped
License
Look
Style
pal@@
HSE
expensive
67
MPa
ce
Regional
Administrative
pedal
incorrect
Xi
nitrogen
Sch@@
correlation
daughter
gravity
chip
customs
SU@@
floating
AV@@
elastic
pressed
texture
amp@@
q
cri@@
flame
cycles
preliminary
twenty
involving
compare
Compliance
deck
ward
hearing
Will
intelligence
Instead
tives
Activity
Ben@@
washing
sti@@
wrote
longitudinal
Platform
explained
tal
offence
FS
putting
vendor
1999
waves
compressed
SD
zones
commerce
ftlb
ents
discusses
viewing
Chairman
ambient
prove
Out
cy@@
assess
fun
dose
Complete
passage
Au@@
Besides
vice
ingly
3.4
ishing
matic
election
Banking
evening
Ber@@
kids
tend
Spring
puts
considering
br
primarily
CE
Final
Explorer
attend
consultation
partnership
activate
Print
innovative
22@@
acy
por@@
circulation
href
attachment
stipulated
Shares
pit
exclusive
tire
Integrated
alcohol
leather
coated
complicated
Britain
governance
affecting
val
eling
Modify
authorization
off@@
PD@@
Log
proxy
brother
uan
cher
tin@@
Without
UR@@
girls
pri@@
Investigation
subsidiary
dates
folders
sy
Inspect
characterized
Profile
creative
DNS
officers
disks
ticket
judgment
Signal
BC
nozzle
Return
England
HE@@
Tr@@
defense
Society
artificial
dress
fans
unknown
imposed
El@@
restrictions
circular
yang
Ge@@
stri@@
Terminal
danger
couldn
David
specialized
flash
generating
USA
washer
Example
rotating
Theory
marriage
sole
ination
fixing
spectrum
gun
cen@@
001
genetic
purchasing
Yet
jet
wild
crew
interfaces
ur
stops
Washington
cancel
Under@@
1997
pol@@
oma
Rec@@
busy
IL@@
accordingly
sol@@
transmitter
drum
rope
fa@@
aries
PA
NAS
consist
alo@@
MP
begins
Tooling
DN@@
enemy
Ju@@
teeth
logistics
catch
centers
validity
requiring
MS@@
OP@@
grounding
raising
submission
abnormal
pho@@
Men
Fer@@
1st
ji@@
Cap
inches
Mark
USB
96
com
sharp
phones
bought
din@@
passes
specifies
Sets
liver
greatest
farm
jointly
union
ining
gross
GPS
consolidated
log@@
comp@@
pointed
phenomenon
clothing
examined
Approval
compatibility
clo@@
cup
worldwide
activation
Her@@
form@@
izer
ate@@
inspected
analyzing
SI
grant
speaking
oral
premium
subjects
UL@@
Procedures
Influence
86
advertising
invoice
48@@
Yang
BL@@
calling
household
Articles
statistical
06
Clinical
wealth
Adjust
Among
designing
¯
inflation
rac@@
Art
Grade
minor
entrance
sof
Teaching
Subcontractor
Apple
regarded
molecular
SS@@
burning
4.4
recommend
Recovery
ne
construct
elling
highway
overview
Porsche
47@@
tile
Registration
Alarm
Request
istic
acceleration
army
Liu
Rights
languages
ero@@
Within
Welding
7.5
tanks
reduces
bottle
IF@@
Side
met@@
brings
Instrument
modeling
vent
writer
Scope
j
bre@@
encourage
preparing
dial
Mc@@
plasma
shopping
narrow
Would
neutral
Push
produces
Res@@
surgery
ban@@
crystal
adverse
synthesis
King
regulator
allo@@
suggestions
absence
Fi@@
African
seats
violation
Different
Monday
faith
kit
Version
segments
ENT
pan@@
Cy@@
symptoms
hall
vector
Survey
CM
Inc
PVC
premises
skill
acc@@
mortar
iii
om
Query
legislation
oo@@
Enable
rescue
pins
ica
findings
The@@
maybe
switched
trained
arbitration
kill
wasn
tomorrow
end@@
underlying
Scale
bor@@
Several
Friday
declaration
secured
AutoCAD
Replication
crossing
/@@
dra@@
emerging
agriculture
retention
Five
suggests
ev@@
receives
Book
hub
ride
careful
TION
inter
constitute
PP
estimates
yes
pur@@
brief
Online
ash@@
Nor@@
rocks
apart
prof
Sha@@
ye
Furthermore
trac@@
Agency
Br@@
Hot
residential
song
NOTE
shield
ro
establishing
aluminium
fatigue
Linux
walking
welcome
belongs
ju@@
Ta@@
impacts
ann@@
convert
ml
Items
leak
Task
Chen
whatever
ME
borne
extensive
ours
are@@
interview
Identification
sodium
Language
7.1
sweet
holders
Video
seeing
handled
lived
Fe@@
she@@
tim@@
Should
assumed
braking
evolution
dropped
joined
examine
decline
licence
ser
comment
1.4
Google
ba@@
paying
Off
Drawings
gar@@
concepts
adjustable
certainly
detector
native
Mer@@
eating
≤
approaches
dealing
tone
flower
judge
commission
suddenly
Try
e.@@
editor
identical
enforcement
cleaned
Students
ces
Symmetrix
Urban
grass
Capacity
TA
slab
trends
filed
Completion
Dell
ass
tap
Administrator
Further
6.3
CP
lb
CF@@
Enterprises
Cap@@
containers
pres@@
drying
mill
MA@@
dri@@
territory
elled
extreme
ising
88
loc@@
oring
afraid
constraints
bags
prohibited
Companies
Mal@@
hol@@
thereby
Culture
Char@@
assurance
defines
leaf
listen
ending
wearing
Map
Americans
Multiple
fuse
extract
Metal
gains
110
Navisphere
ASTM
hypo@@
Audit
synthetic
intellectual
rats
mented
salary
Minister
stack
San@@
Delivery
und@@
moon
PT@@
painted
studying
isolated
legs
metric
sc@@
sitting
qui@@
affects
Goods
California
ny
club
mud
ow@@
201@@
regardless
Members
dynamics
discipline
manifold
□
NS@@
3,@@
chairman
contribute
Outlook
ric@@
satisfactory
any@@
Lake
understood
fiscal
stands
rep@@
humidity
CI
Hel@@
Op@@
accurately
Element
suction
Net@@
BY
transform
brown
Cal@@
preceding
History
ease
revision
thoughts
RAID
set@@
oms
pan
Unscrew
shoulder
PM@@
gonna
rigid
buying
talent
allocated
bulk
Operator
calculations
Auto@@
equ@@
believed
drinking
clay
Users
calculating
reputation
outdoor
stars
beat
tele@@
laying
Applications
supervisor
heated
super
continuing
seed
wn
coffee
photos
guy
contributions
0.1
resi@@
maps
helping
resolved
PP@@
stood
facts
basin
invested
lam@@
yesterday
dated
traction
worn
arrange
logged
ari@@
hook
Fibre
))
tw@@
till
1995
attach
Host
arrived
UV
grinding
imp@@
theme
toolbar
spec@@
bits
fier
namely
van@@
Fault
enabling
Electro@@
graphy
faced
Ren@@
Store
southern
Statement
ha
boss
92
moral
schema
Mi@@
Indian
7.2
Long@@
discovery
threat
Asset
Cun
consequences
instances
Family
Fixed
Mor@@
5.5
WS
flag
Solutions
ey
sugar
Window
agrees
SM
expanded
sible
minimize
d.@@
giant
Response
claimed
Games
documented
packages
Super@@
hum@@
VI
Celerra
Ra@@
ads
terminate
solvent
voting
catalyst
conservation
Length
programmes
syndrome
Tests
ys@@
interpretation
ocean
threads
Personnel
powered
IB@@
thinks
bore
trigger
hide
ERS
operates
0x
bigger
blind
Progress
Package
forget
tom@@
Chongqing
Screw
compounds
Share
constantly
Creating
databases
opinions
zer
t.@@
computing
caught
NET
War@@
repeated
EM
Win@@
zinc
finite
informed
undertaken
achievements
exterior
Amended
Layout
sun@@
Personal
lens
recognize
Mountain
fies
intervals
TH
downstream
Driver
fu@@
monitored
reflected
pillar
chemistry
difficulty
36@@
exact
Between
inputs
NetWorker
ners
haven
storm
groove
ple@@
2nd
eventually
despite
placement
Job
rely
positioned
boot
Pan@@
cer@@
Ni@@
happiness
sewage
Autodesk
eng
Supervision
thrust
wastewater
ran@@
nations
Annual
communities
limitation
.1
teri@@
impossible
Replacement
universal
Components
cylinders
app@@
organ
solving
key@@
GB@@
asking
automation
sectors
NE@@
fer
savings
balanced
assume
dered
Italy
render
Battery
UN
commodity
BE@@
consolidation
difficulties
Ba@@
ceiling
Frequency
LI@@
Door
pper
buyer
Custom
PAR@@
arrival
waters
Gen@@
Secure
ac
MM@@
startup
gift
dinner
audience
180
married
negotiation
Collection
ax@@
conducting
brands
Dong@@
beams
probability
seriously
Qingdao
yed
blocked
Strategy
keeps
ultimate
ALL
listing
GM
Cu@@
xi
Pres@@
ups
desire
by@@
Find
whenever
plan@@
bing
revised
definitions
attacks
Officer
keyboard
horse
boost
Federal
Transportation
settled
94
complexity
usual
expectations
stuff
hom@@
excluding
700
birds
hundreds
dealer
aff@@
Ground
basically
dro@@
expertise
serving
gained
Protocol
Sun@@
films
cracks
shareholder
ess@@
sounds
seeking
Em@@
afternoon
exhibition
continuity
sat
Bal@@
referenced
ris@@
addressed
sil@@
mountains
incoming
gg@@
mb@@
grown
gases
comprises
1996
ered
08
bacteria
involve
substantial
ently
Wi@@
Impact
Manufacturing
ears
commencement
demonstrated
earnings
decades
scenario
eth@@
membership
promptly
RS
liner
Physical
counter@@
polymer
throttle
Bri@@
Core
bas@@
ba
visitors
Express
prime
Xi@@
furniture
hardness
logs
worry
Can@@
ll@@
Commerce
latter
COM
sin
transparent
5.4
disconnect
reg@@
rotary
depend
transmitted
Did
hazards
coding
phases
LS
ide
Amount
remained
ach
ster
tar@@
guaranteed
Sal@@
bal@@
duly
2018
Times
mit@@
soul
weapons
hal@@
Tender
chassis
char@@
citizens
Category
ts@@
ading
preventing
Put
CH
foam
amine
Average
independently
69
snapshot
machining
97
collective
Ethernet
DB
northern
ain@@
Initial
DIS@@
aren
ensures
Thank
revealed
tier
fold
closer
Thermal
barrier
ji
labels
expenditure
rotate
mature
TC@@
hua
Photo@@
stories
Bra@@
consisting
transit
tumor
GP
philosophy
offline
Gar@@
San
specimen
restaurant
Non@@
DA
dies
metallic
viewed
adopts
deals
Programme
ka
escape
equipments
symbols
Specific
papers
itation
synchronization
tures
GR@@
analyzes
Taking
farmers
Generator
employer
Warning
numerous
placing
outcome
FO@@
plot
HR
subscription
battle
enc@@
Han
dian
obviously
Path
Dra@@
Facility
bird
Except
eli@@
wise
shadow
junction
07
Korean
ole
book@@
exceeded
poverty
AU@@
§
clips
Bus
repository
possibly
Java
favorite
silicon
Soil
Available
metals
Sunday
tively
explanation
ened
ick@@
ists
largely
paths
ili@@
strongly
Effective
makers
71
workflow
burn
speeds
engineers
representing
anc@@
constraint
amended
TE
SharePoint
Parameter
pop
jo@@
spatial
Marketing
flying
Corporate
TB
topics
lake
Bl@@
Ap@@
ils
clearing
CM@@
pending
81
electrode
grew
portable
12.@@
fed
founded
spl@@
Lock
Cash
GDP
MM
tightening
tour
sorry
kitchen
concluded
Following
600@@
Cancel
int
400@@
nearby
profiles
CR
SW@@
reaching
configurations
sessions
failures
undertake
Ob@@
Follow
ble@@
pneumatic
Met@@
ement
Pol@@
mil@@
TA@@
portal
vast
hai
Problems
nose
bytes
adds
sle@@
Ph@@
journey
Best
Wu@@
wrench
gran@@
wells
Ter@@
Customs
Configure
bin
connectivity
win@@
meal
holiday
unexpected
stronger
flu@@
MW
consistency
corruption
terminated
treating
cursor
rough
77
sister
76
protecting
.2
solved
valuation
guests
Hz
Cloud
stro@@
planet
optimum
chair
worse
routing
federal
standby
Overview
rolled
Prevention
Classification
Doc
MB
resulted
conveyor
penalty
DL@@
replacing
desk
tations
Paper
strengthening
entirely
conversation
belong
-1
retrieve
assembled
PT
09
scanning
fore@@
Country
Live
ish@@
provincial
Resistance
massive
izes
temporarily
cord
Menu
Traffic
hi
rendering
repeat
Seal
gray
overhead
sup@@
lands
Introduction
precise
rational
duc@@
petroleum
millions
zz@@
Call
Anti@@
ency
edition
combine
muscle
pitch
Adjustment
Zhejiang
monetary
87
CPU
Mechanism
engagement
sentence
collaboration
Allow
watching
ex
aw@@
Chang@@
Sta@@
templates
snap
boom
Layer
Perform
universities
AGE
imaging
ss
feasibility
electron
Manage
St
providers
outs
lis@@
Vice
discount
deeply
lubrication
tensile
securing
Excel
rejected
survival
Sample
desktop
300@@
justice
PO
32@@
ulation
Mil@@
thanks
Hor@@
Listing
achievement
PA@@
Rule
sor@@
NC
Sy@@
listening
needle
pipelines
electromagnetic
91
endo@@
sia
PM
obtaining
potentially
Prior
macro
Pen@@
landing
locks
Sometimes
combining
adjustments
82
entertainment
approve
toxic
pulled
decade
paste
93
ME@@
Smart
filler
angles
TE@@
Ret@@
Modern
expiration
Column
uck
contamination
Cha@@
seller
buried
strike
ium
Related
Added
Units
stones
bucket
Zhen
Hospital
nonlinear
Factory
movements
lying
Lu
smile
collecting
exports
blow
crude
Mu@@
cuts
iling
ham@@
Journal
issuing
feelings
Structural
ya
BA
assessed
Upper
Always
IL
ath@@
Synthesis
login
publish
Comparison
She@@
electronics
heading
SYSTEM
ides
Jesus
identifying
VE
liquidity
Borrower
thirty
meant
bypass
responses
Relationship
conjunction
Back@@
identifier
Tang
Den@@
initiative
Loan
att@@
optimized
sends
SR@@
Frame
dirt
designer
developers
unified
tivity
Daily
tiny
rel@@
pul@@
Limit
ama
Wire
Screen
ect
hor@@
organs
sion@@
Required
batteries
proven
Army
freight
Pal@@
our@@
disclosed
icity
issuance
red@@
Facilities
reflects
Condition
aled
sin@@
Tian@@
mask
talks
DM@@
recovered
73
serves
governmental
Professional
cavity
duplicate
automated
Improvement
160
ams
newspaper
cho@@
shapes
acted
promise
ption
subsidiaries
Air@@
Stage
kin@@
Nan@@
matches
quiet
idle
bent
youth
Tuesday
RC
chronic
neuro@@
89
impairment
winning
Gold
ub@@
wooden
Village
regulated
Iron
www.@@
Commissioner
geo@@
invest
GS
yi
fabrication
At@@
proposals
spo@@
thoroughly
aside
TP
radar
Carbon
DS@@
Paris
Weight
Bro@@
ment@@
Sur@@
soldiers
directional
harm
pavement
improvements
backed
thermo@@
Measuring
reader
sexual
PH@@
aims
totally
Loss
Hardware
PRE@@
Uni@@
Wu
Xin@@
uncertainty
flowing
Gi@@
ography
maker
rank
real@@
DE
pace
accompanied
L.N
Airport
expanding
chloride
firmly
finger
sees
truly
Children
limitations
ao@@
Bearing
Floor
HTML
bringing
catalog
organizational
Medium
Send
Title
tab@@
copied
mm@@
subjected
Grid
spacing
deployed
humans
pose
penetration
DI
Yeah
installations
Reporting
Terms
gram
Secondary
Comprehensive
beneficial
retained
estimation
Objects
archive
religious
land@@
Detection
regulating
speci@@
indoor
kets
Mail
fre@@
Power@@
ranges
IR
Liquid
HSBC
oxidation
authors
iled
Is@@
monitors
74
enti@@
tru@@
Fin@@
indexes
invited
possession
thou
torque@@
hosts
mas@@
vital
Island
da@@
Records
lt
3.0
CT@@
Hi@@
packed
Innovation
cheng
VMware
insufficient
minister
78
mice
equations
ox@@
Controls
brick
swing
Bio@@
municipal
1994
contractors
economies
Hy@@
ple
speaker
Tianjin
Del@@
Stra@@
psychological
Na@@
PE@@
originally
Overall
spots
worst
ATED
ben@@
erosion
Interest
Christmas
oils
streets
corrected
ene
Vertical
planes
tem@@
reviews
Yi
erection
upstream
Community
burden
sphere
Bre@@
tt@@
UP
Framework
structured
dish
indirect
ignored
revolution
mathematical
fired
investor
violence
retain
classic
tization
occupational
optimize
helpful
pot
walked
automobile
cam@@
ongoing
3rd
Integration
Learning
colleagues
Brazil
Provider
va
aligned
1.6
resident
mortgage
Re
initially
Cultural
ae
Old
cro@@
QU@@
ONE
dioxide
bath
Rover
delayed
Connector
sta@@
CE@@
camshaft
84
Comp@@
tips
Gl@@
demonstration
crankshaft
Municipal
destroyed
Cooperation
tured
Balance
armed
ceramic
infrared
tells
net@@
routes
convenience
restored
diet
disconnected
acquire
ester
selector
Option
candidate
Gr@@
compact
wouldn
Academy
ily
Memory
aching
notified
class@@
church
initiated
jump
ory
Cut
specially
dia
insulated
Seat
attempts
schemes
welds
anywhere
matched
Detailed
calcium
On@@
Quick
restraint
foods
ave
Nanjing
ourselves
BP
Income
Loc@@
Steering
Though
squ@@
Waste
Clear
Set@@
fewer
eligible
Man
Plate
RMB@@
Shandong
frequent
mp@@
collapse
fax
prediction
hang
hybrid
Person
Template
enters
enclosed
focuses
5mm
debris
influences
na
futures
fuzzy
Rel@@
politics
cli@@
Private
oned
mold
losing
cat
attempting
Da@@
ables
cle@@
Sil@@
permits
filing
believes
briefly
Jiangsu
fishing
Having
broke
Lift
ancy
Diagram
bend
EF@@
nThe
washers
DM
101
suffered
reply
adult
discretion
tourist
vs
GO@@
Assets
asing
necessarily
Id
DB@@
Communications
Blue
MT@@
quantitative
sediment
troops
Go@@
Format
cleaner
ath
discharged
finishing
mandatory
iso@@
Fan
Opening
Thursday
Mass
shoe
pressures
Hol@@
Cooling
Iraq
curing
hon@@
ITY
sec
ased
inv@@
Italian
centralized
gathering
boys
Senior
allowable
flo@@
mic
fairly
hurt
fla@@
ABS
Technique
guest
ger@@
Write
tool@@
filtering
Sto@@
Te@@
arts
plugs
convertible
dem@@
Mrs
fifth
cab
closure
Mount
Hand@@
ome
soci@@
Running
align
thank
Tel
elected
partially
participating
Features
Torque
analytical
shi@@
1993
hill
surge
alternate
LUNs
ei@@
feasible
vis@@
ther
??
Cluster
posts
Growth
decoration
chest
Mexico
CO2
accessed
ARE
Pu@@
PS@@
bandwidth
choices
conflicts
pen
personality
reflection
locally
ard@@
indeed
herself
paragraphs
exc@@
sensing
journal
Reports
Travel
Vendor
secretary
Pakistan
ises
football
Fill
inspections
33@@
xing
Belt
curtain
circulating
explosive
viscosity
coast
formats
Attribute
Maybe
dge
vol@@
visibility
roots
tracks
CI@@
M6
shirt
Cur@@
Ke@@
Scheme
revenues
Otherwise
approx
Cr@@
formulated
safely
Early
gears
MB@@
bers
Highway
lac@@
mate
aimed
periodic
unloading
piles
stamp
sudden
pairs
bin@@
wonderful
ump
83
Iran
theories
150@@
sa
sel@@
aded
meth@@
ceremony
Affairs
Photo
gener@@
smo@@
logo
throw
rust
accumulation
Gear
Plug
Australian
Cold
ap
strap
Qi@@
News
Optimization
diversity
Ring
Guidelines
Repeat
Starting
Selected
Egypt
MA
exchanges
threaded
ace
awarded
brakes
crash
arch
productive
nor@@
oper@@
Despite
blast
pic@@
apparent
ner@@
gently
Build
SN@@
efficiently
hoist
ano@@
exported
Ming
pon@@
carries
Qing
confidential
prefer
79
0.2
refuse
HTTP
MI
maturity
announcement
Pri@@
abilities
PRC
Sen@@
TER
analog
licenses
7.3
hierarchy
Cat
cleared
breast
repairs
Fac@@
bol@@
BR
Spain
Folder
Des@@
Guarantee
kin
Never
feng
gri@@
34@@
Sk@@
harmful
PV
bow
appoint
Yunnan
teach
tation
wor@@
Acid
Web@@
10,000
NS
rendered
ail@@
Factors
6.4
behaviors
stuck
IF
Issue
welfare
Yellow
attractive
Currently
adaptive
Reserve
6.5
Michael
Tom
Result
ack@@
miss
emphasis
bo
intervention
thi@@
Radio
rpm
amplitude
psi
Reform
Yan@@
ore@@
VER@@
reception
Extension
modifications
Cs
expressions
behaviour
concentrated
pocket
ket@@
talents
evil
hanging
functioning
homes
influenced
ron
Latin
crucial
proceeds
recipient
scores
witness
tries
Learn
Paint
5m
gates
FI@@
ref@@
RED
Console
loved
considers
lightning
DO
Shareholders
TED
TER@@
Chart
CONTRACT
mes
Plan@@
Preliminary
PR
55@@
Big
TF@@
consulting
breaks
ultrasonic
My@@
Ku@@
Wuhan
outputs
CEO
Sa@@
distributor
telling
overcome
UI
VA
arise
eastern
highlight
New@@
Mag@@
graduate
separator
DA@@
alling
DR
Indonesia
long@@
ose
GC
funded
integrate
licensed
IO@@
bench
gel
robot
picked
restriction
flux
Lead
publishing
Shift
Cas@@
lif@@
arrive
substation
Cover
specimens
binary
ASME
realization
Increase
surplus
IM
Instructions
ight
tall
explains
sport
oning
Xiang
trailer
tied
hammer
Award
targeted
pat@@
amplifier
EPC
chlor@@
lending
performs
controllers
linkage
ech@@
inc@@
improves
WORK
avoided
corrective
jacket
li
Pul@@
substantially
Tower
cushion
residence
reconstruction
finds
wheat
spool
Edition
GE@@
2D
aling
depression
Come
grey
Manufacturer
xes
nit@@
ening
sch@@
passive
strange
nerve
Fa@@
accumulated
sh
stan@@
with@@
bases
gender
judicial
radial
fusion
mul@@
bilateral
ga
repaired
8.1
destruction
hopes
Partnership
naturally
bling
tening
allowance
distinct
sick
intention
Maya
discover
mentation
transported
GU@@
Compared
Proposal
immune
qing
catalytic
tired
Experience
LCD
cage
HD
coupled
arguments
emotional
frozen
MIN@@
promoted
bn
tears
Auxiliary
FOR@@
provinces
methodology
screens
freely
knife
decreases
bridges
han
HS
ker@@
Solid
fibre
systematic
Very
cone
ARY
summarized
FROM
ums
itu@@
Vol@@
Higher
Housing
connects
op
specifying
CB@@
lab@@
**
onal
Wor@@
tabs
cooled
pulling
crop
Star@@
credentials
conver@@
CAD
grades
Responsible
125
TCM
patch
propose
8.2
shorter
ound
genes
suffer
coordinates
gt
Inner
Festival
ese
essence
robust
Hall
Petroleum
Detail
autonomous
ced
eu@@
tags
achieving
insured
Numerical
ared
≥
kilometers
Tank
collision
sulfur
Care
choosing
tooth
sketch
gradient
Passenger
pleasure
metadata
posted
hel@@
mailbox
lab
HIV
illed
tance
let@@
kW
Being
Groups
amendment
alizing
suffering
sing@@
pushed
Nuclear
consciousness
plenty
answers
occupied
Tech
analysed
UM
blasting
corn
indirectly
wound
14.@@
Existing
ame
permanently
break@@
surveillance
A.@@
Points
limiting
discussions
Tube
induction
mistake
105
tal@@
Resolution
collar
magazine
tee
asphalt
Steam
supposed
recommendation
slag
bit@@
gasket
encryption
Al
Roman
4,@@
gang
UC@@
Bush
spoke
person@@
Audio
ata
WE@@
Trust
predicted
lane
occurring
don@@
punishment
sof@@
variations
Knowledge
3.6
11.@@
Bay
intensive
dent
Generally
Jack
atmospheric
adapt
campus
Register
rails
Definition
Wednesday
zi@@
luggage
serum
equally
pes
assistant
professionals
therein
Wheel
lesson
delivering
crowd
Session
ast@@
TCP
dried
seam
fic@@
shipped
Down
defining
Attach
pin@@
PER@@
cream
graphical
Saturday
degradation
unusual
tary
privileges
Paul
tester
app
inquiry
pro
Architecture
None
prospect
tough
smoking
def@@
rods
anger
withstand
RAM
sco@@
Verification
troubleshooting
Club
Glass
Noise
disputes
tioned
TING
Utility
searching
lung
FA@@
rivers
scenarios
completing
FT
ately
formwork
.The
negotiations
scripts
Laboratory
Usage
Strength
barrel
isation
developments
screening
Identify
mL
Nm
carriage
grounds
lar@@
Deputy
solely
dable
low@@
Soft
initiatives
appliances
drops
bay
golden
tract
ail
Wind
offshore
flush
guys
lion
ades
Bel@@
practicable
Password
Types
individually
RM@@
securely
NT
Agricultural
pumping
tens
visited
hard@@
storing
Cro@@
tradition
Variable
atomic
handed
upgrading
ethnic
nursing
ladder
0x@@
doctors
eless
mono@@
highlighted
focusing
prevents
Key@@
hate
delivers
ony
libraries
pension
bulb
aring
cooperate
run@@
scra@@
contractual
baseline
ecting
Labor
moderate
alarms
900
ure@@
tent
null
Examples
Shell
fle@@
Han@@
Turbine
copyright
gers
ols
sons
crops
Stress
AF@@
Love
fraud
vegetables
bills
ind@@
nearest
1990
Por@@
Continue
dd@@
Term
dium
Track
luxury
lessons
waterproof
debts
descriptions
Mac@@
tendency
Ur@@
ep
elsewhere
ici@@
burst
boundaries
Loosen
Sho@@
deploy
contrary
injuries
regime
classical
accelerate
ame@@
Diagnostic
Wa@@
rence
Welcome
silk
retro@@
Mining
destroy
metering
noticed
Provides
grouting
qualifications
trap
0,@@
not@@
lock@@
Word
//
ANCE
barriers
statutory
uring
guess
interactive
TY
APP
simulated
broadcast
palette
Cylinder
LTD
Algorithm
oid
intersection
Prepare
supervisors
Touch
springs
depreciation
Depending
Additionally
trademark
wonder
professor
UPS
que@@
20.@@
privacy
RF
chicken
architectural
weights
furnished
instant
comprising
Ko@@
balancing
SMS
eds
hoses
Ed@@
smell
Checking
associate
sibility
undertaking
displaying
shelf
Ma
poses
ometric
gravel
Perhaps
inated
Intelligent
Hong@@
Star
cracking
pH
Heavy
gation
triggered
DP
Handling
chains
forever
one@@
lubricating
Height
assembling
textile
atic
joy
metres
definitely
ingredients
sli@@
traveling
tment
LAN
cing
partly
syntax
Continuous
clouds
Distance
wedding
orange
seeds
trusted
bes
lined
ultra
Projects
differ
360
hur@@
la
ut
Chi@@
Cup
age@@
feels
returning
CB
yer
detecting
sho@@
stopping
sought
consult
weekend
thee
updating
Yu
Str@@
abuse
pounds
ection
07@@
elevator
skilled
classroom
lasting
transformers
ry@@
Mine
eth
Film
1992
virtue
guides
bamboo
dense
Traditional
Plastic
ca
alised
EV@@
adoption
commodities
trains
stakeholders
stretch
Governor
Car
utilized
oven
Entry
tubing
Head@@
floors
Ps
camp
Dat@@
Finish
bly
blocking
ini@@
dogs
Pack
radiator
QC
Problem
Relevant
George
authorised
FF@@
versus
CV
dle
valued
eting
altitude
sand@@
Water@@
bell
inj@@
whereas
consecutive
Principal
show@@
HT@@
hereunder
imagine
pos@@
CONTROL
Pr@@
Quantity
complaint
phy@@
Supervisor
Zhou
pet
governing
transverse
ature
Pay
Fil@@
suspect
criterion
alities
reveal
taught
attended
ph
actor
equilibrium
Mis@@
itable
clockwise
Rob@@
candidates
Song
coatings
glasses
bonding
Museum
Tag
USE
PI@@
WH@@
outcomes
ries
im
colored
permeability
fu
pulley
ren
Give
adults
craft
Jing@@
songs
predict
911
varying
Calibration
lunch
accomplished
MC
guarantees
combat
ok
get@@
Chain
float
synchronous
weekly
accommodation
ices
Removal
new@@
Gre@@
bon@@
Forest
abstract
Marine
GA
hu
appliance
fire@@
Optical
Tourism
upward
CU@@
Generation
Stability
stator
hollow
faulty
Horizontal
accounted
boo@@
stor
ays
economics
outline
stresses
ee
soluble
Diesel
eggs
Xinjiang
read@@
Attachment
Instance
accommodate
COMM@@
Indicates
fog
Scientific
Studio
CX3
backups
generates
Valley
realistic
Rated
tionally
21@@
fibers
illness
identifies
wages
bread
excluded
irrigation
transient
Infrastructure
Professor
Coun@@
J1
absolutely
Charge
7.4
Workshop
efficacy
disclose
lightweight
favorable
comparing
Inte@@
Staff
MR@@
acoustic
18.@@
preventive
tative
captured
concentrations
Square
port@@
Individual
Adding
proposes
Factor
39@@
ANG@@
Relay
dom@@
hereof
pointer
Procurement
struggle
unavailable
Mat@@
coach
defective
Eastern
fulfill
Gran@@
dges
Registrar
handles
considerable
berg
thereto
cheap
conf@@
sty
Typical
bubble
Operational
Tester
TU@@
breath
surprise
beach
stressed
pay@@
som@@
Tai@@
institutional
belief
free@@
transfers
Qing@@
Statistics
plastics
Edge
varies
conforming
recognised
settle
readers
Music
Centera
lows
mA
physics
thr@@
ney
fraction
hire
pra@@
Desktop
cartridge
cou@@
cross@@
TOR
cooperative
Drag
Cement
proceeding
fingers
rat
ite@@
wisdom
honor
Demand
nar@@
mood
blades
Spanish
Machinery
%%
attract
filtration
temple
Flu@@
gged
dor@@
Pipeline
Flash
gathered
posed
0.05
5.0
Tim@@
contemporary
Estate
Wei@@
merely
AI@@
Cleaning
injector
resume
evaluating
tt
SECTION
debate
advised
Thanks
sian
Tur@@
Angle
au
integer
Formation
PDF
Zhong@@
Hold
blog
euro
quoted
Course
declined
ack
Cell
pushing
prison
PCM
VM
cultivation
66@@
detects
wil@@
Afghanistan
gather
favor
refused
va@@
evenly
Dimensions
airbag
mates
tyre
override
condenser
teen
tory
Tab
PI
leaks
dness
Wei
tilt
Fluid
Kingdom
flanges
deposited
heavily
COR@@
Tor@@
fluids
tai
..@@
Assistant
hotels
medi@@
shallow
AG
Events
line@@
quote
jack
izations
mut@@
Remember
programmed
civilization
Optional
tickets
openings
html
Composite
Paragraph
queries
spiral
Original
alk@@
nom@@
di
transmit
Fast
Implement
sludge
hexagon
Equity
oun@@
charger
Node
scal@@
speakers
du
lic
Returns
plating
Days
Has
cameras
vel@@
Men@@
Slide
a.@@
cooking
ki@@
dominant
Yi@@
120@@
Inventory
amendments
cancelled
Fre@@
Peter
Pro
rays
everywhere
owns
vendors
agenda
slight
answered
departure
alive
exciting
shooting
Entity
Determine
Temporary
Hyper@@
Magnetic
prompted
processors
Train
ino
regi@@
ATOR
pun@@
trucks
perfectly
spindle
schedules
C.@@
rental
Conver@@
emp@@
MT
anticipated
dat@@
Label
firmware
leverage
Trading
0.3
methyl
dic
victory
arrays
Hai@@
lin
urgent
zo@@
dreams
survive
deb@@
bidder
redundant
belts
gen
wider
ek
commen@@
MAR@@
2020
lifetime
zi
mag@@
Changing
Copper
aches
breakdown
Reset
feeder
calibrated
ABLE
cru@@
shops
Tu@@
Rail
mes@@
Employee
artistic
RM
incidence
Yang@@
py@@
Ban@@
tran@@
Rock
INE
quotation
130
retainer
Fax
bones
planting
surgical
gy
blo@@
exchanger
precautions
egg
Je@@
Vibration
distribute
inte@@
minimal
FE@@
Dimension
Navigation
arity
Qualification
ef@@
64@@
Still
shoot
PD
ranging
Either
Rubber
aying
terrain
Dept
Given
imports
strengthened
Canadian

reads
vel
Forum
preservation
Vehicles
failing
containment
cure
invitation
65@@
assumptions
preview
ham
mp
receivable
DN
play@@
knowing
的@@
CNY
injured
ration
Northern
Combined
tiv@@
comm@@
releases
Simul@@
TL@@
Ocean
draw@@
democracy
tiles
viewport
hr
inal
extracted
considerations
tan
Six
eff@@
begun
pm
Nature
victims
LU@@
Way
LL@@
historic
wiper
compaction
enhancing
preference
proud
Southern
Diagnosis
thro@@
universe
AIDS
quad@@
extending
performances
fallen
starter
sen
distortion
licensing
permissible
headquarters
ASE
subsequently
cin@@
James
nickel
scar@@
Plus
independence
artist
Medicine
reward
Economy
aster
eve
mapped
destructive
Cam@@
HK
Huang@@
honest
pel@@
Dual
algorithms
gn@@
groundwater
blin@@
Greek
ain
hardly
250@@
Browser
Kar@@
cat@@
lady
servo
stationary
Simple
ze@@
black@@
1,000
governor
FM
ards
consequence
hes
grip
generic
nutrition
py
Wal@@
replica
fts
Lighting
projection
Customers
Soviet
assi@@
ultimately
beneath
folk
movies
executing
iv
remarkable
Certification
em
fellow
prejudice
Analy@@
swimming
Values
struck
Restore
Documentum
Lin
appropriately
FR@@
Sam@@
prevented
tongue
earned
Fiber
guided
tle
angry
Prime
wake
Approved
AA
Nothing
validate
13.@@
weapon
Forms
Dry
friendship
Principle
lubricant
2.6
Principles
pouring
precious
Confirm
prints
gateway
everybody
Fujian
Wh@@
Reservoir
void
fruits
shore
chose
durability
ICS
5.6
bel@@
Run@@
add@@
Stu@@
corners
rs
ole@@
tropical
foot@@
Bor@@
Criteria
ith
Domestic
350
Zealand
vari@@
abundant
dialogue
excitation
proportional
quota
folding
75@@
Hand
exercises
vegetation
CAR@@
neural
RES
Devices
TIONS
bonus
Hu
hat
wishes
Conduct
earn
exp@@
expired
Actual
Thailand
mur@@
ace@@
Programs
consultant
developer
mistakes
Dialog
oul@@
encouraged
grand@@
ax
clone
ey@@
coastal
ions
likes
minerals
elderly
apartment
Download
Curve
conductors
Federation
ft@@
Documentation
linking
sad
Sports
Meth@@
Gener@@
Land@@
140
latch
plas@@
yan
Data@@
borrowing
subsystem
worthy
dre@@
Cri@@
breathing
Script
bind
annually
Logistics
lers
Experiment
slurry
ome@@
eller
sely
Activities
Settlement
vulnerable
mould
contracting
imprisonment
substrate
SUB@@
Areas
qualities
contributed
cas@@
marker
ire
planted
ust
remedy
Patients
RD
clamps
Basin
Dem@@
Developing
malfunction
lip
sty@@
acids
Tro@@
€
tractor
ACE
SHO@@
compensate
autumn
4.0
executives
utter
breeding
len@@
Police
110@@
incomplete
blend
pursue
ide@@
namespace
scheduling
corresponds
Ham@@
stor@@
resolutions
develops
Tenderer
younger
readily
rises
strings
households
backs
1A
conduit
Closing
dissolution
web@@
maintains
coordinated
wholly
dence
Vo@@
alls
possess
suspected
tourists
HS@@
Shi
prospects
Shu@@
relate
mild
shed
merger
idi@@
stomach
insulating
towns
harder
buyers
deputy
inclusive
cumulative
sustained
cutter
dirty
author@@
DW@@
sum@@
diamond
VE@@
cancellation
competitors
networking
Technologies
Drilling
afford
renewal
atten@@
zation
arian
Hunan
RH
producer
sign@@
reactions
PowerPath
TM
socialist
span@@
advances
shortage
Sign
denied
attachments
quantum
Consultant
beside
coarse
juice
Aluminum
Cra@@
tum@@
sufficiently
factories
gy@@
top@@
cry
everyday
wage
proc@@
Treasury
wings
magnitude
trunk
transparency
unlikely
visiting
amed
bleeding
Val@@
Regulatory
outlined
1991
Solenoid
downward
Hi
pads
enzyme
Hebei
blower
ordering
Hangzhou
volunteers
CX@@
Hon@@
commit
wards
merge
FR
Pass@@
psychology
shortcut
infected
substitute
Mary
——
lowering
FIN@@
ITS
birthday
Ga@@
Batch
diaphragm
transferring
oming
villages
guiding
itor
Sound
Min
Align
RS@@
organisation
LA@@
crown
tened
supplementary
Lee
Wen@@
missile
DU@@
pa
Applicable
foundations
Fastening
stu@@
rectangular
situ
intense
ratings
App@@
Width
pharmaceutical
sul@@
Wireless
watched
brackets
Ger@@
Laser
coun@@
appreciate
tobacco
liquidation
EMENT
counting
STR@@
advise
Luc@@
intent
derivatives
incidents
spiritual
WTO
disorder
Portal
Ty@@
ban
asks
writes
attempted
excited
vapor
Instruction
diverse
backing
rou@@
melting
8.3
peripheral
Accounts
packet
importing
mutually
configuring
gging
designation
Expression
exam
Functions
Consider
Ha@@
overload
collector
heaven
after@@
tends
Henan
Mus@@
digit
bonded
thetware
gaps
supervise
Geo@@
CF
hereto
Bas@@
Cycle
Tokyo
motor@@
reactive
Declaration
diabetes
mortality
220
customized
tioning
organizing
SION
conten@@
vic@@
tam@@
lan@@
adopting
guilty
withdrawal
determin@@
IDE
TEST
KS
Markets
Down@@
edited
BU@@
accessing
bi
cake
quar@@
Feature
assure
rap@@
hospitals
tification
Ask
Bir@@
Email
wastes
ects
essentially
bled
peer
PID
Serial
Route
talked
ant@@
missions
projected
disposed
epi@@
valley
discs
Independent
fixture
4.6
THIS
LNG
somewhat
china
mechanics
periodically
caps
defence
Warranty
appreciation
freeze
seating
Universal
navigate
bowl
benchmark
pointing
FCS
dump
Role
Info
46@@
legally
pregnancy
Brand
A1
concentrate
topology
alloys
currencies
sn@@
y.@@
IX
16.@@
knee
remuneration
lifted
fits
toilet
IV@@
Tong@@
spoken
wherein
Exhaust
itting
SR
yu
Present
epoxy
supplement
Safe
spark
locating
complaints
Lines
fuels
recycling
DD
XP
AI
proprietary
Huang
Brown
Vari@@
info
Approach
aci@@
workplace
aviation
ram
altered
simplified
Siemens
preserve
eliminated
pier
Signature
calm
nu@@
Others
regards
Phone
aesthetic
Shaanxi
joining
rollout
tun@@
ought
analysts
OD
①
modifying
pig@@
commitments
gated
volatile
colleges
rectification
102
employ
Carry
Miss
vertically
precipitation
spreading
instrumentation
fifty
Easy
mobility
swe@@
galvanized
ini
extends
Define
Laws
illustration
ested
ratios
rid
comparable
Matrix
Develop
ater
unnecessary
repeatedly
rob@@
vocational
alter
berry
Gate
ECT
bat@@
compliant
operative
IO
Rural
time@@
accessory
88@@
TEN@@
9.1
microwave
lips
Critical
deferred
vegetable
Ir@@
fro@@
proteins
League
Lim@@
psycho@@
LD@@
sink
combinations
headlamp
websites
Stainless
shu@@
strips
Recommended
declare
habit
lat@@
stiffness
mention
tonight
hinge
reject
shifting
videos
weighted
combines
bands
qi
bus@@
copying
Injection
artery
verse
TYPE
leg@@
Functional
Include
missed
tolerances
genic
preset
smoothly
earthing
Ratio
Akamai
amino
Eth@@
trials
beer
Provisions
Managing
priorities
rarely
MD
standardized
Later
riding
UD@@
admitted
computed
¨
Play
Button
actors
ician
ribbon
magnet
ples
sleeves
Alloy
Young
van
belonging
ied
conductivity
pig
refrigerant
Decision
collateral
harmonious
integrating
Resi@@
fications
initiate
sheep
geometric
religion
surprised
Discovery
LP
creditors
lean
stairs
Lan@@
incorporate
Mas@@
deficiency
HK@@
Sul@@
Garden
visits
Secondly
ANT
Boiler
deeper
deleting
heritage
utilize
headed
Inf@@
potassium
Strategic
governed
deflection
rers
FA
Smith
impose
SF@@
desert
dividend
Bluetooth
VII
arm@@
doc@@
necessity
tightly
unemployment
resist
chips
sters
Linear
apple
inate
Lender
killing
san@@
49@@
elegant
AIR
ken
Hey
ashed
vascular
screwdriver
xin
Visa
varieties
Termination
courts
Malaysia
check@@
sequences
CS@@
ashes
sted
curriculum
cabin
incentive
tual
Vietnam
slots
rainfall
HD@@
Static
protocols
19.@@
modulation
gan@@
conclusions
ures
debugging
spin
tang@@
scales
hence
nervous
Examination
Assurance
Jin
Syn@@
Loading
VDC
luck
IES
graduates
seated
courage
foo@@
turnover
Bidding
rup@@
inger
stre@@
persists
sophisticated
insertion
minority
Differential
ATIONS
Initi@@
Render
purification
App
GIS
nec@@
lit
ford
designers
derivative
Including
computation
custody
Gro@@
regeneration
zes
baggage
deficit
Thickness
purchaser
240
prominent
grand
trench
inten@@
Beam
ring@@
illa
particulars
regression
Budget
Establish
issuer
washed
es.@@
metry
artists
dB
dant
expiry
prize
tian
vation
flap
Exploration
intangible
ounding
0m
P1
wool
magic
spacer
Tab@@
Christ
forests
EA
opposition
varied
respects
Transformer
audited
upload
fun@@
utilities
VAT
melt
illing
pine
ruling
FIM
Cache
impression
Exit
freezing
childhood
happening
Indicator
shafts
timer
deadline
consensus
cruise
mm2
alteration
ki
sizing
wer
RP
hen@@
tar
downloaded
singing
illustrated
dip
exceptions
Robert
alisation
facial
sta
numeric
preferably
allocate
labeled
Communist
Shanxi
illumination
Yan
radioactive
Corp
durable
inspired
worm
stayed
3000
lucky
recession
spi@@
0.00@@
investigations
Insulation
mph
DCS
Lam@@
optic
atively
generators
SET
08@@
tial
acu@@
residue
68@@
nIf
divide
relays
propagation
surveys
Greece
producers
writers
moments
intra@@
molecules
damper
Jiang@@
confident
transducer
promised
mel@@
pp@@
Bit@@
Mul@@
purchases
Especially
0.4
Gateway
impedance
asses
DV@@
tability
owed
tionary
astic
improper
institute
peoples
adequately
damping
@@
existed
treatments
clamping
regulate
garbage
exclusively
scroll
si
foil
Compensation
perpendicular
renewable
macro@@
Jaguar
ank
polyester
amazing
Tar@@
Trac@@
LDAP
VC
Mid@@
Provincial
ICE
bankruptcy
PL
researches
cope
engaging
nucle@@
Vs
peaceful
1.8
OC
Offset
rehabilitation
sively
TB@@
mia
enjoyed
phosphate
validated
anch@@
recall
enhancement
disposition
rig
03@@
additives
timber
token
jumper
annex
Background
geographical
Fra@@
TD
fleet
criticism
consumed
retirement
Royal
Diameter
Until
byte
128
complying
guards
ProdName
exploitation
whichever
ishes
Face
gifts
gli@@
ptions
Wat@@
KE
gon@@
2.7
Arab
Notification
mers
discrete
literary
mal
ellip@@
bacterial
Modeling
nan@@
observations
gasoline
44@@
Off@@
wei
Indeed
bis@@
roughly
spraying
wrap
lawyer
personally
economical
les@@
grams
relieve
formulation
rel
extraordinary
slave
ula
Fine
capacitor
influencing
VER
fluor@@
Pop@@
stop@@
MR
kings
renal
Jiang
investing
invite
Islands
accomplish
dressing
Sciences
Hubei
flow@@
nano@@
2m
repe@@
tant
offerings
wired
RT@@
cultures
Gri@@
habits
maxim@@
streams
SY@@
tuning
Agriculture
Official
breakfast
mines
son@@
wherever
vitro
orbit
axes
automotive
charts
competence
Spec@@
molding
Grand
SO
Establishment
tness
adapted
Kit
tide
disturbance
tized
1.7
tus
lifecycle
passion
Complex
Cause
disciplinary
museum
©
9.2
respiratory
stake
legitimate
delays
describing
Consumer
incremental
variance
cylindrical
entrusted
Aircraft
HV
ashing
counts
gland
threats
dividends
58@@
forbidden
hui
victim
Wait
gam@@
modem
use@@
Xu@@
contracted
introducing
Rotate
Stri@@
jing
simulate
translated
deser@@
ANG
pore
Drug
persistent
sir
buses
ety
addressing
explicitly
Discharge
OUT
Making
counted
Rom@@
oxy@@
viewer
mo
aves
inclusion
ranking
analyzer
Situation
lengths
od
Damage
MI@@
preferences
compete
Es@@
．
Adapter
envelope
tine
5,@@
profound
Xiao@@
cyto@@
gal@@
ght
je@@
ko
theft
comprise
Shared
anyway
precisely
Tran@@
0000@@
mus@@
Connections
tero@@
expects
ML@@
P.@@
Unlike
assessments
broad@@
bare
Up@@
umin@@
attributable
angular
restoration
Vessel
constructing
VALVE
owing
outlets
By@@
Cen@@
Directive
enormous
Valves
burned
correspond
Heating
twelve
Shaft
XX@@
biology
Boo@@
Avoid
harmony
VIII
decreasing
Corrosion
subgrade
Along
Micro
tery
dit@@
restaurants
equities
surrounded
Bul@@
Improve
ano
Stre@@
TIES
dering
OM@@
condensate
shifts
implications
Cli@@
rush
specialist
ager
CL
transformed
Post@@
masses
silent
HU@@
rant
diver@@
compiled
fate
worried
QA
AST@@
Firstly
receivables
Analyzer
Kin@@
Temple
oph@@
elec@@
unity
distances
occupation
Lab
ethics
idal
tel
ICATION
constitution
pleased
sunlight
tear
arly
leisure
repayment
HVAC
human@@
referring
Previous
stock@@
800@@
Connecting
blowing
legacy
asser@@
Dec
Bon@@
hung
Inside
diffusion
balances
corridor
minim@@
toxicity
4th
Thermo@@
Yangtze
EG@@
S.@@
Above
browse
hs@@
infants
fol@@
Motion
EB@@
democratic
Tre@@
Various
therapeutic
Hun@@
SAE
voluntary
lig@@
cam
firstly
reservation
restrict
Pin
Roof
Deep
ous@@
soils
backward
Dong
kPa
utilizing
ab
basket
competitiveness
grading
supplying
workspace
Age
cognitive
wal@@
cus
scenic
Mongolia
readings
adhesion
Efficiency
carriers
fever
67@@
muscles
05@@
RT
generations
Fu
dressed
Guizhou
grows
involvement
②
nat@@
pink
VI@@
Open@@
atch
Cou@@
yn@@
SL
contaminated
ette
Revenue
upgraded
Bottom
Pilot
kou
momentum
Player
ensured
additive
spokesman
ROM
corrupt
Particle
poetry
drinks
kernel
LH
Super
harmonic
Texas
pas@@
Wiring
pays
gence
parti@@
za
saturated
auditing
admission
expressly
pond
quarterly
actu@@
ramp
attorney
cured
disasters
extensions
overhaul
thereafter
mainland
digits
shade
archiving
safeguard
Acquisition
CPC
bet@@
researched
Liability
compacted
phenomena
rage
fabricated
turn@@
Sand@@
besides
meanwhile
pil@@
Premier
circles
Tree
atri@@
oli@@
initialize
1988
pled
supervisory
fitness
Ctrl
OL
Everyone
booster
ignore
inverter
movable
thefice
accelerated
elevated
Employees
SH
attracted
scholars
ush
asi@@
taxation
Yong@@
clauses
beings
eves
Jan
notices
severity
circumstance
cere@@
Thread
lime
tible
Exp@@
carbonate
dol@@
votes
frequencies
preserved
shi
deduction
borrow
dashboard
rounded
shar@@
EP
cation
wan
LOW
equality
inst@@
Avenue
Coating
god
Lar@@
sender
toe
administrators
Codes
Sem@@
xia
Zero
Character
publicly
ATING
sleeping
Hard
1989
ck
fertilizer
firing
Guidance
infant
Mol@@
wit@@
reinforcing
Fair
nail
Feed
True
observ@@
PU
Political
slopes
Density
approximate
Below
eled
Extraction
DIN
DRA@@
Reduce
minus
multimedia
Sampling
Potential
SSL
Conversion
kno@@
Commissioning
Shipping
Reg@@
grounded
tec@@
Che@@
lowered
shake
plac@@
hot@@
usable
IST@@
Bond
；
refresh
matics
pursuit
scenes
Mad@@
yers
Circular
diversion
enforce
POWER
customize
prosperity
publisher
situated
formulas
Partners
bears
O2
15.@@
manuals
cerebral
phrase
alkali
Sino
Rice
attaching
dummy
Similarly
oured
DATA
Pattern
corrosive
eness
nic@@
Reading
centres
whis@@
leveling
Spare
Ven@@
asis
neutr@@
WATER
indications
Reverse
cellular
tail@@
weighing
Student
acknowledge
furnish
MAX
Num@@
Wear
Cat@@
Possible
SK@@
pollutants
HC
Must
hab@@
menting
prototype
voucher
Inlet
Purpose
Dar@@
encoding
globe
lob@@
hear@@
WHO
Important
fra@@
REN@@
fal@@
hedge
ural
hearts
Issues
forty
inspector
Camera
overlap
drew
mation
warming
Extended
Facebook
Patent
acks
suits
exceptional
shots
trustee
Future
fires
NA
Printing
glucose
Reduction
absorb
interactions
Blood
SMTP
cell@@
diligence
***
aggressive
DING
deposition
ura
ele@@
GM@@
physically
Standing
intact
ani@@
dealt
polar
imk
wel@@
comb@@
Ag@@
gentle
seri@@
Ka@@
Elements
cit@@
nominated
Alternatively
Less
JV
rsquo
SOL@@
med@@
Exhibition
auction
portions
rics
spor@@
Whenever
Cont@@
Expansion
fri@@
1000@@
dil@@
95@@
whatsoever
lap
pting
Stone
Tibetan
Defense
vitamin
Structures
ammonia
Los
releasing
distant
denti@@
warned
asted
ella
emia
reviewing
succeed
Disable
cubic
interact
ession
representations
tiveness
vit@@
http://@@
prin@@
Band
definite
polymers
wrapped
dings
Cheng
450
regulators
ATI@@
Authentication
Xu
beds
bla@@
internally
Christian
Interior
exten@@
synchron@@
ala
glad
exemption
Claim
Recent
alist
pivot
filtered
Flo@@
reflecting
fence
runtime
GL
agu@@
ri
EMS
servicing
delegate
ites
Scal@@
sym@@
gor@@
Provision
Probe
avoiding
curved
volts
widespread
suite
ylene
Cases
eye@@
repairing
resort
organ@@
De
fers
purity
Tunnel
ski
SHALL
carcinoma
outgoing
sorting
3.7
clusters
explicit
instructed
Tool@@
reforms
travelling
zoom
ERROR
suc@@
flavor
kick
overflow
scaling
constitutes
crankcase
rejection
manages
touched
Schematic
nan
COMP@@
ae@@
sword
inherent
terrorism
accused
formulate
8.5
fasteners
Ang@@
Certified
unlock
NG
Speci@@
mini
bac@@
creativity
Outer
ament
countermeasures
favour
Shape
silence
Appro@@
occasion
Bao@@
prob@@
purple
0.01
alled
comparative
memories
radio@@
dom
gloves
consuming
confidentiality
soup
fulfilled
fulness
Green@@
Too
Contents
Funds
Population
bushing
eck
Don@@
OP
quit
50mm
gh
plic@@
approvals
somebody
Picture
chop@@
dissolved
illustrates
founder
phen@@
festival
sors
CRE@@
Designer
forum
igh@@
sync
Piping
Sections
6,@@
rolls
selective
TT
apron
prec@@
thet
Notwithstanding
tism
hydrocarbon
zh@@
knob
hoisting
Unfortunately
bles
consistently
earliest
somewhere
demonstrates
89@@
Applied
purge
xed
Dri@@
dishes
Eng@@
balls
rim
Made
road@@
corporations
Enables
basketball
care@@
initialization
stand@@
4.7
drift
104
PF
DME
ance@@
xian
sla@@
impulse
shower
raft
tune
Carefully
JB
Wil@@
tra
Countermeasures
popul@@
engages
lover
milling
Constitution
Jia
KING
Observation
nobody
conductive
dam@@
KE@@
expe@@
pit@@
switch@@
gearbox
hasn
Jian@@
Maintain
mu
Sport
ills
sou@@
CLI
liber@@
Direction
wr@@
Closed
inclined
emulsion
firewall
opposed
Improving
dot
Ara@@
nish
bec@@
retrieval
5th
1500
acet@@
challenging
Caterpillar
Switzerland
Currency
advertisement
bean
Sec@@
contour
Tom@@
cited
maximize
islands
anxiety
BI@@
URE
distinguish
gue
centered
refined
Creates
autom@@
yo@@
SV@@
Organ@@
bic@@
yields
interpreted
FAC@@
fabrics
Characteristic
IE@@
formally
warnings
Viewer
wind@@
Count
pregnant
AV
horn
confined
featured
ANSI
Browse
Turbo
debtor
ecosystem
decom@@
Macao
20th
Xiao
encounter
struc@@
mathematics
accepting
Dynamics
Mother
Mounting
deli@@
Forward
Undo
removable
aria
chocolate
AX@@
Feng
buff@@
rename
cabinets
Arts
spectro@@
ements
responding
attendance
Chamber
gent
porous
Zhu
Ken@@
Ker@@
terrible
Protective
absorbed
Lab@@
Wave
delegation
Views
ication
Tell
Vault
bike
twin
SW
VSS
Vacuum
quanti@@
anno@@
grasp
prof@@
FIL@@
spinning
Wen
participant
reliably
divisions
vi
Permanent
ective
mediation
outlook
sam@@
Parent
appearing
highlights
alerts
brilliant
liquor
PWM
thir@@
Shan@@
icons
main@@
brothers
part@@
,000@@
DTCs
Packaging
participated
butt
hell
Mel@@
ew
Governments
couples
math
Bolt
Ireland
titles
Root
assisted
mixer
Confidential
Per
ops
vul@@
bility
inven@@
stag@@
tum
Autonomous
Money
ld
Assist
insurer
bed@@
variant
WIN@@
chro@@
menus
numbered
resp@@
Cer@@
nationality
suggestion
5000
Golden
tis@@
Raw
anniversary
JO@@
citizen
ASSEMBLY
ORS
assumption
domains
mile
Consulting
LA
Models
illary
Brief
tracing
racks
modulus
tires
breakers
reuse
custom@@
bias
ducts
resonance
sanitary
Exception
awards
HT
SAS
recoverable
servant
mating
thef@@
emerged
inging
M8
odd
Little
Solar
String
loader
removes
escal@@
fang
doub@@
primer
magne@@
Bus@@
USD@@
builds
converting
officially
02@@
Contracting
parks
demo@@
distinguished
hat@@
Chicago
induc@@
pools
internationally
flue
Fol@@
PIN
http://www.@@
thorough
ICAL
aker
keeper
publications
Flexible
logists
C1
EX
Okay
alli@@
alists
coefficients
Upgrade
broker
aforesaid
elbow
fresh@@
0.8
inconsistent
xml
Equ@@
Holding
Mapping
cont@@
litigation
Bol@@
Pur@@
Torx
deaths
semiconductor
1986
conformance
emotions
coded
mere
throat
bet
ATA
establishes
io@@
wan@@
Allows
taining
tz
graphs
solids
dispatch
dominated
tho@@
Cayenne
dispose
fortune
currents
Chang
Logic
earing
healthcare
bottles
Lamp
Think
bundle
compl@@
Zoom
FMI
Costs
launching
orderly
picking
twist
Improved
loosen
pulmonary
invoices
tless
ea
kid
trademarks
Ori@@
Radi@@
centrifugal
56@@
Organic
Requests
inning
plo@@
－
Shan
aire
Modified
Military
boring
Get@@
abandoned
tissues
3m
switchgear
ousness
hosted
Direc@@
Jordan
Watch
submitting
technicians
Strong
fur
microscope
Chin@@
badly
foregoing
taxi
broader
oneself
asp@@
differentiation
Ex
mol@@
DF
SRDF
DHCP
restructuring
Transactions
Si
Suzhou
sweat
++
sums
Atten@@
remo@@
globally
eliminating
nings
ply
responsive
PLN
apparently
FE
explo@@
conditioner
messaging
dramatic
chat
ity@@
Ds
bra
ful@@
materi@@
GT@@
Pass
lit@@
maritime
Suite
analyst
cattle
TI
INGS
glue
withdrawn
Turkey
ences
Mirror
Olympics
scopic
Weld
dictionary
modernization
DB2
reveals
Contractors
Mao
Angeles
loud
summar@@
ION
decimal
sandstone
sorts
Dr@@
Lis@@
gang@@
lightly
burner
shoulders
side@@
dumping
strut
DL
Cab@@
flushing
recommends
tious
typing
Shoe
CAS
RA
exporting
RE
sman
Recently
XX
dynamically
uniformly
p.@@
Lifting
desirable
excavated
sake
Fed
emotion
instruc@@
Draw
cease
liked
ric
Advance
________@@
dying
gauges
legend
questionnaire
hip
retrieved
rum@@
INTER@@
assessing
cents
Regul@@
vaccine
stating
suspend
clin@@
spar@@
Harvard
fting
Saudi
construed
lum@@
masonry
Hom@@
deducted
ase@@
zhong
Red@@
aving
fiers
holidays
margins
mitigation
dancing
Tai
cooked
SELLER
lip@@
ditch
Netherlands
til@@
scre@@
103
evacuation
BAS@@
La
con
Us
tell@@
adhere
sar@@
vertices
ank@@
retry
aks
ited
spoiler
workstation
poles
4.8
thrown
interrupt
ART
OF@@
prevail
Log@@
Tier
asynchronous
initi@@
sectional
assignments
enter@@
vine
appendix
bun@@
complies
injected
horizontally
William
diplomatic
TABLE
striking
tter
Cutting
posing
GMO
motivation
depos@@
flammable
Compound
coll@@
alternatives
atoms
insight
vacation
eries
reck@@
CRM
stiff@@
Financing
fastest
dispersion
Compressor
II@@
electrically
handler
Precision
ent@@
sanctions
canc@@
gger
fluctuation
walks
1984
cel@@
Amendment
deviations
rub
scattered
Labour
Py@@
ands
visa
CEN@@
chances
committees
rollers
spherical
Deployment
Seismic
Registry
commits
power@@
expenditures
woven
Counter
essions
specialty
Wood
weakness
1987
Zi@@
teenth
Xiang@@
argue
pinion
Climate
Sequence
elect
106
canal
promising
colours
UNIX
abrasion
directories
grains
virtually
Guangxi
receptor
yours
Justice
districts
farming
harmon@@
meaningful
Delta
Gal@@
__
excuse
negotiate
ti
rest@@
turing
romantic
ANY
DER
defl@@
dental
swap
GL@@
rocket
Negative
climb
boats
consultants
capacities
differently
scanner
Gulf
interfere
Array
Queen
Dy@@
encrypted
liquids
Ping
intends
Assignment
los@@
Med@@
distinctive
ison
scenery
F1
HA
Sar@@
Drain
duplication
unstable
condensation
winds
OEM
Provided
immun@@
ster@@
modifier
modular
21st
dropping
tage
Conclusions
ONLY
beans
quarters
17.@@
Ship
dum@@
sided
implements
Reason
Revit
lighter
strengths
responded
ulated
adap@@
arrest
closes
winner
ethanol
rin@@
Ly@@
bathroom
EP@@
gan
ues
slides
Promotion
decomposition
stom@@
dining
photographs
Alert
bomb
ghua
anced
blame
ected
kle
lev@@
drilled
subsidies
Tal@@
hun@@
ogenic
preparations
secrets
fined
Cheng@@
Harry
accelerator
Printer
dealers
deletion
Sorry
ethical
Pan
crazy
Ele@@
pride
6.0
Behavior
Feng@@
Roc@@
quartz
2.8
interim
kidney
ranks
reagent
conservative
Transformation
Sand
1m
eline
elimination
extrusion
Again
exhibit
fixtures
AX
Lessee
MHz
disciplines
TT@@
fam@@
modern@@
sixth
Lev@@
steep
uicontrol
9.5
Hydropower
populations
""""
communicated
obstacles
Movement
publicity
Powerlink
iti@@
priced
NEW
boots
hing
minds
proliferation
hex@@
musical
Actions
Parking
nia
Reliability
complied
flesh
Ze@@
hero
Ball
clinic
ink@@
cover@@
recruitment
traded
NIC
unchanged
stoc@@
9.3
Poor
ethylene
newspapers
cali@@
passwords
surely
Degree
Me
sten@@
stric@@
Class@@
exi@@
Bat@@
NAME
Xia@@
dilution
CHECK
Flat
Sco@@
magnesium
synchronized
interrup@@
pass@@
cab@@
urine
Neither
Assign
Rol@@
fic
interrupted
relatives
Anhui
Tru@@
servants
abol@@
requesting
simplify
3.8
conscious
DWG
Wel@@
patents
fatty
vable
ough
0.6
Suspension
assemble
evident
letting
pts
Availability
Democratic
RPM
acking
locomotive
dig@@
108
Bac@@
demanding
crimes
flooding
Shareholder
pick@@
adsorption
notifications
discloses
okay
praise
wedge
dear
vinyl
extra@@
ho
short@@
OLE
loo@@
realizing
100,000
Ki@@
technician
Quick@@
lowing
radical
Policies
pet@@
201
possesses
IIS
LINE
coronary
crushed
immuno@@
promises
withdraw
tely
vis
Pay@@
graded
HBA
palace
endpoint
Sup@@
trillion
counters
home@@
remotely
Formula
acti@@
nm
GN
EQUIPMENT
HOL@@
flights
Ancient
scri@@
defend
ishan
Zhao
bronze
LC
Shen@@
flashing
xy@@
basement
exclude
enthusiasm
ML
grave
KV
Vis@@
forging
Cast
Includes
PU@@
atin
mist
merged
Sir
69@@
Buildings
impe@@
treaty
Dam
Rapid
43@@
failover
keyword
loves
77@@
OM
EUR
antly
electrodes
izable
mic@@
Sustainable
extre@@
ventures
Banks
Richard
ion@@
penalties
Henry
brightness
toll
stepped
dan
inevitable
Hill
privilege
suppression
63@@
Flight
Attributes
Fo@@
ans@@
logically
ories
Draft
assumes
compressive
Shor@@
arrows
Tables
house@@
Bab@@
mercury
Selecting
metrics
dim@@
jec@@
115
acknowledged
titanium
pledge
threatened
Saving
tain
intermittent
SB
wers
communicating
sustainability
42@@
Depth
Launch
Outside
convention
Spe@@
packaged
synthe@@
cardiac
creditor
Johnson
Fore@@
amping
girder
Unique
impeller
adaptation
flywheel
RPC
Sti@@
TIVE
burg
seamless
perception
boiling
DT
accumulator
Registered
punch
tensioning
centerline
planetary
Quantities
Understanding
8.4
accepts
AB
knock
yarn
Ni
draws
sor
Observe
Separate
irregular
analyse
compulsory
rhe@@
throughput
hunting
limestone
ECU
Leading
Ref
simultaneous
Silver
hills
touching
MEN@@
MY
Answer
discharging
Black@@
continually
refund
conclude
hoping
Years
rations
upwards
ppm
sav@@
Clip
IDs
○
unauthorized
Wide
extrac@@
illuminated
scratch
XXX
Bil@@
pockets
Builder
Distributed
OT
standardization
Zhu@@
arch@@
dents
Cop@@
workload
AW@@
selects
5.7
Venture
sentenced
Managers
cabling
saturation
severely
J2
but@@
GUI
conviction
distr@@
equi@@
cep@@
underwater
bian
requisition
hoped
night@@
formatting
gun@@
incentives
laugh
ORY
sq@@
Sim@@
credits
ishment
Consumption
Far@@
coats
collectively
Myanmar
Nar@@
countryside
darkness
vered
Plans
lessly
ram@@
Correct
WA@@
hetero@@
timeout
gee
Criminal
tric@@
Deposit
damaging
heel
pharmac@@
Focus
ino@@
lawful
prospective
spon@@
Mesh
skid
P0@@
attending
decides
wa
Considering
Drainage
Scan
horizon
plated
bush
climbing
hin@@
featuring
markings
essed
meals
Ten
associations
BB@@
schematic
affiliated
trapped
detention
playback
violent
Profit
bedroom
discrimination
cyclic
decorative
seasons
whi@@
constrained
jin
Wol@@
abide
quarantine
towers
Countries
modul@@
pixels
Rolling
-2
230
BIOS
cores
1.5@@
sement
Da
WEL@@
fatal
RI@@
genuine
rous
turbocharger
Shows
Sale
,000,000
Requirement
Cl
initialized
Florida
sulfate
compromise
deterioration
stratum
wo@@
D.@@
disorders
Hua
deno@@
su
steadily
Hence
secre@@
tablet
uity
750
captain
colorful
exercised
spectral
iser
ms@@
paintings
tennis
Execution
defendant
delicate
borders
cence
intend
A2
steels
IK
LY
Plane
drama
correspondence
tax@@
Peri@@
¥
dramatically
Spectro@@
111
geographic
carpet
invo@@
pling
suited
Century
grace
NASA
workshops
warrant
fe
Archive
Sc@@
sells
strains
dragon
lic@@
lumin@@
employers
voltages
Telephone
posting
Metro
asts
ratic
50,000
block@@
dozen
mad
waist
dependence
mac@@
staying
Drop
Hum@@
Monthly
chromatography
flies
saves
PCI
dad
002
ket
greenhouse
whilst
commence
inserting
sional
Aviation
Techniques
Relative
uicontrol@@
FY@@
Looking
harvest
Pool
proves
config
inverse
skip
Validation
wipe
Fourth
airline
Built
Cla@@
cube
athletes
Abstract
85@@
Father
focal
ranked
ORE
ona
Respon@@
pleasant
thor@@
Modification
defaults
inadequate
progressive
Att@@
FT@@
OIL
Sync
qiao
wavelength
northeast
convergence
Clo@@
ko@@
Identity
Leader
poem
poured
Child
CX
bids
funny
sim@@
LV
C2
Rail@@
equals
spline
proximity
FTP
rever@@
escence
kN
tapping
Persons
metro@@
qualitative
hormone
CAL@@
Tun@@
reservoirs
slower
uncertain
2A
Bin@@
electro
fare
wore
Ability
poll
orifice
Chassis
Motors
coils
recorder
Utilization
ailing
profitability
Issuer
Loop
Technological
recycled
4000
Oxygen
unused
stud
Moving
assay
sticks
ake
profession
was@@
complications
Licensee
Relations
Responsibility
raises
Advisor
Half
strive
LOC@@
elt
pulp
eping
shuttle
Pollution
Fuzzy
threw
fron@@
shouldn
embankment
renew
PCR
PW@@
centuries
Main@@
Publisher
shells
trips
DMX
fills
palm
1985
renewed
markers
Arbitration
Container
cycl@@
Ecological
Jerusalem
Servers
Axis
Round
che
ENG@@
Gets
Rome
ago@@
7,@@
Employment
gin@@
mirrors
NFS
wax
Applying
Dig@@
iner
vin@@
oxides
Driving
beta
Swiss
skeleton
appl@@
seams
135
6.6
ITB
revolutionary
see@@
Packing
correlated
starch
ells
RO
Skin
PART
replied
CMC
summarize
Bai@@
Jun
medicines
Acceler@@
dating
humanity
jumped
optim@@
bureau
hygiene
0.0
Refl@@
1980
Avamar
tel@@
ious
crossed
annotation
compres@@
Basis
ator@@
bom@@
Alignment
MET@@
Messages
flags
PN
enemies
acker
smallest
Prof
Confirmation
nets
Ali@@
Revision
Emperor
carbon@@
energized
ility
encouraging
southwest
CN
Shop
icing
likelihood
phosp@@
sp
Play@@
Outlet
Ple@@
compiler
merchandise
far@@
postal
Reactor
qualify
GW
SITE
PH
Trend
receipts
silica
disassembly
eco
Qi
sioned
Pin@@
OH
lifestyle
pot@@
Conduc@@
reboot
Fee
bud@@
tops
achi@@
sixty
colli@@
Spl@@
Coolant
drove
ether
sauce
drought
histo@@
Aff@@
ven
IDS
expectation
infectious
PV@@
administered
1990s
vertex
completes
Mike
probes
acked
camp@@
protects
Rus@@
Enhanced
Atlantic
conception
searches
Bec@@
babies
gallery
vert
SnapView
cf@@
culvert
soap
valu@@
quan
xx
anth@@
react
tain@@
Suitable
redundancy
Steps
defeat
boarding
hed
trades
iller
ellular
optimizing
Guang@@
cook
Israeli
Combination
ensis
iPhone
gie
225
CABLE
Jones
stays
cave
law@@
sealant
lithium
sni@@
spe@@
Partial
granite
seized
Invoice
Satellite
lovely
manifest
vy
Dou@@
ESS
unlike
Provisional
fixation
You@@
marry
holy
Configuring
impressive
Investor
ACT
mom
pixel
HF
inters
pound
Automation
eg
Person@@
clarify
rewards
EU@@
eous
tripping
call@@
enjoys
bia
changer
Arial
Snap
screw@@
Unified
ix
nails
Cu
empirical
Jiangxi
incorporation
sharply
transmitting
coupler
molecule
Mur@@
absorbing
centr@@
escent
CY@@
closest
del
porosity
Supporting
Charles
dynasty
guns
itary
Cabinet
toy
Martin
Getting
Ci@@
slo@@
beneficiary
massage
studs
Bold
Chro@@
Hop@@
tightened
shadows
snow@@
Sin@@
GENERAL
encourages
ghtly
scrap
weigh
CFR
Shang@@
RF@@
chrome
diagnostics
suppose
Geological
farmer
TR
Economics
lec@@
avoidance
leasing
tenant
Historical
alia
objection
MAT@@
cultivated
irs
milli@@
Electricity
DLL
mat
tyres
Expo
Mes@@
comprised
dation
popularity
Bran@@
Contracts
SER@@
pyro@@
Migration
album
arises
cheese
separating
Positive
distributing
hired
sweep
arrested
shrink
username
Variation
corrupted
devoted
Ignition
Rating
Pick
cy
fted
Was
Clutch
aiming
Tit@@
delegates
randomly
instability
venue
tale
cigarette
piano
INT
datum
provisional
255
CK@@
healing
Nevertheless
Spot
xiang
remind
silicone
Concept
fs
Tracking
descen@@
inactive
politicians
Instruments
Thin
Yun@@
adi@@
modal
shielding
fears
loops
amend
doc
horses
refining
tariff
subcontractors
Converter
glow
initiator
terial
underneath
86@@
Chu@@
filament
ski@@
high@@
Kim
lu
mon
spir@@
logist
ted@@
PCB
TOP
beef
ind
Game
Investors
Adjusting
subordinate
Fields
Subcontract
canceled
possibilities
arer
Lou@@
damp
Priority
logon
photograph
seasonal
bott@@
uster
chi
Prec@@
here@@
AF
Exhibit
Fail@@
Pile
Thomas
premise
Ear@@
immunity
golf
ym@@
ached
Leave
Composition
KB
Sweden
Liaoning
cran@@
GO
viruses
Samples
infections
livestock
aken
Deci@@
assuming
elasticity
shrinkage
vault
CNC
BT
outward
BI
perceived
synthesized
P2
atal
fav@@
violations
aero@@
po
tol@@
Flange
fru@@
router
Controlling
hr@@
m.@@
tap@@
Pack@@
inver@@
Gb
Sm@@
audits
GN@@
Rack
Reinforced
grouped
methane
gal
itated
pour
slice
Forecast
Fully
honey
FD
gage
abrasive
typed
ulate
ags
Programming
infinite
Acqui@@
Exclu@@
alle@@
Xin
org@@
Disease
kil@@
ots
suff@@
organisms
Electronics
capita
bite
pants
1200
brass
cin
Thinking
Theoretical
Youth
dryer
seepage
ACK
ere
10.1
hex
modi@@
una
VM@@
Lists
Prince
var@@
approaching
cum@@
presses
Sor@@
SIDE
CAT@@
Silicon
interruption
ligh@@
ject
nozzles
drained
broadband
ov@@
Expert
fir@@
than@@
Purchasing
arbitrary
cub@@
CID
absorber
Dutch
Ford
assured
vers@@
COM@@
Preview
norms
primitive
tings
anymore
fork
presenting
Xing@@
hydropower
ministry
upgrades
explored
HB@@
attributed
fluorescent
Sel@@
pulses
tong
vulnerability
lap@@
::
Submit
Certain
Hybrid
ows
ICP
Euro@@
RecoverPoint
contacted
drains
green@@
Workflow
uk@@
Supreme
Valid
reas@@
7.6
los
transporting
filename
sheng
SEC
Creation
machined
predic@@
put@@
Catalog
vein
curvature
dosage
tangible
Typically
diagnosed
insulator
oldest
Hen@@
Late
Sl@@
confirming
stamped
EE
Overseas
nurse
resol@@
council
laundering
Philippines
relax
Oper@@
Dalian
succession
methyl@@
commun@@
nest
Inventor
Palace
illustrate
insensitive
Carrier
Diff@@
capsule
han@@
5,000
Benefits
Plants
Tang@@
Usually
Ric@@
ich
Roo@@
discussing
painful
incorrectly
&gt;&gt;
peri@@
replicated
Sum@@
rh@@
Soci@@
broadcasting

Def@@
Powder
imagination
jar
Accessories
sentences
Vision
ghts
epidemic
mir@@
uration
Regular
Calendar
anda
fifteen
admit
reversed
spinal
accrued
ferrous
Bidders
ister
oly@@
coke
YOU
oh
prefix
B1
archives
exploring
retired
tutorial
62@@
studio
Receipt
alt
depressed
tories
Cotton
ock
viscous
detectors
304
Crime
Jing
Generate
Intellectual
occasionally
chlorine
atures
fermentation
Sw@@
celebrate
wavelet
echo@@
exempt
04@@
Everything
AK@@
REF
ari
you@@
posi@@
pted
stabilized
Peak
systematically
naming
GI
Parallel
td
aly@@
plex
glory
PTO
stimulation
19th
Mic@@
migrate
Tibet
Zh@@
Blade
insulin
triangle
Engineers
accompanying
ocy@@
tomy
vet@@
Silk
cir@@
sales@@
CAL
folded
graduated
Jie
cour@@
Competition
glo@@
pits
pets
Much
59@@
EST
flu
upright
bei
Pat@@
ARD
bio
nano
stimulus
crystalline
ville
warrants
Adap@@
straw
contra@@
cart
dispatching
bow@@
lawyers
tablets
routed
arithmetic
inorganic
SEE
Destination
HPLC
interviews
vested
Bay@@
Yao
distributions
evapor@@
stimulate
Incorrect
lbs
nights
Nominal
median
ok@@
photography
meanings
SATA
porcelain
metabolism
Qin
osis
withholding
VO@@
alizer
cfcf
terri@@
accidental
cry@@
skirt
Qin@@
mainstream
cyclo@@
promotes
effected
preferential
toys
Recognition
Statistical
atom@@
Dom@@
hydro
informa@@
infringement
HY@@
resistor
riser
absent
erg@@
reporters
collections
tremendous
Ultrasonic
employing
handover
hop
ris
bricks
comprehensively
ition
microphone
nTo
Proposed
flav@@
path@@
Networks
rite
High@@
ester@@
geology
overlapping
sits
Mac
remainder
Industries
Inst@@
formalities
advisory
Reinforcement
aking
itis
GF
sus
fet@@
fractures
continu@@
Dele@@
WebSphere
cheaper
deci@@
eps
northwest
Better
Receiver
succeeded
Fro@@
Publishing
View@@
Practices
mixtures
resisting
substitution
iDRAC
N.@@
Heart
Majeure
grooves
ential
ecology
treasure
aids
ogen@@
Inter
etric
leaking
rabbit
CV@@
dc
royal
hosting
shelter
Conservation
MAN@@
Header
continental
tunnels
Elimin@@
Licensing
gment
Defects
Kno@@
Salt
mentally
cal
ck@@
uninstall
AND@@
Disassembly
obliged
Mill
attraction
unt
hop@@
concealed
way@@
yards
volt
tonnes
Developer
capit@@
complement
elder
stat@@
disturbed
prote@@
histor@@
viol@@
PIWIS
Proxy
hoo@@
toral
thy@@
Citi@@
Translation
paper@@
NT@@
Voice
Claims
Exten@@
conserv@@
fastened
Trace
mitigate
ruled
appetite
glob@@
Preferences
alongside
sequential
there@@
outsourcing
GSM
MD@@
conditional
contributing
Automobile
PER
Permit
cs@@
tag@@
caution
consume
pus
dispen@@
grants
Summer
benzene
170
hil@@
load@@
pale
210
airing
designate
soldier
ometers
polishing
Aluminium
220@@
inferior
Fas@@
bubbles
grout
ffs
positively
cies
confusion
omission
Adaptive
hath
appe@@
ounded
shine
bicycle
quietly
Mid
zip
comple@@
recipients
Holdings
atom
Listen
Stat@@
physiological
unch
alias
prevailing
Jac@@
trafficking
Compression
Unknown
impurities
slider
Located
Senate
commercially
dielectric
sal
twisted
Supported
aqueous
bumper
organism
panic
Mari@@
ONG
Intermediate
bitter
essay
idity
Trim
Slo@@
Biological
LT
Ping@@
Responsibilities
longest
Tap
examining
forecasting
expose
ng
ridge
visually
I.@@
Ji
dock
ns@@
globalization
Automatically
ISE
ordin@@
walk@@
blown
signatures
Same
Sus@@
delicious
zers
united
Calculate
ballast
mou@@
ATI
backrest
sheath
trolley
Euro
wu
316
eding
chairs
experiencing
runoff
scientist
EE@@
nam@@
tting
crank
terrorist
Teachers
forestry
isms
successive
contest
mann
synchronize
Threshold
diversified
evolved
commander
Boundary
SG
makeup
chambers
Tea
constitu@@
gly@@
summit
registers
Moscow
Poland
Sharing
claiming
fa
ord@@
partitions
subcontractor
accountant
spouse
tom
PRESSURE
Limits
Arrangement
Tw@@
ero
excav@@
migrant
translate
dar@@
morphology
ocar@@
tex@@
formations
vering
Immun@@
unclear
depen@@
singer
accumul@@
partnerships
Φ@@
downs
SAR
vise
sorted
traces
prolonged
substituted
reconciliation
Intake
Mixed
ume
hungry
Filling
Tasks
subsidy
Dispute
ailed
dividing
lo
mothers
Guarantor
affordable
utilis@@
Assistance
cataly@@
Distributor
selections
enclosures
junior
disability
has@@
inheritance
Describe
dew
recor@@
Pulse
contrac@@
iding
Comparative
prone
Isolation
Appraisal
Admin
laboratories
till@@
overnight
rainy
Retail
notion
virtualization
Hello
tangent
Zinc
informal
jected
Tape
io
tightness
vents
Kenya
Subscription
Visit
c.@@
HA@@
Shall
grab
lays
packs
Municipality
Sodium
fore
TM@@
nThis
sockets
texts
Authorization
endless
100mm
canvas
DUC@@
eRoom
lay@@
dependency
innovations
OPER@@
alkaline
constituted
fli@@
legislative
cau@@
enjoying
Hole
granular
facies
gastric
haul
open@@
alistic
heart@@
efs
1982
competing
mit
mang@@
inations
tted
embar@@
polygon
runner
waiver
Radiation
Copyright
dged
evaporation
breakthrough
southeast
Islamic
strata
vements
1Up
Agents
iration
nur@@
Cho@@
Gross
Handle
Hide
installer
transi@@
10.2
GH@@
OB@@
ara
conveying
elite
duction
erected
stabil@@
DSP
Velocity
OU@@
stal@@
ali
aqu@@
Roll
Ram@@
echo
hardened
dye
laptop
restoring
themes
tubular
scoring
taxable
diode
IFC
penet@@
Workers
Reuters
dency
③
Compare
stent
profitable
propag@@
design@@
authorize
Writing
Ak@@
Rou@@
alleged
downtime
loyalty
assing
gues
microstructure
telecommunications
Automated
constitutional
Premium
Slope
edly
itch@@
87@@
bead
fasten
guideline
volcanic
Delay
sponsored
Nic@@
costly
Equation
Processor
aggregates
ile@@
­
Associated
Queue
aer@@
plu@@
flaw
Locate
investigating
lanes
Sum
roughness
ruler
elections
invisible
formatted
ultrasound
Literature
Missing
jie
shaping
whereby
FIT
Actually
dare
planar
arily
Clinton
Statements
trail
Hui
Similar
emphasized
formerly
vocabulary
suicide
Controlled
door@@
mated
nation@@
121
Replacing
atable
sine
Plaza
actuators
punished
Sli@@
ni
alpha
increment
nError
concert
scattering
iler
educ@@
ules
Nit@@
apps
combustible
judges
stance
112
CK
Duty
shui
dong
examinations
disappear
polyethylene
POL@@
fiable
strations
hatch
Hazard
wai@@
Messaging
conforms
olic
pumped
WN
invented
With@@
Eli@@
ority
outage
neighborhood
Strengthening
ato@@
ultra@@
Disposal
Raise
casual
murder
turbines
rebar
Investi@@
surveying
symptom
Automotive
Scientists
Opens
Sure
9.4
body@@
Dust
Suppliers
even@@
nylon
Expressway
Particular
pression
ref
ora
petition
hypertension
SPEED
ita
GRA@@
gies
Aqu@@
Buddha
butterfly
resting
Educational
Furnace
adequacy
ting@@
AY
Bei@@
Secretariat
helicopter
implied
pler
Trial
considerably
gating
FP
Graphics
reflective
Found
reducer
accountability
icious
mandate
tectonic
Pla@@
Zhi@@
liter@@
stly
finishes
perf@@
reproduction
ods
triple
SF
oversight
retar@@
shifted
tified
Cables
Reli@@
scored
ABC
onom@@
¬
Expected
Plot
tooling
beverage
emperor
streaming
Gansu
Rev
YS
Zheng
notch
forecasts
unlimited
chem@@
inspiration
Consolidated
forgotten
hemo@@
hong
layered
summarizes
wanna
Compl@@
Convert
Painting
ackers
patches
bedding
clubs
convey
Cancer
LR@@
ounds
PN@@
fr@@
Joe
modest
tou@@
Excellent
demanded
peers
CW@@
ethyl
racing
MRI
fried
Kunming
flour
homogeneous
Catalyst
programmable
campaigns
Develo@@
sieve
argued
folds
tful
Summit
Sig@@
glu@@
view@@
Ready
aperture
eving
hair@@
divorce
stretched
APPL@@
Dear
dum
puri@@
eing
97@@
elementary
sunshine
tated
Debt
satellites
VP
acetate
frost
Southeast
insects
lord
cervical
compile
References
straps
Supports
fines
Emission
Manufacture
Lotus
Spirit
commissioned
dging
Applicant
para
requ@@
Ton@@
Read@@
amen@@
grouping
Preferred
Len@@
polished
chang
undergo
umber
Commands
urge
Bad
dine
expndtw1
2,000
bonnet
construc@@
BOM
ache
urs
complementary
precip@@
Fe
orien@@
rectangle
signi@@
tains
und
Supervisors
graphite
heet
Fire@@
lonely
Definitions
reimbursement
NESS
Ill@@
Shar@@
otic
voices
workforce
54@@
auditor
disappeared
exchanged
Az@@
exercising
sill
8,@@
ticul@@
Finite
PB
ull
ALS
swee@@
THAT
accommod@@
weren
Recei@@
BizTalk
Hainan
plugged
prompts
ound@@
packets
thefer
wri@@
Exercise
Troubleshooting
rot@@
clarification
CAP
EST@@
Navy
Taxation
tumors
Eff@@
poems
ques
interpret
BCM
Meter
PG
ington
det@@
ingredient
ark
mobil@@
sioning
downtown
satisfying
Ah
WW@@
320
Elevation
Jet
runway
Relief
dozens
LD
mt
Animal
avi@@
itter
DF@@
Experts
amide
cushioning
exclusion
CONT@@
Providing
kiss
shortly
Restart
jia
6m
Designed
Lessor
UT@@
Chlor@@
Custom@@
angu@@
isolate
DEL@@
Talk
diagonal
amid
E.@@
Oct
fix@@
ule
viral
sacrifice
51@@
leased
mounts
Week
prescription
worship
Coordination
Publish
dest@@
muc@@
particulate
naked
Fabric
bal
creatures
headlight
Advisory
consolidate
ice@@
Retrospect
audible
printers
sic
regret
slabs
DESIGN
Authorized
scalability
Rather
gotten
stimul@@
Mineral
alliance
counsel
entrepreneurs
expan@@
Pharmaceutical
inertia
thal@@
GUID
reporter
ATF
BREW
Ari@@
Pricing
immigration
vals
Pra@@
assigns
expndtw@@
LLC
plunger
spirits
uneven
Feedback
Semi
Swe@@
Wan@@
Mountains
obe@@
Intelligence
FORM
unqualified
Mg@@
Thought
mileage
aps
Coordinate
bury
ille
pause
remedies
Oilfield
cele@@
extinguishing
insi@@
adversely
rhythm
Mars
Metallic
organisations
700@@
PROJECT
Protein
Steve
bps
Revolution
STAT@@
ada
differs
patri@@
unprecedented
uranium
dur@@
thetic
PLE
nested
Disc
applicants
900@@
Symbol
Dan@@
medication
Jim
Refresh
supplemented
μm
servic@@
Enabled
Insul@@
Jane
crushing
acqui@@
completeness
Explosion
confused
plun@@
relaxed
123
Replic@@
incomes
lation
ABILITY
Jobs
SERVICE
barely
chuan
populated
Customize
Estimated
Synchron@@
ideological
wel
lube
ophy@@
FB@@
snapshots
Divi@@
Rotor
Winter
straigh@@
pep@@
yoke
antibody
par
tapes
diff@@
photometric
polymerization
Often
disadvantages
ferring
Surve@@
OBJECTIVE
Remo@@
farms
Modules
Offshore
observing
wholesale
ledger
3ds
Amazon
prop@@
Lat@@
arized
counties
creep
initiation
pertaining
53@@
tracked
ual
Bed
HIGH
pigs
woo@@
flew
verbal
Causes
aft
spine
refuses
remembered
termin@@
pto@@
noble
Normally
ist@@
xx@@
Fix
Warehouse
replicate
Hazardous
Hollywood
Separation
analy@@
cranes
chat@@
contacting
STE@@
mobilization
cups
3500
etry
presentations
DED
afterwards
intern@@
externally
usion
Pic@@
delta
GR
Receiving
Rotary
shel@@
ided
compares
Levels
excellence
inserts
Resol@@
mess@@
Lease
MirrorView
incompatible
scaffold
sha@@
charm
delegated
proto@@
kingdom
Guo
Jackson
TG
budgets
certify
theater
SOA
tals
Flame
respon@@
soybean
tice
Sites
VEN@@
.exe
STO@@
cut@@
CX4
cultivate
generalized
preven@@
stolen
stipulations
counterparts
CES
pati@@
All@@
Equi@@
FF
UNESCO
bble
targeting
tensioner
yun
Dun@@
Geometry
arium
newer
Holder
influential
Practical
relies
swim
evol@@
lattice
upset
Jun@@
kg@@
kn@@
VOL@@
neighbors
Airlines
ails
nationwide
shaking
zy
Heater
NATO
adv@@
phosphorus
plaster
Die
Yo@@
Alternative
LIN@@
Ningbo
Prediction
dairy
inci@@
overtime
2B
Increased
Tray
crmk
metre
Electromagnetic
KW
inflammation
Hal@@
accelerating
kiln
volatility
Francisco
lump
tetra@@
yin
ball@@
documentary
ortho@@
Der@@
Stand
int@@
strokes
weathered
0.25
Presentation
revi@@
collaborative
debug
pathy
Zhen@@
gods
invasion
END
compute
Liber@@
crow@@
dragging
Broad@@
insul@@
sunroof
thin@@
ENTER
SEAL
WD
tones
Shenyang
inity
onomy
supervising
107
Day@@
convinced
undertakes
rocker
butter
ringing
trick
Church
symmetrical
Wan
garage
132
IEEE
TUR@@
footprint
XL
struggling
Transform
methanol
bolted
Figures
Reaction
ald
circum@@
coloured
keen
seeks
Emb@@
iles
428
conditioned
liquidated
1980s
yen
relocation
sanitation
ASS
Names
bladder
instantly
emen
SIS
enforced
Ω
ceramics
quo@@
ete
wang
Expand
SB@@
sme@@
wash@@
crystals
aller
omitted
sensi@@
telecommunication
func@@
settling
CHINA
deterior@@
ste
Transition
Living
sequ@@
Estimation
Questions
POR@@
Crane
Xinhua
sustain
Styles
fracturing
lakes
Coast
remarks
CUL@@
affixed
blending
Shap@@
Xtender
civilian
predefined
retailers
PSM
gaskets
booking
oes
sect
ress
traders
Termin@@
Vic@@
crowded
revoked
Constant
Teacher
bou@@
trash
vicinity
deri@@
hedging
nie
rib
comb
pered
Vin@@
evaporator
orph@@
β
TW@@
meantime
acquiring
ena
abdominal
trays
ventricular
Exposure
compilation
lor@@
AE
incorporating
ld@@
Duration
sation
thereon
foster
ston
INCLUDES
Dam@@
UST
diameters
sey
Treaty
pressurized
ADS
attacked
inde@@
plum@@
IE
behave
continent
tribunal
Percentage
achable
aters
ence@@
rests
lace
ree
accord
graduation
Dragon
acceler@@
directive
presidential
iced
perfection
Interim
symmetry
COMPL@@
gaining
Fri@@
activ@@
rupture
!!!
Underground
WOR@@
buckle
nis
Receive
jam
MO
Roller
acquisitions
concurrent
sciences
Ben
MC@@
emergence
hydrate
humanitarian
screwed
suitability
Attached
akers
impaired
Deli@@
poisoning
232
Radio@@
aerial
pursuing
volunteer
fake
ulin
inert
1B
Gen
Adds
biomass
obli@@
reinstall
Joseph
forcing
integr@@
perimeter
chaos
homogen@@
lag
LEDs
Actuator
Jilin
Patient
lumbar
astro@@
checkbox
color@@
heights
SQ@@
MAC
Editing
hits
strikes
LOG@@
batches
nap@@
Lau@@
Ve@@
Woo@@
ling@@
ITE
Relation
networked
rotational
stupid
Mod@@
TRAC@@
relaxation
Prize
SNMP
α
cried
SCM
cham@@
fastener
xy
Hot@@
UNDP
Embedded
Hours
Near
bum@@
dict@@
solic@@
Tour
ander
seventh
workpiece
Completed
physician
Split
clean@@
eld
peaks
phil@@
NI@@
User@@
luc@@
CCTV
Rod
integrates
enhances
GT
mitted
ship@@
icking
tha
PLAN
negligence
Comments
Sou@@
burnt
induce
siveness
omy@@
embodiment
Cul@@
esis
Capture
parity
Activate
Spon@@
disruption
Wastewater
alty
Pearl
mar
surprising
chron@@
fossil
Gy@@
Liang
ideology
residues
jun
stacked
suitably
Break
compu@@
retardant
Qinghai
Fr@@
GRE@@
Tem@@
hull
lugs
Heng@@
flex
IMP@@
Shirt
asleep
petrol
tite
ACC@@
Errors
originated
recirculation
warmth
mitting
0.5@@
hiding
nPlease
Authorities
public@@
Attention
Fish
diagnose
nutrients
μ@@
Fun@@
Tian
Van@@
atric
educated
inhibitor
neur@@
Crystal
dio@@
sponsor
stems
Es
clarity
exploit
occasions
socialism
A4
Choice
PCs
licensee
mini@@
ode
175
V2
Wind@@
borrower
expires
earning
Offer
STEEL
notwithstanding
fierce
systemic
STOP
aph@@
relics
capacitance
tactics
testi@@
CLE@@
aders
chang@@
transmitters
Leakage
ERP
bleed
omed
rub@@
OTHER
protec@@
256
Alliance
eability
sincere
woods
SEN@@
accent
fought
glut@@
replaces
Doc@@
decay
mess
sedimentation
Risks
4m
exposures
Casting
indemnify
pu
symmetric
Nov
START
cracked
adapters
Graph
ropes
zy@@
Deleting
economists
heaters
122
arrives
subtle
salaries
ascen@@
eration
Headquarters
REG@@
lacking
ola
boun@@
conceptual
itch
refractory
TRAN@@
confirms
decorated
mi
strate
Television
swelling
Context
Processes
interlocking
rigidity
yearly
7.0
Seven
collapsed
idler
mas
probable
viable
Loo@@
Consequently
lecture
Determining
Routing
Rs
inappropriate
priv@@
Mission
Associate
impacted
windscreen
6.7
centric
nel
passport
Ultra@@
band@@
emo@@
FORM@@
emitted
gas@@
Prices
Inv@@
surroundings
Inten@@
Diag@@
dig
insolvency
stabilization
witnessed
Hydrogen
itic
drawer
R2
Expan@@
FM@@
connec@@
ss@@
affair
Canc@@
Compact
Vocational
distinction
TATION
colon@@
htm
mains
Genetic
fel@@
pher@@
tern@@
Econom@@
Switching
refusal
zen
contributes
fig@@
justified
ESC
Plain
beli@@
Tan@@
jade
Arc
Gap
Xiamen
illuminate
opera
inscri@@
Analog
Eight
chol@@
industrialization
nant
Pa
Deng
Increasing
flip
unions
Piston
ains
bic
mankind
Duplicate
ul
une
IPO
ayed
erup@@
obstruction
Dro@@
SAN@@
suggesting
vac@@
emerge
emul@@
inflammatory
tion.@@
Ce@@
restarted
recipe
architect
verifying
MAIN
Sources
aw
GA@@
commanded
zhi
Milan
NU@@
jewelry
kins
Representatives
Whatever
compass
flat@@
seas@@
0.7
occupy
depot
chapters
announce
paints
pork
Tong
cardiovascular
classi@@
docu@@
pec@@
rubbing
insect
Aus@@
anchorage
conce@@
depths
villagers
50m
additions
beating
Institution
gradual
thirds
Qian@@
carbo@@
inherited
Tel@@
commenced
thers
Accordingly
Incre@@
coordinating
km2
loving
rot
tails
thumb
venues
31@@
Together
composites
Allocation
polyurethane
thered
1983
301
Berlin
May@@
dow@@
fibro@@
Aer@@
prevalence
canister
stain
Extra
arti@@
deciding
2mm
renamed
Monetary
coin
RSA
heav@@
orthogonal
Dan
adju@@
sovereign
tizing
Font
Info@@
5.8
Buddhist
Dark
castle
shale
specialists
arriving
generous
Spray
league
tiger
proportions
refriger@@
reconc@@
overdue
ATM
File@@
categor@@
registering
Capac@@
Toyota
marginal
mentary
Match
hs
lug
Rep@@
implies
dal
conducts
conventions
corrections
Ying@@
persu@@
Agreements
dosing
expecting
96@@
indices
IED
interlock
kis@@
compensated
thermometer
IPv6
craw@@
Know
deficiencies
biom@@
Prof@@
Segment
bends
setpoint
unacceptable
uniformity
URI
torch
Protect
bert
LR
But@@
Mit@@
threatening
Jan@@
solvents
apped
workbook
Lao
Sydney
109
aggregation
Difference
Fresh
anybody
bel
delim@@
M10
Pet@@
Snapshot
Strip
Updates
ution
TIC
Zi
catching
prosec@@
charity
life@@
unsafe
litho@@
bunch
executable
sentiment
stretching
toler@@
Optimal
Os
chers
psy@@
Mig@@
Nonlinear
After@@
Against
Correction
Snap@@
workmanship
DWF
conc@@
enhancements
Bin
Drill
P2@@
genous
MQ@@
78@@
SCADA
Ash@@
approving
authentic
feeds
visitor
ancillary
mond
rebuild
eable
learners
Row
heng
geography
shipments
races
warranties
Reconstruction
ageing
compan@@
drums
INFORMATION
Classic
Top@@
dissertation
Southwest
affiliates
joystick
mol
Arabic
Payments
bullet
AIM
Mo
thri@@
VIP
neat
simplicity
Ambient
Guard
Almost
anterior
genus
rectifier
minis@@
recovering
spell
sure@@
ani
multilateral
novels
intru@@
protest
Wenzhou
illi@@
Combustion
subjective
tigh@@
3.9
electrons
mechanically
RNA
ort
FL
Formul@@
Remarks
Group@@
manipulation
masters
7.8
Surfaces
pedestrian
Around
Smo@@
agit@@
signaling
breed
technically
urged
P3
Sealing
enders
etting
hypothesis
aned
mystery
rival
1.9
PLATE
potato
Republican
cript
hem
nDo
spill
Ultra
hardening
reasoning
elongation
waveform
MV
Iso@@
Paste
able@@
sem@@
shor@@
Nitrogen
substitu@@
paren@@
paving
scanned
foreigners
refrigeration
rotated
&bar;&bar;
Bob
Shadow
borrowed
Care@@
Links
rem@@
Arabia
Chemistry
lasts
Animation
MUST
rat@@
Af@@
submerged
114
Eco@@
Pad
flour@@
insights
pub@@
retri@@
fit@@
merchant
Egyptian
FO
6th
Collector
Territory
airplane
collabor@@
serv@@
Disaster
donor
industri@@
ª
Retention
enced
subscribe
Refriger@@
VIS@@
Ray
ergy
reb@@
tational
lau@@
neighboring
swept
Syste@@
fillet
grids
recogn@@
20,000
Frank
aided
lou@@
assigning
dral
granting
ouse
ultraviolet
V6
expressing
Ling@@
lend
mun@@
poet
Fly@@
Publ@@
understands
Rain@@
conferences
lifts
temporal
weighed
Certificates
Moon
discrepancy
knees
neighbor

dangers
nucleus
revol@@
vibrating
Sym@@
appropri@@
Daniel
BOP
gypsum
inland
numer@@
acrylic
drunk
hiring
reside
municipalities
Moses
Tele@@
Bangladesh
fluctuations
stereo
surrender
wood@@
Av@@
LIM@@
ico
rus
RADI@@
Uses
ye@@
12th
undo
EXT
shirts
wars
Resp@@
SIM
deny
obstacle
onset
ControlCenter
RMS
prestressed
welcomed
TAL
poultry
bracing
heterogeneous
H2
eager
witnesses
Sam
concurrently
PB@@
pillars
AMP
Kal@@
discard
Vista
risen
Distribu@@
OFF@@
Buy
IDEN@@
authenticity
isolating
ror@@
cellulose
compositions
fuses
Accuracy
EIA
Switches
importantly
notebook
Hub
Question
Need
quasi
spectra
waited
stabilizer
sures
migrated
Occupational
Researchers
windshield
117
neurons
Retri@@
itations
VR
cleanliness
rati@@
subset
Nom@@
Compatibility
sep@@
Strengthen
VAC
electr@@
pickup
Modi@@
Molecular
ible
ticism
Aug
18th
Login
Norway
TIME
mysterious
Sector
CODE
Managed
anonymous
aquatic
Liverpool
literally
NDT
actuation
priest
ESX
Vector
enforceable
spaced
drafting
polluted
sump
billing
etic
Caribbean
Doppler
bug
mutation
patience
Governing
affir@@
bad@@
incredible
later@@
majeure
strand
Books
endeav@@
fiction
founding
Pas@@
dex@@
spite
deformed
overwrite
HI
personalized
stacking
civilized
decent
distress
explanations
exhausted
note@@
consumables
fool
Gallery
cutaneous
ret@@
PEN@@
T1
hierarchical
Actu@@
lia
quest
Prefecture
inventories
omer@@
appro@@
gardens
revisions
uti@@
190
activating
meteorological
reco@@
¡¡
270
Strategies
institutes
seize
Administrators
FRONT
counterparty
harsh
pigment
12.2
Fitting
cad@@
similarly
homework
Dad
customization
09@@
Particul@@
brace
kinetic
store@@
forged
truss
Neural
Zhuang
ado@@
reminder
idspn@@
allowances
alternating
emphasize
wins
garment
patho@@
talented
UT
agging
downloading
mations
tonic
ENTS
Join
PUMP
intrinsic
reli@@
lenses
elly
IZ@@
Landscape
localization
ADE
extracting
infl@@
blanket
nd
SRM
polarization
Gradu@@
tropic
Alibaba
Tip
UL
wl
Tao
Yin
consol@@
tackle
urbanization
contingency
males
splitting
Low@@
duck
Lot
SOAP
attenuation
relying
Contains
Death
Det@@
Hope
minded
Pun@@
differenti@@
provi@@
glycer@@
inhibit
intrac@@
traits
Preparing
BC@@
Fang
Buff@@
Nam@@
chan@@
cia
redemption
tedly
Portable
viewers
mill@@
ushing
Merchant
Sort
Viewing
farmland
debit
highways
Appearance
CDs
esti@@
exits
fragments
refrigerator
x.@@
Nike@@
expire
Pneumatic
coc@@
voters
AST
Pep@@
transplantation
Received
ammonium
lobe
52@@
itate
sprocket
Cour@@
bull
vitality
Fig@@
VIEW
portra@@
reinforce
Ble@@
IA@@
fec@@
offs
Ev@@
creature
shader
0.9
Pages
couplings
magnificent
DIRE@@
ISO@@
Recording
admin
conferred
other@@
tracted
Integr@@
uted
benz@@
06@@
aya
apping
dens
subway
voted
Chelsea
Occu@@
virtu@@
2.9
wealthy
UND@@
PK@@
resolving
Emul@@
Mean
fan@@
ulations
Specified
judged
AIN@@
Objectives
iss
thed
ASEAN
Sing@@
airflow
jection
versa
Month
dest
grammar
omet@@
Website
pod
Bulk
OECD
nsr@@
optimistic
vir@@
vouchers
202
stepping
Viol@@
chy
innocent
taper
derive
eaten
nic
confi@@
preser@@
prosecution
sig@@
1981
REQUIREMENTS
commencing
dd
mist@@
throwing
ales
fighter
shorten
relevance
triggers
indemni@@
ugly
Even@@
Establishing
Feb
argues
deceased
sourcing
Ventilation
onomic
mei
98@@
Ceramic
Twitter
attitudes
phenol
pressur@@
sedimentary
Accident
myocardial
respected
SEC@@
ception
omas
reel
draining
pers@@
resses
somehow
Mir@@
amor@@
ections
vas@@
viewpoint
Mob@@
Spo@@
symbolic
monopoly
violate
harmless
Orders
outbound
uro@@
L.@@
Manual@@
Happy
actuated
orche@@
Artificial
angi@@
calculates
sandy
Reducing
kar@@
logies
SWITCH
Ts
dimin@@
fus@@
stripping
uncle
animated
feed@@
ush@@
Plasma
favourite
Su
Scre@@
famili@@
stry
SDD
extracts
vely
Counter@@
arization
hes@@
GAS
proofing
quorum
GMT
mani@@
sacrific@@
SCSI
bidders
eved
semi@@
aka
renowned
school@@
3,000
THE@@
insisted
cade
critics
shims
defaul@@
obey
480
Ukraine
XI
jects
scaled
RU@@
Wet
alike
extru@@
propulsion
KEY
Clients
pap@@
Dur@@
vane
Qty
Sketch
dll
Gain
Awards
Tribunal
intim@@
lesser
repay
indemnity
有@@
SUPPLY
hadn
hitting
prosperous
capillary
eded
peti@@
aden@@
deserve
landed
loses
Crown
outlines
rushed
sticking
Histor@@
Tolerance
erous
fixes
sel
titude
WA
brains
workout
LPG
Positioning
md@@
stair
trauma
TRE@@
negotiated
113
Female
accessibility
mighty
uploaded
polymer@@
rying
missiles
motivated
tedness
crying
daughters
provisioning
Cells
illicit
repu@@
Seas@@
holdings
infring@@
stiff
Flood
cn@@
employs
environmentally
intermediary
Lyn@@
Maj@@
Pipes
Understand
angel
beliefs
instantaneous
scape
sewing
5A
extingu@@
robots
Depen@@
dawn
emergencies
wounded
interoperability
Peace
Plastics
olite
wellhead
consul@@
poorly
travels
Contacts
finger@@
headers
graft
SDK
ellers
inhibition
AH@@
Soon
Templates
SCC
Solaris
consisted
Academic
nt
asting
hepatic
hob@@
symbol@@
Grey
Images
clever
loid
silt
GROUP
appen@@
cow
pup@@
disconnecting
Consul@@
sour
trick@@
undergoing
3A
Hem@@
amongst
exhibits
Organize
Inde@@
activates
burns
statistic
brave
forwarded
ing.@@
vet
electrostatic
favourable
revise
Fran@@
VIN
come@@
tec
Nu@@
imal
well@@
Discuss
Expenses
Whi@@
girlfriend
text@@
Governance
fulfillment
Kazakhstan
extensively
shire
tended
tex
200mm
Outline
habitat
honored
lovers
where@@
REL@@
consum@@
jam@@
Mand@@
nas@@
Operate
TIF@@
127
Gao
Graphic
tici@@
15th
A3
inspectors
directs
distributors
procure
reversing
transpor@@
Analyze
altogether
cant
diluted
dismissed
pac@@
Concentration
Drugs
Schema
semantic
FC@@
Realization
Thor@@
contemplated
tagname
Disclosure
elev@@
essing
peptide
-3
10th
Commun@@
galvan@@
mechan@@
Rotation
Scenic
Jian
Rose
analytic
annular
dresses
insist
Mom
embrace
kage
Unclip
ila
marble
8m
inclination
litre
Resin
explaining
Instrumentation
olate
auditors
manganese
Rates
lon
Activation
Evidence
Interactive
Ti
poison
Stabil@@
Clearing
Ful@@
innov@@
insure
Rac@@
motorcycle
pliers
stit@@
Doctor
pp
abundance
acknowledges
icians
ssi@@
CAT
Concer@@
Connected
multiplied
tem
AppXtender
Buddhism
serviced
rea
sol
tence
impressed
vial
binder
fibr@@
similarity
Bring
Indic@@
aus@@
distillation
exe
phic
Argentina
deepen
ettes
➥
No.1
Van
Yield
fantastic
ozone
TOTAL
sanc@@
searched
storms
phon@@
tents
akes
blis@@
fi
nutrient
sailing
subsi@@
Engage
Filters
elle
Alk@@
BLE
Rio
cholesterol
ouring
pli@@
10.3
Coordin@@
paved
utation
warn
ece
theficials
Marking
govern
roc@@
limb
scopy
females
Keys
chil@@
chromium
discarded
moulding
Arctic
Conven@@
Sheng@@
manipul@@
168
Gauge
gum
sooner
76@@
acity
9,@@
Circle
IMF
curb
db@@
ves@@
vic
Denmark
RON@@
ado
spacecraft
Stay
snake
CONSTRUCTION
Vit@@
conversations
nes@@
Qualified
lions
referencing
Memorandum
……………………@@
ener
Glob@@
ghai
lympho@@
mam@@
Android
Finished
PIPE
Scri@@
entr@@
lesions
vibrations
Correlation
Offices
dele@@
Fees
dome
ESS@@
rectify
Excavation
purified
tow
Utilities
CON
eti@@
fairness
ylon
Pumps
approached
SPECIF@@
ader
lawsuit
researching
204
Creative
rhyth@@
Mix
Virginia
irrit@@
journals
saddle
Nan
Sudan
rie
Lubricate
narrative
dependencies
Ethiopia
adverti@@
fis@@
GD
Tag@@
airports
banned
mantle
pie
sne@@
traceability
CAN@@
gin
Appl@@
FDA
recurrence
CSRC
ghe
wildlife
Chen@@
Coupling
Stock@@
Graph@@
BF
Shu
AX100
Machines
amm@@
YOUR
projections
parcel
shielded
Recipient
esses
ventilated
Bai
Initiative
ambitious
aved
champion
code@@
trans
Rap@@
sett@@
coherent
lations
lookup
Benefit
cycling
intestinal
ographic
thefic@@
topo@@
Human@@
breeze
objec@@
GCC
Township
Accoun@@
aver@@
tr
ActiveX
Acute
intrusion
11.1
Anchor
LAN@@
enrollment
fluorescence
Operators
reliance
thwestern
Heilongjiang
weaker
moun@@
magazines
transforming
windings
Rab@@
WAY
cc
frag@@
phony
TORS
oxid@@
thes
approximation
hepatitis
unk
Savings
characterization
deton@@
tying
25mm
Numbers
concer@@
contraction
hooks
sterilization
1979
facilitating
dead@@
traps
styrene
LOCK
oling
tidal
Portfolio
Leadership
abo@@
exempted
hao
carbide
elines
overlay
Muslim
hang@@
nour@@
rivals
sulfide
Santa
Feasibility
HMI
shading
Far
Gates
TimeFinder
cip@@
clustered
crust
incorporates
indexed
pray
Copies
Georgia
busbar
parametric
EFF@@
Sequ@@
developmental
imperial
ATIVE
000.00
VS
encies
Ster@@
pollutant
ght@@
yeast
205
ISP
modelling
remedial
……
Objec@@
Trip
Restricted
marsh@@
bial
noises
thel@@
REAR
merits
multimeter
Truck
bir@@
economically
theessional
tuberculosis
8.6
Carrera
Mechan@@
Sheets
exhaus@@
plots
LICEN@@
appointing
prisoners
speaks
Legislative
Straight
bored
individu@@
01@@
7.7
Pho@@
Turning
ampli@@
artifacts
enrich
Checks
upcoming
Origin
Ther@@
associates
iner@@
shame
ud
AGREEMENT
Regarding
economist
successor
tia
adoles@@
illu@@
El
Wash
dispatched
Maps
resides
trusion
Cr
ETE
FLARE
fetch
frac@@
floods
gar
microprocessor
sq
.D
day@@
earthquakes
managerial
visualization
Bis@@
Outdoor
adjuster
excitement
readiness
shelves
triangular
Ordinary
otherapy
Things
discounts
fighters
judgement
pos
soccer
Firm
hn
mast
promulgated
zhen
Subcontractors
mismatch
mooring
planets
bon
deploying
honey@@
maj@@
credibility
invasive
adsor@@
narro@@
tailored
Floating
GROUND
Subsidiary
Texture
climbed
tto
20mm
Rich
S1
knocked
arri@@
engineered
manpower
Collect
endurance
assemb@@
instruct
ians
monies
commissions
tough@@
Privacy
SUR@@
ped@@
supervised
F2
Pig@@
gay
honour
cock
inary
intra
nate
Anyone
SK
declining
Nowadays
STRUC@@
Significant
backbone
dge@@
glance
researcher
Hil@@
surveyed
HO
Lights
Neutral
hibits
morality
sellers
10m
Clear@@
Submission
eric
convicted
fabric@@
icate
titled
perspectives
anic
div
suspicious
capac@@
constructive
noting
tu
seawater
submarine
DH@@
grating
separ@@
electronically
memor@@
pathway
try@@
converts
inbound
barrels
Nickel
joke
Haier
Supplementary
Thai
Zhong
honesty
ske@@
spontaneous
4.9
checklist
p.m
sprayed
Insured
Suddenly
aints
territorial
cess@@
coma
energ@@
gluc@@
Dum@@
vap@@
PDP
Pil@@
Snow
patrol
79@@
gaming
respec@@
thermostat
milestone
Timing
eco@@
Austria
etal
Installed
10mm
B2
Lost
OPEN
insur@@
localized
stressing
worries
6.8
Laun@@
Os@@
Ye@@
Fabrication
signee
CHAR@@
boilers
graph@@
D1
laundry
sex@@
tener
toggle
Random
tari@@
Orientation
premature
anode
chinese
reactors
Consolidation
attained
faculty
needing
verb
1978
Chemicals
fathers
irradiation
destinations
eccentric
fonts
S2
SERVICES
emails
gau@@
sperm
Confucius
fulfil
Ice
Tow@@
dis
ender
kid@@
φ@@
Greater
seal@@
stle
worksheet
Infrared
administer
colleague
idly
Captain
affection
explosives
oh@@
ozoic
Clone
Farm
Holy
Replaced
attering
constituents
procedural
Adjustable
BMW
taneously
Cambodia
duce
gab@@
tica
tern
vious
003
3mm
Merge
RDS
splice
unpaid
X1
consortium
turb@@
Tension
sory
elaborate
estimating
grass@@
iteration
Proper
ds@@
ministers
stan
Dor@@
Night
linearity
steal
textiles
violates
ASP
Adv@@
Deri@@
ult
vest
Shen
cats
disgu@@
balloon
will@@
MOST
competitor
dignity
jurisdictions
stall
Veri@@
fin
Guan@@
olds
umes
Arti@@
FI
fragrance
miner@@
politan
renovation
DATE
Grain
brating
hap@@
Columns
financed
trough
0000
a.m
ddle
itted
plex@@
molten
ILL
Whole
compressors
dder
ku@@
ct
feder@@
Promote
tread
Fifth
Instruc@@
Spec
adventure
endorsed
forwards
!!
Adobe
Dimensional
imen
salts
118
realm
simulations
flooring
grateful
posterior
Produc@@
Publication
Sensors
fat@@
glos@@
lysis
textures
ladies
pressive
Tire
constructor
glazing
azole
complain
flare
realizes
FG
Male
Textile
aim@@
Ling
cathode
sail
Brazilian
HAR@@
Interval
coaching
fetal
gur@@
tren@@
Comple@@
accompany
eliminates
hydrostatic
kine@@
Compu@@
kits
Jiu@@
WORKS
bankrupt
mach@@
ACH@@
Explain
Plu@@
enumer@@
neutron
pertinent
Architect
fused
126
deem
intentionally
osteo@@
ardi@@
clicked
indic@@
theorem
winch
broadly
lacks
v.@@
satisfies
Antenna
nal
premiums
resignation
ambi@@
icks
spra@@
eland
emitting
lah
staffs
wheel@@
Bachelor
Charter
kup
SSD
dul@@
authenticated
nurses
Ⅱ
1970
Deviation
Smooth
layouts
Moz@@
Rad@@
depar@@
erase
stein
num@@
suffers
Gene
IPS
decisive
observer
rams
reductions
Identi@@
retrieving
Phoenix
Shield
SID
spreadsheet
wrec@@
Zhang@@
vo
Buffer
Chi
ECS
RESS
TIAL
boyfriend
equivalents
qualifying
Nepal
Tox@@
econ@@
Nigeria
isol@@
passi@@
rigorous
airborne
carved
commerci@@
deed
lessee
successively
suring
Lane
Updating
Czech
defensive
Earlier
amps
landslide
noon
Franc@@
indispensable
rounds
incl
pistons
shut@@
Gly@@
inspecting
src
Concerning
entrepreneurship
motive
Dealer
Negoti@@
Jinping
Northeast
Proto@@
billions
passages
yielding
Asp@@
doses
uck@@
etary
gram@@
simulating
Universities
clicks
electrolyte
nameplate
nut@@
Wang@@
Ye
barge
doubled
FX
MQ
ained
contingent
dened
theastern
Cisco
browsing
300mm
poly
NET@@
DOWN
roadway
0.00
CUR@@
Retur@@
aphy@@
baking
strongest
collects
ever@@
tick
Bolts
CONNEC@@
Updated
experi@@
hopper
lun@@
norm
TOR@@
Heritage
Ig@@
ancestors
handsome
ood
senses
240@@
ALL@@
Coefficient
Hab@@
dull
Institutions
Subscriber
Barack
Cao
MAX@@
petrochemical
stat
Native
Portugal
Tub@@
lest
replaceable
Free@@
MER@@
WARNING
chin@@
sians
xr
CTION
Motor@@
advancing
pow@@
&ket;&ket;
Meet
cros@@
ancer
ier
troubles
grassland
milit@@
phe@@
Chile
Repe@@
DOOR
jury
Nobel
diffraction
recurring
160@@
dyeing
.com/@@
2.5@@
ported
N1
eternal
inar
³
recycle
sha
NULL
Synthetic
jumping
oscillation
pressions
stir
NURBS
Danger
Mem@@
UNIT
assisting
desires
opponent
crypto@@
onsite
stic@@
Cin@@
airlines
DC@@
Schedules
repeating
shu
spin@@
Reader
ULD
bull@@
pencil
Kai@@
Harbin
Pos@@
light@@
Beach
F.@@
Incident
Schol@@
Determines
laminated
mium
Exterior
Indi@@
Libya
dams
phrases
rey
Advances
aut@@
calories
lungs
MATERIAL
state@@
LOAD
Analytical
apo@@
convened
convex
Chris
plat@@
ret
emer@@
link13
onics
Radar
nod@@
SEL@@
hou@@
lubricants
mainframe
Disabled
albu@@
interpolation
Mar
castings
dos
flanged
metabolic
Hep@@
dash
hoods
380
ag
polarity
SUPPORT
vivid
Equivalent
infarction
queues
tioner
500,000
ater@@
FD@@
Gong
RING
edi@@
moderately
backfill
malignant
motiv@@
wrapping
.@@@
Construc@@
allies
ding@@
peace@@
trimmed
Ide@@
clustering
rainwater
REE
advancement
150mm
proactive
Clearance
Uniform
pical
stum@@
Joh@@
Perspective
utions
AME
Scheduled
endor@@
shim
societies
Logging
hen
Liqui@@
cleanup
frontier
Cargo
Gathering
Hang
ICT
Significance
ocular
incre@@
volumetric
acies
ps@@
goodwill
obtains
optics
Comment
mortg@@
485
Lightweight
SPS
accountable
labeling
phthal@@
smiling
lobby
²
Belgium
accidentally
acle
condi@@
Apart
Kun@@
Scotland
leap
Inser@@
Offline
Substation
audi@@
itors
profession@@
sail@@
Shutdown
calcul@@
spec
Folders
Hotels
celebration
pcs
SEM
coins
hel
tle@@
Aggregate
PowerPoint
Proof
asiantextfont
sibly
Evolution
coli
eighth
enni@@
Demon@@
cop@@
stamping
Startup
conven@@
evaluations
sandwich
Separ@@
bevel
bureauc@@
township
Cle@@
SAT
culation
neys
rene
ICA@@
ICBC
Time@@
projec@@
sculpture
RepliStor
Sle@@
Whoever
resistivity
ESD
limbs
bump
crum@@
collap@@
Empire
eg@@
fame
ign
Ol@@
conveniently
precast
segmentation
unlocked
STD
ored
‐
260
Note@@
NOR@@
cliff
inqui@@
manipulate
recognizes
140@@
Foo@@
Max@@
lla
subscribed
transitions
203
bai@@
cardio@@
mod@@
toxin
CCB
IGHT
accep@@
lon@@
Insp@@
sampled
shining
PLAN@@
direc@@
screen@@
8.0
Clauses
Link@@
scalable
steril@@
CLASS
PET
incidental
Bi
Means
Quali@@
cadres
payroll
variants
Tony
____
Indoor
conduction
11.2
Bud@@
Shut
Sign@@
acry@@
assess@@
replicas
Lock@@
ucle@@
heal
microcomputer
550
Ann@@
Victoria
piling
13th
Ray@@
TEM@@
fancy
intuitive
cles
system@@
tapered
MIL@@
Simply
astronom@@
bau@@
emphasizes
urea
Bet@@
Transmitter
Architectural
Frac@@
steer
subsystems
oxidi@@
RV
enzymes
fty
medicinal
obesity
safer
Obtain
Phili@@
forgot
Palestinian
cher@@
neo@@
regularity
rotates
round@@
BOX
Coil
Fir@@
bab@@
fragile
mind@@
Organizations
continuation
ferro@@
possessed
clad
respondents
LEVEL
admi@@
computational
grap@@
master@@
som
12.1
Imaging
shutter
Selector
Someone
leness
Gu
midnight
unting
10.5
BRE@@
sky@@
weaknesses
131
Autumn
ames
encoder
kPa@@
Hair
Book@@
unfair
SPC
advantageous
IAL
deepening
fashionable
ond
MODE
Schools
demolition
3G
digging
prayer
ventil@@
Metro@@
carri@@
resins
thre@@
wrist
Suc@@
attracting
drow@@
Aid
INSTALLATION
Kine@@
OVER@@
communic@@
simpler
Futures
Grant
H2S
hitch
sity
towel
CharStyle
Coc@@
exquisite
pepper
PPP
awa
hunt
subnet
Diagnostics
FIGURE
catalysts
lish
ongs
theficial
Democrats
sweeping
NING
clari@@
merchants
occasional
ses@@
wen
amber
ather
blended
malicious
ITEM
att
deadly
deliber@@
toughness
Inspec@@
ral
relational
Measurements
intercep@@
oration
Bonds
Fashion
PIP@@
autonomy
fing
replic@@
ISH@@
digestion
escaped
liness
tenth
catering
Entertainment
SCA@@
encoded
must@@
sisters
Jersey
___
anna
congestion
numbering
ACTI@@
Assi@@
Indicators
TPM
anyang
rang@@
recalled
gres@@
type@@
Ul@@
fluctu@@
piers
MON@@
Medic@@
justify
tolerant
admini@@
Eye
archived
practically
stration
Enclosure
conduits
rical
stream@@
recep@@
vie@@
wk
Contrac@@
Lang@@
catalogue
priori@@
survived
Axial
G.@@
hurry
invoked
odds
schem@@
supportive
Transit
inability
rail@@
spectacular
Abra@@
Capability
teria
CEL@@
Inspector
phal@@
Guo@@
Jiao@@
crest
lender
nutritional
LM
jamming
orna@@
thful
ING@@
NPT
ania
tose
trav@@
Harness
congres@@
copy@@
demonstrating
quo
weed
NY@@
click@@
relieved
simulator
Emer@@
doms
teners
Dial
indexing
hydrocarbons
Combining
RR
Ron@@
farther
attain
evable
Mini
PCC
Shear
abandon
aline
heap
230@@
batt@@
ghu@@
◆
8.8
Planned
mails
4A
fled
DH
tees
Gor@@
Le
anxious
counterclockwise
BH@@
connotation
enriched
tou
uncertainties
2030
Dow
ASS@@
Prote@@
advertisements
scans
sie
foreseen
Accept
affor@@
casts
prescri@@
seaf@@
traditions
Design@@
gamma
sci@@
whe@@
Mainland
fs@@
ulty
credited
depic@@
produc@@
stabilize
Say
invoke
sives
EB
bitumen
diving
Novel
injectors
cosmetics
silicate
Reduced
lement
milliseconds
suspen@@
Rational
1970s
disrup@@
reduc@@
sculp@@
Defect
Obligations
Ox@@
correcting
jan
veget@@
wives
Cry@@
Junction
discrimin@@
recreation
SAFETY
accumulate
phosphor@@
Check@@
NP
ankle
congrat@@
progression
AQ@@
Immediately
inflow
lunar
145
Bao
comparisons
controversial
Bible
susceptible
GY
auth@@
notable
outbreak
squares
noisy
watch@@
Ball@@
COUN@@
Twenty
280
Correc@@
humor
Speech
apprais@@
exagger@@
mall
gia
ENCE
deduced
umbrella
unsupported
Commodity
M2
belly
eas@@
mens
strating
org
smiled
trailing
dismantling
fai@@
Parliament
attractions
eon
helmet
Designing
descriptor
rested
uo
vapour
POS@@
Socket
scared
Hai
orial
tlement
variability
Consideration
Defines
OWNER
Offering
pledged
Cities
addy
correctness
viations
preserving
MUL@@
Ming@@
Petro@@
acetic
asym@@
endow@@
gras@@
nasal
Perfect
chemotherapy
offensive
501
Allo@@
Plateau
inevitably
soda
trajectory
Residual
ause
hereafter
protector
rubbish
vectors
brief@@
empha@@
subscriptions
endorsement
hlor@@
misleading
oping
tomb
010
Du
deduct
presi@@
veins
Liu@@
backfilling
foli@@
practicing
treaties
Ado@@
Jud@@
Peking
Taxes
pack@@
Cambridge
Cross@@
Format@@
Lifecycle
RFP
Window@@
booth
Walk
neglect
MAN
emulsi@@
prospecting
Boeing
GST
cand@@
huang
spelling
support@@
operand
Dil@@
chim@@
contaminants
deceleration
Bs
CCS
Louis
arranging
Participants
Manually
Server@@
biped
strian
techno@@
Nobody
nowadays
peasants
Cad@@
Integrity
Issued
Rele@@
Text@@
journalists
There@@
adver@@
expen@@
underwriting
Behavi@@
Printed
flash@@
metro
rho@@
willingness
accor@@
monster
prince
tiered
Specifically
vortex
Geneva
STUDY
base@@
EPA
Workspace
2000@@
ARS
Isol@@
REPLACE
eper
funeral
Dubai
exec@@
facilitates
useless
ylation
Asphalt
DMA
common@@
dimen@@
Xia
pallet
suppress
wines
PACK@@
negotiating
Scene
estion
gaseous
inherit
Lubrication
Pap@@
Sky
airs
queen
staging
onto@@
LB
enlarged
interventions
inward
Consi@@
arthritis
treasury
turbo@@
Ownership
PLA
Stream
altar
gotta
oo
Centers
Columbia
Matching
towing
yd
obs@@
999
Mpa
gic
workflows
Maritime
Connec@@
Gas@@
eks
Cir@@
Observ@@
Swi@@
disabilities
Yahoo
dun@@
pend
spective
courtesy
minimise
purely
COVER
116
Break@@
Coat
Metric
SET@@
Throughout
atro@@
calori@@
ja
resumed
unloaded
Oc@@
Pow@@
charter
hoc
incur@@
mass@@
mills
risky
terminology
Recommendations
sovereignty
til
155
Rename
Wis@@
apon@@
Coatings
ESP
Jer@@
Opportunity
erad@@
itus
spares
Elizabeth
Officials
momen@@
unreasonable
Hitachi
capacitors
imper@@
lively
shearing
Path@@
Tou@@
atories
cascade
seldom
alysis
malaria
utting
Millennium
apoptosis
tech@@
contem@@
hunger
warehousing
Posi@@
aromatic
cleanness
consultancy
Leather
descent
resor@@
survivors
Radius
amic
taxpayer
DRIVE
N2
behavioral
clou@@
fulfilling
increments
meta
persi@@
proving
iter
IMS
maize
iti
pilots
rol
anchored
temp
unwanted
Allen
Characters
Commitment
eci@@
wetland
】
Blocks
fasc@@
sinking
handic@@
Gs
HSS
Valuation
alkyl
ems
enly
praised
GEN@@
Tam@@
spans
traveled
Annex@@
Explo@@
Morgan
Son@@
hometown
spoil
InTouch
armor
traditionally
icide
ohms
Minim@@
Physics
Pole
temper@@
theoretically
Satur@@
enacted
sacred
teness
ATS
WMI
efficiencies
ign@@
ilers
opol@@
propylene
sediments
Boolean
colony
JD
LIST
blu@@
fragment
propri@@
Execu@@
Lightning
Prevent
cer
gear@@
syste@@
aki
cladding
gad@@
vor@@
Execute
embarr@@
miscellaneous
photograph@@
predicting
stereo@@
swivel
anchors
toes
ACTION
M1
Synchronization
cans
supporters
utilizes
motions
Absor@@
Sof@@
anomaly
listened
Routine
SPEC@@
Ying
tling
wid@@
7th
Demonstration
Prepared
disruptive
330
Minor
cartridges
chooses
originating
settlements
dev@@
extinguisher
formaldehyde
iny
rabbits
reci@@
Manchester
speculation
Andrew
CER@@
burial
dissemin@@
izers
olog@@
sincerely
Layers
Sleeve
Sri
contactor
Competitive
opathy
undergraduate
Extract
Pit@@
quotes
rison
thes@@
CHAP
ENGINE
Kil@@
circul@@
oline
ffle
perme@@
promotional
singular
solder
L2
applicability
portrait
Phosp@@
gonal
pores
readable
wis@@
1976
Foc@@
Ion
Promoting
earthed
fade
Type@@
hall@@
neglected
crafts
deeds
´
Cham@@
Qian
acupuncture
opt
Logical
judic@@
orium
dability
disinfection
igni@@
mony
Boot
reproductive
sie@@
650
Boston
consultations
meta@@
curious
Fruit
unlawful
Detec@@
brokers
chute
jaw
roof@@
tiers
Supplement
bran@@
ints
landfill
Appliance
Him
Mei
downwards
gul@@
laughter
icles
interchange
manipulator
Sugg@@
rally
ribs
sali@@
tural
laughed
HART
Successful
daylight
ghting
graphically
plate@@
trou@@
Saint
Zn
ager@@
statue
timed
DFS
Diamond
Nursing
critic@@
CAP@@
atitis
colon
glands
ASCII
Resear@@
archae@@
pir@@
routines
seg@@
sper@@
APPROV@@
dietary
Lay@@
M.@@
Oce@@
Prospec@@
rationality
11th
Fab@@
exert
mailing
rinse
MF
Process@@
figured
progres@@
wet@@
ATES
Phar@@
gham
superiority
tack@@
ARTICLE
GEAR
GW@@
railways
151
Gan@@
exu@@
jum@@
Listed
tactical
Throttle
beads
buckling
child@@
nau@@
④
perfusion
AREA
Kir@@
VERY
drills
mis
tually
Champi@@
Colleges
thick@@
Concep@@
Treas@@
MCC
grille
Subscri@@
feedwater
NE
ORDER
audiences
caf@@
dissipation
oscopic
squeeze
advocate
proph@@
stringent
tac@@
Refin@@
traced
Good@@
VAL@@
icul@@
tractors
ip
las
1.0@@
Estimate
Jewish
appreciated
Aero@@
stove
SAM
scrat@@
Messenger
edible
alleg@@
asthma
bag@@
berries
sickness
Pavement
infiltration
Licensor
duplex
keywords
therap@@
effluent
detained
edy
pest
platinum
uniquely
119
cn
enrolled
runk
.com@@
Skills
hemorrhage
ilt
laughing
Cover@@
precedence
quenching
triggering
baked
notably
Iraqi
SCR
img
onia
rich@@
wasted
wild@@
HAN@@
yo
Welded
winners
Carbon@@
Descri@@
din
lessness
tragedy
Interpretation
Pressing
asy
rable
achieves
dispersed
occurrences
Buc@@
dment
staining
zer@@
Aerospace
MOD@@
Yin@@
cis@@
intr@@
municipality
watering
Infl@@
essly
killer
semester
Ore
investig@@
relied
hash
pity
scholar
？
Clus@@
U.K
trenches
Coo@@
Fi
Mixing
Spatial
ATC
Imp@@
Lady
Predic@@
WO@@
chloro@@
evolve
Forces
Friction
M3
basins
izhou
UND
oxi@@
welder
C.
adjour@@
feren@@
gambling
transfer@@
8th
erect
itude
molded
propeller
sers
sna@@
tility
4S
acquain@@
chin
companion
implicit
ssed
Characterization
deliberately
Irish
gif
tane
undertakings
Smart@@
Weather
domin@@
slowing
upside
inian
javascript
underside
wolf
FUEL
H.@@
Frequ@@
Gam@@
Republicans
justification
converters
End@@
Finland
InfoPath
rain@@
unscrew
Hur@@
cough
crosses
degraded
loyal
resem@@
6mm
IDC
Quantitative
aceae
adaptability
eral
glycol
rd
rela@@
forwarding
segregation
dit
pillow
Bei
anism
imperative
lockout
resettlement
taneous
Swedish
concave
LT@@
expands
placebo
Arm@@
Task@@
ounce
sable
tides
IB
Moisture
classify
mayor
AIR@@
AX4
Phy@@
SUBCONTRACTOR
railing
stors
Ash
Coding
corrugated
lubricated
thresholds
quick@@
Disk@@
Experi@@
bellows
headache
jacking
potentiometer
venting
Assemble
Binding
analogue
gentleman
proposition
stment
brations
slipped
soy
IRM
Nap@@
GH
additionally
fertility
behavi@@
Bag@@
Electr@@
Seed
overrides
pain@@
skirts
supermarket
NF
ef
grained
interven@@
Technician
disposable
iously
notation
challenged
puncture
tastes
Attorney
L1
STANDARD
Sher@@
stranded
Judah
comparatively
detergent
contradiction
parliament
Conditioning
Contribu@@
illus
pots
aboard
frameworks
link@@
optionally
sensory
Macro
bounded
olin
1800
Conserv@@
diffuse
methodologies
trium@@
turbulence
waveguide
constructions
cookies
stra
$$
Imperial
jian
zhu
Grand@@
Tensile
hectares
keypad
topography
Absolute
Lets
Machining
ade@@
differentiate
latency
rement
30,000
LV@@
Tax@@
conducive
Freight
elapsed
ele
reversal
sivity
controllable
monkey
anol
competency
morph@@
ota
5.9
METHOD
striker
subscriber
DEC@@
amounted
tles
Appropriate
Cards
Chip
loosening
reson@@
tained
utes
Oxford
Prop@@
Sewage
locates
odor
Loads
cyclone
displaced
ishi
question@@
user@@
Gazette
OTC
Something
gym
ovarian
plugging
borehole
porters
taries
bitmap
membranes
spreads
ury
RIS@@
WASH@@
corro@@
demon@@
actuating
aforementioned
caching
cruc@@
Cel@@
DD@@
Xing
compens@@
deco@@
hydroxy@@
oulder
Hou@@
Peng@@
TRO@@
bbing
Former
Macro@@
WINS
hus@@
ican
origin@@
predictable
utor
GER
backwards
intentional
seas
spac@@
Sensing
gus@@
presum@@
2500
Polymer
defeated
orable
s2
ector
ori
plateau
Nut
corn@@
Charging
Law@@
Recon@@
invi@@
Assembly@@
Performing
bores
DEN@@
Fuse
Mouse
West@@
intermedi@@
magnet@@
Bamboo
responds
sound@@
CG
Manufacturers
flag@@
hun
ometry
rains
stru@@
41@@
Iranian
Marxism
exhibited
orn
solicitor
?@@
CIRCUIT
Tail@@
resis
yland
axi@@
curative
ees
privately
SHEET
aces
breadth
haul@@
patented
shalt
SN
brushes
interconnection
widget
dist@@
donors
max@@
Syntax
Mass@@
BUYER
Enjoy
Hus@@
Tech@@
UE
dening
6000
ACH
influenza
posture
BU
appreci@@
cane
elo@@
anytime
dding
Analyzing
Consult
irrespective
Grounding
bankers
gens
Chil@@
Cruise
ital
pering
Expense
bes@@
butyl
thrombo@@
aston@@
Guinea
Locations
VTune
qiang
shit
subscribers
tices
har
ime
Bow@@
Trademark
genesis
hospit@@
inous
SST
WE
USING
happily
Fittings
Pon@@
Tan
barcode
cigarettes
evolving
ferencing
heavier
intensi@@
prohibit
propaganda
RIGHT
geotechnical
presently
trun@@
QR
Sec
charming
2019
appointments
ather@@
laun@@
sintering
dity
interpre@@
quali@@
toxic@@
ICATIONS
MOTOR
PROV@@
Servic@@
adviser
caring
icker
ionic
receptors
Outstanding
penetrate
predictions
terror
METHODS
immersion
necess@@
pi
confron@@
euro@@
materially
physi@@
ACC
amped
compelling
courtyard
indigenous
GRO@@
Generic
SENSOR
alise
atar
compartments
reorganization
retains
GET
Residential
Sty@@
dots
medal
weak@@
APIs
LESS
Mongolian
Na
Orange
annotations
db
dissemination
Bou@@
Shang
abil@@
climatic
job@@
warfare
NOx
S1@@
Song@@
hanger
sling
Edward
Flex
Luo
coupon
erical
halt
pur
Sat@@
cling
Dal@@
Highlight
INS
Sn@@
Zhengzhou
urinary
PANEL
Preventive
aser
aug@@
cords
ili
plasm
CAM
cultured
prisoner
sham@@
Leaders
Selec@@
accredited
bee
stadium
theatre
MEM@@
blessing
reminded
DES@@
silty
simul@@
Hoo@@
breathe
Jews
King@@
abutment
disadvantage
poin@@
stair@@
CY
Port@@
aux
gradation
lar
►
Dre@@
Harmon@@
ISH
marrow
pesticide
MAP
saf@@
urry
Maxim@@
liaison
Conflict
Rock@@
SUPPLIER
Therapy
comman@@
icheng
warehouses
Advertising
EQU@@
owning
steel@@
kling
Goldman
aton
unexpectedly
Lenders
inverted
junk
occupancy
shortest
vivo
cached
cautious
conflicting
datas@@
ech
payload
provo@@
stranger
mdash
predetermined
BER
Cultivation
Invi@@
Standby
constituent
gene@@
may@@
requisite
Grease
V8
anim@@
astr@@
knit
portfolios
Firewall
academ@@
nowhere
UST@@
chess
cortex
ladders
offences
practic@@
Appeal
Bend
antibiotics
asm
episode
expl@@
hemat@@
illegally
naval
uncomfortable
Capit@@
FEM
earth@@
empire
icy
nitrate
Forming
importer
ono@@
Membrane
PY
touch@@
veri@@
CCD
COOL@@
Guan
PDM
sad@@
xmlclose
FU@@
Fuzhou
pancre@@
coo@@
descending
pic
vin
Border
OS@@
bacterium
digi@@
revocation
voc@@
EF
adherence
bear@@
bulkhead
jer@@
mour@@
poser
Million
calibrate
downturn
fly@@
liberal
substantive
Bids
R.@@
jeans
ment.@@
miniature
spheres
Jacob
Panels
cl
fig
lipid
HEAD
brow@@
133
biochemical
iary
transitional
wears
gu
solves
zu
16th
shortcomings
Dead
Quar@@
snap@@
trader
ation.@@
shocked
shocks
µ@@
ALT
Computing
FIG
Gray
Polish
TRUE
atives
editable
inversion
Bun@@
IFT
archi@@
rently
surround
144
CPA
cytes
poisonous
Duct
Mang@@
complexscriptssize
cute
ninety
Milk
dao
discharges
kang
magistrate
Some@@
adjusts
merit
perforated
supers@@
atorial
r.@@
LIMITED
ceases
tertiary
asia
neck@@
ulus
DESCRIPTION
Yuan@@
craft@@
devi@@
prerequisite
scan@@
tes@@
Achi@@
Cali@@
IMUM
Massachusetts
assment
answering
name@@
ptive
revolving
380@@
Archiving
Hose
dewatering
differentiated
165
Arm
Config
coalition
disappointed
indul@@
train@@
txt
And@@
KPI
gations
Installer
Vienna
arose
cryst@@
harbor
inflatable
logistic
plantation
cular
econom@@
incub@@
infrastructures
need@@
pseudo
Goals
SCH@@
banner
Esti@@
eda
liberty
TL
beaten
parse
ulating
ytes
Mediterranean
Scroll
VW
faithful
marketplace
midst
orth@@
conical
dition
gloss
glove
rounding
Configur@@
complexscriptsfont
eman@@
flowmeter
parasi@@
strands
wondering
185
Pavilion
chor@@
intersec@@
luminous
panda
Adjusting@@
Q1
ancing
imbalance
quin@@
AA@@
ECTION
EV
Loans
adhered
analo@@
ounder
reused
Kang@@
Yesterday
diplom@@
endangered
group@@
his@@
metamor@@
nevertheless
propor@@
unsuccessful
iodine
wrong@@
BY@@
Excessive
gir@@
vigorous
Brow@@
Einstein
TIONAL
tracting
AK
Experiments
axles
consciously
effec@@
handful
newest
rides
10000
Zheng@@
chal@@
devil
handset
stamps
treats
uts
124
Detector
REMO@@
install@@
Access@@
Investments
bituminous
ilit@@
Jean
powerhouse
thermocouple
Haw@@
aired
hydroxide
nick@@
tao
transistor
porter
Displacement
Friend@@
Induction
SERV@@
Shuang@@
Subsequent
clerk
MIS@@
WC
ffing
temper
2C
Bypass
Spi@@
abbre@@
dication
explores
104@@
Driven
Author@@
Override
Pb
ghost
swir@@
warri@@
Syndrome
biodiversity
consequently
distinc@@
BACK@@
TY@@
inhabitants
origins
sterile
ASM
Empty
Lon@@
WR
Wine
LES
Recalling
discre@@
dou@@
electri@@
remarkably
BBC
Radial
Resort
SIGN@@
Crossing
Encryption
Fasten
Road@@
Endo@@
Pudong
booked
san
ª@@
8000
Analyses
Highly
torn
AIX
Bom@@
Flag
anese
cool@@
destroying
iPod
moist
Wild
declines
scro@@
Ethics
antigen
flames
humidi@@
Pure
quen@@
Commencement
Petrochemical
UTC
acious
algae
breakage
chromosome
dipped
issu@@
ulous
white@@
Exc@@
T2
forthwith
Earthquake
framing
supplemental
1.00
Fail
olithic
Baby
SOP
Weigh@@
arg@@
poli@@
unload
SIZE
_____
desperate
vigorously
voyage
MEDI@@
Home@@
Id@@
beha@@
obsolete
EG
Grinding
Wheat
ett
rang
Reci@@
herbs
jail
PURCH@@
aur@@
refin@@
ried
seemingly
shy
Drives
ci
incur
Decrease
Jen@@
MATERIALS
aesthetics
flask
ICK
Simon
deer
extinguishers
stirring
Calculating
Mt
congress
deactivated
ROI
twi@@
Compe@@
organised
press@@
vil@@
violated
Comparing
2O
Sponsor
bat
doctrine
franchise
lian
Alias
Implementing
cheque
counterpart
drop@@
pation
Neuro@@
cyte
geno@@
inking
reinst@@
KET
KIT
flaws
migra@@
FIF@@
VPN
configurable
descriptive
rative
OneNote
sunk
HTS
Shel@@
flooded
pid
Basketball
Finding
immersed
pedestal
sensation
separable
ured
84@@
wire@@
Calcium
Expl@@
NON
af
assault
hint
instructor
protests
pulls
superse@@
potatoes
sorrow
31st
Assess@@
D2
applic@@
ati
braced
forgive
supplements
Soc@@
bbed
bie
fish@@
storey
Guest
Madrid
Written
rectified
splash
Chicken
Deformation
NUMBER
Samsung
Thoughts
anxi@@
Addi@@
hers
spur
Di
Engines
PAN@@
floc@@
pathological
tifications
SCHEDULE
asbestos
dim
99.@@
BAR@@
amer
ceased
framed
knot
epo@@
permeable
tainment
compli@@
shields
accountants
therefrom
Selling
roses
smen
Forestry
Michel@@
ODBC
Restaurant
architects
dive
inductive
mentality
slu@@
Hua@@
Lay
Scott
Shipment
alcoholic
compress
Ports
diabetic
Tao@@
aerospace
function@@
Dollars
Licensed
amin@@
Gorges
alternator
distor@@
duplicated
152
17th
Impro@@
plurality
BS@@
leases
actress
amy@@
fins
fishery
microscopic
thinner
tribe
venous
vens
wanting
146
NER
alien
R1
Whereas
annealing
gol@@
multinational
Cayman
Epi@@
kindness
Agre@@
pedi@@
CHANGE
Colour
detec@@
dissolve
thly
6.9
ZH@@
attendant
dants
elds
jur@@
theore@@
Enabling
dex
implementations
overwhel@@
rebound
reclamation
sunny
Synchronous
persuade
prostate
COOEC
ICC
Imagine
Want
Yong
thyroid
Bos@@
Virtualization
chaotic
openness
torate
Organizational
embryo
rubble
Opera
boosting
identifiable
invol@@
leveraging
refinery
torso
tuned
Atomic
Flow@@
Lac@@
Sept
USED
circumference
unification
Dao
Gab@@
Success
faint
lenders
sang
thec@@
celebrated
jecting
refu@@
thering
CLOS@@
Lincoln
Phen@@
oste@@
phenyl
Multimedia
ambition
Zhuhai
territories
Sensitivity
dominate
worth@@
ABB
Acc@@
FIT@@
HR@@
YE@@
oak
Deb@@
phosph@@
spotted
Guideline
literacy
IOC
Tie
boasts
20m
SUB
psychi@@
Coordinator
Huan@@
OD@@
Participation
Speaker
hman
jets
Started
dredging
fter
inviting
silo
yu@@
compar@@
teries
aceous
boiled
doubts
cm2
dilute
diment
gel@@
Allowable
Chun@@
Lum@@
MV@@
Tilt
acrylate
centrally
minimizing
PPE
Well@@
found@@
owe
82@@
Injury
…………@@
Shock
predictive
roofs
Challenge
Integral
Sche@@
disbur@@
slip@@
208
Comm@@
PAT@@
Psychological
Son
ascertain
Toolbar
affinity
medic@@
retreat
Kid@@
LF
aning
eties
flashes
watches
AWS
Foot@@
Hidden
osity
tally
996
blows
requi@@
subparagraph
surprisingly
Disney
Joints
PRODUCT
Unexpected
lotus
200,000
gantry
manship
quer@@
BANK
Brush
Cit@@
Drum
WSDL
minimized
sufficiency
BD
Beauty
WORK@@
sticky
turbulent
violet
benign
mercy
miscible
reser@@
scaffolding
Oriental
annum
underwent
Depression
circu@@
impro@@
ough@@
-5
accreditation
Fit@@
Lack
reg
MIN
ectors
inhibited
tioners
trainer
¤
Antar@@
Hypo@@
nov@@
proof@@
sprinkler
ANALYSIS
braces
equitable
joins
lien
potent
AP1000
Amb@@
awa@@
brates
lan
less@@
pose@@
ticity
Fatigue
Telecom
aldehyde
dres@@
tron
100m
positional
prognosis
ARM
Standardization
Wi
geologic
memorandum
terrestrial
butt@@
ripe
ama@@
arbitrator
overheating
conju@@
jeal@@
revoke
tempered
KN
iterative
leaf@@
Words
aires
caliper
nes
ATT@@
Ali
ELS
MOUN@@
Nozzle
Really
merging
orbital
shook
ularity
raz@@
Mathematical
Rendering
SCO@@
docking
rench
intranet
olive
Beyond
Microwave
WP
occupies
sno@@
vised
【
Fus@@
Leg@@
PHP
REF@@
Scra@@
initiating
Fos@@
PK
Qu
ample
frontal
Attem@@
Subcommittee
ange
elephant
Stor@@
arid
donation
nAdditional
Eco
OE
ascending
photovoltaic
questioned
rib@@
Veget@@
agan
restrained
Calls
caten@@
directing
hormones
ingu@@
reflec@@
Les@@
Parti@@
overlap@@
pupils
tidy
Deletes
Mini@@
aerodynamic
concludes
regre@@
supreme
weathering
公@@
Membership
amination
subordin@@
________________@@
cathe@@
tionality
Bad@@
Indonesian
bride
pru@@
boil
deep@@
depicted
visu@@
不@@
Catalytic
Consistency
Discipline
Football
Rotating
alterations
yeah
Obviously
Successfully
acre
prudent
Basel
Interaction
Ortho@@
TURE
Turkish
nment
sands
IST
10.4
CIR@@
Legend
ateral
attacking
coagulation
eno@@
successors
004
escor@@
CONTRAC@@
Clari@@
RCS
estive
ocytes
Dream
Manifold
canopy
heels
learnt
pearl
vag@@
wle@@
Leaf
glaci@@
grips
stal
destiny
twine
Afghan
abdomen
eman
reign
weigh@@
Axle
aligning
parked
quet
Mold
galaxy
maid
180@@
Elastic
collagen
rically
stimulating
phy
smu@@
squad
throne
Excuse
Summar@@
Williams
worlds
acres
immer@@
spider
Macau
field@@
inspire
muscular
recurrent
bang
exam@@
Categories
Program@@
contribu@@
diversification
metallo@@
ﬁ@@
Goal
Marx
beloved
brigh@@
1600
1972
BOQ
Barcelona
1973
CERTIF@@
Drivers
Fs
Physi@@
Turb@@
chargeable
cons
GmbH
cuisine
paired
Consortium
Roads
deliveries
hepat@@
plumbing
reproduc@@
usted
xmlopen
Business@@
FILE
HE
constants
microbial
resum@@
V1
mountainous
Syria
covenant
latitude
peroxide
Portland
Tex@@
tled
174
Bell
Navigate
demol@@
lawn
ograph
shorted
simplest
cakes
Dri
Golf
Labels
evaluates
flora
shoots
skull
uh
advisable
pollen
Advis@@
Newton
ficial
grandfather
inoc@@
Dictionary
Stations
ery@@
grav@@
lates
masks
parting
LG
architectures
pesticides
slic@@
tsunami
74@@
Acet@@
OUR
UNC
moder@@
repetition
complained
crim@@
embol@@
intu@@
poten@@
Ky@@
aments
cyan@@
electrochemical
ration@@
troubled
tuc@@
wounds
Induced
oidal
tive@@
wing@@
一@@
Conveyor
inline
proportion@@
sities
soft@@
WH
headings
hibiting
DSC
arterial
dampers
dg@@
hydr@@
Supervisory
advisor
conveyed
elevations
hides
onau@@
vapor@@
weaving
Contemporary
Fly
delight
drip
mirroring
suture
torsion
ANGE
Bit
Reasons
coping
lieu
noodles
Chat
penetrating
pretreatment
tach@@
terminating
Candi@@
Hardness
anci@@
bron@@
withheld
=@@
M12
Rever@@
argon
cris@@
dient
piled
Jacket
PUR@@
cardi@@
concei@@
flotation
9.6
Bag
Connectivity
EXAM@@
G1
finest
Contribution
candy
consulted
ially
maternal
Keeping
camps
nerves
tique
83@@
9.7
capitalization
crush
Collec@@
desulfurization
hydride
vative
CW
MSC@@
Supplies
classmates
genome
hosp@@
manufactures
measurable
Simplified
lawfully
Cob@@
Reply
swear
Alternate
FAULT
scrap@@
smelting
是@@
atings
hospitality
Tuning
bli@@
dients
persistence
Aim
capturing
12.5
Margin
Ran@@
calc@@
evolutionary
gg
Longitudinal
mom@@
statistically
Compressed
jo
stakeholder
straightforward
telescope
1975
Tourist
141
Clicking
Kg
chromo@@
polypropylene
poster
wallet
COL@@
EHS
Seoul
UNEP
aller@@
alumina
reproduced
broch@@
ela
litres
oon
unhappy
DOS
Represents
cof
visor
yon
Screening
disengage
etheless
indicative
mortgages
obstruc@@
outdoors
stence
HL
Thre@@
Vitamin
aborted
automate
cognition
dispers@@
oce@@
skin@@
automobiles
circulated
diag@@
file@@
onian
pha@@
△
fractured
mortal
pump@@
rants
saline
199@@
Electro
locale
oilfield
8.7
Nor
Thirdly
ambiguous
Accountants
Begin
goat
peel
smar@@
strainer
LIN
Susan
consignment
RSS
Rigid
ADC
MANAGEMENT
tat@@
Hang@@
Hundred
Scenario
concession
lasted
sulphur
MP3
MU@@
Swing
photometry
sensible
235
Networking
negatively
trum@@
1974
Huai@@
inge
Name@@
gins
Preven@@
Regardless
Team@@
dwelling
Clamp
Meetings
shutoff
Chair
Jia@@
mming
odor@@
PTFE
iton
opponents
Var@@
slips
CVS
Patch
Trustee
anni@@
dark@@
dragged
tensions
touches
Clean@@
scratches
Carrying
Huawei
LINK
cus@@
ggle
Chu
Frank@@
Locking
PCIe
ense
nee@@
ogenesis
tori@@
Kids
anticipate
eBay
shortened
collec@@
GENER@@
Lateral
cks
dialo@@
downloads
CTRL
Excav@@
Heaven
Stroke
abling
advisers
dolph@@
trait
.3
115@@
LAB@@
Spiral
genius
Wales
flex@@
precursor
tribu@@
Aes@@
Reserved
dus
romance
closures
salad
transmit@@
Corridor
EO@@
cline
retailer
trop@@
Cuba
march
Cape
INSTALL
RFID
Xian@@
tungsten
dential
pip@@
Revised
austen@@
Few
Fortune
forma@@
usive
ICs
cruel
that@@
trate
exams
Activ@@
Bracket
PCS
Sliding
audit@@
judgments
zens
MACHINE
RI
Vegas
bugs
desk@@
hyste@@
1.25
Cher@@
DEF
istics
Model@@
cosmetic
ov
polar@@
shaded
Kon@@
SMEs
cla@@
conve@@
folks
AUTO@@
Gravity
PROTECTION
Taipei
Thick
brittle
contravention
hydration
lathe
shrinking
Fix@@
affiliate
blan@@
casualties
quake
Checklist
Extensions
moon@@
Philosophy
mination
tanker
tapped
Hoist
apples
waterproofing
alarming
gut
hourly
impregn@@
surviving
timeline
BASE
Invol@@
deg
pinch
slowed
translator
Flower
Maker
advoc@@
wt
136
GB50@@
NPC
baseball
bulbs
conveyance
ditors
onally
peasant
stained
travelers
caller
ilin
leaching
Changsha
Examine
garments
stunning
Kennedy
prey
scen@@
yle
Atmospheric
padding
Apparatus
Battle
immobil@@
sourced
derer
levers
Essential
Generating
controversy
moreover
reti@@
perpet@@
tants
vil
72@@
Beginning
DETAIL
practi@@
slowdown
305
Channels
MENTS
Rang@@
hydrolysis
tionist
competitions
countless
derrick
excessively
Form@@
crystallization
theses
Celsius
TCO
Weekly
irritation
recognizing
Passive
UML
dop@@
executes
lectures
milestones
plotted
138
Created
Peoples
buck@@
dious
illumin@@
powders
Measured
briefing
detailing
fourteen
polis
wave@@
Taylor
birth@@
eviden@@
qu
Retry
gle@@
guan
Hex@@
Slow
aba
choke
polygons
Jur@@
Las
adhe@@
hips
spro@@
POS
Regions
analysing
bonuses
flatten@@
parsing
prepares
reac@@
NBA
arteries
entran@@
fon@@
step@@
Autom@@
Carolina
Entrance
Likewise
ejector
formul@@
magni@@
trimming
Communicator
ORT
liners
naph@@
ologist
Baseline
box@@
clones
ground@@
polite
absorb@@
ato
memorial
screened
tang
Unicode
satisfactorily
shortcuts
BA@@
Nanch@@
System@@
ancies
chill
discounted
glyco@@
intimate
versatile
inequality
quotas
undergone
PLO@@
baffle
ischemia
jun@@
persist
rents
Catholic
Suggestions
fide
nYou
sies
tricks
Evaluate
Particles
encomp@@
incredibly
outsole
silly
valid@@
CBM
optimis@@
Elec@@
Reinstall
TS@@
Way@@
blew
bu
allergic
practitioners
acidic
inquiries
Breaker
bore@@
holo@@
Adam
Ai@@
WO
remittance
ILL@@
row@@
senti@@
therm@@
A.
Crude
Osc@@
amph@@
brokerage
infer@@
rear@@
rough@@
stalk
Abnormal
BAT@@
Corps
Psychology
cuc@@
physic@@
AUTO
Nine
Reflection
logger
Mai@@
Sino@@
Win
addle
cong@@
conveyors
dences
intersections
lik@@
presen@@
MPS
Specialist
intentions
maneu@@
tactic
tour@@
ycles
Contrast
DRAWING
Issuing
asymmetric
garlic
perio@@
Squ@@
caus@@
hibi@@
pleas@@
Biom@@
Profiles
Sky@@
bloom
icle
ores
Yue
candle
chimney
disputed
ed.@@
oper
pyri@@
Defined
insists
kHz
Angel@@
BH
atter
dwell
educate
pursued
ND@@
Northwest
handing
oceans
suffix
tch
Absorption
junc@@
pments
slack
subscri@@
Arrange
Continued
Suppl@@
asers
deems
eddy
extinction
hrs
Changchun
esty
respondent
GHz
Interests
Laos
lead@@
modeled
Caution
Gang
Proven
Scheduling
blockage
expounds
kindly
onate
Conve@@
condensed
ony@@
anticor@@
foreseeable
hies
omissions
transmits
LY@@
blow@@
champi@@
cott@@
exotic
Constraint
Severe
Mandarin
Visibility
Wuxi
Zo@@
housed
reflector
verte@@
Volkswagen
Whe@@
energies
refueling
rooted
strati@@
stripped
2.0@@
halls
Ticket
daytime
enjoyment
reluctant
unc@@
worthiness
asse@@
gle
inhal@@
valent
Competent
bargain
disconnection
installment
sements
buty@@
civil@@
kel
ml@@
var
GC@@
Recover
Talent
tomato
Constitu@@
Smoke
builder
practiced
stochastic
w.@@
Kat@@
cho
royalty
Bed@@
PCM2
insurers
lowers
resultant
1mm
Species
Vol
criminals
hibitor
tandem
-4
Hay@@
degra@@
grief
ida
spectroscopy
Campus
HDPE
SCO
cantilever
dev
illation
mati@@
Card@@
Organisation
aked
Desk
Eu@@
Gil@@
centering
clarified
Alt
access@@
arial
aunt
authoritative
disables
donated
slim
tendering
130@@
anine
fraudulent
ocyte
priming
wares
Icon
Wai@@
appren@@
juvenile
stabilizing
him@@
antibodies
photographic
COG
Theore@@
bale
manners
Continental
ILITY
Mailbox
highlighting
total@@
Chan
Instant
fairy
fici@@
investigators
tenderer
FrontPage
Placement
sk
vocal
TWO
Treating
resilience
continual
divine
smoothing
Bo
Dist@@
UTION
Wet@@
carving
dicate
30th
SPA
Tum@@
livelihood
transaxle
Nodes
UR
terrace
1977
Qualcomm
interro@@
joy@@
wic@@
Ok
nitro@@
sour@@
violating
bother
AAA
agile
blood@@
shan@@
Accelerator
sket@@
Classi@@
Considerations
IRS
Classes
latex
wiped
Exam@@
grandmother
Crack
Handbook
Soccer
bail@@
browsers
culverts
haz@@
helical
normalized
chis@@
discer@@
recordings
AMS
Lei
realised
Jum@@
cloning
illusion
wer@@
BACK
BLOCK
Lun@@
Sheng
ishable
sheer
facsimile
iring
lazy
STU@@
rev@@
Dashboard
Included
geometrical
Calcul@@
Centrifugal
Thousand
Wri@@
aven@@
classifications
launches
mr
operable
splines
Waiting
amortization
auc@@
eligibility
voluntarily
Call@@
Tap@@
slump
smartphone
vibr@@
Plas@@
Wall@@
grape
melon
polling
DFI
DISTRIB@@
Dipl@@
Furniture
gym@@
heroes
stray
IOR
Periodic
borrowings
opposing
slices
Duc@@
distorted
housings
s1
sear@@
clearances
reportedly
revert
usability
wondered
316@@
bounds
omy
stir@@
tuition
LL
Mainly
bombs
lus@@
outflow
prefabricated
prospectus
shortages
slipping
DES
VT
manned
roo@@
206
KM
Show@@
Stephen
Traction
Transient
Vir@@
atum
immigrants
jac@@
CRO@@
F3
MIT
SAFE
breaches
constructs
particul@@
129
Part@@
branded
detached
hlink
signalling
"""""
Ah@@
Percent
enamel
plasty
scu@@
teric
220V
Arsenal
Efficient
Poly
Revol@@
achment
amplification
itous
Bone
Struc@@
bure@@
expand@@
glorious
judging
posium
BQD
Everybody
aper
expressway
trousers
Bern@@
FLOOR
Fon@@
Mn
conden@@
counsel@@
decei@@
dehydration
influ@@
shot@@
Deed
Removes
Seven@@
bail
foreground
Brun@@
CUSTOMER
Decoration
ENG
Pentium
agged
matically
visco@@
destro@@
reness
GEN
athlete
colour@@
shunt
sit@@
Upload
blessed
overwhelming
rearward
thief
CDMA
CONCRETE
Miscellaneous
Source@@
brut@@
distribu@@
expres@@
liquefied
vitamins
window@@
Healthcare
indi@@
Blend
HI@@
Groove
KG
coinci@@
rugged
vibrant
zo
SIN@@
apex
hybri@@
etching
improperly
imagined
instal@@
oles@@
server@@
substrates
weighting
APPENDIX
Fusion
Indemni@@
cultivating
desp@@
DIAG@@
Dol@@
RN@@
bao
blowout
ez
gratitude
imposing
subdivision
Enhance
Fle@@
cyber
urable
Zones
aggregated
complexes
itive
kicked
radiated
visions
insulators
interfer@@
ppy
reflections
Ding
akamai
irrelevant
niche
periodical
puzzle
-10
CSR
Corruption
Essenti@@
RESULTS
Trav@@
cinoma
lodged
pronounced
uch
Affiliates
Eigh@@
ISA
Modifying
Taliban
denial
ins@@
sounding
Arch@@
Hard@@
absor@@
compiling
disturbances
fo
medications
normative
parame@@
wilderness
Mutual
compensating
sac@@
Going
attacker
calligraphy
carcin@@
dataset
denominated
predecessor
scraper
ACS
EAR@@
comma
illustrations
postoperative
93@@
Confi@@
Dynasties
Utili@@
coordinator
erk
threaten
73@@
Clev@@
YO@@
enrichment
guarded
capitalism
rescent
submits
xon
&amp;@@
follic@@
11.3
Acceleration
Leon@@
credible
shutting
stripe
sunset
Bending
IAS
ansas
lling
resonant
soaked
Insufficient
tailor
C3
Liang@@
Shun@@
adul@@
rectal
1971
Illustration
Kai
Speaking
anomalies
feared
PARTS
Prospect
Scanning
UCS
situ@@
swim@@
andy
hairs
Extend
Vul@@
microscopy
observers
Argu@@
Earth@@
Giant
Jus@@
LOWER
desi@@
refine
AMET@@
DOCU@@
Equipped
amer@@
heigh@@
shrimp
shareholding
1,000@@
bees
installs
rebuilding
MAY
SCRE@@
Sony
plaintiff
surro@@
taxpayers
Epoxy
buffers
fall@@
linen
reason@@
9th
Bills
Indirect
admir@@
pipe@@
swa@@
tow@@
Jam@@
Kur@@
elet
extruded
ired
urgency
CONDITIONS
Lever
Logon
B3@@
administering
fibres
floppy
martial
Introduce
program@@
scor@@
Doors
ninth
turbo
RESI@@
Stack
compe@@
ui
Cooperative
DIN@@
Mental
analytics
bushings
exhibitions
prepaid
recruit
skipped
Jinan
burgh
kinetics
mirrored
Clock
Tim
nomination
punish
exchangers
convince
gate@@
stell@@
Environ@@
Moder@@
corridors
gade
ordination
priests
restarting
Across
Lux@@
Oh@@
convene
nutri@@
splendid
statute
Eur@@
Theme
Virus
cardboard
iners
ingual
sever@@
weakened
accomplishment
attaches
avoids
eyel@@
Latest
Palest@@
artic@@
ordinate
kel@@
refreshing
Blu@@
OSE
souls
bushes
certainty
chair@@
coaxial
HP@@
MTA
discourse
156
FUN@@
Map@@
Turbo@@
buoy@@
seafood
interconnected
mark@@
migrating
recognise
Kan@@
toilets
Eventually
alizes
bru@@
implantation
recreational
shr@@
Blank
Curves
TEL@@
WILL
headset
phased
JI@@
changeable
exploded
resilient
rit@@
Band@@
Boom
SELECT
announcements
legisl@@
sketches
tub
usal
vibrator
chet
item@@
submissions
Arrow
dug
ineffective
solem@@
Fluores@@
alis
laden
pathways
reproduce
tagged
Selects
feudal
infusion
Liter@@
NB
Ow@@
Strain
allied
cinema
hydrochloride
mechanic
normal@@
JavaScript
Tissue
Zhou@@
dendum
duced
tense
twisting
IPT
bral
examines
neatly
testimony
Adhe@@
grinder
xen@@
0.4@@
Medi@@
Portuguese
Rooms
catalo@@
eship
1960s
Irrigation
Er
blur@@
legendary
nos
wicked
Neu@@
gical
heres
market@@
mits
speeding
Proper@@
bundles
itely
wered
IFRS
Nearly
hinges
melted
picks
shiny
vulcan@@
Roles
Span
bering
concep@@
radiant
synchronizing
APPLICATION
Moral
ean
fascinating
journ@@
md
slept
Ledger
MG
Permission
SPs
expresses
fingerprint
frog
linguistic
ushan
envelopes
fluoride
listener
turally
850
mailed
revealing
sanction
Alexander
ETS
Metals
apparel
omers
ERING
Rid@@
2S
CIAL
Stadium
Test@@
cousin
standalone
Broker
ESE
KED
herbal
itrile
rebuilt
AML
CU
Nos
enic
fungi
tournament
14th
aband@@
delighted
font@@
reservations
Alpha
Manhattan
quicker
Innovative
Stick
decon@@
mined
polic@@
unanim@@
137
ARE@@
cadmium
collaborate
luxurious
spectrometry
Decom@@
False
Fortunately
PROPER@@
addic@@
commented
fisher@@
standardize
entropy
mins
paused
pendulum
tometer
bottleneck
pushes
Aci@@
Magic
Yun
comedy
dible
uphold
Signed
Unlock
WHEN
enger
escalation
Officers
sequencing
Auth@@
Quan@@
Virgin
discrepancies
err@@
oz
ricane
94@@
Que@@
Voucher
mappings
CASE
Discus@@
Issuance
Ss
coal@@
exual
gesture
subcontracting
It@@
deductions
privileged
seminar
peculiar
seedlings
walled
TP@@
Tanzania
closet
metallurgy
utmost
Dangerous
Mercury
Michigan
dically
dwar@@
covenants
duous
legible
racking
Dedicated
entitlement
ressed
unbalanced
Ok@@
Seamless
TEST@@
enthusiastic
iPad
staring
Collaboration
Pictures
Spac@@
TEE
coral
popularization
sewer
Proxim@@
agne@@
anny
blamed
restraints
river@@
thouse
512
ONAL
OUT@@
Pending
UX
pollu@@
sofa
viewports
warm@@
Anton@@
Colors
Foshan
Fracture
CSA
Matters
YL
authorisation
vests
vol
FLOW
Incoming
Quaternary
Robot
disturbing
ternity
Idle
Slowly
biting
needles
proprietor
sponsors
9000
Deal
arsen@@
Exclusive
Guang
Lanka
ageway
energetic
metabol@@
plings
YES
decry@@
interviewed
temples
μg
Congo
Hawaii
Recogn@@
dang@@
oscillator
pt@@
XY
airy
fill@@
fractions
hostile
CDATA
crashed
oner
osmo@@
pros@@
ADB
QUE
Were
______
comfor@@
congenital
Tac@@
apartments
legi@@
uric
PROVID@@
cost@@
existent
humid
plywood
troubleshoot
Rig
anes@@
coccus
progressively
receptacle
restores
scav@@
staffing
zhuang
303
7.9
EI
lethal
liqui@@
silic@@
then@@
Bearings
coaches
cows
restrictive
Interference
crises
electroly@@
quette
Conventional
PRO
cradle
ectomy
Erection
Filtering
Informa@@
NDMP
abra@@
13.1
BRAKE
Mandatory
REPORT
Wo@@
coco@@
peg
Facing
ONG@@
Xie
easing
restricting
thfully
trailers
Ca
entrusting
forehead
traverse
Quarter
dys@@
lemon
model@@
warp
23.@@
Bry@@
Fur@@
adder
urb@@
Fertili@@
UNDER
embodied
gastrointestinal
Associ@@
Coke
Nutri@@
deletes
Equations
Purification
deter@@
spect
Ef@@
Governmental
Inserts
i.@@
mative
quity
them@@
114@@
Alli@@
CCP
anchoring
diplomacy
ei
loudspeaker
Kevin
Miao
Owners
authenticate
hia
seizure
Corrective
chec@@
embo@@
fum@@
levied
passionate
ull@@
Apr
Eric
Spectrum
ditions
dles
scent
soak
ASH
Color@@
E1
Fourier
anthro@@
Andre@@
collectors
enlarge
inee
inno@@
queried
recess
terrorists
Any@@
divides
meditation
navy
runners
Centralized
List@@
Optimum
Xuan@@
repaid
roid
Poll@@
Zhangji@@
exci@@
transp@@
ROU@@
absorbent
hid
referen@@
scopes
Abraham
Ba
MID@@
VB
transactional
ug@@
30m
CONCLUSION
Onshore
distilled
keted
mbling
worrying
AIN
Cooler
ProductName
Was@@
crashes
implic@@
inquire
interpersonal
stool
802.@@
ennium
fractal
submit@@
25.@@
MANUFAC@@
Slot
amy
spends
unsuitable
Affected
Secured
handy
sexy
wat@@
Anth@@
dyes
rework
teenagers
tral
WARRAN@@
expon@@
screws@@
EGR
Recommendation
Rise
Sulfur
Zhi
amortized
bath@@
dor
transforms
192
appraised
decor@@
inject
sheetmetal
30s
Friends
Life@@
Nur@@
OT@@
Opinions
POSITION
Tiptronic
inaccurate
warding
Spre@@
ashan
departmental
fragmentation
hydrant
itating
mudstone
multicast
subassembly
DY@@
Invitation
Milestone
Nucle@@
guardian
overcurrent
polish
Household
Oxide
compassion
ference
IQ
Qui@@
imply
nonconforming
photographer
stings
tailgate
ALE
G2
delu@@
opaque
philosophical
Cool
IPC
PARTY
Warran@@
concise
remin@@
sprin@@
stub
wom@@
worms
Syllable
Wilson
acous@@
hearted
routinely
sporting
BK
FIRST
Protected
Trouble
nion
scandal
Metering
PPER
Phys@@
aler@@
ults
MBA
Tol@@
dier
multiplier
screwing
Mei@@
Temp
miti@@
thefers
urely
Putin
Retro@@
Whit@@
king@@
labelled
reforming
backgrounds
categorized
communicates
conservancy
jud@@
Fang@@
POINT
apt
bachelor
defending
graceful
mineralization
aggres@@
embro@@
federation
Prompt
feast
outfit
shouted
torture
J2@@
guilt
midsole
subcontract
indentation
Borro@@
simplifies
Courier
Scan@@
Surge
ema
Deleted
Diseases
alleviate
credential
Slip
animate
sr@@
Canal
Detach
FCC
Starter
awake
No.2
compensator
Computers
Curtain
Zhongshan
aerobic
breather
ickers
Collabor@@
Ed
ND
THER@@
intelli@@
plau@@
Restric@@
eity
oction
panor@@
º
2025
Lao@@
XL@@
blends
iss@@
tate
vas
weather@@
Circulation
GD@@
Minutes
WR@@
callback
gings
lesion
preferable
unre@@
Alex
Hui@@
SQL@@
Site@@
cotic
⇒
AO
Provisioning
bered
dries
incl@@
journalist
lad@@
noticeable
pc
mission@@
13.2
Covered
Hg
RENT
Treated
aine
bill@@
punching
Had
abnormality
headlamps
literal
outboard
vill@@
Quantum
TAR@@
forums
introduc@@
&bra;&bra;
Corresponding
Regulator
etype
replen@@
2x@@
310
carton
cookie
Doing
Progres@@
guang
torsional
.html
Chromatography
Departments
Lei@@
Liao@@
NetApp
PERFORMANCE
appealing
ary@@
propelled
Mathematics
Retaining
Stand@@
advocates
brac@@
Campaign
Identifier
PORT
bies
chord
Proce@@
Qiao
Zhao@@
bargaining
bribery
Prin@@
Rd
basics
criticized
FOL@@
gous
itarian
oily
vesting
recur@@
stol
telecom
vae
MIM@@
directives
fundamentally
globin
fox
lot@@
Islam
bins
epilep@@
7m
desic@@
pless
Jeff
kai
Precautions
deliverables
descendants
rape
DK@@
SOLUTION
beforehand
gons
icro@@
verbs
Bear
Liabilities
Pale@@
REQUIRED
Westinghouse
alph@@
cherry
recourse
stab@@
transferee
Camshaft
commis@@
diarrhea
lied
EVA
Ribbon
emit
septic
tigation
Bau@@
Initialization
stur@@
unrelated
Import@@
appeals
embodiments
franch@@
gency
isted
performers
sounded
Lesson
Prepar@@
Xiaoping
foul
tariffs
Pennsylvania
Recep@@
multiply
IPv4
atement
cubicle
foolish
hostname
mail@@
staple
superb
0.001
Depos@@
PHO@@
EMI
Kh@@
PAGE
onboard
patching
1.2@@
Houston
Injector
Spread
deline@@
pedia
therefor
verifies
yan@@
cartoon
flats
teaches
tilting
veness
123@@
22.@@
Containing
Sever@@
SupportAssist
Washer
bud
Deck
Hyper
Sarah
sulf@@
suppressed
Dai
Enzy@@
Surveillance
pioneer
prop
HIB@@
Libraries
endure
Industri@@
dedication
meshes
unsaturated
Acoustic
Cav@@
CommScope
DOT
armament
fear@@
pests
spike
suspects
1960
beast
exiting
listings
sponge
strang@@
uting
Chloride
Oral
Park@@
Regi@@
easiest
misconduct
wagon
Electron
finances
protections
stub@@
Ohio
whir@@
Fen@@
Hei@@
Purch@@
HQ
litter
scatter
unfavorable
005
DAM@@
Peru
REMOVE
com/@@
kne@@
Ink
Inverter
LOGY
Mexican
Thom@@
expounded
loosened
purging
Chap@@
Filename
Pu
TERN@@
entrepreneur
iconic
kindergarten
ku
reversible
Ep@@
Nano@@
Warm
beneficiaries
pneumonia
Athens
Brit@@
DIC
Norwegian
Proportion
calli@@
ka@@
skeletal
Connectors
Trus@@
excre@@
traumatic
Countermeasure
FRP
Overhead
Vessels
alig@@
clu@@
cobalt
kilometres
mos
socks
zz
FIRE
LO
armrest
halves
moul@@
refugees
Wing
glazed
migrants
mother@@
thetical
302
Weap@@
cel
ert
icular
mutations
programmer
specific@@
squir@@
table@@
tize
twork
beverages
potenti@@
antagon@@
labs
READ
Trans
latent
rom
struggled
8mm
argu@@
discovering
exporter
olig@@
slender
substations
unpredictable
Center@@
Cere@@
DUR@@
Om@@
Wells
isotropic
weird
wished
HBAs
SCA
antioxidant
elding
INDUSTR@@
follow@@
keel
thu@@
Cros@@
UP@@
demo
dox
frustration
inher@@
matical
recommen@@
seedling
transcen@@
uterine
captures
declarations
elites
mus
oda
ologists
structuring
200s
Parents
cidents
dermal
lite
relieving
FULL
earthwork
solidi@@
staircase
Enforcement
INC
Sphere
berth
exploited
ferry
roll@@
QM
cosmic
dazz@@
impacting
soldering
1100
BOT
Losses
TECHNICAL
chir@@
fail@@
KA
bearer
dumped
helper
iv@@
sburg
ASP.NET
Beli@@
FLU@@
InControl
Item@@
budgetary
fort
lion@@
142
Cultiv@@
Intensity
cosmo@@
seventy
tracts
arize
licences
operatives
superficial
tress
trust@@
SURFACE
TION@@
pulsion
saith
thefee
163
H1
Hefei
Saf@@
bye
disabling
mian
neph@@
publishers
slaves
terminates
BEL@@
ashi
circuitry
gi
humble
therewith
ALLO@@
Pick@@
WAN
itosan
racy
threading
torques
valleys
Affiliate
anthropo@@
axing
engers
CRF
LAB
Trusted
alogue
diary
myth
COD
Demo@@
Safe@@
Slab
dow
hast
omen@@
sium
xxx
BN
CAR
Found@@
Lig@@
Symbols
accesses
athon
chase
clas@@
repetitive
Fav@@
Stem
headlights
landscapes
scar
CBR@@
LIGHT
Win32
aber@@
knitting
spacers
Config@@
Reduc@@
Tips
sitions
Loctite
bark
iliation
ldquo
optimism
qin
shop@@
OPERATION
complication
inks
overs
utors
bays
BOC
Wid@@
Conting@@
Timer
contr@@
jointing
pyramid
topographic
ELECTRICAL
Peninsula
adjoining
enta
negotiable
vising
volcano
Calculated
Toronto
elf
pragmatic
Beef
Camp
DK
Differences
Fair@@
Girls
Scar@@
railroad
safeguards
Astr@@
Visible
hubs
mammals
ritual
ADJ@@
Rain
confiscated
evo@@
tina
vacancy
Braking
Ell@@
aroma
edged
erts
metallurgical
payer
procur@@
21.@@
Gong@@
Heads
Hierarchy
PMC
Protec@@
Signing
census
confis@@
conspicuous
enumeration
Ambassador
Confucian
Marks
Pharmac@@
Tiger
aint
esteem
ofthe
shorts
365
Gear@@
NAM@@
aping
fc@@
icacy
mosquito
torial
undoubtedly
EACH
Established
FAST
Alice
BETWEEN
Nov@@
donations
overspeed
protesters
stopper
.If
Paid
Restra@@
Sep
dismiss
miners
420
Favorites
Metadata
Shopping
Toler@@
exporters
guaranteeing
ming@@
xel
Freedom
Gun@@
Serum
Ways
princess
reusable
safeguarding
soo@@
staged
tta
Potassium
grapes
scarce
Bla@@
Gao@@
Tet@@
aga
breath@@
Volvo
ductile
kes@@
lading
plicate
Assemb@@
Princess
ammunition
conscience
fastness
thou@@
vain
TRY
pills
Aggre@@
STOR@@
acetone
izon
magical
practise
Bangkok
Base@@
Engagement
EO
Fall
Proceed
matism
kadov
painter
weeds
134
decree
electromechanical
severance
Embassy
TX
Already
Behind
Effectiveness
Imported
Proposals
ancheng
led@@
micron
resur@@
streamline
wraps
6A
destined
keting
norm@@
sionally
takeover
Americas
Pharm@@
Story
appearances
diction
overweight
suspicion
manus@@
Hungary
PivotTable
Superintendent
VT@@
abortion
damn
esters
fond
isolator
sche@@
tendon
Acry@@
Ag
ECB
Jurassic
Paul@@
anesthesia
countermeasure
distinguishing
intravenous
pulsed
tisation
BL
Guaranteed
Jeff@@
NR
Peng
cm3
ecosystems
Applies
antic
conclusive
funnel
Ban
Explanation
Occur@@
defen@@
mem@@
oC
vinegar
Luo@@
Vent
Visio
powering
renov@@
Delhi
Elevator
ballo@@
clipping
kov
transmissions
Flex@@
cohesion
seis@@
上@@
KO@@
Survi@@
eder
editors
fantasy
vaccines
aran@@
deployments
iry
renminbi
sights
Into
Mayor
financially
footing
gentlemen
reconsideration
totals
Assemblies
GT3
clamped
ghtful
guide@@
shad@@
stimulated
waived
Depreciation
cious
grind
halfway
kWh
miracle
pill
BAR
ICA
Subsidiaries
compromised
lately
lottery
tenure
-Determination
Brain
Eve
TCC
averaged
exchanging
member@@
sings
surgeon
Lebanon
Maria
WARD
Xian
eighty
149
locator
pris@@
stances
video@@
wling
,Ltd
Desert
antennas
lingu@@
nitric
performer
town@@
Alaska
BOLT
altering
believing
MMC
Methodology
Monaco
Oriented
Sense
TEMPERATURE
cavities
imming
176
Regis@@
Sanitary
attenu@@
entrust
inefficient
trophy
zen@@
Promo@@
ROOM
diagnosing
ession@@
modulator
swi@@
switchboard
Ad
devo@@
pl
suit@@
Defence
Threaded
correc@@
fungus
transformations
Consultation
Sab@@
Hexagon
adapting
api@@
repurchase
arding
arro@@
bay@@
branding
drafts
entru@@
gorgeous
ount
Danish
Elev@@
PSA
thicker
tro
MIL
foaming
originals
prohibition
shack@@
slash
375
beaches
colum@@
grapher
hil
OTH@@
SIP
SPE
basal
dynam@@
mary
Discrete
Honda
Ignore
RTD
acidity
ologic
pboard
silencer
Announcement
Chaoyang
adic
sacchar@@
9001
Modes
arsenic
rol@@
vertebral
Keyboard
Mah@@
Trends
shroud
Ever@@
Gaussian
SES
stakes
0.75
dowel
ggy
retire
3C
BEARING
Boxster
Clearly
Drying
custodian
qi@@
reconnect
ECC
euros
quotations
AIL
Sinopec
bounce
pendices
ripple
tram@@
Charges
Chronic
EBITDA
fucking
fundamentals
sadness
Nutrition
boron
oval
perfor@@
vague
Talking
dispat@@
inden@@
kinson
practitioner
rivet
Chev@@
GMP
STS
firefighting
impair
lasers
promin@@
FIELD
Quarantine
fascia
fertile
ghter
mandrel
solubility
stains
vene@@
RESPON@@
Trigger
date@@
lubricate
soot
ture@@
4,000
Chong@@
RUN
Recur@@
ascertained
characteris@@
editorial
feather
hover
implication
permitting
139
Curriculum
Indians
LET
bbles
dialect
meg@@
topped
BOL
MECHAN@@
recalls
sigh@@
sore
Am
selec@@
uminous
zoic
Alcohol
CIS
ICH
Mart
atus
forge
irrevocable
rad@@
stitute
ween
BM@@
Designation
benefited
mixes
stic
vacant
decou@@
fading
imagery
toring
unfortunately
ARC
ASSI@@
INTERNATIONAL
Jim@@
Opportunities
Rho@@
Telecommunications
Welfare
dite
macros
oprene
recruited
vement
FLO@@
Isra@@
PROCESS
sured
Lanzhou
ceilings
occupant
stirred
AASHTO
AH
CSS
Explore
crowds
gments
occu@@
supple@@
tribute
Certainly
Ge
fric@@
objections
underbody
NOW
Sahar@@
creator
digestive
restraining
ruins
ACL
Aiming
Nation@@
capsules
customary
stitution
sys
umen
Equal
Fundamental
H2O
Storm
cultiv@@
maneuver
ILM
ROAD
battlefield
clues
landlord
Concessionaire
IENT
Modular
dismissal
loess
promotions
stole
Continuity
Said
Six@@
accelerometer
accrual
interpreter
oun
spun
和@@
162
BT@@
Changed
NPS
Storage@@
lighted
theessor
SRS
Senator
itance
manhole
oma@@
shank
CMB
Kind
Wild@@
ZZ@@
banquet
bowel
desal@@
mediated
spot@@
Hat
anate
Binary
Signs
gor
-Part
10,@@
Quo@@
cils
dited
manoeuv@@
photon
relativity
watertight
AFTER
Oxidation
Sensitive
Tobacco
athletic
civilians
referral
zu@@
Datas@@
Gang@@
bile
chemically
nels
scholarship
urgently
Boys
charcoal
Foot
LOS
powertrain
unconscious
BB
Nam
Wood@@
rebel@@
textbook
tifying
PAY@@
Plates
Specialty
magnets
tainable
vocation
ATH@@
IPR
Innov@@
Thi@@
impurity
onymous
receivers
Casing
inconsistency
undue
verable
Stamp
constituting
restrain
ward@@
Coverage
GAS@@
MES
Secret
Worldwide
161
landform
quarry
Circulating
Mask
Obligor
acknowledgement
ami
ordinarily
ware@@
Corner
DG
matrices
petro@@
regul@@
strangers
tilis@@
Toggle
denom@@
inating
stine
titration
-40
Po
bronchi@@
deficient
lings
Analysts
Cardi@@
SimSun
bred
ich@@
lav@@
lins
organis@@
proposing
squee@@
ITI@@
Rats
URLs
emic
182
Leaves
concentr@@
widths
DXF
Seek
Sleep
conceived
periphery
zoo
Gol@@
curiosity
followers
liter
tionery
unavoidable
profiling
00mm
SO2
Shakespeare
inbox
oles
urity
1900
diamonds
emitter
0.02
108@@
Ec@@
HAZ@@
Institutional
assists
dently
fashioned
inconvenience
licen@@
story@@
yaw
BOARD
Dean
Fraud
Lag@@
Suction
Walls
esp@@
Clipboard
Fan@@
Participant
SU
comra@@
disp@@
melan@@
populate
semic@@
Explosive
Pel@@
dios
edits
plenary
rdquo
dismantled
obstructed
elong@@
kinase
yourselves
God@@
capitals
uplift
Determin@@
Topo@@
Turkmenistan
careers
discomfort
ju
regulates
Breakdown
SFP
essive
randomized
rue
15.2
AWG
CHEM@@
Hood
VENDOR
convection
deficits
embry@@
fats
sus@@
Entering
Pit
deactivate
epithelial
griev@@
hesitate
inhibitors
oti@@
programmers
stral
125@@
Gall@@
entrepreneurial
freshwater
helium
tending
treas@@
178
Quad@@
SLA
Spaces
VGA
debut
middle@@
tions@@
Optimize
buo@@
erc@@
percentages
unite
Ⅰ
Linked
Postal
aa
expndtw2
guarantor
ido@@
injecting
snaps
swallow
Clar@@
Gothic
Graduate
inoperative
orite
politically
158
Archives
Discover
ERE
G20
Requisition
Writer
consisten@@
rip@@
Fox
addres@@
hedr@@
salvage
stuffed
takeoff
tators
Civil@@
Cus@@
Nat@@
WING
curtains
repositories
theile
Consum@@
Cryst@@
Defaul@@
Nai@@
WER
agility
alge@@
alin
ellation
tific@@
ENER@@
MAL
Transformers
belonged
despair
Juven@@
Marxist
Page@@
Penetration
catheter
crete
desper@@
eption
gravitational
manifestation
stacks
contradic@@
insically
prescribe
punc@@
Dividen@@
Entities
Gul@@
Zedong
abolic
formulae
horns
querying
speed@@
widening
Alerts
INSPECTION
Illinois
Inclu@@
beacon
ryst@@
yn
148
Aaron
Cameron
cavitation
crab
hoe
onium
preparatory
yoga
1The
DSU@@
Nevada
Shui
jav@@
vii
Holiday
fragrant
sea@@
secretion
tours
Bullet
MEASU@@
Optimized
arbit@@
cancers
mock
refresh@@
stretches
EDI
arians
dio
rock@@
Controllers
FILTER
genetics
ibility
Hygi@@
ashamed
detrimental
pal
center@@
cyber@@
dormitory
hinged
jack@@
landmark
shoc@@
watt
Athle@@
Propri@@
exponential
historically
illuminates
occupants
transcri@@
Geor@@
Ner@@
Upgrading
itong
unwilling
Colorado
PRODUC@@
TURN
X2
admire
balcony
communist
d0e@@
hmk
importation
lity
sm
tainers
Bh@@
Developed
Docu@@
Transi@@
disciples
imitation
BM
ety@@
speeches
171
Gigabit
Io@@
Mg
abnormalities
battles
clic
PLANT
Rub@@
Volumes
bage
beg@@
drafted
gem@@
greening
inception
sati@@
substanti@@
torque10
Ren
admits
assor@@
beats
finalized
magnification
oppose
physicians
Stanley
T3
ancellor
divisional
glomer@@
ogram
phs
vomiting
buys
deliberate
scripting
ubi@@
uous
upper@@
170@@
costing
Consultants
Perf@@
beard
circumferential
inaccessible
seng
sinus
**@@
10.0
6,000
CG@@
CSV
DETAILS
Ghana
Twin
Ultimate
asymp@@
polyline
inclu@@
rhy@@
encouragement
frightened
payables
resetting
ually
Direct@@
FPA
INTE@@
Kobe
chann@@
correspondent
thine
Collapse
bolting
estu@@
horror
inth
mud@@
nationalities
tailings
Colum@@
Cru@@
Leverage
heal@@
ira
macroeconomic
maximal
EPS
Titanium
aggression
astically
ise@@
monary
tropy
warmer
BUILDING
Coll@@
FQ@@
Producing
Va@@
disagree
informational
overe@@
polymorph@@
zoning
LSI
Previously
Purge
Rig@@
este@@
submersible
tene@@
INSTRU@@
accumulative
adhesives
karst
lai
liquidator
snacks
soaking
-20
Clay
Places
dispar@@
glyc@@
knives
serviceable
thermoplastic
thunder
reminds
staggered
Induc@@
Param@@
kilograms
viation
BP@@
Char
analogy
medial
mont
relaxing
solenoids
177
ELECTR@@
Participate
conditionally
orary
plotting
BEN@@
Moo@@
Spr@@
Substances
innovate
openly
CPP
Fried
arre@@
cushi@@
decoding
somes
aky
indeb@@
tempor@@
Cam
ctic
marke@@
sorption
Fold
Repository
SHAFT
Twel@@
cock@@
cutoff
interacting
peach
Ho
clam@@
fireworks
oxy
stared
Corpor@@
DT@@
Evaluating
Relationships
Spra@@
asi
markedly
Continu@@
UDP
anatomy
keepers
mRNA
minorities
push@@
12,@@
QUALITY
antibiotic
chiefly
plain@@
pment
sightseeing
trainings
Adhesive
CNPC
Spin@@
Thrust
integra@@
museums
pivo@@
ECG
clan
inhab@@
jeopar@@
magnetism
richer
yngeal
9.0
Fort
plague
Hao
Inquiry
checkout
transducers
Differenti@@
UNI@@
biased
conformities
fluoro@@
newborn
Ensuring
contours
das
fluidized
ruin
RCC
ZK@@
enclo@@
oni@@
sack
300,000
S2@@
Topic
dits
markup
surfactant
.4
COMPON@@
ESA
Miller
Takes
Vill@@
celebrity
churches
corti@@
lounge
misuse
plasticity
rulers
CRC
WHE@@
drank
edema
elders
jour@@
Andy
Crew
Franklin
MATIC
cheek
deserves
liquefaction
pag@@
sins
undesirable
147
Anch@@
Appointment
Eclipse
ede
fice
lymph
weighs
aus
crossings
153
Regeneration
Solving
disassembled
ented
smoothness
stripes
√
Damages
Deliver
Mom@@
NGOs
Superior
reciprocating
shark
trails
tub@@
M6@@
advis@@
ffed
ignoring
mide
predominantly
Activated
NW
bloody
furnishing
liberation
paradigm
Marshall
Taoism
allocating
goose
occupying
perceive
tribes
uncovered
Barrier
Bio
Cars
Feeder
Partition
critici@@
indoors
intensify
psig
0001
Firmware
TERMIN@@
attracts
bust
contributor
fountain
invites
Debu@@
PPA
bodily
brushed
feathers
resize
skins
tram
yar@@
BODY
Jonathan
committing
geted
gho@@
itly
sloping
smiles
ushu
3.0@@
Archi@@
PET@@
kA
stipul@@
veteran
chic
oscillo@@
pathogenic
underes@@
128@@
S3
pois@@
sary
stealing
ATP
Dop@@
consignee
ditches
ja@@
multiplex@@
ouldn
predicts
silently
Foam
NH@@
Pip@@
Taiyuan
derness
robustness
………
FRAME
LIF@@
immense
spur@@
Adjustments
Miami
PROC@@
mega
Bird
Leak
displ@@
ingen@@
ken@@
tivari@@
12.3
16.5
resign
whale
14.1
Arrang@@
Auditing
Permissions
Pop
Wavelet
from@@
pant
recover@@
valence
Fron@@
HEL@@
Ris@@
Service@@
dson
moistur@@
waits
ARDS
CLR
Collateral
Q2
omes
spark@@
translations
Benjamin
inaug@@
kilo@@
tooth@@
Deferred
Discount
WPC
enthusi@@
formulating
mushroom
CSP
canned
compose
comprehension
erec@@
runout
uma
92@@
Arch
Sludge
atrial
dencies
lang
172
50Hz
Projection
bai
dc@@
facade
oyang
workstations
Challenges
Elementary
Tak@@
abstr@@
ischemic
Expendit@@
Hook
conglomer@@
ircon@@
umb@@
Cataly@@
OLD
SG@@
gall@@
postponed
taps
arrog@@
cash@@
clipboard
feeders
rewarded
sleeper
ulcer
Ever
IND@@
LI
OSS
Tin
apologize
cohesive
idate
lamb
Founded
reluc@@
uttering
Importing
asion
iro
monu@@
therapist
Add@@
Ros@@
UNODC
izards
mets
procured
specificity
Envelo@@
Rong@@
absur@@
accompl@@
gno@@
hydrological
lea@@
2a
Judge
Lewis
Pane
Sop@@
anian
enactment
excavations
pes@@
prep
shades
striving
thum@@
1969
EDGE
Mach@@
Necessary
Rare
Ryan
galvanised
secon@@
subsections
woke
Alarms
EEC
SEL
SHA
TRANSM@@
Timeout
VAL
arbitral
doped
equivalence
gible
modulated
Solomon
piezoelectric
prolong
snack
LEFT
Value@@
doctoral
kan
renderer
WAR@@
ape
Fisher
Mianyang
Separator
demonstrations
halogen
jointed
recti@@
Colombia
Diversity
KL@@
flushed
orous
plasia
random@@
9.8
Ceiling
Pakistani
concreting
encounters
principals
undersigned
−@@
600mm
Chiang
Laying
Stretch
exerted
mite
occured
pens
straightening
15.1
Thro@@
Variables
Vel@@
Ya@@
engraved
loop@@
vention
vulnerabilities
wording
wrinkles
Arthur
assed
consequential
feminine
unemployed
Catalogue
Describes
Emissions
Entrepreneur@@
READ@@
Switch@@
bum
crusher
girders
racial
youngest
Identifying
aeration
dilemma
portation
tragic
unlocking
voltmeter
Not@@
drawal
menop@@
stitch
theit
Greg@@
IEC@@
Lian@@
Movie
TES
alien@@
claimant
crack@@
multic@@
navig@@
recruiting
Apps
CMP
RAS
Thousands
brew
ignorance
injiang
lapar@@
Guarantees
hats
incision
shovel
CMS
SME
bell@@
inspiring
Hex
bei@@
orious
policeman
righteousness
squi@@
treasures
vian
1949
Blower
Done
FPGA
SON
Sav@@
Tenderers
intensified
perturb@@
vities
1950
Arizona
Conductor
Gasket
TOOL
dip@@
dominance
fiber@@
guitar
italic
mattress
millimeters
reconnaissance
sluice
elevators
lys@@
rotors
separates
smart@@
ucli@@
APT
Author
SUPER@@
ambassador
deductible
disappears
footwear
sence
Constructing
Persi@@
demographic
reconstructed
waive
200m
Consumers
isi@@
oli
sulph@@
167
Vas@@
articul@@
boxing
dience
ferences
genetically
learner
pening
phar@@
progresses
transplant
INVEST@@
Peter@@
Pitch
Rent
camshafts
drive@@
epidemi@@
factor@@
implant
peritone@@
putted
tify
Alan
MAINTENANCE
badge
bose
coast@@
propane
unveiled
watershed
Pursuant
REGUL@@
UA
dotted
plains
zzle
0.15
C4
Containment
Guiyang
subsidence
BDS
Loose
Pseu@@
Wheels
awful
collisions
dir
logarith@@
pandas
tolerate
2.10
Distingu@@
POST
bulletin
encapsul@@
rosive
EMP
Excellence
IZED
deflector
eyed
ool
wonders
Recorder
precedent
2O3
Fluor@@
NEUTRAL
anaerobic
antry
IG
REQU@@
SPI
VES
Wherever
acetylene
awak@@
awkward
crow
endpoints
jiang@@
questioning
ushes
BG
checkpoint
dimension@@
fissure
pou@@
Cai
Choosing
colonial
dissip@@
rony@@
Haiti
fered
hangers
hec@@
leaning
monkeys
surveyor
Ax@@
DETERMINATION
FIG@@
SYSTEMS
TD@@
eleven
oratory
pia
spy
tales
unilateral
Fei
Reconnect
adhering
some@@
sustaining
versal
QUALCOMM
ausp@@
cig@@
identities
manifestations
oblique
pale@@
textbooks
Biology
Bucket
Ningxia
PRODUCTS
Sport@@
asters
lor
spam
006
Gaza
HAI
Hydro
Poli@@
thematic
unattended
Airbus
Brussels
Mu
endometri@@
fem@@
lier
omal@@
pretend
resembles
stylish
Advantages
Magnesium
Rescue
Tradi@@
ambiguity
boosted
inducing
monsoon
polynom@@
potentials
spleen
steak
tances
1E
Dance
INDIC@@
Rin@@
Volunte@@
ionization
isson
prevalent
Hour
Magazine
approves
ideals
llab@@
Immigration
addiction
bucks
critically
cubes
elbows
ocene
Cell@@
Chan@@
Defining
dict
differing
displac@@
dized
enforcing
rationale
¢
24.@@
Facilit@@
IONS
Mani@@
collo@@
rebels
##
NV
Recru@@
gong
leveraged
stun@@
technic
ted.@@
105@@
183
Hub@@
Rhe@@
Sla@@
assimil@@
chy@@
concentrates
editions
grabbed
phan@@
titious
wd
Asynchronous
Butter@@
C2@@
Click@@
ITT
centimeters
densely
thumb@@
LIGHT@@
Malay@@
Nik@@
Philli@@
Servo
abe@@
capped
fouling
jackets
obligated
susceptibility
》
Breeding
rupt
ANS
Swa@@
T.@@
blogs
oath
DAB
MEP
Navigator
WIRE
confronted
edging
harbour
hill@@
inclusions
rehear@@
relev@@
S5.1
Sear@@
booming
hunter
spar
Camp@@
Lec@@
agen@@
banana
ranged
ras@@
refusing
sume
Harbor
Landing
Panda
Screws
captive
itas
molybdenum
mush@@
qiu
sulfon@@
yce
aver
casc@@
coff@@
terity
twins
ILI@@
cheating
level@@
mos@@
projecting
spoon
vity
Chec@@
Compounds
Duke
ICK@@
NM@@
Notify
RGB
frustrated
meticul@@
1,500
CHAPTER
Kel@@
Kuwait
MAPI
SARS
Seeing
Sending
Tut@@
bounding
dusty
idation
jpg
neg@@
photoelectric
premier
ancers
dry@@
AE@@
COU@@
behold
disclosures
dues
stero@@
welcomes
00m
FACE
XXXX
acro@@
echan@@
evidences
lef@@
lex@@
mum@@
350@@
Gordon
Lia@@
Moves
Rep
friend@@
paredness
resemble
Hav@@
Phosphor@@
disqualified
fractional
totaling
jokes
opia
championship
deree
lain
ria
tempering
Descrip@@
benef@@
boot@@
catar@@
skep@@
stling
truncated
bmp
cha
neighbours
rude
tonnage
underwear
950
Journ@@
prompting
specializing
Licen@@
YY
loosely
recharge
stern
Disks
Letters
exclu@@
guarding
avian
incubation
pushbutton
solidification
tripped
！
Heated
PF@@
ardis@@
bursting
liters
muffler
spectrometer
Constraints
FDI
cav@@
condem@@
crisp
elegance
endeavor
hydrates
pus@@
repeatability
seamlessly
Cretaceous
Famous
Smarts
accession
majors
tann@@
von
MW@@
coiled
jiao
Encoura@@
Memorial
businessmen
chilled
citation
counterparties
elabor@@
illers
1.5m
Collective
Copenhagen
allegations
itz
proxim@@
spring@@
Beautiful
Nick
Occurs
See@@
USER
accustomed
appended
pelvic
revel@@
tuary
Clin@@
DEVELOPMENT
essors
haw@@
paradise
pigments
plum
MODULE
news@@
screed
stasis
Coach
Ethiop@@
MEA
herb
zine
DIA
T4
VEHIC@@
rator
sterone
1967
Acts
NAS@@
Stable
bosses
dwell@@
fidelity
lint
secretly
stres@@
Ideal
SECUR@@
TURB@@
bedrock
consents
otid
outsourced
problematic
340
Charlie
FIB@@
Runtime
pains
space@@
Aro@@
Corn@@
capitalist
harvesting
husbandry
nCloth
pear@@
Accessory
MK@@
STRE@@
Scheduler
epage
navi@@
rented
Ann
Girder
caffeine
freed
tenders
atization
borrowers
deterrent
dynamometer
likewise
11.5
960
Beta
SOC
V.@@
emble@@
offspring
vehic@@
13.3
3B
Accreditation
Geographic
Meng@@
ZT
bid@@
coolers
eccentr@@
pian
Ale@@
Billing
Bright
CIF
PCM2.1
Via
Washing
isable
lever@@
lodge
perennial
validating
wheelchair
14.2
Gon@@
MANUAL
Namespace
dean
er.@@
infec@@
rescu@@
Logo
MIC@@
agreeing
aur
cum
full@@
strates
Accumul@@
H2@@
backplane
divor@@
encing
fender
60,000
Pain@@
consumable
disposing
gents
specializes
Has@@
Humidity
Ou@@
SPECIAL
Tail
arse
mare
onry
《
DAT@@
Lan
Pedal
Resistant
thunder@@
HAVE
Howard
TANK
arena
bells
lingual
tenants
THER
Transverse
dysfunction
Anderson
Approve
Avo@@
arers
Compiler
participates
rine
Confucianism
DAY
Domin@@
GV@@
deaf
dru@@
packer
percus@@
withhold
在@@
DAE
Organizing
TESTING
Turns
emis@@
ponds
swinging
Cumulative
Initially
Inviter
Platforms
instrumental
obscure
professors
AEC
Compartment
Oscar
SMB
attrac@@
colo@@
lipo@@
renders
retinal
MCU
ilization
instru@@
precaution
Brian
Helen
actic
eighteen
flock
Junior
Legis@@
TCS
poetic
Christ@@
NUT
NZ@@
Optionally
Taiwanese
Take@@
discipl@@
help@@
morphological
retractor
sheave
Luxembourg
Simpli@@
hints
shout
Ⅲ
254
Dic@@
Emp@@
Fiscal
Stic@@
change@@
concessions
defender
mble
viability
1400
PG@@
Poetry
Rehabilitation
embroidery
intergovernmental
lapse
neon@@
thest
CIS@@
Pair
brushing
fontcolour
irregularities
mmed
suites
15,000
CICS
Condu@@
condensing
parcels
porting
scrip@@
GPRS
KPIs
Vietnamese
cun
divider
extents
remediation
Decor@@
Extreme
Pension
breathability
electrolytic
monoxide
rollback
﻿
Carlo
Cleanup
Steven
banker
enligh@@
grit
physiology
spacious
wich
1300
Patterns
Proceedings
Reporter
Representation
deepest
handrail
huan
motivate
pad@@
Bob@@
Broadcasting
Mud
TF
UC
formers
Jeho@@
Nav@@
Qs
attendees
commemor@@
dozer
imag@@
isotope
wall@@
Manipul@@
Morpho@@
SV
ese@@
rivets
Girl
builders
exha@@
outages
posites
Designated
Drinking
FIX@@
organizes
vigil@@
APS
Bars
Mortgage
NTFS
RW
Reach
smuggling
teens
tency
Dynam@@
RER
UNIDO
blur
breast@@
1C
Beneficiary
Wrong
advisors
ballot
confin@@
rais@@
solo
weekends
Cone
SMC
compacting
discovers
distill@@
distributes
gru@@
rill
8.9
RECOR@@
Ships
cocaine
finder
unbalance
Sha
Sweet
goats
nea
tokens
Cartridge
caster
circulate
levelling
SHORT
NEMA
X4
devastating
erals
huang@@
spicy
401
Assum@@
Burma
Indicate
Past
angels
gator
mV
xs@@
Electrode
Gla@@
ec
imagin@@
inexpensive
pathology
plenum
riverbed
tty
Baidu
Named
Table@@
Valentine
afflic@@
flexibly
hangs
sleep@@
Comfort
Reserves
apar@@
atis@@
disturb
footage
ggles
scrutiny
Assigned
LOCATION
Mun@@
Sac@@
Techn@@
CONTRO@@
Combine
Molding
Specifying
emerges
lessor
trivial
vaginal
1.10
Brad@@
Buzz@@
Reson@@
Sent
dialec@@
ego
habitats
notations
refuge
Acting
Full@@
Rolls
Shot
ghu
giants
isher
lacquer
multiplying
residing
1961
Feeding
TiO2
gos
greeting
locomo@@
reload
4.10
ROW
Switchgear
Wiki@@
dinal
discoveries
ellow
esophageal
pharmacy
sexually
uniqueness
15m
191
DEM@@
Polyurethane
20s
410
HSSE
Pum@@
________
goodbye
reimburse
similarities
0.8@@
Kang
LOCAL
brate
derives
mathema@@
tri
wee@@
207
BOL@@
IZATION
Merchants
Vertex
complic@@
erto
forec@@
kilometer
pric@@
tutorials
Vide@@
cofferdam
contexts
pasted
solu@@
PUT
Surgical
Une@@
certifying
dments
encum@@
luent
pedestrians
projector
Tivoli
amorphous
counseling
endothelial
inventions
opacity
sticker
★
CHAN@@
Missile
Sph@@
embassy
legality
toothpaste
24V
315
Notices
OBD
Terrain
f2
hydrogenation
liang
locals
lox@@
refinement
ACCEPT@@
Cook
MN
Signals
costume
posters
Employ@@
Indication
Initiator
bass
excludes
goo@@
reagents
remark
solvency
COLL@@
deducting
instanti@@
Attempt
Growing
bor
catastrophic
experimentally
fencing
inea
page@@
thet@@
translating
Sender
Venezuela
contamin@@
jaws
ollen
seman@@
Guar@@
Lear@@
REM
SF6
artwork
corp@@
crossover
rigging
secretariat
thefered
Ding@@
NY
PARTI@@
PSD
replies
Anyway
Dir@@
F8
Quote
amate@@
distingu@@
ider
owl
solitary
tlements
flaps
into@@
orally
ression
Func@@
blossom
opo@@
watts
Tec@@
cle
iaf
ichang
ima
intestine
leukemia
CHANG@@
MY@@
VLAN
declares
sparse
4mm
Leasing
SCREW
apolog@@
ativity
concre@@
metic
plastici@@
refractive
sag
-6
Amin@@
Circum@@
annulus
aret
crews
mint
proficiency
unpleasant
Clinic
ECE
Sep@@
Serious
accus@@
marri@@
nity
rupted
cares
ggled
harnesses
safe@@
9m
Kaz@@
NM
Precip@@
ador@@
aggrav@@
deprived
erased
meas@@
selectivity
Shad@@
UPD@@
bezel
ip@@
Aging
FY
ius
mats
religi@@
terized
transcei@@
uria
Blan@@
Enligh@@
clamation
jective
snug
toast
169
Clou@@
Mobility
dough
elaborated
peeling
.br
Born
Compatible
Lisa
Lung
anks
interpreting
selectable
socio
Alex@@
BAL@@
Proc@@
hated
lymph@@
plaque
traver@@
wishing
Agenda
Flav@@
STEP
Stores
TECH
filer
marital
Visu@@
airway
medieval
mole
probation
40,000
Awa@@
Blasting
Election
Evapor@@
abbreviation
jing@@
resection
shoo@@
wee
Adopt
PowerEdge
RL
adaptor
discoura@@
fif@@
resistors
Agen@@
Happ@@
Python
rification
stam@@
whales
11.4
Addition
Hospit@@
Strictly
TRANS@@
brush@@
centi@@
omo@@
swift
118@@
Invo@@
Magn@@
armature
INSUL@@
Jiao
NB@@
biz@@
counterfeit
footsteps
DIFF@@
plastering
rag@@
SEAT
hyperlink
mn
percep@@
ts.@@
Alber@@
Exem@@
agus
anes
cheeks
clum@@
fab@@
pinned
AGES
Blast
Muslims
lagging
magn@@
perpetual
1,0@@
EXCE@@
Thirty
gallons
hp
inflic@@
longevity
punctu@@
seven@@
Chem@@
John@@
PRESS
Recover@@
aquifer
burn@@
flood@@
hinder
isen
jus@@
sess@@
143
Centr@@
Stanford
Voy@@
boy@@
encapsulated
struction
Blo@@
Feat@@
MSB@@
analyser
duplicates
energize
erre
parallel@@
Org
Real@@
calculator
lls
pulsive
shaders
terns
trated
weaken
Competi@@
Therap@@
brow
fossi@@
fumes
scouring
DEV@@
PetroChina
Philip
Recycle
assass@@
b.@@
prizes
refreshed
underway
unds
vig@@
Commonwealth
OW@@
cf1
dashed
levy
perfected
Anna
Dongguan
HDD
PRIN@@
Remaining
bler
chef
femoral
rites
tz@@
versary
100.@@
CPI
Calculations
Honey@@
Manage@@
Rough
Topology
above@@
domicile
meteor@@
recursive
chool
Ecuador
Films
Lubricating
Rest
STRUCTURE
blue@@
conspir@@
dynamical
fume
monomer
tiously
upstairs
1.6@@
Basically
Funding
Pillar
carto@@
clearer
desser@@
epit@@
imperi@@
moly@@
peanut
stockholders
uncontrolled
Quotation
Race
businessman
propyl
uptake
157
SSHE
swine
bridging
crafted
facilitated
slit
track@@
ACKET
Needs
Salary
ambulance
comfortably
cones
philic
skill@@
Subsystem
Suppose
UG
complex@@
devote
ginger
iratory
ppers
solid@@
utensi@@
voy
0.6@@
Jack@@
Kor@@
Maintaining
Searching
TOPIx
conscienti@@
http://go.microsoft.com/fwlink/@@
idian
instorm
paralleled
wart
Armed
Chao@@
Residence
addafi
conut
equip
fertilizers
polls
throughs
25th
ALLY
Diego
Jupiter
Langu@@
Silic@@
holistic
spacebefore
velocities
vented
皇@@
164
Seattle
Ya
computerized
igno@@
jig@@
leveled
poss@@
righ@@
rocky
1a
Altern@@
Kowloon
RECE@@
Rh@@
Stere@@
crawl
ellant
metaphor
reinforcements
ressing
shaf@@
thicknesses
ua
Nice
YY@@
acin
discretionary
embedding
hydrodynamic
kidnap@@
subsurface
tot@@
Packages
Quota
debugger
multiplication
Melbourne
Missi@@
VH@@
chur@@
conduc@@
contradictions
deduplication
parade
perforation
sidel@@
stitu@@
Champions
PAR
Viscosity
cementing
clue
distal
fisheries
onshore
sening
Annotation
Copying
E2
Mos@@
regimes
unted
Allowance
Crisis
Resident
TAGE
emulation
iter@@
veter@@
Consol@@
SCS
Virtu@@
ambitions
entirety
force@@
olly
pathogenesis
sidewalk
Compli@@
Score
Winding
fth
fuc@@
Alger@@
CORPOR@@
Gradient
Supplemental
Targets
Venus
WIT@@
defin@@
seminars
ternal
212
Vapor
Combat
Dispatch
FID
Projec@@
Psy@@
WEIGHT
concentric
jar@@
ttle
Compar@@
Makes
obstructions
propellant
SPECIFICATION
Securing
crimin@@
disassemble
fluent
goodness
locker
nominee
promoter
stles
tarily
tise
Probability
alternatively
caregi@@
cow@@
iD
parental
perfume
socially
Colli@@
activists
coherence
control@@
dification
leyball
Businesses
Changjiang
ETC
Let@@
confusing
rung
3.10
Deploy
JMS
Known
cutters
festivals
mailboxes
pdf
wafer
backend
masking
metery
242
D.C
Flush
RAC
Unic@@
_______
bunker
definitive
fishes
intellectu@@
panel@@
pulver@@
ELL
MID
Spa@@
amusement
circlip
cooperating
dumb
epic@@
identifiers
recal@@
你@@
DVDs
Faults
Ultras@@
VERSE
ingress
moneys
seni@@
squeezed
⑤
Field@@
Tags
abad
cowl
dont
fireproof
fulfil@@
isons
wetting
zzles
Detecting
evidenced
expansive
oil@@
phyto@@
propel
titu@@
uries
AIL@@
Fleet
Meng
TK
Zhan@@
clocks
courier
idered
proceeded
teen@@
wasting
Lakers
allocations
ek@@
1939
540
Sea@@
jet@@
overwritten
politician
poo
ppi
titudes
tox@@
Renew@@
pavilion
ADD
ATER
TECHNO@@
alphanumeric
dolom@@
edic@@
oxidative
reed
ADM
Adequate
ISS
brighter
copolymer
scientifically
sulfuric
tdown
wandering
0.7@@
262
DPM
Disengage
Docs
Wong
advising
chickens
dale
trustees
uckle
undant
154
Calibri
Ha
Hamil@@
angled
caver@@
comprehend
exacerb@@
lars
ox
Lily
expedition
209
Dog
IBR@@
Ideas
Pivot
Renminbi
agements
SSP
microorganisms
prepayment
thank@@
uli
year@@
Mou@@
STAR@@
anne
candles
doll
exposing
intered
styling
tily
unusually
中@@
Alzheimer
INSERT
SYN@@
depicts
forma
indu@@
principally
sug@@
taskbar
Extru@@
JP
Than
antim@@
articulated
cassette
leans
lords
rought
technics
vey
Courses
Meteorological
Nano
agic
hatred
http@@
oting
suburbs
fei
hardest
ogen
otide
rit
transnational
193
370
slotted
uninterrupted
INST@@
Pumping
biopsy
clays
pharmaceuticals
purse
rab@@
questionnaires
richest
streamlined
tacle
Placing
Token
Tsinghua
acles
blowdown
chasing
dn
financi@@
surcharge
Kate
Scen@@
flavors
jumps
loudly
nResolution
paras@@
tium
twee@@
COMPRESS@@
Dress
Polyester
Stored
darker
generality
infil@@
instinc@@
playground
transluc@@
travelled
volcan@@
195
Bean
Newly
SOR@@
Sr
Subsection
Sufficient
Transducer
Transl@@
coerci@@
mum
roast
suburb
sympathy
这@@
Dead@@
Flue
PRIM@@
STRO@@
alian
angel@@
clash
govern@@
initiates
philosopher
pursu@@
ulative
Bulletin
Delegation
Ela@@
Radisson
STAR
amal@@
characterize
coincide
kVA
omic
resigned
Monte
gasification
mandates
Flip
Glos@@
WALL
aspiration
caves
consign@@
imminent
mobilize
wre@@
LCC
OA
Raising
arrester
guaranty
itative
malfunctions
thigh
Territories
aerosol
burrs
filesystem
hexagonal
purged
refrac@@
Custo@@
Scor@@
Subgrade
consolidating
degradable
monk
Bonus
Nation
Pink
cd
iliary
liamen@@
nap
opar@@
Recognizing
Rev@@
Yard
eh
this@@
tration
turmoil
Adopted
Application@@
aths
discontinued
ectively
ferrite
hort
informs
plut@@
Geotechnical
SY
chap@@
chunk
coagul@@
rationally
sunshade
toxins
uterus
1968
216
Angl@@
Hollow
Ning
RFQ
internationalization
roadside
summons
Albert
NTP
Rat
Rope
Spacing
Surgery
cos
drau@@
gigab@@
ical@@
pottery
slavery
AU
Flash@@
brine
decorations
length@@
sauc@@
tos
uler
Bench@@
Chrysler
Davis
Fis@@
Kerberos
arcs
enduring
idine
manife@@
outsi@@
Firefox
Optim@@
Resul@@
Socialist
Soup
Trou@@
ferr@@
plet
stuffing
wag@@
Blind
Folk
Interchange
ampagne
forfeiture
glaze
liv@@
trophic
211
Defl@@
LEG@@
PES
blueprint
calibrating
elson
icon@@
laugh@@
rift
selfish
Guides
Illegal
Influences
TX@@
Wow
hydrated
pancreatic
Cleaner
Ontario
carc@@
coder
hydroly@@
hygienic
ideally
pear
pids
summon@@
tentative
unci@@
1950s
244
Sixth
VERIF@@
acc
cent@@
retrospectively
yte
502
Cab
LU
alcohol@@
debentures
illes
prose
revolutions
surfac@@
AZ@@
Cut@@
Ino@@
Rainfinity
Shuttle
Wit@@
amper@@
embodies
favorites
fry
Locker
MIT@@
Preservation
Saul
UVs
comic
eday
microns
team@@
AUX
DELI@@
FREE
blunt
dealership
detach
disclosing
disrupt
inkle
reimbursed
ridiculous
tancy
ticular
Auth
Coffee
Roger
Variations
chromat@@
fetus
recru@@
segregated
500m
Answ@@
Liver
Removable
faction
ilation
ishments
navigating
sweater
415
ISSION
Pen
blanks
envi@@
exer@@
unplanned
Uncle
Wy@@
bour@@
bourgeo@@
dator
prerequisites
puzz@@
Carl@@
GBP
Master@@
Visitors
affirmed
clip@@
deadlines
fran@@
itory
porosis
preceded
Balancing
Construct
Healthy
MMS
REPRESEN@@
declaring
furthermore
inson
sparks
thereunder
Concession
ISSU@@
Media@@
bis
gus
signatory
successes
deviate
limiter
shipper
stenosis
throws
typhoon
Create@@
ILE
Lands
RTU
act@@
envelo@@
tas
Christianity
Requires
Resume
Spin
bular
depart
favored
stably
Galvanized
Internals
RR@@
adium
ballistic
carboxy@@
omatic
paging
straw@@
yrin@@
yue
Breaking
Cool@@
House@@
Islam@@
Wealth
faulted
foc@@
miserable
thumbnail
veterinary
Influ@@
Mounted
Scanner
Sustainability
arguing
conceal
decks
establis@@
knitted
modifiers
rees
thoracic
wholes@@
Cathe@@
FW
PY@@
SUL@@
Peer
Yale
armies
engths
substructure
Inher@@
STER
ardo
catchment
dra
lodging
reflux
transferable
Acceptable
BAM
Carl
Comman@@
IGN@@
TAN@@
Weak
ady
leuk@@
shrubs
usting
1965
Naz@@
Shou@@
fist
handlers
regenerative
rival@@
thru
199
Caused
ENGINEERING
Excess
FAIL@@
Lo
RAP
Saved
convincing
hydrochloric
inspi@@
lengthy
skies
QI
beautifully
coking
gastro@@
realise
rhetoric
402
CVs
Empirical
MH@@
Published
aisle
offsets
responsiveness
unit@@
3.11
Acknowle@@
Null
Permitted
SING
WiFi
interpretations
penetrant
pioneering
ulent
Earthing
FEED
Pause
Tariff
Tesla
VAN@@
cloned
gaze
ingh@@
APEC
capitalized
hauling
laminate
nasty
pione@@
scul@@
site@@
.It
86.@@
Evalu@@
Gau@@
NDE
idating
rata
sib@@
B3
Bridges
Tubes
approxi@@
pseudo@@
stricken
sway
Damper
Nasdaq
Uganda
hotline
offense
DERS
MSD@@
Monitors
acqu@@
grocery
multitude
BPM
Tren@@
Uzbekistan
Valu@@
amplified
chargers
galaxies
generative
itability
rosion
ANSYS
Alig@@
BEFORE
CJ@@
Institu@@
SSC
nb@@
reinsurance
stuff@@
sulphate
voids
1958
Kam@@
Renew
YER
buds
davit
envisaged
rist
sil
sioners
slippery
solver
tuner
ADING
DIMENSIONS
NetWare
STANCE
Tempor@@
decentralized
interchangeable
subregulation
CFO
Extre@@
Geometric
HOR@@
embryonic
flexural
rejo@@
tionic
Europeans
Incentive
SDM
STAND@@
branched
buzz@@
coni
reformation
scap@@
sustain@@
AX100@@
REST
abstraction
gover@@
incense
ingle
liu
memo
objectively
selenium
surfacing
1,2
bullets
monument
piec@@
reflex
seatbelt
Flowers
ICATE
Modulation
PRICE
Reservation
SAL
bindings
endanger
ials
patter@@
wei@@
Gift
Hongkong
Kim@@
LINES
blanking
catalogs
locality
CIFS
Exchanger
Iceland
Restoration
Tric@@
appor@@
bless
organizer
paraff@@
schizophren@@
softening
summed
GRAPH@@
Moore
Tyre
Uncertainty
dismantle
inference
tare
wallpaper
Galaxy
broaden
flatness
handheld
icket
metastasis
neighbouring
rectomy
Atlanta
Conformity
Las@@
Lenovo
axially
compul@@
contiguous
escaping
ophen@@
Gasoline
MAG@@
YU@@
Zip
atin@@
idated
impl@@
pronunciation
stere@@
trape@@
GLO@@
Stator
offender
onion
prophe@@
rainbow
Compen@@
Recall
frame@@
ggling
ilian
nipple
Crankshaft
Lithium
fores@@
grat@@
interfering
selectively
stron@@
supercritical
yellow@@
Programmable
Validate
erron@@
hibition
huh
lapping
numerically
ousy
puller
revenge
splicing
tene
275
CONTIN@@
Laden
Libyan
awaiting
embed
informing
rejuven@@
27.@@
Anything
Sca@@
daemon
ests
Leg
PX@@
Passport
SOR
hippo@@
lia@@
nationally
okine@@
prestigious
Dates
Mind
alluvial
couch
waterway
Independence
Insight
Llo@@
Waterproof
strated
CIA
Dak@@
Gui@@
cater
depreci@@
proactively
sick@@
stants
whistle
0.1@@
Magne@@
Propagation
Sauce
envy
pronoun@@
rigi@@
rode
tack
uper@@
BUR@@
DOM
Occa@@
SSO
choc@@
iline
insti@@
rin
stant
toothed
###
ELECTRO@@
Mbps
Verdana
exploiting
initializing
orch@@
…………
159
Anne
Depot
Dollar
Email@@
Lamps
Plum@@
SKI
Sizes
backlash
colonies
cystic
episodes
forecasted
reactivity
rensic
snu@@
PROM
frigh@@
terization
320@@
Ass@@
Impacts
forthcoming
incum@@
prosecu@@
urious
Flying
Isolated
Samuel
Studying
aoh
bedded
dreamed
eton
prelimin@@
sab@@
vine@@
Cau@@
EMEN@@
Judic@@
Meat
RMAN
bundled
empowered
hments
illnesses
stret@@
stro
transponder
certifications
lava
Apache
Lastly
Mercedes
emin@@
http
ource@@
overpressure
platelet
recombinant
vere@@
cheat
lowed
Ener@@
Inch
Liquidity
Walking
dementia
overvoltage
strength@@
wear@@
TPMS
academy
attribu@@
best@@
caustic
gutter
presidency
ratification
rels
ringe
test@@
usher
FGD
Privile@@
Productivity
algebra
cleansing
correspondingly
curse
ferential
margin@@
statutes
wrapper
1023s
Cele@@
Continuing
Grading
PATH
Secre@@
Secur@@
css
hydrogen@@
neu@@
olar
tas@@
CCC
Row@@
alyp@@
cartilage
commanding
estial
oblig@@
prefecture
3000@@
EUR@@
KY@@
esh@@
glossary
poorer
pretensioner
quantitatively
sue
Adverse
Article@@
Solvent
lacked
weakening
020
Boli@@
Uninstall
knots
notifies
shri@@
Lob@@
Reception
armored
consider@@
monks
oxygen@@
poorest
sioner
brea@@
granules
somal
tera
Ine@@
atur@@
chel@@
foremost
rons
slaughter
warns
Cran@@
Natur@@
Oli@@
Shao@@
Tari@@
commentary
policymakers
ASH@@
Domino
M5
WLAN
itant
leaked
manageable
ultras@@
Pocket
Sq@@
Woman
archy
deva@@
inhibiting
ray@@
sonic
tuous
∶
Approximate
SYSTIMAX
groo@@
guardra@@
righteous
sequentially
325
Announ@@
Opinion
Packet
Visual@@
cheerful
irrevocably
portals
sued
$@@
166
Adult
Hit@@
Jason
Polyethylene
Tanks
greeted
moulded
struggles
turer
Kelly
Reimbur@@
Zimbab@@
al.@@
bank@@
clinics
unle@@
Aj@@
BRA@@
Lubricant
ener@@
initiators
potable
thrive
Exporting
Four@@
Interfaces
Reasonable
breathable
oria
shoppers
APC
Licence
WT
finals
inhalation
insectici@@
insurances
penny
realism
Neo@@
asian
hottest
Commander
IMPL@@
PIC
TAIN@@
dealings
elli
nationals
uncommon
Bore
Christians
Dump
Refu@@
WS@@
annu@@
natur@@
Assign@@
DDoS
Deutsche
Ingre@@
OVER
Reser@@
adren@@
affi@@
assistants
nUser
ornamental
Bulg@@
Participating
bathing
entang@@
horrible
motherland
overly
Bytes
Moment
Nuts
dee
dislocation
insignificant
mental@@
phenyl@@
sincerity
Incremental
deduc@@
deg@@
nd@@
omorphic
villa
yang@@
405
Active@@
Boost
Bronze
PSI
aerator
drun@@
forts
nanoparticles
paddy
soaring
spokeswoman
MODEL
Philadelphia
cabbage
ello
promul@@
wren@@
[...]
