<pad>
<eos>
<unk>
,
的
.
"
和
在
)
(
了
是
:
中
或
-
将
为
对
与
我
上
;
并
一个
/
有
%
1
使用
进行
不
到
他
可以
时
我们
你
该
以
2
应
系统
及
?
可
会
年
其
人
从
也
公司
提供
如果
\
您
下
所有
后
都
通过
就
而
被
3
工作
这
等
要
任何
他们
研究
第
要求
但
安装
文件
可能
选择
其他
以及
n
—
需要
没有
方法
包括
地
信息
所
来
这些
!
它
由
已
控制
设计
设备
于
必须
用
请
问题
数据
项目
本
内
此
新
根据
4
情况
技术
说
服务
管理
显示
时间
她
影响
分析
月
向
中国
你们
设置
则
规定
更
5
产品
个
能
还
用于
相关
一种
使
操作
把
连接
检查
具有
这个
当
主要
采用
有关
安全
部分
给
位置
过程
多
应用
至
是否
很
发展
标准
着
前
然后
10
性
让
处理
6
计划
作为
无法
试验
或者
之间
_
=
自己
已经
执行
方式
指定
用户
功能
国家
运行
程序
不同
开始
0
支持
对于
美国
企业
以下
因为
结构
里
确定
好
如
材料
值
工程
按
类型
完成
存在
s
日
r
报告
活动
创建
A
号
客户
测试
发生
条件
一些
得
去
结果
做
装置
组织
人员
&bra;
&ket;
高
点
区域
环境
生产
图
状态
未
这种
不能
同时
那个
范围
最
一
单击
确保
服务器
出现
重要
输入
能够
但是
压力
大
目标
市场
并且
配置
实现
型
8
产生
协议
由于
式
保护
内容
者
表
包含
记录
对象
出
按照
且
a
7
'
获得
经济
计算
每个
两个
名称
条
模式
认为
工具
说明
方面
什么
有效
法
机构
提出
现在
自动
业务
们
发现
质量
测量
性能
就是
能力
12
这样
最大
若
大@@
区
过
利用
错误
正在
增加
表示
承包商
及其
合同
中心
关系
风险
不@@
之前
因此
B
带
其中
器
不是
模型
参数
适用
投资
一@@
网络
均
水
比
不会
之
基于
非
20
添加
作用
符合
中@@
提高
mm
故障
C
基础
允许
调整
如何
关于
需
国际
想
知道
线
组
存储
地区
打开
政府
无
超过
成为
它们
建立
又
子
删除
帮助
9
例如
得到
车辆
检测
选项
属性
应用程序
各
施工
吗
模块
定义
开关
固定
导致
小
m
较
直接
资源
目的
评估
B@@
温度
再
板
为了
世界
应该
实施
成本
所以
时候
期间
事件
日期
之后
不得
传感器
单位
30
表面
原因
发动机
*
机
正确
更改
费用
组件
软件
建议
空间
保持
当前
法律
考虑
管
只
启动
内部
现场
开发
水平
处
信号
T@@
变化
访问
继续
化
非常
像
重新
+
数据库
移动
决定
位于
那
量
外
11
价值
介绍
速度
列表
...
交易
达到
部门
方案
D
b
类
批准
生活
一次
15
社会
确认
而且
地址
行为
本文
负责
尺寸
特性
修改
通常
通知
F@@
R@@
接受
更新
·
银行
数量
无@@
小@@
地方
关闭
仅
希望
计算机
委员会
命令
了解
M@@
任务
保证
D@@
支付
规范
主
每
完全
措施
价格
按钮
造成
进入
代表
资产
满足
许多
低
即
P@@
人们
目前
段
集团
这是
减少
另
形成
需求
100
会议
H@@
50
版本
解决
以上
限制
针对
提交
其它
管道
最后
至少
因
比较
头
正常
部件
基本
销售
维护
L@@
经
&gt;
实际
建设
一样
混凝土
电缆
注意
多@@
治疗
方向
一起
率
拥有
层
有限公司
输出
准备
上@@
间
保存
须
全球
必要
城市
代码
员工
因素
标记
更换
步骤
一般
教育
还是
各种
N@@
降低
C@@
特别
应当
恢复
E@@
自
之一
度
水@@
工艺
位
整个
约
理论
页
形式
看到
供应商
来自
合作
G@@
参考
作业
方
制造
级
运动
名
总
政策
多个
指
查看
成员
d
面
长
只有
电压
调查
上述
电源
行业
部
以便
视图
x
S
成
成功
车
小时
高@@
行
项
学生
相同
一定
W@@
站
适当
空气
受
K@@
S@@
规则
#
件
&amp;
验证
改变
三@@
电路
效果
文化
t
资料
3@@
起
油
特定
相应
请求
V@@
下列
消息
最终
那么
却
节
单元
门
V
道
持续
平台
专业
A@@
很多
16
数
申请
看
I
增长
Windows
才
分配
学习
处于
拆卸
领域
文档
特征
力
O
体
见
轴
设施
证明
检验
T
4@@
螺栓
讨论
现有
条款
可@@
L
数字
策略
路
全部
天
F
25
款
编辑
快速
i
汽车
从而
阶段
个人
培训
泵
健康
责任
参见
网站
~
阀
发布
描述
建筑
集
X
事
一直
孩子
自@@
对话框
启用
制定
下@@
物
解决方案
家
权利
EMC
患者
期
14
注册
探讨
联系
不要
那些
生成
E
•
电子
有@@
系列
起来
组合
组成
如下
2@@
接头
外部
P
正
O@@
大学
卡
还有
新@@
复制
流
R
作
机器
采取
c
结束
格式
评价
市
源
实验
程度
失败
这里
13
找到
指示
附件
40
高度
表明
分
人@@
单
文件夹
螺钉
停止
图像
J@@
未来
5@@
只是
长度
呢
内@@
进一步
热
备份
经营
团队
简单
这一
授权
稳定
机械
结合
斯
传统
光
经验
M
零件
受到
颜色
反应
语言
喜欢
无效
拉@@
作出
运输
防止
编号
插入
工业
对@@
分别
特殊
地@@
流程
转换
详细
之@@
具体
片
6@@
维修
仍
可用
距离
历史
学
独立
诊断
米
然而
详细信息
引起
节点
收入
综合
避免
损失
块
同意
24
识别
目录
焊接
东西
随着
获取
金属
大小
室
带来
经过
工程师
双@@
N
金额
特点
循环
图纸
18
资金
来说
证书
损坏
分@@
我国
业主
窗口
孔
合理
某些
采购
元
加工
大量
强度
美元
英国
库
辅助
除
驱动
告诉
吧
拉
规划
参与
良好
7@@
关键
才能
单@@
细胞
60
搜索
盖
优化
场
表现
观察
过去
取得
菜单
收到
制度
000
天@@
相对
接口
定位
基金
明显
通信
的话
严重
不可
分布
两@@
返回
电流
外@@
所述
出口
剂
e
电话
山
G
尽管
次
测定
通道
一项
边
走
购买
平均
涉及
调节
电机
旋转
改进
口
–
列
虽然
元素
台
接收
发出
&bar;
s@@
所示
安排
出来
灯
发送
贷款
提升
9@@
查询
先生
出@@
危险
三个
p@@
预测
类似
扩展
8@@
制造商
1.@@
拆下
一切
三
模拟
此外
马@@
轴承
机会
路径
默认
m@@
不断
岁
二
不过
保留
行动
c@@
解释
西@@
甚至
原则
加强
模板
气体
体系
X@@
d@@
事情
e@@
卷
心@@
参加
一部分
连续
完整
曲线
匹配
链接
变更
b@@
热@@
道路
海@@
重@@
达
设定
函数
ID
全@@
依据
气
加@@
除非
接触
网
前@@
许可
长@@
远程
首先
二@@
一位
同
开展
同样
花
U
标签
流量
监控
权
此类
开@@
电@@
课程
I@@
一点
0@@
本地
手
当地
x@@
面板
杆
控制器
取消
比例
支架
n@@
°
欧洲
创新
股份
特
Microsoft
含量
战略
最佳
端
意义
发@@
U@@
商业
动态
页面
克
卡@@
密封
直到
图形
磁盘
德
尔
跟
供应
制
足够
盘
学校
土地
仍然
容易
书
17
种
生
选项卡
代理
本@@
包
框架
键
混合
最近
货物
日本
另外
状况
四@@
入
只能
Server
权限
称
努力
尝试
些
制动
义务
清单
高级
监测
机制
主@@
构成
端口
t@@
一份
侧
认证
80
制作
住
爱
促进
21
今天
承担
朋友
属于
更加
收集
费
资本
金@@
形
审查
h
动力
h@@
白@@
字
开
人类
一条
平衡
总成
共同
生物
知识
双方
最高
阿@@
特@@
法规
频率
分类
下降
自由
屏幕
最小
等级
缺陷
利益
接地
共享
手动
o
带有
实例
角度
光@@
－
分钟
长期
在线
一下
域
H
响应
两种
而言
版
局
改善
股东
物质
放置
90
曾
相@@
国内
进
安@@
y
科学
打@@
成@@
有些
厚度
重复
角
打印
运营
液
19
占
请参阅
系
转向
清洁
将会
几个
指导
例
唯一
即使
如此
适合
最好
2.@@
Web
动物
包装
同步
线路
吃
员
理解
心
i@@
算法
自然
风@@
条例
找
IP
一致
主机
工厂
加入
22
为什么
料
感觉
后@@
选定
0.@@
排放
觉得
指标
董事
遵守
警告
一家
关联
合并
品牌
钱
环
现象
文本
正@@
订单
监督
其@@
用@@
角色
先
大于
日志
为@@
非@@
电子邮件
相
终止
修订
级别
螺母
1.
风
31
给出
电
重大
以@@
效率
f@@
全面
一名
时@@
立即
临时
燃油
飞机
液压
事故
专家
g
地面
支撑
标志
下面
拧紧
架
和@@
国
否则
小于
斯@@
200
K
色
明确
花@@
单独
密码
低于
交流
3.@@
实体
最新
香港
邮件
北京
及时
传输
$
球
转@@
差异
加
审核
除了
没
视频
紧固
配备
再次
箱
手册
分离
南@@
合格
指南
写
意见
交付
大型
y@@
州
标识
大多数
付款
利
er@@
石
释放
编制
家庭
基
直径
复杂
指令
以前
电气
清除
发
报警
4.@@
关注
做出
尤其
副本
全
办公室
帐户
队
升级
类别
生@@
驱动器
指出
in
产业
阀门
钢
表达
重点
联合
32
登记
几乎
膜
座椅
亚@@
实践
经理
强
套
增强
政治
导线
许可证
证券
平面
压
柱
双
流@@
协调
五@@
2.
容量
商品
站点
500
上海
结论
红@@
整体
石油
10@@
县
气@@
万@@
游戏
系数
5.@@
或@@
2010
从@@
儿童
声
称为
酒店
感到
槽
广泛
当@@
回
客户端
主题
动
买方
媒体
断开
70
放在
集成
转移
k@@
这@@
W
文
a@@
更好
金
规格
垂直
视为
不到
座
低@@
应为
Z@@
不再
植物
声明
应力
贸易
河
训练
变@@
第一
加载
运用
预期
用来
引用
集中
结果表明
er
概念
数值
附录
便
预计
最低
有权
23
核心
使得
经常
应@@
病
禁用
保险
短路
表格
覆盖
想要
老@@
控制系统
财务
优势
同@@
以后
周期
跟踪
罗@@
章
激活
身体
离开
钢筋
年度
状
履行
书面
重
某
重量
似乎
列出
食品
德@@
硬件
所@@
头@@
变量
谁
面积
v@@
比赛
化学
布
变得
容器
附近
污染
真正
2000
业
拒绝
现代
咨询
发行
含
叫
投标
原理
负载
附加
地点
电脑
请单击
顺序
仪表
回@@
指数
●
额外
Y
巴@@
听
临床
英寸
以来
疾病
波
轮
样品
Y@@
美@@
每年
如@@
未能
合成
手@@
金融
快
35
异常
28
玻璃
01
城
利@@
日@@
潜在
属
时期
合适
g@@
燃料
事项
2008
性质
应对
压@@
思想
论
意味着
中间
也许
总是
我@@
电阻
艺术
登录
根
显著
收益
法@@
弹簧
管@@
相信
担保
普通
@
林
物理
树
厂
账户
码
旅游
基@@
统计
一年
董事会
创造
的@@
第一个
办法
承诺
签署
油@@
充分
比@@
示例
能源
空@@
过@@
效应
能量
抗@@
监管
打
比如
行@@
事务
消除
音乐
具备
门@@
世纪
不仅
正式
该@@
自定义
w@@
装
语
而@@
提示
反@@
规模
下载
掉
资格
电池
认识
准确
照片
墙
交通
冷却
秒
平@@
2015
公共
方便
适应
线束
酸
部署
山@@
布@@
当然
高压
6.@@
各@@
船
进口
每@@
一天
死
大约
多少
样式
l@@
展示
来源
振动
问
机@@
电影
装配
锁定
符号
品
验收
货币
变形
只要
℃
点@@
实验室
东@@
药物
通用
生命
约束
会@@
相比
负荷
修复
卖方
成立
性@@
连接器
形状
顶部
r@@
注
行政
某个
干
导入
制备
桥
改革
领导
p
受@@
1@@
科技
机组
塔
财产
反映
竞争
转让
专用
黄@@
in@@
on
边缘
质
亿美元
大部分
共
26
手机
精神
防护
木@@
英语
动作
万
构建
各个
总@@
印度
索引
可靠
很大
点击
齿轮
面@@
视
未@@
背景
巨大
补充
怎么
300
字段
价
每天
调用
功率
给予
职业
底部
f
全国
空
2011
社区
进程
ECM
化@@
国@@
补偿
周围
工
统一
纸
文章
半@@
声音
投标人
积极
马
禁止
深度
小组
土
意识
教学
挑战
梁
虚拟
预算
格
波@@
投资者
原@@
原
配合
当时
文@@
发电机
45
定期
.@@
乙方
2009
消费者
西
公@@
总统
医院
u@@
推动
7.@@
电力
通@@
甲方
一旦
介质
智能
令
趋势
进@@
防@@
逻辑
2012
IT
界面
底
清@@
科
证据
多种
债务
对应
黑@@
破坏
么
地震
Q@@
好@@
同一
四
融资
试图
提取
在@@
新型
供
食物
深@@
浓度
词
死亡
大家
2014
无论
±
切换
感
那里
摘要
估计
不足
校准
原始
圈
元件
合@@
话
几@@
配件
软管
仪
面临
十分
宽度
仪器
液体
微@@
有人
法兰
十@@
第二
公开
子@@
锁
中央
审计
越来越
自身
右侧
含有
字符
医疗
女性
此@@
向导
机油
协会
报
扫描
密度
起@@
取
绿色
来@@
27
铁路
2016
这么
物品
德国
2007
尔@@
构造
生效
那@@
o@@
遇到
华@@
编码
违反
管理员
典型
鱼
3.
─
啊
an
农业
若要
时代
体验
壳
船舶
较大
00
变
罩
隔离
损害
本合同
主管
带@@
稳定性
接
名@@
举行
销
清楚
干@@
转速
桩
医生
在于
压缩
持有
常规
人士
人民
接近
继电器
加热
超@@
天然气
取决于
选
l
交@@
以外
近
方@@
左侧
一系列
图标
文字
应急
北@@
现金
据
股票
保障
2013
塑料
al@@
基因
入@@
毫米
出售
力量
完善
房间
组@@
协助
计量
之外
迅速
审批
买
四个
有助于
纤维
材质
故事
左右
利润
井
构件
维持
差
丰富
困难
展开
人口
从事
沙@@
厚
报表
数@@
联合国
族
石@@
古@@
上升
得@@
型号
替换
神
决议
推荐
今年
样
调试
作品
群
调@@
传递
期限
家@@
蒸汽
ing
储存
过滤器
替代
读取
图片
u
150
J
六@@
认可
×
29
定@@
早期
泄漏
海
19@@
布局
证
合
身
螺纹
铁@@
第三方
排@@
两
18@@
映射
各项
分子
无需
於
计
培养
短
表@@
真的
格@@
股
素
端子
填充
空调
顾问
照明
制动器
广告
放@@
直@@
冲突
经历
SQL
用途
高于
土壤
太@@
脚
红色
尚未
太
车@@
清洗
建筑物
到达
拿
是因为
分包商
每次
高效
蓄电池
水泥
8.@@
包@@
结算
宽
冷@@
万元
流动
左
达@@
脚本
绝缘
法院
技能
严格
人民币
酶
变压器
倍
机场
首次
予以
尼
战争
始终
投入
初始
间隙
fc
右
阅读
即可
环@@
内存
下来
收@@
相当
科@@
款项
穿
税
池
上面
主席
报道
这项
皮
设立
决策
75
存储系统
等于
查找
本身
官员
药
ch@@
明@@
里@@
仿真
反馈
部位
细节
有限
职责
排除
百@@
张
维@@
提@@
房
随
零
1000
参照
塔@@
钢@@
神@@
单个
除外
界
公路
会计
工人
而是
待
愿意
手术
法国
学院
场景
1.5
粉
铁
损伤
放
权力
CD
平
年@@
顶
st@@
地球
2005
布置
副
传播
手段
信
成果
事实
寻找
导出
飞@@
光纤
开放
集@@
辐射
筛选
真@@
实际上
松开
确实
假设
观点
曲面
总体
儿
k
400
王@@
间隔
体@@
变速器
或是
制@@
获
安全性
导航
口@@
用作
普@@
局部
安
等待
约定
纳
克@@
插头
岛
an@@
连@@
成分
蛋白
样本
云
建造
en@@
33
尼@@
商
木
选中
叶
cm
倒
框
2006
复合
派
沟通
披露
涂层
冲击
轮胎
有着
这次
地位
对比
合作伙伴
精度
曾经
工@@
管理器
并非
具
控件
一步
有时
哈@@
变成
外壳
力@@
扭矩
整合
定
夫
亚洲
经@@
村
el@@
02
旨在
生长
装饰
it@@
处置
自动化
专门
交换
板@@
36
作@@
伤害
皮@@
居民
店
驾驶员
XML
理想
顾客
均匀
支出
扩大
13@@
离合器
操作系统
接@@
病人
火
轨道
精@@
第一次
误差
岩
授予
分区
火@@
亚
八@@
通讯
做好
分为
权益
壳体
半
名字
公众
威胁
填写
处理器
终端
利率
办理
将@@
免费
润滑
橡胶
距
美
荷载
哪些
省
管路
干燥
不应
优先
点火
燃烧
采集
清理
鼓励
回答
中断
磨损
主义
复@@
纳@@
卫生
命名
先进
链
电视
警报
主体
理由
公告
指示灯
牌
00@@
身份
条@@
绘制
负责人
皮肤
先@@
边界
随后
腐蚀
那样
注释
推@@
转动
初步
攻击
思考
教师
真实
眼
备用
连
开启
坚持
既
干扰
丝
es
取@@
明
母亲
别
怎样
独特
看起来
字符串
五
‘
遵循
骨
缺乏
爱@@
跑
吸收
183
实@@
紧急
风格
犯罪
冲@@
图@@
脱@@
加速
要素
结@@
宣布
新闻
实时
物料
一只
张@@
标题
font
核
模
别人
现状
代@@
此时
白
为此
预@@
任
转
互联网
改造
享受
strong
乘客
及@@
基础设施
档
延长
鼠标
逐渐
活塞
一张
拆除
电磁阀
防
行驶
PC
集合
ST@@
白色
眼睛
阻止
收购
病毒
圆@@
ed
Z
强@@
迁移
噪声
盒
浏览器
所在
额
画
份
臂
最@@
超出
操作员
脉冲
推进
不锈钢
弯曲
读
反
al
强调
第一@@
常见
签订
核@@
场所
排
立@@
做法
楼
相反
新建
供电
声@@
消费
出错
GB
指@@
相互
招标
监视
弹性
租赁
车轮
达成
序列
回到
re@@
塞@@
动@@
送
退出
任意
总结
红
可靠性
网@@
学@@
飞行
2003
师
公里
镇
高速
引导
远
放弃
传动
48
军
父亲
依照
预防
女人
加拿大
战
意
ar@@
抗
公式
路线
球@@
三维
到@@
往往
600
编辑器
直至
难
进度
任何人
体积
完
过滤
债券
Exchange
4.
预
感染
9.@@
所选
解
回收
重新启动
修理
v
赔偿
外观
如有
随时
酒
该项
于@@
引入
所需
保@@
更@@
吸引
想法
en
港
令人
伊@@
报@@
呈
满意
短@@
妇女
打印机
作者
多年
轻@@
情形
房地产
库存
看看
抑制
超
试@@
颗粒
要@@
修正
儿子
微
永远
奥@@
盐
配@@
草
教
男人
提前
可见
澳大利亚
换@@
锅炉
土@@
95
吉@@
少
64
他@@
组装
Q
看见
很快
回路
Internet
焊缝
保养
去年
旧
由@@
55
发挥
担任
通
判断
得出
栏
2017
净
雷@@
HP
偏差
架构
他人
失去
突出
管线
委托
形@@
活性
写入
深
通风
含@@
阐述
签名
翻译
自我
渲染
承认
极
检索
人工
驾驶
欢迎
听到
12@@
34
激光
营销
象
精确
血@@
恩
路@@
芯
股权
LUN
音
65
配置文件
额定
Ch@@
未经
基地
选@@
担心
米@@
故障诊断
塞
小型
载荷
身上
失@@
教授
装@@
动画
女@@
®
帮
我会
2.5
发票
年代
03
吸@@
刀
黑色
隐藏
律师
罗
缓存
引@@
on@@
氧
早
铜
一场
还原
左@@
室内
对此
可是
父母
伦敦
探索
票
基准
华
Manager
俄罗斯
负债
线@@
姓名
诉讼
莫@@
向@@
起动
大会
突然
满
异@@
后面
发表
力矩
赛
圣@@
沿
离
滑@@
风扇
周
at@@
进展
整@@
公布
贝@@
地板
索赔
场地
小心
研发
中国@@
森
术
年龄
共@@
14@@
剩余
概述
原料
争议
老
床
外国
接线
入口
绩效
kg
里面
浏览
垫圈
千@@
38
各自
壁
速率
移除
告知
关
17@@
著
肯定
丢失
夹
海洋
相似
推出
色@@
尽可能
舒适
班
讲
右键
网格
记忆
案例
领@@
监理
触点
列@@
绝对
37
非洲
之中
溶液
已@@
常@@
龙
冷
托@@
林@@
论文
变速箱
队列
is@@
生态
人才
我方
百分比
科学家
制成
车间
情@@
设
零部件
卫星
机关
地图
总线
切@@
装备
一套
RE@@
代
or@@
16@@
转化
15@@
各国
李@@
真
42
120
切割
碳
农村
可能性
日常
南
危害
胶
延迟
于是
充满
SP
一件
车门
2004
产量
种类
信@@
工作人员
cf
前面
这位
导@@
步
压缩机
线性
王
气候
一组
磁@@
转子
渠道
0.5
胶@@
兰
面对
签字
博@@
老师
Nike
苏@@
软@@
运作
ii
肉
播放
升
私人
天线
准则
各类
远@@
女
凡
症
团
治理
神经
子公司
研制
图表
衣服
活@@
必需
运@@
七@@
指明
体现
展
实行
眼@@
纠正
人数
真空
满@@
j@@
IN@@
II
情
物@@
以色列
反对
掌握
钥匙
危机
流体
中有
罐
运转
萨@@
仅仅
岩石
因子
代理人
引发
变动
能@@
寻求
在内
冷却液
事实上
失效
亦
聚@@
环保
ra@@
身@@
建@@
所用
极@@
态度
亿
龙@@
分享
品质
雇员
事业
独@@
袋
理念
会话
工资
术语
火灾
信用
她们
专@@
ic@@
途径
越
航空
常用
简称
细@@
太阳
刺激
柜
不管
断路器
单一
例子
制品
脑@@
或许
排气
适配器
主动
高温
图案
几何
靠
初始化
表达式
减@@
定制
至@@
近@@
轻松
电动
除@@
04
星
冰@@
有机
合金
没@@
耶和华
妈妈
公园
按下
&lt;
到期
最初
随机
万美元
横@@
民@@
CO@@
上市
寿命
20@@
粒子
输送
km
ro@@
总额
艾@@
完美
标
案
再@@
强大
报价
然
旅行
症状
奖
碰撞
低压
快@@
无线
永久
供@@
磨@@
编程
邀请
台@@
信贷
往
年轻
后续
限于
氧化
更为
井@@
托架
穿过
军@@
仲裁
键入
支行
因@@
倾斜
江
铝
前提
松@@
05
对策
协商
障碍
m3
传送
房子
针
补@@
瓦@@
鉴定
兼容
贵
横向
团体
血
简化
国际@@
配有
欧元
章节
所属
菜
垃圾
为主
院
z@@
本人
et@@
联@@
密@@
驱动程序
贡献
巴
后来
44
51
联邦
房屋
速
演示
现实
毛@@
离@@
看@@
我要
街
as@@
经销商
le@@
煤
id
规律
开挖
当局
延伸
85
爆炸
另有
鞋
姆
如今
方程
排水
炉
河@@
有所
ISO
走@@
地下
试样
杯
专利
此处
首@@
道@@
800
意大利
52
青@@
存放
职能
会员
书@@
理
欧盟
增@@
熟悉
申请人
建
下方
心理
莱@@
发射
滤清器
信任
云@@
评审
第三
置于
行使
切
强制
特色
忽略
极限
250
周@@
湖
坐在
电动机
常常
推广
中的
落
雇主
上方
召开
span
→
划分
转变
间接
天气
加密
药@@
普遍
向上
控制台
届
轮@@
施加
来看
月份
首席
MS
安装程序
温@@
1.2
加快
著名
课
解@@
值@@
跨
对齐
易
产@@
偏@@
节@@
证实
角@@
网页
ad@@
kV
意外
并@@
缺少
套管
联盟
西方
正是
退@@
来到
婴儿
显示器
士
交叉
汉@@
检修
英尺
杂志
挂
CLARiiON
福@@
蓝色
载
列车
标注
SA@@
产
测
盘@@
公约
使@@
断
其实
孔@@
正如
软
棒
理@@
侧@@
底@@
St@@
等等
垫
伤
期望
民族
上帝
分解
一方
SP@@
官
变换
酒@@
叶片
求
阵列
API
选举
违约
森林
还要
运
机理
箭头
化合物
依赖
态
编写
10.@@
地质
CA@@
清晰
国务院
快照
根本
狗
奇
41
圆
即将
传@@
静态
主任
06
拟
最多
按@@
索@@
隧道
密钥
二次
代替
混@@
做到
树脂
难@@
缸
职位
意思
am@@
减小
耐@@
快乐
引擎
依然
考试
本条
黑
AS@@
暴露
竣工
死@@
加上
组成部分
区分
导管
落@@
灵活
LED
利息
消防
晚上
线圈
教@@
天然
上涨
不受
涂料
IC
物流
增大
应由
提到
负
和平
武器
附属
成熟
取代
麦@@
习惯
需@@
硬
有点
建模
就业
承受
中所
乐
管理人员
曼
有用
加以
消耗
风机
翻@@
名为
施@@
与其
牛
字母
谈判
形态
乐@@
测@@
两年
次数
随@@
沥青
轴@@
东
丝@@
很@@
车身
明白
单据
纽约
记者
党
兰@@
调
零@@
气缸
是从
交
国外
ol@@
护@@
透明
笑
妻子
档案
数目
一块
估算
URL
三种
享有
不少
模糊
46
笔
质@@
两侧
群集
激励
学会
战@@
本次
干净
导向
查@@
诺@@
矩阵
润滑油
顿
这类
其他人
車辆
虫
初@@
部队
解除
纳入
接合
出去
母@@
食
暂停
截至
库@@
SC@@
糖
世
已有
警察
配
各方
一半
耳@@
深入
2002
叶@@
活
应付
踏板
英里
高兴
博士
联系人
英@@
说明书
事@@
物体
非线性
不想
右@@
求@@
直线
音频
43
粗@@
杀
动力学
ed@@
被@@
全局
关@@
留下
援助
人物
加热器
宣传
好像
49
ab@@
分行
对方
很少
第二个
重要性
回来
并用
洞
修@@
ent@@
不错
优点
紧@@
亲@@
易@@
装载
收费
保密
了@@
39
六
SE@@
呈现
5.
哪
有效性
向下
重试
事宜
视觉
改为
泰@@
传真
食@@
钻孔
劳动
开口
足
截面
必@@
卸载
60@@
撤销
灰@@
错
伯@@
编@@
触发
位@@
洗@@
菌
规程
1.1
护理
法庭
绑定
靠近
56
间距
血管
感受
赢得
托
勒
存
付
部@@
毛
值得
AC@@
em@@
树@@
兴趣
美丽
货
草@@
es@@
ar
融合
矿
品种
香
情绪
焊
骨@@
几年
吨
海外
形象
评论
08
收
72
司法
第三@@
不用
根@@
索
处@@
比率
详情
难以
IP@@
优质
管理系统
el
2.2
充电
本发明
喷@@
缝
車
发电
程
房@@
立
好处
奥巴马
余@@
层@@
设有
公差
数学
联
标@@
成长
2.1
采@@
号码
峰
瓶
居住
结
别@@
一台
印刷
2001
由此
将来
女孩
枪
砂
跳
亮
密封圈
筒
合法
军队
因而
说@@
行程
耦合
广@@
凭证
敏感
鲁@@
盖@@
过度
群体
迪
病@@
侧面
上部
煤@@
药品
强化
机器人
为止
义
坐标
路面
BS
PS
断裂
直
安全带
所有权
半径
试
练习
表单
打算
杂@@
强烈
中华人民共和国
後
香@@
论述
技巧
案件
IS
投@@
消失
船@@
name
九@@
美国@@
游@@
富@@
控制阀
办事处
呼吸
54
作战
il@@
附表
清
面前
抽@@
新增
47
史
事先
im@@
配套
DC
梅@@
大脑
排序
陈述
表中
SAN
一段
时刻
成都
腿
矿@@
罚款
ap@@
每月
怀疑
窗
银@@
边@@
星@@
举办
支@@
节目
农@@
瓦
营业
当事人
条目
卷@@
涡轮
暗@@
光学
花费
陈@@
电子@@
肿瘤
断@@
欧@@
鱼@@
尾@@
网上
66
亿元
越@@
3.1
ri@@
顶@@
一座
液@@
税收
请@@
停车
非法
打造
记
温
印
男性
可行
前景
常
改@@
原来
造@@
牛@@
威@@
收取
尾
齿
仓库
z
停机
味
帧
多次
业绩
自行
体育
境内
IS@@
AP@@
选用
可用性
裂纹
沙
过渡
全新
俱乐部
感@@
SAP
校正
观测
诺
滑动
汇率
一层
财务报表
多数
更大
模具
发育
朝
商标
氏
id@@
官方
冲洗
答案
存@@
以为
大陆
黄
想@@
平行
吊@@
黄色
管理层
人群
电厂
月@@
酸@@
元@@
大气
园
键盘
观
.com
摩擦
道德
洛@@
提
3.2
ion
优秀
对话
污水
余额
出版
重视
催化剂
电子地图
抵押
韩国
帕@@
取样
言
彻底
流行
户
辊
公平
伏
便于
离子
之日起
大鼠
贴
ot@@
紧
有趣
总部
重建
99
财政
操纵
扣
探测
迪@@
三年
弹
众多
接下来
现@@
纵向
预定
un@@
早@@
文件名
注入
升高
脸
散@@
硬@@
做@@
指向
诺基亚
康@@
束
某种
成绩
腔
车型
定价
63
DS
旁边
商店
鸟
管理局
破产
去@@
下跌
字节
Sh@@
进步
波动
依法
反射
窗格
所得
工具栏
4.2
假
桥梁
换
Al@@
cs
采样
星期
一致性
拍摄
脚@@
磅
co@@
十年
兹
Active
伦
涵盖
98
61
废水
所有人
头发
得以
钢板
公民
节能
区别
类@@
江@@
办
之内
MA@@
器@@
法案
IBM
水泵
or
进气
法定
第二@@
合约
烟@@
玩
／
53
西部
人体
AR@@
日历
哪里
纸@@
出席
厂房
标高
卖
并未
藏
见@@
4.1
噪音
创作
一级
倒@@
合规
铜@@
封@@
厅
说道
费@@
宗教
存款
充@@
伟大
刚
沟
输@@
le
曲
剂量
等@@
文明
3.5
语音
住宅
顺@@
评定
存档
字@@
有利于
垫片
可选
纹理
直流
指示器
ST
致
希@@
机架
底座
复选框
松
小说
语句
个@@
提醒
50@@
赛@@
DVD
醇
AC
乳@@
量@@
两次
所谓
易于
AT@@
拉伸
图书馆
舱
服
仪表板
配方
福利
湿
谈
粒
港口
汇总
合伙人
若@@
开支
偏移
Directory
凯@@
防治
us
沿着
废物
犯
去除
聚合物
膨胀
维
吹@@
静@@
密封件
修
医学
追求
音@@
蛋白质
丁@@
阳
商务
绿@@
简@@
应有
端@@
不得不
穿着
疗效
sh@@
调节器
男子
62
30@@
看来
城@@
调度
势
再生
领先
iSCSI
经典
停@@
短期
浮@@
所有者
意@@
计@@
坐
与@@
控
网络@@
解析
mg
想象
CT
沉@@
致力于
兴@@
商@@
一边
ag@@
茶
出发
泡沫
雪@@
固体
截止
承@@
冷却器
EC
阿
同事
检
喷嘴
长时间
尽快
行李
升@@
订阅
催化
Re@@
保
公允
雨
浆
票据
甲@@
克隆
总数
电极
DTC
望
过来
客
110
3.3
IT@@
名单
磁带
上下文
降@@
弗@@
屋顶
存储器
层面
插@@
实
f16lang1024
时尚
成型
留@@
军事
围绕
副@@
考察
后果
重置
女儿
计数
服装
苹果
高校
射线
事物
不够
封闭
class
封
ation
薄
材
水位
步@@
市@@
注册表
致@@
86
论坛
坏
1.3
前后
任命
套件
项下
听@@
痛
CA
油箱
68
遭受
不利
新加坡
25@@
营养
宝@@
ER@@
季度
96
58
min
控@@
停
归@@
目
疲劳
视@@
广播
兵
球员
海上
申报
算
晚
下去
效益
就要
马达
痛苦
奖励
位移
轮廓
烟
像是
_@@
沉积
大规模
罪
下部
坡
不良
产物
AL@@
斜@@
柴油
07
约翰
送@@
推
埃@@
娱乐
雅@@
灰色
螺旋
面向
油缸
客户机
SA
层次
肉@@
不必
灯@@
金属@@
原子
谱
消@@
AD@@
农民
发放
嘴
Name
插座
SE
文件系统
67
细
日子
桶
色彩
减轻
本书
财富
记@@
背@@
此次
ac@@
整理
订购
持有人
烧@@
说话
否
59
互@@
出于
表演
民
每日
氮
衣
尽量
支
免疫
6.
世@@
飞
乌@@
折@@
助@@
北
细菌
父
经济@@
女士
游客
协作
别的
国家@@
不论
止
57
生存
下午
先前
逐步
地层
伙伴
考@@
阳光
为准
2.4
ic
帽
接通
11.@@
雷
移民
降
社会@@
跳@@
息
参与者
同等
加注
国内外
成就
炎
每周
交货
向前
印@@
种植
馆
职工
漆
教堂
陶瓷
起重机
2.3
只@@
写@@
考核
读数
堆
br
凸轮轴
雷达
下述
普
ut@@
破@@
EM@@
使用寿命
缓慢
司机
用水
假@@
弄
河流
钻
粉@@
12.@@
领导人
接着
六角
缓解
当中
贴图
永@@
防水
灯光
脑
1.0
现
身份验证
检@@
何@@
奇@@
SO@@
后部
投票
28@@
落实
期@@
92
薄膜
倾向
灾难
几种
/@@
甲
扩散
标准化
In@@
其余
文学
显示屏
ur@@
扳手
蒙@@
管理体系
幸福
灰
给定
海关
信心
低温
镜像
显然
本质
较为
供给
ul@@
埃及
旅客
数据源
分层
看着
影
EN@@
地形
野@@
砖
近年来
本节
源@@
EC@@
思维
太阳能
登@@
记住
紧张
打击
尽
牵引
知识产权
区@@
送达
现行
两者
用户名
理事会
血液
家里
暂时
分包
人生
轨
铺设
观念
回顾
班@@
空白
居
无论是
EN
署
客@@
权@@
排列
注明
击@@
必
使用者
图层
控制@@
照
果@@
梁@@
os@@
种子
金融机构
连杆
填料
杜@@
衡量
斯特
回报
累计
西班牙
本法
光盘
et
us@@
职务
5.1
娜
系@@
流动性
and
运动员
洗
卡车
劳@@
评级
污染物
一片
记得
默认值
w
如图
学科
种@@
举@@
填@@
交换机
伊
警@@
霍@@
跨@@
开采
字体
SS
前进
剪切
现代化
用品
真是
CH@@
极大
度@@
干预
片@@
五年
at
甘@@
ing@@
酯
移@@
对称
博物馆
装运
切断
交易所
巴西
一类
围@@
过高
急性
雨@@
研究所
章程
持
管制
弹@@
出生
PLC
蓝@@
果
田
锁紧
较@@
衣@@
即@@
品@@
部长
is
所得税
手柄
有限责任
控制面板
皮带
货@@
重组
福
缩短
探@@
呼叫
备
英文
聚集
瑞@@
绳
创@@
物资
电网
移植
上诉
76
丽@@
丈夫
已知
0.1
总经理
台湾
溶剂
托管
到位
裂缝
藏@@
镜
计入
涂
若干
下游
归档
行星
27@@
芯片
断路
圆形
子系统
心脏
岗位
传
竞争力
胡@@
领
织物
人民政府
以使
足以
观众
吃@@
1998
聚
含义
复制到
磁
邦
No
收缩
务
2.0
完工
零售
阈值
取出
依@@
分散
示意图
体内
计数器
鸡
牙@@
脂肪
滤@@
饮料
不变
语法
RO@@
耳
PC@@
装有
09
加固
回家
未知
蒂
锌
张力
CS
对手
少@@
固定资产
哦
相结合
愿
尽@@
换档
限度
Oracle
喝
队伍
辆
南部
受伤
监视器
麽
ia
这件
分支
堂
条文
绘图
全世界
料@@
信托
注射
94
宝
型@@
古
详见
银
88
批
查
歌
询问
贴@@
研究进展
言@@
之上
餐厅
厘米
追@@
it
占用
末端
股市
氢
湾
句
任@@
广场
旁
感谢
纯
终于
关节
至关重要
审
完整性
税务
什
航
硬盘
钢管
回复
火焰
而定
猪
闭合
往@@
函
七
钩
之处
幅
油漆
IEC
渣
核准
克斯
防火
有效期
立法
校@@
差@@
五个
1.4
LE@@
住房
依
显得
感应
碱
GE
风险管理
sp@@
保险丝
内置
探测器
恩@@
乱
MP@@
分组
锁@@
挂@@
技术规范
体系结构
男孩
Office
地上
借款人
阻力
备件
扣除
鉴于
滚动
DNS
齐@@
href
估价
游
提议
汽@@
放入
思@@
头上
相连
赋予
哪个
硅
一段时间
总监
景观
曲@@
交通@@
坐@@
段落
奥运会
彼此
93
曼@@
pl@@
认真
诗
家人
省@@
MPa
奥
环节
咖啡
止@@
减
勘探
明天
TC
OS
尊重
捕获
71
180
应以
社会主义
隔@@
伤@@
智慧
卸下
翼
电线
养@@
协定
混合物
di@@
销@@
悬挂
瘤
自主
热量
萨
柱@@
蓝
钻井
参@@
CAN
赫@@
黄金
压实
路上
临@@
之下
正面
化学品
分发
追踪
一部
盐@@
资
套@@
汉
武@@
依靠
散
见到
排出
纳米
分开
认知
超声
讲@@
型式
相当于
到底
毒@@
≤
缩放
街道
插件
存货
革命
充足
SS@@
线程
提及
订立
扬声器
看法
出色
肌肉
惊@@
700
劳动力
交互
CP@@
符
巨@@
置
坑
负@@
辛@@
伯
发明
油田
纯@@
净化
一周
麻@@
桥@@
CD@@
硬度
40@@
家具
苦@@
卓越
胸@@
其次
还@@
穿@@
木材
马上
很难
拍
DNA
终@@
此项
首
击
负债表
私@@
对外
LO@@
前往
用以
5.2
97
而成
SD@@
诸如
职
一侧
准
刀@@
焊@@
搭配
路由
帐
​
射@@
针@@
om@@
一根
胜利
车站
北部
杰@@
电路图
买@@
主管部门
雾
恰当
走向
电站
茶@@
负担
急@@
屏蔽
梦想
弱
相邻
宁
浇筑
平等
相关性
保修
陆@@
积@@
雪
不好
生命周期
就@@
81
证@@
夜@@
乡
顶点
颁发
时应
群@@
钻@@
还会
001
秘密
休息
末代皇帝
保证金
NAS
柄
钙
DE@@
法人
应向
无线电
数据表
邮箱
最为
ON
二级
涂@@
-@@
旧@@
手工
画@@
母
老板
雅
公用
冰
Navisphere
矛盾
1999
文献
73
优先级
委
工况
牢固
物种
日益
srt
粘贴
迹象
大学生
清算
办公
曲轴
HSE
ft
民主
绝@@
牙
AutoCAD
CL@@
想到
载@@
工程量
Co@@
损益
天空
潜力
胺
渗透
会计师
球队
读者
关心
坝
1997
镀锌
互动
积分
工序
报纸
23@@
予
http://www.microsoft.com/contentredirect.asp
^
挖掘
RA@@
忙
养
安全阀
那种
手续
热情
观看
斜
USB
八
归
刘@@
不适
成品
敌人
观@@
GPS
对照
资助
速@@
司
天内
放电
礼物
集体
宽@@
船只
航@@
77
不久
仔细
定量
通知书
彩色
委任
股东大会
阴@@
这场
青年
预先
应变
液位
这儿
码头
玛@@
借款
导
预览
82
猫
境
原材料
投诉
um@@
某@@
期待
硅@@
暴@@
Symmetrix
隐@@
Linux
春@@
紧密
个体
少量
目的地
闪烁
热处理
出具
放大
变为
维度
论@@
固@@
高速公路
吸附
年轻人
大幅
信息@@
冲
蚀
刚刚
戴
还应
最大值
篇
NET
增量
AN@@
情感
轴向
将要
季
容@@
发動機
守@@
摆@@
套筒
砂@@
缘
装入
节省
size
性别
成像
筋
完毕
薪酬
所说
映像
刷
远离
例外
起到
磨
91
法官
毒
拖动
as
高达
15.@@
四川
朝@@
附
频道
机柜
但@@
伊拉克
以此
分辨率
彩@@
洛
总量
中文
地下水
機
不仅仅
87
友好
氯@@
铝@@
延@@
梦
DN@@
NA@@
修建
景
素@@
bold
模@@
家族
博
有害
应收
批评
炉@@
营
的确
峰值
4.3
69
扩张
客人
MO@@
显@@
指挥
频
限额
糖@@
气动
画面
今后
二十@@
母线
布线
堵塞
集装箱
官@@
嵌入
冗余
综述
义@@
标书
聚合
轨迹
回归
头部
变送器
丁
纵@@
设计师
平均值
从来
机具
支承
水分
创意
遵从
展@@
不当
RAID
假如
田@@
水中
刷新
效力
径
待@@
毕业
至今
假定
语@@
插
夹@@
这家
保管
转到
ig@@
78
综合征
受损
睡
简要
目@@
要是
AP
堡
拖@@
th@@
提起
能否
ate
恒@@
拧
支柱
光谱
命令行
铺
联机
合伙
■
士兵
搅拌
治@@
刺@@
顺利
湖@@
详图
技术支持
响
上次
如同
伊朗
购@@
CR@@
放到
减值
配电
阴影
储备
脱
车顶
党@@
超级
□
上游
运营商
刀具
备@@
盈利
修补
为例
相位
着@@
绕组
PL@@
刻@@
夜
放大器
洪水
癌
概率
电梯
回应
支座
标识符
饰
谷
可行性
£
旋@@
84
残@@
驻车
振@@
面料
FC
勒@@
数据中心
動
认定
紫@@
耶稣
图元
89
上的
慢慢
佩@@
ASTM
信用卡
UN@@
学员
温度传感器
外面
ID@@
Celerra
标定
双击
校
灵活性
光源
造型
跑步
技术@@
剖面
多么
空中
4.5
找出
影像
卖@@
前端
约@@
体制
加大
契约
词@@
债权人
广州
闪@@
红外
PO@@
基层
CM
看上去
签发
商业@@
审议
洋@@
绿
书面通知
诱导
麻烦
PA@@
NetWorker
累积
异
分割
禁@@
移
滑
复位
安置
录制
信道
车道
谢谢
自行车
吹
对待
m2
每种
SC
分数
喷射
地理
疼痛
投
优惠
发展中国家
生物@@
底板
执行器
汽轮机
命
SD
IM@@
作家
杆@@
化工
精神@@
盆地
前部
份额
供水
纹
反向
新兴
导轨
Autodesk
开路
剧
发起
缴纳
泥@@
微生物
服务@@
160
化学@@
楼梯
滚@@
CE@@
贮存
水库
境外
岩@@
时间表
贵方
生产线
样@@
qu@@
汁
歧管
后者
光线
近期
当作
发光
网关
华盛顿
1995
环境保护
活跃
互相
屏
乙@@
诗@@
适宜
轻
男@@
插槽
人力资源
iii
坡度
寄@@
静
〗
印象
〖
参观
共和国
实用
东部
柔@@
2018
影片
重新安装
ent
影@@
唐@@
演讲
几天
力学
24@@
成形
一体
国王
号@@
反应堆
问@@
古代
雇佣
分公司
地基
偿还
74
社
泡
慢
Center
查阅
漂亮
睡眠
夏@@
倾@@
限值
up@@
TS
盛@@
沃@@
超越
算@@
附@@
水管
以往
依次
密
粗
CC
平滑
for
丹@@
汽油
玉米
可供
哲学
厨房
携带
系统@@
从中
划@@
复合材料
扎@@
時
错@@
火车
笔@@
饮食
棉
册
思
83
延期
糖尿病
接到
变电站
然@@
座位
处罚
继承
学者
lo@@
容
初
氯
上市公司
斗
5000
μ
熔@@
紧固件
项@@
促使
无关
阻碍
包裹
灵@@
从未
室外
外侧
足球
废气
露
7.
公寓
IA
有限元
ml
安全@@
袭击
检查和
突@@
3.4
机遇
`
沿@@
声称
巴基斯坦
涂抹
兄弟
威
储@@
磁场
起始
太多
高性能
士@@
稀释
尖@@
信息技术
洪@@
纪录
足@@
次@@
™
悬架
同一个
积
MB
佛@@
合计
花园
分级
引进
CO
求解
亿@@
谨慎
RS
上下
是不是
玩@@
鼓@@
救
举
电磁
认@@
名义
题
Service
十
矩形
高程
葡萄酒
蔬菜
航空公司
挡
打电话
背
瑞
汤
穿越
添加剂
一道
13.@@
和谐
放松
助理
寄存器
期内
进而
事务所
叫做
OR@@
史@@
破裂
多样性
缓冲
青岛
Dell
背面
接入
氢@@
体重
行车
SI
浅
3000
煤炭
宇宙
一个月
中将
条约
购
全体
酮
不了
买卖
中部
大概
重命名
克服
220
一辆
个人@@
艺术家
CPU
供应链
收回
这时
女子
英特尔
吸入
分布式
饼
CI
另一方
少数
治
结婚
血清
产品@@
爱情
这座
变革
可为
导弹
承包人
令人@@
另一方面
时钟
Hz
署长
占@@
项目经理
知@@
仪式
退休
裂
可变
肌@@
仅@@
鼻@@
灌浆
计算方法
玩具
罪行
小鼠
um
数据类型
泥
判决
何时
桌面
主张
富有
极端
丽
所列
是@@
忘记
气流
二氧化碳
周边
ers
早上
79
感兴趣
慢性
黑暗
指针
6.1
缩
扫@@
浅@@
晶@@
素质
AS
动机
削减
技术人员
报酬
照@@
湿@@
社交
電@@
SharePoint
夫@@
证明书
样子
选取
相机
80@@
重叠
航班
跳闸
误@@
巴黎
均衡
矿物
and@@
他说
政@@
抓住
电器
工件
ph@@
策划
ke@@
爸爸
散热器
水质
教育@@
资质
连续性
订@@
1.6
透@@
发生器
中等
丧失
呼@@
频繁
虚@@
惠@@
厚@@
灵
希腊
略@@
纸张
一支
原油
玉@@
工作组
各级
持续时间
区内
箱@@
卢@@
有利
休闲
内侧
尼亚
汽车@@
创业
杨@@
单词
破
个别
工作站
疗法
借助
带宽
病例
舞
ion@@
川
简介
链条
草图
锤
多边形
Outlook
虚拟机
代价
厂商
阿富汗
1996
900
二维
铸造
损耗
201@@
乱@@
肝
雨水
级@@
差别
暴力
附带
水果
脂
学家
摩@@
海水
错误代码
平板
0.0@@
租金
钉
务必
昨天
钢结构
触@@
电子商务
CM@@
湿度
环境@@
评@@
Services
美好
出版物
阀@@
精
衍生
以免
剪@@
千
秘书
弯
end@@
0.2
注意事项
6.2
疫苗
节约
应立即
糟糕
裁决
竞争对手
遭到
重力
IR@@
景@@
摄影
搬运
项目管理
TE@@
这份
SH@@
有无
预订
管理者
供货
青少年
闭@@
ow@@
上限
手指
这条
溶解
亏损
桑@@
救援
称@@
人权
婚姻
宏
方向盘
吉
PVC
采访
屋
哈
移交
一体化
油泵
百
期权
同学
建成
工业@@
§
隆
泵@@
尖
棉@@
务@@
抓@@
激素
羊
末
集群
作物
18.@@
金融资产
害怕
险
漏
胜
of
动脉
保险公司
拷贝
签
却是
流域
自从
净@@
救@@
粘@@
地铁
有时候
天窗
我能
设定值
签@@
迷@@
这方面
卫@@
3.0
拧下
碎
嘉@@
该国
这会
外汇
捕捉
瑞士
IC@@
li@@
癌症
投影
边坡
折扣
遗传
预防措施
战斗
核算
改
撒@@
链@@
雄@@
州市
学术
射
125
激发
度量
形势
高端
浸@@
齐
效
单元格
碳@@
像素
等效
q@@
业@@
油管
器件
一款
保函
伦@@
style
影响力
候选人
自由@@
Ma@@
立刻
镍
气门
铅
拓扑
爆发
蒸发
职员
TA
你@@
PA
淡@@
滤波器
一同
汇@@
ure
床@@
电信
收件人
拟定
分段
积累
BO@@
处长
登
这款
荷兰
便利
牌照
活力
平方米
CP
PT@@
乘
利用率
宪法
弹出
漏@@
产品质量
信用证
ay@@
200@@
AD
盖板
友
管辖
缩@@
超声波
唱
岸
失
制造业
呆
周末
批次
iv@@
菲@@
原有
Excel
柔软
ell@@
总理
一次性
钳
难题
免@@
那时
流入
M6
大楼
基金会
夹具
认购
法律法规
到来
造
本行
铝合金
购物
数额
26@@
广
运送
接线盒
演@@
US
针脚
断面
客观
夫人
起点
System
团@@
用法
政
FS
新鲜
总计
程序@@
国会
扣@@
默@@
科目
第十@@
心里
摇@@
自然@@
卫生@@
基本上
怎么样
一对
仓
判@@
限定
朱@@
焦点
溶@@
莉
阿尔@@
年底
电位
文书
载体
SM@@
III
伴随
间@@
演员
域名
数字化
共有
进出口
TO@@
关税
玻璃@@
成员国
甲板
灵魂
协同
数字@@
痛@@
餐
整
初期
浪费
脱离
请勿
更正
审@@
期货
注@@
排名
说法
万吨
优@@
增压
发送到
ir@@
废@@
饱和
缺失
放射性
﹑
按住
草案
古老
议会
季节
用地
MW
路基
衬套
氧@@
吸
纳税
受益
IN
喷油器
Sp@@
上午
改性
本章
留在
ib@@
受体
相互作用
知
姆@@
贵@@
碎片
内在
齿@@
维生素
镇@@
实质
菌@@
幼@@
海岸
露@@
限@@
恐惧
容许
悬@@
甲基
续
磷
组分
深刻
补贴
采
气候变化
苯
HTML
老化
14.@@
肺
转型
ch
敷设
课题
启@@
荷@@
双向
DS@@
中心线
尚
精密
晶体
5.3
101
光标
显
话题
般
招@@
ip@@
ec@@
VMware
朝鲜
解决问题
eg@@
给@@
转换器
各地
都@@
CN@@
突破
幅度
耐
硫@@
Pro@@
北京市
墨西哥
机床
宜
罗马
营@@
发言人
谢@@
场@@
鼠
逆@@
Le@@
沉降
激烈
径向
An@@
严@@
下表
鲜@@
以内
圣
高质量
只读
接缝
铺@@
Java
一生
预制
豆@@
av@@
留
光滑
损
工作@@
差距
后方
斑
展现
尺
具@@
折旧
od@@
注重
灾害
秒钟
歌@@
贸易@@
一百@@
缩小
潮
ex@@
争@@
硬化
Data
域控制器
荧光
恶@@
弯@@
舞@@
实在
应能
挤压
核实
加速度
灰尘
联络
底盘
宫
静脉
富
获@@
债务人
公正
人民法院
托盘
喜爱
即便
羊@@
電路
年前
迹
平面图
拓展
环形
Un@@
牛奶
毒品
丰@@
首都
警方
地说
款@@
脱机
NO@@
身边
囊
茨
序
扩@@
油气
潜@@
胆@@
文中
薄@@
阻@@
呀
施行
谈话
ls
17.@@
拍@@
英
略
数组
水量
思路
生产商
无限
居@@
运算
PP
缓冲区
对准
PE@@
墙壁
康
偷@@
商业银行
分隔
玛
摄像机
组中
为何
粘度
基本@@
驻
统治
以太网
管理@@
螺丝
水资源
以供
创
害
感情
大众
出厂
两国
城镇
平稳
良@@
两端
凝@@
养护
MS@@
毒性
聪明
PE
工程设计
小孩
激@@
5.5
≥
出资
通电
喝@@
持@@
用户界面
实力
www.@@
先导
政治@@
写作
征收
久
担忧
爆破
个性化
冬季
属@@
中期
可使
驾驶室
透过
卡箍
预设
发给
DI
大卫
收益率
一群
乳
志愿者
准确性
承载
逃@@
侵蚀
交给
燃气
反复
住@@
夏季
泰国
经济学
最少
幻灯片
卡片
面上
1994
DM@@
愉快
骨料
式@@
当代
输送机
关键字
确立
任一
冠军
防腐
珠@@
苦
器官
基础架构
公
润滑脂
受托人
过于
太平洋
新闻@@
TB
挺
预应力
机箱
幕
一面
揭示
uicontrol
九
折叠
重型
偏离
劳
众
Access
固件
懂
整数
限
欣赏
竹@@
借@@
缔约国
座@@
NE@@
吸引力
博客
钠
依赖于
象@@
专注
批量
如需
临界
量化
珠
哪@@
灯泡
首选
顺
派@@
镜头
双重
汇报
氧气
传达
秋@@
连接件
PR@@
单价
便@@
戴@@
内外
日前
窗户
Th@@
导体
术后
all
储罐
师@@
患
场合
拆@@
滴@@
优良
科学@@
书面形式
靠背
定向
持久
隐私
微型
第四
两条
蒙
研讨会
世界各地
ard
保险@@
列入
深圳
ME@@
欧
欺诈
发包人
1500
Ar@@
分析方法
16.@@
树木
主持
不幸
支票
回转
补
气压
老人
招聘
―
停用
付@@
背后
晚@@
外形
数据@@
替
8.
€
三相
渴望
墙@@
绕
永久性
菜@@
狂@@
胶带
执行官
液化
肌
控股
透露
置@@
财@@
陷入
刚度
韦@@
酒精
判定
不确定性
GB@@
壁@@
后期
DB
所作
最优
扶手
超时
价@@
履约
后视镜
收音机
融入
金钱
石头
莱
备注
探头
SR@@
丹
家伙
税@@
分离器
耶@@
即时
安裝
制订
六个
增补
杀@@
塑
规例
豁免
阻
有力
窗体
秘书长
20.@@
发电厂
选择性
近似
剩下
粉末
阵
答
要点
子女
密切
pro@@
庆祝
词汇
am
喷涂
刚性
本周
矢量
固化
隆@@
搭
特许
受欢迎
啦
电话号码
相关联
推导
势@@
预留
某人
太空
有个
快捷
斗@@
4.4
穆@@
PM@@
委员
膜@@
HTTP
神经@@
讲话
以防
标称
中央@@
建筑@@
脉
蒂@@
片段
话@@
一句
调制
一把
梦@@
故
中国政府
手中
氧化物
冻结
科技@@
锻炼
冒@@
生物学
105
簿
极其
电气设备
介于
分析师
南非
演出
mm@@
硫
折
环境温度
TR@@
奇怪
一流
偶@@
营运
GDP
味道
须@@
信息系统
入库
割@@
出血
便宜
增压器
序列号
备案
兵@@
斑@@
董事长
方可
350
展览
1993
要么
复杂性
0.3
19.@@
乘@@
代谢
温暖
秩序
照顾
繁荣
免
保温
善@@
中止
最早
阀体
爬
宗
成人
签证
自愿
资@@
混乱
版权
喜@@
ff@@
人为
录入
拖车
体育@@
ME
赤@@
贷款人
理性
疑问
拿@@
侵犯
定子
下文
Explorer
课@@
蛋
借鉴
环境影响
舍
130
TP
第二次
梅
除去
遗@@
亲
售
主人
焦@@
物业
凡@@
Cl@@
多功能
微笑
微波
当天
手套
读@@
哥
日至
ov@@
SM
大道
车窗
抢@@
遥控
闸门
70@@
行政@@
看出
业务流程
工会
财年
为空
刮@@
电容器
人力
透
集团公司
逐@@
lb
妨碍
破碎
DM
具体@@
文化@@
防火墙
铰链
供方
躺
11@@
注意力
工程施工
听说
操纵杆
什么样
下次
汉语
递交
Pl@@
阳@@
那儿
提名
延误
增
①
不可@@
起吊
服@@
减速
流向
7.1
痕
视野
以下内容
甜@@
肥@@
进来
权重
示范
扬
柔性
澄清
微软
BR
叫@@
乡@@
相等
所在地
按键
爆@@
胃@@
7.5
围
牵@@
税款
接收器
DR@@
CE
检测仪
泰
现金流量
轻微
水流
弄@@
裁定
UV
浮动
个性
版@@
鲁
征@@
谷歌
示@@
附着
扭曲
q
ak@@
all@@
把手
抛@@
坦@@
氟@@
惯例
GE@@
系指
分析仪
拼@@
承租人
Ex@@
地带
状@@
Max
拔出
ASME
占据
此等
的人
冠
答复
完@@
屋@@
海军
芯@@
虚拟化
起诉
民众
质量保证
兴
资源管理
串行
猛@@
COM
举措
油位
研究者
半导体
连同
扮演
肠
大厦
睡@@
兼容性
防爆
细分
北美
此基础
世界@@
稍后
桌子
提案
DL@@
免除
食用
明细
枪@@
垂@@
群众
发生变化
灯具
流速
接管
钟
AR
DO@@
灵敏度
New
谷@@
一本
少于
处理@@
140
泛@@
隔
施
准@@
线条
魅力
信仰
寒@@
农场
DB@@
透明度
一批
小麦
嵌入式
帕
教练
谈论
费率
断层
刻
均@@
开工
混
Ac@@
期限内
平整
容纳
行走
1990
医@@
发展趋势
第五@@
一篇
账
区间
股@@
重庆
编译
职@@
发酵
粮食
编
腹@@
PT
评分
坏@@
必然
当期
j
家长
废
En@@
震@@
发行人
合资
乡村
240
股本
圈@@
尿@@
正时
PD@@
钟@@
至于
分裂
寻@@
处在
怀@@
缴
肌肤
复苏
IL
高频
产能
礼@@
马来西亚
对接
水下
一行
特权
试剂
龄
凭据
抱
付出
宜@@
藉
向量
刺
百万
锚
严禁
冬@@
刚@@
验@@
发货
弥补
ER
打破
Maya
上周
储量
纪
啤酒
进去
录
受益人
MM
装修
腐败
所指
撒
礼
委托人
该值
暗示
意图
曾@@
楼@@
器具
煤矿
无人
概况
专用工具
青
二极管
批@@
欢@@
个字符
用量
宣@@
6.3
象征
Mar@@
争论
志@@
局@@
工程@@
保护装置
众@@
用电
喷
植被
很小
故@@
电容
DP
工地
当日
港@@
钾
明星
飘@@
擦
911
久@@
无损
骨折
汇丰
滑阀
耗@@
对抗
撞
LA@@
未找到
ment
何种
讲述
歌曲
课堂
Media
火箭
佛
360
四川省
它会
币
OK
抱怨
to
男
菜单中选择
这部
阻抗
志
斗争
席
解锁
一个@@
地表
尔斯
聚乙烯
变矩器
南方
发电机组
行事
凹@@
水箱
晶
為
装卸
中应
丙@@
而已
汤@@
ind@@
玩家
夏天
最长
露出
ay
ob@@
终点
CF@@
杂质
尘
备忘录
指引
室@@
生理
叙述
灭火
增值税
压缩空气
见证
22@@
IE@@
拉线
不可抗力
加权
三次
粘土
催@@
餐@@
3.6
son
敏
艾滋病
摄像头
推力
门户
视角
提述
汇
引线
离散
一路
测试@@
墙上
ity
润滑剂
校验
op@@
基线
横梁
流通
轴线
端部
豆
9.
全球化
租
36@@
TM
远远
税率
拨@@
IB@@
TCP
婚@@
柴油机
衰减
闸
熟
中学
只会
销售额
ong
抓
指控
砂浆
剧@@
爬@@
天花板
贝
界定
松动
砂岩
覆@@
DA
AM
日起
表决
彩
钱@@
时会
保时捷
任何一方
抵达
之时
不同于
航行
账面
de
合同规定
Copy
伺服器
菲
電压
一颗
数学模型
复印件
样板
CR
厂@@
券
心中
赫
力度
ang
肩
所致
施工现场
之类
第二天
被动
恶化
退
制约
前方
四周
多余
昂贵
一间
谈@@
唱@@
面包
TF@@
领袖
幸运
进化
走廊
镁
赶@@
该类
强劲
回填
35@@
乐观
佳@@
振
勘察
年间
本来
高层
亲自
教学@@
本国
东方
第四@@
书籍
暗
CT@@
扇
ABS
故意
酚
截@@
拖拉机
蛇
城区
2.6
诉
迭代
开车
收藏
孔隙
监督管理
智@@
今日
分成
规
参
设@@
7.2
决@@
舞台
统@@
底层
拆
艺术@@
链路
目视
荒@@
缺@@
探针
新西兰
可调
稳@@
碎石
铬
可怕
业界
仅限
走进
想起
缺点
缴付
暂@@
命运
β
明细表
滴
可爱
冷却水
汤姆
办@@
租@@
指派
英雄
额度
两位
遭遇
ang@@
总裁
前照
送到
公认
自治区
议员
开发人员
告@@
上报
容积
奖金
三角
大大
J1
洞@@
消毒
债权
取下
防御
抗体
护套
生产力
堆@@
诸多
情景
惩罚
稿
例@@
Ro@@
one
采矿
注销
反应器
对照组
百分之@@
A1
戏
99@@
差额
IL@@
宁@@
服用
邻@@
烧
加州
此种
服务提供商
IM
调配
旁@@
油脂
有益
锡@@
Net@@
到处
神经网络
lt
率@@
不时
商定
考
亮度
海底
音乐@@
剑
山区
铸件
市场@@
门锁
酒吧
得分
货运
帝国
ce
当今
诚信
标明
联轴器
充分利用
膏
两人
二进制
ET
psi
ge
住宿
儿@@
发送给
犬
守
梯
一人
卸@@
愤怒
下滑
饲料
占有
心理学
价值观
腰
1992
供货商
株
浓@@
5.4
标准@@
更是
组建
甚@@
联锁
仙@@
周一
产权
休@@
般的
將
概要
阶
秀
5.0
麦
正交
Type
DR
燃@@
评
夜间
管件
违法
降解
ds
质疑
标的
刑事
流量计
院@@
熊
MP
WS
岭
PDF
压力表
卡子
有没有
产出
CX3
前期
皮革
朗@@
雇用
轮毂
农
票@@
过期
一笔
胎
预处理
胃
客房
客户服务
搞
450
贫困
工作日
4000
伸@@
水电站
BA
沙漠
设想
籍
SW@@
多重
AM@@
人均
0.4
把握
ev@@
拖
烟气
尚@@
款额
复
历史记录
母公司
相符
处理程序
展望
欲
Centera
土耳其
潮@@
抱歉
亲爱
开心
洁
接待
无疑
弧
叶轮
自信
中方
念
翻
既有
童@@
发达国家
封装
猎@@
没收
APP
凭借
呼吁
电视@@
杆菌
计算机@@
se
励磁
兴奋
鸡@@
颁布
记载
科研
源代码
埋
主流
氨酸
¡
墨@@
够
波形
顶级
此前
闻
累@@
炮
機@@
地块
AT
肥
充气
磁性
弗
漏洞
频@@
摩托车
扬@@
皇家
Visual
演
塑@@
急
播
2020
园区
经济体
主导
符合要求
杰克
监狱
衬里
管理工作
凭
北京@@
法令
广东省
板块
吸烟
纠纷
RT@@
下图
不安
许@@
示
颗
偏
点亮
高强度
自动@@
信息化
韩@@
撞击
喀@@
脸上
开头
一处
越南
TV
便携式
待遇
给水
了吗
多媒体
码@@
刷@@
心灵
助
②
生态系统
阻塞
斜坡
驻@@
车速
某一
采取措施
最小值
03@@
饭
溢出
凸@@
当年
一方面
广泛应用
挖@@
骨架
川@@
NS
工期
劳动@@
CAD
也就是说
冷却系统
并行
优异
几分钟
随意
纪念
优于
巧克力
6.5
过多
残留
民间
夏
浅谈
se@@
饭店
架@@
磷@@
知名
底漆
体外
PI
攻@@
承运人
泄@@
盒@@
议程
欠
高等教育
大纲
ud@@
焦
粒度
北方
站@@
int@@
小姐
扭转
苏
固
额定值
kW
约会
板材
学位
DA@@
罐@@
入侵
降至
凝胶
导电
十二
扭@@
苏联
脸@@
骨骼
厂家
乘坐
触摸
结果显示
虎@@
规@@
ant@@
朗
肾@@
致命
审判
调控
灭
岗
现金流
徒
结晶
肠@@
述
抵抗
缓@@
停车场
适@@
遗产
央行
碗
争取
图中
执@@
极为
38@@
增长率
不但
哭
恶劣
iz@@
CC@@
常数
拼接
演变
端的
大门
开发商
绒
他会
像@@
29@@
改良
NT
柯@@
茎
李
繁@@
光电
内涵
氟
主轴
键@@
text
着重
端点
邮@@
据@@
管子
静止
股息
桃@@
潮湿
中性
出版社
地产
og@@
子宫
康复
大致
原型
钢材
领导者
南京
移到
金融@@
盛
着色
@@@
不停
BP
年款
多项
法测定
汇票
上级
设法
IV
刹车
定性
差速器
mL
灌@@
庞大
满意度
磁盘空间
BC
苯@@
立场
粒@@
ad
数据包
减去
鼓
ts
os
升降
抗震
与此同时
工作者
102
传奇
坛
ist@@
承包
相互@@
man
探伤
大多
大街
天津
更快
PS@@
每位
不知
俩
对本
Documentum
疏@@
一会儿
死亡率
砼
透视
价格@@
尺度
比重
Project
沟@@
UR@@
ter@@
累
1.8
污泥
艰难
度过
爱尔兰
决心
乙醇
泄露
1200
鞋@@
受理
监@@
监察
鬼
早晨
选择器
来源于
車@@
f2
上去
波长
专有
齐全
水面
绘画
本手册
cl@@
轻轻
较少
促销
干涉
開關
吴@@
停留
bar
枝
泥浆
而来
优
失望
pH
回忆
生意
效@@
车载
庄
棚
段@@
首选项
之日
更高
财务@@
妥善
UI
0000
强制性
钢铁
找@@
热点
机械@@
沉积物
径@@
液压油
望@@
est@@
氧化@@
0.05
ter
经济学家
火山
图示
窗@@
机车
跨越
S5
不愿
应从
太太
坡@@
Vault
无缝
州@@
毫无
梯度
目前为止
为期
艺
4.0
Cat
兼
有毒
PCM
村@@
街@@
媒介
里程
狭窄
拔@@
两名
核对
地毯
分支机构
肯@@
神秘
医师
赢
惊讶
拜@@
支援
户@@
后台
奶@@
执行机构
UPS
摆脱
三十@@
人民@@
滩
粘合
衬垫
设计规范
楼层
衫
增益
嗯
IR
耳机
乔@@
锡
国民
Storage
帮@@
眼镜
多层
瓶@@
年初
游泳
专项
经济效益
编译器
凹槽
年内
枝@@
稍@@
细胞@@
绕@@
塑料@@
敏感性
稀@@
利亚
方针
锥
论证
跑@@
婚礼
虎
今@@
广东
酸性
一端
加油
精力
α
不大
各位
实用新型
播@@
明年
研究院
制動
口袋
Management
烤@@
此后
拔
Se@@
沉
量子
医药
宽带
ms
杰
人会
失业
0.8
便是
he@@
协@@
存取
沉淀
今晚
残余
起重
莎
奈@@
专员
杠杆
阻尼
既然
深化
回流
过热
Web@@
公共@@
安全气囊
热水
老鼠
灾
执法
梯@@
里程碑
崩溃
能耗
器材
气囊
染色
避@@
去世
庆
横
哥@@
淀粉
伸出
听见
甲烷
空心
风力
横截面
串@@
主页
饮用水
保守
护士
致使
公司章程
挑选
Express
分量
新疆
de@@
怪
使用权
双手
第@@
始@@
抛光
57@@
输电
如图所示
父@@
大坝
简便
村庄
交谈
营养@@
带到
束@@
锦@@
串
并购
教会
洲
窄
按规定
河道
联接
MA
合成@@
定时
锅
ie
ma@@
外科
人口@@
保单
简直
保健
AB@@
钢丝绳
闲@@
一期
曲轴箱
这张
上传
Pa@@
好好
肩@@
肺@@
吊装
铅@@
230
档位
感知
碰@@
刀片
硬盘驱动器
队员
对不起
冒险
押
紧急情况
风暴
电能
赖@@
布什
压力容器
NS@@
湿地
胜@@
45@@
楼板
无须
英镑
涨
值为
户外
DI@@
美联储
阀座
代理商
源于
Mo@@
内心
分析法
HBA
称之为
中毒
输
每秒
Qu@@
切削
PowerPath
竞@@
瑞典
art@@
高中
答@@
盆
HT@@
实质性
估值
疯狂
Met@@
滑块
汽
忽视
锥形
台上
局面
地域
熟@@
派遣
缅甸
一页
会计准则
广阔
CB
手臂
备选
流出
加压
制冷剂
防范
EX@@
并联
恒定
直升机
忘
脚手架
伺服
控制室
病变
参阅
英语@@
LE
mA
转矩
黏@@
刻度
Po@@
装饰板
乔治
诚@@
撞@@
弃
过大
P1
余
宗旨
尿
Sch@@
抽样
森@@
戈@@
教程
西南
遵照
滤芯
恶
似的
选手
遗憾
节气门
植@@
ine
缺
季@@
聚会
钴
预警
慢@@
水域
旁通
CV
薪
睡觉
年级
责
贯穿
讯
仿@@
随附
脱硫
锁止
捕@@
上海市
104
计提
CO2
群岛
控制电路
几
验
配额
门口
IF@@
暖@@
纹@@
三角形
图例
泡@@
市民
虚假
保罗
路由器
所能
令@@
确切
征
回去
水力
希
温室
中东
裤
债
個
8.1
迷
设在
创造性
静电
培育
扶@@
情报
度假
不如
摄影机
尸体
铸铁
GS
128
另@@
挡板
补救
整改
醒
过载
会谈
有序
发达
国有
pp@@
订
Be@@
约束力
上载
100@@
繁殖
搭@@
广告@@
33@@
试运行
CB@@
单体
微观
拍卖
证人
开发@@
竞赛
通行
勤
最大化
叉
贴合
可视化
受控
拉出
一声
油门
英格兰
屈@@
货车
免受
床上
落后
历@@
经费
时段
通话
研磨
仿佛
之所以
夹紧
奶
裙
两倍
水源
可达
京@@
秘书处
安静
日后
一大
年限
相匹配
究竟
RC
录@@
萃取
抗议
诸@@
别名
时光
球场
吞@@
公斤
池@@
专题
尤@@
笑@@
age
铭牌
四年
物件
欠@@
规章
拉斯
拿到
不必要
遮@@
NC
机械设备
90@@
ard@@
扫
生气
矿床
代表性
卫
灵感
船上
节日
二者
洁净
主意
靠@@
Comp@@
织@@
外交
氨
倍@@
心情
格式化
ub@@
莫
周年
空档
切除
舒@@
淡
退回
味@@
纱
ws
棕色
○
东京
敲@@
Su@@
孙@@
1991
投资人
次级
排放量
管理制度
研究生
同比
印尼
译
从前
调研
短暂
氮@@
所知
拨
滚筒
制剂
涡轮机
霜
魔@@
Tra@@
期刊
实物
挖
营造
护
腹
确@@
Agent
书写
气氛
肽
生活@@
浓缩
34@@
国家标准
大豆
推迟
粉尘
本机
赛季
鉴别
效能
PID
锐@@
Porsche
豪华
ian
動@@
姿势
舞蹈
患有
艇
核查
艘
破损
阳性
IO
缝@@
全身
充电器
枢纽
ator
广义
控制措施
椅子
珍@@
MC
粘
IO@@
Akamai
皆
建筑师
太大
焦虑
AL
碱@@
看作
天数
野
多元化
ie@@
平均@@
建议书
MT@@
春
完好
重新@@
上海@@
EPC
大厅
电力系统
寒冷
景区
枯@@
预付款
表征
佣金
格局
口中
投标书
广大
校园
冷冻
小学
空格
左边
炮@@
屑
讨厌
染色体
颈
初级
园@@
XP
终结
基底
椅
串联
UT@@
提供商
Nm
构筑物
概括
账款
ss@@
愈@@
马克
卸
徐@@
拉杆
买家
平原
系統
人身
意愿
杀死
海滩
财政部
水池
DE
Live
层级
裂@@
谐波
ort@@
骑
腰@@
种族
伴
波兰
没什么
开放式
旅馆
本体
腐@@
难度
股价
一节
软件包
嵌@@
mm2
限位
750
灾@@
陶@@
矿山
长大
第五十@@
外径
默认设置
储蓄
凸轮
址
Bo@@
微粒
制裁
勤@@
牙齿
阐明
谢
经由
毁
07@@
准许
食品@@
1.7
搞@@
联网
2.7
太阳@@
成因
ot
迎@@
GA
文本框
差不多
时间段
任职
肯
邻近
55@@
牺牲
难以@@
勾@@
演化
假期
撑
等离子体
IG@@
空气@@
坚固
承
温和
计算结果
ry
益
竹
轿车
逊
伸缩
AA
涌@@
返@@
西门子
瓣
历史@@
安全壳
统
铸@@
什@@
迫使
商务@@
轻型
健@@
惊人
燃
塑性
工程项目
机电
销量
声誉
弦
控制程序
触
测试方法
舍@@
偶尔
FO@@
amp
水性
拱@@
练
聚焦
育@@
ill@@
合同条款
抵@@
绿化
染料
外币
仅限于
Ctrl
阵@@
舒服
中标
支护
跑道
否认
EL@@
年期
右边
粘合剂
骑@@
无权
时机
困境
贫穷
吊
被迫
劳工
异步
特有
立柱
顺时针
稍微
照射
不带
并发症
储层
RM
st
溶
同类
销毁
启动器
切勿
院校
隙
财政@@
Con@@
EF@@
气味
两组
阳极
分歧
全年
板上
滤波
移至
行动计划
il
的是
免疫@@
性格
撤消
注册资本
败@@
监事
准备金
漫@@
系统管理员
流程图
开设
研究@@
灌溉
续@@
距@@
PM
开裂
螺@@
零售商
使命
最快
实用程序
付费
筹@@
毕业生
佳
带领
它@@
庆@@
尊敬
带动
悬浮
麻
互感器
ass@@
预热
摊销
资讯
刚才
发射器
碱性
肝@@
三分之一
扎
担保人
eb@@
任期
低速
泉
裁@@
邻居
夫妇
每当
老年人
预报
从此
无形资产
ran@@
贝尔
冬天
香港@@
脂@@
冷凝器
账单
桌
怕
对冲
成效
顶端
受力
商品@@
助手
布朗
房产
De@@
RT
发生率
气泡
一日
问卷
直观
见表
震动
不满
从不
钢丝
年份
诚实
主权
一所
按时
ED@@
变异
电源线
渔@@
进场
沃
受限
滥用
再生能源
宏@@
专业@@
千克
穴
献@@
武汉
热带
量程
飞轮
罪@@
遭
锯@@
预案
玉
宾@@
怠速
正极
试件
辩论
婚
不易
曝光
普通股
干部
石墨
拟合
着手
巡@@
同期
微小
走出
LS
急救
口头
第三个
劳务
处所
激情
妈
往来
研@@
顿@@
周二
宏观
延续
钛
分化
每台
掌
防盗
宝宝
庭
墙体
借
收获
GC
LDAP
缺口
承载力
So@@
三级
光伏
争端
外界
0.6
沿线
块@@
断电
LD@@
鱼类
默
Di@@
pt@@
交易@@
愿望
腐蚀性
英国@@
领土
餐馆
Cont@@
大桥
客车
敌
兽
津贴
缺省
豪@@
候@@
指责
叠@@
适应性
栅
gt
坎@@
应收款
煮
总督
短缺
国债
盖子
螺丝刀
轻易
Studio
觉@@
显微镜
处理厂
氨@@
潮流
Ⅱ
宣称
挑@@
际
航空@@
银行业
Res@@
数码
凉
面试
诱@@
仓@@
斯特@@
跃@@
前排
苗@@
聚氨酯
可编程
Me@@
界限
友谊
辅@@
推行
交往
原本
最具
洛杉矶
制冷
采取行动
不动产
拱
结构设计
绝缘子
促
必要性
头脑
权威
能源@@
SL@@
可疑
圆柱
难道
框@@
毕竟
厕所
ProdName
蓝牙
风景
荣誉
玛丽
ik@@
四种
拯救
鸟@@
电脑@@
碎@@
铃
ust@@
up
周五
第五
8.2
关键点
调制解调器
企业@@
名叫
正好
痕迹
赎回
隔板
光束
奖@@
族@@
液相
水稻
库中
0.00@@
昆虫
通往
so@@
偿
姑娘
立体
抵消
检疫
吃饭
析
衬
府
船长
宠物
最终用户
突变
冰箱
妥
联合会
電
人工@@
东北
民族@@
冻@@
填
夺@@
葡萄
印花
应是
网络连接
保持架
末@@
六个月
堤
操作@@
栏杆
翼@@
送给
金融危机
基座
调速
涂装
幕墙
济@@
介@@
切口
善
if@@
坚@@
将军
抽象
救济
浪漫
主义者
节奏
进出
透镜
告
直流电
上来
矿石
拆解
NT@@
转换成
介入
陷
翻转
重心
步行
中为
友@@
把@@
热电偶
电台
企业家
菲律宾
财务报告
C1
兑换
气管
我行
孤@@
废弃物
建设项目
扔
炼@@
高血压
售后服务
朝向
酱
心理@@
齿轮箱
出示
坦
HS
喇叭
局域网
年末
灭火器
迁@@
鹿
转发
双层
镜@@
风化
程@@
end
强迫
Car@@
易燃
舌
飞行员
电视台
爪
紫外线
功@@
冬
源自
净额
实证
一代
矿业
脏
激光器
市场营销
照灯
搬@@
概@@
图书
球形
碳钢
able
健全
增多
校长
三十
国际标准
寺
变频器
吸收@@
浅析
RAM
调解
早餐
锚固
宾
增值
出租
耐用
He@@
冠@@
陆地
一杯
盆@@
月球
彼得
旗
创始人
烟雾
机型
秦@@
天使
递延
RP
十字
延时
同行
埃
千年
iv
商人
坊
认同
衰退
项目部
贫@@
上网
敬@@
触摸屏
逆
阿拉伯
明亮
洋
氨基酸
竞选
苷
堆放
加剧
轴上
缔约方
再也
平静
传入
两天
云南
公司法
适于
掌@@
受害者
.exe
优雅
音量
出库
埋@@
重启
石油@@
SV@@
检查@@
谈到
综合性
散射
跟着
05@@
岩体
滤网
88@@
欲@@
oo@@
变频
怪@@
精彩
US@@
战术
家庭@@
廊
污@@
遍
烃
迈@@
公顷
宣言
哪种
险@@
La@@
换热器
诞生
生产@@
旁路
仪@@
氮气
玫瑰
各种各样
工艺流程
喊
气缸盖
乐趣
随之
Ad@@
衬衫
样条
Data@@
脱水
保护@@
减震器
固定@@
扩建
继@@
体会
荣@@
路段
功能性
滚
摆动
洁@@
教室
衬@@
箱子
转至
测验
M8
经纪人
配送
Am@@
疏散
一幅
中小企业
财务状况
网址
己
怀孕
帽子
钻机
夜晚
View
管网
舰
触发器
缩写
纳税人
鲍@@
沿海
47@@
废弃
the
律
救助
销售@@
4.6
设计方案
先后
6.4
益@@
ler
确信
浪
两家
吻
石化
肾
进攻
运算符
不予
白宫
回购
妮
每隔
渐渐
正当
测井
护罩
高峰
氛围
恋
时才
管理部
经营者
信号@@
位数
改正
机房
ix
原件
探
描绘
联合@@
市区
异议
DCS
val
偏好
踏@@
F1
啮合
恐怖主义
ET@@
理论@@
筛@@
ant
耳朵
涉@@
细则
鹰
多久
多达
外包
烟草
皮带轮
7.3
Group
投保
0.0
怀
关键帧
数据处理
局长
聊天
野生
大修
色素
自我@@
垫@@
企图
很长
警示
DV@@
炸弹
老年
节中
车子
贮@@
胸
以其
贾@@
下属
扰动
王子
胎儿
血浆
dB
语义
剥离
浪@@
案@@
射频
气象
鬼@@
烧结
司@@
气温
适用法律
前缀
摆
哪儿
多元
皇@@
纺织
MR@@
单纯
实习
条纹
单片机
抽
配电盘
心脏病
渗@@
模块化
软件@@
领取
引
B1
rpm
误
优选
几次
杂
海拔
机动车
分部
议@@
句子
只不过
吐@@
大写
摩
副总裁
1988
按摩
电力@@
维尔
ES@@
风速
恒星
置换
中介
SSL
闭
ou@@
农业@@
螺柱
报废
苗
手里
ner
货品
发言
弓
数百@@
绵@@
设计@@
Tr@@
贷
高品质
电荷
琴
内径
姿态
寒
收款
井口
历
序@@
前述
配偶
内核
imk
不含
噢
初探
做成
几何图形
数控
con@@
PRO@@
ver@@
进料
SAE
矿区
净值
浮
逾期
计算@@
挪威
Per@@
桌@@
西北
PR
RS@@
委会
智
括号
春天
撤@@
万人
充分@@
跌
ation@@
精细
PD
外资
亮@@
粗糙
.com/@@
伟@@
ate@@
功能区
启示
高新技术
lin@@
勇气
据说
那天
每股
汞
缔造
106
程式
辞职
苏格兰
小节
尽力
鼻子
融@@
SMTP
促@@
有所不同
消化
盖章
丸
台阶
犯罪@@
重大@@
耐磨
002
控制权
千米
戈
消防@@
检测器
发病
变速
hr
冷凝
复原
证明文件
低成本
八个
捐赠
简易
菜单项
病理
专业知识
S7
树立
模仿
歧视
法则
高科技
写道
大地
所处
设为
选民
收据
化石
恢复@@
棉花
驶@@
家中
ES
大声
计算公式
室温
毫秒
污
酸钠
爆
狼
AN
其后
测量方法
DN
烤
侵@@

316
高精度
笼
AV@@
染
集中@@
交替
兆
伴侣
报销
擦@@
To@@
固有
惠
民主党
错过
灌注
高管
套装
草地
共识
法律责任
分泌
诗歌
国际化
坚定
态@@
We@@
出行
中药
总和
数据文件
醛
等到
天堂
得知
环绕
黑人
胶囊
届满
更具
Pre@@
泽@@
试点
健身
振幅
庄@@
测试仪
电子设备
管接头
生日
抹
无法访问
气田
rat@@
压入
废料
粒径
计价
预见
白天
赤字
行人
宝贵
甲醇
VA
下拉菜单
103
序号
充
定理
OR
尽职
印度尼西亚
盒子
ray
ai
机密
震
美国政府
1989
Sa@@
据此
称重
Visa
架上
升起
恨
杭州
面部
CH
汗
多于
操@@
通信@@
运动@@
ort
凉@@
信念
短信
稳态
具体情况
MI
商用
洗涤
改动
新一代
业务部门
不足以
塑造
郡
划
召集
周四
退化
Sc@@
情节
油液
大师
钻石
控股公司
跟随
还款
条中
罕见
旋钮
拆分
遇@@
线索
蒸@@
武装
进口@@
干旱
连锁
倡议
韧性
挤@@
神经元
CS@@
拿出
转运
范畴
115
Fl@@
岛屿
恰@@
class@@
期满
标示
责令
用到
说服
代表团
一带
大学@@
ite
巩固
挡风玻璃
议题
决
账号
法律@@
跨度
上将
原子@@
堆栈
活顶
风管
动臂
乐队
峰会
拜
旅游业
ice
全方位
己@@
范@@
胰岛素
表层
门槛
Control
委@@
栋
未指定
挤
电平
2.8
ra
智力
201
无线@@
渗
篮球
FMI
分摊
脆弱
谋
不动
县@@
琳
笔记本电脑
旅@@
三大
HO@@
就此
柏@@
史密斯
不出
应答
第一条
会员国
钢制
犹如
生产工艺
适用性
命@@
抽取
瞬间
边框
壮@@
粘结
奠定
快捷方式
阳市
补给
不符
借贷
不断@@
国际贸易
铲斗
烈
蛋@@
功
一遍
碰到
周日
涂漆
词语
雕刻
栏@@
熄灭
起飞
文件格式
ions
俗@@
现已
查明
精简
腾
额@@
鸣@@
终
被告
止回阀
服务业
oc@@
信封
OFF
多样化
撰写
生态环境
0.01
活动状态
绝
一经
仁@@
日内
带给
提取物
随机@@
职权
ce@@
花岗岩
农产品
理财
第一步
320
纪律
工作量
数据链
管辖权
跟@@
营地
佩戴
饰面
跌@@
结构化
分销
件@@
牛肉
SMS
俄@@
非凡
喜
CLI
MM@@
定律
蛋糕
碎屑
相关者
兹@@
创立
可怜
教训
金融服务
ker
螺杆
被保险人
戏剧
附有
ly
行政部门
醚
有意
66@@
诗人
刑
县级
稳固
信誉
真理
弱@@
首要
变性
现代@@
矿井
减速器
撤回
政权
108
入境
持股
过量
丹麦
ell
反转
此事
护照
ug@@
ROM
巡航
卡尔
刊登
另行
硫酸
蓄電池
边境
这点
水电
力学性能
Pro
次要
机动
证件
就算
按压
石膏
研究成果
宝石
墙面
授@@
退还
逮捕
若有
血压
团结
窝
咨询服务
照相机
银行@@
靴
饭@@
胚胎
尔顿
种种
船员
关键技术
稍
通路
质量标准
改装
联动
伞
Ca@@
〕
資料
制药
深处
LAN
修整
甜
VDC
宫@@
GIS
脱落
专为
Log@@
电量
午餐
市场份额
钻头
不规则
FL@@
霉素
〔
荡
赞助
拟建
单向
SL
TE
两台
坐标系
松散
Replication
鼓风机
ue
时要
选出
仅为
已损坏
隔热
预约
统计数据
袭
社@@
偶
褐色
亭
顾@@
特此
工作台
胎@@
迟@@
唐
科学技术
几何体
恐怕
疑
陆
界@@
碰
纺织品
黎@@
工时
抚@@
施工图
code
DME
SU@@
自然资源
较长
Win@@
构@@
比较@@
逆时针
FR
点焊
附上
咬
军事@@
晚餐
安保
档@@
EB@@
Na@@
结构@@
相对@@
数据传输
AG@@
减压
04@@
兼@@
基质
缠绕
蜂@@
著@@
修改器
剥@@
涂覆
纽@@
旋
非政府
ens@@
FCS
溪
分配器
确保您
仁
恐怖
共用
环氧
言语
盲
构
传说
兔
昌
离婚
税费
山东
继
Power@@
耐心
农药
几十年
周期性
看待
燕@@
餐饮
氨基
熟练
滞后
210
推理
殿
拟@@
摊@@
长达
公交
刊
国防
外国人
化妆品
信件
载入
受让人
屋面
方位
印章
通货膨胀
3.7
布尔
紫色

漂@@
猪@@
DHCP
演奏
削弱
导演
申@@
目光
过低
8.3
中央银行
扫描仪
浙江
秋
乘以
逻辑@@
更換
警
决策@@
毫无疑问
职能部门
浴
A2
SRDF
修剪
ory
之地
纤维素
预防性
议案
发作
氯化@@
Cayenne
对系统
乙烯
艾
本土
须知
氣
牌@@
薪资
补助
不可避免
摧毁
合理性
外商投资
怎么办
中未
互连
Bl@@
叠加
缆
转弯
1984
FF@@
合规性
LCD
yn@@
市政
解散
html
起草
考验
通胀
特种
上班
劲
排队
以至于
觉
偿付
保护区
发送至
访
较强
革
kPa
航线
鸟类
拨打
部落
漆@@
多孔
欺骗
挥@@
民主@@
澳门
美食
ANSI
VM
ert@@
分流
列为
总共
③
土壤@@
尾部
延
DIN
监禁
积极@@
立面
区段
诉@@
OP
利比亚
伸展
普及
拾取
到期日
电镀
管理程序
行李厢
激动
经营@@
环球
疑@@
铁矿
1986
盐酸
开发区
运费
拨号
不清
凸缘
接器
基督
渗漏
柳@@
刮
视口
说出
奥运
倾
俗
来讲
ast
上文
保险人
每项
染@@
强制执行
困扰
平坦
微米
仪表盘
要约
服从
核电站
迫@@
帮忙
星期五
车厢
执照
千斤顶
发动
最小化
耗
镀@@
基坑
逾
遇
附注
弯头
Ⅰ
搭建
量表
顶板
0000@@
http://www.@@
压缩@@
家用
超市
环路
不行
伍@@
化学成分
缩减
App@@
精致
许
小区
丰
磷酸
鸡蛋
VSS
振荡
早已
佐@@
石英
返还
那位
掉@@
山脉
怒
瓷砖
光栅
阶层
颜料
Mat@@
生产率
椭圆
温度计
表情
钻探
更长
干细胞
开销
圣诞节
荣
每一
培@@
执业
侵入
新生
8.5
交接
生化
市长
昌@@
37@@
统计学
政府部门
特异性
见图
会见
枚举
狼@@
主管机关
惯性
泽
减弱
高档
基督教
见面
杨
Word
敏@@
共同@@
重申
瞬态
禁
伦理
邮编
草原
乙
售@@
比尔
缸盖
CL
望远镜
IK
廉价
bo@@
结尾
养殖
谋@@
内向
童
历程
公共汽车
展会
EP
宗@@
就位
偶然
建议您
眼前
卡入
市场经济
冶金
绝大多数
异物
Ph@@
晚期
在场
闪存
硕士
NIC
宇
棒@@
驱@@
尽管如此
播放器
排水管
稳
仰@@
Rover
互换
2.1.@@
自杀
XX
巧妙
打磨
烈@@
译@@
地貌
三条
运输@@
决赛
会计@@
签约
一门
哀@@
数据保护
无数
眉@@
住院
NO
传感
支配
SR
拉动
委派
est
定罪
因其
CF
文件类型
卧室
PV@@
人格
矿产
UP
半岛
审美
藻
野生动物
中是
出台
层次结构
技师
罗伯特
千万
扰
波浪
迷人
毕@@
道理
per@@
临
接种
这使
作用力
技@@
Sol@@
ho@@
孔径
ft@@
一头
麦克风
岩土
在家
扰流板
桑
西亚
线缆
单项
管理机构
On@@
小镇
瞬时
期末
渔业
迈克尔
3500
ary
und@@
光泽
欧元区
燃油泵
穆斯林
障碍物
9.1
突
135
果实
溜@@
瑟
想想
之路
嵌套
应用@@
组态
可信
联合体
固态
砖@@
潜水
io
馆@@
仍@@
Revit
热交换器
血糖
伍
UNIX
检定
门窗
陷阱
步伐
唑
宽松
阶@@
礼品
高出
39@@
堵@@
申请书
64@@
邮寄
混合@@
AX
Caterpillar
江苏
尘@@
本期
DF@@
成套
业务@@
之际
昆@@
鞋子
反弹
导流
郑@@
1987
美观
摄@@
点燃
密集
这笔
Air
芬
开立
表述
传染病
才@@
无机
轨@@
开具
光子
反而
美学
况
金融市场
等候
工作日内
让@@
关联方
乔
咱们
囊@@
标本
外表
赞@@
代号
ast@@
内衬
合资企业
时所
分类@@
尊@@
Powerlink
Trans@@
一阵
并于
计时器
臂@@
C2
LC
浇注
信赖
公司@@
人文
氏@@
客运
布置图
卫生间
蔓延
光缆
拉力
支持者
负面影响
水泥砂浆
色谱
表决权
锥@@
针对性
辐射@@
File
伪@@
抬起
瓜
里斯
我司
車门
倾角
380
初次
ric@@
柜@@
忍受
2500
堆积
are
墩
球迷
蜡
type
伴@@
压差
录音
村民
生态@@
议定书
剪辑
火星
铵
粮
医
避开
糟
钢琴
xAE
多家
整齐
戒@@
挂钩
转入
冲压
刮水器
For@@
HD
az@@
圣经
废除
踢
旗下
列举
强有力
祈祷
芽
銆
IIS
侧向
肥胖
Intel
懂得
美洲
便捷
生产能力
缓
覆
录像
维修@@
捕
腹部
道德@@
闹
RD
浴室
邮政
渣@@
大西洋
月底
海域
Torx
经济性
残疾人
泄
3.1.@@
咖啡@@
失误
坐下
威廉
两周
地段
RPC
ru@@
年来
敢
塘
6000
P2
富裕
to@@
酷
杰出
ram@@
卧@@
笔记本
总价
摄氏度
请问
独自
盗@@
筛
ro
聘用
J2
监事会
西安
星期一
伟
润
QC
可持续性
世界银行
可控
會
色谱法
0.00
负面
辉
鼻
方应
型材
根源
赠@@
并发
600@@
导师
手持
纷纷
伏@@
慈善
ED
迎接
后勤
披@@
无力
林业
质押
屏障
奋@@
联合国@@
胸部
自动控制
伤口
盯
真相
养老金
浙江省
纯粹
nbsp
偏心
不太
光度
DLL
EA
旗@@
成都市
勇敢
Facebook
对付
开发者
1980
配制
ack
相交
DL
hs@@
科研@@
纵断面
PH@@
接触器
透气
蒸发器
Co
消费@@
LP
过后
EE@@
DT@@
万用表
芝加哥
这段
受雇
依托
系统控制
IF
Bu@@
纪@@
耐久性
隧洞
ION
著作
BI
人家
旅程
米兰
不上
威尔
轧制
呈现出
不见
6.0
开拓
核武器
170
逆变器
比如说
筋@@
绳@@
推入
掺@@
日常生活
液晶
长期@@
省级
锚@@
欣@@
窑
途中
Or@@
外来
推测
离职
联赛
发展@@
试着
su@@
冒
祝福
428
卖出
挺@@
张紧
拾
修饰
员@@
盈余
ISO@@
疏忽
杯@@
解读
10.
挡@@
猫@@
这台
镜子
十个
生育
連
ASP
编织
克里@@
车上
申请表
UT
丢弃
笔者
包围
迄今为止
缘@@
长江
预估
Φ
气孔
过时
工程建设
Inc
KB
侵权
颈部
柱塞
TO
水文
除此之外
出租车
抗原
ive
明智
立方米
Inst@@
他用
淬火
王国
HB@@
总之
日元
放下
油道
起源
sc@@
神圣
3.8
水解
电弧
独立@@
人造
捆
溪@@
陈
愿@@
瘦
种群
儿童@@
大胆
粘性
111
字样
储
基本原理
包装@@
栅格
复合@@
总会
建筑面积
污水处理
充当
少数民族
滞@@
视力
辉@@
有机@@
葡萄糖
轻盈
HS@@
ton
多名
燃烧器
4.8
Gu@@
似@@
困@@
梯子
亨利
国防部
莉@@
退休金
阿里
肯尼亚
255
过分
多维
搜寻
气瓶
FE
res@@
法定代表
箍
组长
修正案
剧院
耶
裔
不敢
将近
糊@@
汀
超高
承担责任
滑坡
在外
抽出
映@@
亩
抹@@
油压
几点
报导
第二章
Foundation
建筑工程
百分点
超速
奉@@
淡水
羊毛
较差
降到
仓储
围栏
意志
控制点
引领
线型
Do@@
交互式
锯
视作
正文
炸药
第六@@
岛@@
凝固
时限
ann@@
保安
大小写
從
祖@@
巷
灭@@
打包
握
努@@
Man@@
圆弧
服饰
一览表
愚蠢
不合理
另存为
罪犯
实测
陆军
消灭
CEO
尼龙
月度
有望
鉴@@
丢
战场
瓶颈
CRM
平衡@@
败
学到
SAS
似
文稿
LNG
液态
pt
水准
酸盐
无论如何
柏林
编组
脉@@
欲望
虽
DW@@
Enter
劳动者
植入
瘦@@
2.2.@@
ick
轉@@
这名
7.4
频谱
5.6
再循环
开来
募集
毒素
精英
短时间
企
入住
卤@@
封面
成年
ppm
不准
兑
唇@@
CN
闭锁
举升
全文
惨@@
真诚
变质
搜索引擎
酌情
幻@@
盐水
账簿
舵
GMO
人人
润@@
信函
环氧树脂
背部
传热
保险费
走到
柜台
ATA
S4
储液
氣@@
重定向
引出
服务中心
炭
职业@@
营业执照
幻想
用力
简
银行业务
稀土
Work@@
喂
享
全额
景点
电工
宾馆
哥哥
第八@@
课程@@
log@@
住所
＝
电场
罗斯
锰
两大
平移
詹姆斯
四分之一
伙伴关系
加盖
肿
高原
85@@
砾石
用手
技
核电厂
渐@@
画家
跨国
绞@@
软件开发
屈服
大国
撬@@
穿透
违@@
麦克
Gb
Id
aw@@
方形
更少
首个
出租人
正向
办公@@
材@@
对面
Ne@@
创伤
小波
放射
管控
DMX
填补
祭
配料
北约
32@@
妊娠
链轮
fil@@
调节阀
132
一番
後@@
畅@@
感激
学术@@
框中
章@@
男女
作用域
永恒
降低成本
集成电路
LU@@
ld
时间@@
上层
夹持
油井
伊斯兰
房价
通报
TT@@
规章制度
周六
大力
价款
众人
连接点
极性
0.25
组织@@
车队
登陆
妹妹
依旧
第二条
送交
化学物质
公称
听力
气相
氢气
44@@
经纪
erv@@
烷
UL@@
煤层
剪
赚
乎
Avamar
手法
取向
PO
夹点
提供者
毛发
Ste@@
信息中心
燃油箱
1985
交割
典
凝
绞车
谈谈
教徒
泉@@
涨@@
操作规程
整洁
细化
co
共和党
渡@@
同志
泥土
现存
计时
诚
NFS
化学分析
脊
足迹
外套
狗@@
签出
察@@
武
匿名
淋@@
公元
TB@@
扩展名
简短
RA
TM@@
小小的
生成器
KV
瓷
虾
早就
磨机
趣
宿舍
引脚
DD
性状
耶路撒冷
局势
空气质量
自治
舱@@
9.2
uc@@
势力
城市@@
eRoom
乐器
胶片
选型
习@@
开门
曲率
OEM
公共交通
深圳市
油墨
狂
严重@@
FTP
医学@@
传导
强力
热爱
预付
ley
走过
蒙皮
汽缸
疾@@
寻常
脂肪酸
304
XXX
几周
丛
内地
可向
议
S6
第三章
SnapView
鼠@@
当选
AI
唇
腺@@
ML
化物
弃@@
舌@@
测定方法
数据流
可视
雕塑
9.5
微机
沮丧
肝脏
ign@@
溢@@
act@@
紧缩
远处
控制中心
真菌
空闲
保护层
监控器
闪
山东省
辨识
违背
德尔
DF
巴士
86@@
弧@@
碾压
一架
中子
工具包
分配@@
尔德
煤气
骂
厄@@
上学
不间断
动态@@
葛@@
Sy@@
野外
商务部
坑@@
江苏省
不让
物理学
CX
教材
醇@@
另一端
名词
新能源
幼儿
阴
欢乐
峰@@
本月
记录器
节流
重构
战士
高水平
ber@@
活化
Get@@
大海
安全措施
神奇
午@@
一股
沉默
FM
为本
闪光
篇文章
宣告
iDRAC
段时间
获利
货币政策
乌克兰
法团
凯
息@@
倾听
遥感
羟基
临近
喷漆
油价
第六十@@
聘请
升降机
单相
工程质量
勘测
色调
国家级
世界杯
好友
宣传@@
真实性
载有
同位素
悲伤
放缓
剖@@
降水
兴起
发射@@
穿孔
存量
Mc@@
工业化
仆人
辅助@@
一度
下限
胀
95@@
免税
遗漏
坚硬
http://@@
广西
拥@@
深层
卵巢
HR
地质@@
枚
编码器
洪
螺旋@@
不论是
和平@@
挤出
地理位置
淹没
烟囱
正义
残疾
智能化
音响
韦
本金
退火
GM
降雨
3.2.@@
ash
添@@
气象@@
叠
竟
转基因
分光
所载
记账
out
冲刷
宿@@
自助
开关设备
球阀
通量
本款
照相
两层
衍射
视频@@
井场
玻璃纤维
坝@@
特许权
军官
揭@@
裙板
三通
新生儿
猜
敞口
流失
PN
中以
传统@@
水体
供油
何处
否定
所订
场馆
铲
GM@@
ex
嘿
支助
ah@@
两类
保护措施
文物
带电
锂
PWM
灌
三天
十二@@
周三
墨
大使
趋@@
卓@@
工程图
相对湿度
ance
乘员
转账
学期
涵洞
盲@@
桂@@
锻@@
伪
通告
电路板
递@@
Cr@@
CI@@
日程
人行道
射击
次序
矫@@
碟
优美
看不到
着陆
两项
补救措施
七个
自由度
cfcf
自豪
骗@@
中时
旋开
朝着
电视节目
自有
四条
辩护
个案
现状及
近代
赛事
垫层
切实可行
高位
max
植物@@
占领
国有企业
直辖市
企@@
平方@@
受试者
锋
精确度
虹@@
扑@@
排空
平时
ics
含水量
戳
摩尔
归还
研
C++
切线
法语
传动装置
带上
益处
弓@@
战略@@
sk@@
致动器
腺
08@@
成年人
本科
冻
骄傲
10000
跨接
分析器
退货
题@@
戏@@
精心
辽@@
配对
树林
256
Ω
原位
拟议
电气系统
脏@@
申诉
中会
孤立
不起
RF@@
角落
Turbo
双边
增殖
娱乐@@
巧
栽培
隐
kN
全自动
遥@@
Si@@
四十@@
标有
此参数
分销商
查看器
妙
缸体
颈@@
前者
跨境
民事
击败
后排
徒@@
存活
徽标
機油
e.@@
换句话说
是非
存储设备
拉链
烷@@
抵
不住
东南亚
遗址
提问
育
enn@@
8000
匠
夸@@
政党
ow
冲程
两只
ms@@
AI@@
工作温度
机票
电报
显微
视网膜
比值
潘@@
街上
抗生素
横断面
崛起
灵敏
争
没人
聚丙烯
会同
生产总值
十五
露天
军人
智能手机
相处
瞄准
PH
供热
攻
答应
GUI
蓄能器
Google
VM@@
amp@@
麻醉
流场
苏丹
埃塞俄比亚
简洁
SF@@
通向
主机名
保险杠
可不
字典
城堡
要用
RecoverPoint
凹陷
月亮
乏
拨款
牢@@
私有
弥@@
石灰
阻燃
医疗保健
非正式
Set
液压泵
质保
ct@@
牧师
坠落
保险单
活着
后退
定期检查
Comm@@
分辨
前沿
摄入
炸@@
院长
珠宝
PCM2
配线
自检
ess@@
跟进
0.7
膝盖
发病率
瓦斯
貌
ak
篮
奇迹
是否是
随即
set@@
应用软件
驱
剪裁
休假
坯
恤
PCI
孤独
成份
轰@@
HC
两边
使人
拜访
毁灭
炭@@
4.7
商户
指纹
授权代表
光度法
径流
暴雨
礼貌
V2
发起人
盾
El@@
从属
比利时
词典
会议室
一大@@
植
辈
202
大宗
溢
烦@@
离心
骨头
im
系泊
格栅
撤离
烹饪
摘@@
粗糙度
震源
以致
鸣
交通运输
促成
准确度
火花
浦
申索
览
加仑
星球
浆@@
皇帝
公主
立式
二是
过失
服务质量
韩
一艘
押@@
本部
硫酸@@
并须
关键@@
小齿轮
ma
保持一致
或非
浩@@
采纳
LT@@
熊@@
65@@
擅自
辉煌
阿根廷
DT
干线
增添
因数
极化
范例
瓜@@
铀
ATE
拐@@
X1
信息安全
函@@
木质
做些
没能
河床
针织
秀@@
马尔@@
可行性研究
市中心
遥远
犯@@
行李箱
地下室
衡@@
湖泊
岸@@
抱@@
GUID
ect@@
带式
区块
穷人
跳舞
鞋面
中华
杂交
R2
星系
征税
罢工
活性剂
線
信号灯
切实
浴@@
犹太人
iPhone
加速器
航天
适用於
审理
幽@@
抑郁
逸
112
分项
币种
社会保障
竟然
诊
轧@@
蜂
Pack
订明
ara@@
接纳
VO@@
流感
轻质
CMC
古典
密切相关
赔偿金
成千上万
谴责
PIWIS
司法@@
用药
海运
净利润
抑制剂
PI@@
V6
七年
令人满意
伯格
Jo@@
某项
粉碎
纷@@
DB2
沉重
君
喷水
spanspan
000@@
亿英镑
定额
顾
参数值
AB
不止
勃@@
喷雾
推移
大熊猫
裁
高密度
拥挤
原点
密封胶
晋@@
微量
授信
加工@@
纤@@
远期
广州市
辛
详尽
仅当
ron@@
晓@@
一双
欧姆
欧洲@@
减缓
高可用性
金融工具
买入
恒
放行
贯彻
账@@
Exp@@
Sk@@
摸
迟
批注
車身
拘@@
召回
纯化
水晶
MHz
副作用
奔@@
福特
信用风险
虫@@
解决办法
自费
67@@
荣耀
题目
SATA
吓@@
商场
普通@@
RF
外出
89@@
let
面层
不宜
国籍
纸板
nm
账目
忠@@
途
前轮
浸
经验丰富
只好
态势
com
品位
Business
磁粉
TT
man@@
双面
CU
每条
不像
怒@@
辅导
HT
始
投产
CID
捐@@
版面
一眼
十分@@
游离
Inventor
助力
危险品
爱好
舟
Editor
革@@
全球性
共计
审阅
一副
工作室
高分子
MV@@
一般来说
注册@@
炉膛
策
前置
吓
心血管
胜任
轨道交通
for@@
上年
医用
外墙
澳洲
制造厂
夹层
忠诚
个人信息
一并
狮子
大自然
用户@@
都市
ML@@
嘴@@
ial
少年
汇总表
某种程度
金色
A4
＜
ps@@
降级
Dis@@
晶体管
URI
der
坏账
莫斯科
街头
腾@@
处以
计费
arg@@
夹克
探究
端面
车内
违规
生于
車轮
危险性
敏捷
访问控制
全套
基体
吊车
松弛
需求量
ATI
虽@@
起步
Team
SB@@
占地
混沌
炎症
美味
PV
句@@
涌
释
服务费
候
结构性
190
款式
程序包
MR
系列产品
出口@@
屏@@
光明
全都
善于
头痛
雄
高风险
安娜
前来
新颖
会上
条所
产品开发
紧紧
绳索
蛇@@
主办
定位器
操控
第七@@
酵母
读书
起伏
园林
D1
减振器
来临
解雇
明确规定
群落
凸
证券交易
锻造
佛教
肢
试论
雾@@
整套
浸泡
烂
ure@@
死者
陪
PL
试验报告
折算
操
凤@@
海湾
灭菌
QA
参和
抄@@
MAC
SI@@
车架
移位
资本主义
休
平安
SB
专人
简历
罚
凝结
首相
发现自己
忧@@
因特网
假人
共振
帘
增进
列明
壶
富含
庭@@
镀层
AG
奥地利
歌手
凋亡
卵
斯坦@@
页岩
PCR
模态
降落
正本
121
丙烯酸
MT
外汇@@
应于
桁架
Arial
危@@
赵@@
f25
战胜
赞成
笼@@
ert
敌@@
死去
天下
將@@
后轮
镶嵌
NA
登上
net
乃至
手表
标牌
深深
国产
女王
碧@@
Ab@@
研究员
ECU
堵
架空
砌块
始于
空隙
长期以来
DO
充分发挥
充填
妮@@
百姓
之旅
漫长
订货
再现
好象
分期
切片
甲醛
Ag@@
排水@@
严
帽@@
截断
机体
翅膀
飞行器
役
精美
优先权
叶子
Com@@
稻@@
洒
123
巢
下车
净资产
大城市
密闭
Del@@
Ho@@
戒指
一分钟
渡
见解
接收机
服务器@@
铆钉
上时
声学
不然
可追溯
好吗
吞吐量
菲尔德
CAS
﹐
车灯
沙发
何
帝
彭@@
功效
清扫
纵
听众
极具
正确性
返
狄@@
175
在一起
笔记
OLE
代理行
杂物
除以
排水沟
牢
这块
Enterprise
GR@@
峡谷
寄
登记册
ase
锛
ence
套期
一是
游览
金刚石
重写
上个月
发出通知
好莱坞
焊条
蒸气
Open@@
MAX
家乡
ies
招致
int
数据分析
激
不及
呈@@
微调
外围
洞口
负极
严厉
最有
解答
鸭
搭接
联想
Fe@@
冷却剂
无误
铸
严肃
习
口服
导热油
牧@@
球体
270
BOM
WTO
优先股
第六
右前
笑声
ap
中继
悲@@
淘汰
记号
丰田
剧烈
招
称作
调动
遗传算法
马丁
湿润
滑轮
界线
Process
页码
酷@@
飞船
文学@@
Ap@@
实地
宿
新款
河北省
图象
跳过
电视机
My@@
口腔
EL
min@@
隐患
口径
早些时候
换算
七条
国家有关
珍贵
压制
涵
乐意
监测@@
纠@@
6f16lang1024
航道
前应
报送
汇编
HA
聆讯
委托书
爱好者
hs
伽@@
停工
创造力
可处
敦促
分担
桌上
诊断系统
诱发
擦除
替@@
燃煤
职业生涯
蓄@@
相一致
107
中压
多边
投入使用
鲜明
垢
ia@@
短语
祥
移动电话
路堤
Time
消极
访谈
身份证
上衣
入手
葬
别墅
履@@
空载
幽默
擅长
1982
多糖
工作面
暴
肋
多样
硼
离线
Ge@@
猜测
合作@@
马克思主义
消耗量
极度
莲
挠性
身分
Sun
ity@@
局限性
阅
480
be@@
通气
拒@@
225
ight
固定装置
俄
奋斗
皇
自制
国民经济
法学
工具箱
114
97@@
综合@@
Ra@@
拼写
化疗
奶粉
em
交联
叉@@
PCB
公务员
闻名
可扩展性
后代
海洋@@
试用
贫困@@
Ter@@
养老
收敛
和解
咬@@
隔膜
所称
话语
水轮机
遥控器
吐
识
主持人
开通
那边
华尔街
電機
撕@@
人道主义
联邦政府
und
成交
闩
三角洲
释@@
SH
关键词
以期
喷砂
除尘
灭绝
限期
232
恶意
内有
惩@@
硬币
GT@@
并经
忘@@
Fin@@
P0@@
旅行社
酰胺
安放
饮用
长远
测得
处方
独家
邦@@
XX@@
神话
祭司
言论
预后
插图
Text
生命@@
境@@
心态
特殊要求
GSM
葡萄牙
MI@@
reg
加重
悲剧
记入
后端
实验@@
芬兰
有名
Col@@
喷洒
排气管
形容
王朝
衣物
发热
中风
井下
归属
ph
发性
凌@@
难民
学习@@
LA
关机
百年
看过
衬板
吻合
祝
调查结果
血症
越大
进水
栓
贩运
购置
修订版
大幅度
谱@@
6.6
基点
蜜@@
这片
PTO
工作效率
500@@
加班
市政府
决定性
复核
资本化
BizTalk
CV@@
ke
新区
IV@@
PW@@
系统故障
秤
护栏
Set@@
调速器
批处理
伪造
电子表格
郁@@
视线
Retrospect
凶@@
根本原因
裸@@
包覆
抵销
烦恼
B2
XL
嫩
接点
高亮
操作数
星期六
BIOS
增速
磋商
可燃
Auto@@
愿景
PU
阻挡
地表水
借用
地下@@
裂隙
电动@@
假日
卵石
第四章
辩@@
驳船
脖子
迁
陵
澳
蒸馏
ash@@
急剧
雕@@
.dll
该文
辅
坚实
英国人
亦可
抵御
如属
致电
呼
橙色
源性
转录
ill
努力@@
快递
报文
ern@@
ol
反思
穷@@
运行状况
有何
滤
专业化
坚决
希尔
保障@@
指挥官
管壁
表面@@
艺术品
香味
占地面积
十三
安慰
悟
称号
最高@@
线性@@
试验@@
资深
kg@@
叙利亚
巾
4.2.@@
ff
捷
浓
钢铁@@
手上
低频
油藏
礼服
时常
几率
必不可少
祖国
φ
控制柜
移动式
乌
动词
发件人
混淆
1.1.@@
压力计
放射@@
serv@@
耕地
货单
Ver@@
四大
视属何
信息管理
存储管理
磨削
肖@@
A3
兆@@
清洁剂
平方公里
您@@
桥面
缺损
即属
售价
臭@@
发音
滚轮
硫化
专用@@
基因组
店铺
网球
雌@@
PB
诊所
BREW
NG
耐火
过剩
PLN
聚氯乙烯
全程
有待
电力公司
姿
法线
适度
醉
下一代
补丁
镉
we@@
丧@@
厂区
娅
归纳
泥沙
缓和
代数
意向
中国人民银行
吊销
捆绑
专业人士
射流
弟弟
利物浦
拌
无意
旺
专属
收割
谷物
卵@@
堂@@
左前
核心@@
计算机系统
摇
新年
日本@@
瓶子
保费
切除术
小车
踢@@
罚@@
法典
认
跳动
侵害
第三条
芳@@
下级
帐@@
48@@
贿赂
守则
戊@@
ge@@
喉@@
FD
亡
念@@
劳动合同
景象
螺塞
防尘
MD
地向
艺@@
CFR
开关柜
一点点
1800
动物园
暖
主观
克莱@@
隐蔽
骗
FT@@
帝@@
援@@
受过
水压
重复使用
烫
魔法
清偿
火炬
阀杆
很强
执行@@
沟槽
散热
机翼
桃
遗嘱
难点
MirrorView
1600
今
斯坦
条形码
日报
第九@@
剥夺
EM
尔特
熔化
行情
钙@@
0.9
列示
沈@@
垄断
昨晚
协调员
辣
营业@@
邪恶
郊区
桥架
继续执行
IX
簇
追加
器械
超链接
M10
全过程
杰克逊
捐款
請
Av@@
一般性
胡
tt@@
姐姐
梭@@
每份
一封
分拣
掌控
这部分
布料
消
存储@@
CX4
名人
统计分析
重现
109
序列化
测算
严格遵守
拒
无可@@
下层
圆角
土建
霍
胆
©
衍生物
49@@
金属材料
优越
安培
耐受
锚杆
旱@@
负有
孟@@
融化
Add
不能@@
忍@@
焚烧
瑕疵
比起
完全@@
气阀
穿戴
步进
衷
纯度
变迁
RNA
散步
荣获
多普勒
失业率
推断
油量
仍旧
会面
学历
三层
上半年
众所周知
反洗钱
名册
源文件
T1
俱@@
一线
Utility
crmk
或者说
时空
升值
吵@@
阶级
8.8
Bold
危及
饲养
密封垫
土方
69@@
Start
性感
下拉
制图
基板
宋@@
弯管
海尔
高速@@
传输@@
季节性
版本号
003
汇款
域@@
渐变
一员
后侧
霍尔
高低
巨头
槽@@
电解
缝合
薄板
流经
秋天
第三次
鲸
土地利用
电化学
赛车
实心
灌木
愚@@
波段
着色器
DSP
前所未有
绒@@
预备
矫正
下调
贪@@
FA
贷@@
同性恋
沙滩
FF
ey
赴
者@@
贯@@
68@@
我来
等离子
零点
传动系统
對
显著性
钳@@
前言
计划表
8.4
art
构架
询
例行
值班
农田
拉丁美洲
箱体
丛@@
不明
毁坏
胆固醇
阿拉伯@@
Sim@@
¬
人事
判
奇异
惊奇
比特
此值
老虎
解放
口味
羽@@
震惊
陕西
公积金
薪水
芽@@
功能@@
损害赔偿
勇@@
乳液
所要
来回
set
中得
原先
胚@@
现值
过敏
亨@@
亚太地区
家园
踩
SN@@
传媒
放进
越过
抛弃
污垢
Net
大理石
存储阵列
活动@@
苏州
祖先
帅
垃圾@@
方程式
破坏性
壁厚
mp@@
清水
肥料
气息
唤醒
太长
容忍
全面@@
风味
机身
辨@@
碳纤维
高尔夫
描述符
末尾
散发
辞@@
显式
美妙
M1
ah
帐号
空军
me@@
奉
独一无二
管理工具
保值
损@@
茨@@
SOA
一倍
分析表明
浦@@
总局
执政
排水系统
民用
Te@@
Val@@
推到
焊工
藤
夫妻
绝望
证券公司
队长
EB
手机@@
行业标准
钼
语文
阔@@
畸形
普尔
117
ur
尺码
SNMP
卢比
干什么
触及
股东会
讯息
CG@@
一口
公制
土层
拒收
牲畜
奖学金
胞@@
剪贴板
巴勒斯坦
ach@@
东南
已为
线上
络@@
六年
压裂
回避
国有@@
43@@
log
售后
多人
庙
惠普
多方面
角膜
号线
收支
股利
终身
重复性
PB@@
同情
瀑布
社团
租用
两根
光照
篮@@
CX@@
虚
医疗保险
敲
蒙古@@
道歉
存入
克林顿
饮@@
筹资
贼
PG
泳@@
粉煤灰
PIN
span@@
拳
泪@@
Hyper@@
俯@@
人造@@
斯顿
资金@@
体量
火花塞
颇
店@@
正规
空间@@
陷@@
墓@@
tr@@
此刻
箭
享@@
SET
咽@@
芬@@
圣诞
如该
子弹
海事
牛顿
保修期
区域性
枕@@
淘@@
自然灾害
单向阀
Value
承包方
fl@@
头寸
调拨
祝@@
肩膀
攀@@
SO
悠@@
详述
城乡
彼@@
中华@@
抗压强度
知晓
铝制
商学院
mo@@
施工单位
转为
汗@@
º
尼日利亚
老挝
蜡@@
遇见
分工
回报率
囚犯
营业日
誉
氧化铝
紧急@@
有线
电影@@
句柄
赚钱
AW@@
出入
摩西
结局
递增
华丽
生病
工商@@
出境
经理人
组成员
行为@@
裤子
间歇
预言
盈@@
280
Series
管材
装船
达成协议
锈蚀
闹@@
烧伤
红利
科学研究
调谐
同业
枢轴
碘
雄性
霉
AU@@
fi@@
游行
水温
赞同
血流
un
中医
倡导
填筑
插孔
轧
经受
不佳
幻
扁@@
渗透@@
赏@@
開@@
山谷
形圈
昏@@
本着
EV@@
Sub@@
les
微处理器
nsr@@
原谅
9.3
PSM
每名
生动
述@@
黄铜
Command
无菌
Gra@@
Part@@
瞧
美军
取值
年纪
FT
技术创新
激活状态
竖@@
参考资料
涡流
籽
停下来
尾巴
MB@@
5.7
om
评标
前款
天才
脑袋
鸿@@
260
逆转
二十
铁路@@
生涯
请在
中美
113
LT
Min@@
原则上
清盘
解剖
革新
手续费
技术参数
4.1.@@
子句
Jaguar
SSD
律@@
捷@@
误解
ach
蓬@@
T恤
思想@@
柔和
西藏
loc@@
令牌
利用@@
参议员
铲@@
防滑
饥饿
坦克
星星
右手
既@@
智利
牵引力
你好
地处
运载
use
晒
起初
入学
抽屉
操作过程
纺@@
训练@@
low
建设工程
轧机
半球
衔接
写下
合法权益
哥伦比亚
唯@@
底下
演习
北极
变暖
印度@@
困惑
差值
架设
IPv6
会为
对账
星期二
细致
钢轨
停堆
11.
rac@@
严密
东北@@
蒸
ain@@
幸存者
梳@@
棍
电话@@
磁铁
金矿
空缺
网点
水槽
精准
电阻器
相适应
平民
旅游@@
抬@@
KPI
崇@@
承保
间歇性
概
一首
开机
入门
卷影
禁令
适用范围
派生
眼中
一时
钱包
束缚
氯化
标准规范
筒@@
防护@@
又@@
用具
衬砌
FP
重金属
中心@@
散装
这事
防守
原理图
察
技术标准
［
农作物
无条件
湖南
计算机辅助
ec
贬值
高级@@
拥抱
KW
一新
两点
割
垂直于
盎司
分理处
制止
栖息地
ail@@
发挥作用
阴性
批发
膝
臭氧
现任
204
差分
诸
650
络
亚太
路边
对数
HIV
严峻
启发
永磁
TH@@
模拟@@
爵士
留出
偏见
卢
DWF
信箱
滞
臭
有过
纤维@@
Ti@@
尼泊尔
特质
犹@@
大连
讲解
ip
搬
Link
估@@
型钢
Bar@@
弹药
汉字
尖端
显而易见
总面积
实用性
浮点
粘附
财
减肥
对流
履带
二元
木板
基因@@
乃
星期三
没错
肢体
完备
符合规定
这句
饰@@
邻
550
交通事故
氰@@
稳定@@
天赋
治愈
拖曳
63@@
乾@@
NAME
ung
不去
京
兔子
再度
讲座
重合
吩咐
量级
海报
op
河南
携手
收集器
高等
恋@@
折弯
拔下
Times
ne@@
总公司
滨@@
税法
控制技术
饮
健康状况
奴隶
逢
毫无@@
白人
寿@@
从来不
一刻
鹿@@
折磨
状态@@
疯
SY@@
长城
1983
Pol@@
中国银行
乙酸
亲密
德拉
赞赏
雀
非洲@@
Land
冲动
咸@@
突发
辖区
传动轴
胺@@
菌株
事后
履行合同
座垫
柬埔寨
的吗
旅
苍@@
计算器
认真@@
日光
极了
大面积
帆船
愈
乃@@
加元
君@@
瑟@@
窗玻璃
不该
违约金
人性
呆@@
灰岩
磺@@
溢价
罚金
在此期间
整流器
ND
多级
截止阀
电子产品
届时
文化遗产
管理模式
药剂
洛克
驾@@
84@@
遗失
本地化
甲状腺
背书
宿主
绘
醒@@
霸@@
Mon@@
strong@@
可拆卸
提单
脉动
Client
使用费
全长
泵送
祖
闸板
仙
奶酪
馈线
ir
匹@@
红细胞
Cor@@
ore
Ⅲ
协议书
硫酸盐
均须
政治家
宝贝
物理@@
害@@
堪@@
工资@@
访@@
刑事责任
加深
该软件
Bro@@
很棒
平面布置
dis@@
支撑@@
走上
件事
］
内饰
BR@@
MQ@@
主板
归类
设计标准
建筑材料
ab
审慎
观察@@
下达
交错
尼亚@@
毫不@@
烘干
O2
口岸
合金钢
服务水平
两岸
DWG
十足
对比度
第一天
醉@@
ks
溢流
利斯
天然@@
竖向
蓄
330
冰川
干燥器
诱惑
传送带
困
张贴
阴极
Lin@@
卷筒
向外
Int@@
戒
数十@@
识@@
ition
喷淋
炎@@
现今
OM
人力资源部
学习者
磁盘驱动器
叛@@
合营
朴
永不
ok@@
幕@@
琴@@
缓冲器
互联
参议院
反光
收货
前提条件
聚酯
Server@@
執行
简述
Des@@
公元前
大容量
橡胶@@
运动鞋
Mail
获益
食品安全
建构
教导
紫外
缠@@
遍布
钉@@
晶粒
红外线
冷水
咨询@@
咽
福建省
冷静
洞穴
显现
生殖
项目@@
亚马逊
抬头
肠道
撕裂
演练
环境污染
福建
阿拉@@
re
典礼
城市化
时效
每人
糊
减排
变体
密封剂
萎缩
书签
女生
消费品
平常
注册商标
等同于
RSA
粮@@
在建
蛋白酶
预算@@
必备
电阻率
赖
古巴
委托方
GP@@
开业
感谢您
朝鲜@@
油封
硝@@
发布会
有机物
构想
听取
裁判
加利福尼亚州
附图
河南省
郎
石棉
205
奢华
钻井液
岁月
情境
数年
缝隙
建筑设计
站台
一月
依赖性
哺乳动物
固结
奶油
Har@@
改革开放
ControlCenter
cf@@
享用
烷基
美金
错误信息
防雷
便会
扩充
经济衰退
杖
ide
留存
装满
星期四
硬质
慈@@
文摘
N1
监护
熔融
语言@@
音频@@
122
涓
景色
标题栏
漂移
硒
下雨
gra@@
接地线
自動
旧金山
车库
顶层
源头
三分之二
即为
检出
四处
锅@@
婆
定时器
我用
挪@@
晓
市值
忙@@
米尔
产业化
双方同意
排斥
LD
再试一次
寡@@
山羊
滤器
轻度
连接@@
器中
拍照
尔森
男士
切尔西
渠
電子
核销
测量@@
视察
风雨
利润率
心率
机上
欺@@
狭@@
鞍@@
错误@@
岩层
雾灯
搜集
Roman
联结
资源@@
展出
打断
指导方针
医疗器械
跳线
关乎
提请
唱片
孔洞
投射
方言
58@@
厉害
指甲
aut@@
临床试验
互操作性
人选
必将
绝不
购买力
雕像
Wh@@
人心
腔@@
mental
申请@@
Script
交际
售出
提出申请
SDK
贵州
途@@
以备
万向节
扣留
电磁@@
紧凑
ESX
动力@@
精品
主角
抵押品
流过
逗号
麦克@@
ATF
倘若
公路@@
遵@@
ISP
宴会
管段
袖@@
H2
各个方面
闸@@
丘@@
参数设置
寨
衡
開
剩
法对
每分钟
生存@@
绳子
译者
深受
缓震
掩盖
肺癌
仲裁员
合同@@
燃烧室
一堆
伯特
廉@@
热门
炒@@
半个
山地
炼
游泳池
高分辨率
EG@@
关节炎
ld@@
她说
操作程序
海盗
敬
树枝
纱@@
规范化
詹@@
黄河
77@@
病情
雕
飓风
po@@
Ed@@
Mac
个月
RPM
复发
驰
审视
SIM
心肌
解码
电力电缆
眼泪
④
涅@@
脆
逃避
二期
税额
算是
PF
丢@@
瓷@@
分隔符
孕@@
收件箱
看似
样式表
试验机
边际
³
动员
复兴
已于
方框
独有
薄层
赋@@
idspn@@
反射@@
吊架
织
袋@@
减压阀
增幅
订定
form@@
md@@
与否
指望
毫升
中型
疮
势头
报警器
UL
习俗
帆
砌
继承人
肉类
软化
家庭成员
ERP
人能
培养基
io@@
倍数
带走
涂敷
罩@@
BS@@
CW@@
Mac@@
活性炭
近来
五月
合作社
第四条
203
税务机关
试试
变化规律
外露
身后
近日
烯
草坪
亲属
发動
存储空间
摔@@
Rob@@
其所
原告
产值
特征@@
公交车
有害物质
电价
芭@@
7.0
M3
age@@
得多
耕@@
青铜
Framework
固定式
奏
感冒
繁忙
联邦@@
载明
46@@
ace
呼吸道
特区
纲
地为
粉丝
Clo@@
net@@
突发事件
跨国公司
消音器
1.9
畸变
纽约市
3.9
先决条件
创办
动植物
纸质
网络安全
莎@@
Cl
供选择
化学反应
大麻
葡萄@@
卧
喉
左后
清醒
随访
套房
当量
矮
范
克拉@@
淋巴细胞
face
派对
EMS
TR
上课
刘
宫殿
抵制
贵族
音节
大赛
帐目
遮阳板
The
一個
猜@@
剖析
推销
56@@
IEEE
崇拜
拇指
搬迁
注水
卸货
太小
粮食@@
载重
S1
再试
卑@@
担@@
排污
无比
轮轴
追溯
ond@@
水井
镶@@
矮@@
授
脊@@
随便
斑点
火车站
相片
决策者
焊机
第一章
1100
倾倒
差动
系统性
栓@@
检验员
窃@@
衰老
模量
通知单
涉
管内
醋
驾车
帐篷
引号
MD@@
提倡
质地
稳健
讨@@
line
ara
伴有
祷告
AppXtender
之用
单层
详
战役
则@@
脚步
du@@
越高
VI
γ
六月
海啸
迦@@
外加
椎@@
臣
整天
耗材
xx
垂
投资@@
Ba@@
外交部
常量
竖
出价
墨水
LR@@
分散@@
家属
温度控制
进球
第一阶段
箱盖
刑@@
解密
高炉
勘查
栏上
谨@@
骨髓
1970
公共卫生
征求
环境因素
美容
闲置
大选
天上
ue@@
凿
溅
冈@@
折射
捣@@
详细资料
不便
热力学
fs@@
举动
交通工具
带入
尼斯
猴
购物中心
专辑
留置权
制服
夯实
山上
燃气轮机
规避
一章
引水
笑话
非常@@
肺炎
香烟
004
1981
内衣
嘛
茶叶
持牌
断开连接
痰
运河
退款
54@@
Shift
严格执行
』
私营部门
选址
前任
恶性
荡@@
谐振
SOAP
水印
五十
微分
SCSI
file
兑现
三角@@
线段
Sw@@
有价证券
三月
第一位
10.1
HD@@
中小型
免于
典@@
同伴
好事
私营
遏制
DC@@
检验@@
邮政编码
Inter@@
精华
融
M2
降温
靶
去掉
温柔
滑行
花朵
铠装
Basic
HE@@
ration
尼克
流化床
包装材料
出水
既定
照明灯
车主
墨盒
离子@@
半年
正常值
锻件
FI@@
战略性
插值
放心
Power
沾@@
湾@@
这幅
铬@@
责@@
颤
底壳
内陆
动荡
扣押
乳腺癌
使用率
现浇
重用
ING
海峡
郭@@
服务员
Update
供气
翅@@
奖项
程序员
美的
过渡@@
SID
获胜
Design
壹@@
奔
奥斯@@
按揭
棱@@
测绘
液面
辞
格林
队@@
不合格品
尘埃
逼@@
填入
布拉@@
一小
孔中
方差
气化
岩性
互补
圆盘
桩@@
烘焙
鞭@@
怪物
监测器
公共服务
微分方程
烦
SDD
殖民地
闸阀
驱動
寸
Solaris
『
站立
mail
其为
杉
刚好
匙
多大
操作者
数学@@
118
土地@@
存续
装载机
检查表
符合@@
db@@
发售
anc@@
标段
水道
郊
As@@
硅酸盐
合格证
坚强
ong@@
摆放
装上
骑士
拖到
招募
擦拭
留有
变色
隔开
GO@@
讽刺
访客
轴承座
搭载
钎焊
钨
鼓舞
工艺品
躁
青春
Rec@@
问道
are@@
后缀
系统配置
姓
获准
GL
读出
Portal
告警
扶持
电气@@
看不见
于此
嘉
下行
受限制
彰显
有期徒刑
模拟器
居然
珍
ABC
会议记录
公报
居民@@
承压
隔间
筑@@
新工艺
木头
贾
阳离子
FA@@
得不到
服装@@
珍珠
剑@@
揭露
组策略
02@@
部份
兼职
疟疾
中午
军方
变换器
扁平
127
崩@@
漫游
皮质
跳跃
TCM
無法
Br@@
外交@@
不太可能
配电箱
幼儿园
留给
踩下
迪拜
并重
独立性
赐
OP@@
世上
处分
船体
伸
心肌@@
忧虑
住户
市场需求
柴油发动机
评判
Sm@@
哈利
堆芯
幸@@
聆听
船用
蓋
熵
膜片
高速缓存
安装@@
抹灰
要说
低下
喜悦
逃
写出
处境
翔
虐待
足球@@
ors
待机
挣扎
接触面
流畅
滑移
省份
背板
Ev@@
关键因素
减免
完全相同
选装
闪电
尽早
流水
集会
亮起
拦@@
此举
雀@@
夹子
打印@@
承载能力
密实
燃料电池
靶@@
参考@@
尽量减少
畅通
妥协
胁迫
共同体
香料
ick@@
关键问题
妙@@
赌场
土木工程
奥氏体
导航系统
拘留
哮喘
柏
芳香
无法@@
水头
AX100
ement
复印
循@@
标价
油罐
虚拟@@
填土
想像
高处
amb@@
碼
观光
扁
热力
SCADA
书记
准备就绪
Vista
压电
水上
略微
适量
总收入
疏浚
ath@@
eng
周期@@
尴尬
膳食
内六角
晕@@
冠状动脉
仟
点钟
祥@@
离岸
血小板
门外
秋季
一枚
乳化
探析
耗尽
闲
4.3.@@
out@@
平方英尺
当下
萧条
骚扰
开玩笑
批判
气球
赫兹
魏@@
NURBS
个人资料
南北
往返
杜
生产者
该处
发掘
ps
效用
未定义
术@@
机密信息
胞
造价
att@@
yl@@
整流
货币@@
返工
相比之下
除尘器
例外情况
偷
哈萨克斯坦
山市
授权书
Bas@@
郵件
LM
偏移量
指挥@@
龄@@
降下
交流@@
SRM
墓
底面
内膜
血栓
Par@@
上司
大腿
精子
调频
高职
代理服务器
Tech
再用
mb@@
品尝
组和
不已
中去
地理@@
by
哪怕
租约
ings
长久
姜@@
就绪
施工进度
蜜蜂
连通
144
人工智能
多条
尿素
留意
116
嵌
pr@@
头顶
开创
防洪
学费
表皮
增高
宋
注视
袋子
作业@@
OT
公安机关
可知
宏观经济
质量体系
办公楼
数字式
触头
龙骨
雌性
产品设计
漏油
身为
yt@@
利益冲突
矿物质
适
0.
th
吸气
愈合
宁静
ActiveX
良
ica
就业机会
开发署
曲柄
烯@@
Cal@@
嘴唇
肆@@
Mer@@
模糊@@
点数
知识@@
叹
水利
西斯
风电
1979
大批
州长
推杆
摇臂
谋杀
eng@@
事务处理
妇
换热
颜@@
响@@
惰性气体
測量
並@@
征服
搅拌机
精神病
這@@
TimeFinder
严重性
所含
连线
评为
围岩
奥林匹克
F2
reg@@
信纳
喊@@
行长
集体@@
体检
再见
发行@@
日止
温泉
集料
匀
收藏夹
裸露
GA@@
位图
斯蒂@@
受托
吃惊
尾气
必填
托马斯
树叶
羽毛
自然人
身高
sp
注定
信号处理
湍流
QU@@
滑雪
卡拉
褐@@
褶皱
软骨
黄金@@
unt@@
席位
浇@@
额定电流
影子
︰
OL
直立
GP
关切
拖延
机能
水土流失
铁矿石
升压
余热
悉尼
济
结合@@
中起
一届
受压
例程
多点
市政局
停放
浑@@
ART
做事
后轴
湖北省
R1
old@@
传来
普查
硝酸
6.7
专
忽然
承办
条码
乐园
子集
寻址
管理费
用人单位
贴现
RH
奎@@
锌@@
功率因数
强行
扰@@
无所@@
有效率
祂
海豚
谅解
2.9
Def@@
一轮
还原@@
62@@
专利权
妻
Fo@@
GD
送入
乙二醇
纺
排量
解放@@
Pat@@
岛上
开会
7.6
拆装
空运
索取
感动
酶@@
扭
积水
概览
保证@@
好奇
弱点
昨日
竞争者
与会者
衰
质量@@
身材
却@@
衍生品
观赏
里亚
抗菌
河水
限制性
Kh@@
借口
勃
孙
澳@@
顶盖
反应@@
外语
无聊
肾脏
办学
失踪
监督@@
眼光
掩@@
金牌
S2
VIN
加利福尼亚
十四
聘
财务部
中文@@
关怀
有意思
漏电
贫
一列
不良反应
出众
熔
阶梯
裸
阴道
87@@
冈
安全系数
Cre@@
区域@@
吊索
患@@
zh@@
µ
情报@@
热线
錯誤
曼联
裤@@
适时
门诊
美术
边上
勾选
多用途
打结
该行
凹
升至
接受@@
前瞻性
此人
同名
充分考虑
屋子
工单
抢
走路
裙子
进口商
ect
板式
汽机
还给
饼干
孔子
豪
遮盖
第一款
藤@@
中世纪
弧形
统筹
ical
下班
诠释
读写
酚@@
126
引人注目
131
倒车
同步@@
拆迁
椰@@
流动资产
深远
甚
驻留
悦
挥发性
公职人员
班组
不定
习近平
开发利用
所在国
知情
继電器
ys
参看
连续@@
需在
script
于本
真空泵
砸
菜单栏
TRA@@
猪肉
撑@@
Carrera
era
停运
湖北
疆
质检
交叉口
整治
超级@@
惊喜
腰部
开式
日记
满载
疗@@
ord@@
八年
小女孩
全市
天生
锭
一会
医疗@@
持续性
溃疡
口令
测试程序
项目名称
User
inst@@
聊
不高
帘@@
法治
盘式
蠕变
熔断器
膨胀@@
蜡烛
与非
政客
Key
上空
刑法
汇集
党员
焊接@@
耕
尤为
监
知识库
遣@@
1978
ee
被告人
CON@@
五金
倒角
升温
井架
不多
东亚
头枕
恐慌
摄影师
col@@
躲@@
TP@@
精灵
自觉
读卡器
废水处理
照亮
电感
痒
身心
12.
就让
开辟
防护装置
155
中国证监会
博览会
喝酒
主控
出差
立体声
ket
功耗
城里
喧@@
10.2
春季
MAP
ware
原文
文本文件
石灰石
芦@@
59@@
异构
挂车
挖掘机
Li@@
度计
时为
祭@@
陌生人
喂@@
清新
运气
有源
机加工
挣@@
第五条
腕@@
博弈
有所@@
炒
蜂窝
人才培养
放气
综@@
水土保持
系统管理
客户关系
挑战性
签订合同
财政年度
远距离
公章
安全可靠
耻
胳膊
迟到
key
真实@@
覆盖率
忠实
辐照
风量
LB
宁波
脊髓
发电站
of@@
PN@@
果汁
醒来
ATM
ents
总金额
结实
重新配置
东盟
查尔斯
缆线
首歌
Box
根部
淮@@
尊
解释@@
公开@@
壳牌
席@@
毛细管
增生
狮
大臣
描写
行进
摸@@
一圈
栅栏
谐@@
UM
岩浆
报名
接口@@
第六条
Plus
Security
泊
记录@@
魔
泛
音乐会
一贯
上线
两份
使用@@
反过来
腹板
借方
杀害
营业额
钻杆
WW@@
引力
维亚
偏转
出让
Biped
砷
售卖
箱内
規定
财物
铰接
屈
145
剖面图
IDS
或本
Notes
残
自动更新
输入您
银行家
不利于
加长
恶心
批复
受访者
天体
孕
积聚
前锋
客厅
出卖
统一@@
航运
放空
毛刺
祝贺
荷
预示
相差
载波
厌恶
少女
电动汽车
达标
src
业务部
前台
前途
吉姆
袖
星期天
沙特
马克思
鲜
编录
落地
高潮
小儿
中要
事务@@
激酶
肚子
转储
魂
010
xr
版权所有
阻断
先知
缺血
一号
驯@@
GW
七月
投放
數
盘点
武装@@
池中
485
Configuration
周转
坎
坚信
损益表
MC@@
权证
好多
音响系统
Settings
ave
滚子
玻@@
其应
壁垒
援
草稿
抗拉强度
激光@@
粘接
当成
联系方式
调色板
第一项
8.0
高度@@
mod@@
漂浮
演绎
自行决定
kPa@@
唱歌
死刑
胶粘剂
财务管理
辣@@
十一
选择@@
.html
PDP
ns
乎@@
后备
潜能
输出@@
通用@@
推翻
毛巾
车床
SK@@
福音
精制
纤
胖
腰带
蒙古
砌体
ace@@
减震
孕妇
深入研究
用户手册
用户组
赌博
Em@@
漏斗
2030
理查德
外层
拢
澳元
系统地
FLARE
In
低廉
嗪
至上
蜂蜜
刃
热带@@
面具
创造@@
庫
分子量
卡住
改建
丝绸
坪
套餐
空压机
笛
肘
匈牙利
裁剪
难以置信
黄油
等价
清空
贯
阐释
发展前景
本年度
毛病
积极参与
FD@@
SG
三位
岸上
做过
前侧
检查员
转盘
ers@@
压出
商誉
Options
俄国
印制
搏@@
机械性能
管辖区
计划@@
映
P2@@
发明@@
忽@@
杯子
5.2.@@
年度报告
番
舰@@
香港特别行政区
凝聚
善良
调查@@
迈
Is@@
下发
娃
绕过
link13
珀
精炼
销售量
Player
旺@@
格尔
活门
09@@
53@@
清洁@@
病患
私募
12.5
弦@@
树中
爷
HK@@
直播
督促
装在
造影
门票
回收率
年均
沃尔@@
海绵
＞
备受
空气压缩机
仔
马车
ax
丝网
喜剧
定义@@
脚下
专利@@
互利
围墙
境界
声波
登记@@
也@@
开孔
皱
克里斯
精选
论点
四月
总体@@
轮辋
f6
交易商
人事@@
溴
矩
连接处
雷斯
青睐
168
MQ
法例
平价
握@@
逃离
◆
丘
分形
截
营业部
请用
顶尖
相近
内部@@
右后
巧@@
TPM
全资
工艺@@
绝佳
芳
vi
一顿
局限
重庆市
yp@@
亏
刑事@@
压降
维多利亚
迎来
轮询
itt@@
快捷键
苹果@@
集成@@
最低@@
自行@@
中外
交易日
荣幸
额定功率
大象
朱
镀
Attribute
MRI
全职
税务局
莲@@
泥岩
递
抑@@
炼油厂
犹大
逼近
挂牌
紫
裁处
sec
千瓦
地壳
掷
消化@@
V1
true
抗氧化
沉积@@
Direct@@
主教
原发性
坐落
端盖
119
3.3.@@
联络@@
奏@@
学士学位
电控
脊柱
东北部
大使馆
工程技术
暨
电热
楚@@
comp@@
法在
xml
维也纳
预埋
Fre@@
WA
当前@@
感官
海南
石材
第一批
Mpa
哈佛
复用
工业用
扣减
规划@@
RepliStor
失控
竞争性
粪便
涨幅
好消息
如表
悦@@
排入
斯托@@
蝴蝶
风口
Ser@@
毗邻
盘子
BI@@
太高
展览会
山西
我家
童年
高昂
内存@@
小男孩
图形@@
沸腾
盈
辨别
DH
开出
溴@@
转角
NG@@
总体规划
壮
流式
ire
铂
並
商会
嘉宾
采办
DH@@
下沉
赞美
咳嗽
结构图
胰@@
防锈
对角
法律顾问
后会
该组
Out@@
act
停电
审计师
格斯
长江@@
门店
凡是
控制策略
机舱
不平
本例
硕士学位
阅@@
越野
迄今
专门@@
值得注意
施工人员
脲
传出
债@@
爆炸@@
直觉
me
Paint
各大
斗杆
梨
椭圆形
驳回
侯@@
大大提高
能为
削@@
肤@@
积极性
移出
贷方
轭
低估
锚定
Host
Ke@@
倉
全力
防喷器
Application
分派
疼
盖茨
纽约@@
Controller
Level
听觉
山顶
恐龙
高效率
显示@@
超额
高山
301
树上
由该
过长
＋
ont@@
传到
拳@@
FIT
一千@@
产地
后盖
戴尔
扯
插入式
方向@@
暖风
垃圾邮件
失真
斥
沈阳
省略
股票@@
互联@@
封闭式
檢查
糖果
CharStyle
菊
划线
法兰@@
脓@@
试车
古怪
最高法院
App
ade
劫@@
挑
子项
算子
记忆@@
绑
猛
的呢
共聚物
商家
恐怖分子
数个
饱@@
争夺
人员@@
病房
電缆
RDS
候选
干式
臀部
领先地位
Flash
晚会
格外
下周
世卫
传承
卡扎菲
纶
Al
上图
死于
经济社会
工程学
抑郁症
腹泻
轮子
TG
化器
球面
算术
会计年度
奉献
招标人
楼宇
训@@
这套
二战
放样
server
前门
劲@@
爱因斯坦
街区
弹力
柴@@
脾气
06@@
定为
系统工程
ult@@
低位
头盔
女式
画布
BB@@
add@@
天地
巨型
asiantextfont
活塞环
轻轻地
迈克
Ros@@
弯矩
筹备
整机
检测@@
亮点
哇
潜艇
率为
配比
页@@
忠
抑制作用
塞尔
程序设计
基数
设计者
仅供
拾@@
立管
首位
RE
料斗
课税
div
万英镑
明确@@
重设
»
时长
逐
削
加盟
皱@@
定量分析
服务供应商
膀胱
保持@@
宁愿
回滚
施工工艺
昂@@
门户网站
一身
夏威夷
批号
SW
忙碌
熊猫
Fran@@
OH
番@@
续期
满足要求
疑难解答
真皮
非常适合
低音
信號
女孩子
攠
第一百@@
致密
打败
波导
操作手册
2.3.@@
不为
检查点
茂@@
醒目
会员卡
古典@@
快速增长
短裤
这边
Add@@
D2
予@@
右击
横跨
清真寺
中国共产党
热烈
航空器
连接线
上岗
新车
第七条
新的
CK@@
三倍
全国@@
帖
热轧
舒适性
进一步提高
逼
lock
ress@@
细小
重载
耐火材料
总行
波纹
簧
商贸
外地
牙膏
一小部分
pe@@
交底
利性
反腐败
五十@@
复方
攻击者
泵站
篷
耐磨性
xx@@
中说
甘油
职业病
韵
间谍
電磁阀
厦门
赔偿@@
雨季
图像处理
富集
心理健康
Mot@@
时代@@
暂定
爽
细微
香蕉
会长
津@@
苹果公司
Pe@@
奴@@
媒
畔
矿产资源
缴@@
V8
变电所
过早
人间
姐妹
高中@@
.d@@
并入
本能
牛仔裤
结石
货架
送往
地狱
组委会
绩
防抱死
高斯
自然保护区
销售收入
预审
﹝
含水
天天
曲线图
高铁
整车
绑扎
董@@
Point
责任人
产业@@
点儿
电加热
警惕
勾
鲜花
老婆
151
你方
蕴@@
項
9.4
不堪
凿@@
白皮书
立方体
搏
没法
磷酸@@
VC
白细胞
绝大部分
考量
钻进
筹集
百万@@
GMT
IE
bl@@
客观@@
工程地质
贸@@
企业级
封锁
弃权
第九条
Ltd
流变
癌@@
前面板
大片
航空航天
雾化
霞
刹@@
救生@@
江西
炎热
驾
5.8
Content
九个
云计算
合法性
晨@@
温度场
煎@@
南海
禽
尊严
波特
结转
全天候
Inf@@
楔@@
珊瑚
窗帘
后窗
专题@@
施用
稍候
六条
变现
未曾
柱子
禽@@
顺便
不良@@
抗性
人才@@
上调
梳理
蕾
健
圆圈
谦@@
强壮
高空
一事
人来
大人
注射液
185
屈曲
耗费
进度表
the@@
保护器
嗨
数据交换
法律效力
交点
交通量
劣
市场部
新娘
晒@@
极高
1400
热能
内阁
农村@@
124
Select
刨@@
妇@@
让步
赋值
高大
电泳
笑容
卧式
碘@@
ON@@
T2
试验台
列表框
双头
无人机
電气
File@@
1.25
1300
水深
年月日
涡@@
运维
外贸
当初
维护@@
蓄水
呈交
地中海
想着
校核
百度
肺部
mol
mp
仿
懒@@
模特
刻录
计画
记下
選@@
208
孟加拉国
潭
自如
Connect@@
媒体@@
渗透率
中国建设银行
沿岸
花纹
财务会计
165
滨
犹豫
白血病
等价物
4.9
土工
幼
lu
肤
蚂蚁
ain
准时
地被
弧焊
聊@@
ull@@
分娩
晕
月初
杰夫
陆上
HMI
搅@@
训
PowerPoint
并列
搅拌器
症@@
商业模式
昆明
PP@@
TER
与众不同
抛
昭@@
秘@@
非金属
中线
伐@@
圆锥
浸渍
作好
公益@@
微弱
沙特阿拉伯
经济危机
9000
化剂
金属板
L1
Visual@@
卸料
CHAP
个数
尝
世人
穗
耐压
过电压
own
数据仓库
花生
荆@@
表列出
缩略图
免责
家禽
束带
泰勒
饱和度
中控台
主线
专家组
东南部
复习
洗钱
运动会
兽医
期初
立法会
On
德斯
更新@@
后处理
車顶
InTouch
SPS
恢复正常
按本
海里
饿
Adobe
烘@@
畜@@
ll
勘@@
开放@@
陕西省
tra@@
应激
理化
设计图
ACE
否决
Wor@@
受众
土豆
气质
反演
外层空间
奶奶
宾客
工作岗位
昂
用例
门框
防潮
陵@@
ICP
假装
鼎@@
AF
可逆
土建工程
IFC
PK@@
卖家
波纹管
赶上
通讯@@
Open
单身
捐助
猴子
多长时间
导入到
彻
这本
不可或缺
犬@@
鞘
ice@@
关上
原产地
常务
建材
来电
第八条
天平
徵@@
曹@@
池塘
着火
十大
台风
场外
sch@@
三名
体力
控制杆
艾滋病毒
1976
动性
更强
滋@@
电信@@
设计阶段
另一@@
品牌@@
性能指标
数据管理
贮藏
命中
居中
情人
捉@@
看成
翻新
ier
布里@@
琼斯
入口处
起着
平均水平
da
厨师
羞@@
马力
ett@@
乳酸
付给
佩
毫不
疏
补偿@@
DFS
概念@@
花键
走势
蹄
96@@
Sal@@
ao
嗜@@
粉红色
系统对
构造函数
派出
特别@@
CAM
乳房
Loc@@
WMI
万个
黑洞
C3
Object
ack@@
散布
统治者
被称作
覆盖层
风向
ek
工程部
000.00
22.@@
ITB
P0
丑闻
花钱
△
击中
升降@@
娘
熏@@
院子
GR
密封条
疫@@
裁判官
劝
尖锐
用语
首批
公用事业
悬臂
警戒
if
克尔
克拉
安慰剂
搜@@
趋于
Disk
压紧
回放
坡口
大型机
威尔士
并行@@
遍@@
中度
侧板
降雨量
水溶液
用餐
艾伦
九月
税前
LV@@
叉车
实施方案
涤纶
空气污染
给水泵
WebSphere
杀虫剂
第五章
管径
陪同
VTune
UN
明示
偏置
选票
一维
廷
缺席
专职
拉德
面包@@
ub
称赞
高压@@
Drive
液压缸
AX@@
世界卫生组织
反抗
吕@@
智能卡
RMS
缘故
股份公司
逃生
高等@@
SCM
噪
瑜伽
生长因子
社会保险
缅@@
业内
围堰
或用
疲软
评述
低迷
固定器
指标体系
活塞杆
铅笔
cont@@
褪色
300@@
不可思议
半成品
填满
报复
气源
网络适配器
able@@
装货
金字塔
恒温
砾
稀
薄弱
二十年
初步设计
卡钳
翅
关掉
参考文献
成本@@
掺杂
标头
Administrator
IG
邓@@
钓鱼
HART
收于
敞@@
肥皂
ASCII
ana
侦察
叔叔
5.1.@@
卡特
木制
人文@@
弹性体
闷
管理软件
UR
web
严格控制
增至
一向
回火
John
娃娃
文件@@
計@@
辣椒
以南
猎
疹
ac
伙
免疫系统
题为
IRM
人际关系
后应
布设
库房
税金
衰竭
货款
AX4
二百@@
花粉
藉由
更能
纬度
Pa
口感
丙酮
压阀
透气性
SK
地球化学
立法@@
110@@
形貌
赔@@
兼顾
碳水化合物
G1
力求
外国@@
搜查
第二阶段
内燃机
心理学家
心轴
伤亡
导则
极致
舌头
解开
尽头
获奖
说来
防水@@
2019
意味
133
家居
赞扬
牵头
Ret@@
出席会议
子孙
总成本
转身
丝毫
打扰
沟渠
热塑性
99.@@
之道
总工程师
日语
删@@
宇航员
AA@@
备有
好转
样例
灿烂
安全检查
开端
核证
特拉@@
1.00
堆叠
极少
黑白
cr@@
左手
数百万
约翰逊
软件产品
伸长
支气管
毫克
静压
850
坡道
日内瓦
投票权
有效值
民航
那条
搁置
油轮
后卫
崭新
楚
残酷
海平面
user
捷豹
无功
无线网络
网路
选购
GN
不算
气道
股票市场
兽@@
棍@@
统称
InfoPath
电源插座
保健@@
印刷@@
小规模
直接@@
译文
SQ@@
时有
直流电源
端接
线槽
自由基
列中
玄武岩
茅@@
这篇
狂热
海滨
管理中心
储能
实业
曲目
油器
TD
榴@@
硅胶
152
Pr@@
参展商
歌唱
GT
换向
仅供参考
星形
监护人
Viewer
丙烷
打入
剂@@
商机
恋爱
择@@
病因
纳德
Vis@@
凝汽器
吸取
尽情
深厚
温州
云南省
符合标准
铲刀
Max@@
万平方米
副总经理
坟墓
穷
SAM
书中
区中
山坡
违法行为

IB
Range
密封面
市场化
肝癌
追
爱德华
哑@@
涛
十六@@
举例
单线
恰好
爆震
img
剧本
微量元素
经常性
面粉
放出
渗流
询价
顽@@
爆炸性
皂@@
财产损失
运至
先天性
植株
相连接
精矿
作废
尝@@
被控
趣@@
静音
预紧
环境变量
起见
仆
公益
喂养
构思
系带
经济损失
傻@@
TL
结构钢
记录仪
不得@@
数据结构
机油泵
轮椅
线形
巨额
党派
循
眼球
ut
敦@@
MOST
一丝
寓@@
暴风雨
肾上腺素
電阻
风光
治安
流传
熟知
.j@@
RO
榜
斯基
胡子
Pet@@
SQL@@
146
留学
裝@@
超标
防护罩
sm@@
处理过程
宝马
组合@@
高产
二年
伤心
呕吐
紊乱
薄壁
输出功率
阁
工装
砍@@
美国联邦
水泥@@
理论依据
培养@@
定点
循环@@
法定人数
蓝图
Mobile
闭环
追究
优秀@@
学生@@
毡
ric
嘲笑
挽救
应付款
当地政府
接线图
正确@@
价钱
发运
格里@@
迷你
领导力
ans
内蒙古
抖动
后门
接地系统
矢@@
水泥浆
守护
礁
良性
领导小组
ages
山西省
自发
HVAC
孢子
开阔
本届
235
拆下@@
回顾性
庭院
海面
事业部
全景
接字
数字签名
port
地方@@
移走
知觉
竖直
第十条
四季
香水
热水器
芝
光芒
勇
另一侧
城市规划
粘稠
6.8
Edition
契
得益于
成本低
上行
发出@@
肆
VAC
演说
详@@
以为@@
尔曼
布鲁@@
窒息
娶
浸入
鲨鱼
WINS
光亮
谁@@
伊丽莎白
可执行文件
热源
苯胺
Tool
false
均值
封口
符合条件
英亩
绝缘@@
九条
二阶
供款
信贷风险
意识形态
试验设备
中华民族
侍@@
共同努力
吊顶
战斗机
数据量
根据上述
障
投资银行
每组
状态栏
IPO
产业链
桥墩
测评
贡
轿厢
鹅@@
13.
班级
等式
接获
尾灯
不知@@
举起
凸起
取得成功
召@@
布斯
搣
倒塌
偿@@
屋里
暂
西南@@
临床意义
务实
敏感度
磨料
阻尼器
CAT
ark
价值链
并不@@
可观
合一
经营范围
颅@@
三类
同轴
物理学家
资本@@
软弱
五种
分页
患病
本会
登机
正值
浊
超临界
Fi@@
储存@@
挨@@
效率高
歪@@
Pri@@
局限于
惟一
棚@@
遮挡
Channel
SF
三点
场面
摊铺
硫磺
难过
8.6
ag
可惜
洒@@
贸
十月
实务
布莱@@
进气管
逆向
体型
压迫
德语
笔划
身体健康
问卷调查
bu@@
中欧
值时
SEC
坠@@
开展业务
番茄
蜘蛛
Gre@@
填报
标度
躲
Publisher
平面@@
Je@@
pa@@
内存不足
收率
栏中
河谷
洽谈
经贸
艳@@
顾及
GW@@
mo
恐@@
接合处
美分
再说
加氢
锁扣
锁闭
Dynamics
内圈
端口号
高尔夫球
教育部
铃声
龙头
出自
学分
心跳
組@@
而后
存储模块
智能@@
橘@@
・
占位
民事@@
率先
重度
春节
玩耍
前列腺
罗马@@
下令
屠@@
音译
二层
强烈建议
递归
造纸
21.@@
取自
呼吸器
嘴里
征得
锦标赛
阳台
二十世纪
创业@@
极好
回调
碳氢化合物
诊@@
世行
烯烃
马拉
休克
善意
坠
差错
招股
深水
硫化物
定型
有线电视
005
Image
tw@@
婚姻@@
巨大@@
开户
西班牙语
Edit
二人
女朋友
林地
999
comm@@
开办
引爆
承重
机动车辆
湖南省
疗
知悉
增长速度
就是说
起动机
UX
河北
｡
10.5
KS
出线
第四十@@
图样
归属于
技术性
氏硬度
豹
Not@@
水龙头
儒@@
失调
导游
操纵器
时请
涩
水平面
科尔
袜
高通公司
患儿
旦
独资
管状
拉姆
购买者
门上
11.1
理赔
甲苯
这辆
雄厚
字幕
港元
色泽
发生@@
栓塞
目测
票价
代码@@
朵
药材
协调@@
生产成本
耸@@
刑罚
大酒店
检波器
公用设施
当做
愁
枕
柯
DMA
大米
饲@@
帆@@
执
车轴
须经
黄土
AE
勒斯
鈥
get@@
交流电
拦截
移動
雅虎
两级
水阀
面对面
口语
标出
看电视
艰苦
香气
206
5.3.@@
Corporation
上应
民间@@
爱人
肿@@
医学院
播放机
泊位
第二种
裙@@
黑客
complexscriptssize
对外贸易
温差
河口
选件
乔布斯
交由
小孩子
移动@@
ICE
个人电脑
三项
国旗
基岩
振荡器
放映
治疗师
磷酸盐
科学院
前轴
发电量
右上角
SEQ
包装箱
起床
越多
京东
lbs
华为
哭泣
本品
条带
火警
醋酸
八月
投资收益
自然界
角钢
ys@@
且@@
添
眼神
砂轮
逃跑
回波
质性
转接
面值
首页
站场
²
换成
橄榄@@
湘@@
膝@@
雷电
Mem@@
org@@
publisher
前线
控制板
高清
她@@
录取
稻
综合症
隐含
领导@@
质子
通风口
NULL
上演
下水道
庞@@
时区
清晨
温升
热稳定性
疏水
X2
doc@@
壮观
诡@@
中间轴
仑
保卫
架子
桨
淤泥
礼仪
耦
长长的
整整
服务公司
COOEC
sh
.com@@
Read@@
时装
栽
结构件
腿部
透明@@
顶面
List
商业化
發@@
舞会
Hot@@
x2122
坏死
控制箱
深入@@
稿@@
背心
黄酮
AH@@
不肯
哲学家
科威特
陌生
Network
iss@@
ket@@
棒球
电源开关
苔@@
青岛市
Rem@@
六十
成矿
弗兰克
承租方
遗迹
141
噪声@@
密集型
恐怖@@
申请单
社会科学
幅@@
涵义
落下
全省
好看
沙子
股东权益
调查报告
临界@@
回事
VPN
主梁
杠
组织者
网状
连结
闻@@
公平@@
尸@@
感应器
第三节
进水口
求得
任务@@
圆柱体
握住
核苷酸
百分@@
Path
value
侧边
当地人
ari@@
cess@@
口号
子网
捧
遗留
阔
高盛
包容
特里
通讯簿
饰板
筹
钣
停下
平方
弟
漫步
连接起来
钓@@
ine@@
印有
子板
软盘
三星
交所
使用量
小屋
应计
符合规范
等值
M12
per
义务人
发电@@
复查
OneNote
愉悦
核能
雅典
ict@@
不列颠
摇摆
角度看
路线图
轴颈
通风@@
BL@@
公会
分立
整体@@
标志性
精通
化工@@
在意
暂时性
第一种
中空
单井
发证
惜
最先
檐
人应
毕业@@
MP3
iPod
收发
渴
身体@@
巷道
心室
挠度
第十一条
责任感
摊
生态学
箔
钒
夹杂
拧松
线图
耗时
佛罗里达
冰淇淋
紧接
大火
尤
赶到
制動@@
质量检验
98@@
关键性
双眼
inter@@
根本@@
碑
草药
学士
热浸
西北@@
附加费
食堂
Ha@@
Quick@@
加纳
缴费
证券市场
岗@@
悲
档案@@
棵
涉嫌
理智
船级社
上会
严谨
悬浮@@
P3
价格上涨
沙拉
Bra@@
未决
谓
冶炼
满足@@
512
complexscriptsfont
中产阶级
好几个
纱线
解体
建于
手轮
新华社
锦
ove
审计报告
泪
420
体温
吊钩
终极
一点儿
权衡
辽宁省
压盖
棋@@
衰@@
该款
防渗
javascript
全是
公安@@
博士@@
Back@@
x1
大灯
带状
来宾
造就
ations
性行为
.c@@
卜@@
构成犯罪
逛
不成
彻@@
承担@@
根目录
ECS
啉
外形尺寸
摩根
起计
310
42@@
fer@@
品味
奴
封存
油污
竖井
第二十@@
52@@
十八
启
西南部
跌落
鸭@@
行者
降压
Group@@
上锁
停滞
创新能力
绝对@@
谎言
伐
牢牢
蓬
偶像
共产党
医疗机构
奇妙
安妮
砌筑
捕捉到
IDE
翠@@
追逐
0.75
NP
契@@
滑轨
顺畅
ll@@
担保@@
气量
薇
虑
蟹
构型
毛泽东
不远
第七
修理@@
恩斯
贮
一到
冷藏
喷头
Twitter
手提@@
直角
Imp@@
LIN@@
ry@@
车体
LH
txt
一九@@
脂肪@@
被害人
Du@@
和谐社会
强势
总的来说
活泼
倒入
幸
误导
转化成
郊@@
银色
复审
标准偏差
火力
第十二条
闪光灯
ABB
侦查
攀升
蚕@@
质感
持有者
握手
薄片
EP@@
一棵
护板
油画
社会学
考古
FR@@
十五@@
舷
万一
图像@@
收拾
汉堡
玄@@
VER@@
津
NPT
VR
ite@@
大笑
熟练@@
苯基
饰品
E1
ale
大类
辰
鳞@@
One
事件@@
劝@@
标准规定
负责管理
道岔
压路机
名声
所持
隐瞒
齿条
划定
市场竞争
权人
疏松
盟
穿刺
del@@
制动液
后悔
烂@@
通过@@
恭@@
栏目
毫@@
给付
6.2.@@
H2S
损毁
照度
菊@@
超载
HR@@
ODBC
从没
农户
征地
日间
风景@@
事儿
判别
存储容量
自来水
中立
文凭
身处
羽
询@@
马路
plain
中间@@
原装
可谓
安定
巴斯
漫画
cm2
会议@@
女神
婆@@
结核
综合利用
茂
image
会晤
加热炉
启動
FM@@
任务栏
迅@@
邮票
魔鬼
客运@@
神经系统
胜地
路虎
出任
留言
进气口
Default
万物
几百@@
绣
详细描述
预料
erg@@
http
ium
管理费用
约翰@@
证券商
出口商
N2
大事
天后
开标
西北部
0.15
使该
敷
河岸
AP1000
出场
应予以
建设性
梢
检察官
1972
JB
MW@@
exp@@
压机
去过
塔利班
对价
抵触
深海
磺酸
小时数
担
捕鱼
旗帜
酰
骤@@
动用
存储卡
封头
已满
泸@@
秘鲁
蘑菇
吡@@
开源
石油化工
过敏@@
打扮
海地
Can@@
书店
层状
Key@@
出国
分析@@
急需
缺氧
总管
海鲜
篮子
ax@@
悠久
渗透性
锐
吉尔
复议
奈
拓宽
时说
煮@@
皆@@
磁盘@@
祸
进线
下划线
中非
克鲁@@
宋体
报告书
索马里
自动检测
覆盖范围
保暖
工位
忧
硫化@@
rid@@
特殊@@
＿
►
侦@@
奇特
工业区
张紧器
皮层
绝热
鐨
上移
产品线
保留@@
核电
法制
眠@@
第十三条
原产
好评
心电图
敞开
斜面
斯里兰卡
裂解
躯干
公吨
内战
分动箱
多项式
最优化

CG
OM@@
前行
持卡人
整定
水坝
渐进
知名度
轻便
192
SLA
争吵
必然@@
7000
GB50@@
中用
份@@
复数
收发器
献
预置
军用
尼尔
招生
换挡
极小
鍗
7.8
门前
ual@@
ute
司令部
扇@@
桌面上
慷慨
贝克
增长@@
数以@@
翁
雅各
应使
浆液
进食
锯齿
仔@@
流行病学
相变
请求@@
两张
甲乙双方
ial@@
凳
牛仔
韧
充斥
公积
第八
雨刮器
饮酒
丰厚
供暖
发誓
体育场
忌
电解质
百叶窗
行列
注浆
问候
136
CU@@
不需
云母
待定
粘膜
得出结论
绘@@
eta
不着
出门
卡路里
同心
理事
筛查
籽@@
近距离
安德@@
涂上
熔体
该笔
1973
众议院
圆周
地线
绝缘材料
L2
关闭@@
概率@@
電源
驰@@
ref
交织
信徒
技术员
拉紧
柳
购单
饱
从业人员
充实
窑@@
ish@@
亦@@
参展
橱
睡着
全国性
洗衣机
第十四条
超大
过往
锋利
兰德
纵横
no@@
化肥
幢
更佳
洋葱
134
惹@@
海员
见过
送风
FO
复合物
巨人
桩基
款单
油温
离心泵
遗传学
餐具
传染性
协
线管
铃@@
WSDL
cs@@
兴建
太空@@
想象力
星期日
末期
清洁度
ection
主导@@
凭@@
喷射器
梨@@
估
对立
摩擦力
支线
典范
块状
敦
群组
走私
高点
FDA
Hel@@
在职
常见问题
计算机上安装
赞
跃
会用
抽水
桂
电导率
遗传@@
Vo@@
cel
乐于
代理@@
屡@@
巴塞尔
广播@@
旅途
日程表
杀菌
武汉市
ui
先锋
度假村
边界条件
风门
Reg@@
各向异性
哭@@
多地
時@@
重塑
一一
三是
分校
基站
学业
情愿
承接
棕@@
灶
相似性
首饰
髓
Syn@@
ns@@
一整天
核定
铜矿
佛罗里达州
掠
遗忘
land
斜率
正直
宇宙@@
寻
数月
装设
陶
ery@@
储藏
掉落
蹄@@
EU
会以
地球@@
政府@@
流行@@
盟@@
身穿
HSS
ive@@
s.@@
晚饭
计量@@
马铃薯
备份文件
敷@@
浇
重点@@
乙炔
冷却塔
动式
权威@@
格兰@@
内含
友好@@
时序
献给
苑
ual
从小
失衡
定居
承销
玉米@@
一式
划痕
扩增
波士顿
相容性
中标人
中级
耐热
設定
远程桌面
有钱
海边
可溶性
抢救
Ele@@
单机
皱纹
舰队
通用电气
邀
Ex
root
各州
漏水
选择权
道路交通
公关
布满
风险投资
大众@@
浮选
稳定器
负载平衡
IEC@@
分红
国民@@
陶瓷@@
UD@@
其间
级配
反恐
德克萨斯州
陪审团
略有
酿@@
ENTER
lex
ment@@
钛@@
风挡
叙事
无害
莱斯
被捕
mph
北极@@
工商
理想@@
美术@@
信用@@
共存
琥珀色
结构调整
oot
替代品
甘
之久
刊@@
石块
得起
浪涌
相继
管柱
蓉
下半年
人须
内壁
民国
水器
眼里
网络化
赌@@
Tel@@
报关
皮肤@@
管上
0.001
广播公司
邻国
圆柱形
近几年
DEF
如要
碟@@
剪切@@
通风管
战斗@@
报告@@
拉克
梯形
ESD
安徽省
有史以来
手势
照明设备
癫痫
磁带库
TER@@
养成
加装
同胞
秉承
称呼
AV
Console
fe@@
rig@@
排气阀
核酸
绑@@
PCIe
不起作用
土体
高地
偏低
货物运输
面罩
不下
压头
厌@@
完全符合
沉渣
ng
或经
第一年
赛场
酬金
box
中央政府
压板
打交道
拖欠
污物
赠
163
ail
榜样
能效
证券@@
NR@@
Part
ver
基督徒
排泄
系统软件
远方
贪婪
麻醉@@
MCC
双脚
塞子
安徽
old
出版商
天文学家
方便@@
环状
箭@@
ou
必定
薪金
证券化
好运
打桩
舞弊
1974
que
抢劫
填列
机械化
而异
咒@@
形态学
大肠杆菌
锥体
主键
互相@@
半小时
外圈
封信
75@@
图像文件
机器@@
监理人
赶
学说
联营
资金来源
156
揽
市政@@
珍惜
锻
各不相同
环保@@
题材
公司债券
失灵
害虫
机械加工
民营
礼拜
装订
138
Dri
br@@
pe
剔除
解放军
三明治
养分
南极
祸@@
赞助商
邮轮
78@@
佰
叫声
听从
生产厂家
十二月
惟@@
1000@@
发动机舱
姑@@
废液
海岸线
艳
一共
举止
名誉
竟@@
记录表
大写字母
福德
乘法
棘手
美景
之人
光灯
橙@@
415
梵@@
嫁给
用油
航海
动脉@@
专利法
几十@@
承包@@
MF
Status
四次
定位@@
播出
万亿美元
狩猎
税项
1975
VE
德国@@
聚糖
迭@@
PPP
无知
申报表
盘管
Lab@@
夜里
妹
技术改造
疫情
相干
ond
null
宇@@
欢
苛刻
首领
功能表
嫩@@
输出模块
音符
几位
监管局
重整
余量
名片
实用工具
带回
特殊性
SAT
展位
ENT
灰度
ster
纽约州
174
东南@@
多行
晶格
1900
拌合
改写
决不
叹@@
沼泽
目睹
结账
UNC
就业@@
称量
htm
潘
专利申请
卫生部
国际货币基金组织
非常简单
ger
微妙
数据挖掘
时髦
arch@@
com@@
els
中途
回头
场上
谜
light
分手
壳@@
如上所述
巴尔@@
早于
蒙特@@
闷@@
夸张
妄@@
椒
表面积
STD
ht@@
镜片
霸
7.7
au@@
传染
先行
探险
推向
汽車
潜
脉冲@@
队友
颂
Rel@@
方块
比喻
眉
管理信息系统
长途@@
总账
激进
热泵
现货
宽容
封堵
FOR@@
SCC
不饱和
台面
多台
工艺技术
HF
δ
拓@@
测点
夺
爱心
结核病
难忘
上以
水溶性
转而
SOP
WH@@
五大
传播@@
假名
究
从根本上
螺
超出范围
非法@@
Alt
ook
料器
方案设计
渍
ject@@
多种@@
数千@@
腐
主体@@
乃是
卷上
定值
利亚@@
北韩
卷入
富人
腿@@
讲师
清漆
肤色
鏈
增减
断言
欣
该区
OC
亚历山大
挥发
副产品
爵
侵袭
服務
牙科
螺旋桨
一氧化碳
圆筒
布尔@@
高度重视
Gl@@
亲切
挫
时分
福利@@
单点
网络服务
11.2
Cache
RV@@
牧场
获得最佳
身子
高强
′
出入口
琳@@
高浓度
加工厂
始终保持
绿地
飞往
All
妇人
工业园区
偿债
出名
哥伦比亚@@
孢
操作符
服务部
琼@@
第一季度
薯
305
ding
举例来说
前缘
步入
胶合板
访问@@
win@@
伊斯兰教
示意
萨拉
诉讼@@
起源于
问问
CAT@@
SG@@
VI@@
交付给
优先@@
扰乱
抽烟
气垫
176
ina
几家
奔驰
木工
事业单位
剪力
按计划
渝
颁@@
饰件
CCD
ane
★
修道院
总干事
惰
提升机
法国@@
盏
绝缘层
Go@@
化验
小伙子
登记簿
锋@@
绵羊
辨认
分之一
利润分配
平方英寸
采油
销钉
未成年人
赠送
通配符
DOS
了不起
指导书
犹太
自然环境
公证
堰
重症
ri
募@@
大奖
画廊
石油气
确
图解
温度@@
1023
凯特
纵梁
Unicode
纺织@@
闪亮
降临
鸡肉
哈里
培训师
奥斯卡
愤@@
筏
蝶阀
在位
坝址
世界级
淋浴
著作权
黏土
emb@@
商标@@
盗窃
作风
入选
打滑
扶梯
逊@@
鍒
Module
减低
大衣
焊丝
VIP
休眠
毅
＂
掩码
花卉
音调
黛@@
FC@@
今年@@
囊肿
宪报
时起
网卡
Cat@@
DAE
客户@@
回合
国际奥委会
从动
各种类型
宅
指导@@
行中
该表
關闭
her
水压试验
出版@@
晋升
AIX
咪
固体废物
地势
月末
校区
此页
let@@
两块
依法追究
投保人
热器
笔刷
专业技能
净收入
工程进度
搁@@
而生
跑车
配电@@
丝绸之路
婴
林肯
开幕
技术开发
水肿
John@@
ds@@
简报
经验教训
沧@@
递减
限速
够@@
挫折
永
浓郁
英文@@
评选
NASA
True
不妨
中介机构
计划书
选配
判处
年版
清洗器
面孔
字形
宪章
挖方
渲染器
助剂
挡土墙
纸箱
菇
风情
符@@
策略@@
遭@@
137
元器件
双边@@
奶牛
异性
无形
氯化物
耐腐蚀
0.02
Dat@@
只用
合闸
未见
㎡
凸显
奔跑
猛烈
陪伴
应先
旋律
设计院
10.3
CCS
勉强
umb@@
一看
即期
和表
开花
技术指标
栖@@
滑板
贺@@
驾驶@@
MF@@
不通
阁下
分离@@
UTC
中场
动量
在我看来
淋巴结
屏幕显示
Android
两套
单调
温馨
系统集成
锤@@
余下
受到限制
授课
晚些时候
生物质
长石
Discovery
HY@@
取水
每层
蚀刻
路易斯
三元
勘
吊环
引渡
接头处
一瓶
四肢
申请者
等同
育种
交叉点
全民
多媒体@@
病害
76@@
低收入
功能测试
迷宫
悔
残留物
Tri@@
亲戚
出院
宗教@@
帐单
敲击
斯州
试验装置
拉开
柠檬
社会化
管式
菲尔
sel@@
丹尼尔
凉爽
嫌@@
抵扣
拟订
位点
聚类
自旋
垫板
新城
乡镇
办事
基部
备品备件
恶魔
枕头
NetApp
临界值
屁股
浓缩@@
眼部
语言学
多为
孵化
折断
正弦
第十五条
常识
绑架
转向架
ESC
分析模型
小孔
app@@
340
5.9
树种
粉色
Source
到货
欧美
流产
滞留
面貌
CAL
km2
mi@@
其他费用
实施细则
排污@@
援引
管理水平
编排
ret@@
侧壁
循环泵
纬@@
选择开关
非对称
面向对象
馀
1977
一连串
乙基
亏@@
招待
指着
磁化
釉@@
钠@@
CVS
刺绣
匀@@
喜好
百万美元
眠
流动资金
顺着
ASE
Fil@@
FrontPage
反对派
台湾@@
地脚
容错
装机容量
吴
1960
低端
千兆
捕捞
渗入
田间
采取任何
钡
风能
KE@@
my@@
些@@
产业园
哨
滴定
这样一来
MSB@@
TI
锈@@
彩色@@
醋@@
十进制
周围环境
最强
蔡@@
间断
DIS@@
ECT
Text@@
af@@
事故@@
前项
基材
服役
濒@@
试管
ASM
样机
现实意义
蛋白@@
宽敞
怎
主营业务
买到
人有
动摇
就诊
斯塔
温器
质控
钢带
隔离器
摄取
水平@@
装箱
1971
Oper@@
十六
合法@@
尾门
解码器
透析
两面
十六进制
担当
领地
一旁
多态性
沸@@
ux
DFI
培
sub@@
布什总统
年里
洒水
禅@@
间隔时间
刚体
原生
复活
当月
杉@@
示波器
该条
语境
位居
國
科比
致死
不许
保护性
管道工程
防腐剂
交出
动手
复制@@
归因于
立体@@
联轴节
颗粒物
RAC
字符集
IMF
没事
留下来
社区@@
简单@@
下水
乘车
合营企业
节水
UCS
回升
材料@@
蝶@@
jian
从头@@
栗
激起
裕@@
以人为本
助力器
嫌疑人
小狗
并处
性价比
测试报告
烘烤
级联
分期付款
小企业
弟兄
条形图
濒危
硕@@
腹腔镜
若干@@
RSS
met@@
缠
ISA
hlink
中点
名录
接触@@
搁
框图
锆
韧带
ig
即刻
周到
终端用户
聘@@
风道
ire@@
冠心病
利于
飞行@@
黎巴嫩
扑
现阶段
相间
耽@@
坍塌
应用领域
慕@@
防范措施
一律
丙烯
忠诚度
框架结构
网络设备
中转
可折叠
孵@@
召唤
NE
″
创下
午饭
底线
脱开
雷诺
馈电
收购@@
有轨电车
武力
脚趾
隔音
兄
光辉
喷气
宴
普京
ATC
已过期
悬崖
控制站
标尺
箭头键
资料@@
运动型
ody
指示@@
橡胶套
签入
996
大气层
敏感@@
耐力
钩@@
阴离子
充满@@
罪恶
主管人员
岸边
鸟儿
Mod@@
Windows@@
栽@@
负压
Map
医药@@
每张
耀@@
黑龙江省
time
填埋
砂砾
Ass@@
供电系统
手腕
蚁
RCS
体制改革
加油站
单位@@
娇@@
审讯
数次
着力
遮蔽
项链
一般而言
低碳钢
动能
回油
更进一步
追溯到
Store
以求
波音
酸酯
豫@@
供水系统
太过
打扫
有色金属
母乳
车祸
适中
预防犯罪
但应
台式
咖啡因
巴拉克
扳@@
格林@@
球蛋白
保持良好
声响
学术界
撑杆
生长@@
阿森纳
375
iPad
侦听
普遍存在
辩
邮局
匆匆
史蒂夫
服务态度
柴
跌幅
输送到
陈列
宣誓
杜绝
烟道
病症
经合组织
BE
叮@@
多多
托运
新世纪
防空
AWS
异常情况
残渣
漂白
短时
第十六条
红线
资源量
迫切
G2
不全
乳糖
保持稳定
收货人
畏
离去
驻車
喘@@
在此之前
多路
灾难性
达尔
List@@
ta
开票
快点
矿化
肯尼迪
纳粹
TW@@
教皇
矿工
肖
可操作性
维斯
详细情况
课堂教学
Sync
中亚
产品组合
動機
每件
data
pm
℉
吉他
河段
确认书
华盛顿@@
ank@@
atch
link
娜@@
杀人
OE
发泡
容差
隆起
中所列
動力
赚取
再来
油水
Global
厨@@
提供@@
电子邮箱
提款
水手
蚊@@
HPLC
家电
节段
稍稍
虚弱
闭式
ACL
ni@@
勺
外底
新近
有形
肩部
逝
her@@
循环水
晃动
ext
几项
贵金属
td
大都
太好了
料机
纪念@@
结肠
辛苦
近乎
际@@
Mag@@
PET
ens
中西部
坚果
撬
需方
ase@@
uan
借助于
危
控系统
改编
罗马尼亚
支管
特尔
纲领
落入
KN
TA@@
一整套
没想到
电击
竞标
花序
通用汽车
陀螺
外籍
箱梁
PHP
承兑
申
瘫痪
长短
组合式
美女
高架
6.9
交流电源
动物@@
尿道
掌声
肋骨
Connect
凌晨
杀手
OD
character
推广应用
支流
泊@@
瞩目
编辑@@
一切@@
悔@@
每季度
测量仪
216
79@@
Class@@
互
厌倦
厢@@
大雨
舱壁
儿女
振兴
教学方法
日渐
极限值
迁徙
不定期
参赛
好坏
尤指
畅销
触电
鲜艳
断点
星座
规范性
贡献@@
HI
亟@@
例中
坦桑尼亚
岁@@
感性
观察员
捆@@
放开
禽流感
akamai
双语
响起
涂刷
皂
监管部门
经销
营养不良
Lab
凹凸
午夜
轴瓦
面漆
150@@
MTA
Time@@
安全装置
彻底@@
掘@@
调节@@
二月
包中
召
地平线
系统分析
辆车
B16
凌
快要
航路
遥测
釉
ise
λ
刊物
婴幼儿
客服
杆式
狐狸
男式
直通
背包
这样的话
吸水
教科文组织
船东
警官
占空比
浪潮
灼@@
硝酸盐
茫
风电场
T4
十字@@
国际法
大战
巫@@
暖通
种植@@
剧场
十年代
征用
防腐蚀
非标准
Mode
ss
不稳定性
切断阀
卓
机载
牛排
疯@@
重返
鳍
F3
LL
发包方
张开
慢速
暂行@@
氧基
符合国家
拍卖@@
由本
滚翻
联机帮助
葫芦
Delete
聘任
鑫
BF
RV
中均
医疗卫生
参数@@
第十七条
驴
叙@@
税收@@
乙烯基
炸
逐年
龟@@
CAP
卡尔@@
数据通信
源地
那次
ov
博士学位
拐角
测定法
肚@@
凸出
投票@@
支持系统
磁力
鎖
ich@@
本田
袍
警报器
Backup
二个
亚太@@
对称性
栅@@
湿气
物价
草莓
鉴
隔绝
IPT
冷战
旋风
沐浴
Shell
VS
als
四十
张家@@
杆件
破碎机
li
技艺
装配@@
扇区
杏@@
put
ron
剩余@@
长得
高能
BU
冯@@
投机
提高效率
竞技
集聚
config
两者之间
尖叫
入账
地面@@
弹性模量
苍白
14.
NDMP
ish
上皮
二醇
亡@@
残忍
準
生锈
Post@@
列报
男生
色散
link@@
园林@@
塑料袋
舱盖
And@@
Char@@
公共设施
冰岛
恶性肿瘤
笋
证券交易所
129
GHz
UML
稀疏
裹
调和
巡逻
磷脂
递送
Advisor
EX
ery
优惠政策
佐
剃@@
奔腾
爷爷
23.@@
CDMA
ature
一下子
到场
吸收光谱
数十年
AAA
S14
主导地位
增设
罢了
不禁
曰
电视剧
质谱
雷德
Limited
der@@
体质
委内瑞拉
安全设备
Config@@
工业生产
片状
ADS
CDATA
Cu
ary@@
ere
target
密切合作
掌管
摆在
有罪
傻
科室
窦
At@@
QR
保险业
混溶
142
pa
不一
嫁@@
对角线
洗涤器
消声器
电池组
一例
新一轮
穆
窗外
ote@@
优越性
又称
尘土
彩虹
盖住
花瓣
裁员
赶紧
轮式
机壳
电讯
Micro@@
ne
实际@@
掺
注塑
窦@@
蝇
User@@
sq@@
告别
塌@@
拽
认出
介
台北
天气@@
电影院
米勒
ank
截然不同
沪
生日@@
空间站
莎士比亚
重新分配
活性@@
印第安人
厘定
扶
4.2.1
Display
国土
PCS
分会
呃
巡视
行之有效
采样@@
Nort@@
不小
东方@@
各有
培训@@
计量单位
采取有效
领带
多段
溃@@
目标@@
碗@@
第十八条
贰
侧重于
分明
填埋场
学报
Dep@@
Tiptronic
卫星@@
执行者
湿法
爪@@
税后
负值
配色
阴谋
器皿
存有
斩@@
液压@@
男朋友
获批
表达@@
161
制导
文件大小
长沙

大方
接触不良
演唱
瓦尔
系统资源
订单号
au
威尔@@
无穷@@
楔形
殖@@
退税
颜
制造@@
叁
电商
抬高
立方
采取相应
AQ@@
OL@@
充满活力
嫉妒
表现@@
中底
中来
储油
制卡
合力
报收
骨盆
501
ader
个子
反之亦然
棘
电磁场
迫
交换@@
采集器
风范
REF
title
仍会
场内
天主教
甜蜜
甩
NOx
抬
瘤@@
窃
调压
人力资本
潮汐
大功率
我说
最佳@@
反倾销
拉索
灌装
超前
C2@@
专线
高新区
weight
常驻
服务器端
硫化氢
伞@@
海藻
熔断
价格表
原始@@
发型
栈
纸浆
自营
颇@@
2025
橡皮
电液
试块
豪华@@
贫血
硝基
空洞
SFP
所见
晴@@
独
赋
下侧
下端
同级
堆焊
孔板
泳池
的值
Line
SupportAssist
万能
案子
涂布
纲要
重要@@
预扣
DSC
所学
苏珊
长官
Lo@@
一致意见
图谱
年产
沃尔玛
第二十二条
补偿器
人生@@
优缺点
前列
嗡@@
岳@@
推土机
路透
抽查
节假日
魔术
PDM
亨
减振
泼@@
筛分
篡改
赐给
C4
HA@@
折现
煎
祖父
〜
动力系统
第十九条
轨枕
远端
Rev@@
堡@@
物业管理
Ni@@
width
含水层
肋@@
ule
兜@@
小写字母
接枝
方程组
低级
冷凝水
找个
洲@@
阿尔斯通
.xml
System@@
丙
岩溶
弹头
总长
滩@@
篮球@@
鹅
315
付清
价位
传给
房屋@@
油品
确诊
辐@@
吉利
患上
本性
本级

中小
算器
虚线
门徒
青年@@
admin
dia
保湿
保险合同
冷轧
连衣裙
﹚
σ
准入
情节严重
无用
瞬@@
LIN
Stre@@
安市
游艇
磁体
苦难
赐@@
姐
杂草
配重
马德里
950
上校
废墟
拼
无水
消防系统
盲目
鹏
S3
地震@@
提示@@
斐@@
热电
电子邮件发送
转变成
退役
食管
尾矿
枪支
示威
紧器
8.7
NBA
下拉@@
如实
宰@@
怡
12.1
RR
睁@@
责任@@
僧@@
出力
小额
无情
环境署
低价
恕
推荐@@
电磁兼容
400@@
GI
HV
尺@@
武术
点头
生理@@
鍙
可比
不曾
孔口
工具@@
系列@@
绿色@@
153
ha
亚伯拉罕
抗剪
相较
表示@@
中性点
外加剂
拖放
灯丝
尤为重要
应经
现时
篇@@
输送带
这话
ya
出租方
前体
女友
New@@
姜
客户群
软件设计
遍及
The@@
室内@@
体育馆
其内
廓
沃尔沃
焦炭
电离@@
IPv4
可取
怨
拿走
朋@@
歌剧
测温
点上
背上
轮船
143
BCM
告诫
片刻
碳酸
葬礼
转回
4.2.2
DD@@
Type@@
注油
149
ood
ora@@
厨
复杂度
持久性
收听
ano
enc@@
专栏
命题
薪@@
过流
钝化
下巴
举报
人性化
出路
图上
未必
造林
垒
增加@@
未有
解剖学
髓@@
乘用车
报价单
措
翘@@
BT
Buil@@
Pal@@
ProductName
可乐
泪水
空中@@
呈请
天津市
曼哈顿
水务
洛斯
贡@@
选档
CSA
HL
sy@@
冰冻
汇兑
煤粉
登录名
關@@
Builder
商讨
延缓
调谐器
霉菌
EE
GF
Opt@@
敏锐
表头
餐桌
Create
one@@
中端
信号线
克莱
详细分析
83@@
Logic
世博会
二世
壁画
排行榜
朴@@
猎人
过错
卖掉
时域
服务商
标准值
肿胀
超细
RFID
亚当
单次
播放列表
电子束
西屋
诵
传动带
妻@@
燥
造船
172
BU@@
尿液
开枪
志愿
施工期
涵@@
甩@@
高层次
Sport
其余部分
播种
漏气
田野
银行贷款
ore@@
哈希
安全事故
慌@@
行为准则
隐性
off@@
供应@@
小船
棋
深色
职业道德
阵容
优惠@@
光学@@
差压
总资产
惹
用处
产品销售
动器
孢@@
拉斯维加斯
162
Arch@@
一夜
下落
前桥
整体式
最坏
测控
现成
转会
158
妖@@
教学模式
纯净
Class
商品价格
疑虑
老年@@
耐药
丛林
化解
炼油
飙升
乙烷
击穿
审定
星级
林中
调查表
驱动力
休息室
资格证书
赏
Cli@@
一则
历时
大额
寂寞
渔民
InControl
LG
卡拉@@
适应@@
光彩
WP
⇒
代表处
希拉里
进给
中等@@
价值@@
请见
这时候
PER@@
ris
基石
宽阔
运输工具
逃脱
逐步@@
馈@@
一辈子
大块
进取
可收回
引致
肮脏
高技术
WD
Wat@@
Guide
一排
比为
获悉
規@@
My
侯
兰州
出生@@
肉体
肚
防静电
预装
两相
临床@@
基本概念
点处
相遇
sor
下放
信息处理
滥@@
硬质合金
缆绳
蚊子
闭塞
ADC
兰人
Us@@
伤性
多播
本年
电费
畅
相对论
芒
贤
轧辊
图画
影视
未付
生计
西欧
采暖
⑤
原创
吉林省
小册子
法定@@
物质@@
脑部
凝结水
总能
滚柱
计划生育
FI
JavaScript
Standard
ete
九年
嘴巴
壁纸
改用
茫@@
路程
奢侈品
幅值
期货@@
釜
高阶
乐团
伸长率
来访
稳步
绒毛
裂变
轮流
兑@@
兰特
旅行者
旱
曼谷
构筑
析@@
檔案
索具
祖母
Sur@@
cc
nd@@
与会
严格@@
二次@@
地去
推介
赢@@
Port@@
Tool@@
ull
发送@@
失稳
斯克
混合器
调出
共享@@
减慢
强硬
念头
爸@@
生物体
堤@@
Dev@@
MV
以较
真空@@
马拉@@
开放性
素质教育
ly@@
吊耳
尸
工频
手写
147
人际
史上
同盟
最新版
正方形
母语
浴缸
三人
图形卡
式样
慕
非常高兴
准予
外螺纹
威力
寄生
徐
更糟
橙
法国人
脱扣
9.0
Title
半数
大体
楔
回国
微动
掘
秦
车桥
建筑业
打发
Apple
ORT
下垂
住院@@
华人
敢@@
白云@@
露点
发射机
宪@@
特制
9.7
ass
三者
曲折
病理学
皇后
预先@@
MSC@@
同性
小小
手枪
溜
肝炎
豆腐
人机@@
压痕
成正比
甘肃
著称
遂
陆续
雨林
颅
Pi@@
String
奢侈
Ig@@
SAR
三家
另一台
同意书
村子
留学生
Sel@@
卑
周边@@
级数
织带
过境
创新性
开关站
Win32
oper@@
可藉
均匀分布
塑胶
淫@@
温家宝
网络管理员
装箱单
该方
Kn@@
Nike@@
color
下表中
倒闭
共产主义
力图
摄影@@
海港
热值
蒂斯
黄瓜
无穷
梅花
英制
车票
铁芯
关键在于
十九
土著
时数
电邮
说明@@
重音
致敬
战后
数据模型
污染源
生物学家
繁多
辖
钉子
Pop@@
发包
开发新
确定性
74@@
field
五金@@
推送
方在
细长
胜过
舆论
一国
全体会议
基准面
演进
荧光灯
镀铬
2100
dat@@
层间
必要条件
歧@@
毁@@
淫
膏@@
9.6
stat@@
不同之处
半部
卡环
周刊
寺庙
171
GT3
书本
竭@@
隔热板
Auth@@
Boxster
总有
补强
马桶
PU@@
ization
不在乎
共和党人
分子筛
卢森堡
打捆机
携@@
相配
统计@@
E2
贝尔@@
鹰@@
rom
传票
喔
细腻
逐个
实收
磁带机
第二节
营业税
關
Sam@@
XT
大大降低
宏伟
频段
分录
剥落
大陆@@
至此
陈旧
商业秘密
折叠式
每一项
水渠
SCR
离子交换
胚
自带
血红蛋白
雇@@
sa@@
好吃
宴@@
齐平
24.@@
侠
国道
酒店@@
骨质
Info
Messenger
ile
一团
良好@@
303
就象
低密度
绩效考核
试验室
Bur@@
印记
在世界上
少许
展厅
新鲜空气
紧迫
躲避
高层建筑
arg1
俊@@
保护膜
历经
意象
数千
Her@@
三方
注射器
流转
照料
甲酯
白炽灯
路口
发卡
秘
自控
袜子
随时随地
DER
Pack@@
发展观
指导意义
收缩@@
郑州
难得
御@@
感器
职称
3.2.1
UC
原始数据
悬吊
本分
Nam@@
威尼斯
孟加拉
已久
确保安全
需用
驾驶者
水污染
绍@@
罩盖
含油
或组
而出
苯酚
不合
小朋友
手持式
格鲁吉亚
渔船
Color
地下水位
网民
Eng@@
uk@@
傳@@
挂起
腹腔
频带
USD
历史数据
并会
投资方
无与伦比
148
CSV
Mark
own@@
停泊
听证会
头衔
粪
1950
ESP
VP
十字架
本地@@
约瑟夫
路肩
Dra@@
仗
律法
水利@@
软键
运到
公交@@
土方工程
实体@@
成熟度
执法@@
乐曲
保险金
废止
手下
拓
006
370
农业部
海浪
责备
载人
停顿
关门
圆顶
星号
注射@@
液晶@@
牌号
葵
馏@@
182
五分钟
冶@@
多变
测试数据
盟友
青蛙
Form@@
兆瓦
接待@@
橡皮@@
淡化
过氧化物
頭
207
254
365
TD@@
字节数
控告
發生
第二季度
诊治
供应量
喷雾@@
工商行政
现实生活
线粒体
躯体
Stat@@
垮
庙@@
电动车
租户
酬@@
139
Kg
保育
南亚
岭@@
涌入
178
wen
人孔
前一天
大风
膝关节
表上
切尔
开拓@@
电波
陪@@
177
定心
建设@@
蜜
Start@@
妆
寂
殿@@
自在
贵州省
这起
Hand@@
ated
不良影响
健身房
扣件
抗拒
格雷@@
火山@@
Support
人寿保险
仔细检查
喷油
很久
株@@
结冰
飞溅
630
ton@@
ul
模型试验
内控
收紧
ool
吸毒
折合
线宽
饵
ND@@
几秒钟
南路
搬到
焦油
前身
单车
花园里
返回值
Application@@
Jordan
不作
业务范围
口气
客机
总则
第四个
冥想
切开
地幔
答辩
卫队
另一边
吨位
楼面
洗衣@@
疫
盘中
穴@@
革命@@
鹤@@
受阻
声道
打捆
施工@@
条线
汪@@
滴定法
热管
预埋件
之情
仰
关联性
所附
更深
试行
跌倒
音乐家
学徒
ACC
BD
Remote
use@@
不育
加以@@
左键
拉丁文
痉挛
540
eld@@
一分
全美
磨耗
乙酰
固定点
悬
球头
近海
适配
除草剂
ake
事例
南美
贤@@
FIM
摩擦系数
甸
策@@
两座
佰@@
分流器
医务人员
喘
多伦多
摩洛哥
昧
林木
绘图仪
身着
孟买
招商@@
排烟
秃@@
买下
卷材
摇晃
行政长官
装机
避雷器
针刺
不顾
侮辱
勿
各个@@
泊车
狱@@
维奇
过氧化氢
FG
Platform
反驳
基础知识
腐烂
输入输出
馈
H1
总值
研讨
运动学
Acc@@
Gener@@
LU
右岸
皮瓣
盛行
舒适度
VLAN
切割机
压器
可回收
悉@@
Bi@@
孔内
410
LR
Visio
ext@@
归于
窥@@
凤凰
层层
康普
有效途径
项目组
ook@@
内螺纹
厢
处理机
开锁
软硬件
堑
祝愿
筑
脆@@
驱逐
必要措施
油耗
被盗
霉@@
饮食@@
HDPE
产品名称
各处
曝@@
管理条例
缴款
饮水
NF@@
开幕式
滑入
白内障
竭力
长寿
GO
Im@@
ORD
family
国有资产
外观设计
庄园
第二十条
肉眼
雏@@
其上
十八@@
回声
天文
幼虫
底图
测量点
猜想
衔
钞票
小鸟
感到@@
晶状体
波斯@@
耐高温
配线架
do@@
媒@@
持续增长
歇@@
追赶
一九九@@
丧生
左转
监听
與
Query
T3
从文件
低碳
烧烤
趋向
kHz
mm0
左上角
欧洲人
湿式
用房
防撞
韦尔
主席@@
贬@@
mt
学时
循环系统
痴@@
辙
Cisco
web@@
功能强大
反之
极佳
殖民@@
流中
胖@@
乙醚
慧@@
柔
捷克
绅士
衰落
挡住
格雷
知识分子
从主
体育运动
制动@@
喷出
开关电路
手掌
里奥
长途
ational
城墙
增强型
欢呼
此图
语气
通讯录
loy@@
开度
起身
jo@@
sec@@
分批
分选
国家队
第三季度
No@@
塔架
巢@@
槽内
汇聚
流动@@
电抗器
给排水
艰@@
PRO
ga
一性
压载
完后
除锈
风景区
960
Δ
中学生
克劳@@
历史性
吊杆
炼厂
work@@
半自动
哈佛大学
着眼于
禾
送货
6.1.@@
Analysis
VB
忙于
无声
顺利进行
鹤
4.1.1
危险废物
发觉
已向
生产性
DXF
count
冰雪
十二个
寄送
收盘
有利@@
老式
不及@@
分阶段
后座
无辜
砍伐
陡峭
15.
cm3
√
敬畏
讯@@
CK
ess
审判@@
特征值
自重
苯乙烯
解说
量规
长距离
Effects
时装@@
规定值
=@@
Null
功夫
周长
塔尔
带子
拮@@
排风
登记表
磁共振
非正常
丑@@
农民工
境地
建立健全
该死
辛格
采购部
CSS
Storage@@
子目录
水生
四川@@
多方
放宽
流器
纽约时报
Cod@@
Run@@
Service@@
受热
毂
氦
858
侵略
劣势
回落
图形文件
波斯
洗澡
罐车
里克
马萨诸塞州
Fi
Smart@@
体操
小子
拉美
易趣
肇@@
脾
腺癌
起落架
0001
杂项
逐一
FL
Resour@@
中旬
作证
全球@@
基团
缆@@
考试@@
货运@@
kadov
履行职责
损失@@
施肥
秸秆
磅@@
Cam@@
发生冲突
受到@@
安全隐患
指令@@
掩饰
玲
轉
转移@@
works
中心点
半透明
否@@
措辞
資@@
中共
关系@@
形变
电源@@
茄@@
Search
军团
卒
坐落于
相册
诱人
起泡
隔套
IDC
万名
卡罗
最差
蚀性
辩解
Intern@@
兼并
扇形
沉浸
轮机
val@@
与此@@
奸@@
民生
测距
阿联酋
就职
并不需要
庆典
拌和
比照
Library
各项@@
埋设
授权人
责任制
轴封
SIS
伊利诺@@
国务卿
期货交易
脆性
尔多
平直
換
椎间盘
终生
购物@@
迈进
追讨
选拔
PAR
Pan@@
be
with
免提
关爱
区划
带帽
浙@@
简约
递给
劈@@
气井
酰基
业余
安全策略
层序
桔@@
蓬勃发展
SST
店里
异地
推定
推进器
网友
抽吸
水文地质
译本
FB@@
World
单选
墓地
审计员
日立
12.2
第二十一条
金属表面
希伯@@
用水量
甸@@
荐
EGR
SimSun
aa
增资
接线板
斯堡
最短
路透社
Gen@@
傻瓜
口盖
服务项目
殑
浸出
碳酸@@
窝@@
International
list
库区
技术水平
练@@
细粒
说服力
运往
交通管理
代为
啥
填方
棕榈@@
缕
零售业
25.@@
Custom@@
亚洲@@
參@@
巴拉
波束
Courier
ini
低电压
冰冷
延迟时间
敌军
格子
第二十三条
Lotus
ins
哄
延展
托管人
拼命
聚苯乙烯
卡通
已用
抄
艺人
乌干达
偏振
写信
噻@@
絮凝
起动器
集中式
静力
CRF
停靠
小组@@
混杂
肘@@
行李@@
FPGA
侨@@
哈尔滨
显眼
矿体
空氣
进近
羟@@
访问者
保护环境
赶快
SCA
no
三份
动漫
壳聚糖
新人
生理学
NW@@
内嵌
可卡因
护坡
病毒@@
野蛮
7.2.@@
两颗
值班@@
园艺
控制棒
烟尘
325
CON
谱分析
Mill@@
xxx
舵@@
葡萄园
蹦@@
阀盖
阿拉斯加
ji
其时
换料
林斯
熟料
d0e@@
hmk
克里
国情
总重
舟@@
航天@@
首字母
Mart@@
催化@@
口处
市价
彩票
徽章
筒体
纤维化
虹
雪茄
Sec@@
Trac@@
不断扩大
各组
选择对象
一口气
溺@@
特异
编目
誉@@
阅读器
隐形
B3
两国@@
喷发
夸大
排汗
瑞士@@
HU@@
Suite
不以
救护车
莱特
谐
位器
导热
我院
瓦特
移开
高素质
01@@
ints
space
对外开放
成绩@@
摄入量
水产
汇流
特纳
遮阳
重物
拥堵
来往
查验
猎物
营销@@
逾@@
乏味
新闻稿
第一节
:@@
交易类型
平米
这支
钾@@
S8
人以
俄罗斯联邦
星云
消息@@
RTD
亲吻
全息
凭藉
小岛
燕
ATP
cript@@
ific@@
互通
係
出货
南瓜
参与方
双胞胎
往常
怀特
换取
镁合金
UDP
伙计
伺服电机
凑@@
制動器
捆扎
F8
FE@@
上皮细胞
从业
砍
SPE
仔细阅读
太阳系
折射率
球墨铸铁
虐
虚构
决算
州政府
激增
IK@@
Mg@@
偏向
基准点
增强@@
外交政策
欧洲央行
璇
金融体系
AWG
da@@
精度高
颚
棘@@
非营利
ror
外购
节流阀
刃@@
参量
橱柜
浜
盘车
速度@@
IMS
ide@@
plan
卫生保健
私人@@
范式
TRUE
出手
加工过程
姆斯
招商
索尼
Si
berg
商议
火山岩
珀@@
眼下
一个点
丁基
寄给
甘肃省
西路
视听
诈骗
AASHTO
State
壮大
收单
竭
规划设计
饮品
喂食
幼苗
男友
195
ep@@
交易量
陡@@
BK
Leg@@
护理@@
研讯
经济区
芝@@
通则
St
ZK@@
拆开
腰椎
處理
骨干
晋
電机
support@@
展品
日益@@
电子版
As
哈哈
哲@@
喻
好比
拿来
无源
算出
脊椎
该机
远景
遮罩
剪刀
续订
美好@@
葱
組
绵
美国公司
附加@@
附加值
82@@
Software
卡塔尔
土库曼斯坦
樱桃
相加
Works
垂直@@
扬程
挡圈
油层
菜肴
违约责任
铣
Dom@@
Item@@
封盖
測
绣@@
趣味
轴心
VGA
时报
榆@@
牧
直达
傍晚
周岁
多层次
ans@@
床垫
水里
骆驼
Cent@@
PK
一世
书法
干燥机
识别码
唐代
牛米
网上@@
腊@@
较弱
还好
量值
鳄鱼
eB@@
全权
可不是
片式
疲@@
20000
wit@@
在实践中
夏日
新股
本项
瑞克
睾丸
罐头
靠着
Sing@@
企鹅
名牌
小时候
恰恰
戴上
楼上
环比
这为
防锈@@
平均数
枫@@
根系
水汽
CY@@
ose
第一家
脚踝
虫病
被誉为
马拉松
乳腺
另一人
含硫
唯一性
银行卡
亿吨
日趋
耕作
双臂
牡@@
背叛
辱
Secure
克利
教科书
港区
DU@@
EHS
不服
傲
抄送
有色
桥台
源泉
玻璃钢
管沟
红军
羧@@
友善
果树
货船
209
Analyzer
SPA
Shar@@
孝@@
没关系
线或
诉求
余地
察觉
旬
精油
印发
斯塔@@
讲习班
迈出
隐喻
94@@
Systems
停止使用
宗教信仰
巡检
给水管
谋求
这门
金斯
傲慢
和阀
支腿
有所增加
端头
般@@
Bank
eck@@
圆环
经验@@
胶结
全家
分法
梗
班次
美德
航天器
萧@@
规格书
该种
集气站
青春期
顶峰
颠覆
共生
第条
装车
霜@@
参加者
孙子
拥
比例尺
第二款
纪念碑
迪士尼
驳
cre@@
八条
冷冻@@
引人@@
板中
MO
pre@@
不管怎样
客户经理
模样
电阻值
肾上腺
解法
Willi@@
來
国度
安德鲁
彝@@
技术部
排放物
注解
直销
聚酯纤维
脾@@
迈阿密
金融业
驾照
BH
kA
海马
粗略
胎盘
自律
附着力
专家@@
所受
时速
树状
突起
纪录片
阿布@@
GH@@
一对一
弱势
抚养
标识号
淋巴
版次
贵宾
透平
隔离@@
高级别
Corp
xs@@
使者
素养
萤@@
NB
低点
哪些@@
在乎
垂体
航程
藉@@
转轴
这颗
XXXX
三峡@@
公共部门
夕@@
实践证明
密封环
快速访问
胶水
DK@@
uo
压力@@
少数@@
缝线
SSC
叔
收藏@@
放款
气溶胶

DIMM
一般@@
会议纪要
公安
外汇储备
Ni
三峡
土石方
帆布
毯
红十字会
证券法
迦
刷子
压低
弗朗@@
标的物
次日
贯通
身旁
震荡
X4
一回
尚无
情况@@
机械手
脸部
解脱
除本
020
主场
原讼
喉咙
怠
汽水
琐@@
bur@@
实验性
提炼
标準
此地
测试计划
滤液
美元@@
154
GPRS
cn@@
sr@@
冲击波
双线
琪
LLC
小球
干嘛
片区
编码@@
gre@@
下肢
再造
出身
尾管
彩信
用过
趾
高等学校
三个代表
产业结构
等待时间
纸盒
节能@@
上端
中小学
忌@@
酸奶
167
一个多
帖子
樱@@
清晰度
软件系统
长春
go@@
内应
收音
计算机网络
证监会
赤道
锂离子
陨@@
10.0
Table
指挥部
驼@@
user@@
保全
分型
悲哀
最远
梯级
正当@@
透射
通行证
GST
nCloth
崔@@
油气田
爬行
病原体
的事
esp@@
学派
拉登
Mult@@
db
六十@@
官方@@
荒谬
趟
wor@@
初中
寿
惰性
泥石流
酰@@
频率@@
1.3.@@
way
ws@@
四级
摄像
行政处罚
采购商
预热器
啤酒@@
团结@@
实用@@
常务@@
慰
旅行@@
时滞
校对
砾岩
莓
迫切需要
3300
BBC
小计
德勒
晚宴
ILM
ight@@
便携
华氏度
渐近
病菌
行数
铁素体
微博
成岩
胃癌
边界@@
阿里巴巴
上门
单方面
支路
数码@@
约束条件
莱德
获得成功
血性
體
302
Michael
并存
微孔
數@@
留住
皮带@@
舷@@
2200
Help
三十年
仲裁庭
多位
操纵@@
消防安全
石灰岩
秒@@
考生
邓小平
坚
据称
文字@@
浓厚
胎压
蒲@@
输送@@
迹@@
首尔
哨@@
徘徊
批量生产
核磁共振
隔墙
lex@@
平凡
规矩
质量检查
酸化
1969
Size
人民检察院
写明
双腿
应得
烤箱
红酒
Rich@@
tr
好玩
工种
重重
KG
丁二烯
加沙
受害人
府@@
电信号
膜炎
节理
要花
VE@@
ka
丘陵
俊
盖上
评论家
陀
东风
十五日
本市
浸润
色情
Off@@
RAS
应适当
成套设备
离心机
肖像
被判
166
完工后
教员
服务提供者
自然科学
讼费
降水量
DK
之初
利息收入
加劲
Information
古城
如是
常温
技术培训
用心
ading
买受人
依法@@
刨
矿渣
粉末@@
兼具
区块链
托运人
查理
系统安全
资源配置
顶上
止动
碳酸盐
运输系统
na
中山
匆忙
小巧
EIA
人次
内科
冕
垫块
墨西哥@@
按期
暑
看好
跟上
钮
雌激素
Develop@@
合理要求
尼奥
描@@
香草
中英文
法是
白酒
百货@@
瞎@@
GMP
出资额
左岸
散文
每批
深刻@@
辽宁
ste@@
专家系统
出资@@
合理化
孕育
救灾
无尽
油机
洗净
电压表
航站楼
利害关系
走动
超重
主动脉
亚麻
冷器
合剂
无毒
济南
灌注桩
猴@@
镍@@
13.1
ist
下个月
出发点
回归@@
缔结
贴纸
.b@@
7.9
cho@@
funct@@
床单
通性
饶@@
28.@@
公示
生命力
401
height
−
思念
溶于
电流@@
疲惫
美术馆
辨
进军
通风机
麻管局
get
交响@@
制定者
地物
输电线
减速机
歌声
贿
克罗@@
强健
无色
舰船
驱使
SIP
TOP
Wil@@
分局
创新型
基础教育
急速
撒谎
间接@@
ve
弊
汲取
돨
Civil
RGB
克利@@
塘@@
括@@
文件共享
水流量
生物降解
第二年
花旗@@
迷惑
390
MAPI
亮相
危险源
抨击
正试图
热心
冲浪
外科手术
归咎于
不可分割
再保险
合同法
噪@@
岩心
应税
报告期
法老
第一层
视点
IFT
分析家
如因
归入
收养
窖
遥
一致同意
主编
仲@@
十分之一
轰炸
魂@@
力争
原状
嬉@@
慰@@
空调@@
职工@@
锤子
万年
带钢
最高点
老龄化
质素
丙烯酸酯
沦@@
狱
腋@@
逼真
阴极保护
集输
Cle@@
Hy@@
嗒
电势
费力
黑夜
PowerEdge
塌陷
接插件
极力
石料
191
VT
东路
之星
人中
山水
洗手间
路灯
125@@
275
9001
书面@@
国际性
常态
总长度
晶体@@
申购
类型信息
近年
力气
抗氧化剂
撤出
时能
棒材
概念设计
胡萝卜
上述情况
丑
布里
脚部
贝拉
CTRL
光临
抑或
汽油机
粤@@
踏上
颤抖
dc@@
主干
债券市场
撇@@
牢度
绝不会
脂蛋白
Cr
奥迪
履行义务
酸洗
不相@@
估计值
内幕
办人
大堂
洗衣
缓缓
银行存款
高压泵
Next
不均
励
甲基@@
离不开
规限
Wal@@
不容忽视
影院
断裂@@
流逝
蠢@@
财产@@
Core
全天
加倍
外衣
宅@@
消火栓
绿灯
橡木
转交
kn@@
公共关系
历史学家
大气压力
宫颈
徽
整顿
斯科
无故障
缺省值
错位
la
会因
农夫
复制品
.org
Tools
临时性
之心
各异
希腊@@
犯人
过热器
互助
信噪比
历史悠久
圆满@@
墙板
罐体
两件
之物
二氧化硅
函件
差点
心动@@
热解
起因
麦当劳
cent@@
ike
打出
拐
究@@
结节
肃@@
逗留
169
一切都是
伏特
初始值
匹
古迹
律师@@
成功@@
数据格式
点心
碟机
绝缘体
赵
卡因
印花税
含水率
推进剂
管束
金子
ender
交配
凯瑟琳
反击
掀起
缩进
道琼斯
Ins@@
中间体
好人
小数点
开除
斯科@@
熔炼
百分之十
矩@@
連接
高贵
OT@@
伸缩缝
欧文
管理体制
约瑟
纯洁
网络接口
荫
13.2
pol@@
一大堆
妆@@
想念
调试器
鲍勃
290
MBA
PCC
个世纪
低水平
凝聚力
嗜
警示灯
173
AE@@
ct
先进@@
反正
椭@@
一词
凄@@
大为
工作电压
扫描电镜
抛售
独占
航天飞机
跟踪@@
ASS
its
mRNA
内镜
測@@
瓷器
美化
试运
164
html@@
南美洲
庸
当场
放线
记名
驱動@@
鸽子
BB
之余
出现异常
法郎
说谎
一步@@
储蓄@@
卡上
可笑
怨@@
有误
裕
酯@@
Active@@
Ber@@
抗议者
残骸
缝制
Smarts
后裔
娘@@
日程安排
注册处
警察局
铣刀
dev@@
仅能
仇恨
呼吸@@
地盘
沾
萨尔
该市
铭
饱满
内分泌
华州
向着
甲状@@
超导
镇静
仅次于
动向
单证
紧张@@
Batch
ISO9001
水准@@
硅谷
Targ@@
ree
wh@@
地步
小腿
愤
某事
金相
left
写成
处理工艺
战略目标
晚于
模件
环流
選擇
齿轮泵
区位
发烧
怎么回事
河边
珠海
生殖@@
甲酸
电车
立面图
罪名
转動
这才

Vol@@
堆场
宽恕
活检
熔点
相色谱
纬
行政许可
颗粒@@
中段
去年同期
峡
红灯
阴茎
饶
720
EMP
Wi
倒退
唔
失速
并不一定
开槽
形体
暇
深深地
ech
unit
一阵@@
会儿
每根
纳斯
MK@@
重新装配
金融中心
闯@@
骚乱
1967
介导
合物
同上
哥本哈根
国防@@
统计局
73@@
Clear@@
外围设备
构造@@
汉姆
爱上
生长发育
目的@@
钛合金
11.3
动感
塞浦路斯
小写
归功于
看守
落到
卷曲
厕
涡
真空管
资源分配
金银
4.1.2
保有
勤奋
就行了
第九
腻
软组织
七天
保证书
关断
国民党
投降
排在
更多地
秉@@
能以
表现形式
212
吨@@
揭开
梭
牙医
股款
部门经理
高尚
侏罗@@
外资企业
暖和
法人@@
点子
畜
纠缠
16.
太平
报刊
挡泥板
文件柜
殷@@
聚四氟乙烯
英语教学
阻滞
面谈
SERV@@
dw@@
僵@@
入睡
四轮驱动
打下
氧量
液力
社会效益
统计表
颠倒
Fe
SN
总重量
纪念品
铁道
阿曼
鞋底
韧@@
Direct
利息@@
右转
嘎@@
空白@@
西侧
￥
BT@@
INE
从那@@
奥林匹克@@
晃@@
10.4
Mi@@
协商一致
料到
颤动
POS
fontcolour
psig
下料
搭档
水蒸气
股骨
萨尔@@
铜合金
成功率
振捣
火鸡
窄@@
胶体
茜
常开
操作步骤
电力供应
压抑
垦
无障碍
空腔
译员
LL@@
OF@@
交会
投资额
深部
简明
SMB
加满
单人
测线
褶
高雅
NTFS
卤
启亮
哑
椒@@
比亚
纽
防御@@
3.1.1
Ben@@
Det@@
cur@@
廉
毛皮
田地
积雪
算例
芳烃
荷尔蒙
轴套
邪@@
193
GD@@
Virtual
上表
届@@
平铺
正压
px
五次
克拉克
公爵
再生@@
变化率
橇
流利
督@@
脚板
解冻
钮@@
镇痛
2400
双侧
帷幕
水洗
浇铸
清代
砂石
锁住
项中
f1
励@@
是谁
湿性
熄火
钝
align
不开
之家
外伤
外接
意见书
TOPIx
专用章
傳
变化趋势
疾
第二十五条
第二十四条
157
年会
意向书
簇@@
纽带
Page
倚@@
向本
姿@@
虔诚
质询
限量
AK@@
CLR
吸尘器
气候@@
结点
责任心
ITS
PAR@@
Test
不用说
听听
大夫
植入@@
电离
1961
Online
page
产权@@
净水
切成
姓氏
生物量
社交@@
经济体制
脚注
葡聚糖
跳转
道具
345
XY
就读
括
本币
PMC
Report@@
TC@@
二氧化硫
斯科特
署@@
膨@@
谓词
阶段性
鞍座
下半@@
游说
火炉
能级
骑马
倍体
双倍
新药
稳定剂
网络管理
藻类
该段
跨文化
Scale
伊斯
月光
柠檬@@
画出
第一部
罕
86.@@
卡斯
现场@@
过得
Tab
企业法人
生机
出口处
欠款
滨海
物权
风采
LPG
MG
会展
勇士
工程造价
强奸
户外@@
步长
泛滥
盗
相距
砂土
肩上
防卫
卡梅@@
正当理由
苯二@@
葛
青年人
LY@@
三聚氰胺
专长
世代
个人所得税
历来
德国人
晨
水系
烧毁
贴近
驳@@
WPC
八十
划伤
前向
沙龙
第二十六条
誓@@
INT
Ko@@
中国人民@@
体面
信度
拟用
斥@@
时用
爽@@
立足
粒状
冥@@
堪称
模数
社群
费城
走开
鳞
导数
方法论
缩回
致病
邮
饿@@
All@@
cor@@
付诸@@
指在
碳化@@
葱@@
野兽
隔壁
驱动@@
使用方便
层楼
捡拾
提要
Auto
仇
创性
trade
中频
原住民
王室
科医生
腓@@
超限
车外
钻具
非常感谢
下移
九十
人类@@
呼唤
如是说
怜悯
标号
毋@@
端到
筹划
继电保护
贵司
金黄色
Rep@@
亲近
巴格达
扇门
洗涤剂
贩@@
输入@@
铰@@
oid
变流器
洗手
渠@@
自体
CMP
Fly@@
上周五
吞
急诊
无法控制
艰巨
ency
vers@@
传动比
分子结构
商品房
日益增长
理学
翻译成
裝置
褶@@
锥齿轮
IPC
备胎
崎@@
新闻报道
珥
男女@@
脆弱性
银河
BN
Communications
SO2
入职
全开
江西省
007
十几@@
扣缴
督导
窗框
等高线
舱内
轻轨
食谱
黄素
开着
立项
迟于
GCC
专心
住宅@@
怎样才能
母细胞
牵引@@
窜
第六章
肝细胞
讨论会
责任人员
转轮
镶
011
万辆
养生
围巾
忧郁
油口
渐
状物
赢取
不怕
星际
棱
节约@@
零星
188
伸手
切面
布鲁塞尔
所涉
接听
正要
萃
西装
贺
选区
增产
自锁
世俗
惊
想过
摩擦@@
模糊控制
線@@
铁路运输
靴子
公司股票
意大利@@
校园@@
浮子
赌
趁@@
限制器
Lun@@
WH
低功耗
异步电动
消化道
辅料
长于
隶属
215
Setup
ault
spacebefore
共鸣
心肌梗死
承运
概算
病历
谣言
错误报告
Item
port@@
临床表现
各界
周转@@
小数
画像
砞
蚊
蝙蝠
随身携带
凸耳
墨尔本
悉
排除故障
缸@@
高标准
黎明
ura
也门
共轭
十字路口
埋葬
实现目标
歇
沥青路面
目标值
粥样
那家
伤员
迪克
SRS
Stev@@
反射率
吃掉
复选
胶质
Product
ari
加勒比
反面
无偿
車型
锈
nParticle
夹板
捌
..@@
事态
作文
合格证书
同一时间
摘录
桅杆
病灶
离心@@
锁销
211
公共场所
太低
款中
痕量
诈@@
mon@@
州立大学
已故
扼@@
晶片
自治州
表观
配电网
采石场
Port
inf@@
中间件
供应方
减灾
天性
抗力
挂接
教学质量
gro@@
uster
一栋
回弹
师生
车手
习惯于
保持联系
形图
手术@@
液位计
舱室
邮递
酿造
钢质
1700
Product@@
健康@@
受益@@
崖
年龄@@
模具设计
鎖@@
咯@@
悬停
操作方法
A5
EVA
井筒
崇高
已获
排查
牢记
起码
高音
参考点
可可
密切@@
理工大学
百分之
遣
预知
264
Sport@@
x2
个体@@
半角
压气机
干粉
急救@@
明显提高
歌词
租车
第一百
黏膜
Buzzsaw
ance@@
亚特兰大
促进作用
傲@@
宠@@
电枢
白蛋白
绝对值
計
雪佛@@
Act@@
Elect@@
作法
保税
实惠
收割机
楼梯@@
消防泵
电刷
航向
麻痹
Az@@
KM
乘积
军事行动
单面
教学改革
检讨
洼@@
第页
Flex
Gen
Window@@
pi
ye
物流@@
脐@@
违章
附于
Alpha
Ext@@
人体@@
传授
插销
无意识
柠檬酸
视镜
Code
t1
埋藏
寄生虫
录用
诈
达尔文
量身
钨@@
首府
PPE
ata
struct@@
一扇
电炉
粥
促进@@
如果说
心思
整形
看一看
类比
邀请函
Number
最合适
服务设施
朵@@
水化
短片
职守
讯号
学年
平整度
最低点
笛@@
风洞
MIL
PX@@
iD
墨西哥湾
工程机械
水区
肛@@
谨
蹲
小事
布雷
斯图@@
行业协会
防线
养老保险
道教
飞翔
Ang@@
sol@@
以下几点
打死
笼罩
571.@@
K1
NB@@
内皮细胞
加水
厥
台车
接入点
该法
页眉
1949
别忘了
吸附剂
大力发展
大叫
线材
菱形
郎@@
ATS
代表@@
派驻
计算机程序
181
Air@@
NR
交纳
年收入
西雅图
610
剑桥
小路
当有
本段
气隙
租借
钾盐
雪花
奥尔@@
妥当
当今世界
政司
气动@@
砌@@
COD
一百
东欧
传動
压接
普森
着装
静下来
食物@@
¨
有限元法
Hol@@
上场
无视
航天局
ud
交叉@@
发送器
捐
新加坡@@
第四季度
颊
高差
三轴
北美洲
和子
断定
有种
邮报
Lu@@
动人
十一月
拌@@
爸
胶原
血脂
被困
159
La
M5
off
南京@@
期中
机长
浪费时间
较高
长裤
2.2.1
Off
iaf
line@@
两性
停业
兄@@
向往
夹钳
小偷
疤
精湛
紧身
耐久
针织衫
SIM@@
不休
仔细@@
救治
溶解@@
牛津
车里
钯
return
互锁
可信度
基准线
托尼
灾区
相切
象限
震撼
韵@@
丙烯酰胺
伍德
及本
对阵
微微
碳纳米管
Sn@@
form
上车
牌子
赞比亚
1939
SSHE
WR
乳胶
伊朗@@
内力
华北
拉特
消费量
防护用品
26.@@
Event
价目表
加勒比海
卸车
联运
荣誉@@
不至于
引流
新陈代谢
村落
监察@@
展现出
津巴布韦
生存率
2.2.2
fs
start
store
亲人
出新
哈特
差异化
扩
抗辩
数码相机
特工
芙@@
触针
199
减税
大蒜
夺取
小吃
牠
约旦
马达加斯加
ote
tt
姚明
树干
环境监测
疲倦
CICS
riv@@
view
句话
意见@@
我爱你
戶
打捞
重伤
一手
交易员
卫浴
压力机
压强
接触点
精明
车程
软篷
高温@@
440
IAS
rob@@
皇室
离心式
over
儒家
君主
扫描@@
掉期
暑假
杭@@
梓潼
沙丘
经理部
结清
能见度
試
EPA
ification
囚@@
外商
子程序
態
旷@@
求助
电气化
铁塔
之事
做饭
劫
合金@@
抑制@@
枣
森林@@
行为能力
降价
其一
参考价值
国营
小型@@
据悉
注册号
清册
滚珠
糟@@
袭@@
长方形
颇为
事前
嘲@@
情侣
泌@@
Equ@@
其他@@
加气
嘧啶
揽胜
支付@@
签收
说起
199@@
Art@@
CCP
Med@@
幸存
感恩
故乡
暂态
清点
第二十七条
组织学
3.2.2
下个
半轴
基础@@
夹角
网络系统
RR@@
堕落
搭乘
盛大
穗@@
表土
修筑
养殖@@
抒@@
气态
第二层
自私
NIKE
abled
emc@@
玩笑
电话线
自尊
BCV
WIN@@
ates
会场
向东
城市交通
外延
着迷
联合王国
装甲
酸度
阵地
厂址
审计工作
效性
普通人
江南
浮雕
老是
考勤
虚拟目录
转发器
3D
ral
中华人民共和国@@
勃勃
导板
微不足道
石蜡
聚光灯
Autom@@
Filename
NEMA
工发
戏剧性
油路
消耗品
港币
灯座
白垩
铜线
鼎
內@@
名列
女士们
安全帽
已婚
本案
琼
蕊
觉醒
鲸鱼
人民代表大会
可更改
碾@@
送至
APT
一时期
出土
新手
本表
粘结剂
老朋友
Phot@@
世间
乳制品
人大
塞尔维亚
煤炭@@
除霜
1024
SV
ression
冯
币@@
当事方
悲观
来得
流率
焊后
送回
风筝
BE@@
S10
bs
ipp@@
part@@
干燥剂
版权@@
移植@@
置入
脱颖而出
节制
ress
弄清楚
熨@@
英文版
Page@@
上用
保证体系
前盖
加里
古希腊
细胞膜
羡慕
CIFS
中枢
情人节
螺丝@@
普通话
海量
腈
艺术作品
RTU
exe
一角
开户@@
戴着
旺盛
电磁波
8.9
ARM
JMS
Monitor
以东
搭设
新版
有意识
标语
集中化
0.03
Domain
债项
全体@@
安哥拉
无刷
滑稽
缺水
背景@@
转售
较快
量计
项目区
Dig@@
PF@@
之力
快餐
拒绝@@
柱上
民营企业
表面温度
规管
货舱
面条
EEC
再也@@
年龄段
空前
聋
赛道
追随
MMC
Save
体积小
取而代之
接触式
烙@@
骗子
Media@@
会员@@
墩@@
安宁
微风
焊剂
私钥
继而
乙酯
可见光
国立
地用
处处
局部@@
平头
毛衣
纪念日
迎合
各层
实践经验
淤积
电解液
该页
选矿
集线器
顾虑
unt
太少
AEC
Kerberos
SPC
TI@@
中仅
低压配电
测度
自助@@
麻醉药品
兔@@
动产
格拉
溢洪道
能量@@
阿尔及利亚
产妇
喷管
媒体报道
打分
投掷
持平
桥接
革命性
Cap@@
也好
先用
化妆
戈尔
郁
196
储备金
命令提示符
塔楼
契据
才华
控制算法
无锡
硼@@
稀有
量度
所有制
蒸汽@@
读入
右下角
巴比伦
得来
浅层
清洗剂
首脑会议
齿形
Calibri
LOCK
判据
厌
堡垒
帐簿
忍
无线通信
超音速
面向@@
高时
Integ@@
契机
对焊
比利
沸
经营权
能源部
钢厂
Base
为人知
公钥
地球物理
暑@@
油嘴
镇压
Rainfinity
TiO2
bin
tim@@
令人兴奋
偏远
合格率
吞噬
深圳@@
顶住
Serv@@
rator
一滴
公牛
医保
客舱
居住@@
屈服@@
年报
排气口
热工
罗德
角处
CRE@@
Sco@@
sv@@
减至
外长
这间
遍历
Sen@@
偏航
内皮
拱顶
测量范围
都是
186
Show
删除程序
四元
打孔
环境保护@@
记帐
多种多样
德里
扶贫
接替
溪流
而行
表笔
身影
Master
Rot@@
ower
公共利益
后背
时值
194
sour@@
下线
倾斜度
多元@@
放牧
重工
齿轮轴
LV
光荣
国人
太快
就近
蒸馏水
a.@@
丽莎
人格@@
海伦
稀少
第四系
避孕套
侦测
公务
另一家
喷丸
师范大学
数据项
漩涡
百分率
过压
ials
合乎
氩@@
王星
Install@@
不太@@
伪装
增加值
小肠
平息
猿
硅烷
硬顶
透水
隐式
ning
会计报表
外交官
定期@@
熬
7.1.@@
China
GPO
乔治@@
五分之一
医嘱
堵住
应予
政策@@
热闹
纸币
裂谷
93@@
shi
争辩
十四@@
式化
机电设备
疲劳@@
论者
CSP
DOT
SF6
不前
倍增
切入
双工
多德
师傅
干管
漫
荔@@
透支
钢梁
陀@@
五金件
另一半
可口
摔倒
有助
未获
ALL
Desktop
H2O
Over@@
sc
厄
垃圾桶
拥有者
文斯
显微@@
水机
特大
磨床
膛
蔗糖
迷失
吸湿
死后
痘
David
分布图
发行股票
常压
弊端
争执
单行
水厂
洞察力
海关@@
湄公河
致辞
规格@@
颁奖@@
1968
台架
吁请
埋入
性爱
炫耀
破解
粒细胞
缔约
Ti
三菱
应变@@
户口
换言之
时尚@@
有功
没用
甜点
ONE
top
德曼
攸关
环境质量
精神分裂症
背光
香肠
01.@@
AMS
倡@@
尽量避免
海洛因
測试
第二十八条
管中
粗体
酵@@
SEM
主办@@
分配利润
应仅
疑似
菌素
著名@@
观察者
5.1.1
RESS
安东尼
文体
旷野
更多
有益于
清澈
青海
颤@@
AF@@
ULT
俄亥俄州
对非
水冷
CMS
Home
圣灵
家务
搞好
敲打
无人@@
油流
CRR
Ma
Reference
下为
另一名
天花
宁夏
捍卫
文件传输
检察@@
沼气
降噪
1965
刻画
劣化
小行星
热衷于
乍@@
公司员工
宠
巴塞罗那
布莱克
社会福利
调整器
违规行为
11.5
9.8
匡
密封性
少见
异形
比拟
水工
血管@@
词汇表
购物车
.cn
Att@@
SCA@@
主教练
后勤@@
哈尔
放射性物质
显出
聚物
hel@@
idd@@
全名
同步器
密性
密码@@
打開
旅游者
机电@@
生育@@
长袖
零配件
Cro@@
Fire@@
Node
Performance
md
一朵
咯
总署
朝下
系统化
结余
耙
号召
庇护
当该
瘾
羟
较慢
反渗透
商业活动
四方
怀着
摔
教师@@
游戏@@
胡锦涛
试压
进货
DPM
UE
load
人员伤亡
以上学历
侧梁
挑剔
溶胶
脂质
重量轻
Char
土质
屑@@
断開
本协定
现年
直线@@
西班牙@@
达斯
1958
全线
发育@@
描述性
甫
男孩子
绞
药用
诅咒
防护服
首届
驾驶舱
上取
保加利亚
假说
匮乏
营救
资产阶级
View@@
sect@@
一体式
东侧
基准日
夷@@
差异性
得上
最受
水合物
电灯
页面设置
vs
三维@@
买进
人身@@
仪器仪表
插脚
极其重要
紧邻
非常低
魔力
4.3.1
5.2.1
ply
摇滚
电图
硝化
购买方
02.@@
Create@@
Tivoli
先驱
改性@@
栖
泳
流媒体
燃机
造出
顺应
Ak@@
WLAN
休闲@@
原木
揬
次生
Up
ory@@
人用
先进性
原地
喷泉
头来
晶石
汕@@
设计变更
Factory
PSU
date
显示方式
滋润
调查局
14.1
GS@@
TYPE
ha@@
ster@@
储气罐
座圈
弹塑性
晓得
相容
相隔
终端服务器
213
222
Pent@@
rid
上映
大大@@
层中
氢化
即时消息
汇入
稳压
蜗@@
闪耀
0.10
­
一再
滋养
申明
肝硬化
出生日期
匪@@
屏蔽@@
游标
證
铝箔
0.50
X3
info
堰@@
热键
表彰
返修
长约
ada
嫁
放回
明知
转炉
问世
问题解答
520
ECC
乞@@
切削@@
德州
懈@@
欧盟委员会
率领
Spe@@
代谢@@
坡面
棉布
碳化
紧急制动
诲
312
Euro@@
北欧
封建@@
浮力
签定
联通
12.7
460
8482
Gro@@
rix
大会@@
穿梭
继续@@
转过
锑
BOT
Coll@@
加宽
是指
哲学@@
思索
有点像
自由主义
集成式
NetWare
ize
一职
国内@@
應@@
汁@@
焊道
页脚
AX100@@
css
s2
不足之处
之多
全厂
土星
岩石@@
电子显微镜
硬件@@
讲究
下均
中国科学院
千万@@
外科医生
建筑施工
踪@@
领事
颇具
Capt@@
gif
ich
做生意
問題
收录
紧接着
胱@@
读取器
运移
Main
NM@@
NTP
Tom@@
导员
浮式
照着
疚
肺结核
CPP
不吃
地形图
不来
仁慈
审计@@
张拉
繁华
重于
冰块
厚厚的
岩相
工业园
慎@@
教学法
榜@@
虾@@
衬底
OSS
ero
平缓
探险@@
日记帐
每晚
海军@@
烹调
议定
鞋款
BAM
今天下午
圣地亚哥
操作前
环境空气
粉质
HSSE
SSO
ign
临时文件
可否
Tran@@
夥@@
探寻
更为重要
犀@@
理所当然
社保
第二项
试用期
轮罩
GY
ViewCube
ug
下会
不信
收款人
民俗
综合体
NH@@
ala
nam@@
吡啶
岂
建有
拉拔
泻
流水线
耀
蛮
诀
资产负债
BPM
RL
Ul@@
亲和@@
具体内容
分布式@@
大通
巨星
抛出
path
僵局
套头
惊叹
愁@@
提供数据
电话会议
魄
MEP
host
卡罗@@
厘@@
封建
性命
感应@@
民事诉讼
腌@@
萌发
NPS
SPI
jav@@
居所
护目镜
江市
流道
熔岩
筹措
閫
Star
USE@@
ational@@
back@@
下单
二十一
刚果
寿险
屋子里
懒
杏仁
画笔
直射
120@@
ype
一分@@
嚼
敢于
毯子
直肠
细砂
以该
借此
刹车@@
常年
惯性@@
明代
暴力@@
流血
深层次
邓
隶属于
te@@
咔@@
捏@@
晶硅
电器@@
维他命
NV
拼装
水滴
管有
资本金
锁上
Menu
SY
北路
废品
批予
防火@@
非常复杂
.htm
conn@@
一年@@
下压
中值
国标
当心
愧
抽头
擦伤
殖民
缺血性
Tim@@
tran@@
但会
大大减少
布兰@@
往复
缓释
运载@@
酱@@
两分钟
前列腺癌
挠
本赛季
棕榈
民主党人
涌现
课时
隔振
By@@
expndtw
亚热带
基础油
氣囊
评测
高额
ARC
ution
zhi
侦探
先是
如上
征集
智商
水坑
浠
糖浆
脑子
里亚@@
五条
及第
多处
失敗
工党
斧@@
档次
槟@@
素材
英国政府
避免出现
CBM
Identity
仪器设备
日产
架飞机
狀@@
线框
酗酒
13.5
Requ@@
刺激性
手動
罕@@
边缘@@
高龄
PTFE
alt
攀登
球状
类产品
解除合同
黄昏
CCTV
人身安全
籍@@
钢笔
560
地质灾害
奎
展示@@
巫
气液
矽@@
罗斯福
美国市场
设防
lin
ony
二甲@@
停产
居住区
成本法
木星
示威者
财务总监
财政部长
電動
Ga@@
Info@@
Snap@@
专用设备
凶手
慧
角形
620
MSD@@
OpenManage
Sun@@
玩游戏
镇上
SYSTIMAX
Yes
不合@@
事由
因该
墙纸
汉族
焚@@
睫@@
签章
趋
几何@@
底特律
强国
斯卡
缺乏@@
MAX@@
加尔
国际金融公司
捡
管炎
经营性
落叶
螺帽
赌注
跌至
214
Free
堆肥
条形
漠化
照看
语法错误
远光灯
FONT
LSI
Regist@@
换能器
浇水
滑道
漠
神经细胞
蒙特
3.4.@@
押金
民用@@
水密
炭黑
臣@@
阳光@@
集市
静脉@@
颅内
430
专营
出产
实际操作
电子系统
癌细胞
避
零位
IA@@
一站式
包容性
夏令@@
犯罪行为
碳酸盐岩
磨光
轻柔
防控
DVI
中路
侵略@@
反射器
开放系统
弯道
我校
电汇
行政区域
防水层
鸡尾酒
密码保护
新式
日照
脉搏
蕴含
配售
酿酒
雇
高级官员
NF
VII
eck
一束
冷漠
幽灵
服务器时
见于
需求方
5.2.2
LCC
Secur@@
Show@@
read@@
亚伦
修养
努
厌烦
合肥
安全标志
物性
监督员
筒仓
绿洲
船队
690
不介意
压井
发生意外
放油
空地
笼子
耀眼
舒适感
计量泵
fer
下的
些许
光洁度
参考值
插口
测试步骤
灌溉@@
纳斯达克
解聘
车辆段
Edge
NM
V3
因果关系
大程度
悖@@
扎实
接收@@
机率
纸盘
防震
242
«
三重
写字楼
需要@@
II@@
中速
中长期
二氧化@@
亦须
付款人
区政府
多相
怪异
掠@@
精加工
为限
关键作用
口音
唯有
大中型
屠杀
廷@@
泥浆泵
第二百
住处
守卫
放慢
易用
步枪
温水
管家
财团
这有
基因型
无序
朝上
械
里尔
2O3
Spec@@
光谱仪
克莱斯勒
受精
急于
所定
拉斯@@
汽包
电镜
穆罕默德
罐子
Fir@@
丰富多彩
乘数
应付账款
皮质@@
超强
骄@@
SPEED
地方性
摇摇@@
笨
荒
达州
通讯器
3.1.2
FID
Snap
ga@@
内窥镜
办公桌
取得联系
悲惨
战略规划
普通法
茅
铣削
EI
PERC
border
sys@@
低时
几条
掘进
画作
突尼斯
绊@@
肾病
中枢神经
允@@
克雷@@
卵泡
学界
承建商
更衣室
里奇
5.00
ROI
do
光驱
大大的
戴维斯
正则表达式
秘诀
魏
麦凯恩
Mbps
医务
布拉
总包
根基
漠@@
美国银行
胰腺
高手

TF
传输数据
定位系统
替代@@
熔炉
珊
福州
萝卜
设备@@
分枝
宛@@
慕尼黑
本厂
来时
热备
米歇尔
紧靠
该书
集气
Python
Site
put@@
三十日
专科
光合
原水
喷枪
居住地
性能参数
格栅@@
短期内
不胜@@
产率
保函@@
則
据估计
擅@@
酬
陡
再次出现
吱@@
呼声
咳
巡回@@
湛@@
辱@@
农用
复古
并不知道
惧怕
踏步
踪
過
隔断
Files
ani
四位
孜@@
浸没
腔室
魁@@
ICS
一幕
人称
僻
兴奋剂
本应
览@@
走近
OI
def@@
募
化妆@@
妳
护面
曝气
金星
Eclipse
UltraScale
xml@@
东海
别处
剖
化水
市内
广大@@
第三代
第二代
逸@@
钚
门控
228
Verdana
XPath
公共政策
打着
沉淀池
虚拟现实
非常规
Cmd
General
TCO
佣@@
响声
客体
新高
稽核
课件
足额
gu@@
入场
整型
有点儿
缩水
黯@@
221
BH@@
Light@@
九龙
交通部
产于
名额
喃
工作服
接洽
普遍认为
灰泥
空转
竞争@@
系统结构
联系电话
邑
铺筑
JPEG
干活
百货
细心
综合治理
调试@@
RW
伺服系统
安全感
极为重要
竹子
美国国会
蛾
資訊
邀@@
镜面
Check
Connectrix
To
ams
乾
剪力墙
您好
石家@@
问及
2.4.@@
一队
入位
挺杆
溶剂@@
灰分
谜@@
A0
作响
号楼
备用@@
家畜
小提琴
就餐
差旅费
差速
巴菲特
救护
棱镜
第二步
罢
襟
那场
Coun@@
Dem@@
KO@@
Mil@@
不等式
加密@@
另一只
只得
大都市
小心翼翼
弹道
溶性
脑海
雨量
中铁
但愿
恤金
意想不到
振奋
摇动
明火
甜美
第三十一条
膦
面体
1250
?@@
Alias
try
党的@@
匿
就医
扭力
测试运行
球菌
过滤@@
部长级
镀金
2.1.1
万亿
上位
仇敌
伊斯兰@@
储蓄所
合作项目
帅@@
感恩节
祈求
美洲@@
脊椎动物
起火
配置管理
酸钾
010@@
14.2
ative
作弊
山峰
拉尔
日电
椅@@
欢喜
翻滚
内脏
复杂@@
安德森
德育
游击@@
租船
绰@@
245
Space
一无@@
二甲基
劳工@@
受制于
国土@@
孤儿
点火器
表扬
記錄
高通
Amer@@
偏高
投资性
日落
时而
眼科
肿块
LINK
mess@@
五天
几小时
分度
大地@@
思科
扔@@
目击者
调平
音器
嗅觉
提纯
510
埋深
患病率
拿起
效果@@
板条
西红柿
车用
同种
岔@@
开罗
收纳
棕
此表
每桶
渗水
溯
生活区
痴呆
神庙
纳米@@
装到
龟
Thom@@
iver
丢掉
圣地
大气污染
抽象@@
移入
耐火@@
飘
bps
伊德
县城
显示信息
瞬变
自上而下
营养素
装料
陡坡
顶棚
三国
主办方
储备@@
冲销
埠
大力支持
消息传递
点位
电弧焊
私下
第二十九条
财经
271
CW
NZ@@
乙烯@@
做个
爆裂
能用
领事馆
AND
Model
Phil@@
V5
kVA
他妈的
動車
司令
地理信息系统
录音@@
救生
无功功率
更易
水平线
短短
贸易协定
达到最佳
v2
一匹
事实证明
易用性
检视
消防员
畏惧
知识经济
FAST
XF
塌
很多年
德森
怕@@
某种意义
沉没
测器
浑身
犯下
绿茶
http://www.Microsoft.com/contentredirect.asp
trac@@
中拉出
借入
分管
加号
后桥
总裁兼
探查
新值
破产法
裝
停留时间
发表@@
庞
浮游@@
滚动轴承
第一届
起動
预制@@
高涨
信贷@@
十分钟
同居
性别@@
析出
点云
Andre@@
昏迷
零售@@
顺利完成
LO
前走
影像学
撒哈拉
省市
运输机
251
Pos@@
Scope
引诱
昔
科普
苍蝇
负数
里德
锰@@
1966
Administ@@
MEA
仿真@@
入站
动脉瘤
工匠
恳求
扔掉
抗肿瘤
欲了解
粉体
让方
起义
AX150
BL
WA@@
ere@@
值守
堆内
声速
斑块
方能
皮特
禁区
职人员
钞
鞋跟
03.@@
借给
定金
更名
沉思
涉足
管板
航空运输
198
WebSphere@@
cookie
上任
主人公
乒乓球
商界
心力衰竭
正常人
盘旋
程控
Book
壹
天基
彗星
Adv@@
UNE@@
〇
临到
之差
假冒
净重
在校
城乡@@
我刚
格拉@@
猩猩
硝
让人
饰条
互惠
任何理由
整体性
最新@@
狗狗
编程语言
诚挚
Heal@@
kt@@
mann
免得
咀嚼
开箱
改制
根除
牢固地
相接
联合国教科文组织
解压缩
里昂
333
pp
供需
失眠
新品
毒药
状况良好
髋@@
动火
显性
机顶盒
杏
氧化剂
线下
蜗杆
裁军
说是
谱仪
tern@@
单级
厄瓜多尔
固性
国防部长
巡回
投票表决
拳击
族群
檔
灯罩
窟
GB500@@
一楼
亚特
代表大会
压碎
奴隶@@
始建
安防
宾夕法尼亚州
导电性
斜角
极易
泵房
电传
紧身@@
龙门
Bre@@
Company
中原
凯文
天鹅
指称
淹@@
炉子
稀释剂
若为
使馆
平和
广播电台
步兵
滋味
熏
竖立
行政局
车削
008
Ta@@
erson
urn@@
俄语
光镜
干酪
往前
无处不在
标量
行政处分
誓言
Bluetooth
GU@@
Ⅳ
两处
巨
焰
祭祀
野餐
金正日
QuarkXPress
riter
内所
地道
外语@@
得意
扯@@
挣
淋巴瘤
澳大利亚@@
激动人心
超压
输尿管
全能
分贝
年长
新奇
栩@@
项目编号
Gal@@
IST
QID@@
可口可乐
各式各样
定标
機构
电动工具
盼望
计算机科学
过夜
银河系
鲁棒性
入院
列于
单色
应可
慌
灰浆
生代
第三十条
蜿蜒
袖口
咖啡馆
外周血
弹簧@@
捏
无奈
耐用性
药房
峡@@
送来
领导层
高峰期
17.
1964
Hold@@
Vision
党内
征兆
明信片
浮现
经皮
蜗轮
HZ
pdf
元音
均会
寂静
形夹
技术开发区
斯托
渊源
温哥华
装饰品
IFRS
QM
architecture
ene
京都
卡扣
可得
小费
莲花
转换开关
龙虾
不加
中向
仕
多米@@
小径
数据字
无子
筛网
粗鲁
路径名
BM@@
CRC
SKI
世界贸易组织
两用
内未
剥削
威士忌
开关电源
开工日期
教养
漫反射
省政府
自由化
表示法
Field
ok
上拔
不成@@
之比
井底
另行通知
恼@@
珍珠@@
胆囊
象是
12.3
XL@@
ode
各省
图块
彭
用车
篇章
萍
评估@@
顶篷
Document
lev@@
唤起
女演员
平齐
注塑@@
测出
疗程
etc
主力
双相
售前
管理学
糕
鞋带
.p@@
Control@@
HP@@
SeaRay
la@@
主动@@
劣@@
标杆
标线
激怒
片剂
RI
不久前
好奇心
派出@@
脱脂
集中管理
鸥
Window
不经@@
只见
悲痛
找寻
现实主义
硅橡胶
讲授
贞@@
電池
APC
干爽
必需品
承销商
明尼苏@@
牵引车
321
Object@@
Zh@@
itor
投资决策
服务器上安装
极低
母乳喂养
菩@@
ename
一揽子
唤
市级
覆盖@@
账龄
高价
234
中层
举个
停车位
大家庭
心目
拿破仑
边界层
227
H2@@
ner@@
不容
保密性
偏爱
台式机
在短期内
恐吓
Radi@@
WS@@
ama
og
串口
储物箱
其值
圆柱@@
圣诞老人
应聘者
技术规程
来信
此款
滑动轴承
芳香@@
菲利普
装饰@@
输液
鞍
值应
关注点
灭亡
4500
Render
SPN
bc@@
新密码
波动性
稳压器
见下文
说完
造纸@@
ling
上半
二号
供参考
单元测试
考评
ock
世纪末
井眼
动力装置
弗吉尼亚州
欠缺
电子书
私营企业
管理策略
草场
184
189
mmol
压印
巴尔
拧开
文化产业
生命科学
老实
Nov@@
为人@@
主演
凝析油
分叉
厦@@
变型
对吗
应聘
睡衣
类型@@
蠕@@
讽
诊断@@
页数
高等法院
两步
乔木
以至
脸颊
购入
阻燃剂
鸭子
P4
国务@@
硼酸
私
蠕虫
轴流
邪
饱受
640
Address
刀刃
反应时间
存活率
导引
强烈@@
特斯拉
转播
幕后
徒步
求出
衍
说过
重要环节
参和者
攻击@@
最能
沸点
现出
管理权限
胆碱
重装
Tur@@
base
ius
迟缓
阿波罗
ARD
DAB
dll
业已
传球
公债
凤
多种不同
抓取
碳酸钙
节省@@
赢家
铭记
fo@@
扑灭
水利工程
血统
访者
197
Asp@@
Mont@@
ith@@
两段
制得
弗洛@@
怡@@
清关
胸腔
越好
钢瓶
CCB
Hi@@
Kar@@
OD@@
assword
僵尸
家族@@
手术室
文艺复兴
轻触
镇流器
饰演
ANSYS
乌兹别克斯坦
厉@@
喷油泵
层压
座舱
微波炉
摘
检查程序
浆料
饥@@
cat@@
丑陋
串行@@
出庭
叛乱
工商管理
戒烟
晃
晚间
曞
海军陆战队
糊涂
连贯
闽@@
靡
Tou@@
ark@@
mt@@
佛罗伦萨
全国人民代表大会常务委员会
况@@
期望值
测试用例
煤层气
盗版
票房
稽@@
第二次世界大战
NN
number
典雅
妇女@@
持证
无故
核桃
百分数
联系@@
销售价格
179
CMB
stra@@
年金
戴维
支持@@
梳
液滴
芒@@
视觉效果
颠@@
http://go.microsoft.com/fwlink/?Link@@
zz@@
上升@@
元首
各人
文艺@@
求职者
海事@@
演讲@@
玛利亚
蓄水池
近视
C5
JA@@
Super@@
价格指数
侦听器
保卫@@
冲头
动议
宁市
支持性
水沟
浓密
珍妮
紧贴
软件程序
鸿
Select@@
mbol
冲孔
太阳光
灭失
烘
穆迪
胡椒
荫@@
身份证明
EV
十二条
协同工作
弧度
捞@@
日出
滚珠轴承
燈
网眼
超微结构
阿司匹林
马歇尔
50000
住宅区
时点
民族主义
热镀锌
现金@@
考虑一下
转台
需水量
SYSTEM
作業
小康社会
汛
汽车行业
透视图
闻名@@
食者
Manag@@
fn
our@@
万桶
中西@@
人类学
栖息
油膜
衷@@
选为
Bal@@
Jon@@
Mal@@
一阶
他的
承保人
最低工资
氙@@
狂欢
离体
膨润土
JVM
Ob@@
功能键
嘘
坏事
广泛@@
意外事故
接收者
攀爬
粘连
金属结构
Log
作曲家
利润表
可控@@
客流
捻
高速铁路
EDI
GN@@
Om@@
人手
充分性
搅拌@@
模组
水剂
油料
肥皂@@
芥@@
配筋
酰亚胺
一条@@
实验教学
时延
监造
资历
酸碱
Modbus
fe
不怎么
包络
双赢
坤
夸
弧线
数以千计
比赛@@
版本@@
看做
触动
EPS
Er@@
倒置
同类产品
斤
热插拔
销售部
问到
阵营
领先@@
27.@@
NIST
Program
万人次
缩略@@
罐装
ACK
Message@@
inc@@
低调
体征
原样
有机溶剂
栈@@
正则
每套
聚酰胺
中小@@
同年
孩儿
寺@@
柱状
榨@@
法拉@@
锶
顺序排列
风俗
Tem@@
份数
免费@@
焦距
簧@@
不容@@
冻土
劳伦斯
卡瓦
印第安
新进展
机械式
特人
销售商
30.@@
SSP
Task
北京大学
學@@
巴德
普林@@
水疗
Lifecycle
res
图书@@
复合体
按鈕
无关紧要
极值
橄榄
流派
特拉
砖块
聚合@@
长方体
阜@@
香槟
021
Energy
SELECT
any
体燃料
只为
夹住
屯@@
战时
有机质
看清
金币
鹦鹉
C4@@
多岁
总泵
成本计算
橄榄油
涅
萨科@@
跳水
驾驭
IVE
夺得
林业@@
热情@@
航母
车牌
雪橇
231
变小
婴儿@@
普斯
毁掉
沿途
特曼
Af@@
Ax@@
ITY
便利@@
保温材料
小汽车
性生活
输水
ital
sl@@
剂量@@
小学生
改成
闹钟
雷击
ord
伯爵
僵硬
富于
展览@@
放疗
标准配置
比例@@
瞧@@
贝壳
频域
一如既往
医治
外人
客商
差旅
沉淀物
笔直
缔@@
上诉人
俯瞰
分离出来
多路径
母材
烫@@
谎@@
主宰
以北
内部结构
印度洋
小幅
崩
年轻@@
沫
路况
Stor@@
乡下
凝血
多发性
并非如此
期盼
记录下来
走来
运输车
B4
DHA
不良贷款
外罩
板坯
留置
警卫
谢谢你们
雪地
人道
大力@@
自主@@
饥荒
187
244
YL
bit
害羞
扉
舒缓
藻@@
轰炸机
野心
阿拉伯文
DSA
PSI
mV
亭@@
制取
地里
子类
手提
拣@@
推算
甘油@@
蚕
贪污
除率
sof@@
一趟
奖杯
恶意软件
整修
栽培技术
氮氧化物
蓝天
號
雷曼
高校@@
传输线
前人
回想
威斯康@@
感测
毁损
瓦解
警报@@
502
B2B
出口国
别无@@
卜
回执
巴克
数字电视
点缀
特效
砰
立方@@
衬衣
product
匪
报警信号
文件名称
滔@@
盼
自称
行号
ability
乘务员
交通系统
偷偷
六种
异味
斌
松树
模压
欢迎您
瑞典@@
肢@@
脚踏
触觉
黑名单
Pb
mat@@
py@@
两国关系
大幅度@@
妃
富翁
摇滚@@
热潮
裕度
位列
夹头
感染@@
改革@@
时向
深感
锚索
405
ValidatorAttribute
一季度
基本特征
悄悄
权益法
示范@@
Go
Op@@
Zoom
上半@@
下设
之作
修订@@
圈子
推论
烃类
现实@@
赫尔@@
迈向
除掉
麻疹
GF@@
Gran@@
Microsoft@@
TK
新星
晶闸管
消融
私有化
试制
Catalyst
制作@@
四分之三
心智
风貌
早日
汇丰银行
相通
种族@@
自由贸易
镁@@
韩国@@
ALT
SSH
lx
参会
告诉您
姊妹
提振
求职
生境
石膏板
4.3.2
上扬
新书
核反应堆
热膨胀
高危
660
人要
地坪
干脆
总图
旦@@
时须
萨斯
计算机软件
遗弃
RB
WiFi
业务管理
代表人
侄@@
党委
共产@@
再融资
受约束
微球
成交量
整平
柜内
沸石
突破性
MEL
WC
ino
lis@@
our
发芽
声望
布管
带出
床位
归来
拖鞋
标配
氢氧化@@
漿
甲氧基
INI
Rol@@
个州
未经@@
毛细@@
流阀
碑@@
背离
ind
公共安全
城镇化
形容词
核数师
直管
验资
高空作业
Running
Tor@@
Volume
休息@@
外部环境
宣扬
宫廷
无缝钢管
深入分析
礼拜@@
米饭
补助@@
Ј
其能
出演
岳
批发@@
瘫
第一级
股票价格
能源消耗
自负
酸酐
器上
大气@@
大洋
影视@@
投资信托
电表
第四次
肉瘤
身份@@
1962
VIII
加拿@@
干扰@@
收费@@
最深
深切
游乐
第二届
胰腺炎
裸体
一笑
印刷机
原子能
无污染
看重
一个个
克朗
所罗门
托收
擦洗
透射@@
阳性率
颂@@
oth@@
py
丰满
人机界面
接送
数控机床
梦幻
电杆
病史
缓冲@@
螺旋弹簧
补充协议
防冻@@
Loctite
一无所知
两地
冶
听器
围着
旋转轴
无机@@
躺@@
黑猩猩
Mob@@
SOC
算起
紧凑型
细胞因子
认缴
面团
29.@@
3051
CDP
system
二十四
庄稼
找回
换乘
斗式
林区
类化合物
贩
高跟鞋
Lync
Top@@
头疼
很漂亮
明暗
有幸
电火花
白俄罗斯
贯彻落实
MDS
即会
哼
恶人
撤退
荷兰@@
Hg
一如
万事@@
为首
体细胞
动态变化
弗吉尼亚
木地板
经济运行
胃肠道
这艘
Cu@@
arm@@
乖@@
交互作用
全国人民代表大会
惩
标准差
湖区
电磁干扰
输送泵
迎
15.2
8.1.@@
不景气
伦敦@@
制動盘
树皮
浇灌
第三十二条
E3
PSA
WAN
nb@@
基建
泄压
理会
规划署
HTTPS
体液
救生艇
新品种
水平井
高光
｣
TS@@
yan
因本
密封@@
批准@@
集中精力
cri@@
人工神经网络
国家机关
暮@@
桐@@
泉水
生态旅游
表体
防尘套
附例
425
且经
世贸
举足轻重
余年
初创
变电
团聚
尼古@@
昼夜
株式会社
牟@@
甙
眶
缓蚀剂
获得者
赴@@
阿姆斯特丹
Capital
兵团
千分表
友情
口译
故事@@
服务体系
木箱
消极@@
疑惑
茱@@
车辆@@
Fortran
年度@@
我该
用尽
脉宽调制
色度
闻到
限流
262
TED
单轴
天气预报
居家
引物
往后
极强
榨
武士
相關
置信@@
蒙德
西瓜
ANI
esh
二零零@@
分析员
卫生标准
布莱尔
形环
总统@@
断口
染色@@
火腿
迪斯
RAL
des@@
乌龟
值来
太久
管理处
蔬@@
观测@@
误导性
XYZ
体能
公义
公民@@
怀念
投递
水带
激励机制
火山灰
良心
财力
露面
BY@@
Samp@@
悟@@
情事
氢氧化钠
滑雪@@
给与
药典
蒙特利尔
酒类
REM
侵占
分拣机
副经理
宽大
拿下
施压
至多
银团
马里
SHA
Sl@@
水利水电
熙@@
硬拷贝
第一台
维克
谈及
这天
镶边
PSD
mi
互操作
作出反应
击球
奉行
技术转让
数位
羧酸
Test@@
单晶
对讲机
抉择
披
禁忌
胸前
､
ape
初学者
午
国会议员
庄严
延伸@@
昏暗
术前
肠炎
世贸组织
共创
关系人
分机
堪
存储单元
慈善机构
或多或少
明显降低
Bran@@
EJB
喋@@
寡妇
既能
流浪@@
索要
通航
难于
风压
马来@@
5.1.2
AML
Associ@@
BSM
propert@@
听证
多用户
心房
接合@@
深夜
游玩
王后
细菌@@
規
黑莓
Electrical
ISC
dom@@
制片人
阿拉伯语
冲击力
掩护
爱国@@
盛会
赤
中较
吸管
已达
烟火
结构特征
iao
座谈会
异型
打碎
求值
炖
218
Normal
◎
但须
入门级
新任
每笔
清晰可见
煤机
监视系统
等奖
选举@@
Colum@@
DDE
优质@@
儿科
忧伤
月经
有氧
秆
进修
长线

997
不具
丙基
吟
商量
式起重
敬意
无常
胜者
葬@@
语言包
zip
同仁
壁上
安检
昆士@@
盾构
碴
致力
芬芳
覆盖物
飞到
CMOS
endash
中信
坏消息
实际成本
寸@@
抵押物
村里
油尺
NikeFuel
出风口
嚮
堆积@@
小溪
懒惰
砖墙
黏度
DGN
Indust@@
new@@
因為
图片@@
所在位置
文本编辑
衰变
DTS
LF
OUT
ous
光度计
出站
圆满
场区
开发工具
截图
第一件
精馏
Ger@@
OPC
help
伏安
信息管理系统
垂直面
己烷
应选
拖缆
浊@@
甄@@
维修保养
群众@@
蜂鸣器
详情请
载货
通关
Blo@@
学问
成对
接受方
网眼布
耍
若该
選择
长者
ith
兰花
安全套
覆层
首家
关系式
哲
大型@@
私立
科院
继任者
网络地址
贱
顺从
之举
发式
回馈
字号
帝国主义
是吗
本植物
测序
FBX
Gam@@
ining
shell
会费
小微
时性
每侧
消耗@@
霞@@
Professional
万象
克制
千分@@
售货@@
棘轮
民主共和国
消费税
游戏机
灯塔
米亚
肥沃
许诺
252
乳头
冒犯
发亮
可供使用
温控
澳门特别行政区
火炮
特意
轮班
难受
难者
Compon@@
PHA
主控@@
恨@@
拘役
渴@@
西亚@@
赛跑
顽固
鲍
3.3.1
BOP
Luc@@
icy
一秒
垮@@
干膜
拒绝接受
指导思想
淀@@
龛
一来
人为@@
巴拿马
建国
扮演着
投机@@
渺@@
煅烧
皮鞋
调换
骑兵
#@@
Detail@@
RFP
壁炉
如前所述
服务器之间
母体
沿海地区
浦东
点对点
物项
狐
记忆力
轮齿
轻而易举
违约方
连带责任
音质
13.3
一月份
万达
加之
家兔
抹布
暴跌
浅色
监测仪
高岭@@
一氧化氮
交车
产后
们@@
口腔@@
同轴电缆
大气压
洼
蔚@@
专项@@
例会
光体
协会@@
国产@@
基金@@
平板@@
总人口
422
ken
ock@@
yy@@
代币
崩塌
海豹
火箭@@
精密度
线性化
CJB
Optim@@
phas@@
再次发生
吸血鬼
圣母
填充物
多万
居留
工具集
异构@@
彬@@
斐济
玻璃窗
矿场
粘着
精益
ser@@
两极
交通标志
冲积@@
常设
总结@@
模拟计算
维系
跪
18.
Designer
uter
不断完善
两部
中能
平等@@
得克萨@@
旧式
特征分析
线电压
西方人
基本功能
护者
煤油
票数
首件
TCS
一两个
优劣
几分
南京市
最低水平
电导
稻草
精心设计
诉人
足部
集管
Brow@@
Christ@@
PLS
sw@@
力拓
多用
战线
推崇
检查一下
法制@@
295
nav@@
下摆
不好意思
反射镜
山路
布鲁斯
打个
撰@@
此字段
获得@@
讨论@@
钢架
illa
play
三线
亲身
伤残
光机
入驻
决定权
总价值
投运
肩带
院士
GL@@
Mas@@
发行版
并在
折旧@@
无可
有如
草本
蛛@@
调入
锅炉@@
集合@@
3600
NSR
ORE
净空
市场占有率
得名
意料
报关@@
斯洛伐克
漆膜
追随者
間
ump
不锈钢管
云层
产区
分步
君子
弯曲@@
打赌
收入@@
时需
湖人
第三十三条
脸色
补充@@
超高压
软土
雨天
Local
NFPA
Tag
cept
ities
不难
垃圾箱
蜀@@
被测
贩卖
通畅
防病毒
随著
霍华德
产科
出料
切割@@
周边地区
夫斯基
平均温度
抽汽
昼@@
深信
苯甲酸
一顶
主要@@
佬
内心@@
冷却@@
向性
垫子
应力场
手推车
机头
枣@@
竞价
罗兰
联查
茵
趾@@
Input
ublic
培训中心
宠物@@
巴里
相关系数
福克斯
符号@@
羁留
Transp@@
s1
传闻
呋@@
塑料管
接触网
舰艇
表型
采购计划
1945
408
Enginuity
Mor@@
五百
健身@@
印第安@@
厌氧
固井
执行局
远远@@
ETS
Red@@
ato
因果
地理学
子目
极点
经贸@@
荒野
蝶
计划署
高考
C20
K2
Property
主合同
侵权行为
双金属
图形用户界面
埃尔@@
機上
笨拙
花瓶
该次
风吹
cd@@
哈马斯
四舍五入
招投标
氯乙烯
犁
狐@@
硫酸钠
程序开发
闯入
CNC
MU@@
TIF@@
uss@@
催缴
反感
坊@@
垄断@@
展台
技术手段
敌意
稠度
类中
触感
Figure
MSM@@
ices
乏@@
亲眼@@
创业者
发球
四点
外力
寨@@
旋下
昆
白云
砸@@
缉获
载重量
1850
Cookie
MPEG
Mu@@
VIMS
三期
嚣
地砖
德罗
恐
恐怖袭击
挠曲
收受
电动车窗
蔓@@
Doc@@
RD@@
War@@
gong
之夜
二楼
妄
宜人
技工
杰作
用工
砜
篷@@
精确性
终端@@
羊群
570
601
Auth
中继@@
从未@@
会令
发现@@
在线@@
大屠杀
庸@@
最优@@
比分
病性
罗纹
耐药性
血清@@
豚鼠
财政司
转换@@
陕@@
Qual@@
业务员
交通安全
人质
伞齿轮
住址
关键设备
十七
回旋
外星人
房间内
方格
暂存
松软
电晕
腕
荧光@@
通孔
But@@
Id@@
Java@@
ribut@@
倒数
倚
前额
坚持@@
姨@@
家用电器
新月@@
方方面面
组别
苏黎世
車窗
静静地
2050
JIS
传记
大体上
旧版本
桶@@
氯丁橡胶
水闸
电路设计
经济合作@@
花边
248
Smith
ep
kWh
一晚
保质期
理应
直方图
耶稣基督
辞去
NV@@
VEG@@
五角大楼
列名
多巴胺
字段名
层上
异丙@@
弹道导弹
接线@@
有不同
汹@@
甾@@
租客
光器
及时处理
变通
无泄漏
無@@
科学性
簿册
精髓
而应
设計
11.4
PROM
tem@@
专卖店
人脸
发酵@@
杆上
获知
贝克@@
连通性
追寻
阻塞性
万圣节
尊贵
技术咨询
正态分布
繁重
耕种
联名
迷信
Firefox
Tier
套利
女童
巴特
打字
挥舞
槽钢
每家
精良
老太太
脱除
铜管
铺砌
cess
代尔
共建
养育
商号
射孔
族人
海洋生物
立法局
输血
遗
CIM
DDoS
Ka@@
Report
Ultra@@
保守党
信托公司
巨噬细胞
店主
提早
毁灭性
洗车
满负荷
虱
譬如
领用
Mechanical
ehicle
mar@@
全会
史诗
圈闭
蜀
西岸
这所
进路
门板
PATH
佼@@
橡树
舒
钙化
288
Tab@@
Technologies
二手
区系
南侧
名稱
图斯
复杂程度
大连@@
氯化钠
类药物
铁丝
骚
G20
rc
专业性
公共事业
刮板
厖
思想家
所起
栏位
纽扣
襟@@
适宜性
选育
鎵
OV@@
ons
一串
凝剂
哺@@
大专
模塑
每平方米
红素
诺言
開始
门将
CPI
Hyper
iew
例证
保险业务
变大
堆垛
定于
截面图
投向
新风
旋流
科夫
经久@@
药店
躯
0.35
GPU
Mark@@
point
主开关
创新@@
十条
品目
很久以前
惯
潜意识
焊料
电子元件
1.2.@@
之列
体重@@
商船
润湿
激进@@
炮弹
瑞斯
逆变
遇难
鸽
TMR
ility
ronic
不同寻常
加热@@
帐款
收敛性
氏菌
葡萄球菌
计划外
购买@@
C3@@
SP1
VH@@
先天
先端
兼任
凶
城镇@@
接地装置
收件
樟@@
球赛
甘蔗
默默@@
MAN
Maker
凹痕
征询
憩
有偿
氧化锌
泵体
浆果
灶@@
磨煤机
经办
自闭症
节省时间
谚语
通风孔
锁片
Cy@@
Da@@
产品目录
单边
学习型
排水管道
毛坯
水份
盲人
训练有素
质量部
非常容易
DATA
MID
Ol@@
Rad@@
util
抓斗
暗淡
森林公园
第一行
里根
预备役
ract@@
中年
咕@@
学龄@@
常闭
惧
污渍
法兰克福
管口
逛@@
逝世
1963
572
ECO
一家人
新疆@@
这首
FQDN
LCO
½
不善
从源
实用价值
意在
所行
片断
罗伯@@
计息
转速表
Integration
Xtender
传真@@
响应@@
小块
弥漫
挂号
接管人
摩托罗拉
查出
表示感谢
轮胎@@
ema
哌@@
版本控制
相互影响
自用
PPA
Soft@@
公司总部
创建者
自家
马氏体
217
DIN@@
供其
冷态
有效@@
毫安
溶解度
第三十四条
Run
不快
产品价格
保管人
参观者
发声
售票@@
尼罗河
拉丁
梗塞
熬@@
msnap
中东地区
发改委
坐标轴
平底
护圈
脚踏@@
达到@@
连接性
air
交通管制
手感
新生代
毫无意义
病学
矿层
脚跟
苦恼
连任
酿
银监会
鲨
中国工商银行
借着
千伏
屠宰
戳@@
换气
耗散
葡萄牙@@
装药
丙烯腈
严酷
二酸
依存
冗长
印制@@
喜马拉@@
幻觉
摸索
料场
果断
滚柱轴承
滤池
职场
茸
西安市
高容量
NL
主动式
充電
内层
天桥
得当
悄@@
文艺
新南@@
毙
硕
紧跟
罗盘
装饰性
避险
Lay@@
厚重
天文台
宽广
微细
支点
杀伤
治疗@@
角落里
软体
采光
驻地
体式
协力
合作者
多份
大意
胶原蛋白
逝@@
配体
针灸
随之而来
OF
几内亚
力场
压裂液
团伙
德里@@
秀丽
系统文件
絮凝剂
羔@@
羞愧
衣柜
袖子
镇定
付钱
口罩
电影节
著作@@
铸钢
KA
RCP
She@@
写到
塞尔@@
时变
相爱
腰围
驴@@
2022
Wiz@@
lo
作业区
储物@@
大麦
女装
展馆
岩屑
巴西@@
毛里@@
焙烧
爵@@
百合
皮毛
腊
袁@@
贴身
转化率
BA@@
active
┈
东道国
全权负责
各个领域
各种因素
吸收塔
奏效
女郎
客气
施加压力
直属
第一名
聪明@@
ck
lie
会计核算
全屏
变态
宪
海区
液压阀
粉状
终端设备
该名
运行机制
量子@@
CDN
创纪录
喘振
室内设计
平顺
词组
那人
金砖
0745@@
Document@@
TECH
ram
书目
地质学
大有
待命
拟备
掏@@
短波
章中
罐中
蛙
试品
迭
三日
中学@@
加息
匠心
太棒了
悠
慈善@@
手部
流体力学
点时
片麻岩
装配图
谈起
BitLocker
wt
一幢
一时间
不限
之王
之行
天文学
完好无损
小型企业
油气藏
华尔街日报
居于
底端
手电筒
炉渣
相互之间
织机
问答
15.1
Advanced
cli@@
ures
不尽
了吧
信贷业务
化为
嚷
怠@@
无罪
漂流
电力线
盟国
篇小说
色差
WAP
些年来
利多卡因
孩童
射门
形式@@
得主
服务器进行
突出@@
第一代
财政政策
通用性
那一刻
黏
265
MX
印度人
坝体
槽口
班子
神情
耗能
联剂
蒙受
过快
Lif@@
TX
中医药
主题公园
分值
回车
手头
批核
方对
查核
涉外
润滑@@
约合
美联社
自燃
连锁店
SCO
一株
山姆
描绘@@
敌对
Database
之手
刻意
励磁机
惯@@
想一想
挽@@
摩天@@
无级
汽化
瀹
繁琐
过敏性
锂电池
DPF
Ethernet
⑥
一段@@
一辆车
华南
师范@@
弄清
情绪@@
数据线
第七十@@
贵重
键槽
高高的
升华
受访
思潮
湿热
研制@@
4.2.3
6.2.1
Current@@
兜
北侧
安裝@@
徽@@
用纸
网络资源
羽毛@@
镖
Sphere
VBA
pos@@
制造者
北面
名下
截取
止血
老百姓
赞誉
铀@@
ACT
C#
David@@
FluidFS
QoS
上台
刑事诉讼
鄙
充电@@
共同点
发展局
打动
投入@@
文化交流
新旧
明显改善
服药
绕线
规模@@
说实话
近似值
陶器
Priv@@
mode
交互@@
傅里叶
光学系统
冠军@@
子网掩码
弘扬
房租
敬请
檢@@
气密性
烈度
花岗@@
锤击
Funct@@
Gbps
rem@@
不向
九十年代
佛山市
劫持
应急照明
所在@@
正弦波
脑子里
营养成分
见识
Collector
JS@@
人气
伴奏
具体实施
净现金
員
开证
拉长
格线
桥涵
浅议
积压
老公
隔器
TAB@@
vCenter
不朽
买卖双方
以本
假若
内联
动物模型
单片
妓女
威尔逊
宏大
心想
文明@@
爱沙尼亚
飞速发展
馅饼
DWFx
FCC
hr@@
vii
人居
剥
想出
扁钢
颠簸
WOR@@
hom@@
亚吉
加料
双人
基本法
弗里
抽样@@
断力
昔日
这人
阴暗
14.3
一封信
两個
内毒素
商用车
奠@@
安心
心爱
成就@@
明珠
烘箱
畜牧业
美容@@
萌@@
零序
625
Aut@@
交代
人寿
介意
十字头
协调一致
各家
固有频率
外贸@@
店员
模拟信号
清爽
盾@@
芙
资源库
顾问公司
3.3.2
Admin
BG
TFT
XML@@
关卡
卤素
地标
完整@@
年增长率
忍不住
支派
诞
HSBC
ICA@@
UG
pc@@
俄勒@@
出入境
取胜
新泽西州
测功@@
海床
灌区
病毒感染
纸巾
行动@@
负相关
跤
述明
划拨
庇@@
开火
成文法
电缆沟
等距
被忽视
钓
中控@@
传质
俯仰
全球定位系统
共性
平滑肌
广度
效应器
本所
浊度
申办
转折点
首发
580
Lang@@
Mo
Que@@
大树
昨@@
狮@@
西伯利亚
二十五
仍要
吊起
按着
核糖@@
谊@@
陵墓
隙@@
BAS@@
仇@@
刹
垛
子项目
宝座
箱中
RMAN
config@@
印刷品
厅@@
干涉@@
总体设计
我省
纺纱
经典@@
象牙
下坡
亚地区
仍能
广播电视
话筒
该校
铝板
預@@
DOM
价格调整
充足率
吵
四倍
店面
建工程
搓
最低标准
有效载荷
滋生
观者
迟延
酮@@
黑板
1930
七日
受限于
咖@@
数周
每個
派发
混合气
精巧
GET
PMI
一大批
人员培训
休斯顿
应用服务器
潜水员
观光@@
计算机技术
飞跃
Hu@@
TeamName
x0
加法
参赛者
启闭机
嘶@@
安全员
常务委员会
普遍性
民用航空
稀土@@
芯线
讯问
食欲
MID@@
read
一站
分块
单侧
宣读
旅游局
爱国
结为
起居室
起重@@
迂@@
開路
app
ko
三分
品格
坦白
实实在在
年满
治国
消散
看护
股份制
鍚
DiskXtender
保鲜
单品
厂用
同源
所获
流通@@
石英@@
称职
端口@@
缀
罹患
荒凉
阱
OA
Sched@@
ico
做点
官僚
定单
旋塞
旋转@@
稻田
结成
钢绞线
307
倒下
取回
探索@@
止动@@
正以
波及
看不@@
表面质量
Glob@@
拖累
揉
散落
旋转式
时差
普鲁@@
海拔高度
铌
Action
ora
主泵
奖品
开环
指南针
火柴
精心@@
羊肉
转出
颈椎
公文包
失落
实益
封套
打字机
提货
白金
禅
讨
進@@
频次
Communic@@
五倍
人物@@
好几@@
妥为
射程
或电子邮件
捕食
梦境
装潢
车底
金融公司
226
GOST
NU@@
中所含
反对党
工艺设备
弱势群体
未受
渡过
翠
褐
越是
远东
里程@@
rite
位差
偷窃
摘自
消退
烫伤
爬升
玛丽亚
薄薄的
赢利
009
2.1.2
Connection
停机坪
压铸
契合
开采@@
检修孔
百计
Cur@@
上千
尼加@@
捡@@
畏@@
病假
细胞核
车斗
逃走
Nav@@
Paramet@@
严寒
中的@@
之美
信令
四天
支气@@
最美
污秽
远地区
阿斯@@
下表@@
冠脉
国际公约
建行
扩容
推车
狠狠
砂质
防松
餐饮@@
Summ@@
description
不息
兄弟姐妹
均等
复活节
太平洋@@
工人@@
慈爱
未满
特洛@@
HPC
Na
SU
会计制度
发展潜力
哄@@
常见@@
平行@@
料仓
无铅
时节
清华大学
热应力
班车
该点
0.000
O3
交回
便士
往复式
日圆
超低
门市
防爆@@
AMD
vol@@
优惠券
决不会
商城
挖出
教义
模式@@
犁@@
生产量
缪@@
15000
IRS
STAT@@
偶数
地雷
场址
干法
死因
永生
调制器
.org@@
Bri@@
MIME
Up@@
公开市场
剩@@
或子
易碎
海龟
狭小
生物医学
祭坛
福岛
自该
308
Rub@@
ify
东莞
借记卡
光谱法
免遭
士气
工商行政管理局
巧合
平壤
弹奏
心头
感染性
方位角
检控
油阀
浮标
胡同
认知@@
人权@@
十二五
怯
薄荷
钻井@@
阳县
ITT
Ja@@
产生@@
四项
复合型
掩
烹@@
盈亏
真心
类固醇
维数
网络通信
铭@@
需经
入射
升级@@
堤坝
如意
版式
越发
Poly@@
ield
任何@@
加到
升力
半天
外交部长
投影仪
搬家
苏里@@
调味@@
那份
量具
Don@@
Gold@@
QT
册@@
初级@@
地名
处理单元
存储资源
快门
惊恐
抗冲击
越长
Date
pat@@
保护主义
发表意见
太原
手稿
混蛋
皿
纯正
美利坚合众国
美国陆军
色彩@@
谊
飞过
.gov@@
Univers@@
right
各式
寥@@
探明
旋回
油槽
澄@@
犯错
监管者
相传
磁带驱动器
筷子
规制
酷刑
140@@
Disk@@
保存@@
喝水
图集
该列
FX
Ref@@
两半
亿年
反常
喃@@
四分
按入
模拟输出
犯有
通径
集结
高尔夫球场

para@@
在生活中
场中
宏观调控
待办
德利
日本政府
消防设备
灌木丛
短期@@
纳米材料
联手
蒸汽轮机
遗体
钦@@
Bullet
Q1
ba@@
一百一十
乙酰@@
内为
化酶
圣保罗
培训班
折叠@@
担保物
排球
泡沫塑料
病毒性
範圍
路网
連@@
预测值
CrossFire
Mir@@
ector
leg@@
不感兴趣
举例说明
单模
后冷器
外来@@
库克
忍耐
护盖
港务局
Device
君王
扩张@@
插接
斯蒂芬
连带
钳子
SQLServer
➥
凑
存托
开朗
炬
球轴承
超滤
近几年来
黑龙江
ham
ij@@
x4
二甲苯
反对者
壮丽
我必
推开
竿
等温
调解@@
5.3.1
Full@@
Inv@@
后置
山体
常有
抱负
拦
格森
橄榄球
翩@@
金属丝
21@@
Hum@@
MVA
七十
交通流
保险箱
光导纤维
延性
捷克共和国
早产儿
明朗
标普
滑车
石坝
积极主动
第四节
酒精@@
采煤
面纱
311
404
一代人
乌斯
入射@@
国际商会
斧
间质
＆
TZ@@
sn@@
中外合作
稳定杆
网线
MATLAB
MH@@
s/@@
之选
偿付能力
复印机
手边
楼房
沉头
看书
神父
系统启动
诚意
赠与
迟钝
银子
介素
保温层
允
卡盘
暂估
流线
涝
箱式
超长
辩证@@
防晒
伙@@
屁
巴勒斯坦@@
布拉格
标准溶液
缴交
适应能力
ney
出品
官僚@@
提出异议
江河
431
Pres@@
传言
强盗
旨@@
橡@@
此类推
水基
碳化物
长久以来
首脑
V4
bas@@
抢险
本科生
焰@@
若干个
草皮
针头
A3@@
中日
人参
伤者
体上
光圈
功能块
卵巢@@
天府
对模型
涂膜
焕发
这么@@
铁轨
麻布
2.00
LC@@
具特色
基本一致
宝钢
尼日@@
嵌板
微信
想得到
焦化
班加@@
莎拉
DSL
加利@@
十多年
南北@@
备忘
断裂带
残值
焊点
片中
自动识别
阁楼
须予
ision
metaLUN
人及
刻度盘
台账
告示
基类
巴林
炫@@
珊瑚礁
营收
资产@@
赚@@
EMI
window@@
xm@@
再有
发散
圣诞@@
地热
定做
灰石
米拉
粮农组织
英雄@@
贯入
遇上
避孕@@
Jos@@
RNS
不知不觉
两道
中间人
以向
供应品
保佑
凡有
看管
缴税
西非
透性
CIP
SoS
T6
lot
属实
放坡
电气控制
罪孽
肝素
胶卷
贴片
预告
BAS
D1@@
Ut@@
ault@@
变种
多彩
有机硅
模制
湖水
矛@@
索尔
违法@@
L3
ian@@
ring
uri@@
上床
书院
住房@@
启动@@
室盖
录像机
犹太@@
电气工程
肌腱
药业
诞@@
ayer
保姆
克罗地亚
具体措施
压下
吉米
国库
洗涤液
消解
特此@@
羁@@
胃肠
脱扣器
语用
资信
长效
1.2.1
14.5
Ess@@
ade@@
chSmart
一环
军舰
扩展卡
核心技术
治安@@
粉红
線束
骇@@
农村公路
参保
图形化
抚
电缆线
盛名
真空度
诺贝尔奖
踢球
PDA
之声
亚州
准确率
哥特式
衣着
视距
跳出
電话
Park
ba
一惊
低档
呜@@
回收站
旅游区
普罗@@
暴发
机会@@
段线
测试环境
灭火剂
灵性
纤维板
组上
耐受性
该车
非金融
GSC
JLR
ring@@
不切实际
弟@@
疲力尽
糕@@
肺动脉
视频文件
Lim@@
ung@@
θ
吾
安装文件
巴萨
蜥蜴
超凡
集成商
LI@@
ating
三组
围板
担负
源码
热压
瑕
评委
鼠标@@
2300
Hen@@
Properties
化身
及早
捐献
日常@@
果糖
每块
测量误差
突触
第三者
终审
膀@@
诽谤
门廊
防风
AK
VTS
row
si
严重后果
五名
扫描器
推动力
棱角
水样
油类
海内外
登记证
装甲@@
谢谢您
镀镍
FIN
system@@
光面
分泌物
可读
少年@@
法师
洞察
甚少
管道@@
越南@@
遮住
酐
颈动脉
Cons@@
Initial@@
License
cd
不大可能
不经
内墙
受管
岔
虚伪
起升
逆流
采购@@
馏
olog@@
世界纪录
信奉
另类
可在
师资
急性@@
百分之五
跺
錄
PRE@@
RMB
信中
千元
单台
司长
夯
悬垂
成形术
战机
每行
缎@@
辉石
钢球
1940
403
5.4.@@
HB
位子
备存
尔夫
按此
智库
楼下
檐@@
混纺
磁碟
节律
英超
负重
Intranet
两款
亦不得
发布者
坠毁
对外@@
层叠
成品@@
报警装置
掠夺
枯竭
爆炸物
英勇
货量
辅以
运通
SDS
fontcolor
italic
交易市场
嘈@@
宁波市
微晶
每一件
清洗液
灵顿
疤痕
盎@@
耐腐蚀性
西区
轨道@@
零食
Sant@@
Ur@@
击打
回访
如未
德克萨斯
洗脱
登山
聊天@@
背压
自学
运营@@
Gar@@
pl
关岛
前去
吸纳
如本
有空
水文@@
笨@@
联营企业
远见
防雨
WinRM
主营
异位
挽回
无家可归
窗子
纸面
续约
绽放
羞辱
402
6.2.2
AME
START
table
卫生设施
双色
拖船
梅尔
植物油
每吨
秃
筒式
识别系统
Lan@@
Soc@@
丘脑
借记
喊道
拉夫
放上
样本@@
交收
他州
医护人员
察看
忠告
悬浮液
星体
楔子
油库
淤
760
不致
基督@@
如遇
数学家
无能
明晰
河里
消亡
电源模块
神秘@@
窃取
较低
铝质
Bel@@
ences
一块@@
单件
压计
哈里@@
域网
基础性
如此@@
燃料箱
玛格丽特
这要
颌
骑车
SUV
phone
万分
下台
做梦
共聚
十天
口市
打折
氮化
洽@@
矛
矿物油
砂纸
美感
胫骨
药学
辐
音箱
0.04
Kon@@
flo@@
中外合资
之于
光环
卷收
可维护性
司法部
基本知识
守恒
控制线
暴乱
比亚@@
结婚@@
脑梗死
诉讼法
颖@@
Li
儒
出租@@
叨
唾@@
固然
塑像
字型
安抚
普拉
杭州市
标识@@
维拉
蓄能
钱财
530
Interface
group
iTunes
ude
信息量
借出
全日制
数为
程序运行
空军@@
那座
雹
MySQL
下颌
乳剂
列车运行
国际劳工组织
垒@@
备查
展期
橱窗
测压口
灯笼
特种@@
磁极
脑海中
通车
预张
髋关节
B5
HDD
Out
ena
land@@
单数
危急
受不了
头皮
开曼群岛
弱电
接手
有条@@
本篇
直流电机
铁质
19.
Aj@@
BAR
Mus@@
一票
他家
射手
干燥@@
慎重
抗干扰
插管
浩
球衣
睾@@
第三十五条
结垢
资讯科技
钟表
例行程序
回转窑
波特率
病原@@
科特
紫外光
逐级
高得
0.95
不利@@
乌鸦
叫作
喉管
密切联系
富豪
稠@@
胸围
迅猛
金枪鱼
阴阳
1A
31.@@
PG@@
会展@@
夕
富有@@
左下角
挡块
无不
最高级别
朝阳区
炼钢
瓣膜
矸石
粉砂
自备
重要途径
鲑鱼
可比性
喇叭@@
地主
宋代
并排
很差
投融资
拨付
本子
极端@@
柏拉图
证词
铋
253
Architecture
BM
CEL
POP3
QP
Research
service
一遇
三周
信标
减退
另行规定
实施@@
海市
相伴
若想
cher
出纳
取暖
同义词
妥善处理
本图
竭尽全力
网布
莫桑比克
观赏@@
警务人员
识别@@
276
309
Ker@@
事实@@
卷轴
坳
收尾
泻@@
流感病毒
责任保险
销孔
马其@@
Domino
上路
不懈
后用
开发阶段
猝@@
纳米技术
联营公司
F4
Ref
交易者
公立
分解成
坚守
招牌
搪@@
某处
玛丽@@
盟军
纤维细胞
缎
蕾丝
运行@@
静脉注射
预想
Premi@@
SIL
功能模块
品牌形象
多线程
拱桥
格里
见证人
Request
map
nsr
wa@@
体形
做爱
实习生
热效率
花样
警察@@
拨号@@
极地
消毒剂
螨
论据
道工序
9.9
Dial@@
以致于
对人
左翼
年老
所得额
挪用
攻击性
板条箱
浇口
渊@@
滚轴
花旗
补焊
跨过
锚链
ql@@
不由@@
人行
写着
地铁站
奇数
姑
媲美
左旋
幸福感
我市
新德里
末日
滑落
滴水
第三十六条
腺炎
风雪
cm@@
发炎
同化
嗓@@
奥古@@
核动力
欧洲联盟
该州
资质@@
QQ
丰盛
小城镇
此行
热风
祖父母
萎@@
软件应用
逗@@
1959
Hal@@
MAR@@
WI
csf
光片
呼吸困难
多种形式
架式
福祉
麻木
UA
address
卡滞
回转@@
振动筛
瘟疫
离地
GV@@
YY@@
load@@
代人
发动@@
喷墨
地缘
多肽
息息相关
栗@@
笙
铁路线
ula
一定量
备料
有效期限
枢@@
热流
特殊字符
班机
肥胖@@
进样
铆接
Sym@@
http@@
丁酯
传真号码
危险@@
坚韧
开动
敌方
早点
母版
熙
环氧@@
行销
降档
&amp;@@
43.@@
一班
五岁
利士
哩
新形势下
易懂
服务平台
绞线
翻修
腺瘤
表演@@
顽强
ISI
MODE
ception
ww@@
奖赏
安全部
心律失常
第三十八条
罗杰
腈@@
调查者
赞助@@
辅机
铂金
Activity
Ru@@
XJ
new
保税区
催化裂化
建筑群
接线柱
玫瑰花
相撞
祛@@
科技成果
租契
第一份
联用
蔽@@
露营
预备@@
ubl@@
十二指肠
年人
文化背景
有效成分
法分析
碳罐
空袭
置业
酱油
012
专制
传送@@
劳动法
北海
城县
完井
对吧
总要
拔掉
文具
机组人员
流层
浦东@@
準@@
牛津大学
药效
蒋介石
质粒
避难所
配以
除氧器
OECD
出水口
制程
惑@@
摩根士丹利
检查报告
盘上
相识
着急
胃口
腾讯
附在
ASN
KD
Process@@
master
南通
同情心
央@@
幂
恒温器
挡墙
接上
放过
无礼
阶跃
麦片
于世
以待
利昂
吼
尚有
较长时间
造血
Ent@@
JSP
一等
产业政策
修好
史蒂@@
商谈
我想
投篮
拱形
无限期
有太多
横幅
烟煤
生根
电线@@
疲弱
绪
翻译@@
自大
行使@@
钦
面子
EBS
Id=@@
PDC
平安@@
排放系统
搞定
无味
痊愈
腾出
镀锌@@
陛下
雷特
一击
会计信息
内外部
可再生
如为
美国宇航局
诊疗
发抖
富兰克林
所在区域
汗水
游荡
灌输
火源
生殖器
甲壳@@
萨克
高架@@
Attribut@@
Wo@@
cover
助于
压具
后院
德黑兰
氨纶
碧
设于
izer
pliance
前夕
发展部
唾液
尽可能减少
演唱会
牧草
白菜
缬@@
职权范围
路过
驭
DG
凋@@
咆哮
奇偶校验
层流
截止@@
提高@@
楞@@
气藏
火力发电厂
落在
G3
内审
圆头
塞进
枯
渡轮
温带
溯@@
爱丽丝
金融时报
285
D3
OPGW
Print
ush
上要
交战
氩
消防栓
特色@@
破旧
购房
重大事件
发言者
接驳
早先
普利
混合型
满是
跨距
轩
骚@@
Rail@@
ional
sys
下应
事务部
人去
什叶派
伊尔
做起
共事
城市道路
天鹅@@
教学内容
文集
昏
服务期
木马
模拟量
水路
波特兰
火电厂
Exchange@@
ITE
MTS
美国股市
脑缺血
装回
让你在
124@@
Dec@@
NMO
义务教育
十九世纪
天主
忘掉
时未
爪子
虫子
评税
长老
Cab@@
cstyle
ef@@
关系密切
古董
同步电机
商业区
地价
失明
摇篮
晖
果然
海岛
硬性
粘滞
Flex@@
T5
sa
储水
免征
姬
巡查
弥漫@@
很感兴趣
性交
模范
白痴
组为
蓄意
降低@@
888
mso
不绝
本票
澜
穿行
货柜
迷路
223
306
C7
OBD
Pas@@
dian
三岁
偷走
凭单
卿
可调式
固相
外资银行
拳头
滑動
跋@@
转过身
近光灯
AJ@@
BIM
IQ
凸舌
分动器
制冷机
唉
完结
宫颈@@
指尖
效仿
斯洛@@
朴素
杀人@@
第七章
趁
ping
五星级
图则
多模
已付
弥散
有别于
沉着
泥质
盯@@
网络共享
健壮
光碟
市场推广
急切
挨
斜度
科学依据
粗暴
西海岸
较佳
2.3.1
Ag
B2@@
DAS
二十八
亮丽
原料药
发怒
增效
大众化
帝王
帮助文件
应尽
新闻媒体
无毛
第三种
複
铰
防务
680
B6
FRP
iy@@
pg
包层
特利
维吾尔@@
钢琴@@
预测性
MIN@@
SMP
Sav@@
ink
一元
储藏室
列车@@
吉尔吉斯@@
孤单
完全一致
层压板
恭喜
替代性
熔合
瑞德
腑
芯片组
苯丙胺
阻隔
页的

.config
1.10
3.2.3
Message
PDK
SCS
为生
地基@@
多年生
工学
打球
报税
摩托
检出@@
防尘@@
马州
1.50
Event@@
Init@@
Micro
NH
Smart
ison
代收
分节
啮@@
坚定不移
嫌
永续
瞥
试验区
Fram@@
HK
一式两份
事是
修身
口碑
屯
拦污栅
校董
裂开
跻@@
远程教育
1948
CIF
FH@@
Spec
star
一千
以西
几张
大王
总而言之
机械系统
欢迎@@
正数
民法
气机
管汇
补水
路缘
钩子
阀室
集装箱@@
骸
Conver@@
ik
len
ridge
如其
朗读
氧化酶
热液
环绕@@
田纳@@
红花
解决@@
趴@@
阿尔卑@@
零售价
青霉素
风冷
AES
冷淡
取证
合理安排
呼气
土器
工伤
执着
正确处理
沉箱
油酸
测深
缁
衷心
讳
调到
雄心勃勃
零售店
Ind@@
Video
aS
功能障碍
北区
归零
房东
断线
果子
毛利
省长
茬
蕴
龈
Diag@@
cu@@
可予
咸
圣人
沿用
確@@
英美
茅斯
萘
酪
BW
SourceOne
WPS
产卵
佛山
刍@@
到访
杞
滚动条
澡
玛瑙
这周
铺面
难免
黄铁矿
4.10
GmbH
十日
可执行@@
告终
奥利
旨
时不时
火烧
火药
电池板
经过培训
至该
莉亚
蘸
铣床
颖
Collect@@
Deb@@
中式
员工@@
威廉姆斯
弃置
激波
皇冠
维基
青光眼
Tre@@
卢旺达
卦
大笔
打击@@
振器
条件@@
水罐
独裁者
船闸
鼓风
C30
HIK@@
健康检查
加药
劳力
发展史
好些
拉到
换上
日为
机车车辆
欧亚
短距离
突击
镰@@
雅加达
572.@@
主动性
供水管
因由
塔里@@
抖@@
新世界
洛夫
瞍
等国
蒋@@
里尼
附着@@
FILE@@
OLAP
PSC
SMC
YouTube
cl
ze
不负责任
丹尼
五日
变焦
外债
慢性病
收起
机械故障
氯离子
水银
淀
缝纫
肾功能
调度员
进行谈判
AST
xxxx
亚型
取土
基尔
复仇
时时
玻利维亚
瞄@@
继承@@
耳环
该图
越小
这能
远光
错觉
224
HomeBase
dit
max@@
差价
弱化
淤@@
药剂@@
802.11
CSR
丸@@
低声
公私
危害性
块体
实践@@
感觉@@
所长
承受能力
稠
继续下去
Monaco
aya
msg@@
丁烷
利润@@
厚板
基本相同
引信
待售
成本核算
汶@@
流泪
纯棉
铸币
颌骨
Fed@@
Jet
二线
人头
加尔@@
木料
浅水
淋
瞳
粟
374
Version
主题@@
信号源
北非
嘟@@
家庭作业
小贩
成败
排水口
新英格兰
模型@@
积分@@
资料库
鞋垫
12.4
CRT
ti
上下游
伸缩性
发起@@
合理@@
姚@@
布伦@@
平均气温
摄
数据库系统
模式识别
炽@@
物理性能
环境卫生
硝酸@@
科斯
聚碳酸酯
配管
驶入
810
C6
End@@
University
ical@@
ins@@
mer
交易成本
估价@@
半夜
應
文物保护
生产日期
致癌@@
航迹
Config
三台
书面报告
复验
封电子邮件
岩芯
市委
截面积
扒
挫败
旋翼
确有
胱氨酸
自动测试
郑
里士@@
219
3200
Extens@@
Total
不在此限
东区
之子
八十年代
初稿
叶绿素
吼@@
年产量
扬尘
批评家
斯德哥尔摩
泛型
煽动
爱护
疯子
白银
膨胀阀
花儿
议事规则
铁合金
飞越
BusinessObjects
书架
停车@@
僧
决不能
抑
拜托
提速
旗舰
病原
范本
费尔@@
路易斯安@@
霍乱
SDM
一粒
伯明翰
全部内容
公升
坦诚
失败@@
存器
德里克
成群
本页
桂林
装式
轻巧
轻薄
过账
远程管理
陋
0.005
6.1.1
CNN
FALSE
KY@@
出借
双绞线
密切关系
晴
牢靠
猕@@
电话机
界别
疆@@
硬盘@@
該
赔付
较量
那件
铭文
000000
Engine
Lev@@
M4
Recover@@
不解
业余@@
主旨
制冷系统
嘎
年终
扎克
无助
日到
点到
睹
行政区
调整@@
＃
Are@@
CDR
init@@
yst@@
函数调用
帐户名
开到
极有
水杨@@
洗礼
焊件
设备设计
贴花
邸
顺差
HE
IMO
ush@@
⑴
初始状态
处处长
快速@@
慎
打工
掏出
散发出
整条
水轮
浣
禁止@@
融为一体
过山车
追回
Activ@@
EF
EmailXtender
IPS
一瞬间
丁烯
付款条件
以利
公职
冰山
劝说
匡@@
向来
怎@@
换油
海外@@
珠宝@@
看望
种质
边线
酚醛树脂
飞快
鸦片
Get
ICT
SEL@@
UID
低合金钢
合同期
吟@@
层析
工夫
数据备份
星巴克
有多@@
瞭@@
超负荷
过户
近光
龙门@@
VIE@@
内时
刮刀
发泄
战区
消逝
空虚
贺卡
mk
别致
原油价格
天津@@
年的
收银@@
破坏@@
租赁期
简而言之
绞盘
维修服务
贯彻执行
走访
这批
高功率
2600
EMA
之门
利得
剑桥@@
原厂
坝基
對@@
植物园
眉毛
萌芽
觅
身心健康
从后
内件
南非@@
宁可
房门
松開
焚烧炉
特徵
璁
省去
腺体
视频会议
误用
走道
过氧化
2.10
Cit@@
J2@@
WHO
Wiki
che
ille
quo
副教授
區
四角
恍@@
油油
深加工
装填
跪@@
20.1
BDS
Eskom
Link@@
丰收
唯物@@
安全控制
弗里@@
执行命令
欣慰
法术
清算组
破灭
脱盐
输卵管
进式
钢纤维
麓
Stage
Vi@@
一堂
亚美@@
低效
保住
大豆@@
排布
敤
电流表
赡@@
馈赠
20.
CONT@@
pd@@
之乡
充油
即插即用
国家一级
孔眼
安理会
本区
梁上
砷@@
茧
规模化
转向灯
Sign@@
ina@@
show
事事
减到
参和@@
存根
导率
应由@@
扁平@@
政体
汇编@@
污染环境
第三十七条
粘弹性
转向节
采伐
Adap@@
Sales
School
Street
丹尼斯
付息
伤亡@@
几句
办公区
外置
憎@@
拆借
敬业
斯大@@
棺材
淡淡的
筹建
结识
缤纷
脐
自治@@
预防@@
HDMI
JS
PMS
不尽相同
个星期
分心
固执
垃圾处理
排他性
显像
李克强
气密
淹
港湾
经济指标
聋@@
車速
3.5.@@
ELISA
Font
not
充沛
分析程序
对华
年时
很远
批发商
无私
椎体
气象站
油性
油炸
瞄
要紧
观望
防冻
Groove
PRI
乳化剂
伤病
卡斯@@
卷绕
变数
截留
热忱
目錄
脱掉
赋存
.ini
Index
ineering
uth
中共@@
书上
周内
夋
密封材料
性能@@
扑克
无担保
照管
石板
露西
ESB
Task@@
lon
奥秘
异丙醇
必須
招标书
歧义
科技进步
自下而上
达拉斯
Hist@@
INF
rate
ren
上星期
井控
录音机
清管
生物化学
的士
蒜@@
豌豆
连铸
505
BMS
CCC
MSN
受邀
外缘
怀抱
毛虫
溶血
煌
致癌
辞退
Sign
不实
低层
净化器
对内
扩散@@
抬升
松脱
程序控制
管理性
进口产品
雁@@
风湿@@
Person@@
华东
右翼
惯用
感染者
手提式
放贷
流到
直尺
语调
非正规
247
刚果@@
劣质
大号
成组
所供
招收
男子@@
示范区
萎
该层
1956
STP
chu
cmd@@
加速度计
山庄
本构
艰辛
芒果
金属漆
除湿
麻省理工学院
J2EE
RADIUS
rag@@
伤人
司法机关
吗啡
啶
埋头
岂@@
操作台
泡剂
热敏电阻
熨
網@@
芭蕾@@
贵阳
高超
32.@@
602
Load
丙方
低头
切碎
商标注册
基化
朦胧
马克@@
Prog@@
不齐
叔@@
和尚
弗兰@@
探测系统
海洋环境
电解@@
祈@@
第一类
筹备@@
约书亚
茉@@
饭菜
Bar
OG
发扬
回收@@
基调
安全级别
村镇
省钱
翘
跟前
远比
通信协议
CBR
NK
中石化
侧门
壤
德兰
扣款
政策性
渗碳
渭@@
筐
舍入
蝴蝶@@
蹲@@
邮件@@
酯化
钻取
RM@@
SiteScope
hm3
lib@@
一栏
共赢
天主@@
心底
总体而言
措@@
油菜
混凝
清管器
游乐场
习性
嘌呤
居留@@
已然
带材
开口销
泰山
海口
班长
脱碳
Cayman
MG@@
lip@@
加薪
境况
层次@@
排卵
织造
腮@@
裁断
送料
面片
分供
动静
南面
外貌
尼克松
巴布@@
渗出
管局
管理机制
米处
缆索
IMM
bar@@
dev
dro@@
卡罗来纳州
宿费
废旧
抗压
无一@@
有害@@
正中
液中
物理性质
闪闪发光
雅各@@
End
业态
之年
免疫力
哈尔滨@@
复式
此域
消遣
第三十九条
降幅
Sil@@
mg@@
傅@@
回用
实时性
崇
快感
恋人
所得@@
素食
终点@@
肝病
螂
责任险
进站
阿美
BD@@
Case
Mgr
今年夏天
侧重
公害
历年
处方药
市场准入
帕金森@@
往事
聚合酶
运会
1920
Blade
SLS
less
umber@@
主要职责
全称
包扎
即兴
埃德@@
失重
扩展@@
服务台
标志@@
犯规
硅酸
編@@
自治县
调味
长安
Land@@
Tech@@
三百@@
不太好
可见@@
成型机
期末余额
机座
比方说
物价@@
盥@@
翔@@
而须
营业时间
蓄热
金价
鞣@@
驻扎
Black@@
RPO
Xml@@
中美洲
典型@@
农历
勤勉
启迪
地区性
暴力行为
淇
滤膜
线性关系
草拟
血腥
资格@@
首席@@
AMG
Edit@@
中日@@
亚洲开发银行
使劲
商业性
富士@@
武器@@
污染@@
波尔
热烈@@
第一期
318
rect@@
亲手
去向
咪唑
奥克兰
宵
居室
山县
德纳
承兑@@
放大镜
望去
测速
砌石
羊羔
胆汁
闭路
非银行
靶标
HEV
Multi@@
https://@@
保温@@
冲出
各部
将阀
抓好
数据完整性
轴对称
采摘
链式
限定符
隔热@@
470
5500
iOS
主要参数
乳胶漆
修辞
光谱分析
原生@@
安然
快速反应
气室
电话簿
盐度
神学
署名
芋
青藏高原
鼓掌
2021
Km
plic@@
优质服务
农场主
出人意料
印染
咀
国家电网
孔隙率
晴朗
暴动
未激活
根本性
洛克@@
深渊
烃@@
财产权
错综复杂
‰
不锈@@
回位
固定架
歉意
盛开
空客
老大
转帐
辩护@@
電腦
AH
U2@@
ULD
USA
上一年
卵形
同行业
图文
填塞
度假区
弛@@
找平
捷运局
支取
文学作品
罢免
肽@@
重述
野生@@
0.20
Red
ible
劳埃德
完成@@
建筑风格
惯量
桥式
槟
清算@@
面朝
黄石
eth@@
string
匿@@
密西西比@@
抗干扰@@
最新进展
水率
苜蓿
邮政@@
银行帐户
长着
门把手
需对
两党
亿立方米
幽默感
悼
抵免
果园
架构师
现金管理
立足于
腻子
舞蹈@@
车头
酋长国
隘
False
Nod@@
Provider
TEXT
TH
后缘
四边形
心脏@@
抗病毒
橡胶垫
比作
特斯
绷带
股指
观众@@
躬
GEN
war@@
减速@@
千里
委书记
安全网
导通
弗雷
当代@@
料理
有制
污点
测试点
知名品牌
象棋
靖@@
JP
KE
ights
中型企业
二手@@
人时
四是
头像
奥利@@
廊道
建在
排氣
散货
明细@@
消防车
热传导
血液循环
长发
骨髓@@
AO
Flash@@
SCP
TPS
Ty@@
cn
marg@@
nt@@
一条线
保持清洁
印版
失责
奖者
校友
粉刷
红葡萄酒
缺勤
调理
这组
锉
集团股份
close
专门从事
主义@@
主妇
助长
将在
工场
抵押权
放着
民居
父级
狡猾
瘀
移动性
袋鼠
迫害
长春@@
GRO@@
fre@@
临时@@
交汇
以示
原定
合上
喇嘛
執行@@
婉
憎恨
控制能力
特设
现代主义
盲点
睿
碰巧
磁阻
等效@@
红外@@
组内
经贸合作
赦免
镲
NACE
Switch
jpg
scape
估量
划出
命中@@
四轮
崇尚
成瘾
民意调查
神经病
绷@@
诱因
青海省
EMC.com
不稳
功率@@
古镇
建设部
怀里
換@@
现代性
番茄@@
瘘
眩
血管病
读取数据
调压器
这一@@
违
重重@@
Assemb@@
util@@
utions
ward
劳动保护
咒
圣洁
并报
汞@@
混凝土@@
生产厂
病态
磁头
空值
象征性
3.10
rom@@
另一面
奸
庸置疑
氧化铁
物理化学
电子装置
精算
考古学家
莽
转染
键值
air@@
一棵树
东海岸
以法
伏特@@
儲@@
回忆起
棋盘
眨@@
石脑油
第四十二条
综上所述
融洽
解调
超人
LCI
Template
买主
作一
分类器
名城
大吃@@
干草
救赎
柱头
此字
热熔
网格线
过半数
金山
BMP
H5@@
dc
ile@@
oop
中称
別
北爱尔兰
坩埚
大屏幕
夺目
寝@@
小数位
常会
惰轮
日用
模版
泄压阀
病虫害
经营商
补足
轮廓线
阑@@
阿拉
S9
Vel@@
Velocity
led
为数不多
事长
今天@@
勿@@
合线
圆心
多克
息肉
承台
数据安全
漂
着想
篱笆
缅
苛@@
蛮@@
许多年
该病
起爆
铺装
1.0@@
17.5
UPD@@
hu@@
只想
回水
夜空
尖瓣
机械工程
照样
电池电量
粕
践@@
锥度
MCR
eh@@
才智
抑菌
每辆
滇@@
继任
脱氧
自已
貌似
那年
防腐@@
clo@@
传单
保安@@
可于
大大增加
工行
登记处
睁
自杀@@
苦苦
表达方式
较之
通用汽车公司
Operations
Pac@@
伊斯坦布尔
前导
加索
呈报
基尼
壁面
大小@@
扩大@@
新界
极富
胡须
脑卒中
舱口
芦荟
Current
SET@@
bgt
伦理学
先例
心肺
抗争
本领
民办@@
热风@@
电子政务
禄
第二位
芪
豁免权
软性
GT2
Gi@@
oC
中心区
光纤@@
叹息
寄出
带电@@
显露
热水@@
热点问题
焦炉
组名
缝纫机
罂@@
视窗
试探
边形
HIS
RAP
一席之地
于小波
做工
写给
四面
壁板
慨
故障率
标准型
核细胞
溅@@
置评
莉莉
采矿@@
鞭
驾驶执照
Paul
cp
一岁
化学家
取款
受试
呵呵
季风
山丘
律师费
洪灾
流行病
纳州
聚醚
贞
踝@@
WG
休斯
嗓音
定常
抵挡
明渠
法式
海关总署
生产流程
相冲突
盾牌
督察
角色扮演
郭
113@@
不复存在
凹坑
取水口
均质
外包装
多通道
急忙
指导性
种族主义
荚
读过
Driv@@
HO
arm
ays
了个
割台
动因
密度@@
批评者
波罗@@
瘢痕
紧密联系
罗斯蒙特
腹膜
调用@@
钟形
Mn
portlet
公安局
出海
射器
小猫
巴巴
择
有机体
流淌
滥用@@
球场上
省会
纺丝
续签
耐热性
背景色
载于
EXE
关键部件
内裤
切实@@
十五条
参谋@@
埃尔
年华
应许
悼@@
打仗
捷径
揉@@
消防设施
矢
签下
纸上
线虫
至终
过重
道格拉斯
预售
DAC
te
分系统
动平衡
可用@@
吊具
圣诞树
思维@@
新几内亚
暗中
朝阳
柜子
登记注册
百分表
童鞋
行权
跳到
配上
南极@@
尉
懂@@
抗拉
接收站
曲子
果酱
离析
空域
纯水
结晶器
齿圈
内罗毕
功用
单程
台站
改进型
研究课题
获取信息
蓝光
薛@@
通行@@
重新考虑
长岩
额头
5.3.2
ASR
CX700
Count
Dynam@@
刚刚开始
圣彼得@@
塑性变形
层数
市场前景
强加
明胶
气旋
滑行道
示踪
第四十四条
绚丽
罗宾@@
脱色
读完
鄙@@
33.@@
Techn@@
剧情
名胜区
后天
回扣
在座
失去@@
挤出机
振型
淑@@
窍@@
结构紧凑
美孚
老爸
舔
试驾
通货膨胀率
Target
tu
俘
古人
均衡器
室内空气
扔进
数天
数字信号
白板
菌体
试剂@@
路障
黎
GJ@@
High
NY@@
ford
iD@@
ument@@
信使
凸面
实时@@
带进
常见故障
手脚
摩擦片
操守
无人驾驶
杂物箱
环境中@@
班上
简易程序
缮
舱门
苔
蜘蛛@@
请假
财务数据
转包
陷入困境
Ca
匝道
惬意
杠@@
毛利率
爱尔@@
磁盘阵列
较晚
辊子
黔@@
NAT
Technolog@@
乔丹
原体
另加
如期
实训
弯板
截流
擦干
测值
滚压
甜菜
相互连接
移转
藏族
血吸@@
長
预警系统
Navigator
hm2
ucle@@
公路交通
切入点
喜剧@@
四名
抚摸
新世
杂货店
欧姆@@
玻璃杯
眼睑
磺
等位基因
蜗牛
防疫
首创
239
Gold
fir@@
压泵
失常
投影@@
新政府
横杆
此为
消毒@@
牡蛎
科学基金
第四十条
苄
谦虚
这比
ission
一谈
一键
乔纳森
动乱
圃
巫师
招呼
查处
档案管理
淋浴@@
源源@@
演讲者
确认@@
英格兰@@
蚁@@
迷恋
16.5
336
BV
Var@@
人意
修饰@@
小巷
特种设备
纤细
请以
闪点
BC@@
San@@
di
distance
从容
传递@@
保人
勋@@
叶酸
开始运行
网管
认证@@
马可@@
Cour@@
不同@@
中后
举倾
化工产品
参数表
反叛
性分析
感光
捉
攻读
百万富翁
米长
维和
课本
质量方针
類@@
510@@
700@@
Patch
text@@
两国人民
变化@@
單
大得多
斯敦
照耀
程序执行
融通
诺贝尔@@
闭环控制
action
协同@@
台地
囊括
意外事件
日军
有毒气体
残障
测量法
生产实践
用人
结晶@@
那块
IHO
Instance
Model@@
NC@@
交叉路口
低剂量
恼
接收数据
最终目标
残奥会
每半年
献上
疣
石油价格
联苯
肌肉@@
讨价还价
轮换
迪斯尼
难看
Cert@@
FAT
NS20
Sand@@
ls@@
丈
创建对象
向北
大有@@
家居@@
寄存
拥护
收看
枪手
紊流
西湖
转接器
退还给
高新
352
AUTO
SOD
cal
分子生物学
挤满
渤海
米制
襄@@
连云@@
驱车
Vdc
lbf
ors@@
之城
保监会
几步
吝@@
安全局
悄悄地
支撑力
沙地
翼板
酪氨酸
顿时
麦隆
0.08
Card
PAT@@
Panel
uro@@
一格
就会
巴赫
最常
榜首
瞳@@
紧急事件
经营场所
绸@@
配电柜
RIM
V7
乌鲁木@@
互信
充裕
内以
办公厅
国别
地站
妒@@
尿酸
性地
怨恨
惧@@
惨
意大利语
接力
接续
放射性核素
易损@@
正达
汽轮发电
狮子@@
解析器
魔术师
319
FILE
drive
两位数
二手车
仍为
双歧
埋地
奥尔良
把戏
机器设备
车流
销售业务
首要任务
241
NAS@@
Protection
apse
csv
两旁
人大@@
制度化
四通
塑料制品
廊@@
抓地力
文人
聚酯@@
豆类
量子力学
闭路电视
項目
默示
Error
men@@
作出贡献
外向
总分
意欲
新郎
机械制造
每页
爵士乐
电子信息
胀@@
该卷
这两项
220@@
俄罗斯@@
各点
希特勒
挑衅
旋流器
生成@@
申领
訊息
踏
迪亚
铸模
FW
a1
ki
克森
呼吸系统
坚称
搜救
旋入
是在
次年
环保型
自攻螺钉
逗
酒杯
金华
饷
马尔
TLS
udio
⑵
一年一度
修女
千人
实地考察
所言
招待会
携带@@
沃斯
稚
窘迫
筹集资金
繁育
致富
议付
诺夫
足球队
适航
造访
PAU
Proxy
ces@@
主变
二叠@@
化学工业
叠层
尤文@@
废渣
慑
抽检
最迟
相称
翘曲
键盘输入
阻挠
FX@@
object
制浆
太远
孤岛
底片
引燃
拧上
毛毯
禾@@
私家@@
網域
纵轴
自主权
谋生
鳞片
SNS
Wa@@
上瘾
交易系统
便笺
光速
南市
变压
哈马
报请
振动器
普立
活動
绝地
誓章
说些
读物
资源类型
酌
重油
馏分
高可靠性
.gif
16.1
nov@@
ules
分队
券商
历代
建设期
改变@@
管理法
累加
羚羊
耗电
LOC
Touch
une
人因
原稿
吉布提
总有一天
挥
提示符
有所提高
药用@@
邵@@
鲁棒
REG
Sess@@
Tun@@
修课
受灾
定会
广告宣传
怀有
排版
易爆
桨@@
毛孔
碳刷
變
该词
铁氧体
Machine
NP@@
SYMBOL
bm@@
ruct@@
塔拉
头骨
并网
抓紧
星光
火锅
片子
第四十六
给料
322
IPSec
NI@@
back
古罗马
吻@@
基面
寮
州区
放射治疗
是如此
本港
松鼠
盲板
译注
资源共享
输入框
领养
高耸
1953
Clone
Tag@@
yi
仿生
前先
受聘
哈利@@
安迪
尽享
投行
掩埋
沂@@
燃料油
玖
眩晕
端子板
自变量
说得@@
1001
内尔
受训
嗅@@
基准利率
总产量
昵称
榫
百分之五十
该字段
调味品
镀锡
阿尔法
CHEC@@
XI
不见@@
口香糖
可图
哒
啦@@
巷@@
意指
楔块
特派@@
莹
西蒙
还须
鍏
FIFO
Prov@@
Wol@@
ZE
var
出式
前臂
反洗
广州@@
拉曼
照护
生物碱
相吻合
第四十一条
花色
轴系
髯
Sequ@@
万亿元
万向
何况
便秘
吃水
妥@@
振动@@
昨天晚上
氯气
法学院
洗发@@
白光
第四十三条
管制@@
避难
魁北@@
alk
三号
不耐@@
中山@@
值得一@@
光合作用
单单
垂直线
捞
未成年
檀@@
民事责任
真是太
第二轮
船尾
薯条
虚拟环境
误区
贴膜
软件工程
马戏@@
14001
Cuenca
IBM@@
Map@@
乌拉圭
光年
商事
固化剂
小姑娘
控制软件
既要
沉闷
陀螺仪
335
Dist@@
MIG
SAC
TDC
under@@
侣
保守@@
加州大学
可定义
哈萨@@
如其@@
有损
泌尿@@
混合液
理财产品
產@@
皮下
盛装
窗台
粘液
素描
菊花
赶走
遂@@
静默
韵律
饺@@
Graph@@
ISE
MMI
pper
同一天
启闭
孕期
席卷
提前@@
氨基@@
潍@@
澜@@
立陶宛
类似物
Insight
伦斯
划算
忽略不计
放水
新浪
普顿
水柱
约旦@@
脱下
转鼓
造福
釆
Cel@@
JV
光斑
克孜@@
恳
排定
改组
时间延迟
最难
殴打
激光束
烧蚀
花生@@
設@@
说不定
调料
谷氨酸
赔
金刚
颗@@
258
Environ@@
mail@@
固定化
改道
杀菌剂
某物
电子签名
畅销@@
百科
碱度
耐穿
西面
覆盖面
贩毒
越来越@@
鄂@@
鉴证
Jan@@
两场
乞丐
卫星通信
地震波
堤防
寄宿
新月
积蓄
类型定义
节俭
诸如此类
5.2.3
Invest@@
Wind@@
Yo@@
fa
交融
俱
刮片
叙
大幅@@
婚纱
导性
形象@@
愈来@@
摒弃
数控@@
琥@@
血肿
造船厂
阿斯
Browser
专利技术
产品类别
啟@@
声明书
应征
必行
摩斯
残留量
涸
潜伏@@
裁减
装扮
输入法
酪@@
重新安排
非现金
9999
Exec@@
ISR
kh@@
习得
小丑
尼特
引资
戮
数据系统
爱丁堡
登记手续
空间结构
自然而然
证书编号
轻按
选活动
醌
金融风险
ces
内设
外部设备
家庭网络
导致@@
屎
撕下
文本格式
期为
标志物
灰烬
监护@@
相器
纸条
辍@@
金发
难怪
Kid@@
关押
减损
勇于
匣
受潮
安腾
把头
残余物
滑出
磨掉
经度
芦苇
蜕@@
负债@@
进化@@
配饰
释放@@
鲜血
Replicator
case
一小块
凯利
化成
坞
水合
求婚
石榴
萝@@
落户
蝎@@
衰弱
议院
谬@@
铝土矿
随同
马匹
277
ACK@@
MIF
Mail@@
Radeon
ence@@
host@@
公子
叛军
城中
抗癌
护送
排水阀
水壶
洁净室
石英砂
立方英尺
能动
藓
轰
525
Center@@
ime
信息流
劝告
危险物品
大梁
惜@@
本位币
牧羊@@
缴存
网络游戏
老旧
脏污
衰减@@
记分卡
身亡
遗传性
10.6
LOW
NetBackup
Silver@@
WL
kw
一试
中叶
件套
合用
失业@@
平衡点
开关@@
根州
涨价
滑环
笔画
胸腺
行径
转向器
阿克@@
Force
RFC
XSLT
bb@@
wire
乖
减半
分散剂
国集团
坚持不懈
市场运作
打架
找平层
文献资料
新来
最高人民法院
波里
活塞@@
经常出现
绩效@@
赶出
轴端
Assistant
oug@@
tab
关停
哈拉
多发
始终如一
斋@@
机和
留心
礼堂
稠密
系统可靠性
草机
连接数
韶@@
123@@
Filter
Reader
传递函数
伯恩
切屑
华氏
厘
安大略省
水星
涂鸦
落地@@
AW
HDS
ets
不堪@@
六大
区域合作
卵子
坟@@
外协
天真
巾@@
归一化
归口
扩散器
捐助者
水冷壁
理工学院
细度
终了
经济型
脑血管
1955
416
DES
alt@@
scripts
值得@@
公尺
刺激@@
厂内
婴@@
整合@@
环上
空气调节
练习@@
老妇人
赎@@
问责@@
Central
ense
使用性能
储运
全场
单根
喷射泵
复垦
小说家
未遂
烟花
第二类
线路板
老子
语音@@
越来越少
邮政信箱
高纯度
1954
4.4.@@
hod
ve@@
不敢相信
加强筋
博彩
受让
句法
奖牌
封闭@@
戈登
挨着
時間
标志牌
瑞安
美国空军
脑组织
请教
起誓
转载
陪审@@
ider
中美关系
互不
传输速率
反响
变差
密歇@@
尽全力
或应
止水
活体
真诚地
美方
躁@@
运动场
驱散
鱼雷
701
STI
TaskSpace
hp@@
que@@
work
倾覆
制表符
副局长
多一点
奥委会
对焦
扣环
环保局
电子学
短袖
第四十五
答道
经济特区
进驻
铸机
镯
高等院校
286
509
Fail@@
HF@@
亚利桑那州
从业@@
假想
加厚
噩梦
扼要
淋巴@@
病床
眩@@
科罗拉多州
统计数字
节拍
薯@@
试运转
运营部
ECE
Length
Mess@@
Shape
仲
和弦
基因突变
夜总会
拨出
易斯
暗器
璐
管理应用程序
补编
裹@@
通訊
醛@@
阿替
露台
验算
025
MAT@@
MDA
UI@@
ola
三只
变动@@
手性
柒@@
汇率@@
浪漫主义
科技股份
移居
竖起
精力充沛
细部
谋杀@@
酸乙酯
销售费用
门闩
随心@@
非同@@
鲸@@
IAM
ship
一模一样
人则
土工布
套用
拉克@@
挖泥船
接壤
接过
欢快
维持@@
至下
船运
警觉
许可权
超薄
运动衫
鏂
490
WO
保守派
参与@@
向南
喷气式
大洲
扮@@
格列
检漏
科幻@@
篱
网上银行
蒸发@@
蓝宝石
貌@@
质心
重大事故
CX500
content
争斗
云端
冀
前要
吹灰
尼古丁
折价
況
法律援助
波顿
电流密度
蒂姆
调优
超车
踪迹
鲁迅
GBT
Xp@@
aces
add
dit@@
stream
v1
不入
奥运@@
币厂
理发@@
管癌
脚架
裂片
近红外
违反@@
邯@@
钦佩
3.1.3
ACH
STAR
dir
gloss@@
交汇处
仲裁@@
传奇@@
兼有
卷尺
我见
氟化@@
煤气@@
育苗
自发性
议论
调校
越少
追索权
面价值
0.45
FAT@@
Forms
Installer
Stand@@
eting
par@@
上天
俯冲
别说
可燃性
新途径
款待
母牛
笨重
英俊
SEL
ber
udi@@
参股
国家统计局
寓意
很慢
数据恢复
斯坦福大学
洛特
若能
萨达姆
铸就
锯片
长满
Prof@@
上作
休止
刻有
吸烟者
呵护
埃克森
头等@@
怎能
惶@@
摂
旱地
物价指数
百老汇
结存
色谱仪
都市@@
355
ARP
一路上
主站
全文@@
孩
引述
彼此之间
征求意见
战车
打来
投资总额
接轨
测定仪
相似之处
纳金
联合国安理会
钢化玻璃
门禁
CAB
Load@@
MBTA
Prot@@
保险金额
共同利益
出现意外
分给
土壤水分
工会@@
怒气
抵押权人
新思路
旋涡
根深蒂固
每间
氧烷
洗手@@
紧迫@@
背着
AMP
OB
下一阶段
两支
体外@@
充注
全封闭
凸台
反作用
多哈
学科@@
寿命长
文件属性
沃尔特
没见
泰晤士@@
牛皮
补遗
角点
讫
鄂尔多斯
非传统
268
TF25@@
全行
勾缝
发展壮大
梗阻
满时
烛光
玩偶
碎裂
谣
赛马
足量
通话@@
陷于
313
CZ@@
DAT@@
Nm3
Wire@@
zi
下有
东非
入狱
型腔
处死
外周
推销员
政务
新台币
无能为力
标准件
棉质
特写
益生@@
知名@@
票证
能干
舒张
视同
认股权证
负担@@
防火门
集体合同
马里兰州
龙卷风
508
Cs
bmp
ifi@@
well
息税
拂@@
更多@@
梃
玩意儿
耐克
酝酿
13.4
Navis@@
SMA
低落
准备@@
劳资@@
包装机
型机
拷贝@@
新鲜@@
旧版
暖气
替补
柜门
第二级
自由贸易区
观主义
转介
销往
TNF
n2
全力以赴
写信@@
性关系
摄动
新开
演奏@@
牙买加
胜利@@
边角
远高于
避孕
马来
801
GHQ
MES
Portlet
SuiteVoyager
uage
创设
十七@@
发送数据
品名
响应速度
地役权
成熟@@
承包合同
掩蔽
曳
狭义
瞪
钢丝网
PROF@@
ration@@
不仅如此
倦
单板
已登记
战略伙伴
所测
江县
炙@@
琉@@
翡翠
臀@@
蒿
设备组
该片
财政部门
转动@@
造山@@
雷管
eTrust
井站
增塑剂
审查员
思绪
控器
攻势
明市
清洗机
精液
纪律处分
芬奇
读到
镍合金
電流
LM@@
Ps
SP2
个别@@
公平竞争
内政部
发電機
头晕
尾端
拉里
明媚
氣门
浮筒
电泵
盛宴
站长
虚拟仪器
补充剂
言不@@
路标
钥匙@@
257
ADR
complexscriptsbold
enrich
test
亵渎
令人震惊
催眠
内部网
卡尺
卷起
坪@@
奋力
妇科
布鲁克
恶臭
情报局
流行性
爱情@@
牺牲@@
现役
用时
碎屑岩
统计资料
编入
置式
质量第一
过程中将
迥@@
闪长岩
1234
Profile
control
允诺
动作@@
头人
峭@@
拴
毒理学
第三款
粱
脊髓@@
臭味
陆路
青铜@@
骰@@
PTC
上涂
中东@@
便器
厨房@@
城市居民
增加额
失火
子午@@
安全门
宕@@
宽泛
并称
易受
潜伏
电解槽
皮炎
着重@@
药理学
虚拟内存
袋装
言辞
识别方法
COS
NSN
font@@
¢
余人
克里斯@@
地漏
岗位职责
崎
开水
扫帚
找矿
易燃易爆
易行
机密性
杩
流氓
点火装置
生出
秒数
草酸
西尔
骨质@@
1.75
PPM
不管@@
世界性
出口量
剧中
华侨
原子核
國家
字词
本地用户
种植园
而过
蔑
财务费用
黄土@@
41@@
ARE
CFD
FP@@
Reporting
业者
传教士
停车灯
光电@@
全民教育
冤@@
办公用品
大时
导者
导航@@
履
帕尔@@
徙
死区
汽封
煮熟
笠
芹
若需
238
F5
ower@@
xiang
事务性
兴旺
好后
数控系统
曼彻斯特
混入
白鼠
睫
种族歧视
胜出
践踏
钽
铝业
高估
16.2
上尉
侏@@
外皮
大便
定期维护
射出
布莱恩
平仓
录像带
性化
悬置
记项
防晒@@
709
Gb@@
Invista
start@@
一点@@
二氧化钛
关系数据库
启动子
客场
平地
挫@@
森特
爱国主义
粘度计
NDT
不分
令人信服
入世
发货人
异氰@@
薄弱环节
进行@@
随处可见
243
cha
介绍@@
俘虏
停靠@@
凭着
对表
房地产业
未注册
满怀
电子器件
白云石
矿用
荒唐
药物滥用
菲尼克斯
该域
趋向于
银联
链球菌
Print@@
Snapshot
dl
不设
令人担忧
发明专利
变桨
四十八条
复本
彼
此类情况
盔甲
直肠癌
笨蛋
膨胀系数
隐私权
ca
不理
二甲
可视性
在技术上
均匀@@
密歇根
常州
干扰素
归档文件
得体
懦@@
打得
拉脱@@
指头
挑战@@
摊铺机
旅游景点
玷污
男装
白兰@@
矗立
脱氢酶
蔡
赖特
通勤

LI
za
亿人
副会长
响亮
库尔@@
政变
方为
权利义务
栅极
没有响应
特里@@
股数
订户
述评
链接@@
门厅
集中度
273
Bat@@
Error@@
default@@
ments
一个组
三届
主管机构
他于
受害
德意志银行
据点
早饭
段长度
水泵房
甘草
翼型
记事本
较轻
1957
840
Nev@@
bran@@
佑
俗称
保持平衡
傅立叶
利害
喻@@
模拟实验
氦气
温州市
绝不能
联产
誓
误诊
边值问题
Low
NetBIOS
Nok@@
TEC
opt@@
克罗
动画片
可作
嚏
小结
时俱进
漆黑
穹顶
能谱
节食
重生
299
332
产税
先于
光敏
凝视
哎@@
啟動
少有
微创
性好
悍
打猎
执行程序
排泄@@
控制性
机动性
某位
校车
流离失所
表演者
防止出现
Apache
CX300
DMS
HEL@@
大部份
文丘里
水族@@
消减
烧瓶
理解@@
癣
维特
胆管
胡萝卜@@
英语口语
赎罪
ners
分接
巅峰
带头
抽气
散热片
此列
比特@@
珍稀
缭@@
运输设备
Station
一具
作出@@
依存@@
几千年
印迹
哎
平衡器
抗击
机械设计
毛重
流星
由此可见
石子
纪念馆
经文
记录在案
运输成本
通胀率
风险@@
FAS@@
HREF
ota
play@@
公历
名牌@@
应受
斯本
熔丝
电弧@@
臭氧层
計算
走高
释义
钢丝@@
阿姨
6.1.2
亿万@@
内生
化粪池
图号
德雷
显卡
果皮
柱式
桩体
灵长@@
煤器
现金支付
申报单
粪@@
萨姆
雨淋
1.1.1
DSM
Rap@@
cf1
dell.com/@@
低浓度
利差
哈拉@@
回退
坯@@
打火@@
甲基化
菠萝
边沿
逮@@
随机性
14.4
James
Name@@
Tom
lang
不相容
世界观
反垄断
埔
年头
戏曲
斯利
精确定位
茂密
默克尔
autodes@@
ero@@
介电常数
办事@@
加成
卷烟
堕胎
多半
安东尼奥
实实
影剂
流浪
电磁辐射
能比
节约能源
Cra@@
Dani@@
chron@@
lob@@
ust
功课
参与度
发言@@
含铁
哈德
商铺
性欲
所应
抛物线
杰出@@
水母
灵活@@
疼@@
睿@@
船坞
行将
要塞
赔款
通信网
靶向
骨细胞
LAS
SARS
SES
TG@@
burner
万台
交货期
光强
前移
大肠@@
应设
承诺书
早上好
旷
本站
术语表
比色@@
滚针轴承
独特性
珠江@@
石器
硬脂酸
紧密结合
绳线
菌群
触犯
诺德
路试
蹒@@
静置
默生
SRC
conf
si@@
一等奖
出乎@@
团队精神
地址@@
数据服务
李先生
汛@@
漆面
结盟
越低
雷诺数
281
6.3.@@
ANG
ICC
M20
Mig@@
NRC
交还
你家
信任@@
劳拉
又名
埃里克
夥
已成
比较复杂
生子
细胞质
试用@@
读性
飞利@@
C0@@
Office@@
PCA
Partner
ban
乙型肝炎
五分
倒霉
光顾
危险区
发车
喝咖啡
坯料
塔式
外边
德尔@@
打印输出
斜杠
理科
监督机构
转租
量瓶
金融监管
锚栓
露天矿
4.7.@@
Hig@@
PAS
主干道
保护法
塞内@@
安息@@
心绞痛
护岸
检入
消防队
牦@@
角速度
评论员
领会
ATEX
BCT
Dyn@@
cal@@
一动
基本权利
引言
性格@@
文献@@
新兴产业
柑橘
核燃料
科大学
稳性
试生产
贫民窟
266
DBMS
UAP
Whist@@
XRD
gn@@
一桩
买来
函数@@
单轨
品德
商业中心
圭@@
弘
支撑架
时该
渐开线
生效日
生物力学
离子水
羰基
许用
该局
资企业
蹬
送出
7500
Change
LS@@
MSDS
SYS
ston
ume
世界遗产
丘陵@@
凝血@@
及时发现
史蒂芬
在读
席前
并作
弟子
当务之急
忆
或仅
放炮
时刻表
核发
海淀@@
焓
系紧
胎面
邻苯二甲酸
陶醉
首都@@
1911
ander
公诉
关键所在
其父
列祖
北纬
圣者
城市污水
太晚
廉洁
扬州
接至
火电
绸
聚变
Alarm
DELE@@
Lock
TN
七八@@
事迹
入学率
单位名称
度角
春秋
晾干
横穿
版图
用该
维尔京群岛
而知
链中
4.1.3
4.4.1
Geor@@
PAC
RACADM
XA
不丹
令人吃惊
利落
南斯拉夫
卸荷
小心@@
度假@@
放手
期初@@
癖
瞪@@
职业培训
过冷
迴
鞋类
DSD
NEC
下降@@
亮显
允许值
力量@@
多夫
多芯
大到
妊@@
峨@@
库存@@
打招呼
打过
托克
有所改善
柱状图
沼泽@@
波音公司
百科全书
短于
磨合
罗列
诀窍
课后
117@@
NW
Pay@@
Phys@@
VA@@
lect@@
二乘
人流
冉@@
准确无误
可辨认
惯常
疱疹
痴呆症
硝基苯
药品监督管理局
菠菜
诺斯
远古
逻@@
高高
590
740
E3@@
PQ
万亩
不言@@
二甲基@@
公司债
勋章
我厂
新泽西
某型
画画
觅@@
许可@@
050
40.@@
WT
即便如此
多边@@
定线
干吗
年鉴
捣
看得见
网格@@
芝麻
药物@@
记述
贷记
KOC
hl@@
sing@@
优良@@
全员
凯蒂
北美@@
度表
建立联系
彝语
恶作@@
成膜
斜盘
明清
期末@@
权法
直升@@
社会各界
票人
236
FuelBand
交接@@
嗅
坍落度
宫内
工程学院
技法
昔@@
汉代
洋洋
片机
电力设备
电涌
皮埃尔
脂质体
近几个月
门限
323
Broker
COM@@
QI
script@@
万维网
东地区
传送器
伤痛
希腊人
用户数
聲@@
IPP
Lar@@
ost
低等
侧视图
保证期
动车组
场站
安全部门
实际意义
批出
接线箱
方将
本杰明
毫米@@
水力发电
游动
照明@@
生死
磕@@
突发性
蜂窝@@
連線
长袍
Blue
ju
予以@@
分级@@
单上
咬合
固体废弃物
大帝
大革命
定居点
布鲁克林
很重
拉桥
欧洲委员会
污水@@
私自
简体中文
衣领
CAE
asp@@
ball
iva
prep
中国移动
内需
利用效率
外汇市场
委外
布袋
恒压
成名
木瓜
点点
田园
空间数据
组在
通讯社
阿肯@@
除雾器
驱逐@@
SEC@@
VR@@
cat
ues
单是
即食
名言
在下文
子民
工效
底蕴
挂号@@
明显增加
格调
毛囊
洛阳
磁带@@
蒜
鼻腔
2.3.2
doc
erial
亮光
信号系统
共处
凯恩
双人@@
外型
孤独@@
岐@@
希腊语
幂@@
恼火
慢跑
掺量
放学
整夜
法中
等量
聚类分析
螃蟹
要件
阀组
UVW
onclick
一盒
不足为@@
基础理论
妨@@
安全意识
水塔
烟台
皇宫
直到现在
阿迪@@
预压
Opportunity
Read
hod@@
list@@
克隆@@
失事
库容
掠过
曙光
机构名称
肴
西格玛
规律性
车位
金融管理
Hitachi
RAP@@
RTS
TCC
任选
俘@@
偿还债务
内华达州
内环
哥特
挥发油
本土化
海上@@
灼伤
申述
畜牧
芜@@
酋长
铈
隔热层
ALM
DSS
Jul@@
fc@@
不负
业内人士
国家税务总局
国界
开窗
执政党
椎
洲际
牧民
短信息
矮小
碳原子
长出
100000
IDE@@
Sci@@
一百万
伯南克
倒车灯
具体操作
实验组
所欲
款人
沙星
螺线管
财政收入
质量事故
随以
Ital@@
PW
井组
仰望
光泽@@
向西
哗@@
塑料薄膜
幸运@@
拉丁语
搜索@@
普及@@
海中
滑冰
潭@@
烤炉
矿泉水
耻辱
诊室
贰@@
阅读@@
2.11
EH
where
军事力量
扫罗
教派
有钱@@
柚
機械
环评
疏远
磷酸酶
纳米比亚
Ban@@
不因
代用
传动@@
借钱
出物
多出
如若
帕特里克
年利率
旱季
正常@@
殊荣
毅力
盐类
神殿
豪斯
邀请@@
防伪
阳性@@
12000
730
AFS
BHICS
HQ
microsoft@@
中之@@
何等
奥斯汀
就任
拨叉
拼音
权责
民兵
睦@@
缓冲液
药片
螯@@
鍔
Asset
CDR23
RADEON
rel@@
上风
书房
会想
侵
大山
奇怪的是
抗静电
拘
杂乱
桔
欺负
正线
流水@@
相当@@
耗电量
贝叶@@
遵行
酮类
.as@@
198@@
MPP
SCI
V0@@
ument
休息时间
半导体@@
单宁
成本增加
截获
教练@@
楞
灯亮
烟叶
生产国
电容式
置身于
羹
转折
还清
钝@@
非晶
高锰@@
Form
TIA
lb@@
业务人员
两片
公立学校
同等@@
声调
宾夕法@@
平均价格
攻丝
活性污泥
犹
玻璃板
稚@@
窄带
试卷
475
JDBC
Modif@@
ese
pc
一文
中间层
分子@@
批判性
潜入
煤田
磷酸化
税制
稠油
苛
调低
Audi@@
MDB
NETGEAR
urn
傳送
准直
开发计划
房顶
才行
疝
经纪@@
铁锈
镶板
.g@@
Flu@@
Lee
Moz@@
STR
一心
之源
之神
产品规格
人际@@
会厅
使用手册
冲进
千瓦时
卢布
喜乐
声器
政协
沈
溅射
瓦纳
赫尔
软垫
轿@@
酥@@
阿塞拜@@
36.@@
Curve
IOM
Peter
SiO2
gen@@
ult
前卫
大都会
套圈
奥兰多
好似
宪政
并拔
我吗
日均
毒者
涡旋
硅酮
稳步@@
纹身
组织培养
而作
表示同意
识字
读写@@
马赛克
不离
危地@@
发牌
周后
基本面
媚
尘暴
干事
性情
所作所为
热气
界处
美人
评语
踩踏
铁道部
马尼拉
公正@@
威斯@@
澳门@@
灏
酥
脑膜炎
倦@@
恶性@@
脲@@
EG
眷@@
编程@@
耻@@
毗@@
※
哟
忏@@
這
П
喹@@
漱@@
箔@@
谘@@
С
蔑@@
蛤@@
镓
沪@@
級
颌@@
撰
涟@@
燔
妖
死亡@@
岖
舅@@
向阀
桐
签订@@
繁
纂
颓@@
彼得@@
碍
性病
睦
祁@@
鐢
太平@@
扩展性
观设计
邱@@
露天@@
惑
怜@@
鎴
霹@@
胍
ange
包商
毕
ran
丫@@
搅
萘@@
部门@@
哥伦@@
次世界大战
丧
斯达@@
ync
懊@@

爹
ame
΅
农民@@
蜷@@
eon
業
跚
Virt@@
澶
辟
缔
音速
菲利@@
頁
仑@@
糯@@
耿@@
隅
麝@@
强制@@
楠
筏@@
天晚上
位计
异常@@
排放@@
淄@@
事业@@
噬@@
ering
癈
娴@@
瑶@@
利益@@
前列@@
氡
碎机
臼
菁
近似@@
伽
霓@@
麟
吧@@
携
涕
没有@@
Dav@@
妈@@
某种@@
退休@@
吉尔@@
楣
茄
redi@@
一次@@
幸福@@
迸@@
▶
唠@@
石灰@@
爷@@
菱@@
耖
钼@@
雌
Jam@@
磐@@
芜
豫
yc@@
炖@@
蚤
Lib@@
仆@@
糠@@
腺素
蔬
裁判@@
formation
蕨@@
锆@@

Lot@@
动画@@
各种@@
徵
普遍@@
结核@@
啸
ache
bo
囤@@
科罗拉@@
道路@@
新西@@
赣@@
加斯
挚@@
玲@@
丈@@
曹
砝@@
苞@@
鎏
rit@@
巩@@
恪@@
榻
睛
嘗@@
肠癌
輸@@
吏
辗@@
選
靓@@
船厂
苟
蔷@@
Valid@@
勺@@
一小@@
廓@@
lang@@
关节@@
戏剧@@
羞
腱
掀@@
dd@@
w.@@
变速@@
峙
Fu@@
南省
悖
標
糜@@
VW
劈
皮书
剔@@
各样
弊@@
愧@@
設
孪@@
蚀@@
蛙@@
恳@@
葡@@
:/@@
兮
药性
拙@@
主持@@
新华@@
氏体
藐@@
同性@@
吱
寫
遐@@
ontrol@@
啪
氰
汶
琢@@
巿
泞
烁@@
蔓
集团@@
上安装
土耳@@
异化
状体
钎@@
黛
操作性
湘
苷@@
绢
聪@@
師
毫
荧@@
镑
拧@@
牲@@
鲤@@
气罐
数据库@@
個@@
聪
谎
亚利桑@@
吾@@
泼
輸
孩@@
旭
桁@@
璀@@
虑@@
全部@@
礁@@
細
ε
斟@@
鱿@@
expnd@@
vi@@
婉@@
拭@@

內
哺乳@@
Datab@@
漳@@
烛@@
芥
赊@@
辈子
宙@@
对照@@
狠
弹性@@
磊
▪
倾销
疟@@
猖@@
茎@@
葵@@
踩@@
宣
仕@@
喙
瞎
二烯
定书
肼
冲击@@
饱和@@
交换器
信托@@
血液@@
谘
水层
辫@@
ject
流体@@
忿@@
胰
频器
Fr@@
尔多@@
伸缩@@
调器
噜
敚
象征@@
pport
娃@@
碌
不计
枸@@
朽
妹@@
閱
Solar@@
关联@@
rial
¥
中性@@
瘠
揍
提取@@
那州
高层@@
僚
创建@@
想不到
油站
蟹@@
嫌疑@@
馅
喱
梗@@
EED
尔文
纲@@
谭@@
鹏@@
加强@@
戚@@
花板
ption
伊斯@@
經@@
西州
雁
÷
意志@@
水口
盂
瞻
蕾@@
Style
无论@@
铵@@
镗
丙烯@@
形资产
捻@@
魁
催
柚@@
歪
紧密@@
罢@@
逢@@
障碍@@
Source@@
狠@@
苄@@
悚@@
璧
翰
呐
歹@@
电子邮件@@
姬@@
昼
霾
鸦@@
修改@@
夷
蒲
炊@@
线路@@

祠
谱法
叁@@
根据@@
結@@
间歇@@
坛@@
彰
滕
煞@@
兴奋@@
制片@@
哀
折射@@
棠
煲
盏@@
随身@@
197@@
桉@@
荤
蔽
博会
厉
吸附@@
绪@@
呵
芹@@
犊
裂化
夾@@
朋
烩
缉@@
Mach@@
吕
警示@@
适用@@
SYMBO@@
席会议
激活@@
玫瑰@@
疹@@
第三十@@
需求@@
吉林@@
宵@@
搴
滋
唯
撮
inder
役@@
控股@@
阈
淬
aract@@
匝
毅@@
网膜
荟@@
初始@@
务局
旳
桦@@
¦
受人
赎
铢
恰
泣
⑶
电阻@@
撤
soc@@
亚历@@
壤@@
鞠@@
ont
回忆@@
旭@@
目表
Upd@@
同于
豁@@
踝
雍@@
殆@@
姩
梧@@
萦@@
行道
裳
汪
潇@@
produ@@
障@@
Propert@@
ª
易燃@@
殊
♦
多尔
朔@@
物业@@
苣
取得@@
显著@@
路易@@
哇@@
夯@@
珊@@
靖
不在
相关@@
开始@@
拣
載
锗
咨@@
沁@@
箍@@
Bus@@
idth
买卖@@
哗
猿@@
通货@@
特勒
租赁@@
寎
蟾@@
孟
憎
绷
负责@@
冀@@
实地@@
會@@
外部@@
砾@@
薰@@
宰
持续@@
秤@@
雳
骂@@
粹@@
矾

崖@@
珂
视觉@@
咄@@
峻@@
淬@@
获取@@
酗
ift
蠢
俺
地力
峻
招待@@
搐
耐磨@@
虏@@
阂
抖
簿@@
维多@@
獗
點
Sett@@
瑙@@
蔼
放大@@
蟑@@
亢@@
阻尼@@
奥会
蹭
避雷@@
各向@@
桡@@
漪
狄
镗@@
侨
狙@@
Applic@@
所为
波罗
滄
慨@@
Α
勬
Hom@@
瘙@@
羌@@
发布@@
挥发@@
渥@@
潜水@@
璨
疸
確
辑
Fact@@
灼
穹@@
颞@@
〃
可燃@@
瑰@@
考古@@
产阶级
捧@@
蝗@@
辖@@
公用@@
匆@@
完好@@
玖@@
呻@@
唑@@
淮
舆@@
谓@@
屿
沥@@
痤@@
糠
聲
董
合器
在此@@
微结构
铯
焉
绊
Men@@
提琴
殡@@
气口
萼
如说
屁@@
瓣@@
琛
辊@@
干道
斓
者之间
柑@@
耍@@
青春@@

Frame@@
org
焕@@
裨@@
跛@@
铟
order
勫
髁
Ф
秧@@
莞@@
鹃
删
殉@@
弘@@
殖
bus
呔
汾@@
呐@@
ube
骼@@
凳@@
驿@@
ublis@@
芝加@@
窜@@
orm@@
矿物@@
鑫@@
高高@@

勋
娠@@
燃烧@@
匝@@
咏@@
續
膈
蜗
噶@@
寰
屹@@
杈
禧
笆
辟@@
轻重
邃
镦
兢@@
協@@
圭
汽车公司
燃气@@
苟@@
习惯@@
晦@@
泡沫@@
陇@@
兄弟@@
提出@@
渔
绚@@
鳗@@
Prox@@
分解@@
帕特@@
茴@@
讥@@
骇
ω
⑦
牵
Desk@@
Micha@@
不相同
人民代表大会常务委员会
朔
ρ
垢@@
夾
絮
很久@@
新兴@@
茵@@
幔
喇@@
意味@@
速器
ror@@
薇@@
豹@@
Business@@
別@@
孚
彬
身于
鳕@@
嫨
梧
以太@@
阪
收益@@
斋
澎@@
絮@@
问题@@
but@@
澡@@
ital@@
眸
置疑
Mich@@
糙@@
羚
ator@@
庐@@
榷
沼
扮
蔻
铂@@
厦
总的@@
漓@@
驶
Team@@
凰@@
悯
辜@@
妥善@@
暮
rist@@
矣
绯@@
贿@@
啸@@
拂
牛仔@@
精确@@
迪斯@@
瀚
铐
ange@@
content@@
分布@@
置图
wind@@
辫
税务@@
褥@@
二条
赦
音响@@
夼
嬪
布什@@
掳
绥@@
颐@@
额定@@

俏@@
冗@@
子里
叩@@
涯
锣@@
晾@@
阴极@@
喷射@@
總@@
丨
徇@@
窘@@
崽
世纪@@
奄@@
成交@@
楷@@
蓖@@
逍@@
Band
琅
腥@@
訊@@
Bit@@
Orac@@
埋件
毡@@
齿轮@@
决权
菱
Share@@
克斯坦
外光
偌@@
坐标@@
文本@@
蒽@@
鸠
琅@@
立学校
突破@@
經
娱
开发银行
婷
帜
瑙
臀

Rom@@
伊利@@
匍@@
实话
尼克@@
岌@@
文法
波器
饲
嘱@@
火器
蚓
侍
實@@
爱德@@
沂
活率
砟
连锁@@
熄@@
翌@@
忆@@
煤灰
Dan@@
助者
缉
邢@@
气站
谛
娟
探测@@
除此@@
PEG
icro@@
中介@@
寄生@@
比利@@
遴@@
‐
痢@@
跨国@@
魅@@
伺@@
御
琪@@
脯
檩@@
Press
幽
洁净@@
铣@@
奢@@
面图
arch
伶@@
侥@@
挚
谍@@
︹
故障@@
咳@@
夊
標@@
熠@@
蓋@@
克力
妾
揽@@
豚
馨
ustom@@
庚@@
秈
請@@
阻燃@@
冕@@
妪
紝
亚特兰@@
单号
妓
査
涤@@
珈
缀@@
茸@@
Perform@@
TY@@
∅
琢
翱@@
佇@@
绩@@
进制
钵
嘻@@
碍@@
土矿
眨
EMC@@
Stor
俚@@
姻
景气
權
畸
轩@@
啾
瘾@@
eld
孝
缪
疽
诱
顺序@@
睬
耆
電器
匣@@
顺利@@
芸@@
入式
崔
撳
督
迫切@@
金刚@@
捅
沽
纾
钥
娇
慈
莺
议事@@
沼@@
行业@@
☆
剽@@
姓@@
蛹
π
玻
隧@@
oom
佔
蜍
nn@@
揣@@
摧@@
构成@@
格鲁@@
А
锉@@
阿姆@@
告人
τ
寡
既往
骋
异步@@
砧@@
翁@@
交道
煽@@
驗@@
恶意@@
斐
eR@@
击者
洛杉@@
舅
x2@@
丽丝
加利福@@
掸@@
杭
炔
脓
铆@@
Vers@@
孰@@
惟
绍
瀛
率高
當
鍖
鎸
滃
粤
茁@@
骷@@
妞
彷@@
枫
範
NET@@
xi@@
切尔@@
屡
描
插拔
疲力@@
鹭
咧@@
约束@@
備
記@@
养老@@
彦
啼@@
識@@
遞

矶@@
言之
诫
現
架构@@
楂
眎
统治@@
西西@@
單@@
廖@@
激动@@
蜻@@
传染@@
铍
Fuel
哝
Support@@
icle
哼@@
闯
而上
骏
教士
注意@@
痕@@
骏@@
pli@@
stance
垩@@
巍@@
當@@
鳄
残疾@@
pha
不好@@
漾
粗糙@@
粘结@@
莅@@
鍑
NIK@@
二零@@
槌
槐
蟀
咕
哉
好了
擻
滕@@
置信
肟

褒@@
颞
保税@@
權@@
瑜@@
笃@@
吩
诅
擎@@
緊
锹
Ⅴ
務@@
委员@@
耘
侠@@
峦
Vide@@
洱
濆
疱@@
硐
赘@@
irt@@
委托@@
篝@@
鏍
哈佛@@
夐
袱
计数@@
轿
淳@@
着色@@
邹@@
ited
涛@@
燥@@
狭
痣
谭
Site@@
沉淀@@
满意@@
阈@@
叼
拉圭
拷@@
氚
沒@@
疵
銮
压表
姚
扒@@
渤@@
眺@@
瞥@@
苍
侬
民意@@
浪漫@@
混凝@@
痂
們
蜓
吲@@
捂@@
熄
唛
¶
唬
狡@@
琵@@
Objects
彦@@
敗
狸
疡@@
土工@@
固体@@
搟
俑
党人
峪

哚
攀
範@@
維@@
蔗
umm@@
不起@@
過@@
耦@@
骆@@
分辨@@
叽@@
恭
搀@@
渍@@
窥
у
不大@@
溃
由此@@
紊
俭@@
卟
國@@
虫害
谅
以上@@
镂@@
Anal@@
.co@@
壑
应急@@
隋@@
葫@@
鏃
敛
亢
怯@@
蔗@@
蚀剂
谧
鳃
鸵@@
沐@@
滅
解除@@
邓小@@
釜@@
柒
罗斯@@
蒋
讼
屬@@
憧@@
炫
电缆@@
柬
疱
瞻@@
褪@@
重庆@@
Ray
婿
帧@@
璃
俏
绉
怜
瞌@@
糜
胳@@
运算@@
勪
谕
霆
.microsoft.com/@@
学金
岷@@
撼@@
榫@@
武汉@@
葡
閲
ormal
呮
咪@@
啬
绠
寝
恢@@
罗拉
非营@@
驹
庇
潦@@
挝@@
码器
%@@
Templ@@
信服
青岛@@
全力@@
歼@@
猥@@
砺
CLAR@@
obe
地面积
夭@@
敞
Configu@@
惭@@
电性
統@@
荨@@
铑
▲
疮@@
窿
绌
绎@@
咐
本科@@
秨
稀释@@
西洋
Trust
彼此@@
柿@@
电池@@
竿@@
繼@@
诫@@
◄
憬
报价@@
脯@@
†
缄@@
詹
Ident@@
合板
肱@@
幕式
格兰
诵@@
Goog@@
扳

Fort@@
匕@@
渚
秽
花园@@
荇
︽
基准@@
櫓
热性
不论@@
东道@@
极管
殊@@
禀@@
秸
畸@@
號@@
踵@@
媚@@
赘
髅
中海
伎@@
扦@@
髌@@
桦
湃
臻
闽
单元@@
垦@@
姐@@
瘪
保修@@
威廉@@
涓@@
志愿@@
恙
慷@@
期徒刑
議
自来@@
幼儿@@
黔
娥
惰@@
鞘@@
Б
汰@@
渎@@
現@@
话说
克兰
悴
疙@@
酌@@
镧
涎@@

腭
颁
戊
分泌@@
剪贴@@
湮@@
理查@@
許
ii@@
В
呵@@
壶@@
嫉@@
林顿
蜚@@
ias
亚马@@
導@@

Pers@@
cription
吸烟@@
復
搂
撕
穹
識
闺@@
阁@@
针织@@
饼@@
吠@@
桅
写字@@
外商@@
腌
辽
邂@@
镊@@
SSE
κ
佣
橥
盼@@
鍜
刪@@
房地@@
腔镜
钇
呕
寐@@
编译@@
西门@@
鑰
枉@@
矾@@
重复@@
顯@@
初步@@
榔
撮@@
艰
赃@@
灿
瓢@@
祢
菌剂
Py@@
元法
兮@@
灿@@
砧
萸
鳄@@
戛@@
掐@@
衍@@
纪律@@
虞@@
立足@@
莴@@
蜱
Ў
诧@@
鄂
Τ
报警@@
製
顾问@@
即用
巯@@
憔@@
逅
aracter
全书
忽
攒
石方
遮
汝@@
流感@@
珐@@
㎜
殴
躬@@
内华@@
嗦
棵树
詳@@
轶@@
TEC@@
诙@@
Servic@@
芦
触摸@@
鼹@@
Refer@@
屽
巴马
牧业
痫
芩
骞
⑷
世贸@@
华尔@@
经理@@
不尽@@
克林
琐
蚯@@
貂
嘟
琶
痘@@
纳米管
酣@@
iki
义词
嗣
媳@@
梗死
珑
色金属
勭
浣@@
驮
岸线
蚌@@
遮阳@@
箴@@
霖
У
來@@
惚
Catal@@
印度尼@@
沽@@
筿
威士@@
展商
庐
皖@@
榕@@
模块@@
發
瞒@@
粟@@
恬@@
文物@@
热油
Energ@@
Lic@@
吡
妃@@
荐@@
行
丅
年生
骡@@
渊
看得@@
藜
贱@@
鐩
呭
緊@@
密集@@
瞅
erra
原则@@
寂@@
帷@@
枢
荆
钣@@
http://www.microsoft.com/@@
当今@@
棺@@
氙
钕
俾@@
屾
瘩
均衡@@
新生@@
聚力
型肝炎
宙
獭
综
亵
傍@@
嘀@@
岚@@
惶
涯@@
厮@@
焖
纪要
所罗@@
滴定@@
负载@@

纭
蒸馏@@

unic@@
侃
入学@@
袤
资讯@@
鏀

Medi@@
札@@
跆@@
注目
aul@@
➣
一体@@
啊@@
锭@@
О
孤
濇
爵士@@
癜@@
眷
睑
踱@@
ager
合格@@
榄
萜
Typ@@
М
娴
柴油@@
處
LAB
唆
啃
绘图@@
蟋@@
迩
挛@@
皙
馒@@
amil@@
加勒比@@
迅
拎
焙@@
鞣
倘@@
麋@@
鏄

介电@@
員@@
坷
闃
阿姆斯特@@
厩
孳@@
溺
衫@@
裘@@

plication
槐@@
Joh@@
▼
参加@@
吁
皈@@
颐
毛泽@@
袜@@
闵@@
攫@@
立大学
臆@@
Replic@@
即时@@
坟
媛
栎
膺
莽@@
類
叧
宏观@@
巅
格拉斯
蹈
Admin@@
妍
盔
锢
亚胺
寇
换器
掣
К
囚
巴基@@
洽
膳
One@@
娲
溧@@
統
缚
利尔
审查@@
蘖
厕@@
眯@@
谣@@
斯通
牋
視
驼
ml@@
嶅
搜
瘀@@
艏
It@@
占有@@
咫@@
扛@@
Wi@@
奋
浏览@@
郝@@
㈡
巴拿@@
潼@@
shot
拙
舶@@
啁@@
回顾@@
從@@
工商银行
水冷@@
路由@@
髂
曳@@
清晰@@
目镜
菅@@
ength
博物@@
吠
寰@@
褪
蹈@@
阳区
inu@@
峪@@
崂@@
蛀@@
Talk
惫@@
懈
遠@@
愕
推进@@
核素
莹@@
靴@@
瀵
藕
黝@@
oli
反对@@
尹@@
盹
織
人道@@
解析@@
땡
噬
疑难@@
埃德
姗@@
癫@@
羁
NetW@@
衔@@
谟
陕
還@@
嚼@@
扛
暧@@
绅
茜@@

大理@@
滇
镐
龋
务人员
呜
悸
酞
骰

依赖@@
心病
Produ@@
ontro@@
渝@@
瞒
艘@@
虐@@
吋
周围@@
撩@@
婊@@
闫@@
静静@@
外线
琦
秩
Jav@@
↓
瞬
嚎@@
奕
摹
然不同
翰@@
靡@@
Bul@@
害性
扉@@
特许@@
碌@@
讽@@
咱
撇
楷
璶
足轻重
选人
鎺
阮@@
독
oth
㈠
忡
斷
荚@@
鏉
僵
协商@@
呕@@
贻@@
躏
逞
﹕
涪@@
瘸@@
祺
菁@@
蹦
加州@@
姥@@
弈@@
扪
橘
洱@@
竞
腭@@
萝
郫@@
铎
spect
篪
斡@@
涎
萼@@
蝉@@
報@@
撌
椤
烛
Р
低压@@
歉
瑜
电路@@
荞@@
货物@@
蹂@@
嚷@@
姘
嬗@@
岗位@@
胁@@
η
咏
沧
讬

iPh@@
畴
镆
蕨
轮廓@@
SDL
冷凝@@
十九@@
唧@@
对比@@
蒿@@
蕃@@
语法@@
关注@@
娄@@
孟加拉@@
美利@@
虞
⑧
伦比
戟
销商
rich

会者
勉@@
词汇@@
馁
欺
瘟@@
聂@@
Navig@@
啄@@
瑶
鸽@@
嘶
壕
外资@@
＄
rect
stre@@
俨@@
机动@@
殅
缕@@
铛
oog@@
不敢@@
土机
栋@@
硉
Calib@@
入量
忡@@
樊@@
诋@@
钍
吁@@
鼬
＊
弥
挽
獾
睾
糙
蚜@@
鍊
字符@@
挪
萧
承诺@@
蕉
藜@@
erp@@
俄亥@@
碇

ULL
无缝@@
讼@@
FQ@@
侗@@
喹
普勒
鏁
順@@
便携@@
哮@@
枷@@
剃
匈@@
曦
模具@@
确保@@
韭@@
Fire
喽
录名
胭@@
倪
灸
蝠@@
Σ
拉丁@@
掳@@
梓
甫@@
癫
胶原@@
垣
妓@@
描述@@
海地区
啪@@
憾
焚
节性
贯彻@@
踌@@
僻@@
匐
匠@@
踞
¿
冤
切断@@
涧
碲
继任@@
苞
You@@
不复@@
券@@
矽
弛
方程@@
涤
艉
蛤
雍
俞@@
意外@@
憑@@
捷克@@
有线@@
粽@@
郡@@
鹫
唤@@
序列@@
旅费
缇
藏室
呯
嗤@@
炬@@
铒
马克思@@
世界大战
为一体
毂@@
汀@@
璜
DMP
克萨@@
分卡
婶
認@@

Conso@@
徑
掷@@
筵@@
轴箱
鳖
Qo@@
word
棺
涝@@
畾
窍
叶绿@@
建议@@
漓
荼
萌
誌
部长@@
锄@@
Т
咱@@
笺
威特
浑
結

不
恿
指标@@
檀
氖
祘
蝙@@
誉为
遏@@
揚@@
浙
膳@@
蛛
长的
崟
攒@@
玄
Enterpr@@
傀@@
档文件
耙@@
蜥
酞@@
禄@@
课堂@@
﹜
agu@@
嫂
掏
榛@@
篓
纾@@
血红@@
鍥
ther@@
ycle
哆@@
哈尔@@
巡
爲
皓@@
愚
施加@@
诬@@
∠
总表
暹@@
闪闪@@
〞
亥@@
谦
≈
♫
参赛@@
瑰
隧
鳌
Hyp@@
兖@@
决定@@
尽可能@@
怂@@
槛
辰@@

孜
开展@@
挟@@
最大@@
渥
湍@@
纳税@@
蚴
邱
靛@@

gram
刁@@
惋@@
骶
乌兹别@@
力器
奥林匹@@
炽
郸
阐@@
XY@@
娆
紨
螟
雄心@@
颚@@
褂
鳟@@
嬭
恢
拴@@
祟
缰@@
罔@@
閒
麦当@@

一下@@
凛@@
嗝
嘿@@
联机@@
腋
蓟@@
钜
龚@@
야
惮
粺
菉
不觉
壬@@
尽量@@
搓@@
破产@@
Pad
事会
娓
峨
癸@@
贼@@
饺
禺
薰
伫@@
埗
瞩
Cloth
SYST@@
啃@@
挟
调度@@
谈会
负面@@
鍐
一十
倔@@
抛物@@
灵敏@@
碾
粹
蚜
阉@@
下一@@
之为
全权@@
攘
斤@@
焗
揭
昭
诣
闫
Tot@@
安大@@
柑
鑒
鲈@@
噁
萜@@
锂@@
ht
俐
并非@@
庚
淌
潺@@
缃
語@@
麝
煌@@
眺
维尔@@
蝎
鸦
偎
绗
鸠@@
瑁
蝉
⁄
人力@@
啰
煞
禹@@
始终@@
冊
堕@@
汰
璋
萃@@
傣@@
建设银行
町
Manage
囧
摩托@@
沫@@
锣
犀
绀
靛
马斯
髋
寧
义务@@
制冷@@
ф
呱@@
洄@@
砰@@
蓉@@
蝠
郁症
天文@@
膨胀率
臼@@

啟
啥@@
喀
宸
寥
氘
续费
苎@@
苓
葺
褥
轴承@@
鹑
丫
彪@@
桁
泾@@
cover@@
揑
濮@@
绱
黨
yle
挖掘@@
明显@@
牲
瞰
秩@@
评论@@
麒@@
啜@@
袁
貂@@
┪
全民@@
司令@@
嗡
埠@@
柬埔@@
陋@@
馨@@
Μ
嗗
禹
钧
鼾
蔼@@
踊@@
袒
龋@@
么@@
沥
煨
盢
秧
萍@@
阑
麸@@
龈@@
印花@@
嵴
贫民@@
蹊@@
魇
嚎
拈@@
胛
腆
艮@@


Note
岚
崭@@
瘟
私有@@
酵
階@@
則@@
樻
記
鹊
Found@@
朽@@
泥浆@@
環@@
痹@@
蹩@@
и
絋
原油@@
攘@@
楠@@
粘剂
紧要
胫
蓟
谤
clas@@
祷@@
¤
以色@@
剿
吮@@
技术上
莆@@
鳗
枇@@
梓@@
裴@@
鄱@@
yz@@
土墙
潼
蝇@@
鍘
aLUN
压口
嘻
帖@@
斯勒
縮
鹌@@
撷@@
试者
忒
愉
笃
Plat@@
晟
穝
裱
評@@
青藏@@
名胜@@
歉@@
辙@@
嚣@@
绯

р
俸
分隔@@
啡@@
歧
箕
霄@@
驗
坍@@
汽轮@@
羡

度高
絏
贪
蹋
闰@@
¾
廿@@
濡
粳@@
ooth
体中文
内政@@
呢@@
攥
‑
◇
☐
徕
炳@@
癜
監@@
贲@@
跷
鑑@@
圬
鈕
升机
占有率
咚
姻@@
绾
能性
选框
预测@@
ramet@@
咎
械@@
泗@@
瀑
蕉@@
遵
鹃@@
犷
管器
篡@@
蚪
證@@
加速@@
卯
噩@@
实习@@
填充@@
家用@@
悍@@
窟@@
翩
虱@@
蚌
骶@@
出人@@
呤
揣
祠@@
因于
愣
燧@@
鲱@@

烧炉
箴
勉
期付款
架结构
臃@@
馅@@
х
蛭@@
郸@@
´
伅
兘
嘱
胛@@
포
㎝
讀@@
钴@@
隼
鲁棒@@
傅
彪
斩
示威@@
苷酸
訂
鑳
阎@@
雯
鸳@@
鎮
¼
玻利@@
閿
Tas@@
帳@@
邋@@
霄
燈@@
資
witch
嘘@@
对性
水力@@
薛
袍@@
뵨
˙
停机@@
斛
椿
瞶
種
钞@@
青海@@
丆
哂
国主义
对称@@
岱
渺
苇@@
务员
拰
脖@@
舒适@@
蹑@@

惺@@
楦
樾
И
倘
命令@@
擬
琌
诩
邑@@
鎻
乓
吉布@@
辈@@

儡
Enter@@
亚历山@@
哌
土库@@
汾
特网
疵@@
絡

份文件
彤
稱
间隔@@
麼
昙@@
涮
理工@@
茧@@
远程@@
遢
饥

堇
密西西@@
痔@@
醣
剁
壕@@
姥
竚
虔@@
Analys@@
埔@@
漱
赈@@
佃@@
推广@@
煦

Effect@@
⑸
克逊
條@@
钌
據
話

唧
娑
珊瑚@@
咋
正比
跷@@
陌@@
Xt@@
о
昧@@
榆
燃料@@
疲
菲律@@
視@@
兀
痒@@
祷
芭
赣
踉@@
铱
鬃@@
Cross@@
沱@@
腱@@
轭@@
高峰@@
巍
肱
詢
鎬
廖
时刻@@
麻省@@
共和@@
叮
喳
孀
履行@@
撚
栀@@
棰
秙
镌@@
ista
桅@@
粄
藩@@
蟒
麸
Conn@@
Unic@@
垛@@
堕
認
铠@@

Email@@
uic@@
痔
癟
阿里@@
偵@@
芮
BRE@@
Eff@@
佸
勮
噼@@
沒
蝌@@
衢@@
轼
醛树脂

蛔@@
蹤

DoS
丰富@@
昊@@
桡
琥珀@@
痰@@
秽@@
躞
迄今@@
容性
戎
擒@@
敝
槑
箝@@
嗘
囦
幺
猬
谙
阜
Г
沛
癖@@
曙
阋
度盘
摧
枉
義@@
铤
暨@@
汜
火力@@
配置@@
酗@@


吮
產
砚
虛@@
郵@@
鹦@@
χ
挠@@
流板
高新@@
鲶@@
麂@@
Invent@@
啄
啤
徜@@
禧@@
金正@@
Corpo@@
史密@@
戚
檗
沦

Box@@
務
惘
搂@@
杞@@
桓
粒体
腼@@
契
isor
婶@@
珩@@
缂
鍛
防喷@@
雷诺@@
xt
芾
钕@@
伎
位角
忑
蛭
凝析@@
奥林@@
怦@@
或多@@
烨
积金
螈
裘


晦
觑
￠
庵
悊
炯@@
瓿
辘
闄
集器
離@@
俯
光度@@
嫖@@
明尼@@
痴
穧
缚@@
軟@@
増
尼泊@@
资源部
颠
microsoft.com/@@
制度@@
嚭
婢@@
魄@@

Н
岃
瘘@@
皵
菲特
а
寓
柞@@
灸@@
膀
讓


匾
苯丙@@
遺@@
饵@@
首要@@

乒@@
仗@@
倩
劾
最终@@
淑
荪
鸡尾@@
colour
焉@@
瘫@@
貫
打字@@
橡
股权证
葩
匈牙@@
屏幕@@
捶@@
葆
兢
堝
怎么@@
熻
狒


几内@@
叆
呎
娓@@
嫦@@
熷
褰
高尔@@
嘲
国际劳工@@
定居@@
时针
滓
讹@@
Finder
侃@@
修正@@
兩@@
姨
微波@@
掸
椹
沁
矶
硈
马萨诸@@
運@@
Ⅵ
↑
∞
厞
莨@@
装载@@

巳
斯拉
镭@@
顷@@
鲾
Particle
Д
佹
撟
敏电阻
欷
甬@@
说家
俭
憶@@
潺
際
‧
←
不合格@@
例行@@
冽
尿管
独裁@@
作用@@
晾
湪
营企业
钎
亇
呴
泾
痷
給
芋@@
鹿
е
姊@@
桉
疽@@
礴
螯
褛
铆
垠
朊
锲@@
寫@@
嶇
憩@@
茹
踵
合众国
镫
坨
奕@@
稰
護
鬣@@
人节
件箱
焙
稽
蛟@@
dell@@
乒乓@@
傛
分裂@@
摳
芸
闆
鳌@@
샀
五角@@
佤@@
妩@@
孚@@
衙@@
霭
頭@@
为数@@
杷
裆
變@@
哺
憨@@
懋@@
歹
濮
悄悄@@
憋@@
掐
机密@@
浼
激励@@
狒@@
痹
縮@@
褴@@
质体
適@@
鲤
﹒
篦@@
哔@@
啡
岿
罄
菖@@
蛀
赝@@
鄞@@


付款@@
幔@@
摺
桠
踹
逆变@@

偕@@
前所@@
呷
哽@@
基苯
戎@@
氪
禺@@

Ω
備@@
樊
绞痛
舜
驯
噱@@
报单
載@@
主机@@
娱@@
沓
胴@@
袅@@
解调器
鲕
enger
中美@@
冢
坍
姣
巴比@@
椇
澄
聯
胞胎
調@@
在我@@
屿@@
腻@@
镝
交汇@@
圍
壑@@
夠
崽@@
猩@@
唆@@
嗙
揪@@
櫒
泓
玫
谬
榛
鏇
佯@@
忓
摞
经过@@
证书@@
剌
筝
節@@

佺
叨@@
对话@@
庫@@
灉
蓓@@
蜇
註
赭@@
路易斯@@
鲨@@
供电@@
徨
潴@@
瓯@@
粇
耿
蜢
闂
会社
加勒@@
捲
˚
呛
夏威@@
多巴@@
岀
枚@@
漕@@
股份@@
贬
锄
㈢
寧
漉
玺
蟒@@
誊@@
Exch@@
WIS
業@@
琩
陷入@@
一览@@
姊
平层
徉
笅
羌
蚣
遨@@
修道@@
劵
坿
殃
疟
眒
蟆
戝
糖尿@@
髻

區@@
夎
恣@@
懋
阿富@@

啼
炊
邵
铕
颧@@
鳍@@
黍
넋

垄@@
榭
烬
籼@@
萇
鹊@@

圖
塑性@@
朦@@
霎@@
ў
∑
皑
芘
馥@@
Sea@@
小的
嵩@@
炙
篱@@
蜈@@
躇

倪@@
喵
岬
砥@@
谑
ivers@@
三聚@@
嚓
妨
擂
榉
疡
螨@@
醺
№
咧
幌
搽
检察院
求职@@
演唱@@
鎼

坦桑@@
尧
莘@@
镭
역
尋@@
抵押@@
暇@@
榕
沛@@
竺@@
糅@@
鑷
项式
⊙
凈
尧@@
捍@@
皑@@
蒴@@
车组
頂

倇
巴勒@@
慵@@
拭
方人
灌木@@
谚
蹴@@
吞吐@@
梵
網
蛾@@

俟
匹林
挎@@
清华@@
蕃
角色@@
蹼
鬃
嬫
斯坦福@@
赃
辄
返回@@

fig@@
侪
喳@@
惦@@
瀚@@
膛@@
芍@@
莠@@
遏
铊
墋
爹@@
篦
aco
埂
泣@@
涘
螳@@
违规@@
ｬ
Π
⑩
弩@@
杅
杵
槭
气式
豉
跄
髙
thon
夭
睢
⑹
囨
孽
摫
擘
烽@@
牒
窘
肯尼@@
밑
媳
旂
痫@@
鎭
马里兰@@
主人@@
礛
绫
缜@@
诿
谔
鸯

利
.asp
亦然
孰
樿
為@@
羲
腮
Θ
樱
歇尔
谄@@
谆@@
踮@@
卫生组织
嬷
鲟

є
咋@@
监视@@
簽@@
讷
醯
屉@@
殷
都会
Wh
幌@@
意向@@
掀
槲@@
汲@@
涔
皓
腓
荀@@
Biz@@
摈@@
滀
舀
萋
譬@@
骺
鸢@@
Cube
cook@@
啶@@
嶄
讹
鍨
雏
播放@@
昵
虻
遛@@
annel
楀
皚
私营@@
醚@@
dif@@
fore
呦
唷
変
姝
檔@@
淅@@
砼@@
菸
饯

unity
帕金@@
怓
旎
瞠@@
紑
阌
飙@@
仪表@@
啧@@
妯
岫
昊
莠
躯@@
嗕
囔
岑@@
懦
樟
湁
癳
袒@@
诃@@
践
靓

合伙@@
撋
痦
磞
芷
苋
蒽
豇@@
镳
颍
묏
옵
京群岛
傢
撵@@
腩
默德
Quark@@
监管@@
线器
绰
翟@@
藓@@
规性
过程@@
马尼@@
속
Ό
哩@@
害人
惴@@
煅@@
维吾@@
芍
谏
跋
量分析
垄
娼
峒
扢
殓
濡@@
篩@@
負@@

仟@@
包方
卡罗来@@
專@@
挎
测定@@
滦@@
烙
碼@@
脭
蚝
鎷
т
中外@@
坚定@@
場
袄
額
콘
庡
趸
铉

⑨
岖@@
摬
撘
槎
滁@@
而下
脖
讪
鼾@@

爱好@@
精力@@
傍
彻斯特
椂
滆
疝@@
绦@@
骸@@
鹈@@

嫣@@
悳
窈@@
荃@@
菏@@
進
錯
吗@@
寇@@
帛
構
竴
絬
蚚
鞠

娣
宇航局
摽
柿
汊
淘
滥
痢
茗
阄
頻@@
Mic@@
垨
撓
斯拉夫
瀅
耆@@
蛆
roid
〝
壅
彰@@
芎
鄂尔多@@
陆战队
tw
›
丁堡
偅
姟
机构@@
蟛
鐗
忻@@
樣
汲
濯
蜃@@
辜
鞅
鲷
elop@@
htt@@
枞@@
漉@@
碉@@
葆@@
辘@@
遁@@
理
с
尼克斯
損@@
摹@@
膊@@
蠯
基亚
奂
揪
栽培@@
簲
绛
绢@@
蚱@@
鍦
閉
阪@@
叽
恤@@
恺@@
振荡@@
澈
羯@@
艇@@
铖
鹳

佔@@
兀@@
央
挞
搔@@
柠@@
湰
籠
﹀
忐@@
如一
撅
樉
籁
義
芮@@
达姆
顷
骤
＇
弋
犳
矜@@
芎@@
鍓
驟
梏
炜
用性
祗
荽
蓦@@
鲫@@
乍
亘
拗
毯@@
筷
篆@@
邛@@
基金组织
壬
岱@@
嶆
电偶
粼
聚氨@@
胯@@
钒@@
microsof@@
亳@@
呒
妒
枭
汝
眯
總
dex
擷@@
桎@@
特兰@@
箫
羰@@
剁@@
奚@@
學
恃
熹
甥
蔚
藩
锪
麟@@
▄
二甲酸
咖
嗎
擒
无家可@@
汕
耶稣@@
耷@@
诽@@
飙
￡
坂@@
墅@@
尹
授权@@
樺
胼@@
腥
莪@@
跖@@
辆@@
nap
姞
敖@@
白血@@
蚂@@
僅
婺@@
掰
魅
㈣
可口@@
战队
户名
状况@@
舾@@
锇
梢@@
焕
胫@@
蜊
Discover@@
Vie@@
岬@@
慑@@
採@@
浒@@
电筒
箇
绮@@
蝗
郴@@
钹


因果@@
能器
處@@
說
鹬
Cook@@
丶
亘@@
岐
徒刑
決@@
湎
聯@@
铷
amily
怖
檢
皖
見
谩@@
钆
默认@@
RADI@@
Ί
叟
屠
惇
有者
绉@@
茹@@
項@@

比克
瞟
﹞
撊
有限@@
笋@@
舜@@
镕@@
閘@@
韬

冥
捎
甯
谤@@
呗
泮
绦
议者
蹇
Assist@@
娶@@
弩
掖
磋
茯@@
菪@@
袂
骛
┮
圖@@
埌
報
捎@@
枃
粏
粼@@
不久@@
偌
咀@@
摁
有点@@
森堡
淖
溯到
熠
鱗
佝@@
俩@@
暫@@
濋
牍
瓮
粑

摰
爜
莺@@
袅
豺@@
冼
屼
怅
皗
绽
绽@@
蒺@@
蝽
衅@@
锑@@
鳅
믈

Э
倩@@
刽@@
礚
羯
保质@@
始人
憋
柟
璝
砑
秸@@
脊椎@@
诟@@
鐘
除术
震器
峋
开工@@
恸
惆@@
擂@@
桓@@
榔@@
無
瘁
磊@@
磐
н
世界贸易@@
亥
亵@@
呱
嶙@@
当事@@
沐
油厂
矸
試@@
越性
鲎

︾
儲
是说
⏹
允许@@
嗖
嗣@@
悚
放射性@@
璞
睑@@
臱
蝾@@
讀
阿尔及@@
｜
增值@@
氛
洿
置权
鞑@@
‍
偿还@@
卞
地亚
堟
塬
掣@@
机车@@
眈
详细@@
钐
摴
達
鐥
帚
揃
旖@@
权利@@
绋
흙

TRL
喇
姤
础
稼@@
窒@@
轮驱动
FIF@@
叢@@
嫂@@
忑@@
杳@@
柊
椽
癸
輯
郪
锾
itect@@
╱
垣@@
栧
用表
繫
鎶
凝结@@
吭@@
寞
峈
庢
庣
胄
赦@@
ﾄ
￣
Prod@@
╘
三明@@
地铁@@
埛
岑
旌@@
歼
糔
習
限制@@
髙@@
„
倭@@
冼@@
戶@@
暄
loss@@
宕
帶
猁
胨
舔@@
藕@@
look
佽
昴
犊@@
給@@
綅
缈
脂酸
豚@@
佛罗@@
刈
热点@@
璧@@
相比@@
碛
通知@@

原料@@
咭
愉@@
戾
訊
門
閾@@
彿
橼@@
紡
芰
阿根@@
ψ
侮
嗏
娄
胬@@
调式
颏
鳝
Blu@@
冨
吭
坤@@
埼
婢
性气体
憝
扮演@@
沙特@@
溥@@
穆斯@@
薹
蚧
遲
땍

伺服@@
婧
延迟@@
淳
眤
襞
随地
麾@@
ASC@@
Ⅶ
巴塞罗@@
栉@@
牦
砚@@
繚
约瑟@@
聆
酊@@
駕
冗
咔
垚
奠
楁
祫
綋
綍
考虑@@
蘑
铮@@
Ώ
Ч
儴
妳@@
实在@@
庶
戟@@
搔
涕@@
滔
療
硄
綔
胝
膊

ECD
Ⅷ
嶈
巽@@
榀
湮
鲭

冠状@@
曝
苹
转化@@
迳
･
Λ
憷
批评@@
波士@@
芫@@
馍
骄
例
摒@@
水系统
異@@
穦
笞
绺
蚤@@
髂@@
鹉@@
Ή
卉@@
姗
恕@@
懵@@
昕
枋
汹
睲
讳@@
鏈@@
飒@@
샙

懇
橱@@
獒
突发@@
膈@@
钡@@
锩
雉
鹕
鹭@@

嵁
帴
弿
戍
攸
罹@@
鍣
點@@

愣@@
掃@@
櫎
湄@@
笉
脒
莎白
菠@@
郴
嬬
氳
维护性
郝
閒@@
鳕
http://go.microsoft.com/fwlink/?@@
΄
厎
圩@@
复印@@
札
瓢
痿
絕
蠊
议书
音机
題
伙伴@@
扪@@
藿@@
鲈
Libra@@
一氧化@@
俺@@
宇航@@
气性
洪道
胯
镰
陲

投标@@
极其@@
腙
记卡
鬓@@
돕

isco
viron@@
丽特
件人
寿命@@
忖
揚
瓮@@
維
蛊@@
驿

IPv@@
pert@@
乞
侄
囀
娼@@
嶂
炕
盞
碴@@

妗
濑
癋
福建@@
胁
臻@@
莱坞
觎

夙@@
拗@@
楄
狈
穨
蒩
钊
饬
Explor@@
Front@@
泰晤@@
缥@@
蟾
術
觊@@
論
鐪
上万
圜
帇
承载@@
撴
本位@@
淆@@
淼
矗
簡@@
蛰@@
镂
顽
骐
Hit@@
м
ц
咘
抠
甾
酊
鍵
格达
滈
燎
狸@@
缦
菇@@
蓣
衩
蹟
잿

Sec
inity
к
∕
搪
撔
火花@@
瞿@@
窥镜
莪
谿
钬
黝
Assist
劃
接头@@
揤
満
纖@@
维加斯

年
Pow@@
acebook
匐@@
尘器
躇@@
销员
册子
擤
曙@@
水土@@
約
繃
邻苯@@
鎹
颔
叩
吉尔吉@@
啬@@
恺
湍
矫
緵
逮
随者
體@@
DMI
≡
圩
愪
殃@@
磕
贵州@@

侮@@
士们
婃
寚
斯里兰@@
晷
滅@@
燎@@
隶
鲆
쇌
click
傞
地亚@@
墦
婷@@
心律@@
恃@@
柩
璃@@
石膏@@
莓@@
铿@@
馋
龚
懟
玮
鐞
鲑
叱@@
炳
疥@@
瘸
癎
秖
限定@@
險
꼇
삶

喱@@
奇偶@@
婀@@
嬷@@
彲
擞
斯洛伐@@
枷
楝
獲@@
眸@@
祀
胥@@
萬
虔
Curr@@
利害@@
墟
決
洰
狩@@
还价
Γ
一想
呀@@
场主
姹
濂
灞
盂@@
蘑@@
讷@@
跖
酩@@
髌
受性
哧
律性
微分@@
拇@@
掬
糯
腘
蒐@@
螅
裴
饨
伶
佈
嗛
多伦@@
棂
正弦@@
着眼@@
藿
鍩
勐@@
噺
嚴@@
埃塞@@
涣@@
淸
盐岩
粯
阙
鷍

﹍
习班
亚伯@@
偻@@
钧@@
黜
Ο
发器
宦@@
肃
膘
Eclip@@
в
僭
匯@@
姛
工后
愬
撼
改进@@
祟@@
竺
蛟

witter
⑺
偻
扈
撐
毀
熸
瞰@@
研讨@@
硒@@
缛@@
蛉
计值
離
렘

◦
四氟乙烯
撝
日内@@
杓
樵@@
泥板
瑕@@
筘
解剖@@
遁
併
曜
皎@@
钗
髹
☑
峭
戍@@
次于
漯@@
犸@@
狀
瑾
盅
眖
禀
翱
芴
衍生@@
醺@@

娩@@
媨
德意志@@
戠
祇
窕
角落@@
跺@@
Fx
濑@@
瘖
荟
蹶@@
郘
阮
鳐
Ё
∙
侦
摯
时器
晏@@
栨
犸
笔记@@
龊
턍
产儿
姏
弬
惭
攞
欄@@
裱@@
鎿
隊


Veloc@@
kad@@
∈
佷
咩
忔
氬
滦
煡
祯
超出@@
陌
馄@@
凝汽@@
垪
拚@@
排除@@
搡
擀@@
觫
辽宁@@
酉
隽@@
霰@@
꿋

Fig@@
勯
嘅
噎@@
孑@@
憳
揝
棿
翡@@
鈕@@
银河@@
锏
锵
ascript
咂
形态@@
晌
最小@@
碁
讣@@
趸@@
辑@@
辕@@
Jagu@@
俞
囪
屬
棩
毙@@
煜
绅@@
費
阆@@

力
∆
塞性
姢
娈
擁@@
謅
路器
鹚
ｵ
Bip@@
仄
可靠@@
吆@@
寐
撐@@
暟
癞@@
致于
荂
법
흔
丄
妲
汐@@
消火@@
涩@@
牟
簬
贸易区
铤@@
閰
anced
Ά
厤
拢@@
樹@@
睛@@
篾
纠
萨诸@@
葞
诏
骁@@
尰
岺
沓@@
纰@@
羹@@
宁波@@
小康@@
嵘
捶
棗
洘
舀@@
龌@@
狼
ｹ
匾@@
卿@@
地利
奥兰@@
寅
寅@@
崴
救护@@
楸
榻@@
硷
禂
節
職@@
陂
ｸ
ﾐ
佗
厥@@
嗷@@
墍
涮@@
肛
裥
鲵
俑@@
刍
哔
彳
忒@@
或缺
挳
摷
莼
钪
陂@@
啷
嗑
意识@@
畲@@
笂
箕@@
通公司
逞@@
馔
≧
┄
不移
佢
倌
妫
惕@@
椰
槃
浏@@
狈@@
瑞拉
畗
簸@@
難
SLT
unct@@
剿@@
发挥@@
垎
埃塞俄@@
塊
塞浦路@@
壓@@
強@@
悸@@
捋
犒@@
生人
磾
窖@@
竣
膨
费时间
锟
≦
噎
录像@@
拄@@
淙
牡
衄
跛
镱
혤

呸
沱
皤
蚋
針

奀
巴嫩
摺@@
淖@@
炯
甑
臭氧@@
醫@@
쇱
asi@@
▽
佘@@
嘧@@
噗
摄像@@
斿
无处@@
涢
濈
皢
等高@@
筵
羿
艮
迢@@
隶@@
齡
嗚
宄
彸
斯加
梆
氦@@
涫
胧
舶
隅@@

soci@@
忚
摩根@@
洙
狰@@
胂
诏@@
调制@@
谒

⌀
╰
墨尔@@
弭
承受@@
抡
柘@@
湄
狞
畫
笈
紙
芷@@
蕈
证明@@
颀@@
鬓
鲷@@
닸
청

佶
夌
愫
檥
燊
璐@@
篈
訂@@
邹
錄@@
闇

伯利亚
僰
愭
撏
狝
珲@@
绔
缤@@
臊
蓓
赛克
骅
phere@@
捩
瓊
眶@@
閽
齌
金
Civ@@
哈根
妞@@
峁
攣
栾@@
棣
榴
理所@@
甬
路径@@
踱
镖@@
鸪
친
폘
Ї
僚@@
固醇
悗
愯
敓
浒
湴
潞@@
潤@@
皋
轨电车
驮@@
鹧@@
벌

啻
寜
層@@
澗
物箱
瞷
萝卜@@
襄
許@@
說@@
货商
鐮
厈
猭
琦@@
脍@@
莼@@
chan@@
可视@@
咦
旯
歷@@
渲
湛
瀑@@
瀷
珨
阡@@

丞@@
偍
吖@@
婂
彝
瓦时
筐@@
籼
聘者
荏@@
辕
周知
層
恫@@
桢
氖@@
犻
獺
蝓
迢
Л
咙@@
垭
奢
戌@@
揂
摲
濬
薏@@
蹬@@
限性



umber

冉
效应@@
涜
清洗@@
濠
瓧
癘
秘书@@
节数
蓼
过氧化@@
亩@@
呛@@
堀
核数@@
澘
瘿
稃
耸
茛
螢@@
记事@@
邢

colo@@
他命
剔
尉@@
熺
玛格@@
缝纫@@
聆@@
荤@@
蟠@@
诮
飚
饕@@
鸢
儆@@
樽
繑
缰
聂
蛞@@
衢
货人
铮
骅@@
鲟@@
鳏@@
一化
咨
噶
实现@@
汩
生素
蔫
辍
郯@@
镣
不足@@
侗
俪
唉@@
娉
悯@@
毗
玂
玳@@
綌
纳森
缫@@
茏
锍
馐
숭

IMAX
Sour@@
pport@@
│
佇
噻
娌
婓
敼
椽@@
羧
蘸@@
钥@@
Autodes@@
d0@@
ξ
З
傚
惺
椴@@
氓@@
氲
璇@@
祛
籃
翎
袢
诘
详情@@
金字@@
鑽
WebS@@
中枢@@
劤
噩
掰@@
曼哈@@
槄
炔@@
犄@@
簮
类似@@
褫
镘
闈
響
吏@@
咎@@
團@@
媾@@
戞
摶
終@@
胥
褓
谙@@
蹿@@
銮@@
뫘

Ж
倭
偞
形势@@
愆
濒
産
硶
蜁
赅
镨
빈


¹
Έ
上而下
亄
分之二
咝@@
塾
珩
礹
紇
西格@@
딨
묘

Κ
丝绸@@
咆@@
挛
江苏@@
浘
浚
狾
璞@@
痦@@
稷
紊@@
蜥@@
镣@@
객
똚
fw@@
Ц
不用@@
佟@@
偃@@
彗@@
接地@@
炴
癔@@
蟓
近几@@
钰
隽
頂@@
넣
凇
弈
拷
擩
栬
栲@@
桀@@
珐
珞@@
罡
苋@@
萬@@
萱


冩
嗒@@
減@@
湟@@
潰
羡@@
胱
长率
鹜
북
｢
ζ
優@@
卡人
坂
嬩
帷
形术
掑
瘴@@
经常@@
讴@@
诘@@
轻轻@@
高尔夫@@
黑龙@@


Tube
lang1024
体制@@
囩
庶@@
摱
烁
痞@@
等价@@
粍
鏋
阙@@
隨@@
韬@@
鲔

┦
佑@@
嘹@@
安大略@@
怔
沥青@@
潔
畷
糤
羚@@
衮
铼
隋
鲫
麇
똑

Ρ
匈
宥
对点
掂@@
敛@@
星人
浃@@
睪
蒡
蕺
蠹
覽
卦@@
嵩
彤@@
怅@@
捌@@
氫
牛津@@
矜
苑@@
衣裙
钵@@
餮
鬈

↵
✓
嗖@@
嗽@@
埕
嬮
揄
晏
栎@@
槲
泌
深深@@
清器
瓨
羲@@
胧@@
诚地
較
避免@@
隍@@
隘@@
RADE@@
咚@@
問
夔
扺
氭
痉@@
红十字@@
遛
铪
⑻
叭
寘
悎
拖拉@@
更衣@@
欐
汩@@
渭
筱@@
簪
緮
辗

啕@@
墒
峦@@
彁
揩
檫
殇
蛏
駭
鲢@@
벎
igner
傜
獵
睹@@
粳
肟@@
荞
蚱
鏻
cript
Е
Ⅹ
乯
呰
屍@@
怏@@
滂@@
瀛@@
玫@@
該@@
蹿
骡
밗
즈

雷
和谐@@
国际货币@@
在案
嫔
寤
屹
悓
抗压@@
捂
撲
籁@@
鐜
鼩
佻
叻
呇
婕
懑
手持@@
擎
椿@@
槸
畦
瘍
简易@@
績
衝@@
鑑
铛@@
铽


д
乌鲁@@
体积@@
体系@@
僮
娩
幵
摿
撂@@
敖
槿@@
澈@@
營@@
砥
稞
穥
耢
让你@@

enne
南克
嫡@@
沣
箅
除氧@@
SYM@@
Ύ
‖
存为
尨
峥@@
弹道@@
撗
沅@@
珇
珞
礎
茆@@
茚
ｺ
乮
婄
孽@@
我爱@@
橄@@
眈@@
稼
腴
茆
诀@@
诶
鍥@@
雯@@
黉

制定@@
烊
绥
苒
葯
诂
責
鳟


ﾔ
aceb@@
█
僅@@
庝
怆
摪
攸@@
蕙@@
蠡
觐
趴
뵀
嘀
崲
瘻
砻@@
肓
鳃@@
鸲
﹖
力学@@
唬@@
噬细胞
埚
嵊@@
恁
恹
欏
波特@@
缙@@
詳
铧
靳@@


‎
佃
厄瓜@@
呬
憨
掂
纶@@
罝
苇
蚾
診@@
郧@@

Ether@@
NUR@@
伺
及时@@
嘭
壓
戦
毓@@
蛰
螫
賈
预警@@
鳝@@


凛
地平@@
外科@@
巅@@
獠@@
诧
速表
針@@
츱

DBC
QuarkX@@
б
佤
倰
卟@@
坉
巴塞@@
幄
憾@@
柄@@
樵
瀏@@
瓙
盃
盹@@
蜷
鸫
黠
꾸
Suite@@
Β
弃物
棣@@
泯@@
砘
豢
雹@@
든
mmet@@
plor@@
彂
搀
遽

AAS@@
╁
傈@@
出发@@
囫@@
擇@@
攄
書
玡
绫@@
襁@@
角度@@
課@@
门户@@
靥
丕
孱@@
巻
揶@@
无关@@
昱
权益@@
樼
氰胺
玥
皋@@
缨
舆
蝮@@
語

≠
嗬
婁
幡
榉@@
槁
沔
澧
甥@@
聽
逵
﹤
仃
卯@@
哞
宦
快捷@@
成千@@
睐
纗
翎@@
舫
起落@@
遠
갛
傣
囿@@
捉到
椁
毽@@
犲
猳
琶@@
科罗拉多@@
簌
荠
谗@@
度
咛
土木@@
執
屐
惆
撥@@
方药
榧
煸
祅
蛄
谵@@
鑱
閸
阿森@@
鲽

參
擅
淞
渌
爣
睽@@
硌
蒎
蠓
遺
邝
鎏@@
雳@@
鼯



Ϊ
ν
套设备
強
态性
戗
洩@@
砣
簡
補@@
身心@@
鍞
镏
镧@@
領@@
꼬
틱
❑
價@@
啫@@
晤@@
泯
渶
盄
罗拉@@
虫剂
Tunes
┖
上述@@
不在此@@
嘛@@
埋场
墅
嫄
安徽@@
家宝
捷运@@
柱状@@
氝
氱
箐
翳
茬@@
蜉@@
诛@@
蹉@@
配线@@
钰@@
锃@@
靼
颊@@
驍


﹔
Υ
嗤
崙
帑
换句@@
梡
槨
櫌
秷
笢
購
鲡
놔
횅

ｻ
amar
佚@@
嗷
墠
壒
忽略@@
托人
敹
栫
潯
甭@@
異
绀@@
謺
谀@@
镬
颀
俸@@
元前
吝
姣@@
媾
嫉
掔
撎
於@@
渎
渚@@
簭
绮
苁@@
落于
讶@@
读卡@@
谛@@
闅
顧@@
몸
壅@@
恻@@
條
槿
裡
醅
깻

丁橡胶
仪器@@
夈
怦
悕
悜
正则@@
獐@@
聿@@
諉
蹭@@
酴
霏
風@@
왠



fig
倏@@
值问题
偕
啰@@
复活@@
導
揇
朕
棴
殆
誹
閱@@
飕
헹

俾
嗽
噸
尋
抠@@
抿
痧
荑
菟@@
衅
谍
費@@
銀@@
싱
쳄

inuity
啜
婵
崃@@
稔
粱@@
苫@@
颉
ﾊ
Fluid@@
л
伱
刂
叾
徳
捅@@
方体
桤@@
梾
棶
沭@@
瓤
睽
缢@@
胤
诃
豉@@
转折@@
遊
钽@@
鳢
Ctr@@
噯
尔蒙
岄
忿
敕@@
潇
痨
绶@@
腢
舐
蛆@@
谀
货期
颦
鹋



ﾖ
rive
偎@@
嘌@@
梆@@
瞩@@
芯片@@
뎃
╂
傝
妏
樓
珙@@
瘪@@
糗
蒰
谟@@
鐘@@
鹘

﹁
廣@@
撀
敮
熳
荥@@
菀
键盘@@
镘@@
꿎

Ie
Symmet@@
啤@@
嘈
恪
戌
挃
旬@@
曜@@
槺
氤@@
狦
石场
砒@@
籔
觐@@
闳
馀@@
쏵
훙
Rese@@
Worker
下而上
唁
垅
情节@@
摮
敱
瑛
璹
畨
皲@@
脘
舛
茭@@
華
袨
阖@@


▆
卞@@
厝
啧
墈
奘
岢
怙@@
报率
捺
捺@@
敁
猞@@
礶
稅@@
芞
苕
茼
菘
薩
蹙@@
镊
需品


Х
ч
∮
⒉
傩
墿
殒@@
煲@@
篆
緒

立
倡
嗥@@
噔
或少
揅
立陶@@
竣@@
簌@@
綷
胰岛@@
虏
谕@@
赂@@
鏖@@
锵@@
锺
飑
꿴
늪

出现@@
另行@@
孪
庘
柠
玴
理财@@
秉
竻
结果@@
羸@@
莳@@
衙
鍋
镯@@
顢


Mirror@@

侵权@@
價
噙
噜@@
垩
彡
痍
笖
绻
茢
西省
跆
连串
먁


励磁@@
呃@@
呋
嘣
堢
曆
曚
枳
浉
畕
秭@@
蛴
蝣
觞
诡
貉
銷
魔术@@
鱿
鼹
COO@@
利多@@
叏
囬
嫭
張
沌
沏
泸
玄武@@
舊
色板
钜@@
闵
霆@@
靰
骊@@
骥
dana
一对@@
掮@@
涿@@
獢
眦
蘦
讧
質
辦
週@@
鲅@@
鹞
렅
剐
喏
棵@@
楹@@
洮@@
焘
盎
舢@@
薑
蛳
陇
鹂
麓@@
뻣

剌@@
小伙@@
帼
拻
搧
撍
氐
瘠@@
蓬勃@@
蕊@@
鍟
鸸@@
鹞@@
쾨

odes@@
Ⅸ
亊
収
埘
孺@@
宮
彀
撜
晌@@
湇
电所
蘖@@
蠖
雉@@
不负@@
固有@@
壂
岫@@
樣@@
滿@@
痲
礄
祜@@
舂
荻
蚬
訓
踽@@
鲣@@
鼬@@
듐
Ш
㈤
俳@@
創@@
囹@@
外围@@
庤
庨
忛
掛
斁
柽@@
榓
流程@@
潸@@
獭@@
痉
皎
篙
簕
菙
裆@@
財@@
跄@@
醪@@
锨
阉
霓
靼@@
馋@@
돛


ⅰ
之急
作曲@@
冭
咻
垱
埆
幷
朞
殰
珛
疃
瞑@@
礂
紪
货店
髡
헝
ﾏ
✔
磬
莒@@
譢
诨
迼
钅
飛@@
馥

律
万向@@
徹
忕
斨
痞
舉
苏黎@@
荜
荧
葚
衲
鑺
锝
飕@@
뇹
퍅
품
complex@@
complexscripts@@
Ψ
⑽
佾
厚的
叛
可比@@
嶉
搎
撵
汴@@
泔@@
灭火@@
爿
猾
瓯
粜
诰
跗@@
鎯
骈@@
骠@@
髅@@
鳖@@
黾

Buzz@@
Pod
㏑
入门@@
嗉
壆
宒
应付@@
拄
格鲁吉@@
毓
涙
湡
狞@@
璸
荼@@
蚝@@
路机
鳎
퀭

ranet
ο
匙@@
圄
娥@@
憑
昙
栉
榭@@
氹
瘮
癨
祢@@
谩
赝
達@@
鏌
꿨


≯
丹利
僳@@
垀
實
掖@@
揩@@
晔
樘
烽
環
瓒
町@@
疖
瞭
箨
羔
荔
跎
迄
郯
骜@@
髯@@
鸮
黴@@
땔
쌈
쨌


率
і
匦
压裂@@
帜@@
忪
洩
瞅@@
粲
細@@
纷
鍛@@
霐
驅@@
샴
⊿
书亚
佬@@
吿
孵
忎
掓
揟
斟
曠
欎
沏@@
淌@@
營
甧
絪
芡
預
額@@
驹@@
섟

ﾃ
illar
凄
分之@@
利物@@
咿@@
團
屎@@
嵂
彇
承租@@
拇
散热@@
敽
煅
疖@@
禱
箩@@
繘
苊
蓥@@
螟@@
鸬@@
훉



ｨ
Ζ
Η
ς
摝
摻
擀
栭
橹
殡
法兰克@@
漑
潦
睚@@
稅
緩@@
纂@@
缮@@
职能@@
舯
運

ｼ
achi

Ι
⁰
一席@@
冇
巤
柬@@
楦@@
泱@@
澹
疚@@
砦
笌
笏
笫
腧@@
苜@@
褚@@
诒
財
跚@@
颍@@
颡
飨
굶

綠
余物
垭@@
幽默@@
恻
抿@@
揿
楝@@
浠@@
涟
潡
炵
犰@@
笺@@
緻
茉
茱
訇
谴
阿塞@@
颓
饕
鲢

Brows@@
Cay@@
Tiv@@
eBase
凫
吩@@
嗔
弑
暣
枨
氘@@
犺
琨
祁
窆
艽
诌
谅@@
蹙
輪
무

盧
佚
婊
嬴
擴@@
斾
晰
暀
棠@@
真是@@
祈
練
羛
翟
肪
蔺@@
蝰@@
蠡@@
還
醱
醴@@
鹩
勰
唏@@
囵
妍@@
慊
扼
揙
曷
桧
楂@@
溇
濉
燮
狳
玑
疤@@
直流@@
筁
翹
规范@@
諒
锔
凜
ﾍ
Indu@@
伲
台币
啮
奻
幻灯@@
惴
撈
旀
暐
殚@@
潈
焮
犍@@
祺@@
稗
窨@@
購@@
跤@@
踟@@
酉@@
鞴
鹳@@
댕
홍


下角
偣
劑
嫣
廠
弼
怔@@
掇
桀
浐
淞@@
璺
皟
納
絳
美联@@
芨
荠@@
蝁
覃
郥
錾
龉
э
俄亥俄@@
卉
協
地区@@
嶝
怂
扈@@
揊
晢
曩
枰
椐
樺@@
橋
涚
砐
祌
窋
籤
終
绛@@
缟
蜕
衾
裾
靘



ϊ
г
ฃ
停止@@
剜
嗳
圍@@
堍
宛
挡风@@
撛
敳
敵
毁灭@@
泗
澧@@
秢
竤
綦@@
纨@@
苀
蕙
钋
鲂
쳔
충



ﾋ
Voy@@
☒
叵@@
喧
坷@@
岘@@
幢@@
挲
敕
晗
楃
獥
玷@@
砭@@
祦
荸@@
責@@
运人
醪
龇@@
구
슥

п
儚
呲
噤
在实践@@
堑@@
堜
幇
愕@@
朊@@
枳@@
浔
涞@@
潤
疸@@
联轴@@
調
铠
阎
馕
鹬@@
ｷ
ﾓ
++
Electric@@
丗
俚
冪
刁
唟
噌
嬖
崧
嵇@@
帻
慮
懿
揯
朮
椋@@
涧@@
粨
興@@
薄薄@@
阖
馊@@
吒
哆
尓
庖
恙@@
汨@@
滄@@
瘯
盤
碲@@
苡
趄
轶
迵
酐@@
铨
铱@@
麂

ы
∧
乳胶@@
侀
嵃
揜
湔
漩
漩@@
畿
痼@@
百科@@
監
筠
荜@@
趔@@
邝@@
銷@@
鐒
锲
韶
飒
코
｀
｛
CDR@@
FAL@@
yst
咝
埸
墖
惈
杮
澳大@@
菪
薮
谪
豢@@
颔@@
飨@@
적

ฤ
仝
冰淇@@
咂@@
噾
尯
師@@
忸@@
摯@@
晥
桕
汇丰@@
蓿@@
蠟
褫@@
邤
鄄
闾
齣
균
뚤


｝
Ξ
华德
囿
无功@@
暧
樷
湞
溝
熶
琜
砀@@
磡
私权
筑物
護@@
谢谢@@
逻
酣
醴
鍢
須
鲇@@
鲶
鹮
좆
‹
上角
呫
嫖
斪
狟
璀
盡
秕
聒@@
菅
謹
谏@@
賫
電磁@@
鲼
鸨
닒
죕
푐



ｲ
ά
ต
⑼
⑾
一式@@
勐
咩@@
塓
嬉
彙
期日
杷@@
炲
祀@@
窠@@
粽
缄
貼
迤
铥
렴
셸
커


ﾈ
∣
俜
光合@@
娅@@
寔
干达
扣器
抻
撆
方方@@
檄
檩
疥
艿
蛽
誤@@
陰@@
骈
鳔
롸
멕
ontrol
专卖@@
侣@@
俐@@
孛
徘@@
必不可@@
毘
灚
犵
狡
眕
筮
缬
舭
虬@@
螃
讥
钶
鬟
냥


ﾒ
‌
三个@@
剓
委内@@
掴
擢@@
擷
淇@@
稊
管人
西雅@@
誤
鎰
除草@@
鲻
鸣器

ΐ
中型@@
傧@@
免权
厮
廑
廠@@
所作@@
晤
淙@@
粣
舊@@
豇
貨
赈
驭@@

ｽ
唰
埧
姹@@
徊
悄
斒
涠
滗
绐
缛
肇
蜒
裟
酢
뒤






￼
呤@@
唢@@
啐
姸
彛
愠@@
撓@@
擢
曟
檓
焱
皌
肄@@
蜇@@
蝥@@
訑
随时@@
묩

易
ｱ
Tune
ⅱ
哉@@
噗@@
噤@@
天候
寋
恹@@
悌
抗拉@@
捱@@
揘
晖@@
椋
氏度
泅@@
泖
洏
淡淡@@
玢@@
疊
痙
艼
邡
鎓
锒@@
骆
鹑@@
龜


ｿ
┰
亞@@
仨
嚦
在生活@@
帛@@
弑@@
撷
橛@@
碜
粬
芨@@
葜
買
鲀
鲹
麛
뺄
제
數
唳
啭
噰
囗
堇@@
年月@@
批判@@
斞
欄
猊
甘肃@@
瘂
祐
税务总局
糅
蚶
蛲@@
詞
诳@@
谲
遑@@
配器
镥
隱@@
馗
鷶
괏
깃
휑

Syst@@
匍
可供@@
咤@@
孺
寤@@
惎
淩
渲@@
湫
珮
畚
萦
鋈
铄
鞞
颉@@



stron@@
І
剡
哐@@
嘤
弋@@
摼
撉
濅
瀯
琊
癰
睨
胳
至关@@
蒌
蓑@@
蜆
訓@@
迳@@
闺
雾器
극
GEAR
₂
⑿
〓
仈
合众@@
宓
岙
掕
朦
橫
渤
璨@@
畈
缔约@@
蠑
遊@@
邏@@
饪@@
鹄
黒


⏵
佯
凋
哒@@
忤@@
忱
掱
檬
珆
甭
筳
臬
蔺
蠕
装机@@
觇
輛
階
된

仝@@
倜@@
加利亚
壞
夛
小板
幫@@
彉
恲
戽
挓
敶
敾
歩
炝
牸
琚
盔@@
聩
菂
講
谝
迄@@
里叶
长久@@
阋@@
鸯@@
맷
페


﹗
fox

ร
凃
姘@@
懿@@
抟
揕
撁
毽
湭
竦
笭
臧@@
藥
蚩
鍘@@
鍝
锕
鸵
뒈



ｴ
Ѕ
佘
全日@@
噘@@
巩
惚@@
敭
昀
晁@@
椼
涴
滿
炱
畿@@
硎
粡
茔
莫桑@@
菝@@
蜣@@
补救@@
衿
褂@@
赡
辄@@
逶@@
镏@@
鲇
鳙@@
鹗
♪
仞
厝@@
墒@@
壽
廪
愎@@
撂
撶
栦
桫@@
游乐@@
綾
缒
詈
贽
连带@@
鹪

﹣
Esk@@
saw
˜
Χ
┯
俬
剜@@
墨西@@
妁
屉
崃
嵋@@
惛
戜
捩@@
环控制
笆@@
罅@@
臵
趵@@
轱@@
釬
鐧
难性
雙@@
鹪@@
쉥
앴



︿
⏴
伉@@
伊丽@@
受害@@
埝
属何
岿@@
嵯@@
忘了
怮
怼
擺
歙@@
歲
殴@@
泦
浜@@
玮@@
琉
瓴
盱@@
瞿
窒
菰
袈@@
覃@@
觀@@
讦
谌
貨@@
铁道@@
铍@@
间盘


✪
偾
卻
坻
垸
娈@@
庾@@
影响@@
彶
息息@@
撹
根深@@
稗@@
稣
積
袛
襻
辖市
辦@@
郵
鈹
髭
鱇






ΰ
亚利@@
俴
咺
崍
攷
溟
滚动@@
澍
炁
煙
篑
肮@@
臨@@
苹@@
菸@@
葶
藬
謘
鉆
鍍
鐑
铢@@
镅
門@@
颃
麒
龃@@
눈

來
料
+@@
ј
丞
亍
从来@@
住民
呓
娑@@
愮
撃
椾
琰
秶
纣@@
腦
蕲@@
蘩
蜓@@
裏
邬@@
郏@@
限内
领事@@
깊
댔


ˋ
Ν
∨
乇
劢
匮
匮@@
哧@@
埭
姪
安哥@@
峓
崆@@
形容@@
拉图
揗
沤
熲
珉
眥
睇
穃
繚@@
绎
罔
耱
臧
蒑
蚩@@
镎
韪
馑
鲐
뙝


ˉ
╃
儡@@
劧
圳
埲
弼@@
忻
恸@@
搷
敝@@
栾
椴
溫
滘
濾@@
珑@@
眔
硪
膧
衪
谥
適
鐏
鲳@@
할


ｳ
ﾎ
¯
Ε
力于
幡@@
弇
心力@@
拯
柇
歆
焯
硚@@
磥
稜
篾@@
绡
臆
茚@@
蛹@@
謇
謠
輪@@
轲
邈
馱
긍
맣
믐





ɑ
啕
奚
妭
幾@@
旺达
書@@
楊
楹
橄
燴
甄
簋
緥
編
肈
苴
茭
茼@@
蓁
蠹@@
锕@@
闰
面面
鸾
랍

Analyz@@
syst@@
┑
儂
刪
卡扎@@
同意@@
娟@@
帓
徊@@
怵
拎@@
捆机
槠
牝@@
瑌
皯
盿
砗
稱@@
笙@@
笤@@
糍@@
紅
美利坚@@
萄
蛿
覽@@
谴@@
貘
饋
鳜@@
鸻

ｶ
ї
า
➢
制表@@
啀
噴@@
奪
孓
庵@@
怏
悻@@
拋@@
桄
歷
濠@@
烹
犫
痲@@
矪
礿
簳
簺
者说
耘@@
胗
膑
舳
萤
蘇@@
謢
轫
迸
遒@@
遞@@
郔
陳
魟
鲮@@
죄
틔



﹪
ﾗ
ﾚ
♀
偈
効
坩@@
房间@@
抺
撩
欓
氓
濊
獶
碹
窕@@
簥
糴
緫
譯
郅
鍵@@
镟
閭
隹
頸
餍
饽
马铃@@
髦

量
ｾ
ﾌ
HTO
偏移@@
傥
剡@@
哥本@@
安东@@
審@@
旃
昨
毎
瘆
績@@
苤
藁@@
诓
诜
醍@@
鲱
괩



phere
儏
厓
娊
桳
濛
熼
牆
琏
璟
萱@@
郫
阗
靜@@
鲦
찜
토



ก
侩
俇
勵
受制@@
同情@@
喆
嗄
嘞
悱@@
抯
拫
損
樯
橈
溼@@
璣
繍
芊
茗@@
褒
褡
觳
詢@@
鍧
锷
陔
颦@@
쐐





ϕ
⒊
◊
剰
增塑@@
幺@@
弡
揦
棤
檺
瑈
箟
粠
蛐
螽
袷
補
讪@@
貴
跗
躅
邛
霰
뜩
훨

列
︱
อ
卅
同位@@
吤
垯
墽
壜
掗
朐
杖@@
樨
湟
獙
篓@@
翴
荃
褡@@
覕
谶@@
豌@@
軘
輕@@
釋
铿






ｩ
Mechan@@
不足道
偃
坭
塍
懵
摾
欒
沲
泓@@
煜@@
瘉
絞
绔@@
而言之
臾
舾
莆
菥
蓿
虺
豺
钏



仃@@
冢@@
圾
恅
恬
感恩@@
斌@@
晱
桧@@
棫
樂
毬
沭
浯
溞
烩@@
爰
猗@@
猾@@
珋
痨@@
碚
籴
缱
膥
蛎
跹
辋
醮
錶





ﾉ
⒈
丕@@
以人@@
卅@@
吖
問@@
噘
囔@@
圊
堣
妠
峥
忋
指南@@
摵
擔
旮@@
昑
昶
欞
潟@@
炕@@
瑅
疣@@
疭
素体
脣
芡@@
证会
豔
赭
踯@@
邳@@
鄯@@
鄶
隴
須@@
鲛
鲲@@
鲳
黯



賈
︒
＼
ﾆ
й
щ
ⅲ
亞
佲
啵
嚓@@
奁
奄
娾
審
怩
惋
挞@@
攢
槻
氾
潵
獴
瓑
祜
稞@@
籵
膘@@
艛
芑
诠@@
轎
鏡
靇
魆
鹦
龇
엇







久性
凰
嗟
嗟@@
垝
埨
婦
忱@@
恫
无能@@
昉
柢
棬
浔@@
濾
灦
癬
癿
砻
笁
簱
绂
荇@@
蛊
賬@@
醣@@
鑼
饽@@
뻔


Fuel@@
clip@@
υ
Є
ё
代之
勨
唴
啲
嘁@@
埽
壇
岆
峇
忏
摳@@
擱@@
渰
猂
猡
皮细胞
瞟@@
矸@@
綱@@
縐
腑@@
虜
赽
邺@@
霏@@
韭
驌
鼢@@
龅@@
련
윱
혐
횔



句
論
﹙
ｰ
ύ
产资源
亾
侈
侈@@
咗
堥
奢侈@@
媛@@
憧
抒
拞
揖
撿
擊
条箱
枑
犟
痱@@
砒
砺@@
紶
薦
論@@
逖
邨
铳
铻
顯
겼
덜





Jord@@
з
ิ
么样
倏
儹
凍@@
勖
喽@@
嗔@@
噞
囤
圹
崾
採
搰
斘
橐
沅
畦@@
畴@@
矍@@
碝
綇
罗河
脹
菔
蒴
蒻
蛐@@
跡
違@@
髻@@
魑
솥





Lifec@@
Ы
ะ
⒁
┱
儆
嗥
囟
棟
泮@@
淄
濄
獲
窠
絚
臔
芛
苓@@
蛱@@
褚
見@@
诛
豁
赁
邡@@
鑿
钸
防范@@
陣@@
骊
鲲
뇨
팹



￭
Docum@@
rera
⒀
他性
俋
俶
債
匯
嗦@@
嗲
尻
尼亚州
平整@@
憰
撙@@
晎
栌
榾
洜
熱
獨@@
珂@@
瓆
稹
篡
脆弱@@
鞯
颏@@
黧@@
츌


ﾀ

Ь
⒔
亳
仫@@
公文@@
加达
叭@@
嗓
嚥
囡
墜
嬧
嵼
帀
帚@@
悻
拚
挖泥@@
揢
斠
暱
棄
椭
漕
澎
炜@@
牯@@
猷
瓠
疄
病率
益于
穓
胝@@
腧
臺
莰
訪
谒@@
跶
迡
铡@@
頻
首脑@@
鳀
죗




更
ﾁ
Profess@@

❖
㎏
卒@@
啖
峒@@
开线
撸
東@@
杻
桷
槌@@
段性
洮
減
琮
瑭
硂
禰
紱
罴
苫
莞
葖
蓇@@
薷
蛌
蛴@@
辇
逑
醐@@
鎽
鐐
铩@@
隍
雖@@
댐
됴
촙



Ϋ
ر
乜
侑
加剂
嗉@@
囯
堋
奧
婅
容式
岷
崌
拈
拉罕
揋
汆
涣
溏
溝@@
牱
犱
狍
礜
竊
笱
纛
纡
缤
蕤
藨
虮
螽@@
赳@@
骛@@
髛
륩
Locker
ί
ป
ฟ
ว
‡
⌒
宯
惕
懽
溘@@
煸@@
煽
燧
珏
疳
瘽
磴
窣
續@@
罅
胪
莜@@
評
诖
输卵@@
迂
逦
鐡
锱@@
霎
黨@@
났
부








了
ﾕ
t.com/@@
น
ส
⒌
亓
佟
償
冧
呪
四氟@@
坨@@
婍
尕
崡
忾
旒
晰@@
樽@@
泠
浚@@
滹@@
狨
瑪
痈
眭
硑
箅@@
箸
縣
耄@@
蓴
蛸
袧
課
讅
诲@@
贲
鍪
锶@@
闀
陣
颢
飞速@@
馍@@
꽝




⁺
Ⅺ
⒂
丌
凖
咣@@
喺
娗
媫
孀@@
寲
峴
庀
徭@@
戣
捱
教科@@
斈
晟@@
曡
波纹@@
涞
潞
猔
瑟琳
相似@@
眰
約@@
緭
羰
羸
蕈@@
螬
轫@@
辎@@
邊
铈@@
髷
鼣
갭



╳
卣
咣
咤
婵@@
岈
庑
彊
恚
收敛@@
杓@@
杰明
标题@@
栲
欹
灞@@
热衷@@
獎@@
獠
瓄
砆
硁
祉
禖
穩@@
竷
粦
罟
聃
肮
艹
蔻@@
蟥
誘
議@@
逡@@
逤
郦@@
铙@@
閉@@
閾
雜@@
鲌
鴗
鸶
댄
랑
학




ѕ
入到
凼
刎
叱
囗@@
崛
并发@@
庖@@
微量@@
愛@@
榄@@
欤
洌
涗
琊@@
竽@@
笟
糸
絲
缨@@
華@@
营公司
葳
赜
週
鋽
钿
鞫
鰯
龅
븈
숩
쒔
헥





乬
刈@@
可行@@
哐
嫔@@
孔隙@@
嵘@@
徉@@
戕@@
攫
昇
晁
杵@@
樹
氅
牢固@@
猝
秆@@
紡@@
絕@@
繷
耒@@
舦
萁
軉
轳
邬
錾@@
鑴
饴
驷@@
鷺
鸩@@
鹟
鹫@@
뉲
릿


ﾂ
ม
侊
圪@@
婀
屮
帶@@
彍
徳@@
恍
惁
扲
搒
摓
撥
斏
歿
淝@@
溫@@
炸机
爱沙@@
猼
畲
盶
眹
祴
箩
簪@@
荻@@
谡
賽
跏
軞
邊@@
重量@@
雎
餘
鰙
떱
츰




Pors@@
ι
倔
圻
堦
孖
嵋
巯
徃
憡
摻@@
斯德哥尔@@
楮
榖
歡
氫@@
泞@@
滟
牰
猵
瘿@@
皠
眦@@
笔记本@@
笵
粥@@
缶
翦
菏
衞
訴
謝
诎
锛@@
镡
阛




enca
僳
冞
剕
劾@@
匼
叕
垃
堀@@
壺
奇怪@@
屪
峎
崯
彧
彮
枭@@
楫
橫@@
水压@@
沬
砭
箫@@
紋
蔟
薴
蝴
蝼@@
討@@
談
诠
鋧
鍋@@
阓
際@@
靳
颧
養
송





若
ｪ
ж
⒋
╀
╦
債@@
儋@@
劭
匆
咁
唁@@
寁
帼@@
幣
忠诚@@
愎
懆
枆
棹
橛
檮
沆@@
漳
猗
瓟
瓫
瘑
皬
盽
睢@@
碣@@
礅
種@@
築
簽
絔
罽
药品@@
藋
螫@@
蟠
迺@@
邕@@
鐤
锎
闾@@
颛@@
飓
饔
鼱





陵
流
留
﹥
ﾇ
Loct@@
־
℅
∽
⑪
♂
俱乐@@
値
埙
堿
塯
嫙
宍
帳
惘@@
憶
捨
棆
楤
汜@@
湀
澶@@
疒
眳
睌
硓
磠
粩
紀@@
缢
缷
罘@@
耋
膠
芄
訝
賦
赀
辏
酢@@
隈
霁
餂
饴@@
鸾@@
黩@@
뤠
목
베



ﾜ
pportunity
Щ
ฑ
ท
ผ
↙
一站@@
乒
乭
喟
嗳@@
恁@@
惬@@
抲
挝
挹@@
枓
柸
洵
洹
瀣@@
甡
瘨
眪
瞋
簩
繀
绨
羆
耶路撒@@
薤@@
蠃
觥@@
賭
趟@@
迤@@
送器
飓@@
骜
鲠@@
鴶
鸷@@
잚
헙




beros
я
≮
➔
伥
傢@@
儉
兒@@
叢
喁
喑
嘗
圮
垃@@
帄
暈
棎
榍
沌@@
畻
箬
索权
緞
繳@@
缱@@
罄@@
臄
蒡@@
藝
觀
賊
邗@@
鑻
镒
镙
闃@@
阨
防止@@
눠
썩



﹡
Й
剢
嗍
寖
崄
彨
承建@@
洊
獯
琵
瑊
甅
畚@@
睥@@
窨
簨
苈
葭
角线
譙
谑@@
蹼@@
钺
马达@@
骁
髍
魤
鸥@@
龄化
뫇
섦
쒐
욋




切
itle
ь
ึ
⒄
千计
厩@@
娿
富兰@@
峽
式表
暫
曐
状及
玟
玢
眾
睐@@
碚@@
礗
筲@@
糁
膻
蓍@@
蟑
訪@@
谌@@
負
赉@@
跀
邕
邸@@
雒
饯@@
黺
섞
옘





說
ｫ
ฯ
ำ
≙
佶@@
侞
俀
冋
化床
吇
呣
咃
啣
岜
峤
崵
嶲
恧
慕尼@@
揈
揌
攝
梣
椪
櫥
正态@@
汔
泶
浏
涑
渳
濉@@
濟
獹
砱
碓
禬
積@@
竒
粰
綆
耧
肂
肷
與@@
莅
莘
诤
躍@@
靈
颭
관
누
세
휄


﹂
ﾅ
CADM
Я
叵
啉@@
啋
嗐
嗵
囱
坶
妈的
庋
庯
廣
徙@@
憐
昫
梫
淕
炷
玸
瑗
痀
硔
粧
绶
舉@@
蕹@@
蝥
蟮
赀@@
辔
辚
鑰@@
雛@@
館
骼
黃
랙
풂




/?@@
~@@
∗
┅
俣
俨
哋
嬨
崋
嶌
彆
怍
惂
愰
擱
斂
晠
标人
橇@@
氶
泱
洖
潁
炻@@
煊
瓿@@
癹
睘
稷@@
筝@@
筠@@
緖
縻
蓐
蛑
螖
衲@@
覺
讃
跜
蹰@@
邺
郓@@
锺@@
镐@@
頁@@
늚
던



路
參
arget
ґ
└
㏕
再试@@
劇
哦@@
墏
婇
崗
怄@@
恖
掼
断器
東
榹
櫆
殮
汐
涔@@
溱
潃
爻
犍
狍@@
璓
瞯
祚
綠@@
緱
罘
膦@@
舨
螤
諾
賭@@
軟
霁@@
顼
饩
鮫
鱷
鲑@@
눤




益

⒃
┒
丐
仡@@
傷
内障
劅
嘬
囟@@
埥
怛
斚
旇
枞
枡
枥
構@@
湜
濞
牴
特式
獐
硖
簏
納@@
紗
絲@@
耽
蓊@@
觸@@
趼
輕
遄
鄢@@
銄
錢
铧@@
閹@@
閺
闶
阡
風
髑@@
鸬
갞
옹
욥
쪽






Retro@@
ϋ
ฮ
ฺ
丟@@
写字母
卮
堞
場@@
墥
婘
屌
巽
廿
愠
戮@@
掛@@
敎
柘
柺
栝@@
楸@@
槦
毀@@
溆@@
烨@@
煺
瑩
甶
监会
箋
绁
臌
舼
蒗
蝈@@
行之@@
诔
賈@@
迩@@
鎚
镛
鬣
鳙
경
늴
쀼
쉔
왕
힛





Ъ
▬
伯明@@
億
嗲@@
囵@@
宾夕@@
嵛@@
怩@@
怴
惗
搽@@
擁
擔@@
擘@@
枟
歡@@
煶
牴@@
猩
瓾
甯@@
砏
紀
维也@@
聰
芫
茛@@
蔷
藥@@
蠳
覜
託
諷
诹
谖
谢您
蹰
过身
郢
鎢
霈
鲃
黍@@
긴
랬
빱
훰



¸
ώ
ฝ
↔
偓
垵
岽
崮
巃
帤
慷
敍
枱
極
榈
樂@@
欑
汊@@
海洛@@
滌@@
滏@@
爛
獨
珘
疴
癢
窳
箣
箷
簸
粲@@
糌@@
肅
谯@@
賴
赓@@
邰@@
铡
陨
鳉
麴
뺏
젯
첼
홧








菉
ﾘ
ษ
乓@@
厍
呓@@
咄
姒
婞
嬗
屑岩
岙@@
崝
开口@@
弁
挘
揥
搡@@
曢
曱
楅
浍
熴
熹@@
爾
牾
玳
癓
眬
磴@@
筱
簘
纪录@@
聍
腦@@
舛@@
萇@@
蒯@@
蠮
覩
賦@@
达成@@
鄄@@
閬
馊
黴
鼯@@
齑@@
끽
밧





旅
類
⋯
╊
价比
偖
傖
傩@@
剛
壙
奪@@
嫒
尬
巼
杲
檎
炀@@
炶
燭
珲
电保护
畫@@
筄
締
縶
臊@@
舠
艸
荬@@
诂@@
賓
遽@@
邯
酋@@
錯@@
鍎
霭@@
靑
飧
骝
鲛@@
鸨@@
鹎
齴
렷
췽











﻿

ɡ
·
พ
⒖
┉
倨@@
儀@@
兒
圓@@
堙
奘@@
媞
崱
幀
悒
悭@@
據@@
斀
斯德@@
斱
旻
桠@@
楣@@
樸
橋@@
汒
泠@@
漾@@
潎
瘢
碞
穑
窸
篁
粎
粪池
糑
脤
荎
蒓
薽
螂@@
谆
賬
迥
遜
釐
钫
陓
頫
鼗
뇜
뗍
뺷
솰






分之三
勢
同轴@@
呶
喌
嗫@@
噫
婺
嬴@@
帙@@
恽@@
摭
敿
旈
有素
涫@@
淠@@
湳
焖@@
獌
用人@@
瘩@@
瘴
硏
肫
蚐
蟳
衆
诙
質@@
赂
赉
赳
鎾
铙
镞
驟@@
髭@@
넞
덤
똥
접







ธ
บ
ล
⊥
ⓩ
┐
伫
囹
夆
寧@@
尴
屣
嶇@@
廳
彃
捠
暸
李克@@
椆
檯
潛@@
濓
琍
眙
祑
笠@@
絛
纥
缂@@
膻@@
菽
薜
虢
蛞
親
誧
趙
軌
铗
镕
閣@@
饜
馬
驸@@
鹀
봤
젬






冷
จ
∫
┿
侶
俎@@
去年@@
否是
哥尔@@
嘌
嚗
嚜
妊
婕@@
嫦
尮
嵬
張@@
怹
拿破@@
捍
捭@@
揳
撻
敗@@
昢
曗
曽
柢@@
渑@@
溼
滌
潲@@
燄
爧
畬
痪@@
癞
禳
秈@@
竽
笥
粛
纨
缭
臓
茲
蕯
蛩
術@@
表框
要性
譚
贻
赧
鍠
鲎@@
鹈
굳
댩
렝
워






￮
ณ
⅜
┏
㈥
上市@@
些时候
側
墉
姌
嬶
尅
岣
崅
嵖
懡
揆
揹
摦
擭
枒
栚
毋
淏
潋@@
潫
焜
珺
盪
碛@@
磋@@
磎
礙
祏
秣@@
笤
笮
糨@@
糶
繧
翊@@
耄
臨
薅
蠓@@
貅
醫
鐭
颸
馐@@
髀
鲥@@
鲮
맴
못
배
튤










ฐ
ศ
◣
乜@@
亟
众所@@
伦萨
信片
儘
卒中
厛
发改@@
嚅
埴
婥
安慰@@
尕@@
巊
幫
弌
悵
撪
擇
方说
樑
沮
浗
溲
璖
石流
筷@@
箶
糍
紅@@
繼
翌
耵@@
聽@@
莨
葳@@
蓁@@
蕼
螭
衴
訧
诓@@
蹩
鑹
铨@@
镴
靄
驽@@
헷







﹠
₅
⃝
┥
丂
創
唠
唾
坞@@
埭@@
堠
墸
妤
婪
屙
峙@@
帏
彳@@
必要@@
恵
惫
懠
扌
抸
揠@@
撽
敵@@
旎@@
昞
曒
曛
曪
棌
槹
沣@@
洞察@@
濯@@
煿
燊@@
爻@@
珯
硵
祡
競@@
繳
纕
绗@@
膺@@
苡@@
菹
葎
葑
蚨
蚬@@
蜃
蝻
蟋
蠔
袼
裢
親@@
诅@@
诳
说服@@
谗
赓
邴
郞
鐕
閮
險@@
鞑
魑@@
럽
뻠
샘
셕
소
솖
쉪
쒸
튬
팃







累
＠
ฌ
ห
∪
为力
乩
倬
僋
入点
出机
啾@@
喚@@
喟@@
坽
堎
姦
悇
惉
戕
掃
搐@@
斄
斡
梿
檄@@
氵
煳
熱@@
猥
珈@@
珿
疠
癣@@
的物
皴@@
礬
粿
純
紙@@
綉
締@@
罂
翼翼
臫
艚
茕
藝@@
蠲@@
觛
觥
買@@
赻
跎@@
農@@
鈧
銛
鑸
阗@@
阝
陻
饡
鷠
鹇
齒@@
꾌
욇
큐
헌









έ
ด
∂
∥
偰
儀
兌
兩
分裂症
劍
叟@@
唏
啓
嗞
嘧
圧
埂@@
埢
塱
壛
媦
孬@@
尴@@
岘
巳@@
廋
弻
懘
揾
撺@@
擲
教科文@@
敺
晔@@
晞
暝
杳
椄
浈@@
渀
滙
潔@@
焗@@
片麻@@
狩
疔
眻
秣
稫
穐
粶
紹
繃@@
缋
缙
蒹
蔨
藷
蜴@@
蠼
謗
谄
趿@@
跬@@
蹚
辔@@
逬
钇@@
陉@@
韌@@
魈
魉
鳜
黟@@
鼐
꺄
맡
밟
쏭
였
텿








弄
ื
┟
俳
冮
剞
喑@@
嘆
嬁
岪
峏
幰
愷
懃
扞
抧
晡
晹
杶
柰
検
楑
橀
汴
潍
焓@@
燐@@
爺
琯@@
璎@@
疪
盓
碣
穩
竘
縺
繖
缫
翕@@
肭
臌@@
苎
苝
菠
蛎@@
蛏@@
裉
觸
詩
诟
诤@@
谂
谶
貿@@
賣
踅
迀
鈣
鎬@@
闱
阚@@
雜
餘@@
饪
馬@@
와






聯
ｧ
ｭ
Caterp@@
ا
╄
乂
傑
傘
僣
勶
医护@@
和华
咻@@
嚯
囥
塞州
奧@@
婧@@
媪
嫘@@
孮
尦
当地@@
態@@
扦
扽
揧
搆
搦
擾
敃
暌
殒
殘@@
沖
煊@@
猢@@
瓞
碳氢@@
笕
綎
舖
芶
菴
萄@@
蒟
藁
蘿
虳
蚵
赊
酽
锸
魯
鷂
꼍
끓
떼
뙡
쏜
캕
캥
케






ั
≌
佥
儵
卍
垡
垤
堚
墁
妧
孻
尢
幙
幟
弗吉@@
彷
慵
拦污@@
捼
擟
昱@@
暘
暾
朐@@
桿
槩
殁
涪
淦
溉
滢
潖
濛@@
瑷
砬@@
礋
窈
笴
繨
缡
而然
芊@@
苁
茕@@
蓠
蜿@@
袞@@
褊@@
褔
診
諗
豸
跣
迖
迚
鉗
镌
顶盒
颻
餓
魃
麼@@
龌
귑
꼈
돤
써
절







連
ﾙ
ό
Ѓ
ฒ
ย
‒
‬
不切@@
为重要
主管@@
丼
仠
儃
剒
勍
厑
吲
喾
囷
対
嶱
忖@@
惀
想象@@
憬@@
抅
抉@@
晄
朿
枩
槓@@
洓
炆
炰
犤
狙
獡
琬
畹
疊@@
盍
禮@@
竡
筯
簾
繇
缍
羣
耋@@
膂@@
臁
舸@@
茴
虛
虬
虴
蚂
螃@@
讵
谰
趕
輔@@
逍
邧
鄯
鐣
阊
雒@@
頓
顔
鸱
鸲@@
鹱
됪
셬
잼
퓋













ⅳ
⑫
☉
㎥
乊
伊斯坦@@
佞
侥
円
剼
勞@@
哂@@
唵
堃
头键
妀
專
嵛
嵯
幆
弽
悢
掇@@
掍
撙
擖
昜
曘
柞
栀
梌
氽
浈
涹
淨
溥
灑
炻
燂
牖
狯
狲
琿
痩
睥
砩
碶
穔
章制度
絫
綜@@
織@@
職
茇
荨
莖
菖
葉
葦
蓥
薏
蚺
蛔
蝈
襦
誠
誰
诨@@
貔@@
賸
遙
鄞
鄢
鄹
鏊
饫
鬄
鬲
麵
깎
낚
큑
홈










ﾟ
ข
ถ
∷
⑬
⒍
⒐
〒
儅
叿
啎
嗰
垟
埄
崛@@
帺
惡@@
敊
柦
梴
極@@
樓@@
櫋
殧
淅
潌
潛
潪
瑀
甪
皴
睆
瞀
硬质@@
竛
筚@@
箼
粐
粓
糷
纣
羅
翊
耨
菔@@
菟
行了
贏
較@@
郜@@
酋
锴
阐
顧
鮰
鲠
鵌
꽃
데
볫











︺
ｯ
Busin@@
Repli@@

ฉ
Ⅻ
⒆
♣
➘
伢
凼@@
哮
壔
媸
嫡
屻
嶏
帵
徇
悈
愙
斷@@
旌
旤
枧
栖息@@
栢
棓
槾
橼
殉
溧
烏
爗
痐
痳
砃
砉
祎
祧
笳
管辖@@
篊
繕
纡@@
翑
翮
聿
莸
薜@@
蘭
蛘
褓@@
諳
这样@@
迶
邗
酃
酝@@
醵
鈇
鈴
鏅
鐝
闼
陉
頗
顏@@
饑
骟
鼋@@
뎠
딧
뵪
쐴
앎
웣
윅











mbH
ฦ
⒓
俅
倛
偆
卝
喎
嗭
嘚
噪比
嚌
嚟
圜@@
埜
塗
婦@@
寕
岋
岞
嶺
恇
憜
搙
擞@@
斫
晻
歛
段名
沔@@
沮@@
況@@
浬
漪@@
爨
爾@@
犦
畇
畹@@
盡@@
磢
祔
笓
笘
笷
絃
菡
藙
蘅
衛@@
裡@@
褔@@
誹@@
诒@@
谪@@
貉@@
踮
鄣
阕
雠
飲
骥@@
骧
高空@@
鬆
鸰
龍
뙤
몽






Voyager
spn@@
ш
Ө
∩
∼
一如@@
丏
丐@@
仄@@
俎
俣@@
倶
償@@
删除@@
喅
嘐
圣地亚@@
壊
壽@@
巉@@
忥
愛
愨
戢
拯@@
揖@@
搑
斝
曰@@
杊
杧
椣
樗
涐
瀮
災@@
爞
爭
狎@@
猓
琥
痈@@
癛
皛
祻
窐
筧
糬
緣
缏
缟@@
罾
羿@@
芗@@
荩
菈
菾
虼
裎
谥@@
貊
蹓
醹
釘
間@@
閹
鞔
鲚
鹨
黢@@
꾼
렀
멍
직
콩
콱
폐
퓻












異
ﾝ
CLARii@@
icrosof@@
ɕ
ี
傷@@
嗫
塾@@
媺
島
崀
崁
怙
恀
憟
懊
戥
挈@@
昕@@
槊
櫴
欴
歆@@
氛@@
洄
滂
猢
玎
玷
畉
瘛
白炽@@
砛
碉
磙@@
稈
窮
立叶
筆
簗
糪
紩
綑
縗
纰
翡
耒
脈
膿
荀
荾
蓱
蔸
虿
衽
講@@
譚@@
譬
诬
貴@@
賨
踊
輯@@
辚@@
逹
遯
阆
鞒
順
饠
馓@@
鲉
麋
龆
글
멩
셨
숑
쥴
쯤
쵱






屢
ﾑ
ﾞ
redirect@@

⒎
⒒
㎞
丟
侏
傾@@
内人士
卷风
喔@@
噧
噼
圏
坻@@
垆@@
埵
墭
如前@@
寶
尒
岢@@
崗@@
嵇
帯
懪
戲
斢
柃
楋
槛@@
檬@@
欖@@
燮@@
牳
狷
獎
玺@@
珷
瑥
璉
瓃
瓠@@
砹
穕
窡
等待@@
粝
縀
绚
缐
翋
胤@@
胭
胲
臟
菓
萆
衝
觏
觚
詞@@
豕
跫
跸
蹊
軌@@
轟
逯@@
遴
醡
釔
钔
閵
閻
随之@@
雋
雛
領
顸
飛
麩@@
黜@@
랫
사
쐤
힘






﹢
￐
ฬ
ⅴ
ⅹ
亣
僮@@
刮器
剋
呑
咿
哙
哿
啿
嘁
嘹
埪
墀
夙
娉@@
宆
宸@@
嵎
帏@@
幃
幓
庥
廀
廻
彈
徚
恏
慤
戛
搋
摩洛@@
昳
氧体
泺
狹@@
狻
玆
珹
瑍
甮
疳@@
癏
眇
碭
練@@
繙
缥
羘
肴@@
苘@@
蕻
藠@@
蚣@@
蜪
蝰
蠵
褁
西红@@
覧
討
赕
赩
迨
遒
鐓
鐵@@
钤
锃
闿
阍
雲@@
飻
駐
鶖
鹡
黥
鼋
녞
뷩
쯩
칫











ช
⒏
☞
仅如此
俖
共和国@@
剺
劃@@
哏
啫
嘢
垴
埅
堈
塬@@
妯@@
婖
嫃
嬤
孬
尽可@@
屄
徬@@
懓
戰
戰@@
抎
搃
搳
擠
攝@@
斖
斣
昰
棄@@
槁@@
槓
檵
殛
泭
泷
洃
津巴布@@
洺
漣
澽
焐
爴
牂
瑄
癥
稬
簎
粷
綱
緟
繐
纖
罹
苌
苣@@
蒐
蓖
蘤
虍
蝮
蠟@@
袗
裨
裰
讫@@
賑
賠@@
踼
躍
逄@@
邋
錦
阒
阢
飲@@
饣
饧
骓
鬻
궁
끝
빵
삔
섴
쳬
츠











兩
ｦ
http://go.microsoft.com/fwlink@@
ъ
׀
ค
┕
乌兹@@
倮
僝
利班
刳
勂
勻
土方@@
坜
坳@@
娛@@
婏
嫱
存者
寯
屌@@
峊
崂
崑
帠
帰
廒
愦
慡
戆
戡@@
拡
挈
掅
摍
攜
旓
晳
枥@@
桄@@
棼
樃
湲
潢
琛@@
瘝
瘡
癀
百叶@@
皈
盧@@
睨@@
瞈
瞽
矬@@
祆
秞
穖
笝
筇
篩
紗@@
縊
纔
罃
罨
脅
膤
舸
茯
蓍
蓑
螵@@
衮@@
諮
賞
赟
軍
輋
遑
鐙
锓
锢@@
锫
閣
閨
靈@@
韁
駍
骘
魚
鮠
떓
뙈
흡













凉
⑭
┍
☛
一无二
俪@@
唿
囍
囝
園
垌
埮
媴
屆
岟
崚
巜
幛
弝
忝
忤
思议
恽
扥
提条件
搿
擛
攡
杼
枋@@
栩
洗涤@@
炷@@
熀
爭@@
犚
璁@@
璘
畒
痡
皐
睜
睝
砝
砵
祄
窭
笪
箎
箝
籡
続
綪
縫
繦
纫
羇
羼
翕
脑油
脷
菩
薩@@
虼@@
蟆@@
蟊
貫@@
逅@@
郃
郣
钤@@
铐@@
铩
鞲
願@@
魍@@
魚@@
鲅
鲧
龢
되
뤔
리
싹
촄
횐














略
︼
􀁸

ɸ
ή
ю
ו
م
ภ
‏
⒅
┺
╅
╋
═
伓
伧
伹
佛罗里@@
侾
傦
冦
剀
厲
叚
圪
堛
塚
嶁
庠
庾
廇
忄
怵@@
愩
慣@@
憖
拮
拽@@
搉
攔
朄
柧
桲
棪
楊@@
檷
残留@@
江省
泫
泷@@
洇
浞
淼@@
滓@@
灣
灪
火装置
牺@@
犮
琁
畖
痪
瘰@@
眅
眏
硊
禯
穆罕@@
竵
篧
絊
緒@@
聖
茷
葫
虢@@
袺
裑
譽
逋
釋@@
錓
鑷@@
闁
隱
鞥
髑
鳳
鸩
麙
麯
黢
것
귰
꼝
낀
뉐
돔
뚝
랗
룀
류
셥
훑















ת
ง
ุ
ไ
้
⅔
㈦
㎠
亴
决于
刲
匕
匚
厜
叄
喕
嚧
址@@
垓
塄
娂
嬪@@
嶙
幹
廸
怣
惌
惡
愐
慉
戔
拸
揰
揷
擬@@
敻
斆
暄@@
杪
柁
樨@@
氥
沩@@
湊
潬
澹@@
獽
畛
癯
癶
眞
硗
祚@@
禣
禦
絯
綦
腍
腚
舡
茺
莂
葺@@
蒈
蟷
袓
褙
誊
誠@@
豿
趄@@
酝
鈰
铄@@
隰@@
靤
鶲
鹄@@
鹩@@
龀
눼
루
뭔
봄
샣
즛
폦









省
urier
Ю
؛
๘
‟
↖
┬
丘里
侑@@
僖
僖@@
億@@
劬@@
勩
厣
向于
嗪@@
坫
垜
堉
塿
墉@@
墬
婪@@
媮
嫆
嫫
屘
崭
嶃
巌
廃
慍
手架
挸
揺
揿@@
摨
明书
柂
柰@@
栺
棗@@
楬
檠
殺
氠
沢
漭
澚
焺
狺
獅
珄
珉@@
珜
畀
瘗
眞@@
瞴
稛
緇
脢
臃
芃
芈
芢
茀
荌
葶@@
薢
藍@@
蛲
蠛
蠲
讣
趵
跻
踫
蹴
蹶
转向@@
鍈
鎝
钭@@
陬
雧
馱@@
麾
띤
삠
쉭
쩌















樓
歷
﾿
contentredirect@@
http://go.microsoft.com/@@
ع
ل
๊
℗
丠
倜
冓
吸血@@
噸@@
圃@@
奜
好奇@@
妁@@
娲@@
嫬
屸
峄
崙@@
嵄
巟
巠
帩
彈@@
悧
悩
愀
懅
懚
戙
摈
敫
昁
暥
暺
杌
楍
槔
歃@@
歙
殍
汨
泐
淃
淠
滾@@
漈
潏
潽
炤
煇
熘
熵@@
燠@@
牻
玦
瑪@@
畛@@
皒
盱
瞑
硷@@
秫@@
秴
等离子@@
篶
籀
粞
紬
綛
綴
纳斯达@@
绲
缜
羜
耜
聅
腬
膽
艋
芟
茌@@
蓦
蕺@@
蠋
袮
裼
谇
谲@@
賓@@
跟鞋
跹@@
蹠
軸@@
轾
逄
銅
鎧
鐖
鐟
陟@@
骃
髒
鬧
鼙
齬
냊
뇰
룐
뻘
셻
흴












Bluet@@
itecture
́
د
┎
├
✩
佞@@
先决@@
凫@@
割机
勳
吔
咥
喋
囮
坼
塡
妶
嫠
寬
幹@@
彗
恣
悭
慄
慠
憲
挜
揻
旄
暹
曈
望值
柾
桤
梃@@
榧@@
榮
橦
歸@@
涸@@
瀥
炅
炩
煋
犟@@
獵@@
瓹
痤
瘌@@
癒
砀
砟@@
硭
箇@@
箧
簟
紒
絑
繛
纜
缇@@
缧
羝
聒
聞
芚
菡@@
蒾
蓂
蓼@@
蔘
蜆@@
蜊@@
螋
衹
褲
谠
豐@@
貸@@
贏@@
趼@@
趽
踉
迕
逯
酆
釱
鉄
鐐@@
鑾@@
镪@@
陸@@
隊@@
隳
霠
養@@
骱
鬻@@
魯@@
鲩
鲭@@
鳽
鶨
鷉
귟
댎
덫
마
좃
쥐
폅
휭
휽




















念
่
๚
伆
会议员
伛@@
侽
内罗@@
冿
凵
厠
厰
吆
呖
哝@@
唿@@
噴
垹
埻
壩
嫲
孑
尬@@
崤
庲
庹
彔
徠
恂
恛
悒@@
惍
挢
掾
搈
撯
斔
时俱@@
晑
暸@@
杄
栒
案设计
椏
椤@@
樍
沤@@
泒
淝
滠
滲@@
濃
濕@@
焹
煕
爐
狎
璽
畠
疋
痋
癊
癕
眙@@
礌
笹@@
筇@@
筌
筡
絵
縵
繸
缣
翀
胡锦@@
脎
腎
苺
茌
荭
萏
萩@@
藦
蘼
螢
螲
褦
覺@@
説
謝@@
诽
谫
赧@@
轸
轹
迗
适宜@@
郏
郧
郩
鑲
阊@@
難@@
馒
骀
骋@@
骷
鳊@@
鵟
龃
겘
섬
실
영
쫴
츛
탤

















丹
令
識

ˇ
ּ
๎
๖
๛
‥
∏
∴
∿
⒘
◢
亓@@
仸
伒
伢@@
伩
僦
剤
劇@@
勝@@
咴
喈
嗨@@
囯@@
圳@@
夠@@
妎
妴
姳
婎
婜
媰
寳
峄@@
嵆
嵈
嵊
嶒
帙
帹
彴
悅
惬
拋
拝
挐
挕
挙
搮
搾
撈@@
斅
旃@@
旸
昵@@
枘
枙
枧@@
梠
棻
樆
橈@@
渼
湫@@
炀
焳
煦@@
牆@@
牝
理人
瑾@@
璠
瓵
瘰
眾@@
瞜
砙
箂
粵@@
紐@@
紮
緷
缌
缑
罜
羥
臾@@
苈@@
蕞
蛺
袪
裔@@
觔
訾
谚@@
豊
貝
貝@@
賃
賴@@
跣@@
避难@@
邙@@
郇@@
酏
酡
錟
鑵
钖
铖@@
锘
閃@@
閘
闚
阇
陛
陟
靜
韫
骐@@
鯏
鱹
麥@@
鼍
齒
곹
닓
댑
도
됧
뒯
몰
방
볟
서
센
죫
튿
틙










便
六
降
️
ﾛ
Tipt@@
http://go@@
֦
ب
ة
็
ນ
⋅
⌦
⒚
┼
╗
❏
乛
伀
佼
俦
元区
冴@@
别于
厗
吒@@
吽
嘏
囡@@
圞
奺
奿
媄
嫘
嬛
嬣
宓@@
寬@@
峿
嵗
嵮
嶷
嶹
幏
幐
幒
彟
徼
忊
忣
忸
恠
惔
懫
懷@@
戡
搛
攜@@
斊
旆
昝@@
晷@@
暱@@
椻
樾@@
殢
毈
氤
注桩
洫
淛
湓
湯@@
溿
煩
犏
犭
玹
珪
瑚
痊
瘎
瘳
礄@@
禸
籹
粵
級@@
絡@@
繞
羶
翦@@
而易@@
胊
脍
芏
苤@@
蘇
蘭@@
蜉
螳
褞
觯
誡
謔
謞
谯
賤
趺
跦
違
郗
鐔
钗@@
钭
镒@@
阒@@
陛@@
陸
飾
駕@@
駬
骢
髮
魨
鮸
鲯
鲿
鳊
鸚
鸷
鸸
鹣
齖
齧
깺
꼿
맒
밤
빳
션
쑹
엃
엄
움
쥼
츣
혼
흼














ﬁ
ｮ
􀁹
https@@

ש
ت
س
⅝
┳
仛
倓
側@@
僕
僱@@
兌@@
冣
冴
剎@@
勝
卺
喚
噱
圣节
垡@@
壘
夵
媶
嫹
宎
屳
屵
岒
崆
嶷@@
底特@@
忭
忮
悘
悝
憷@@
戬
抗器
抱死
攛
斎
斦
枹
栊
栝
桢@@
桿@@
椡
檣
櫃
櫍
殚
殤
氳@@
沵
泂
淦@@
漃
瀽
灏@@
灣@@
煉
猶
獚
珅
琝
甏
痍@@
瘔
癃@@
硃
磙
祙
禊
笞@@
笲
笸
箪@@
篼
緩
縠
缗
聖@@
臜
艄@@
苕@@
苚
茋
菫
萊
萊@@
蕖
蚍
蛁
談@@
諾@@
诼
賩
贁
酹
鋅
钄
钲
镪
饷@@
驺
髟
鮟
鸊
鸹
鹛
黠@@
齊
龍@@
궐
꾢
넆
넥
덟
새
슉
썽
졏
쭈
출
켓
툭
























狀
￨
ˊ
ח
ל
ฏ
າ
ⅵ
∝
┗
◯
乻
侓
侔
優
冊@@
勳@@
千斤@@
吥
啘
嗌
嗝@@
嘡
垓@@
埰
妘
妸
姰
尥
屺
廈
廢@@
弶
徂
徧
徭
徹@@
忈
悫
悷
慜
扃
扠
揔
揵
擄
攤
敯
斂@@
斕
新加@@
斺
暠
暯
有价@@
柊@@
桯
椊
椹@@
榅
氕
淪
渲染@@
滉
漸
潢@@
潸
瀏
灕
炘
煙@@
爍
牎
獬
琤
琨@@
甲乙@@
疍
瘕
癗
癰@@
皝
皹
睍
禷
穞
競
笣
箜@@
篌
糾@@
罟@@
耎
脔
脫@@
興
舐@@
茍
萋@@
蒛
蔍
蠅
誏
誕
譯@@
诋
谳
賹
踡
蹁@@
軸
迪士@@
邴@@
郐
郗@@
鄚
酩
金枪@@
鋼
铏
铹
顖
飏
飯
餬@@
駗
驪
骪
鲗
鲣
鲴
鴷
鷿
黙
꺗
꿍
넓
뙉
륜
섯
왯
잒
퀼
폭
퐕






















聾
﹟
˝
ר
ي
ھ
ซ
เ
ใ
ํ
๙
⅛
∟
⊕
┓
┝
┾
々
亸
亻
仳
侐
倈
倫@@
偁
偟
傭
儊
儦
剛@@
劑@@
咹
哤
啝
団
圓
壥
夔@@
娠
孥
宀
尥@@
岎
峕
嵝
巕
庹@@
彜
忷
悆
惝@@
愍
拺
捄
搥
擣
攵
斻
昃
星期@@
晩
暈@@
暔
朓
柝@@
栱
桕@@
桼
梕
棙
椠
歐@@
毐
汚
洳
浄
済
溆
滁
潗
瀬
猖
猧
璜@@
瓩
疙
瘃
療@@
皚@@
眀
睼
砫
砬
碡
礉
祍
祓
窿@@
竰
笄
笏@@
笾
箓
簍
籐
紭
経
絾
綫
縸
繵
羅@@
翥@@
自攻@@
芗
苻
茁
薊
表水
衵
袚
詝
諦
貸
貿
輔
郖
郜
郤
醢
鈦
鏆
鐫
鑾
钏@@
锒
闳@@
阚
阿密
隨
雩
霖@@
餵
骞@@
骹
魮
鰕
鵝
鸪@@
齟
국
녵
놓
뗥
릎
몜
뷴
뺍
뻑
쭅
허






















漏
︳
Stora@@
แ
๐
๗
ᵒ
‚
⃣
℄
ⅸ
⒕
┲
╯
➤
゜
仮
俓
倥@@
倫
光眼
剝
単
卽
叡
呖@@
咫
哓@@
唅
唗
噢@@
圠
垚@@
姙
嫟
嬅
嬦
嬲
孛@@
寶@@
屺@@
嶄@@
巒
広
廛
廨
忳
悛
惝
懌
懱
扴
抜
捋@@
搕
撫@@
旻@@
暡
枸
柉
柗
桘
榘
橢
橹@@
檛
櫧
欌
欍
沕
泏
涖
涿
淆
淐
渾
溾
潰@@
瀧
煭
燴@@
牉
牙买@@
琇
琬@@
瑛@@
畓
畢
疬
痱
痻
眢
矗@@
砗@@
硖@@
祯@@
祼
秏
秪
稉
穉
穌
筦
築@@
紓
絶
緬
纟
绲@@
罰
罱
胙
胩
芵
荦
菗
葭@@
蒥
薤
藺
蘋
蝋
蠔@@
裣
觜
証
誘@@
謹@@
讟
豐
貣
贊@@
轱
迓
远镜
逖@@
邾
郄
郢@@
郾@@
鈂
銹@@
鋆
鐾
鑲@@
険
鞌
顒
願
颱@@
饨@@
驷
驽
鮈
鮮@@
鳇@@
麥
鼽
꾣
녷
눗
뢴
볆
삣
운
좋
척
캐




















車
錄
讀
︻
􀂉
amai
f16@@
fwlink@@
˗
מ
โ
๒
້
‵
ⅷ
∵
ⓨ
┃
▫
▷
佴
倉@@
倽
偈@@
傀
傗
儸
刖
劂
劼
匢
厲@@
呁
哓
唸
唽
嗾
噚
噣
噯@@
垳
堅@@
墻
売
夂
如图@@
妲@@
姝@@
嬥
嶼
廔
廢
彫
徑@@
恔
扂
拊
掮
攃
敂
斍
旖
晬
曅
柌
桽
棃
棒了
椥
槼
檝
檞
歎
殍@@
洐
浛
淨@@
湯
滖
漯
漶
濫@@
珤
瑧
瓤@@
甔
畍
畑
畩
痿@@
癝
癠
盚
盪@@
睚
瞓
礐
礡
礸
秕@@
租人
竆
笀
笩
箙
篃
紦
絓
綈
翥
翲
耪
腩@@
膨润@@
舄
茏@@
莶
莶@@
蒂固
蚰
蜚
蜞@@
蟛@@
訏
謷
豨@@
貳
赍
踽
輓
迮
醆
醐
釦
銂
銑
鋒
錨@@
鍮
鑮
铫
闊
隻
韓@@
題@@
顓
鮀
鱗@@
鲋
鲞
鸆
鹉
麗
검
꺢
꼽
냔
녶
돀
뗌
띨
띸
삿
쒼
욜
잤
저
졍
켖
탬
팀



























駱
卵
索
離
TOPI@@
ָ
ֻ
و
๓
ດ
₃
ℓ
≒
⒑
▅
▎
㈧
㈨
乼
仂
佪
修孔
偽@@
傭@@
儋
儗
匏
卡路@@
厙
叀
咛@@
坒
堺
壗
夀
夝
奅
奭
媲@@
嫚
尷
屲
岍
峩
崠
崦
嵴@@
巗
幣@@
庳
弢
弣
弱势@@
忢
总有@@
愆@@
憮
指肠
挼
捯
搇
撻@@
擨
斲
旮
曌
杴
枇
柝
栕
桖
棯
様
槪
欙
歴
汎
汙
洧
洸
浥
滲
漢@@
煆
爮
狓
猲
玕
畬@@
痄
痄@@
瘞
発
盅@@
睭
矣@@
矬
磌
磔
礞
禒
窪
篙@@
粴
紐
絹
綼
緛
緬@@
縣@@
罍
耶路@@
聱@@
肪@@
膕
舴
芠
茞
茠
萁@@
萛
蓳
蘋@@
蘗
蚥
謀
謦
讛
语表
踐
踔
蹀@@
軍@@
遐
邽
郚
郛
釬@@
鈎
鈡
錠@@
鍫
鐵
钘
陴
雲
韜
髎
鯨
鯸
鰤
鹁
齑
긁
긱
꼼
녜
됐
딪
땜
띶
렛
롤
몹
뭉
뱀
앭
앮
약
양
에
엥
옰
초
춼


















療
://@@
ɣ
ב
צ
׳
ق
ๆ
⃒
⒇
┛
╪
▁
不列@@
丿
乆
俰
偛
傧
僛
兂
兖
刿
剗
剽
劉@@
勰@@
勻@@
卐
厒
咲@@
哕
哽
啞
圌
執@@
塭
嫳
孟加@@
崷
嵏
嶰
帔
廾
忾@@
怖@@
惦
憗
懔
戋
挩
挷
捙
损益@@
掊
掞
掭
揸
撅@@
撱
擡
擴
无家@@
枂
栥
桝@@
桴
棑
椑
椢
榈@@
榦
欸
欽
殻
毞
気
氢酶
氺
涍
涑@@
淉
漲
潟
潳
澷
濟@@
瀞
炪
獗@@
玑@@
玭
珣
琯
瑆
瓘
痠@@
瘡@@
皻
盞@@
盥
眍
瞏
碻
磲
禆
稲
窣@@
純@@
絞@@
緝
緪
羮
耩
胬
胴
脫
膞
臗
芲
苧
荖
莳
菝
菥@@
葉@@
蒁
蔹@@
蘧
蛷
蜞
蜮
蜾@@
蟊@@
蠁
衖
観
觃
觋
觌
詠
譜
譫
讶
貔
貭
賡
賽@@
赒
躐
躜
輛@@
農
遲@@
邿
郇
郾
醍
醑
銊
鍕
鍭
鍯
鏙
铎@@
镢@@
閃
陽@@
馔@@
魍
鮨
鮮
鰡
鹽
齠
龠
꿉
낄
넷
뢛
릴
맂
묾
벵
붤
붷
붺
쌤
썅
쎍
쏨
쟁
좁
춡
킹
텬
푀























女
簾
履
﹛
􀁺
ˆ
ְ
ה
י
נ
ฎ
๕
⎯
⑮
♥
〆
与众@@
丒
仒
代皇帝
俍
俠
俵
偬
処
匉
卩
叓
唸@@
喓
噹@@
回阀
圴
堔
堬
墷
夘
奬
姵
婁@@
媵
嫋
嫰
孳
実
寃
岌
峁@@
峘
峯
崞
嶕
巬
庛
廤
恆
悃
愍@@
慣
憭
懍
抉
抨@@
拲
掋
揓
揫
搖
搚
搧@@
搨
擊@@
擠@@
擰
擻@@
攣@@
斃
昇@@
昝
昶@@
楩
楮@@
槗
檙
欒@@
欖
殣
殭
毖@@
毳
汫
泔
洅
涳
涼
淯
渉
濂@@
烚
焼
煴
牁
牼
犽
狅
狲@@
猸
獇
獍
珙
珮@@
珶
璡
瓻
畋
疰
瞵
硇@@
硙
祉@@
禜
禤
穎
穰
笊@@
筈
筴
篜
籃@@
粙
紤
纭@@
聼
肀
肞
肶
能见@@
腳
膚
舥
舻
芐
苧@@
蒌@@
蓊
蕆
薁
薄弱@@
蛱
蜴
蝕
蝴@@
蟈
蠑@@
蠶
衛
裀
西班@@
訾@@
謂
譭
踞@@
踬
踺@@
遝
郦
鉬
銀
銅@@
銹
鋒@@
錫@@
鏽
鐠
钂
钷
锬
镔
镔@@
関@@
閤
閥
闸管
阏
阰
陊
隹@@
靬
飔
餽
饹
髁@@
髦@@
鬯
鱀
鳠
鴢
鹓
黻
鼑
겜
겯
꺣
껸
늽
뜔
릤
쀦
셌
쇸
썹
쐙
쐼
즘
쩀
췄
켗
휨





















零
見
Validator@@
contentredirect.asp
ϭ
ִ
ד
๋
์
ວ
ັ
⅓
┠
㊣
㎲
东省
両
五入
亜
亻@@
仵@@
伛
侪@@
俟@@
倂
們@@
倨
偄
偵
僱
儭
冪@@
剎
勠
唥
圉
圻@@
垏
埇
埒
塎
塗@@
墊
墣
壍
夢@@
夲
妫@@
妵
婬
宮@@
屦
岡@@
峃
島@@
崘
崥
崻
帮助@@
幾
廍
廚@@
廯
徘
总裁@@
憃
憸
懯
戯
戾@@
扞@@
抔
挬
捈
捤
搊
擮
旰
昹
昻
暿
曋
曽@@
朳
栵
梷
棔
棷
椟@@
楽
榇
榼
樫
檻
櫨
殘
毊
毖
氇
洁度
浂
渖
漿@@
潆
澉@@
濕
瀣
炅@@
燐
燒@@
牺
獄
獊
玠
琕
琲
瑚@@
瑯
甁
甕
甛
痴呆@@
瘜
瘭
盤@@
眊
県
瞋@@
硇
碏
祿
禛
秫
稶
穸
窵
竜
筭
箞
箪
箵
簙
簾@@
粢
紵
綠
綮
綺
緘
緣@@
緾
网眼@@
罙
翍
聰@@
肄
肏
脩
腠@@
腫
臝
舢
舺
芤
荏
莜
莩
萚
萣
葑@@
葸
蒯
蔫@@
蔯
蕲
藍
蚘
蜘@@
袂@@
袞
袟
袪@@
觳@@
訣
話@@
讠
貍
趺@@
踭
蹒
迠
遨
酎
酕
醌@@
鋼@@
钯@@
锔@@
镈
镝@@
镠
镤
闕
闩@@
靺
鞨
韫@@
顴
颽
颾
馇
駭@@
騖
騷
骠
鱲
鳘
鳳@@
鸺
鹖
鹾
麗@@
麿
黃@@
鼷@@
게
겠
굛
돠
됮
룾
미
븀
뺝
뻐
뿭
숨
썮
쑴
씩
옜
우
짇
찮
컴
훅






























亮
Rainf@@
ֶ
ֹ
׃
ن
ⅶ
↘
⑯
⑰
⑲
⒙
┞
┩
┶
╧
➮
亂
亶
人寿@@
伃
佥@@
侸
俆
倬@@
倮@@
凊
凱@@
劭@@
包人
印第@@
厶
呶@@
哢
喥
噠
圝
垧
埏
埞
埤
堌
堏
堐
堶
壸
夢
夣
夤
夤@@
夬
失所
妿
姉
媽
孱
宬
寛
尪
屍
屛
山车
崐
崕
嵐
嵫
幨
影像@@
怎样@@
怱
愶
愾
慓
慬
憤
戃
戸
抨
挹
掆
掬@@
揎
搖@@
摀
摉
撲@@
攺
晊
晍
暼
曉@@
曦@@
柕
桾
梤
棟@@
檈
欬
殄@@
殏
氆@@
洨
浯@@
淚
滏
滐
潠
澤
濃@@
烆
煐
犇
狹
狻@@
猇
猏
猕
珽
琘
璂
畑@@
畝
畢@@
畱
瘣
眭@@
矩器
础@@
硠
碦
碩
礞@@
礽
祼@@
禮
秳
秼
穢
竑
笎
筆@@
筍
箮
篭
簞
粆
紛
絳@@
緉
繰
缲
翵
耞
聚类@@
肣
脈@@
臚
艄
艨
茑
莊
菽@@
萑
葀
蔥
蔵
蚳
蝨@@
螵
蟲
詩@@
諮@@
譴
讴
谰@@
豖
賠
贈
趨@@
跞
跡@@
輻@@
辭@@
遘
遷
邰
郄@@
郋
鄱
酘
酲
鉻
銎
鋮
錀
錠
鏃@@
鐎
钃
锗@@
镞@@
長@@
隗@@
隸@@
鞷
飣
馄
馓
驚@@
魙
鰗
鵰
麈
麚
끾
녇
념
닷
뒫
디
뙇
뙟
뿟
섀
성
셰
쏟
쓱
애
재
주
쫠
체
툽
틣
틪


































領
︵
spaceb@@
ַ
ֺ
ײ
ؤ
ฆ
ລ
‣
⒗
Ⓐ
ⓧ
┌
╜
◈
♭
❝
❤
仴
佗@@
佝
倆
倻
偊
偱
僬
公河
凍
凑型
刭
刽
剳
卻@@
厭
叝
咙
営
嘇
嘠
噹
嚴
囓@@
囶
圯
坁
坲
埶
堊
塵@@
塼
墝
士丹利
奃
奓
娒
孒
寀
尙
岲
岵
峫
崮@@
嶸
巉
巐
巹
帗
弪
怢
怿
恎
惃
惓
懇@@
懸@@
戓
抻@@
拶
揍@@
揾@@
搘
搠
摚
擜
擵
攤@@
攩
攴
敔
斮
方图
晈
暩
曻
朢
柨
柵@@
梊
棊
椙
樋@@
櫞
歳
殌
殳
殼
毚
氽@@
沺
泅
泺@@
洎
洑
浃
渫
湎@@
溽@@
滹
漴
漸@@
潋
澍@@
澗@@
瀅@@
瀹@@
灑@@
烔
烕
焱@@
燭@@
爺@@
牘
牯
牷
犠
猠
瓛
瘧
皕
盉
眽
瞌
瞞
瞮
砎
砯
磃
磬@@
礦
禘
禫
秾
稟
稩
穏
窛
筊
篝
篥
絜
綒
緃
縩
繎
纐
缳
羕
翈
翉
習@@
翛
耷
聞@@
脹@@
腎@@
腫@@
腳@@
自闭@@
艶
芅
苘
苜
茩
荥
莒
莯
萆@@
蒺
蔌
蔣@@
薮@@
藐
蘅@@
蚰@@
蚶@@
蜿
蟀@@
衇
褴
覦
觹
訟
訽
譎
诩@@
诰@@
豷
賙
趑@@
跐
跩
踣
蹉
蹾
輥
轄
轺
辶
遼
邁@@
邐
鄰@@
醭
鈅
鈡@@
鉤
鋥
錢@@
鍌
鏖
鐽
锊
锜
锼
锿
镄
镋
閬@@
闉
闊@@
陑
陳@@
隣
隼@@
雞
霧
靿
韡
響@@
餮@@
餽@@
饸
騠
髖
魈@@
鳥@@
鵎
鵼
鸫@@
鸳
麩
겟
겹
깿
뉑
대
뤷
맏
맨
뮌
뵷
쁈
솴
신
염
작
죙
지
쬠
취
췻
펹
한
혜
홱
횻
훈




































奈
露
北
臨
神
﹎
􀀀
􀄼
˘
ֳ
א
ץ
ญ
ู
๑
ຊ
ມ
ຫ
ອ
ი
℡
⇔
┘
┙
┢
┤
┨
┫
╝
╨
▇
◀
✘
㎫
㏄
乣
亀
侜
侩@@
侶@@
俢
倕
倠
倢
傾
兎
円@@
剟
功于
勄
勅
勞
发达@@
呙
呾
嗑@@
嗮
嘖
嚇
嚑
嚒
囘
圾@@
坰
塝
塵
墜@@
壦
奣
妢
妣
姮
姶
娕
娛
婼
媟
嫍
嫚@@
嬒
宥@@
専
尻@@
屨
岝
岡
峉
崟@@
巶
廫
弅
式机
当务@@
彖
役权
徕@@
徜
忐
怃@@
恞
悱
悵@@
惤
慁
慝
慾
憛
懏
懷
拑
掽
摒
撖@@
撫
撺
擼
攪@@
敉
时捷
晫
暌@@
暦
曁
朣
枱@@
枵
枾
柶
栍
栟
桎
桵
梋
棸
棽
楜
榥
櫄
櫤
欀
歸
殀
氹@@
汃
泙
涾
淓
渋
湊@@
湧@@
漖
漥
漼
潯@@
潱
潲
澐
澯
濸
烜
燒
爙
牀
牭
狁
狺@@
猱
獾@@
玾
珝
珰
理图
琮@@
甓
甦
畔@@
畧
疰@@
癐
癔
癴
眃
眄
眣
睒
瞙
瞠
瞹
瞻性
碩@@
磻
礟
礠
礤
礻
禠
稔@@
穀
穂
窅
窎
窞
窪@@
窬
竝
笊
筻
箬@@
簣
籈
粔
絣
絻
綻
纒
纻
缵
罀
罡@@
翚
翧
翯
耑
聡
胣
膩
膽@@
臩
舎
舕
舳@@
舽
苐
荦@@
蒗@@
蓮@@
蔠
蕋
蕓
藇
藑
蘆
蚅
衃
衊
衶
袈
諧@@
諸@@
豌
豕@@
貳@@
賜
賺
跽
輝
轄@@
轵
辭
迺
逕
逺
遷@@
邠
郅@@
郿
鄰
酙
釁
釐@@
釴
鋁@@
錞
鍴
鎈
鎌
鎔@@
鐦
鐮@@
钊@@
锦标@@
锽
閡
阭
陜
陽
隗
隰
隲
靣
靨
靭
顆
駃
骻
魽
鰍
鱆
鳔@@
鵙
鶀
鶪
鶿
鸱@@
鹵
黼
각
곈
교
기
껃
꾡
꾥
뀽
낍
나
뇽
뎐
뗦
뚖
뜹
램
뤺
뭽
밦
볠
뵙
빊
쀨
삞
선
쑍
쒎
쒜
업
엹
이
좐
쭉
췢
팁
펭
폶
훵






































拉
蠟
老
良
林
粒
都
ﾺ
􀂃
􀂾
Microsoft.com/@@
̀
̅
ֱ
ֽ
ס
ף
װ
ج
ص
ط
ࡊ
ກ
່
‗
⁴
Ⓓ
Ⓔ
▉
❍
㈩
㎚
乀
亁
亽
介石
以赴
侂
侉
侉@@
俁
倁
倖@@
偲
僟
儙
儰
冏
务人
劯
匸
匽
厭@@
叞
吀
吣
呂@@
嗚@@
嘊
嘋
嘔@@
嘦
噷
嚦@@
囑
垆
垤@@
垻
埾
堊@@
堷
塈
壇@@
壈
壏
壠
夞
妦
婲
媼
嬖@@
嬠
嬰@@
嬻
屜
岦
峋@@
峽@@
崪
嵷
嶂@@
嶾
帊
幮
庴
弮
弾
徦
忲
怍@@
悅@@
惄
惞
慒
憔
憿
懗
懝
扆
抳
拃
挿
捚
掎@@
排行@@
掲
揨
揮
揶
搶
摃
擆
擧
擺@@
攬
旕
暅
暤
曠@@
朕@@
朩
杽
枘@@
枬
柖
柲
栤
梻
椖
楛
樸@@
橾
櫃@@
櫔
櫙
殺@@
毬@@
氬@@
氿
沄
洤
洬
洭
渃
湅
溷@@
滝
潧
濞@@
濿
灠
災
煑
燦
燹
燿
爛@@
牬
猀
獀
獟
玃
玎@@
玱
珏@@
珒
瑺
瓚
瓥
畎
畐
痁
痺
瘌
癍
皞
睃
睟
睱
睺
瞉
硚
磭
祕
禎
秂
窀
窺
竀
竄
笍
箋@@
箐@@
篘
簻
籊
籌
籪
糏
綊
緙
緢
繋
繜
纇
级社
缯
罷@@
聾
胪@@
腄
腖
腣
腤
腸@@
舣
艟
艱@@
芴@@
荛
荬
莮
莿
菛
菜单@@
葇
葙@@
蒨
蕰
薦@@
薨
虷
蚯
蝌
螠
蠎
裈
裶
褀
訴@@
譲
讚
诿@@
豳
貼@@
賣@@
贊
赑
赜@@
趎
趕@@
踺
蹂
蹯
輠
辂
迻
邳
郈
郉
郓
酦
鈴@@
鈻
鉅
鉢
銉
鋋
鋤
鎅
鎳
鑃
鑠
鑪
铦
铺机
锖
锞
閼
阏@@
阾
雎@@
雙
霣
霹
鞡
韋
頞
顏
顗
顥
页面@@
颙
颛
颟@@
颩
颯
颱
饈
饒
駛
験
驕
驩
骍
骯@@
鬘
鬧@@
鯢
鱣
鱵
鲏
鲘
鳑
鴥
鴵
鶵
鹁@@
鹆
鹜@@
黵
鼢
굇
꾜
꾤
뀁
뀲
날
뇟
뉩
당
댛
덞
뎀
됭
똫
똬
뛊
뜒
뜮
럿
로
룟
멀
멨
모
뭐
백
뷘
븐
뺌
삇
샌
샯
섇
쉰
쌧
썼
쎾
쐣
쓴
씭
얻
왝
윜
을
준
쪄
쫀
춻
컇
크
탱
퍜
폼
풏
하






































復
葉
掠
輪
里
︶
﹌
ￚ
alse

̃
̊
ׁ
ז
ק
ء
أ
ش
ฅ
ງ
ະ
ີ
ᄋ
ả
⅞
⒛
Ⓛ
┆
┚
┭
❷
㎎
一模@@
丵
亶@@
仧
佂
侺
俔
倝
倧
偝
傑@@
儠
儼@@
冨@@
剀@@
剝@@
劊
劋
劌
卬
吳@@
咆
咜
啁
啯
喍
喪@@
嚄
嚙
嚸
土化
坌
坵
埬
埯
埳
堄
塊@@
塋
塍@@
墚
墺
奮
妋
妛
娆@@
婭@@
媲
媽@@
嫈
孃
寈
岥
峚
峣
崴@@
崺
嵬@@
巎
巭
巻@@
幟@@
幠
庈
庠@@
庻
廌
廧
廩
廴
弎
彎@@
彘
徤
忉
忦
恝
惢
惻
愅
愼
慶
憍
懭
懼
扐
払
扱
抇
抈
抦
拤
捀
揼
搌
摗
撢
擝
擳
攇
攔@@
攢@@
斉
斎@@
斸
旜
旝
旣
昐
昤
昦
晗@@
暢
暻
曉
曊
朜
朲
朼
杤
杲@@
柙
柤
栻
梑
梒
梺
棁
棐
棭
棲@@
棳
椀
椨
椩
椫
椺
楯
槊@@
槍@@
櫓@@
櫠
氎
泃
洇@@
洵@@
洷
浡
涒
淎
湧
溁
溽
滮
漁@@
漢
漷
潁@@
潙
潴
澌
澪
灘
灱
烀
烇
焅
熘@@
燁
燉
燙
燠
爰@@
牍@@
牤
牪
牽@@
犛
犛@@
犷@@
狽
猶@@
玍
珎
珧
珻
珼
理处
琋
琚@@
琞
琣
瑋
瑨
璈
瓊@@
甑@@
畯
疋@@
疨
瘅
瘋
瘺
癃
皁
皊
盧
眛
矓
硋
碓@@
磚
磧
磯
礙@@
礦@@
祮
禇
禔
禟
禲
稤
稴
穋
穘
穫
笿
箄
箖
箻
簅
簖
簤
粖
粫
粻
糈
糢
絢
緄
緞@@
緱@@
縤
繪
缧@@
罞
羑
羾
翃
翐
翫
翬
翹@@
老汇
耔
耪@@
耴
肁
脇
腇
腡
臘
臟@@
苌@@
苬
苸
苾
茈
茺@@
菀@@
菕
菻
葠
蒃
蕔
蕣
蕤@@
蕩
薐
蘚@@
虉
蚍@@
蚨@@
蜄
蜩
蠖@@
衖@@
袤@@
袶
裵
褠
褩
襖
襯@@
覚
觱@@
詐
詴
謸
謻
譈
譍
豛
貢
賂
賋
贓
贠
赱
趿
跂
蹻
輘
輭
輿
迣
郲
鄭@@
酤
釔@@
鈦@@
鉓
鉻@@
銌
銘
鏊@@
鐉
鐌
鑽@@
铇
铓
锱
长国
闍
闭机
阄@@
陎
陰
隴@@
靏
靸
韓
頒@@
顕
飼@@
餦
馹
騙
驒
马达加@@
髀@@
髧
髫
鮡
鮭
鰲
鰹
鲥
鳁
鳆
鳇
鳚
鳥
鴞
鴠
黧
鼷
齡@@
龊@@
龤
갰
곁
궧
꼌
뀌
뀬
끻
낁
냘
넹
녑
녕
뇛
는
닑
뒀
뒪
떨
뚧
뜲
뜻
띴
띺
렉
륙
먳
멊
명
별
볽
뵉
뵻
삯
살
섹
쇔
싦
쌓
쌘
쑉
씐
얍
옻
윗
융
의
일
장
쟻
정
쩡
탰
툇
툗
폤
퐅
퐋
퐪
환






















































喇
樂
落
練
裡
精
ﾰ
􀀁
ə
ɛ
˂
̈
љ
џ
Ґ
ׂ
،
ح
ف
ه
ๅ
ຜ
ິ
ຸ
ົ
ა
შ
ᴑ
‪
‫
₵
Ⓑ
Ⓒ
Ⓙ
┵
┷
╟
▌
▣
❒
❶
❸
➡
㈱
㎩
㎼
上好
丬
乚
仏
仡
以下@@
仯
仵
伋
佉
佧
侅
俉
偉@@
偤
傕
傥@@
傺
僇
僤
儤
光导@@
兲
刋
刓
剅
劄
劬
占空@@
厍@@
吙
呡
咼
唎
唣
唦
啱
喆@@
喏@@
噊
噍
噐
噦
嚅@@
嚏@@
团队@@
囫
圗
圱
圵
圸
坋
垠@@
埍
埓
埣
埤@@
塚@@
塨
塸
墊@@
壀
壄
壎
壞@@
壯@@
夑
奮@@
姷
娍
娷
婋
媖
嫕
嫢
嬾
宂
屢
峜
崳
嵟
嶋
嶔
巣
帱
幍
幬
庁
庒
庰
庼
廟
弴
彺
忨
怳
悤
悪
惣
愗
愜
慇@@
慏
慶@@
慺
憲@@
懛
懞
懲
懸
扡
扷
拏
挀
搸
擯
擸
攪
攲
敄
敇
敘@@
敨
斉@@
晇
晛
暍
暭
曃
曣
曵
杛
杸
果说
枴
柃@@
柅
柮
柵
栄
栳
桟
梄
梽
棅
棝
棨
椧
楱
榚
榮@@
槅
槚
槧
樁
橽
櫩
櫼
殁@@
殄
殇@@
殪
氈
氷@@
沘
洧@@
淰
渑
渟
湃@@
湹
溉@@
滾
漬
潻
潾
澔
澥
澱
瀕@@
灓
烬@@
狆
猤
獮
獻
玓
瑒
瑱
璎
璗
璟@@
璿
甍
疌
疐
痊@@
痖
痬
痸
痼
瘢@@
瘵
癇
癩
皘
盜
盜@@
真寺
眲
眿
睄
睰
矂
矇
矑
砕
砳
祰
秎
秺
稂
稓
稢
稣@@
穬
穰@@
窊
窩
窾
笳@@
筂
筜
筼
箏
簦
簰
籠@@
糇
糞
糨
紉
紏
紹@@
絖
絠
綘
緲
縂
縄
縧
繄
纩
绖
绡@@
罈
罠
罣
罣@@
罰@@
羙
羬
羭
羱
翣
聃@@
肅@@
肜
脕
腂
腃
腜
腟
膣
臖
舂@@
艙
芀
芧
芰@@
苳
茲@@
荑@@
菑
萡
落度
葙
葝
葰
蒄
蒚
蒭
蓆
蔴
蕞@@
蕪
蕭@@
蕹
薆
薥
虧
蜒@@
蜭
蝀
蝟
蝨
蝪
蝼
蟃
蟄
蟪
蟲@@
衂
衤
袴
訰
詛
詮
詰
誃
誰@@
諁
諧
謠@@
謫
譇
讓@@
谮
豋
豎
豨
貓
貓@@
貧@@
販@@
賛
贇
贍
贗
赗
趨
踇
踌
蹍
蹵
躉
躝
軀
軛
轪
近平
透社
逡
逨
逶
遙@@
邉
邙
鄉
鄉@@
鄲
酆@@
酫
醷
釣@@
釭
釵
釺
鉨
鋂
鋗
鋪
鋰
鍍@@
鍾
鎊
鎧@@
鎮@@
鏡@@
鑌
铉@@
铘
锳
锹@@
镮
閝
閼@@
陏
陝
陝@@
隦
雖
雞@@
雰
霌
霪@@
霺
鞏@@
鞚
韟
顐
颢@@
餗
餚
餫
餺
饇
香糖
駛@@
駿@@
騵
騷@@
髃
鬥
魣
鮊
鮞
鯻
鰮
鲬
鳓
鳦
鳯
鵡
鶩
鷟
鸚@@
麴@@
黩
黹
齊@@
곕
공
괵
귛
꼴
뀉
끀
끿
내
녺
녻
놂
댆
덃
델
동
둬
땟
뙁
뚨
띹
렎
룡
릮
림
매
맺
머
멱
몇
뫄
뭅
바
벅
빅
뺐
뽫
삻
삼
삽
샑
섋
셩
수
숯
스
싧
쑯
앳
어
옖
왁
요
응
쟘
즳
짧
쨋
칵
컸
쿡
텻
툔
틢
퍨
펌
퐬
픍































































勞
諾
戀
硫
宅
ﬂ
﹨
﹩
ﾩ
𝑇
𝜎
Microsof@@
http://www.Microsoft.com/@@

ʼ
ϑ
ϒ
ϛ
Ϭ
ϵ
Њ
Ћ
ט
ך
כ
ע
פ
ױ
ظ
ك
฿
๏
ຍ
ຳ
ແ
ໜ
ე
‴
⁵
↗
↪
∯
≅
⑱
Ⓕ
Ⓖ
Ⓚ
║
╓
╛
╬
╮
❹
➄
丷
乗
乸
亂@@
亠
仉@@
仨@@
仩
伥@@
伨
佄
佴@@
侘
価
侷
俿
倖
倞
倹
偲@@
僙
僩
儉@@
儔
儼
兿
冂
冸
凅
凱
刎@@
刼
剘
剙
劖
劻
勖@@
勥
勸
北省
厼
取而@@
吢
告诉@@
呺
咑
咠
咡
咲
唃
唼
啍
啩
喬@@
喲
嗱
嘖@@
噉
嚆
嚐
嚢
嚶
囓
囖
囼
圉@@
圫
坩
垬
埖
埜@@
堅
堨
塜
塩
墟@@
墮
墲
壌
壝
壢
壺@@
奂@@
奌
奍
奞
妺
姇
媕
媜
媤
媬
媸@@
嫀
嬝
嬤@@
嬰
孲
宧
尌
峆
峝
峴@@
崣
崼
嵒
嵕
嵚
嵡
嶍
巇
帡
帾
幩
幪
庩
廐
廚
廳@@
弉
弫
彌@@
彵
彽
彾
徬
忞
怄
怆@@
怤
悺
悽
愇
愔
慇
慞
慮@@
憇
憙
懐
懢
懼@@
戆@@
扙
扵
抐
抔@@
択
抮
拀
挅
挴
掙
揽子
摅
摕
摙
摠
摡
摢
撧
擋
擪
攉
攟
敀
敆
敥
旰@@
昮
晅
晉@@
晸
暉
暋
暎
暢@@
暪
暷
曶
朶
杇
杕
杼@@
枊
枴@@
枻
柈
柷
桺
梖
梜
梶
梼
棡
椃
椌
椔
椚
楗
楫@@
榱
樠
権
橍
橿
檵@@
檸@@
櫘
櫡
欻@@
歺
殂
殠
殶
毪
汭
沋
沨
沩
泧
洙@@
洟
涏
淂
渿
湶
湼
溚
滢@@
滪
漁
漣@@
潥
澂
濤
瀭
灗
烜@@
焠
煖
燗
燙@@
燚
燻
爘
爝
爢
牐
牗
牚
犑
犒
犴
狥
狰
獅@@
獸
玒
玼
珺@@
琂
球墨@@
琎
琔
琖
瑃
瑇
瑯@@
璩
璪
璱
璽@@
甌
甐
甕@@
畄
畠@@
畤
疁
痃
痚
痠
痺@@
瘊@@
瘐
瘓
癉
癙
癩@@
癱
皀
皺
皿@@
盷
睷
瞊
矍
矘
矰
砮
碇@@
磂
磉
礓
礖
禗
秄
稙
稦
稧
稪
稭
穇
窂
竓
笐
笕@@
笚
笰
筅
箒
箜
篗
簚
簵
簷
籌@@
粚
糧
糵
紱@@
絛@@
絨@@
綁
続@@
綜
綢
綽
縈
縊@@
縐@@
縢
縫@@
縱
繆@@
繝
繺
纏@@
纘
纜@@
纫@@
缼
罁
罌@@
罏
罫
羉
羗
羳
翄
翏
翺
聱
肐
胼
脁
脄
脞
脩@@
腨
腸
腼
膄
臉
臉@@
臏
臥@@
臮
舁
舄@@
艨@@
芘@@
芟@@
苶
茘
荓
荕
荳
荸
莕
莛
莤
莴
菢
萩
萮
萳
葩@@
蒉
蒧
蓴@@
蔔
蔕
蔥@@
蔩
薈
薬@@
蘚
蘜
虲
蚏
蛂
蛝
蜘
蜰
蜻
蝤@@
螓
螕
螚
蟌
蟻
衱
裖
裧
褊
褝
襀
襯
覂
览会
詌
詮@@
誇
諂
諍
謎
譊
譓
譠
譥
譫@@
豬
貙
貢@@
貮
賀
贛@@
贶
跘
蹑
蹕
蹠@@
躱
軑
輙
輞
輻
轝
轟@@
辇@@
辎
辯
迻@@
通配@@
遀
遄@@
邃@@
邏
邶
郳
醂
里兰@@
鈉
鈺
鉀
鉍
鉛
鉬@@
銥
鋁
鋐
鋬
鋻
錨
鍡
鎱
鏘
鐊
鐧@@
鐬
钁
钲@@
钺@@
钿@@
锟@@
镚
镳@@
閙
閞
閟
闕@@
闖
阃
隃
隝
雃
霨
霽
鞜
韋@@
韌
韢
頃
頸@@
顅
颥
飽@@
餅
餵@@
饋@@
饍
饞
饦
馃
馗@@
馞
馮@@
駁
駱@@
騰
驍@@
驚
驢
骖
髄
髪
鬖
鬲@@
魋
鮋
鮑
鮑@@
鮣
鮶
鯀
鯙
鰂
鰭
鰴
鱘
鱙
鱚
鱯
鲒
鲖
鲰
鲺
鳏
鵐
鵬
鶰
鷵
鹌
鹠
鹽@@
麆
黪
鼔
鼪
鼫
齁
齧@@
갚
걜
곗
곤
곫
곳
굡
궍
귄
귚
꺮
꺼
꺽
뀯
놪
뉏
댁
돥
돬
됬
둅
뒣
드
듿
떽
뙞
띈
띌
롇
뢿
료
뤹
륫
말
뫆
묈
묛
뮬
믓
믯
받
밝
뵳
뷜
뷸
븅
븚
빎
빜
빻
뽬
쀥
산
솮
쇾
숂
시
쌔
썓
쎅
쐏
쐦
쓰
씁
씌
아
앙
없
욄
울
육
은
자
젃
졾
좈
줄
쥦
쭛
쭤
츐
컙
쾀
텃
튌
팎
퍏
펤
퐤
푶
훭
흽








































































蘿
爛
壘
殺
陸
蘒
﹏
ﺎ
𝐸
𝑚
􏰁


ɴ
ˈ
Џ
ѐ
ђ
ֿ
ם
خ
ز
ߦ
ि
ຄ
ຕ
ທ
ບ
ູ
გ
თ
რ
ფ
ា
ᶾ
ṃ
ạ
ế
ố
ồ
´
ⁱ
⁸
₪
℠
⇓
∇
≪
≫
⌘
⑳
Ⓗ
Ⓜ
ⓐ
┣
┧
┴
╈
╒
╤
▨
☏
☤
♠
♩
♯
✌
✠
✤
✮
❁
❚
➀
➁
〤
㎽
丮
丯
丳
乕
乽
乿
亅
亼
仉
仐
伉
伝
侖
俛
俠@@
俤
俲
俹
倗
倞@@
倯
偂
偢
傒
僑
僸
儐
儓
儱
儳
兇
兠
冖
冱
凓
凪
刉
劄@@
劏
动箱
勔
勲
勸@@
卄
卨
厫
厬
叴
吅
吳
吶
呍
呗@@
员国
呻
咇
咾@@
唝
唢
啅
啨
喞
喪
嘍
嘒
嘜
嘣@@
嚬
図
園@@
圛
坙
垞
垺
埚@@
堃@@
堧
塉
塞浦@@
塥
塮
塲
墰
夗
姵@@
娣@@
娸
婑
婭
媧
媿
嫜
嫥
嫪@@
嬀
嬑
嬿
孫
宨
宭
寊
寑
寢
寢@@
层气
屃
屆@@
屇
屓
屴
岕
崦@@
崰
崿
嵞
嵥
嵦
嵽
嶢
嶴
嶺@@
巔
巖
帣
幄@@
幋
幞
幤
庉
庱
廂
廈@@
廎
廪@@
弍
弲
弸
彯
従
忂
忬
怃
怫
恈
恓
悌@@
惖
惪
惵
意儿
愜@@
慩
憐@@
憓
憕
懜
懮
懲@@
懴
戀
戲@@
抂
抃
抩
抭
挊
挗
挱
捑
捖
捜
捥
掁
掝
掟
掦
掫
掵
揞
搆@@
搢
搫
搼
摐
摑
摜
撨
擃
擥
擶
攊
攐
敉@@
敟
敠
斃@@
斫@@
新泽@@
旍
旔
旛
无与@@
旼
昀@@
昅
昺
显而易@@
晝
晧
暲
曀
曂
曄
曇
朌
朏
朚
朧
朷
杪@@
枔
柍
柡
柽
栃
栆
栐
栔
栠
桊
桍
桴@@
梈
梱
梹
棦
棧
椕
椘
椞
楇
楒
楻
榋
榎
槍
槨@@
槱
槴
樐
樞@@
橐@@
檃
檗@@
櫈
櫚
櫟
櫥@@
櫻@@
櫽
歃
歋
歐
歔
歲@@
殤@@
殫
殽
氀
氲@@
汄
汣
汸
沆
法论
泝
泲
洌@@
洦
浕
涼@@
淥
淧
淵
淺
渒
渓
渦
湣
溂
溦
漤
漲@@
潑
潕
澒
澤@@
濶
瀎
瀧@@
灬
炟
炾
烝
烿
焛
焟
焯@@
煄
煏
煠
熤
燬
燿@@
爀
爐@@
爨@@
牮
犋
犎
犼
狢
狶
猒
猟
猷@@
獂
獻@@
玈
玚
玥@@
珔
珗
珧@@
琰@@
琻
瑩@@
璄
璅
璚
璯
瓁
瓸
甗
甴
畊
畋@@
疻
痗
痙@@
痾
癆
癲
癲@@
皏
皦
皪
皰
皳
盋
盌
看器
眡
睜@@
瞆
瞼
矅
矚
矧
矻
砢
砪
砲
硾
碔
碠
碮
碷
磝
礯
礳
祆@@
祐@@
祤
祲
祹
祾
禪
秹
稲@@
窇
窢
窰
窽
竂
竦@@
竲
笄@@
笇
笥@@
笫@@
笹
筢
筢@@
筽
箉
箘
箰
篋
篐
篕
簃
簰@@
簹
籖
籣
籥
籬
粁
糐
糓
糱
糺
紈
紋@@
紓@@
紳
紸
紺
絅
絎
絙
絽
綝
綯
緑
緘@@
緰
縁
縎
縳
繕@@
繞@@
组成@@
缊
缵@@
罊
罋
罤
罵
罶
罻
羀
羍
羏
羪
羻
翂
翤
翽
翾
耊
耝
耥
聤
聨
聾@@
肧
脨
腛
腪
腴@@
腶
腽
舙
舧
艙@@
艦
芄@@
芣
芩@@
芼
苖
苪
荅
荛@@
莊@@
莵
菋
菧
萢
萰
萵
葈
蒱
蓏
蓚
蓮
蓰
蓷
蕗
蕡
蕭
蕻@@
薊@@
薙@@
薣
薸
薺
蘆@@
虓
虸
蚖
蛥
蜈
蜝
蜮@@
蝃
蝘
蝭
蝯
蝲@@
蝳
蝾
螦
蟈@@
蟟
蟫
蠂
袱@@
裋
裦
褆
褍
褛@@
褼
襍
襬
襲@@
覑
觕
觟
觼
觽
訐
訒
訚
訲
訹
詈@@
誩
読
誼
諳@@
諶
諸
謀@@
謖
謙
謾
讔
讨价@@
诌@@
豰
貒
貪@@
賤@@
贑
贛
贳
赙
赟@@
趱
趶
跥
跰
踹@@
蹃
蹅
蹋@@
蹐
躔
軒@@
軽
輒
輦
輾@@
轢
轸@@
辂@@
辯@@
邁
邲
鄘
鄜
鄧@@
酜
醬
釸
鈞
鈤
鉉
鉗@@
鉮
鉼
銇
銈
銤
銧
銨
鋅@@
鋯
錐@@
錧
録
鍆
鍇@@
鍰
鎌@@
鎗
鎗@@
鏗
鏠
鏣
鏪
鐀
鐚
鑛
鑩
钀
锠
镚@@
閥@@
閩
闡
闡@@
闬
阼
陞
雑
雠@@
霈@@
霤
霫
鞢
韜@@
韻
頓@@
頗@@
頰
顛@@
顩
顫
颋
颣
飄@@
飐
飯@@
飽
餅@@
餠
饧@@
饾
饾@@
駄
駫
驨
驫
骒
骧@@
骫
髈
髵
鬚
鬛
鬠
鬨
魭
魹
鮄
鮭@@
鮻
鰒
鰭@@
鰺
鲊
鲙
鲽@@
鳋
鳡
鴦
鵖
鶅
鷂@@
鸤
鹘@@
鹣@@
鹻
麤
麹
黱
齪
ꂚ
ꂛ
ꂜ
ꂝ
ꂞ
ꂟ
ꂠ
가
감
겉
겨
곎
곮
궸
긅
긮
길
꺅
껭
꽉
꽨
꿔
뀶
끼
낂
녘
눋
눛
눣
늬
니
다
닽
댍
덂
덷
됦
뒦
듣
딀
똿
뙃
뙌
뜞
라
렒
롥
롮
룰
뤇
뤶
릉
릡
링
만
먩
메
멪
묑
문
뭇
뮴
믄
밭
벗
벴
복
봺
비
빰
뼙
뽩
뽪
뽭
뿴
뿶
삥
삭
상
샬
솝
쇘
쇤
쉍
쉽
슊
슝
슬
슴
싩
썄
썲
쎑
쏘
쏙
쑶
쓺
얩
얰
여
완
용
위
윈
있
잌
쟀
전
젝
졆
존
줴
쫄
쫩
쭁
쭹
쮮
찐
찡
첍
첨
춉
카
칺
캠
켬
퀸
트
퍐
펣
폀
폏
퐲
퐳
풆
풉
풘
퓘
핀
항
해
행
휠
흀
흩































































































滑
羅
邏
魯
壟
菱
拾
驪
烈
寧
嶺
尿
倫
糖
暴
逸
︎
ﻟ
𝑊
𝑎
𝑖
􀗳

ʃ
ʺ
ʻ
ː
Ϛ
Ѱ
Қ
Ӧ
ӧ
ֲ
ג
ן
ِ
٪
٭
ं
द
ह
ी
๔
ຖ
ພ
ສ
ຮ
ື
ຼ
ຽ
ເ
ໂ
ໄ
ვ
ნ
ო
ს
უ
ქ
ყ
ᄉ
ត
យ
ល
ិ
្
ẩ
ộ
ụ
Ὠ
‛
⁔
⁯
⁻
₄
₹
⃰
↨
⌧
⌱
Ⓘ
Ⓝ
ⓑ
┊
┹
╆
╠
╭
▃
▍
▐
▸
▾
◘
◙
☎
✖
✦
❺
➃
ⱡ
〦
〨
〮
㎤
㎪
㏝
丩
乤
乧
亖
亙
亰
仞@@
伈
伕
伬
伾
佮
佱
侲
侹
俅@@
俙
俥
俵@@
俷
俽
倀
倆@@
倢@@
倣
倥
倲
倳
倸
倿
偉
偭
偸
偽
傎
傯
僔
僜
儇
儕
儺
儻
兊
兕
兛
兟
冑
冚
分支@@
剚
剣
剨
剾
劍@@
劐
劒
劓
劮
労
劼@@
勀
勁
勢@@
匏@@
匧
匵
卲
厔
厙@@
厷
厾
叜
叻@@
吘
呂
呄
呅
呥
呿
咓
咵
咷
哘
哠
哥华
哱
哳
唪
唭
唰@@
唶
啑
啞@@
喐
喛
喤
喦
喨
喬
喾@@
嗠
嗩@@
嗿
嘆@@
嘍@@
嘤@@
嘮@@
嘸
噭
嚕
嚚
嚫
嚿
圁
圅
圡
圥
圷
圼
坢
坣
坧
坬
坱
垰
垲
垶
垼
垽
埈
埒@@
埫
埱
堯
堯@@
堸
塃
塆
塛
墁@@
墐
墘
墡
墫
墮@@
墳
墼
壚
壼
夒
夻
夿
奝
奵
奾
妐
妑
妘@@
妝@@
妩
姂
姠
姱
姺
娞
婛
婸
媝
媢
媪@@
嫛
嫝
嫮
嫵
嫷
嬐
嬡
孈
孉
孞
孭
宼@@
寛@@
寞@@
寪
寭
寵
寷
尐
尞
尠
尷@@
屔
岣@@
岧
岶
峀
峍
峧
峹
崁@@
崏
崬
崶
嵓
嵭
嶡
巓
帬
幁
幑
幚
幦
廁
廂@@
廆
廘
廹
弨
彏
彥
徆
徍
徔
徖
徝
徠@@
徨@@
徯@@
忺
怉
怊
怗
怫@@
怺
怾
恉
恌
恥
恦
恴
恷
悙
悶
悾
惷
意大@@
愽
慥
慯
憁
憂
憚
憤@@
憮@@
懀
懄
懎
懙
懣
懧
懳
懶
懶@@
懺@@
懻
懾
戀@@
戅
戢@@
戫
戭
戱
扖
扨
抍
抣
抾
拹
挋
挶
捔
捽
掙@@
掴@@
揁
揆@@
揠
揮@@
揳@@
搗@@
搵
搶@@
撄@@
擽
攅
攋
攍
攕
攦
效日
敒
斛@@
旄@@
旉
旯@@
旴
昩
昲
晀
晉
晙
晼
暶
暽
曮
曺
朇
朠
朸
杁
杣
杬
杹
枏
柀
柋
栘
梂
梞
梮
棈
棲
棾
椉
椏@@
椓
椟
椬
楕
楨
榩
槙
槶
槻@@
樗@@
樞
橑
橔
橞
橠
橧
橪
檁@@
檊
檑
檚
檨
檪
櫣
櫦
櫹
櫺
櫻
欫
歁
歓
歯
殩
殳@@
毉
毌
毜
毦
氚@@
氼
汋
汍
汙@@
汱
汻
沇
沠
沴
泿
洀
洂
洚
洣
洶
涽
淒
淚@@
淢
淪@@
渇
渌@@
渏
渖@@
渷
渹
渾@@
湱
湷
溘
溠
溵
溷
溻
滬@@
滯
漄
漅
漒
漡
漮
漰
漻
潀
潄
潅
潶
澁
澆@@
澬
澾
濘
濩
濰
濳
瀍
瀕
瀘
瀝@@
瀠
瀩
瀺
瀼
灐
灝@@
灡
灲
炇
烏@@
焂
煍
煷
熖
熛
熜
熣
熾@@
燘
燫
爇
爤
爼
爿@@
牅
牞
牶
牽
牿
犂
犗
犰
狃
狛
狫
狴
狴@@
狷@@
狿
猃
猄
猈
猋
猍
猞
猽
獬@@
獯@@
玁
玐
玙
玝
玶
珓
珟
珦
珳
琀
琄
琈
琑
琓
琫
琭
琸
琹
瑐
瑝
瑤
瑬
瑸
瑼
璋@@
璒
璠@@
璩@@
璴
璻
瓂
瓍
瓒@@
瓖
瓬
瓼
甉
甿
畂
畵
畼
疉
疓
疶
痀@@
痌
痝
痵
瘙
瘥
瘼
癇@@
癬@@
癷
皺@@
皾
盝
盨
眚
眝
眥@@
眮
眴
眵
睤
瞓@@
瞢
瞺
矖
砄
砅
碐
磚@@
磧@@
磰
磻@@
礊
礑
礥
禚
禥
禩
禳@@
禼
禿@@
秝
秱
稈@@
稘
稝
稨
稯
稺
穣
穯
穱
窩@@
窻
竉
竪
竾
笒
筎
筲
箆
箌
篏
篠
篫
篳
篴
簍@@
簒
簔
簠
簼
籇
籓
籮
籱
粂
粅
粆@@
糀
糝
糹
糼
糾
紆
紣
紲
紿
絍
絨
絺
綁@@
継
綣
綴@@
綵
綽@@
綾@@
綿
緙@@
緝@@
緼
縒
縕@@
縛
縡
繅
繈
繊
繤
纃
纏
纝
缑@@
缞
缹
缾
罉
罒
罭
罷
罸
罺
羂
羃
羐
羥@@
羨@@
羶@@
翝
翞
翳@@
耇
而易举
耵
耹
聓
聴
肐@@
肑
肫@@
肾上@@
胄@@
胈
胦
脅@@
脠
脣@@
脰
脶
腉
腒
腗
腝
腷
膆
膇
膐
膚@@
膠@@
膹
臇
臞
臥
臯
舗
舩
舫@@
舲
舴@@
艱
艾滋@@
芔
芤@@
茥
荍
荗
荙
荪@@
荴
莎士@@
莢
菃
菐
菘@@
菦
菼
萠
萫
葨
葷
葷@@
蓕
蓽
蔇
蔊@@
蔞
蔣
蔭
蔲
蔾
蕎
蕚
蕮
薌
薒
薖
薙
薞
藖
藘
藞
藠
藪
藳
藴
蘊@@
虆
虧@@
虶
蚉
蚔
蚷
蚼
蚽
蛒
蛖
蛠
蜎
蜨
蜺
蝄
螘
螮
蟅
蟏
蟝
蟡
蟢
蟨
蟯
蠅@@
蠇
蠝
蠦
衎
衠
衧
衳
袉
袝
袴@@
袷@@
裒
褋
褖
褟
褢
褣
褰@@
褵
褹
襁
襑
襲
覈
觊
觖
觚@@
觞@@
觤
觨
觭
訮
詁
詣
詧
詨
誀
誑
誔
誕@@
誖
誥
誮
諍@@
諝
諥
諦@@
諲
諴
謄@@
謏
謐
謑
謮
譁
譙@@
譟
譱
譵
譽@@
讉
讙
谉
谞
谧@@
豗
豻
貆
貎
貶
賄@@
賑@@
賒
賞@@
賢@@
賿
贈@@
贒
贖@@
贠@@
赍@@
赸
赿
趑
趙@@
趛
趥
趪
跏@@
跫@@
跼
踦
蹏
蹜
蹞
蹣
躨
躾
軗
軚
軝
輝@@
輶
輾
輿@@
轂
轍
轎@@
轒
轷
辀
辮@@
辻
辿
迋
逇
逌
逥
逭
遜@@
遡
遹
邅
郙
鄒@@
鄕
鄨
酻
酾
醏
醜
醤
醬@@
釗
釩
釳
鈩
鈪
鈳
鈷
鉀@@
鉊
鉐
鉑
鉛@@
鉸
鉹
銏
銑@@
銚
銜
銦
銴
鋕
鋙
鋪@@
鋭
鋳
錐
錒
錛
錬
錮
錳
錼
鍬
鍳
鍶
鎔
鎨
鎲
鏒
鏛
鏸
鐻
鑀
鑄@@
鑞
鑬
钑
铞
铷@@
锴@@
镓@@
镼
閏
関
閦
閨@@
閴
闖@@
闢
阷
陚
隠
雈
雊
霝
霱
靋
靦@@
靯
鞏
鞳
鞺
鞿
韁@@
韪@@
韲
頌
頛
頠
頣
顆@@
顎
顚
顢@@
颟
颫
颬
飃
飖
飜
飝
飠
飷
飾@@
餃@@
餉
餔
餟
餡@@
餰
餾@@
饢
馉@@
馘
馯
馵
駁@@
駉
駐@@
駨
騒
騧
騪
騰@@
驅
驣
驵
骒@@
骕
骙
骣
骭
骿
髏
髖@@
髣
鬅
鬌
魡
魫
魾
魿
鮹
鯈
鯚
鯞
鯤
鯬
鯱
鯵
鯷
鯺
鰉
鰏
鰪
鰶
鱄
鱉
鱊
鱎
鱽
鲋@@
鳈
鳒
鳴
鳶@@
鳿
鴃
鴉
鴨
鴩
鴬
鵄
鶄
鶞
鶤
鶫
鶷
鷗
鷸
鷺@@
鸉
鹂@@
鹧
鹲
鹵@@
鹹
麃
麈@@
麎
麫
麭
麰
麺
黑兰
黟
黦
黾@@
黿
鼴
齄
齉
齋
齕
齰
龑
龕
ꂡ
ꂢ
ꂣ
ꂤ
ꞏ
간
갔
갤
거
결
겻
곦
곩
괌
광
귝
김
깥
깩
껂
껆
껐
껼
꼰
꿈
꿺
끺
냈
넒
넘
눎
닇
닻
덄
덐
뎬
뎵
돻
됸
뒥
뒵
듕
듾
딁
딸
땄
땳
떖
떪
떻
뗤
뙍
뙷
뚠
뚩
뚫
뜀
띄
렟
렵
롣
롦
롧
롼
룉
룒
룧
룹
뤁
률
를
릢
맵
먧
먨
멋
며
뫁
묉
묌
믹
밖
밯
뱉
벋
벨
벼
볘
보
볶
봎
봘
뵈
뵰
뵸
붶
븃
븞
빌
빽
뻼
뼝
뼭
뾽
쀤
삄
삸
생
셍
셴
솀
솅
솫
솳
쇯
숌
순
쉈
쉴
쌉
쏃
쏠
쐿
쑐
쓎
쓢
씎
씰
씹
씽
앶
얝
엌
엫
연
엽
옙
왱
욱
웩
윥
윳
으
읓
읨
인
잇
잉
잏
좄
좔
죔
죠
죽
중
진
짱
쪼
쭊
쭏
쭓
쭝
챘
처
천
촁
촉
최
추
츎
칡
캡
컦
컨
컬
켐
켱
콧
콰
콴
쾢
퀡
큉
클
털
텋
텍
툖
툙
툣
퉀
퉱
튁
튄
튈
특
틉
틘
틞
틦
틳
팼
퍡
펩
평
폋
푌
푤
푯
풌
퓱
퓷
프
픕
필
핌
햤
혈
혓
혹
혻
확
흗






















































































































































串
蘭
藍
朗
虜
稜
綾
麗
曆
裂
龍
阮
隆
泥
淋
什
輻
廓
﨑
晴
福
鶴
ﬀ
﹄
﹘
﹦
ﺍ
ﻣ
ﾪ
ﾮ
￑
￦
𝑄
𝑏
𝜇
󰊱
󰊲
􀂷
efore
ublisher


ɔ
ɗ
ɪ
ʊ
ʌ
ʹ
˃
˅
ˑ
̂
̒
̓
͞
ͷ
Ђ
Љ
Ќ
њ
ћ
Ѵ
қ
ҫ
ӓ
ө
գ
ֵ
״
ئ
ض
ى
ْ
١
٢
٧
ٴ
ߪ
ब
म
ल
स
ा
े
ఁ
ൠ
ປ
ຢ
ໆ
ბ
ლ
ხ
ቀ
ነ
ក
ជ
ទ
ន
រ
វ
ស
អ
័
᧕
ṅ
Ṽ
ầ
ậ
ặ
ể
Ố
‭
‮
⁂
⁎
⁮
₁
₩
₴
⅟
↕
↩
⇐
⇠
⇢
∀
∎
∡
⊃
⊗
⊠
⌃
⌈
⌉
〈
〉
⏐
␢
⒴
Ⓞ
ⓒ
┋
┽
╥
╲
▥
▴
▹
◂
◃
◌
◐
◻
☓
☺
♁
♬
♮
♵
⚠
⚡
✱
✿
❉
❞
❼
❽
❾
❿
⠀
⡷
⧠
⸺
〡
〢
〣
㊀
㎍
㎕
㎬
㏒
㏘
㏛
乁
乄
乪
乫
乷
亐
亝
仫
仹
仺
仾
伄
伔
伡
伻
佁
佌
佒
佭
侇
侫
侭
侰
俈
俫
倃
倄
倎
倐
倱
倴
倵
倷
偑
偒
偠
偦
偺@@
傋
傌
傐
傔
傪
傮
僀
働
僕@@
僞
僠
僾
儈
儍
儕@@
儫
儺@@
兇@@
兗@@
兙
冃
冄
冘
冮@@
冹
冾
凴
刄
剉
剦
剷
劀
劁
劉
劕
劗
勵@@
勷
匔
匘
匛
匜
匟
匰
匱
匱@@
匳
匷
卋
卙
卹
卼
卾
厀
厐
厡
厧
厵
厹
厺
厽
叅
反之@@
叐
叶派
吶@@
呌
呏
呩
咅
咎于
咦@@
咰
咴@@
咷@@
咾
哅
哖
哜
哿@@
唌
唚
唜
唡
唫
唲
唹
唻
啇
啈
啗
啛
啠
啴
啺
喣
喫
喯
嗀
嗆
嗬@@
嗵@@
嗶@@
嗹
嘂
嘑
嘓
嘔
嘥
嘫
嘯
噀
噏
噫@@
嚆@@
嚇@@
嚍
嚨
嚰
嚶@@
囑@@
四舍@@
圙
圤
坄
块链
坜@@
坸
坾
垁
垔
垿
埿
堞@@
堫
堮
堹
堽
堾
塂
塅
塒
塕
塙
塢
塽
墄
墇
墑
墔
壋
壚@@
壩@@
壷
夦
奦
奩
奭@@
奷
妗@@
妝
妡
姀
姍@@
姫@@
姭
娀
娚
娡
娪
娯
婐
婮
媆
媊
媣
嫅
嫑
嫓
嫗
嫤
嫧
嫶
嫺
嫿
嬆
嬊
嬢
嬿@@
孊
孋
孌
孎
孠
孫@@
孴
孹
宊
寠
尃
尟
尫
尭
尵
屜@@
屢@@
屦@@
岓
岴
峔
峤@@
峲
峳
峷
崈
崒
崜
崢
崤@@
崨
崸
嵑
嵺
嵿
嶀
嶎
嶞
嶠
嶦
嶨
嶳
嶽
巘
巪
巵
巺
帿
幘
庂
庅
庌
廕
廝
廝@@
廦
廬
廰
廱
廵
廼
廼@@
廽
弒
弤
彋
彐
彐@@
彘@@
彠
徏
徢
徾
忘录
忝@@
忟
忼
怇
怚
怞
怷
怽
怿@@
恄
恆@@
恊
恾
悏
悐
悰
悶@@
惙
惱
惲
惻@@
惿
愄
愋
愥
愫@@
愴
愷@@
慂
慆
慖
慚
慱
憀
憂@@
憊
憍@@
憞
憪
憯
憴
憺
憻
懌@@
懤
懨
懩
戁
戤
戩
戻
戼
扅
扊
扚
扝
扤
抁
抆
抶
拣机
挄
挌
挍
挢@@
挧
挻
捁
捇
捒
捝
捭
捿
掄
掚
掹
掼@@
揀
揎@@
揲
搄
搗
搩
摀@@
摑@@
摖
摛
摟
摤
撄
撖
撢@@
撾
擄@@
擋@@
擏
擕
擗
擰@@
擿@@
攆
攈
攌
攏
攑
攰
敘
敩
斓@@
斬
斲@@
旐
旘
日程@@
旲
旽
旿
昄
昉@@
昋
昍
昒
昖
昡
昽
昿
晲
暁
暃
暆
暏
暐@@
暒
暚
暳
暵
曔
曫
曬
朂
朅
朆
朾
杍
杗
杢
枈
枍
枖
枠
柎
柛
柣
柪
栂
栄@@
栰
栿
桜
桝
桞
桬
桻
梘
梬
梶@@
棂@@
棖
棰@@
椈
椗
椝
椦
椵
楓@@
楳
楺
榁
榃
榇@@
榠
榤
榶
榺
槏
槜
槢
樇
樯@@
樶
橖
橶
檏
檡
檤
檰
檳
檳@@
檶
檻@@
檾
櫉
櫊
櫛@@
櫟@@
櫪
櫶
櫾
欋
欦
欳
欵
欶
歀
歈
歊
歒
歬
殎
殐
殕
殙
殝
殞@@
殫@@
毆
毆@@
毹
氃
氄
氊
氍@@
氜
氷
汅
汈
汑
汘
沍
沎
沷
泀
泆
泇
泎
洉
洍
洝
洳@@
浧
浶
浹
浿
涬
淍
淜
淲
淶
渕
渙
渦@@
渮
渱
湋
湢
湨
湬
湽
溡
滚珠@@
滣
滧
滯@@
滼
漍
潆@@
潚
澀
澆
澉
澋
澏
澣
澦
濁
濁@@
濙
濫
濰@@
濱
濱@@
濹
濽
瀉
瀉@@
瀝
瀤
瀨
瀨@@
瀾@@
灄
灒
灛
灝
灺
炡
炤@@
炥
烒
烴
烺
焆
焲
焽
煁
煓
煚
煥
煪
煵
熇
熐
熦
熳@@
熾
燀
燏
燞
燨
燩
燯
燰
燾
爊
爎
爕
爚
爡
爳
牜
牨
牫
犓
犕
犖
犘
犜
犝
犞
犢
犣
犪
狉
猨
猬@@
猯
猹
獃
獏
獑
獓
獕
獛
獣
獩
獰
獷
獸@@
獼
玔
玘
玜
玵
玿
珚
珫
珵
琇@@
琏@@
琒
琗
琠
琱
瑉
瑠@@
瑢
瑣
瑫
瑳
瑷@@
瑻
璆
璉@@
璊
璍
璏
璕
璥
璲
瓀
瓓
瓚@@
瓝
瓞@@
瓰
瓽
甀
甃
甋
畀@@
畃
畊@@
畝@@
畞
疂
疇
疢
疺
痌@@
痜
瘋@@
瘏
瘝@@
瘹
癟@@
癮
癵
皃
皅
皉
皍
皥
皭
皰@@
皷
盕
盙
盠
盫
眐
眑
眘
眧
睋
睏
睗
睙
睞
瞁
瞇
瞇@@
瞞@@
瞤
矀
矊
矯@@
矱
矹
砋
砓
砣@@
砨
硆
硞
硢
硧
硳
硴
硸
碃
碕
碙
碢
碥
碪
碫
碫@@
碯
磄
磈
磏
磩
磱
磳
磽
礆
礎@@
礘
礝
礧
礪
礵
祩
祱
祵
祶
禋
禍
禍@@
禎@@
禑
禕
禚@@
禢
禿
秇
秐
秓
稂@@
稐
稡
稵
稸
稾
穁
穚
穜
穤
穼
窤
窫
窯
窯@@
窶
窹
竃
竅
竇
竊@@
竐
竕
竢
竨
竱
笮@@
笸@@
笻
筃
筚
筞
筥
筸
筺
箃
箚
箠
箥
箦
箯
箽
篂
篅
篒
篖
篢
篲
簄
簈
簑
簫
籆
籑
籒
籛
籩
籾
粀
粈
粊
粋
粌
糉
糌
糒
糛
糦
糿
紂
紃
紇@@
紉@@
紎
紖
紘
紥
紴
絁
絆@@
絢@@
絭
絰
絷
絹@@
絿
綃
綄
綏@@
綟
綢@@
綩
綰
綳
綶
綺@@
綻@@
綿@@
緂
緈
総
緜
緤
緳
緹
緿
縇
縥
縱@@
縴
縷
縿
繂
繅@@
繆
繏
繡
繢
繩
繪@@
繴
繶
繹
繻
纀
纊
纎
纮@@
绂@@
维网
绹
罖
罛
罦
罧
罯
羒
羖
羝@@
羠
羢
羴
翇
翗
翜
翢
翭
翶
耚
耣
耤
耾
聀
聁
聄
职权@@
聟
聮
肻
胀率
胐
胑
脃
脋
脱颖@@
脿
腀
腁
腅
腏
腞
膃
膍
膟
膬
膾
膿@@
臘@@
臚@@
臠
臢
臷
臸
舘
舿
艓
艭
艷@@
艻
艽@@
芇
芺
苂
苙
苨
苮
苵
苻@@
苿
茐
茒
茡
茣
茤
茦
茪
荄
荈
荊
荊@@
荘
荢
荵
荿
莙
莟
莭
菄
菳
菵
菷
萂
萑@@
萓
萔
萞
萲
萸@@
萹
萹@@
萺
葋
葍
葥
葦@@
葪
葲
葸@@
葿
蒇
蒍
蒘
蒞@@
蒤
蒪
蒫
蒬
蒼
蒼@@
蓅
蓌
蓒
蓜
蓡
蓪
蓭
蓸
蔂
蔆
蔈
蔧
蔮
蔰
蔹
蕁@@
蕂
蕅
蕑
蕦
蕧
蕱
蕷
薓
薗
薘
薠
薬
薱
薳
薺@@
薾
藊
藯
蘄
蘌
蘍
蘕
蘘
蘘@@
蘢
蘨
蘽
虀
虅
虒
虨
虯@@
蚆
蚇
蚑
蚓@@
蚗
蚛
蚪@@
蚸
蛍
蛚
蛣
蛺@@
蛼
蝍
蝕@@
蝖
蝙
蝝
蝬
蝱
蝲
蝸
蝸@@
螔
螩
螱
螹
螻
螻@@
螾
螿
蟎
蟐
蟖
蟣
蟯@@
蟴
蟵
蟶
蠏
蠧
蠨
蠪
蠭
蠱
蠶@@
蠻
蠼@@
衕
衭
衿@@
袔
袕
袹
袾
袿
裊
裚
裣@@
裲
裻
褕
褘
褤
褲@@
褻@@
褽
襃
襉
襌
襒
襛
襱
覇
覘
覠
覬
覴
覸
覾
覿
觓
觗
觧
觱
觷
訛
訠
訩
訯
詐@@
詑
詘
詛@@
詶
詷
誅
誑@@
誳
誷
誸
誽
諎
諒@@
諕
諛
諪
諫
諵
諷@@
諺
謆
謊@@
謎@@
謒
謕
謱
譋
譒
譔
譕
譖
譗
譜@@
譞
譨
譪
譮
譺
讄
讈
讑
讕@@
讝
讦@@
讻
诎@@
诖@@
谂@@
谐器
谠@@
谺
谻
谼
豎@@
豝
貇
貐
貞
販
貪
貯@@
貶@@
賀@@
賁
賃@@
賄
賅
賊@@
賍
賗
賟
賢
贍@@
贐
贓@@
贖
贚
赆
赬
赯
赲
趂
趇
趈
趔
趖
趞
趦
趧
足率
跬
跼@@
踤
踨
踴
踴@@
踶
蹀
蹇@@
躄
躈
躋
躋@@
躭
躶
軀@@
軃
軋
軎
軔
軛@@
軠
転
軧
軩
軱
軼@@
輚
輩@@
輰
輺
轚
轡
轲@@
辒
辧
辷
辺
辻@@
込
迆
迍
迮@@
迾
逈
逋@@
逦@@
遌
遤
遧
遶
遼@@
遾
邂
邇
邞
郉@@
郒
郟
郱
郷
郼
鄍
鄐
鄛
鄧
鄮
鄴
鄷
酃@@
酔
酟
醄
醈
醙
醞
醰
醲@@
醳
醸
釀
釀@@
釓
釣
釥
釮
鈀
鈊
鈍
鈒
鈓
鈔@@
鈙
鈛
鈠
鈮
鉏
鉑@@
鉝
鉤@@
鉧
鉫
鉵
鉽
銎@@
銗
銠
銣
銲
銲@@
銳
銳@@
鋍
鋎
鋏
鋑
鋓
鋘
鋝
鋟
鋥@@
鋯@@
鋶
鋸
錏
錘
錡
錦@@
錩
錫
鍀
鍉
鍤
鍽
鍾@@
鎐
鎘
鎪
鎵@@
鏐
鏝@@
鏞
鏟@@
鏤
鐄
鐫@@
鐳
鐸
鑄
鑢
鑣
鑤
鑶
鑿@@
钪@@
铔
铚
锞@@
镢
镩
镹
镺
閑
閜
閠
闗
闝
闥
闦
闼@@
阘
阹
阺
陁
陒
陖
陦
陧
陿
隄
隢
隩
隬
隯
隸
雂
雚
雥
雫
雱
霑
霙
霢
霯
霳
靆
靉
靚
靝
靮
靹
韀
韐
韘
韙@@
韨
韱
韺
韻@@
頊
頍
頑@@
頒
頔
頜@@
頤
頪
頲
頵
頷
頼
顉
顒@@
顝
顠
顡
顫@@
顱@@
顸@@
项卡
颎
颒
颶@@
颹
飁
飇
飗
飡
飢
飢@@
飧@@
飼
餈
餒
餞
餡
餧
館@@
餬
饁
饔@@
饚
饤
馎@@
馛
馪
馫
馮
馴
馶
馿
駓
駔
駝@@
駟@@
駾
駿
騇
騈
騋
騍
騎
騎@@
騐
騑
騙@@
騝
騞
騣
騫
騿
驊@@
驌@@
驏
驐
驕@@
驸
骢@@
骲
骳
髕
髜
髶
鬊
鬥@@
鬦
鬩@@
鬯@@
鬷
魀
魎
魛
魦
魴
魷
魷@@
鮁@@
鮃
鮆
鮌
鮏
鮘
鮴
鯁
鯆
鯊
鯓
鯔
鯖
鯡
鯣
鯥
鯩
鯫
鯮
鯰
鰆
鰈
鰔
鰧
鰫
鰻@@
鱸@@
鳤
鳩
鳰
鳴@@
鳶
鳾
鴒
鴭
鴴
鴻
鴻@@
鴿@@
鵀
鵁
鵆
鵏
鵑
鶆
鶏
鶗
鶦
鶴
鶴@@
鶹
鷇
鷋
鷖
鷚
鷫
鷹
鸁
鸄
鸎
鸑
鸝
鹍
鹐
鹸
鹼
鹼@@
麀
麄
麉
麐
麑
麞
麮
麽@@
黇
黈
黐
黡
黣
黻@@
鼈
鼉
鼐@@
鼕
鼟
鼡
鼵
鼸
鼺
齆
齋@@
齔
齞
齢
龐@@
龔
龜@@
ꂥ
ꂦ
ꂧ
ꂨ
ꂩ
ꂪ
ꂫ
ꂬ
ꂭ
ꂮ
ꂯ
ꂰ
ꂱ
ꂲ
ꂳ
ꂴ
ꂵ
ꂶ
ꂷ
ꂸ
ꂹ
ꂺ
ꂻ
ꂼ
값
강
갖
개
갠
갸
걍
걫
건
격
곔
고
곡
곭
과
괜
괬
괼
굔
군
궓
궤
궶
규
귞
그
긔
긷
깓
깗
깹
깼
꺂
껅
껇
껍
껝
껨
꼑
꽈
꽍
꾎
꾫
꿀
꿇
꿘
꿧
꿩
뀇
뀓
뀜
남
납
낮
낸
냑
냠
냼
냽
너
널
녠
녽
뇝
뇧
뇩
눔
뉒
뉓
뉔
뉨
뉪
능
닗
닮
닶
덁
덅
덖
뎨
뎸
뎺
돌
돢
돧
뒛
뒹
득
듦
딂
딃
딭
땐
떵
뗏
뗧
뗨
똽
뙑
뙸
뚜
뚦
뚪
뛔
뜌
뜸
띾
랏
랐
래
랩
랸
럇
량
럩
런
렇
렌
렬
령
롁
롐
롒
롬
뢘
룋
룞
룣
룩
룬
뤍
뤘
뤸
뤼
뤽
름
릅
릪
릫
릭
릹
맹
먼
멧
묇
묽
뭘
뭡
뮢
반
발
뱚
버
볐
볜
볣
볧
봛
뵐
뵟
붚
붲
붹
뷕
뷪
뷰
븼
빔
빚
뺞
뺟
뺡
뺱
뼏
뼶
뽨
뿍
뿥
쁑
쁨
쁾
삡
삤
삺
샐
섆
섐
설
셔
솩
솽
쇄
쇋
쇗
쇿
숏
쉢
쉬
쉹
슭
쌍
썸
쎀
쎓
쏂
쏕
쏴
쐨
쑋
쑑
쓦
씈
씊
씨
씬
씮
안
앱
앵
얏
얕
억
얼
엠
엷
예
옳
외
욅
웁
웍
원
웝
윕
윤
읃
읊
음
읏
익
잊
쟱
젥
져
젼
졌
졸
졺
졿
좟
좡
좧
죱
줍
줏
짤
짭
쨪
쨭
쩍
쩝
쪡
쬈
찔
찝
창
챗
챰
챿
첬
쳦
쳵
츆
츍
츖
츞
측
층
칮
칳
칼
캅
캞
컛
컫
켠
콪
쿨
큇
큔
킀
킔
킕
킵
택
탠
탡
탩
탲
텈
테
톨
툒
툓
툜
퉥
퉳
퉽
튉
틀
틥
틨
틩
파
팔
팟
팥
패
팬
퍍
퍔
퍗
퍘
퍢
퍼
펏
펞
펱
폣
폴
퐈
퐦
퐧
퐰
표
푭
푷
푾
풃
풓
풚
퓗
퓧
퓰
퓳
픪
함
합
핫
헒
헵
현
혠
혭
혮
혳
호
회
후
훗
휃
휮
휿
희
힐



































































































































































































































































懶
螺
欄
鸞
浪
郎
鷺
牢
勒
糧
勵
濾
黎
漣
煉
蓮
鍊
捻
聆
鈴
靈
惡
李
隣
茶
刺
拓
洞
﨟
﨧
飯
館
喝
︸
﹃
﹊
ﺑ
ﺔ
ﺗ
ﺧ
ﺻ
ﻘ
ﻝ
ﻥ
ﻭ
ﻳ
ﾡ
￻
𝐶
𝐷
𝑆
𝑒
𝑓
𝑛
𝑝
𝑠
𝑥
𝛂
𝛿
𝜂
𝜃
👻
😍
𢣷
𥚃
𩽾
𩾌
􀀓
􀂅
􀂑
