#version: 0.2
一 个</w>
使 用</w>
进 行</w>
系 统</w>
可 以</w>
我 们</w>
公 司</w>
2 0
提 供</w>
如 果</w>
所 有</w>
通 过</w>
0 0</w>
工 作</w>
文 件</w>
信 息</w>
任 何</w>
研 究</w>
要 求</w>
他 们</w>
可 能</w>
安 装</w>
选 择</w>
方 法</w>
设 备</w>
设 计</w>
其 他</w>
以 及</w>
需 要</w>
没 有</w>
控 制</w>
程 序</w>
包 括</w>
管 理</w>
这 些</w>
问 题</w>
时 间</w>
数 据</w>
项 目</w>
必 须</w>
技 术</w>
服 务</w>
情 况</w>
部 分</w>
根 据</w>
显 示</w>
e r
分 析</w>
影 响</w>
规 定</w>
设 置</w>
你 们</w>
中 国</w>
r a
i n
产 品</w>
1 0</w>
t ;</w>
相 关</w>
用 于</w>
一 种</w>
连 接</w>
检 查</w>
操 作</w>
安 全</w>
标 准</w>
处 理</w>
具 有</w>
这 个</w>
过 程</w>
有 关</w>
主 要</w>
位 置</w>
采 用</w>
应 用</w>
人 员</w>
发 展</w>
是 否</w>
e r</w>
结 构</w>
然 后</w>
& b
材 料</w>
计 划</w>
服 务
因 为</w>
国 家</w>
企 业</w>
执 行</w>
1 .
试 验</w>
o n
之 间</w>
方 式</w>
作 为</w>
无 法</w>
自 己</w>
运 行</w>
不 同</w>
功 能</w>
用 户</w>
或 者</w>
工 程</w>
指 定</w>
已 经</w>
支 持</w>
a r
2 .
类 型</w>
报 告</w>
a n
20 0
1 9
20 1
开 始</w>
装 置</w>
对 于</w>
美 国</w>
数 据
单 击</w>
以 下</w>
条 件</w>
确 定</w>
e n
k e
存 在</w>
完 成</w>
组 织</w>
活 动</w>
什 么</w>
测 试</w>
结 果</w>
创 建</w>
环 境</w>
客 户</w>
发 生</w>
控 制
管 理
一 些</w>
r o
0 .
范 围</w>
i c
状 态</w>
重 要</w>
ra ;</w>
&b ra;</w>
ke t;</w>
& ket;</w>
区 域</w>
生 产</w>
同 时</w>
2 0</w>
3 .
机 构</w>
o r
合 同</w>
保 护</w>
市 场</w>
不 能</w>
方 面</w>
服务 器</w>
这 种</w>
那 个</w>
出 现</w>
质 量</w>
方 案</w>
确 保</w>
配 置</w>
工 具</w>
内 容</w>
压 力</w>
目 标</w>
输 入</w>
能 够</w>
中 心</w>
但 是</w>
5 0</w>
a m
政 府</w>
记 录</w>
协 议</w>
并 且</w>
实 现</w>
经 济</w>
包 商</w>
a t
性 能</w>
产 生</w>
对 象</w>
由 于</w>
能 力</w>
包 含</w>
名 称</w>
计 算</w>
按 照</w>
业 务</w>
模 式</w>
1 2</w>
关 系</w>
获 得</w>
利 用</w>
定 义</w>
作 用</w>
两 个</w>
每 个</w>
自 动</w>
有 效</w>
认 为</w>
说 明</w>
现 在</w>
发 现</w>
提 出</w>
模 型</w>
风 险</w>
网 络</w>
测 量</w>
不 是</w>
4 .
就 是</w>
这 样</w>
最 大</w>
参 数</w>
1 0
增 加</w>
r e
错 误</w>
投 资</w>
资 源</w>
s t
正 在</w>
之 前</w>
表 示</w>
动 机</w>
计 算
承 包商</w>
及 其</w>
因 此</w>
故 障</w>
提 高</w>
其 中</w>
不 会</w>
适 用</w>
基 础</w>
部 门</w>
地 区</w>
3 0</w>
基 于</w>
符 合</w>
添 加</w>
调 整</w>
如 何</w>
应 用
m m</w>
银 行</w>
允 许</w>
启 动</w>
时 候</w>
关 于</w>
国 际</w>
成 本</w>
知 道</w>
温 度</w>
施 工</w>
措 施</w>
感 器</w>
选 项</w>
世 界</w>
资 产</w>
一 次</w>
存 储</w>
打 开</w>
帮 助</w>
超 过</w>
成 为</w>
车 辆</w>
开 关</w>
它 们</w>
模 块</w>
建 立</w>
检 测</w>
删 除</w>
5 .
得 到</w>
例 如</w>
软 件</w>
属 性</w>
应用 程序</w>
变 化</w>
水 平</w>
传 感器</w>
单 位</w>
空 间</w>
1 1</w>
固 定</w>
所 以</w>
导 致</w>
事 件</w>
工 程
直 接</w>
开 发</w>
目 的</w>
评 估</w>
期 间</w>
日 期</w>
费 用</w>
0 0
规 范</w>
实 施</w>
o n</w>
为 了</w>
原 因</w>
速 度</w>
应 该</w>
发 动机</w>
法 律</w>
现 场</w>
保 持</w>
不 得</w>
表 面</w>
之 后</w>
访 问</w>
考 虑</w>
更 改</w>
建 议</w>
1 5</w>
通 知</w>
信 号</w>
正 确</w>
组 件</w>
o w
当 前</w>
部 件</w>
有 限
内 部</w>
行 为</w>
价 值</w>
生 活</w>
美 元</w>
交 易</w>
决 定</w>
继 续</w>
a l
数据 库</w>
非 常</w>
移 动</w>
社 会</w>
重 新</w>
列 表</w>
位 于</w>
. .
文 件
i t
介 绍</w>
电 子
.. .</w>
代 表</w>
达 到</w>
保 证</w>
价 格</w>
委 员
批 准</w>
委员 会</w>
表 明</w>
尺 寸</w>
地 址</w>
负 责</w>
确 认</w>
更 新</w>
而 且</w>
特 性</w>
代 码</w>
本 文</w>
会 议</w>
接 受</w>
设 施</w>
修 改</w>
通 常</w>
e t
1 00</w>
供 应
数 量</w>
减 少</w>
地 方</w>
关 闭</w>
命 令</w>
6 .
了 解</w>
a s
希 望</w>
任 务</w>
计算 机</w>
之 一</w>
教 育</w>
支 付</w>
2 5</w>
c t
安 全
限 制</w>
需 求</w>
完 全</w>
按 钮</w>
责 任</w>
造 成</w>
集 团</w>
进 入</w>
满 足</w>
许 多</w>
人 们</w>
目 前</w>
正 常</w>
这 是</w>
0 00</w>
形 成</w>
系 列</w>
工 艺</w>
e l
版 本</w>
学 生</w>
建 设</w>
电 缆</w>
形 式</w>
管 道</w>
因 素</w>
解 决</w>
销 售</w>
以 上</w>
必 要</w>
针 对</w>
提 交</w>
其 它</w>
一 起</w>
输 出</w>
最 后</w>
维 护</w>
至 少</w>
一 步</w>
政 策</w>
注 意</w>
比 较</w>
基 本</w>
起 来</w>
混 凝
实 际</w>
一 样</w>
城 市</w>
治 疗</w>
g t;</w>
& gt;</w>
混凝 土</w>
in d
验 证</w>
方 向</w>
拥 有</w>
步 骤</w>
有限 公司</w>
空 气</w>
降 低</w>
i s
员 工</w>
E M
准 备</w>
电 路</w>
保 存</w>
c h
合 作</w>
全 球</w>
行 业</w>
成 员</w>
电 压</w>
标 记</w>
电 机</w>
资 料</w>
更 换</w>
动 器</w>
一 般</w>
c o
参 考</w>
还 是</w>
各 种</w>
相 同</w>
恢 复</w>
供应 商</w>
电 源</w>
邮 件</w>
特 别</w>
应 当</w>
1 6</w>
4 0</w>
作 业</w>
理 论</w>
第 二
e s
运 动</w>
整 个</w>
调 查</w>
I n
看 到</w>
制 造</w>
来 自</w>
规 则</w>
工 作
am p
成 功</w>
上 述</w>
小 时</w>
1 8
视 图</w>
阶 段</w>
多 个</w>
查 看</w>
6 0</w>
只 有</w>
细 胞</w>
一 定</w>
19 9
以 便</w>
适 当</w>
解 决
7 .
消 息</w>
er v
汽 车</w>
诊 断</w>
& amp
r i
文 化</w>
效 果</w>
增 长</w>
申 请</w>
W ind
策 略</w>
2 4</w>
相 应</w>
I D</w>
分 配</w>
&amp ;</w>
改 变</w>
s o
单 元</w>
i l
操 作
大 学</w>
特 定</w>
Wind ow
请 求</w>
下 列</w>
条 款</w>
证 明</w>
领 域</w>
拆 卸</w>
平 台</w>
最 终</w>
那 么</w>
健 康</w>
特 征</w>
人 民
孩 子</w>
持 续</w>
专 业</w>
培 训</w>
很 多</w>
检 验</w>
1 4</w>
Window s</w>
结 合</w>
学 习</w>
处 于</w>
文 档</w>
联 系</w>
第 三
流 程</w>
en t
网 站</w>
数 字</w>
螺 栓</w>
编 辑</w>
讨 论</w>
现 有</w>
u t
描 述</w>
格 式</w>
1 3</w>
建 筑</w>
a n</w>
全 部</w>
o l
体 系</w>
快 速</w>
找 到</w>
从 而</w>
a g
接 头</w>
注 册</w>
收 入</w>
个 人</w>
参 见</w>
S erv
程 度</w>
发 布</w>
对 话
一 直</w>
对话 框</w>
启 用</w>
权 利</w>
制 定</w>
i on</w>
解决 方案</w>
运 输</w>
EM C</w>
患 者</w>
反 应</w>
组 合</w>
探 讨</w>
金 属</w>
不 要</w>
那 些</w>
生 成</w>
强 度</w>
电 子</w>
详 细
外 部</w>
电 话</w>
组 成</w>
a l</w>
如 下</w>
距 离</w>
制 造
ic ro
还 有</w>
复 制</w>
实 验</w>
技 术
第 一
机 器</w>
采 取</w>
结 束</w>
制 度</w>
评 价</w>
高 度</w>
长 度</w>
so f
来 说</w>
失 败</w>
这 里</w>
进 一步</w>
指 示</w>
目 录</w>
避 免</w>
螺 钉</w>
简 单</w>
附 件</w>
稳 定</w>
icro sof
经 理</w>
同 意</w>
文件 夹</w>
备 份</w>
机 械</w>
停 止</w>
图 像</w>
加 工</w>
经 验</w>
损 失</w>
未 来</w>
编 号</w>
只 是</w>
传 统</w>
语 言</w>
经 营</w>
团 队</w>
循 环</w>
1 8</w>
这 一</w>
授 权</w>
客 户
出 口</w>
i n</w>
l e</w>
电 池</w>
面 板</w>
S A
规 划</w>
证 书</w>
零 件</w>
损 坏</w>
工 业</w>
受 到</w>
颜 色</w>
C A
喜 欢</w>
无 效</w>
8 0</w>
作 出</w>
金 额</w>
防 止</w>
插 入</w>
合 理</w>
分 别</w>
特 殊</w>
e s</w>
转 换</w>
详 细</w>
识 别</w>
资 金</w>
具 体</w>
工程 师</w>
维 修</w>
大 小</w>
存 储
可 用</w>
菜 单</w>
分 钟</w>
历 史</w>
独 立</w>
通 信</w>
测 定</w>
S t
辅 助</w>
然 而</w>
详细 信息</w>
引 起</w>
节 点</w>
良 好</w>
综 合</w>
动 力</w>
8 .
E C
e t</w>
焊 接</w>
参 与</w>
东 西</w>
所 示</w>
随 着</w>
获 取</w>
轴 承</w>
带 来</w>
经 过</w>
驱 动</w>
所 述</w>
生 物</w>
主 义</w>
特 点</w>
图 纸</w>
行 动</w>
优 化</w>
流 量</w>
才 能</w>
我 国</w>
业 主</w>
窗 口</w>
分 布</w>
a c
表 现</w>
某 些</w>
状 况</w>
采 购</w>
多 数</w>
电 流</w>
大 量</w>
英 国</w>
告 诉</w>
的 话</w>
接 口</w>
严 重</w>
u r
控制 器</w>
意 义</w>
不 过</w>
关 键</w>
安 排</w>
5 00</w>
经 济
搜 索</w>
定 位</w>
基 金</w>
匹 配</w>
观 察</w>
W e
贷 款</w>
过 去</w>
取 得</w>
收 到</w>
元 素</w>
一 项</w>
相 对</w>
物 质</w>
生 产
E x
建 筑
明 显</w>
通 道</w>
不 可</w>
气 体</w>
发 送</w>
返 回</w>
机 会</w>
调 节</w>
出 来</w>
发 出</w>
R e
尽 管</w>
有 人</w>
购 买</w>
链 接</w>
平 均</w>
涉 及</w>
先 生</w>
旋 转</w>
改 进</w>
连 接
虽 然</w>
1 6
接 收</w>
ar ;</w>
&b ar;</w>
路 径</w>
函 数</w>
2 1</w>
u n
依 据</w>
提 升</w>
查 询</w>
一 致</w>
危 险</w>
法 规</w>
三 个</w>
预 测</w>
类 似</w>
扩 展</w>
l o
制造 商</w>
拆 下</w>
一 切</w>
模 拟</w>
此 外</w>
图 形</w>
资 本</w>
朋 友</w>
效 率</w>
A S
默 认</w>
变 更</w>
不 断</w>
研 究
知 识</w>
保 留</w>
保 险
解 释</w>
甚 至</w>
原 则</w>
道 路</w>
加 强</w>
模 板</w>
创 新</w>
1 7</w>
事 情</w>
许 可</w>
最 佳</w>
参 加</w>
2 2</w>
一 部分</w>
连 续</w>
完 整</w>
曲 线</w>
面 积</w>
on t
一 条</w>
手 册</w>
金 融
M icrosof
动 物</w>
有 权</w>
设 定</w>
如 此</w>
学 校</w>
股 份</w>
此 类</w>
除 非</w>
7 0</w>
接 触</w>
一 点</w>
远 程</w>
首 先</w>
l e
一 位</w>
开 展</w>
同 样</w>
标 签</w>
监 控</w>
立 即</w>
机 制</w>
课 程</w>
an g
事 会</w>
9 0</w>
供 应</w>
定 性</w>
关 联</w>
科 学</w>
本 地</w>
属 于</w>
当 地</w>
o r</w>
投 资
0 1</w>
取 消</w>
平 衡</w>
1 3
支 架</w>
比 例</w>
处 理
努 力</w>
义 务</w>
d i
付 款</w>
合 物</w>
办 公
欧 洲</w>
容 易</w>
20 0</w>
参 阅</w>
Microsof t</w>
冷 却
含 量</w>
战 略</w>
I S
信 息
事 故</w>
商 业</w>
动 态</w>
页 面</w>
双 方</w>
密 封</w>
直 到</w>
磁 盘</w>
权 限</w>
系 统
共 享</w>
制 动</w>
驱 动器</w>
Serv er</w>
监 测</w>
足 够</w>
土 地</w>
仍 然</w>
容 器</w>
项 卡</w>
选 项卡</w>
s p
代 理</w>
联 合
框 架</w>
1 9</w>
规 模</w>
混 合</w>
最 近</w>
货 物</w>
日 本</w>
另 外</w>
算 法</w>
指 标</w>
只 能</w>
利 益</w>
w w
尝 试</w>
9 .
而 言</w>
清 单</w>
I P</w>
高 级</w>
一 下</w>
环 境
构 成</w>
端 口</w>
一 份</w>
保 险</w>
o m
认 证</w>
学 家</w>
周 期</w>
i v
制 作</w>
频 率</w>
促 进</w>
今 天</w>
e c
承 担</w>
更 加</w>
收 集</w>
屏 幕</w>
自 然</w>
改 善</w>
审 查</w>
长 期</w>
传 输</w>
人 类</w>
下 来</w>
总 成</w>
共 同</w>
容 量</w>
最 高</w>
媒 体</w>
适 合</w>
i m
遵 守</w>
几 个</w>
分 类</w>
响 应</w>
下 降</w>
自 由</w>
应 力</w>
最 小</w>
等 级</w>
A R
缺 陷</w>
接 地</w>
2 8</w>
级 别</w>
i g
不 到</w>
手 动</w>
带 有</w>
实 例</w>
角 度</w>
密 封
在 线</w>
1 .</w>
工 厂</w>
两 种</w>
贸 易</w>
清 洁</w>
报 表</w>
条 例</w>
3 2</w>
污 染</w>
股 东</w>
变 速
飞 机</w>
放 置</w>
国 内</w>
包 装</w>
2 3</w>
大 多数</w>
交 通</w>
电子 邮件</w>
3 1</w>
有 些</w>
系 数</w>
厚 度</w>
一 家</w>
重 复</w>
打 印</w>
运 营</w>
标 志</w>
请 参阅</w>
意 见</w>
转 向</w>
将 会</w>
氧 化
指 导</w>
唯 一</w>
即 使</w>
中 国
最 好</w>
in g</w>
品 牌</w>
We b</w>
同 步</w>
年 度</w>
线 路</w>
理 解</w>
a v
能 源</w>
事 项</w>
电 器</w>
一 名</w>
主 机</w>
加 入</w>
为 什么</w>
感 觉</w>
玻 璃</w>
选 定</w>
排 放</w>
复 杂</w>
结 果
觉 得</w>
S C
化 学</w>
平 面</w>
董 事</w>
A P
警 告</w>
合 并</w>
现 象</w>
文 本</w>
订 单</w>
监 督</w>
角 色</w>
A T
大 于</w>
日 志</w>
重 新
密 码</w>
p l
终 止</w>
1 4
世 纪</w>
修 订</w>
螺 母</w>
交 流</w>
国 际
给 出</w>
产 业</w>
重 大</w>
电 脑</w>
全 面</w>
临 时</w>
燃 油</w>
液 压</w>
电 气</w>
专 家</w>
地 面</w>
支 撑</w>
下 面</w>
拧 紧</w>
以 来</w>
否 则</w>
使 用
小 于</w>
证 券</w>
家 庭</w>
明 确</w>
单 独</w>
低 于</w>
以 前</w>
实 体</w>
最 新</w>
植 物</w>
香 港</w>
功 率</w>
2 .</w>
北 京</w>
及 时</w>
差 异</w>
审 核</w>
除 了</w>
视 频</w>
h t
紧 固</w>
配 备</w>
再 次</w>
分 离</w>
合 格</w>
帐 户</w>
指 南</w>
交 付</w>
大 型</w>
许 可
结 论</w>
游 戏</w>
标 识</w>
类 别</w>
数 值</w>
释 放</w>
编 制</w>
酒 店</w>
直 径</w>
指 令</w>
u l
e m
界 面</w>
a d
分 析
o d
清 除</w>
关 键
报 警</w>
登 记</w>
t er
实 践</w>
表 格</w>
关 注</w>
做 出</w>
C O
尤 其</w>
副 本</w>
办公 室</w>
集 成</w>
升 级</w>
原 理</w>
自 动
消 费
利 亚</w>
指 出</w>
P ro
阀 门</w>
表 达</w>
重 点</w>
联 合</w>
实 验
变 量</w>
买 方</w>
3 5</w>
1 5
几 乎</w>
座 椅</w>
增 强</w>
政 治</w>
百 分
导 线</w>
许可 证</w>
重 量</w>
机 组</w>
o t
en t</w>
协 调</w>
财 务
概 念</w>
商 品</w>
站 点</w>
列 出</w>
上 海</w>
趋 势</w>
整 体</w>
石 油</w>
规 格</w>
1 7
20 10</w>
P S</w>
儿 童</w>
R A
称 为</w>
感 到</w>
网 络
第 一</w>
广 泛</w>
e l</w>
客户 端</w>
主 题</w>
法 院</w>
断 开</w>
放 在</w>
硬 件</w>
转 移</w>
科 技</w>
M L</w>
纤 维</w>
更 好</w>
指 示
垂 直</w>
视 为</w>
办 法</w>
指 数</w>
激 活</w>
应 为</w>
齿 轮</w>
不 再</w>
M a
声 明</w>
英 寸</w>
训 练</w>
加 载</w>
运 用</w>
预 期</w>
P C</w>
用 来</w>
社 会
am e</w>
引 用</w>
集 中</w>
正 式</w>
结果 表明</w>
新 型</w>
开 发
附 录</w>
咨 询</w>
燃 料</w>
预 计</w>
最 低</w>
伙 伴</w>
字 符</w>
核 心</w>
投 标</w>
使 得</w>
仪 表</w>
经 常</w>
基 础
禁 用</w>
短 路</w>
覆 盖</w>
想 要</w>
控制 系统</w>
20 00</w>
优 势</w>
财 务</w>
以 后</w>
跟 踪</w>
设 计
压 器</w>
身 体</w>
收 益</w>
异 常</w>
离 开</w>
钢 筋</w>
履 行</w>
书 面</w>
驾 驶
学 院</w>
投 标
合 适</w>
时 期</w>
似 乎</w>
一 天</w>
食 品</w>
他 人</w>
金 融</w>
比 赛</w>
. co
a r</w>
适 应</w>
变 得</w>
密 度</w>
附 近</w>
真 正</w>
思 想</w>
公 路</w>
拒 绝</w>
现 代</w>
电 阻</w>
发 行</w>
性 质</w>
e x
负 载</w>
附 加</w>
地 点</w>
请 单击</w>
顺 序</w>
物 理</w>
管理 员</w>
弹 簧</w>
额 外</w>
临 床</w>
意 味
改 革</w>
P C
手 机</w>
2 6</w>
旅 游</w>
意 识</w>
疾 病</w>
担 保</w>
样 品</w>
相 信</w>
每 年</w>
未 能</w>
合 成</w>
一 年</w>
教 学</w>
潜 在</w>
4 5</w>
200 8</w>
竞 争</w>
应 对</w>
来 源</w>
意味 着</w>
中 间</w>
也 许</w>
总 是</w>
3 00</w>
文 章</w>
监 管</w>
艺 术</w>
登 录</w>
方 便</w>
负 荷</w>
显 著</w>
保 护
普 通</w>
当 然</w>
化 学
装 配</w>
账 户</w>
统 计</w>
董 事会</w>
高 压</w>
创 造</w>
第 一个</w>
大 部分</w>
线 性</w>
承 诺</w>
签 署</w>
I N
充 分</w>
可 靠</w>
示 例</w>
7 5</w>
行 政</w>
效 应</w>
能 量</w>
分 子</w>
亿 美元</w>
比 如</w>
世 界
19 8
事 务</w>
消 除</w>
药 物</w>
约 束</w>
具 备</w>
音 乐</w>
不 仅</w>
变 形</w>
自 定义</w>
i d
提 示</w>
下 载</w>
合 金</w>
字 段</w>
资 格</w>
认 识</w>
准 确</w>
照 片</w>
冷 却</w>
大 会</w>
有 效
转 让</w>
201 5</w>
公 共</w>
线 束</w>
部 署</w>
进 口</w>
合 作
小 组</w>
i on
大 约</w>
多 少</w>
样 式</w>
显 示
振 动</w>
展 示</w>
热 器</w>
电 影</w>
另 一
锁 定</w>
符 号</w>
智 能</w>
r on
验 收</w>
2 7</w>
货 币</w>
产 品
地 图</w>
只 要</w>
C L
o o
M S</w>
实验 室</w>
精 神</w>
通 用</w>
怎 么</w>
生 命</w>
相 比</w>
修 复</w>
进 展</w>
S Q
卖 方</w>
I T</w>
浓 度</w>
成 立</w>
连接 器</w>
形 状</w>
背 景</w>
顶 部</w>
S h
利 润</w>
某 个</w>
基 因</w>
调 用</w>
导 入</w>
制 备</w>
执 行
稳 定性</w>
定 期</w>
a b
人 士</w>
领 导</w>
市 场
总 统</w>
共 和
财 产</w>
反 映</w>
专 用</w>
融 资</w>
边 缘</w>
防 护</w>
英 语</w>
动 作</w>
构 建</w>
各 个</w>
M an
S T
索 引</w>
印 度</w>
不 足</w>
C h
之 外</w>
压 缩
很 大</w>
命 名</w>
点 击</w>
编 码</w>
电 站</w>
巨 大</w>
补 充</w>
每 天</w>
职 业</w>
给 予</w>
E C</w>
底 部</w>
试 图</w>
保 障</w>
冲 突</w>
代 理
全 国</w>
蛋 白</w>
201 1</w>
社 区</w>
进 程</w>
O N</w>
EC M</w>
补 偿</w>
电 磁
a p
周 围</w>
统 一</w>
医 生</w>
丰 富</w>
u m
申 请
声 音</w>
投标 人</w>
天 然
越 来
积 极</w>
禁 止</w>
深 度</w>
债 务</w>
标 准
估 计</w>
挑 战</w>
配 件</w>
预 算</w>
虚 拟</w>
C D</w>
I I</w>
投资 者</w>
配 合</w>
元 件</w>
D N
股 票</w>
当 时</w>
u s
发 电机</w>
项 目
加 热</w>
协 会</w>
助 于</w>
乙 方</w>
200 9</w>
消费 者</w>
医 院</w>
推 动</w>
电 力</w>
甲 方</w>
一 旦</w>
润 滑
介 质</w>
S I</w>
交 易
逻 辑</w>
201 2</w>
仪 器</w>
证 据</w>
成 分</w>
铁 路</w>
机 关</w>
R E
多 种</w>
对 应</w>
破 坏</w>
在 于</w>
地 震</w>
同 一</w>
提 取</w>
螺 纹</w>
食 物</w>
培 养</w>
物 品</w>
现 金</w>
滤 器</w>
成 果</w>
死 亡</w>
大 家</w>
电 视</w>
201 4</w>
清 楚</w>
无 论</w>
活 性</w>
构 件</w>
0 2</w>
国 家
切 换</w>
任 何
那 里</w>
摘 要</w>
寿 命</w>
校 准</w>
原 始</w>
压 缩</w>
常 规</w>
软 管</w>
面 临</w>
十 分</w>
作 品</w>
力 学</w>
宽 度</w>
液 体</w>
法 兰</w>
四 个</w>
第 二</w>
公 开</w>
中 央</w>
交 通
审 计</w>
越来 越</w>
自 身</w>
美 国
右 侧</w>
含 有</w>
医 疗</w>
实 际
I S</w>
女 性</w>
向 导</w>
机 油</w>
人 民</w>
e d</w>
扫 描</w>
C S</w>
绿 色</w>
S y
201 6</w>
这 么</w>
德 国</w>
200 7</w>
生 效</w>
构 造</w>
完 善</w>
遇 到</w>
塑 料</w>
违 反</w>
典 型</w>
3 .</w>
顾 问</w>
用 途</w>
农 业</w>
若 要</w>
开 放</w>
时 代</w>
i i</w>
体 验</w>
人 口</w>
用 户
船 舶</w>
较 大</w>
at ion</w>
力 量</w>
隔 离</w>
2 9</w>
困 难</w>
损 害</w>
本 合同</w>
主 管</w>
1 0.
A ut
从 事</w>
举 行</w>
红 色</w>
公 共
转 速</w>
传 递</w>
职 责</w>
持 有</w>
L E
精 度</w>
接 近</w>
继 电器</w>
基 本
天然 气</w>
1 50</w>
决 于</w>
取 决于</w>
期 限</w>
测 试
以 外</w>
报 道</w>
S E
左 侧</w>
一 系列</w>
图 标</w>
文 字</w>
P o
仅 仅</w>
发 展
on t</w>
应 急</w>
Man ag
201 3</w>
卫 生</w>
2 5
泄 漏</w>
毫 米</w>
出 售</w>
权 益</w>
房 间</w>
地 位</w>
协 助</w>
计 量</w>
架 构</w>
迅 速</w>
审 批</w>
有 助于</w>
材 质</w>
故 事</w>
左 右</w>
维 持</w>
p h
展 开</w>
技 能</w>
予 以</w>
用 性</w>
联合 国</w>
照 明</w>
上 升</w>
布 置</w>
型 号</w>
替 换</w>
欢 迎</w>
决 议</w>
推 荐</w>
SQ L</w>
今 年</w>
调 试</w>
联 网</w>
交 换</w>
S S
蒸 汽</w>
高 于</w>
会 计</w>
储 存</w>
U R
过 滤器</w>
re ct
阅 读</w>
替 代</w>
读 取</w>
图 片</w>
In ter
认 可</w>
10 00</w>
病 毒</w>
早 期</w>
i z
布 局</w>
0 5</w>
m m
第三 方</w>
映 射</w>
各 项</w>
无 需</w>
真 的</w>
官 员</w>
决 策</w>
端 子</w>
空 调</w>
填 充</w>
地 产</w>
固 定
制 动器</w>
广 告</w>
f ont</w>
M A
经 历</w>
内 存</w>
P L
土 壤</w>
生 物
尚 未</w>
清 洗</w>
手 术</w>
建筑 物</w>
商 业
到 达</w>
电 厂</w>
是 因为</w>
i k
分 包商</w>
每 次</w>
高 效</w>
蓄 电池</w>
水 泥</w>
腐 蚀</w>
1. 5</w>
犯 罪</w>
不 可
第 十
p p
结 算</w>
c l
流 动</w>
万 元</w>
注 册
处理 器</w>
脚 本</w>
绝 缘</w>
e n</w>
严 格</w>
人民 币</w>
变 压器</w>
n et</w>
机 场</w>
首 次</w>
战 争</w>
4 00</w>
会 计
始 终</w>
手 段</w>
投 入</w>
初 始</w>
间 隙</w>
f c</w>
公 式</w>
即 可</w>
准 则</w>
相 当</w>
ic e</w>
限 于</w>
T C</w>
款 项</w>
合 器</w>
主 席</w>
上 面</w>
自 然
利 率</w>
这 项</w>
设 立</w>
S P</w>
存储 系统</w>
等 于</w>
本 身</w>
查 找</w>
运 动
进 度</w>
仿 真</w>
辐 射</w>
共和 国</w>
反 馈</w>
橡 胶</w>
危 机</w>
部 位</w>
变 成</w>
3 3</w>
理 由</w>
负 责
细 节</w>
有 限</w>
排 除</w>
兴 趣</w>
竞 争
L U
3 6</w>
参 照</w>
冲 击</w>
单 个</w>
除 外</w>
营 销</w>
工 人</w>
M P
st ron
而 是</w>
发 明</w>
愿 意</w>
法 国</w>
场 景</w>
扩 大</w>
损 伤</w>
权 力</w>
发 生
地 球</w>
200 5</w>
ang e</w>
A C
传 播</w>
领 导
事 实</w>
明 书</w>
导 出</w>
寻 找</w>
字 符
光 纤</w>
S P
干 扰</w>
筛 选</w>
结 构
罗 斯</w>
实际 上</w>
松 开</w>
确 实</w>
假 设</w>
观 点</w>
公 里</w>
I P
曲 面</w>
ht t
总 体</w>
间 隔</w>
变速 器</w>
第 四
或 是</w>
导 航</w>
安全 性</w>
用 作</w>
配 器</w>
局 部</w>
o c
等 待</w>
约 定</w>
居 民</w>
插 头</w>
误 差</w>
iv e</w>
满 意</w>
建 造</w>
样 本</w>
打 印
行 政
选 中</w>
c m</w>
D S</w>
200 6</w>
复 合</w>
沟 通</w>
披 露</w>
涂 层</w>
轮 胎</w>
改 造</w>
6 5</w>
有 着</w>
这 次</w>
1 2
B S</w>
对 比</w>
怎 样</w>
D i
合作 伙伴</w>
赔 偿</w>
曾 经</w>
场 所</w>
管理 器</w>
并 非</w>
能 性</w>
多 年</w>
1. 2</w>
2. 1</w>
1. 1</w>
w .
0 3</w>
控 件</w>
发 挥</w>
不 锈
有 时</w>
S S</w>
为 止</w>
外 壳</w>
扭 矩</w>
in t</w>
f f
整 合</w>
检 查
机 械
亚 洲</w>
年 代</w>
旨 在</w>
生 长</w>
装 饰</w>
处 置</w>
综 合
自动 化</w>
专 门</w>
R O
伤 害</w>
驾驶 员</w>
理 想</w>
X ML</w>
顾 客</w>
均 匀</w>
支 出</w>
0 4</w>
N A
施 工
可 见</w>
离 合器</w>
操作 系统</w>
星 期
or t
4 8</w>
可 靠
病 人</w>
轨 道</w>
i e
风 格</w>
第 一次</w>
授 予</w>
签 名</w>
分 区</w>
通 讯</w>
做 好</w>
p t
分 为</w>
T P</w>
可靠 性</w>
壳 体</w>
6 00</w>
名 字</w>
公 众</w>
威 胁</w>
填 写</w>
终 端</w>
6 4</w>
i r
办 理</w>
免 费</w>
ww w.
S E</w>
润 滑</w>
D C</w>
荷 载</w>
G B</w>
哪 些</w>
管 路</w>
干 燥</w>
不 应</w>
优 先</w>
债 券</w>
离 子</w>
点 火</w>
燃 烧</w>
采 集</w>
编 辑
C P</w>
清 理</w>
鼓 励</w>
回 答</w>
中 断</w>
磨 损</w>
先 进</w>
警 报</w>
主 体</w>
公 告</w>
指示 灯</w>
H T
身 份</w>
绘 制</w>
负责 人</w>
皮 肤</w>
边 界</w>
E n
随 后</w>
一 方</w>
小 型</w>
那 样</w>
注 释</w>
转 动</w>
初 步</w>
攻 击</w>
9 5</w>
品 质</w>
思 考</w>
真 实</w>
教 师</w>
所 在</w>
备 用</w>
工 具
开 启</w>
坚 持</w>
回 收</w>
质 量
母 亲</w>
神 经
独 特</w>
斯 坦</w>
十 年</w>
葡 萄
看 起来</w>
弹 性</w>
字符 串</w>
M E</w>
号 码</w>
遵 循</w>
缺 乏</w>
A d
虚 拟
缓 存</w>
吸 收</w>
信 用
18 3</w>
紧 急</w>
加 拿
编 程</w>
轮 机</w>
偏 差</w>
2. 2</w>
加 速</w>
要 素</w>
u s</w>
宣 布</w>
新 闻</w>
2. 5</w>
实 时</w>
物 料</w>
一 只</w>
溶 液</w>
标 题</w>
Ex ch
别 人</w>
N et
现 状</w>
浏 览
此 时</w>
htt p
c f</w>
l in
为 此</w>
3 4</w>
路 线</w>
互 联网</w>
S O
stron g</w>
H P</w>
享 受</w>
5 5</w>
乘 客</w>
数 字
销 商</w>
e ct
基础 设施</w>
民 族</w>
延 长</w>
鼠 标</w>
逐 渐</w>
感 染</w>
活 塞</w>
一 张</w>
拆 除</w>
电磁 阀</w>
: /
行 驶</w>
集 合</w>
W or
诉 讼</w>
白 色</w>
阻 止</w>
眼 睛</w>
收 购</w>
澳 大
迁 移</w>
噪 声</w>
浏览 器</w>
业 务
法 律
超 出</w>
操作 员</w>
脉 冲</w>
平 方
推 进</w>
不锈 钢</w>
弯 曲</w>
强 调</w>
常 见</w>
A P</w>
签 订</w>
i d</w>
金 属
C ent
做 法</w>
相 反</w>
配 置
新 建</w>
供 电</w>
出 错</w>
消 费</w>
发 送
表 达
相 互</w>
招 标</w>
监 视</w>
保 养</w>
租 赁</w>
车 轮</w>
达 成</w>
序 列</w>
回 到</w>
退 出</w>
故 障
总 结</w>
任 意</w>
因 子</w>
LU N</w>
制 品</w>
飞 行</w>
200 3</w>
化 合物</w>
E R
A l
高 速</w>
引 导</w>
个 月</w>
放 弃</w>
传 动</w>
途 径</w>
父 亲</w>
预 防</w>
依 照</w>
风 机</w>
女 人</w>
:/ /
加拿 大</w>
o s
事 业</w>
it y</w>
C P
ont ro
下 文</w>
入 口</w>
三 维</w>
往 往</w>
编辑 器</w>
直 至</w>
季 度</w>
软 件
任何 人</w>
驾 驶</w>
体 积</w>
过 滤</w>
Exch ange</w>
A ct
4 .</w>
载 荷</w>
压缩 机</w>
所 选</w>
重新 启动</w>
修 理</w>
商 务</w>
外 观</w>
负 债</w>
如 有</w>
随 时</w>
该 项</w>
平 均
引 入</w>
教 授</w>
树 脂</w>
.co m
所 需</w>
吸 引</w>
想 法</w>
c e</w>
初 始
令 人</w>
俄 罗斯</w>
妇 女</w>
打印 机</w>
作 者</w>
情 形</w>
库 存</w>
房 地产</w>
看 看</w>
抑 制</w>
联 邦</w>
颗 粒</w>
父 母</w>
修 正</w>
儿 子</w>
i c</w>
永 远</w>
地 板</w>
C on
字 母</w>
氧 化</w>
款 人</w>
男 人</w>
提 前</w>
澳大 利亚</w>
锅 炉</w>
C o
m 3</w>
组 装</w>
a y
看 见</w>
回 路</w>
很 快</w>
Inter net</w>
焊 缝</w>
产 量</w>
去 年</w>
触 点</w>
担 任</w>
工 业
判 断</w>
得 出</w>
201 7</w>
人 数</w>
http ://
失 去</w>
中 华
销 售
突 出</w>
管 线</w>
委 托</w>
截 面</w>
写 入</w>
8 5</w>
通 风</w>
u b
翻 译</w>
阐 述</w>
事 实
自 我</w>
渲 染</w>
I B
承 认</w>
检 索</w>
人 工</w>
听 到</w>
激 光</w>
精 确</w>
股 权</w>
3 8</w>
速 率</w>
配置 文件</w>
额 定</w>
an d</w>
基 地</w>
未 经</w>
选 择
公 司
担 心</w>
故障 诊断</w>
4 2</w>
适 配器</w>
内 外</w>
安 装
身 上</w>
动 画</w>
ik e</w>
阵 列</w>
sp an</w>
我 会</w>
发 票</w>
尼 亚</w>
s s
隐 藏</w>
黑 色</w>
律 师</w>
要 性</w>
联 系
态 度</w>
地 质</w>
公 园</w>
I C</w>
一 场</w>
还 原</w>
室 内</w>
对 此</w>
温 度
可 是</w>
伦 敦</w>
探 索</w>
日 起</w>
基 准</w>
Manag er</w>
英 尺</w>
姓 名</w>
一 件</w>
起 动</w>
规 律</w>
突 然</w>
反 应
S D
治 理</w>
神 经</w>
后 面</w>
发 表</w>
力 矩</w>
引 擎</w>
障 碍</w>
风 扇</w>
延 迟</w>
I N</w>
y p
武 器</w>
公 布</w>
索 赔</w>
P ow
程 序
场 地</w>
方 程</w>
万 美元</w>
小 心</w>
研 发</w>
规 程</w>
N E
计算 机
意 思</w>
年 龄</w>
概 述</w>
剩 余</w>
N ame</w>
高 温</w>
运 作</w>
原 料</w>
争 议</w>
S A</w>
资 源
外 国</w>
接 线</w>
3. 1</w>
绩 效</w>
垫 圈</w>
里 面</w>
k g</w>
浏 览</w>
O S</w>
各 自</w>
移 除</w>
卫 生
告 知</w>
肯 定</w>
丢 失</w>
海 洋</w>
相 似</w>
P D
推 出</w>
舒 适</w>
尽 可能</w>
右 键</w>
网 格</w>
案 例</w>
记 忆</w>
监 理</w>
工 资</w>
电 动</w>
绝 对</w>
in g
3 7</w>
非 洲</w>
之 中</w>
c ri
强 大</w>
太 阳
艺 术
论 文</w>
运 转</w>
t h
变速 箱</w>
队 列</w>
生 态</w>
表达 式</w>
m l</w>
对 手</w>
人 才</w>
百分 比</w>
科 学家</w>
我 方</w>
意 大
航 空
提 供
制 成</w>
效 益</w>
车 间</w>
零 部件</w>
卫 星</w>
C om
乙 烯</w>
航 空</w>
总 线</w>
知 识
装 备</w>
一 套</w>
ec t</w>
兼 容</w>
转 化</w>
各 国</w>
.com /
主 动</w>
L in
符 合
1 20</w>
I T
电 视
血 管</w>
可 能性</w>
切 割</w>
日 常</w>
农 村</w>
危 害</w>
于 是</w>
充 满</w>
国 务
i st
200 4</w>
车 门</w>
种 类</w>
工作 人员</w>
这 位</w>
前 面</w>
c h</w>
气 候</w>
测 器</w>
转 子</w>
一 组</w>
书 面
渠 道</w>
0. 5</w>
面 对</w>
以 色
签 字</w>
老 师</w>
代 表
N ike</w>
播 放</w>
3. 2</w>
私 人</w>
天 线</w>
驱 动
各 类</w>
D V
A C</w>
排 水</w>
意 外</w>
子 公司</w>
研 制</w>
图 表</w>
时 间
总 额</w>
衣 服</w>
必 需</w>
体 现</w>
指 明</w>
ar t
实 行</w>
产 权</w>
纠 正</w>
真 空</w>
现 实</w>
掌 握</w>
反 对</w>
以色 列</w>
钥 匙</w>
e d
4 4</w>
流 体</w>
中 有</w>
5 1</w>
电 力
岩 石</w>
代理 人</w>
引 发</w>
0 8</w>
变 动</w>
寻 求</w>
在 内</w>
失 效</w>
事实 上</w>
冷却 液</w>
环 保</w>
所 用</w>
优 先
分 享</w>
路 器</w>
雇 员</w>
理 念</w>
at e</w>
会 话</w>
专 业
贡 献</w>
术 语</w>
信 用</w>
火 灾</w>
她 们</w>
or y</w>
简 称</w>
常 用</w>
刺 激</w>
太 阳</w>
不 管</w>
断 路器</w>
单 一</w>
例 子</w>
或 许</w>
调 节
F S</w>
排 气</w>
A N
图 案</w>
膨 胀</w>
几 何</w>
初始 化</w>
定 制</w>
轻 松</w>
和 华</w>
有 机</w>
s h
上 涨</w>
耶 和华</w>
妈 妈</w>
o v
按 下</w>
行 车</w>
l t;</w>
& lt;</w>
到 期</w>
最 初</w>
随 机</w>
C R
自 由
5 2</w>
上 市</w>
专 利</w>
形 态</w>
统 计
特 色</w>
粒 子</w>
输 送</w>
D M
k m</w>
个 人
无 线
完 美</w>
AP I</w>
月 份</w>
推 广</w>
报 价</w>
旅 行</w>
症 状</w>
碰 撞</w>
低 压</w>
a t</w>
地 下
出 版
无 线</w>
永 久</w>
交 换
邀 请</w>
信 贷</w>
7 2</w>
年 轻</w>
后 续</w>
更 为</w>
托 架</w>
晚 上</w>
穿 过</w>
仲 裁</w>
键 入</w>
支 行</w>
意 图</w>
倾 斜</w>
联 盟</w>
前 提</w>
对 策</w>
理 学</w>
协 商</w>
ra n
传 送</w>
公 约</w>
节 目</w>
化 剂</w>
房 子</w>
年 来</w>
鉴 定</w>
横 向</w>
S T</w>
团 体</w>
简 化</w>
A n
配 有</w>
欧 元</w>
章 节</w>
所 属</w>
垃 圾</w>
为 主</w>
本 人</w>
en d
可 行</w>
试 验
驱动 程序</w>
ra t
后 来</w>
S M
房 屋</w>
现 代
演 示</w>
充 分
用 水</w>
财 政
定 值</w>
动 性</w>
我 要</w>
es s</w>
经 销商</w>
蛋 白
i t</w>
开 挖</w>
V is
压 力
3 9</w>
当 局</w>
延 伸</w>
透 明</w>
另 有</w>
爆 炸</w>
仪 表
如 今</w>
0 6</w>
可 用性</w>
有 所</w>
IS O</w>
9 9</w>
身 份
地 下</w>
4 1</w>
试 样</w>
科 学
cl as
此 处</w>
清 器</w>
机 器
生 态
i i
前 景</w>
CL AR
利 于</w>
8 00</w>
意大 利</w>
会 员</w>
存 放</w>
职 能</w>
S u
10 24</w>
欧 盟</w>
熟 悉</w>
申请 人</w>
下 方</w>
Pow er
心 理</w>
发 射</w>
滤 清器</w>
高 兴</w>
信 任</w>
速 器</w>
消 耗</w>
ra c
评 审</w>
第 三</w>
q u
置 于</w>
行 使</w>
女 孩</w>
强 制</w>
忽 略</w>
极 限</w>
2 50</w>
历 史
坐 在</w>
常 常</w>
电 动机</w>
持 续
中 的</w>
雇 主</w>
上 方</w>
肿 瘤</w>
证 券
D E
召 开</w>
划 分</w>
转 变</w>
C C</w>
保 持
间 接</w>
天 气</w>
主 管
加 密</w>
普 遍</w>
向 上</w>
章 程</w>
控制 台</w>
谈 判</w>
来 看</w>
施 加</w>
首 席</w>
加 快</w>
安装 程序</w>
著 名</w>
默 认
s r
l i
对 齐</w>
ar e</w>
证 实</w>
网 页</w>
k V</w>
缺 少</w>
e v
西 方</w>
套 管</w>
正 是</w>
来 到</w>
显示 器</w>
婴 儿</w>
营 业
几 年</w>
交 叉</w>
检 修</w>
CLAR ii
杂 志</w>
CLARii ON</w>
蓝 色</w>
标 注</w>
列 车</w>
el l</w>
4 9</w>
其 实</w>
层 次</w>
正 如</w>
l ang
商 标</w>
k er</w>
等 等</w>
期 望</w>
高 速
功 能
上 帝</w>
分 解</w>
令 人
变 换</w>
叶 片</w>
相 互
选 举</w>
违 约</w>
森 林</w>
还 要</w>
箭 头</w>
机 理</w>
Po int</w>
A L
依 赖</w>
一 致
编 写</w>
国务 院</w>
合 同
清 晰</w>
快 照</w>
根 本</w>
固 件</w>
第 五
即 将</w>
静 态</w>
主 任</w>
m a
最 多</w>
电 气
ag e</w>
隧 道</w>
密 钥</w>
u m</w>
二 次</w>
发 电</w>
代 替</w>
做 到</w>
U S
职 位</w>
减 小</w>
ol d</w>
快 乐</w>
相 关
依 然</w>
废 物</w>
直 线</w>
阿 拉
考 试</w>
本 条</w>
D P</w>
竣 工</w>
暴 露</w>
加 上</w>
4 3</w>
组 成
组成 部分</w>
有 者</w>
区 分</w>
导 管</w>
S p
灵 活</w>
宣 传</w>
LE D</w>
利 息</w>
援 助</w>
消 防</w>
线 圈</w>
仓 库</w>
天 然</w>
不 受</w>
涂 料</w>
排 水
物 流</w>
油 箱</w>
增 大</w>
应 由</w>
提 到</w>
和 平</w>
附 属</w>
成 熟</w>
包 人</w>
CA D</w>
取 代</w>
习 惯</w>
V ie
无 论
6 6</w>
有 点</w>
an d
二 十
承 受</w>
建 模</w>
就 业</w>
中 所</w>
S R
管理 人员</w>
有 用</w>
加 以</w>
名 为</w>
与 其</w>
品 种</w>
次 数</w>
两 年</w>
第二 十
沥 青</w>
生 命
采 取
5 6</w>
车 身</w>
2. 3</w>
明 白</w>
D at
纽 约</w>
单 据</w>
3 0
记 者</w>
T M</w>
lang 1024</w>
气 缸</w>
是 从</w>
O R
国 外</w>
er e</w>
轮 轴</w>
路 面</w>
妻 子</w>
o b
档 案</w>
数 目</w>
管理 系统</w>
一 块</w>
估 算</w>
三 种</w>
注 意
UR L</w>
药 品</w>
http:// www.
享 有</w>
不 少</w>
形 象</w>
表 中</w>
模 糊</w>
4 6</w>
5 0
L A
两 侧</w>
激 励</w>
群 集</w>
学 会</w>
长 时间</w>
f 16
f16 lang1024</w>
中华 人民
本 次</w>
干 净</w>
导 向</w>
00 1</w>
不 良</w>
矩 阵</w>
润滑 油</w>
A c
車 辆</w>
其 他人</w>
这 类</w>
部 队</w>
解 除</w>
银 行
纳 入</w>
接 合</w>
出 去</w>
暂 停</w>
玻 璃
截 至</w>
当 事
最 大
已 有</w>
警 察</w>
B A</w>
各 方</w>
一 半</w>
群 体</w>
重 视</w>
v er
I M
足 以</w>
深 入</w>
200 2</w>
应 付</w>
踏 板</w>
英 里</w>
现 金
联系 人</w>
博 士</w>
油 泵</w>
比 亚</w>
1. 3</w>
说 明书</w>
E N
水 泵</w>
物 体</w>
非 线性</w>
不 想</w>
o u
es s
音 频</w>
动 力学</w>
i s</w>
事 务
SC SI</w>
全 局</w>
道 德</w>
留 下</w>
加 热器</w>
人 物</w>
re s
建 设
好 像</w>
分 行</w>
对 方</w>
C M
很 少</w>
第二 个</w>
重 要性</w>
断 面</w>
g e</w>
回 来</w>
并 用</w>
具 体
电 路
不 错</w>
H z</w>
优 点</w>
发 育</w>
Di rect
4. 1</w>
装 载</w>
管理 局</w>
收 费</w>
U N
保 密</w>
呈 现</w>
5 8</w>
f or
星 期</w>
5 .</w>
有效 性</w>
重 试</w>
向 下</w>
水 量</w>
巴 马</w>
事 宜</w>
4 7</w>
视 觉</w>
办 事
改 为</w>
5 4</w>
黄 色</w>
错 误
南 部</w>
传 真</w>
钻 孔</w>
开 口</w>
劳 动</w>
卸 载</w>
各 地</w>
参 与
6 0
撤 销</w>
B O
m in</w>
医 疗
触 发</w>
西 亚</w>
6 2</w>
上 去</w>
护 理</w>
法 庭</w>
绑 定</w>
19 7
靠 近</w>
间 距</w>
感 受</w>
赢 得</w>
过 来</w>
西 部</w>
预 防
经 营
不 得
2 7
么 样</w>
值 得</w>
股 东
亿 元</w>
美 丽</w>
复 合
M I</w>
融 合</w>
实 用
北 京
污 染
C D
情 绪</w>
西 班
海 外</w>
c ont
评 论</w>
司 法</w>
不 用</w>
i f
拉 克</w>
S M</w>
转 换
比 率</w>
详 情</w>
难 以</w>
保 证
优 质</w>
本 发明</w>
充 电</w>
6 1</w>
好 处</w>
奥 巴马</w>
部 长</w>
设 有</w>
公 差</w>
数 学</w>
总 部</w>
成 长</w>
居 住</w>
印 刷</w>
200 1</w>
一 台</w>
由 此</w>
将 来</w>
看 来</w>
.co m</w>
4. 2</w>
i l</w>
反 射</w>
余 额</w>
密封 圈</w>
合 法</w>
军 队</w>
因 而</w>
存 款</w>
行 程</w>
耦 合</w>
凭 证</w>
敏 感</w>
S C</w>
iz e</w>
北 部</w>
过 度</w>
6 8</w>
侧 面</w>
上 部</w>
6 3</w>
强 化</w>
机器 人</w>
污 水</w>
坐 标</w>
断 裂</w>
安全 带</w>
所 有权</w>
o g
所 得
2 8
半 径</w>
练 习</w>
消 防
表 单</w>
之 处</w>
教 学
打 算</w>
C H
at ion
劳 动
强 烈</w>
中华人民 共和国</w>
C X
论 述</w>
ur e</w>
技 巧</w>
C T</w>
案 件</w>
六 角</w>
消 失</w>
n ame</w>
插 座</w>
T E
办事 处</w>
控制 阀</w>
接 线
进 步</w>
作 战</w>
呼 吸</w>
3. 5</w>
附 表</w>
电 话
面 前</w>
段 时间</w>
新 增</w>
ontro l</w>
福 利</w>
事 先</w>
M e
u p</w>
配 套</w>
摄 像
排 序</w>
陈 述</w>
大 脑</w>
SA N</w>
一 段</w>
r a</w>
时 刻</w>
9 6</w>
成 都</w>
托 人</w>
罚 款</w>
导 体</w>
每 月</w>
相 机</w>
怀 疑</w>
酸 盐</w>
举 办</w>
图 书
接 收
营 业</w>
当事 人</w>
条 目</w>
动 脉</w>
一 级</w>
涡 轮</w>
5 3</w>
光 学</w>
花 费</w>
水 位</w>
放 射
网 上</w>
小 说</w>
P a
对 称</w>
一 座</w>
税 收</w>
停 车</w>
非 法</w>
1 2.
打 造</w>
m p
P at
男 性</w>
原 来</w>
空 气
剂 量</w>
收 取</w>
T A</w>
停 机</w>
多 次</w>
俱 乐
u e</w>
境 内</w>
自 行</w>
业 绩</w>
体 育</w>
选 用</w>
裂 纹</w>
液 压
过 渡</w>
全 新</w>
俱乐 部</w>
SA P</w>
观 测</w>
汇 率</w>
校 正</w>
t .com/
滑 动</w>
一 层</w>
财务 报表</w>
模 具</w>
医 学</w>
更 大</w>
人 力
C E
官 方</w>
冲 洗</w>
T S</w>
答 案</w>
以 为</w>
大 陆</w>
m 2</w>
平 行</w>
管理 层</w>
人 群</w>
新 加
大 气</w>
信 号
键 盘</w>
再 生</w>
摩 擦</w>
基 亚</w>
优 秀</w>
对 话</w>
出 版</w>
D B
p t</w>
催 化剂</w>
名 单</w>
电子 地图</w>
抵 押</w>
韩 国</w>
取 样</w>
彻 底</w>
m icrosof
3. 3</w>
流 行</w>
s e</w>
公 平</w>
之 日起</w>
便 于</w>
皇 帝</w>
大 鼠</w>
有 趣</w>
6 7</w>
重 建</w>
权 人</w>
财 政</w>
探 测</w>
操 纵</w>
三 年</w>
众 多</w>
接 下来</w>
e m</w>
用 品</w>
预 定</w>
纵 向</w>
考 核</w>
文件 名</w>
注 入</w>
气 门</w>
升 高</w>
I D
后 果</w>
诺 基亚</w>
某 种</w>
指 向</w>
成 绩</w>
C M</w>
车 型</w>
装 箱</w>
定 价</w>
P l
旁 边</w>
商 店</w>
圆 形</w>
破 产</w>
下 跌</w>
电 网</w>
字 节</w>
风 险
测 量
波 动</w>
份 额</w>
依 法</w>
窗 格</w>
所 得</w>
工具 栏</w>
菜 单
桥 梁</w>
二 氧化
c s</w>
关 节</w>
采 样</w>
考 察</w>
一致 性</w>
ph ere</w>
拍 摄</w>
选 框</w>
Act ive</w>
涵 盖</w>
输 送
废 水</w>
岗 位</w>
9 8</w>
封 闭</w>
所 有人</w>
下 午</w>
得 以</w>
头 发</w>
节 能</w>
区 别</w>
钢 板</w>
公 民</w>
总 经理</w>
之 内</w>
下 去</w>
IB M</w>
法 案</w>
L O
州 市</w>
进 气</w>
法 定</w>
感 谢</w>
合 约</w>
R S</w>
p er
人 体</w>
日 历</w>
P M</w>
哪 里</w>
出 席</w>
厂 房</w>
标 高</w>
并 未</w>
N av
Aut o
I M</w>
噪 音</w>
创 作</w>
合 规</w>
合 伙
企 业
说 道</w>
宗 教</w>
伟 大</w>
分 之一</w>
中 央
5 9</w>
文 明</w>
接 着</w>
多 样
非 常
1 1.
语 音</w>
住 宅</w>
评 定</w>
交易 所</w>
存 档</w>
之 下</w>
A D
有 利于</w>
垫 片</w>
可 选</w>
直 流</w>
纹 理</w>
协 定</w>
指示 器</w>
PL C</w>
机 架</w>
底 座</w>
复 选框</w>
原 子</w>
语 句</w>
DV D</w>
男 孩</w>
提 醒</w>
钢 管</w>
面 图</w>
易 于</w>
所 谓</w>
两 次</w>
拉 伸</w>
图书 馆</w>
仪表 板</w>
配 方</w>
分 辨
中 心
起 重
港 口</w>
S D</w>
源 于</w>
汇 总</w>
精 神
合伙 人</w>
O ff
开 支</w>
偏 移</w>
声 器</w>
Direct ory</w>
防 治</w>
沿 着</w>
传 动
去 除</w>
车 站</w>
聚 合物</w>
落 实</w>
密封 件</w>
5 7</w>
追 求</w>
可 行
克 斯</w>
d e</w>
e b
蛋白 质</w>
复 制
应 有</w>
不得 不</w>
穿 着</w>
疗 效</w>
调节 器</w>
男 子</w>
i b
阿 尔
调 度</w>
通 知
文 学</w>
领 先</w>
i SCSI</w>
久 性</w>
经 典</w>
Cent er</w>
T h
短 期</w>
所 有者</w>
力 于</w>
M O
文 化
本 法</w>
完 整
解 析</w>
排 列</w>
m g</w>
想 象</w>
致 力于</w>
一 边</w>
出 发</w>
英 文</w>
泡 沫</w>
or t</w>
固 体</w>
截 止</w>
microsof t.com/
冷却 器</w>
准 确
所得 税</w>
同 事</w>
喷 嘴</w>
尽 快</w>
行 李</w>
订 阅</w>
re f</w>
催 化</w>
环 节</w>
秘 书
公 允</w>
票 据</w>
引 力</w>
克 隆</w>
电 极</w>
总 数</w>
D TC</w>
A S</w>
1 10</w>
斯 特</w>
薄 膜</w>
磁 带</w>
上 下文</w>
屋 顶</w>
层 面</w>
存储 器</w>
时 尚</w>
成 型</w>
军 事</w>
围 绕</w>
5. 1</w>
年 人</w>
女 儿</w>
重 置</w>
计 数</w>
苹 果</w>
服 装</w>
高 校</w>
射 线</w>
事 物</w>
不 够</w>
clas s</w>
T e
备 件</w>
论 坛</w>
8 6</w>
注册 表</w>
Q u
E N</w>
前 后</w>
任 命</w>
套 件</w>
项 下</w>
C A</w>
分辨 率</w>
A p
波 器</w>
遭 受</w>
新加 坡</w>
不 利</w>
行 星</w>
营 养</w>
硬 度</w>
F C</w>
疲 劳</w>
广 播</w>
海 上</w>
球 员</w>
申 报</w>
管 制</w>
P T
痛 苦</w>
ri x</w>
就 要</w>
马 达</w>
奖 励</w>
位 移</w>
轮 廓</w>
登 记
y le</w>
像 是</w>
沉 积</w>
大 规模</w>
下 部</w>
产 物</w>
工 艺
溶 剂</w>
约 翰</w>
柴 油</w>
0 7</w>
a y</w>
娱 乐</w>
所 在
螺 旋</w>
灰 色</w>
t er</w>
面 向</w>
监 视
油 缸</w>
文 献</w>
客户 机</w>
不 必</w>
全 球
. as
P V
农 民</w>
a m</w>
发 放</w>
员 国</w>
文件 系统</w>
日 子</w>
色 彩</w>
减 轻</w>
本 书</w>
此 次</w>
财 富</w>
订 购</w>
整 理</w>
专 用
持 有人</w>
说 话</w>
缓 冲
城 市
成 品</w>
出 于</w>
表 演</w>
每 日</w>
缔 约
尽 量</w>
免 疫</w>
一 代</w>
6 .</w>
学 位</w>
细 菌</w>
游 客</w>
女 士</w>
协 作</w>
别 的</w>
不 论</w>
生 存</w>
接 触
下 游</w>
先 前</w>
逐 步</w>
地 层</w>
至 于</w>
危 险
体 制</w>
M P</w>
阳 光</w>
为 准</w>
信 托</w>
体 育
2. 4</w>
N e
接 通</w>
电 线</w>
移 民</w>
re di
普 通
气 管</w>
绝 缘
参与 者</w>
ex t</w>
同 等</w>
国 内外</w>
成 就</w>
加 注</w>
每 周</w>
种 植</w>
向 前</w>
交 货</w>
职 工</w>
陶 瓷</w>
教 堂</w>
起重 机</w>
读 数</w>
b r</w>
凸 轮轴</w>
雷 达</w>
下 述</w>
邮 箱</w>
使用 寿命</w>
缓 慢</w>
司 机</w>
注 射</w>
挖 掘</w>
总 监</w>
河 流</w>
插 件</w>
湿 度</w>
十 二
领导 人</w>
标 识
S o
缓 解</w>
当 中</w>
cont ent
贴 图</w>
防 水</w>
效 力</w>
责 任
灯 光</w>
8 8</w>
1. 0</w>
身份 验证</w>
想 到</w>
0 9</w>
发 器</w>
后 部</w>
股 市</w>
投 票</w>
分 布
博 物
灾 害</w>
9 2</w>
倾 向</w>
灾 难</w>
几 种</w>
秘 密</w>
扩 散</w>
标准 化</w>
其 余</w>
显示 屏</w>
记 录
扳 手</w>
管理 体系</w>
幸 福</w>
海 关</w>
给 定</w>
信 心</w>
低 温</w>
完整 性</w>
本 质</w>
镜 像</w>
显 然</w>
较 为</w>
供 给</w>
ar e
旅 客</w>
埃 及</w>
数据 源</w>
分 层</w>
家 人</w>
i p
看 着</w>
地 形</w>
近 年来</w>
本 节</w>
u x</w>
太阳 能</w>
思 维</w>
记 住</w>
紧 张</w>
打 击</w>
利 用
牵 引</w>
知识 产权</w>
送 达</w>
现 行</w>
U n
两 者</w>
用户 名</w>
理 事会</w>
P A
血 液</w>
家 里</w>
c ess</w>
w are</w>
暂 时</w>
分 包</w>
P E</w>
人 生</w>
回 顾</w>
铺 设</w>
il l
观 念</w>
空 白</w>
D A</w>
无论 是</w>
开 关
M E
计 数
少 年</w>
動 機</w>
注 明</w>
使用 者</w>
图 层</w>
金融 机构</w>
连 杆</w>
种 子</w>
运 会</w>
填 料</w>
O rac
法 人</w>
衡 量</w>
e g
累 计</w>
回 报</w>
西班 牙</w>
光 盘</w>
职 务</w>
t r
流 动性</w>
f t</w>
E d
运动 员</w>
监 督
电 源
卡 车</w>
.as p</w>
P A</w>
a s</w>
评 级</w>
一 片</w>
记 得</w>
污染 物</w>
默认 值</w>
如 图</w>
交换 机</w>
职 业
学 科</w>
价 格
发 行
开 采</w>
字 体</w>
前 进</w>
剪 切</w>
咖 啡</w>
现代 化</w>
真 是</w>
生 素</w>
线 程</w>
5. 2</w>
极 大</w>
干 预</w>
国 人</w>
9 7</w>
五 年</w>
X X
水 管</w>
w or
高 等
博物 馆</w>
切 断</w>
巴 西</w>
装 运</w>
适 用
路 上</w>
一 类</w>
过 高</w>
on e</w>
急 性</w>
渗 透</w>
研究 所</w>
提供 商</w>
出 生</w>
件 人</w>
锁 紧</w>
7 00</w>
一 个
T im
参 考
目 的
相 当
redi rect
控制 面板</w>
有限 责任</w>
手 柄</w>
皮 带</w>
运 营
a i</w>
重 组</w>
革 命</w>
content redirect
缩 短</w>
呼 叫</w>
聚 集</w>
contentredirect .asp</w>
光 谱</w>
磁 盘
移 植</w>
物 资</w>
Vie w</w>
上 诉</w>
7 6</w>
V M
丈 夫</w>
镀 锌</w>
yp e</w>
pl ic
已 知</w>
8 2</w>
0. 1</w>
平方 米</w>
台 湾</w>
贸 易
托 管</w>
到 位</w>
调 查
裂 缝</w>
计 入</w>
若 干</w>
归 档</w>
断 路</w>
芯 片</w>
新 闻
负 债
子 系统</w>
F il
格 兰</w>
心 脏</w>
6 9</w>
竞争 力</w>
A r
期 内</w>
旅 游
命 令
Sy st
智 能
织 物</w>
化 工</w>
人民 政府</w>
G B
以 使</w>
基 金
疑 问</w>
观 众</w>
199 8</w>
理 性</w>
I A</w>
含 义</w>
a ul
复制 到</w>
N o</w>
C l
收 缩</w>
潜 力</w>
C O</w>
2. 0</w>
完 工</w>
汽 车
零 售</w>
取 出</w>
阈 值</w>
产 业
分 散</w>
D is
示 意图</w>
体 内</w>
计数 器</w>
脂 肪</w>
饮 料</w>
有 力</w>
气 囊</w>
不 变</w>
P E
语 法</w>
作 物</w>
英 镑</w>
三 角
装 有</w>
年 轻
回 家</w>
加 固</w>
未 知</w>
工 序</w>
张 力</w>
定 向</w>
固定 资产</w>
性 化</w>
P h
u p
D e
放 大
相 结合</w>
M S
限 度</w>
第 六
换 档</w>
队 伍</w>
Orac le</w>
受 伤</w>
监视 器</w>
这 件</w>
A B
i a</w>
绘 图</w>
分 支</w>
全 世界</w>
条 文</w>
连 续
Nav is
9 4</w>
储 备</w>
ar t</w>
定 量</w>
球 队</w>
详 见</w>
至 关
询 问</w>
er a</w>
研究 进展</w>
之 上</w>
厘 米</w>
餐 厅</w>
中 文</w>
手 续</w>
末 端</w>
占 用</w>
复 杂
运 输
广 场</w>
纪 录</w>
终 于</w>
华 盛
至关 重要</w>
税 务</w>
幅 度</w>
硬 盘</w>
回 复</w>
体 系
闭 合</w>
火 焰</w>
而 定</w>
创 造
p s
油 漆</w>
民 主
I EC</w>
核 准</w>
防 火</w>
有效 期</w>
立 法</w>
J av
配 电</w>
1. 4</w>
五 个</w>
住 房</w>
显 得</w>
感 应</w>
G E</w>
总 裁</w>
风险 管理</w>
内 置</w>
保险 丝</w>
探 测器</w>
增 长
计 划
限 值</w>
4. 3</w>
分 组</w>
O ut
不 起</w>
技术 规范</w>
体系 结构</w>
Off ice</w>
器 件</w>
鉴 于</w>
阻 力</w>
地 上</w>
借 款人</w>
扣 除</w>
滚 动</w>
DN S</w>
h ref</w>
估 价</w>
Pat h</w>
F l
放 入</w>
提 议</w>
T O
相 连</w>
赋 予</w>
头 上</w>
哪 个</w>
分 割</w>
一 段时间</w>
景 观</w>
段 落</w>
彼 此</w>
奥 运会</w>
9 3</w>
认 真</w>
MP a</w>
勘 探</w>
捕 获</w>
尊 重</w>
明 天</w>
18 0</w>
7 1</w>
应 以</w>
社会 主义</w>
卸 下</w>
智 慧</w>
混 合物</w>
ar d</w>
悬 挂</w>
自 主</w>
D L
热 量</w>
钻 井</w>
res s</w>
黄 金</w>
压 实</w>
CA N</w>
教 育
标 书</w>
O n
b old</w>
正 面</w>
化学 品</w>
分 发</w>
追 踪</w>
一 部</w>
墨 西
方 向
见 到</w>
依 靠</w>
排 出</w>
桌 面</w>
有 机
超 声</w>
纳 米</w>
分 开</w>
感 兴趣</w>
上 海
http://www. microsoft.com/
认 知</w>
相当 于</w>
型 式</w>
到 底</w>
发 性</w>
缩 放</w>
依 赖
送 器</w>
街 道</w>
射 器</w>
存 货</w>
发 电
加 剂</w>
充 足</w>
水 分</w>
强 制
租 人</w>
提 及</w>
扬 声器</w>
订 立</w>
看 法</w>
出 色</w>
肌 肉</w>
劳 动力</w>
交 互</w>
特 尔</w>
I R
油 田</w>
序 列
净 化</w>
共 同
一 周</w>
紧 急
会 议
4 0
处 罚</w>
家 具</w>
美 洲</w>
保 健</w>
卓 越</w>
其 次</w>
木 材</w>
声 波</w>
所 列</w>
马 上</w>
很 难</w>
一 体</w>
DN A</w>
收 回</w>
此 项</w>
操 纵
Serv ic
负债 表</w>
携 带</w>
对 外</w>
前 往</w>
用 以</w>
而 成</w>
4. 5</w>
砂 浆</w>
诸 如</w>
一 侧</w>
纤 维
搭 配</w>
路 由</w>
S e
一 根</w>
C F
胜 利</w>
电路 图</w>
主管 部门</w>
恰 当</w>
ac k
走 向</w>
负 担</w>
屏 蔽</w>
政 治
相 邻</w>
梦 想</w>
浇 筑</w>
P O
平 等</w>
相关 性</w>
保 修</w>
不 好</w>
D W
生命 周期</w>
集 中
8 1</w>
进 制</w>
顶 点</w>
时 应</w>
代 皇帝</w>
颁 发</w>
还 会</w>
保证 金</w>
休 息</w>
od es
末 代皇帝</w>
C el
NA S</w>
汽 轮机</w>
无线 电</w>
应 向</w>
I C
数据 表</w>
h t</w>
二 级</w>
最 为</w>
d u
边 形</w>
手 工</w>
反应 堆</w>
容 性</w>
老 板</w>
mm et
199 9</w>
Navis phere</w>
公 用</w>
矛 盾</w>
漂 亮</w>
7 3</w>
最 小
优先 级</w>
工 况</w>
牢 固</w>
日 益</w>
迹 象</w>
物 种</w>
大 学生</w>
sr t</w>
粘 贴</w>
清 算</w>
办 公</w>
曲 轴</w>
红 外</w>
H SE</w>
民 主</w>
T R
Auto CAD</w>
分 离
工程 量</w>
核 算</w>
损 益</w>
天 空</w>
c on
会计 师</w>
模 拟
读 者</w>
关 心</w>
开 放
音 乐
素 质</w>
积 分</w>
199 7</w>
互 动</w>
报 纸</w>
2 3
http://www.microsoft.com/ contentredirect.asp</w>
a k
安全 阀</w>
那 种</w>
信息 系统</w>
观 看</w>
热 情</w>
US B</w>
学 者</w>
不 适</w>
Sy mmet
敌 人</w>
G PS</w>
发 光</w>
资 助</w>
对 照</w>
天 内</w>
集 体</w>
礼 物</w>
船 只</w>
放 电</w>
离 子
c e
7 7</w>
不 久</w>
p ro
仔 细</w>
委 任</w>
通知 书</w>
彩 色</w>
股东 大会</w>
青 年</w>
这 场</w>
预 先</w>
应 变</w>
液 位</w>
I E
I F
这 儿</w>
码 头</w>
袭 击</w>
预 览</w>
借 款</w>
7 4</w>
油 器</w>
文 本
原 材料</w>
投 诉</w>
一 体
期 待</w>
Symmet rix</w>
紧 密</w>
Lin ux</w>
少 量</w>
个 体</w>
目的 地</w>
塑 料
闪 烁</w>
热 处理</w>
放 大</w>
变 为</w>
出 具</w>
有 所
维 度</w>
c el</w>
吸 附</w>
年轻 人</w>
高速 公路</w>
大 幅</w>
刚 刚</w>
几 何
还 应</w>
恐 怖
最大 值</w>
NE T</w>
情 感</w>
增 量</w>
轴 向</w>
将 要</w>
In t
套 筒</w>
发 動機</w>
装 入</w>
节 省</w>
成 像</w>
s ize</w>
性 别</w>
薪 酬</w>
完 毕</w>
不 同
所 说</w>
映 像</w>
远 离</w>
起 到</w>
例 外</w>
M B</w>
er ra</w>
9 1</w>
法 官</w>
太 多</w>
拖 动</w>
高 达</w>
四 川</w>
防 护
1 5.
L D
频 道</w>
机 柜</w>
伊 拉克</w>
希 腊</w>
以 此</w>
总 量</w>
o k</w>
地下 水</w>
印 度
价 值
不 仅仅</w>
1 6.
8 7</w>
友 好</w>
单 元
修 建</w>
P R
指 导
氧化 物</w>
家 族</w>
导 弹</w>
应 收</w>
有 害</w>
批 评</w>
的 确</w>
峰 值</w>
细 胞
客 人</w>
科 技
扩 张</w>
活 力</w>
3. 4</w>
指 挥</w>
C N
限 额</w>
饱 和</w>
存 器</w>
气 动</w>
画 面</w>
不 了</w>
今 后</w>
飞 行
母 线</w>
布 线</w>
配 电
堵 塞</w>
集 装箱</w>
葡萄 酒</w>
嵌 入</w>
冗 余</w>
综 述</w>
第三 十
轨 迹</w>
聚 合</w>
回 归</w>
变 送器</w>
头 部</w>
机 具</w>
平均 值</w>
积 极
设计 师</w>
从 来</w>
支 承</w>
ar g
遵 从</w>
创 意</w>
ac e</w>
RA ID</w>
激 素</w>
不 当</w>
假 如</w>
务 人</w>
水 中</w>
刷 新</w>
毕 业</w>
至 今</w>
a d</w>
假 定</w>
y n
海 岸</w>
这 家</w>
转 到</w>
保 管</w>
资 本
7 8</w>
综合 征</w>
受 损</w>
简 要</w>
要 是</w>
C I</w>
提 起</w>
能 否</w>
中 将</w>
支 柱</w>
命令 行</w>
联 机</w>
入 式</w>
合 伙</w>
士 兵</w>
建 议
东 省</w>
搅 拌</w>
顺 利</w>
详 图</w>
技术 支持</w>
上 次</w>
如 同</w>
伊 朗</w>
放 到</w>
阴 影</w>
减 值</w>
百 万</w>
车 顶</w>
超 级</w>
覆 盖
上 游</w>
刀 具</w>
运营 商</w>
8 0
盈 利</w>
修 补</w>
时 针</w>
相 位</w>
为 例</w>
绕 组</w>
零 售
放大 器</w>
洪 水</w>
d e
电 梯</w>
一 般
概 率</w>
回 应</w>
发 言
标识 符</w>
是 说</w>
支 座</w>
可行 性</w>
8 4</w>
L E</w>
驻 车</w>
P P</w>
面 料</w>
油 气</w>
数据 中心</w>
认 定</w>
临 界</w>
er s</w>
战 略
ch e</w>
耶 稣</w>
图 元</w>
G M
慢 慢</w>
8 9</w>
上 的</w>
AS TM</w>
cri pt
信用 卡</w>
S H
收 款</w>
柴 油
Wor ker</w>
j ect</w>
学 员</w>
百分 之
Cel erra</w>
温度 传感器</w>
外 面</w>
双 击</w>
标 定</w>
面 上</w>
营 养
灵 活性</w>
光 源</w>
造 型</w>
跑 步</w>
敏 感
剖 面</w>
多 么</w>
空 中</w>
遗 产</w>
找 出</w>
B o
A R</w>
影 像</w>
扩 展
ra m
巴 基
前 端</w>
Aut odes
加 大</w>
自 治
契 约</w>
债 权人</w>
委 会</w>
拷 贝</w>
广 州</w>
基 层</w>
as e</w>
签 发</w>
看 上去</w>
审 议</w>
摄 影
服务 器
书面 通知</w>
麻 烦</w>
诱 导</w>
T o
N O
Net Worker</w>
累 积</w>
三 条</w>
严 格
七 条</w>
相 对
复 位</w>
安 置</w>
录 制</w>
信 道</w>
车 道</w>
专 利
谢 谢</w>
秒 钟</w>
自 行车</w>
对 待</w>
每 种</w>
疼 痛</w>
地 理</w>
喷 射</w>
分 数</w>
发展 中
发展中 国家</w>
伺 服
优 惠</w>
糖 尿
执行 器</w>
底 板</w>
作 家</w>
u al</w>
盆 地</w>
前 部</w>
供 水</w>
导 轨</w>
反 向</w>
新 兴</w>
Autodes k</w>
开 路</w>
缴 纳</w>
发 起</w>
微 生物</w>
电 动
1 60</w>
楼 梯</w>
Sh are
太 平
M ar
气 候
贮 存</w>
水 库</w>
境 外</w>
A X
贵 方</w>
生产 线</w>
时间 表</w>
折 叠</w>
国 会</w>
后 者</w>
歧 管</w>
光 线</w>
当 作</w>
近 期</w>
网 关</w>
环境 保护</w>
华盛 顿</w>
活 跃</w>
199 5</w>
互 相</w>
适 宜</w>
插 槽</w>
人力 资源</w>
i ii</w>
坡 度</w>
流 器</w>
印 象</w>
i es</w>
参 观</w>
it e</w>
检 测
方 针</w>
东 部</w>
影 片</w>
实 用</w>
201 8</w>
心 理
重新 安装</w>
U I</w>
演 讲</w>
几 天</w>
o t</w>
演 员</w>
el l
成 形</w>
2 4
国 王</w>
古 代</w>
雇 佣</w>
分 公司</w>
议 员</w>
地 基</w>
偿 还</w>
查 阅</w>
大 楼</w>
st yle</w>
睡 眠</w>
an t
I II</w>
超 越</w>
依 次</w>
家 庭
以 往</w>
f or</w>
平 滑</w>
D O
汽 油</w>
r o</w>
玉 米</w>
哲 学</w>
可 供</w>
厨 房</w>
甲 基</w>
从 中</w>
复合 材料</w>
血 压</w>
火 车</w>
S Y
饮 食</w>
上 市
处 长</w>
D oc
8 3</w>
We b
延 期</w>
糖尿 病</w>
接 到</w>
变 电站</w>
座 位</w>
继 承</w>
上市 公司</w>
5 000</w>
异 性</w>
紧 固件</w>
促 使</w>
硬 化</w>
行 李
无 关</w>
阻 碍</w>
包 裹</w>
从 未</w>
室 外</w>
足 球</w>
废 气</w>
外 侧</w>
防 火
7 .</w>
数 学
公 寓</w>
有限 元</w>
检查 和</w>
机 遇</w>
t t
声 称</w>
cri pt</w>
巴基 斯坦</w>
I L</w>
涂 抹</w>
兄 弟</w>
磁 场</w>
aul t</w>
起 始</w>
al l
高 性能</w>
尔 斯</w>
稀 释</w>
信息 技术</w>
同 一个</w>
悬 架</w>
C ol
合 计</w>
花 园</w>
分 级</w>
引 进</w>
U S</w>
求 解</w>
谨 慎</w>
是 不是</w>
上 下</w>
un d
ig ht</w>
机 床</w>
电 磁</w>
名 义</w>
矩 形</w>
Serv ice</w>
Ex p
腐 败</w>
外 交
高 程</w>
蔬 菜</w>
航空 公司</w>
打 电话</w>
确 定性</w>
一 道</w>
穿 越</w>
1 3.
添 加剂</w>
和 谐</w>
放 松</w>
助 理</w>
寄 存器</w>
进 而</w>
叫 做</w>
破 裂</w>
事务 所</w>
立 方
缓 冲</w>
多样 性</w>
接 入</w>
青 岛</w>
D ell</w>
背 面</w>
体 重</w>
光 灯</w>
3 000</w>
煤 炭</w>
宇 宙</w>
D A
一 个月</w>
条 约</w>
D S
全 体</w>
买 卖</w>
大 概</w>
中 部</w>
重 命名</w>
克 服</w>
一 次
一 辆</w>
2 20</w>
艺术 家</w>
CP U</w>
供应 链</w>
这 时</w>
英 特尔</w>
女 子</w>
保 人</w>
o ra
吸 入</w>
分布 式</w>
I X</w>
另一 方</w>
透 明
少 数</w>
结 婚</w>
血 清</w>
装 饰
爱 情</w>
这 座</w>
可 为</w>
R T
变 革</w>
承 包人</w>
另一 方面</w>
时 钟</w>
署 长</w>
一 百
阿 富
项目 经理</w>
退 休</w>
可 变</w>
仪 式</w>
P I</w>
计算 方法</w>
灌 浆</w>
玩 具</w>
缸 盖</w>
停 车
罪 行</w>
小 鼠</w>
数据 类型</w>
G ro
课 题</w>
何 时</w>
判 决</w>
G E
主 张</w>
富 有</w>
lo ok</w>
极 端</w>
忘 记</w>
气 流</w>
二氧化 碳</w>
周 边</w>
四 条</w>
商 务
P T</w>
早 上</w>
D I</w>
7 9</w>
艾 滋
黑 暗</w>
慢 性</w>
执 照</w>
指 针</w>
6. 1</w>
S L
报 酬</w>
削 减</w>
技术 人员</w>
社 交</w>
Share Point</w>
1 4.
Com m
证 明书</w>
样 子</w>
罗 马</w>
选 取</w>
氨 酸</w>
重 叠</w>
航 班</w>
跳 闸</w>
用户 界面</w>
均 衡</w>
巴 黎</w>
矿 物</w>
他 说</w>
抓 住</w>
工 件</w>
策 划</w>
制 剂</w>
爸 爸</w>
散 热器</w>
水 质</w>
资 质</w>
视 镜</w>
1. 6</w>
连续 性</w>
I V</w>
发生 器</w>
中 等</w>
频 繁</w>
丧 失</w>
选 人</w>
毒 性</w>
纸 张</w>
一 支</w>
L e
原 油</w>
工作 组</w>
城 镇</w>
各 级</w>
持续 时间</w>
集 团
内 侧</w>
人民 法院</w>
区 内</w>
有 利</w>
休 闲</w>
最 高
创 业</w>
工作 站</w>
疗 法</w>
单 词</w>
个 别</w>
1 7.
带 宽</w>
借 助</w>
B u
病 例</w>
方 位</w>
P M
出 口
简 介</w>
链 条</w>
00 00</w>
草 图</w>
多 边形</w>
Out look</w>
虚拟 机</w>
er s
代 价</w>
厂 商</w>
A M</w>
9 00</w>
老 人</w>
199 6</w>
阿富 汗</w>
活 性
二 维</w>
铸 造</w>
损 耗</w>
雨 水</w>
A g
思 路</w>
差 别</w>
塑 性</w>
暴 力</w>
附 带</w>
合 格
水 果</w>
垃 圾
海 水</w>
错误 代码</w>
平 板</w>
0. 0
租 金</w>
钢 结构</w>
昨 天</w>
务 必</w>
人 工
笔 记
电子 商务</w>
中 间
M od
化 物</w>
美 好</w>
Servic es</w>
出版 物</w>
大 大
衍 生</w>
气 压</w>
以 免</w>
不 多</w>
秘 书</w>
保险 人</w>
注意 事项</w>
0. 2</w>
排 放
6. 2</w>
S m
疫 苗</w>
应 立即</w>
节 约</w>
糟 糕</w>
代 谢</w>
裁 决</w>
竞争 对手</w>
遭 到</w>
都 市</w>
重 力</w>
摄 影</w>
搬 运</w>
项目 管理</w>
这 份</w>
担 忧</w>
准 备
预 订</w>
有 无</w>
管理 者</w>
青 少年</w>
音 机</w>
供 货</w>
上 限</w>
手 指</w>
这 条</w>
溶 解</w>
亏 损</w>
救 援</w>
婚 姻</w>
人 权</w>
方向 盘</w>
采 访</w>
PV C</w>
完 全
一体 化</w>
移 交</w>
同 学</w>
期 权</w>
建 成</w>
八 条</w>
Me di
审 计
y a</w>
半 年</w>
C C
集 群</w>
无 法
金融 资产</w>
18 .
害 怕</w>
A pp
纽 约
o f</w>
保险 公司</w>
流 域</w>
却 是</w>
自 从</w>
地 铁</w>
有 时候</w>
我 能</w>
天 窗</w>
日 内</w>
设 定值</w>
u st
这 方面</w>
移 动
3. 0</w>
D es
伊 斯
拧 下</w>
密 切
这 会</w>
该 国</w>
各 种
外 汇</w>
捕 捉</w>
瑞 士</w>
调 制</w>
信 仰</w>
影 响
以 下
边 坡</w>
癌 症</w>
投 影</w>
战 斗</w>
预防 措施</w>
折 扣</w>
遗 传</w>
s e
B C</w>
以 太
学 术</w>
激 发</w>
度 量</w>
1 25</w>
N S
T F
形 势</w>
高 端</w>
集 成
单元 格</w>
等 效</w>
像 素</w>
U L
油 管</w>
一 款</w>
保 函</w>
影响 力</w>
候 选人</w>
立 刻</w>
in t
发 电厂</w>
拓 扑</w>
蒸 发</w>
爆 发</w>
al l</w>
职 员</w>
低 成本</w>
滤 波器</w>
一 同</w>
S n
密 切</w>
收 件人</w>
电 信</w>
收 益
拟 定</w>
20 .
分 段</w>
积 累</w>
o p
E S
em ent</w>
这 款</w>
荷 兰</w>
牌 照</w>
便 利</w>
利用 率</w>
弹 出</w>
宪 法</w>
P I
end er</w>
信用 证</w>
产品 质量</w>
A D</w>
水 泥
欧 洲
盖 板</w>
管 辖</w>
四 川
G A</w>
f i
超 声波</w>
制造 业</w>
周 末</w>
批 次</w>
原 有</w>
柔 软</w>
Ex cel</w>
ac k</w>
难 题</w>
总 理</w>
一次 性</w>
B l
那 时</w>
流 入</w>
免 疫
基金 会</w>
夹 具</w>
M 6</w>
到 来</w>
认 购</w>
本 行</w>
法律 法规</w>
铝 合金</w>
D B</w>
购 物</w>
货 币
数 额</w>
2 6
运 送</w>
接线 盒</w>
车 窗</w>
针 脚</w>
联 轴
客 观</w>
工 商
起 点</w>
夫 人</w>
Syst em</w>
用 法</w>
新 鲜</w>
教 练</w>
总 计</w>
志 愿
科 目</w>
九 条</w>
rat ion</w>
心 里</w>
沉 积
基本 上</w>
an g</w>
怎 么样</w>
一 对</w>
限 定</w>
焦 点</w>
年 底</w>
电 位</w>
文 书</w>
载 体</w>
生物 学</w>
伴 随</w>
受 益
数字 化</w>
域 名</w>
毫 无
Doc um
进 出口</w>
共 有</w>
关 税</w>
就 是说</w>
成 员国</w>
甲 板</w>
灵 魂</w>
协 同</w>
浪 费</w>
A M
直 流
初 期</w>
激 光
脱 离</w>
国 有
请 勿</w>
商 品
事 长</w>
缺 点</w>
更 正</w>
an ce</w>
排 名</w>
期 货</w>
说 法</w>
万 吨</w>
增 压</w>
作 用
发送 到</w>
缺 失</w>
放射 性</w>
草 案</w>
按 住</w>
古 老</w>
议 会</w>
季 节</w>
用 地</w>
M W</w>
路 基</w>
C or
衬 套</w>
纳 税</w>
受 益</w>
杆 菌</w>
外 线</w>
本 章</w>
喷 油器</w>
V A</w>
改 性</w>
留 在</w>
上 午</w>
支 持
受 体</w>
9 9
相互 作用</w>
播 放
碎 片</w>
内 在</w>
维 生素</w>
实 质</w>
F or
恐 惧</w>
容 许</w>
基 因
补 贴</w>
组 分</w>
深 刻</w>
食 品
气候 变化</w>
忽 视</w>
as s
水 器</w>
呼 吸
HT ML</w>
老 化</w>
转 型</w>
敷 设</w>
W S</w>
过 期</w>
T O</w>
抗 力</w>
双 向</w>
精 密</w>
中心 线</w>
晶 体</w>
5. 3</w>
遗 传
尼 亚
10 1</w>
特 殊
光 标</w>
话 题</w>
t h</w>
U V</w>
VM ware</w>
园 区</w>
朝 鲜</w>
扫 描
解决 问题</w>
转换 器</w>
突 破</w>
北京 市</w>
墨西 哥</w>
发言 人</w>
B R</w>
沉 降</w>
径 向</w>
激 烈</w>
下 表</w>
根 本
以 内</w>
高 质量</w>
接 缝</w>
E M</w>
只 读</w>
一 生</w>
预 制</w>
Jav a</w>
马 来
D M</w>
光 滑</w>
5 7
u ic
注 重</w>
后 方</w>
差 距</w>
展 现</w>
折 旧</w>
N S</w>
缩 小</w>
D F</w>
域 控制器</w>
Dat a</w>
i r</w>
静 电</w>
荧 光</w>
把 手</w>
en n
i e</w>
挤 压</w>
核 实</w>
应 能</w>
J o
实 在</w>
加 速度</w>
灰 尘</w>
联 络</w>
组 织
底 盘</w>
厂 家</w>
S c
静 脉</w>
O p
公 正</w>
债 务人</w>
托 盘</w>
喜 爱</w>
进 口
即 便</w>
電 路</w>
丙 烯
年 前</w>
拓 展</w>
临 床
环 形</w>
牛 奶</w>
平 面图</w>
扮 演</w>
首 都</w>
通 讯
毒 品</w>
警 方</w>
脱 机</w>
地 说</w>
身 边</w>
I L
合 资</w>
电 阻
施 行</w>
文 中</w>
谈 话</w>
V al
l s</w>
数 组</w>
运 算</w>
生产 商</w>
无 限</w>
承 载
缓冲 区</w>
T r
墙 壁</w>
商业 银行</w>
对 准</w>
N A</w>
分 隔</w>
摄像 机</w>
为 何</w>
组 中</w>
粘 度</w>
无 损</w>
统 治</w>
制 冷
以太 网</w>
螺 丝</w>
以 供</w>
水 资源</w>
感 情</w>
大 众</w>
平 稳</w>
出 厂</w>
两 国</w>
表 决</w>
两 端</w>
养 护</w>
英 语
o w</w>
幻 灯
聪 明</w>
南 省</w>
D H
工程 设计</w>
小 孩</w>
复 印
5. 5</w>
升 机</w>
通 电</w>
出 资</w>
实 力</w>
o l</w>
先 导</w>
写 作</w>
征 收</w>
爆 破</w>
冬 季</w>
个 性化</w>
中 期</w>
可 使</w>
驾驶 室</w>
透 过</w>
控 器</w>
卡 箍</w>
预 设</w>
发 给</w>
大 卫</w>
ion s</w>
收益 率</w>
一 群</w>
降 解</w>
准确 性</w>
承 载</w>
志愿 者</w>
侵 蚀</w>
交 给</w>
p y</w>
研 讨
燃 气</w>
反 复</w>
适 应
夏 季</w>
on g</w>
泰 国</w>
最 少</w>
经济 学</w>
幻灯 片</w>
Com p
卡 片</w>
骨 料</w>
愉 快</w>
199 4</w>
当 代</w>
关键 字</w>
输送 机</w>
任 一</w>
确 立</w>
冠 军</w>
防 腐</w>
物 理
石 油
器 官</w>
润滑 脂</w>
基础 架构</w>
太平 洋</w>
过 于</w>
受 托人</w>
拉 斯</w>
预 应力</w>
T B</w>
难 以
质 性</w>
生 活
机 箱</w>
R es
吸 收
一 面</w>
uic ontrol</w>
揭 示</w>
重 型</w>
偏 离</w>
法 定
爱 尔
Ac cess</w>
整 数</w>
图 形
欣 赏</w>
缔约 国</w>
程 式</w>
S et
1 1
吸 引力</w>
博 客</w>
依赖 于</w>
衰 退</w>
专 注</w>
批 量</w>
如 需</w>
夏 天</w>
lin k</w>
量 化</w>
校 验</w>
灯 泡</w>
显 微
首 选</w>
蚀 性</w>
量 计</w>
摩 托
镜 头</w>
运 人</w>
汇 报</w>
双 重</w>
氧 气</w>
传 达</w>
单 价</w>
连接 件</w>
日 前</w>
窗 户</w>
术 后</w>
储 罐</w>
场 合</w>
优 良</w>
靠 背</w>
持 久</w>
书面 形式</w>
微 型</w>
隐 私</w>
a ct
群 岛</w>
第 四</w>
C at
两 条</w>
研讨 会</w>
定 位
列 入</w>
世界 各地</w>
深 圳</w>
欺 诈</w>
发 包人</w>
1 500</w>
分析 方法</w>
树 木</w>
u di
主 持</w>
香 港
回 转</w>
不 良
le x
支 票</w>
不 幸</w>
招 聘</w>
停 用</w>
央 行</w>
背 后</w>
兴 奋</w>
外 形</w>
8 .</w>
约 束
三 相</w>
渴 望</w>
S ch
永 久性</w>
神经 网络</w>
胶 带</w>
pl or
n er</w>
执行 官</w>
液 化</w>
清 洁
透 露</w>
控 股</w>
刚 度</w>
陷 入</w>
co mp
酒 精</w>
不 确定性</w>
l is
判 定</w>
F F</w>
C R</w>
矿 石</w>
所 作</w>
后 期</w>
最 优</w>
超 时</w>
扶 手</w>
履 约</w>
后 视镜</w>
收 音机</w>
金 钱</w>
融 入</w>
与 此
石 头</w>
探 头</w>
能 源
备 注</w>
活 动
b er
家 伙</w>
分离 器</w>
即 时</w>
安 裝</w>
S ol
制 订</w>
六 个</w>
增 补</w>
规 例</w>
豁 免</w>
窗 体</w>
中 小
选择 性</w>
秘书 长</w>
地 理
近 似</w>
剩 下</w>
要 点</w>
粉 末</w>
子 女</w>
庆 祝</w>
词 汇</w>
a ra
喷 涂</w>
刚 性</w>
Ex plor
本 周</w>
十 字
矢 量</w>
C ar
固 化</w>
特 许</w>
受 欢迎</w>
相 关联</w>
电话 号码</w>
T V</w>
D E</w>
推 导</w>
预 留</w>
包 装
某 人</w>
有 个</w>
太 空</w>
快 捷</w>
4. 4</w>
明 细
委 员</w>
灵 敏
HT TP</w>
ab le</w>
St ora
标 称</w>
讲 话</w>
以 防</w>
in e</w>
片 段</w>
一 把</w>
一 句</w>
C ont
中国 政府</w>
手 中</w>
花 板</w>
冻 结</w>
不 时</w>
锻 炼</w>
10 5</w>
In f
电气 设备</w>
极 其</w>
演 出</w>
介 于</w>
会 儿</w>
分析 师</w>
南 非</w>
es t</w>
循 环
钢 丝
极 管</w>
奇 怪</w>
环境 温度</w>
营 运</w>
一 流</w>
味 道</w>
G DP</w>
入 库</w>
出 血</w>
增 压器</w>
便 宜</w>
序列 号</w>
备 案</w>
董 事长</w>
方 可</w>
第四 十
3 50</w>
展 览</w>
199 3</w>
o s</w>
0. 3</w>
要 么</w>
复杂 性</w>
长 期
广 泛
f il
秩 序</w>
19 .
温 暖</w>
严 重
N T
繁 荣</w>
照 顾</w>
保 温</w>
中 止</w>
燃 烧
最 早</w>
阀 体</w>
成 人</w>
圣 诞
自 愿</w>
x x
签 证</w>
混 乱</w>
版 权</w>
冷 凝
N T</w>
人 为</w>
录 入</w>
新 西
拖 车</w>
贷 款人</w>
oo k</w>
LA N</w>
C I
成 本
定 子</w>
侵 犯</w>
Explor er</w>
y s
稳 定
c f
环境 影响</w>
借 鉴</w>
指 挥
M o
1 30</w>
第二 次</w>
除 去</w>
h e
渗 透
主 人</w>
物 业</w>
毕 业
咨 询
微 笑</w>
P S
微 波</w>
多 功能</w>
机 动
当 天</w>
手 套</w>
大 道</w>
日 至</w>
遥 控</w>
i an</w>
7 0
闸 门</w>
看 出</w>
业务 流程</w>
工 会</w>
财 年</w>
电 容器</w>
为 空</w>
人 力</w>
基 准
集团 公司</w>
妨 碍</w>
l b</w>
破 碎</w>
plic ation</w>
防火 墙</w>
克 里
铰 链</w>
对 照
供 方</w>
输 入
生 意</w>
操纵 杆</w>
工程 施工</w>
注意 力</w>
听 说</w>
汉 语</w>
m in
克 尔</w>
什 么样</w>
下 次</w>
递 交</w>
那 儿</w>
提 名</w>
延 误</w>
l er</w>
起 吊</w>
am ai</w>
流 向</w>
减 速</w>
通 风
7. 1</w>
视 野</w>
共 产
以下 内容</w>
阿拉 伯</w>
进 来</w>
权 重</w>
示 范</w>
澄 清</w>
柔 性</w>
微 软</w>
按 键</w>
as h</w>
分 子
相 等</w>
所在 地</w>
税 款</w>
接收 器</w>
7. 5</w>
2 2
at or</w>
学 习
D R
M R
不 断
C E</w>
检测 仪</w>
水 流</w>
轻 微</w>
现金 流量</w>
基 督
A T</w>
裁 定</w>
附 着</w>
浮 动</w>
个 性</w>
谷 歌</w>
扭 曲</w>
ontro l
惯 例</w>
C S
增长 率</w>
最 低
分析 仪</w>
系 指</w>
地 带</w>
承 租人</w>
调 控</w>
Ma x</w>
此 等</w>
拔 出</w>
占 据</w>
AS ME</w>
w e
的 人</w>
答 复</w>
铸 铁</w>
海 军</w>
民 众</w>
阶 级</w>
通 用
三 十
虚拟 化</w>
起 诉</w>
质量 保证</w>
资源 管理</w>
串 行</w>
CO M</w>
举 措</w>
油 位</w>
连 同</w>
研究 者</w>
半 导体</w>
合 法
尔 德</w>
大 厦</w>
防 爆</w>
兼 容性</w>
限 内</w>
细 分</w>
此 基础</w>
T i
北 美</w>
稍 后</w>
桌 子</w>
提 案</w>
马 克
免 除</w>
食 用</w>
明 细</w>
群 众</w>
灯 具</w>
发生 变化</w>
流 速</w>
时 器</w>
接 管</w>
灵敏 度</w>
咖 啡
一 本</w>
Ne w</w>
少 于</w>
1 40</w>
魅 力</w>
线 条</w>
土 耳
决 策
A A</w>
N G</w>
农 场</w>
透明 度</w>
d er</w>
一 批</w>
嵌 入式</w>
小 麦</w>
Docum ent
谈 论</w>
快 捷
费 率</w>
断 层</w>
开 工</w>
E L
W in
期 限内</w>
平 整</w>
齿 轮
容 纳</w>
199 0</w>
发展 趋势</w>
行 走</w>
区 间</w>
一 篇</w>
重 庆</w>
而 来</w>
N ot
混 合
发 酵</w>
编 译</w>
粮 食</w>
In st
评 分</w>
太 太</w>
必 然</w>
当 期</w>
景 区</w>
家 长</w>
发行 人</w>
增 值
乡 村</w>
2 40</w>
股 本</w>
正 时</w>
co ver
解 答</w>
理 论
分 裂</w>
精 力</w>
处 在</w>
C V</w>
周 期
肌 肤</w>
高 频</w>
复 苏</w>
加 利
产 能</w>
对 接</w>
马来 西亚</w>
一 行</w>
水 下</w>
特 权</w>
试 剂</w>
凭 据</w>
向 量</w>
管 辖
付 出</w>
麦 克
伯 特</w>
严 禁</w>
弥 补</w>
起 重</w>
打 破</w>
发 货</w>
Ma ya</w>
E R</w>
A v
啤 酒</w>
上 周</w>
储 量</w>
恢 复
进 去</w>
M M</w>
受益 人</w>
装 修</w>
a b</w>
所 指</w>
委 托人</w>
m an</w>
暗 示</w>
该 值</w>
K e
器 具</w>
for m
煤 矿</w>
专用 工具</w>
无 人</w>
访 问
纪 念
概 况</w>
常 数</w>
二 极管</w>
P W
用 量</w>
个 字符</w>
象 征</w>
6. 3</w>
医 药</w>
争 论</w>
保护 装置</w>
用 电</w>
植 被</w>
r y</w>
很 小</w>
电 容</w>
当 日</w>
明 星</w>
工 地</w>
爱尔 兰</w>
经 验
骨 折</w>
9 11</w>
汇 丰</w>
滑 阀</w>
对 抗</w>
m ent</w>
F L
方 形</w>
未 找到</w>
美 联
何 种</w>
讲 述</w>
课 堂</w>
歌 曲</w>
火 箭</w>
Medi a</w>
D I
10 0
3 60</w>
抱 怨</w>
四川 省</w>
od e</w>
它 会</w>
O K</w>
t o</w>
里 程
菜单 中
菜单中 选择</w>
矩 器</w>
各 样</w>
这 部</w>
阻 抗</w>
斗 争</w>
解 锁</w>
地 表</w>
变 矩器</w>
聚 乙烯</w>
C B
南 方</w>
利 润
行 事</w>
发电 机组</w>
F o
水 箱</w>
S ec
装 卸</w>
中 应</w>
而 已</w>
火 器</w>
玩 家</w>
最 长</w>
露 出</w>
总 体
式 化</w>
杂 质</w>
终 点</w>
忘 录</w>
备 忘录</w>
生 理</w>
e st
指 引</w>
叙 述</w>
灭 火</w>
压缩 空气</w>
R a
增值 税</w>
见 证</w>
4 5
拉 线</w>
加 权</w>
不可 抗力</w>
三 次</w>
粘 土</w>
碳 钢</w>
死 亡
污 泥</w>
拉 出</w>
f t
克 力</w>
ht ml</w>
艾滋 病</w>
s cript
s on</w>
3. 6</w>
摄像 头</w>
推 力</w>
M C</w>
门 户</w>
视 角</w>
离 散</w>
提 述</w>
引 线</w>
一 路</w>
润滑 剂</w>
墙 上</w>
合 剂</w>
G P
流 通</w>
横 梁</w>
基 线</w>
螺 旋
轴 线</w>
端 部</w>
全球 化</w>
9 .</w>
远 远</w>
税 率</w>
3 6
拖 拉
柴油 机</w>
多 元
T CP</w>
衰 减</w>
高 新
中 学</w>
干 燥
只 会</w>
销售 额</w>
指 控</w>
A k
天 花板</w>
沃 尔
赛 季</w>
界 定</w>
松 动</w>
砂 岩</w>
时 捷</w>
AT A</w>
委 托
时 会</w>
斯 特
保 时捷</w>
ex t
任何 一方</w>
抵 达</w>
之 时</w>
不同 于</w>
航 行</w>
合同 规定</w>
账 面</w>
伺服 器</w>
Co py</w>
国 民
一 颗</w>
電 压</w>
数学 模型</w>
复印 件</w>
t o
样 板</w>
淋 巴
l l</w>
Con n
心 中</w>
m s</w>
重 复
力 度</w>
税 务
硬 盘
所 致</w>
施工 现场</w>
全 国
传 染
被 动</w>
之 类</w>
第二 天</w>
恶 化</w>
出 租
细 则</w>
前 方</w>
制 约</w>
四 周</w>
多 余</w>
昂 贵</w>
一 间</w>
不 见</w>
领 袖</w>
面 包</w>
S F
P RO
账 款</w>
进 化</w>
走 廊</w>
真 空
幸 运</w>
高 尔
交 叉
该 类</w>
强 劲</w>
3 5
回 填</w>
保 罗</w>
乐 观</w>
勘 察</w>
保护 区</w>
年 间</w>
本 来</w>
高 层</w>
本 国</w>
便 携
亲 自</w>
东 方</w>
书 籍</w>
C T
测 定
A BS</w>
故 意</w>
m s
拖拉 机</w>
所 知</w>
2. 6</w>
城 区</w>
再 生
收 藏</w>
迭 代</w>
P er
同 期</w>
开 车</w>
孔 隙</w>
监督 管理</w>
s p</w>
今 日</w>
分 成</w>
独 立
7. 2</w>
国 防
舞 台</w>
底 层</w>
链 路</w>
目 视</w>
可 调</w>
新西 兰</w>
士 学位</w>
探 针</w>
碎 石</w>
水 池</w>
货 商</w>
军 事
持续 性</w>
可 怕</w>
业 界</w>
满 意
仅 限</w>
走 进</w>
想 起</w>
输 出
F O
缴 付</w>
p m</w>
E X
现 出</w>
r ic
命 运</w>
Ed it
w it
明细 表</w>
可 爱</w>
ri v
s erv
冷却 水</w>
证 人</w>
汤 姆</w>
球 场</w>
额 度</w>
指 派</w>
遭 遇</w>
英 雄</w>
健 全</w>
前 照</w>
尼 斯</w>
染 色
两 位</w>
送 到</w>
公 认</w>
自治 区</w>
原 子
开发 人员</w>
容 积</w>
sp an
上 报</w>
奖 金</w>
可 视
三 角</w>
P a</w>
J 1</w>
债 权</w>
消 毒</w>
抗 体</w>
大 大</w>
取 下</w>
防 御</w>
护 套</w>
生产 力</w>
六 条</w>
情 景</w>
惩 罚</w>
A ss
诸 多</w>
R o
注 销</w>
In v
采 矿</w>
反应 器</w>
交 流
重 大
对照 组</w>
A 1</w>
差 额</w>
H S</w>
服 用</w>
加 州</w>
T ran
英 格兰</w>
此 种</w>
变 化
服务 提供商</w>
正 确
调 配</w>
共 振</w>
油 脂</w>
有 益</w>
到 处</w>
l t</w>
商 定</w>
亮 度</w>
海 底</w>
山 区</w>
铸 件</w>
门 锁</w>
货 运</w>
酒 吧</w>
得 分</w>
周 五</w>
线 图</w>
诚 信</w>
当 今</w>
帝 国</w>
螺 丝
标 明</w>
联轴 器</w>
受 害
充分 利用</w>
两 人</w>
水 处理</w>
二 进制</w>
ps i</w>
B I
E T</w>
热 带</w>
住 宿</w>
关 联
R F
空 间
发送 给</w>
一 人</w>
五 条</w>
愤 怒</w>
下 滑</w>
饲 料</w>
占 有</w>
广 告
心 理学</w>
价值 观</w>
动 产</w>
199 2</w>
旅 行
供 货商</w>
5. 4</w>
组 建</w>
区 域
更 是</w>
0 7
C ontrol
英 国
联 锁</w>
并 不
显微 镜</w>
授 权
周 一</w>
确 保
在 此
概 要</w>
般 的</w>
5. 0</w>
正 交</w>
T ype</w>
D R</w>
夜 间</w>
违 法</w>
d s</w>
管 件</w>
质 疑</w>
标 的</w>
流 量计</w>
刑 事</w>
PD F</w>
传 输
有 没有</w>
压力 表</w>
卡 子</w>
产 出</w>
CX 3</w>
or s
雇 用</w>
轮 毂</w>
皮 革</w>
前 期</w>
农 业
资 企业</w>
预 处理</w>
刑 事
一 笔</w>
教 训</w>
客户 服务</w>
客 房</w>
4 50</w>
贫 困</w>
工作 日</w>
水 电站</w>
预 报</w>
编 译
4 000</w>
沙 漠</w>
姆 斯</w>
设 想</w>
p r
多 重</w>
R C</w>
S W
通 信
人 均</w>
0. 4</w>
烟 气</w>
把 握</w>
款 额</w>
历史 记录</w>
母 公司</w>
相 符</w>
处理 程序</w>
展 望</w>
Cent era</w>
土耳 其</w>
亲 爱</w>
抱 歉</w>
开 心</w>
接 待</w>
无 疑</w>
叶 轮</w>
下 拉
布 鲁
C a
中 方</w>
自 信</w>
发 达
既 有</w>
ig n</w>
封 装</w>
图 像
发达 国家</w>
协 调
AP P</w>
没 收</w>
r u
凭 借</w>
呼 吁</w>
行 动
励 磁</w>
颁 布</w>
记 载</w>
科 研</w>
源 代码</w>
主 流</w>
皮 带
波 形</w>
0. 00</w>
顶 级</w>
此 前</w>
an n
地 块</w>
生 涯</w>
磁 性</w>
纺 织
充 气</w>
p o
M 2</w>
b ut
漏 洞</w>
摩托 车</w>
R M</w>
皇 家</w>
Vis ual</w>
流 失</w>
l et</w>
20 20</w>
主 导</w>
经济 体</w>
符合 要求</w>
调 制
管理 工作</w>
杰 克</w>
履 行
监 狱</w>
衬 里</w>
ex e</w>
法 令</w>
板 块</w>
吸 烟</w>
广 东省</w>
纠 纷</w>
不 安</w>
下 图</w>
高 强度</w>
点 亮</w>
民 族
信息 化</w>
最 终
I O
离 心
脸 上</w>
撞 击</w>
开 头</w>
一 处</w>
越 南</w>
C ontrol</w>
便携 式</w>
给 水</w>
待 遇</w>
了 吗</w>
多 媒体</w>
电 台</w>
心 灵</w>
真 实
接 地
广 播
生态 系统</w>
阻 塞</w>
车 速</w>
某 一</w>
斜 坡</w>
采取 措施</w>
政 府
0 3
最小 值</w>
溢 出</w>
精 确
当 年</w>
一 方面</w>
广泛 应用</w>
骨 架</w>
A E</w>
工 期</w>
也 就是说</w>
冷却 系统</w>
并 行</w>
优 异</w>
几 分钟</w>
随 意</w>
纪 念</w>
巧 克力</w>
优 于</w>
过 多</w>
6. 5</w>
困 境</w>
残 留</w>
H e
民 间</w>
饭 店</w>
b o
p s</w>
浅 谈</w>
知 名</w>
底 漆</w>
体 外</w>
承 运人</w>
腐 蚀性</w>
议 程</w>
高等 教育</w>
大 纲</w>
u d
粒 度</w>
北 方</w>
轴 箱</w>
小 姐</w>
维 修
扭 转</w>
k W</w>
O b
额 定值</w>
约 会</w>
板 材</w>
电 量</w>
入 侵</w>
院 校</w>
凝 胶</w>
降 至</w>
导 电</w>
十 二</w>
苏 联</w>
X t
气 田</w>
骨 骼</w>
触 摸</w>
交 互
乘 坐</w>
结果 显示</w>
L og
h er</w>
致 命</w>
S N
审 判</w>
现金 流</w>
结 晶</w>
因 数</w>
追 溯</w>
抵 抗</w>
停车 场</w>
A m
争 取</w>
坐 标
图 中</w>
联合 国
3 8
极 为</w>
不 但</w>
恶 劣</w>
演 变</w>
大 门</w>
开发 商</w>
端 的</w>
拼 接</w>
他 会</w>
2 9
改 良</w>
分 泌</w>
之 为</w>
内 涵</w>
光 电</w>
主 轴</w>
一 大
t ext</w>
端 点</w>
着 重</w>
主 权</w>
静 止</w>
管 子</w>
码 器</w>
调 器</w>
股 息</w>
潮 湿</w>
搅 拌
中 性</w>
怎 么
or e</w>
的 是</w>
康 复</w>
出版 社</w>
子 宫</w>
大 致</w>
f ig
原 型</w>
一 点
领导 者</w>
钢 材</w>
行 为
u t</w>
路 由
南 京</w>
移 到</w>
地 质
L S</w>
E E
着 色</w>
不 停</w>
年 款</w>
B P</w>
n e
汇 票</w>
法 测定</w>
多 项</w>
g t</w>
设 法</w>
之 路</w>
上 级</w>
差 速器</w>
刹 车</w>
t ra
iv e
m L</w>
联 邦
庞 大</w>
满意 度</w>
磁盘 空间</w>
滥 用</w>
M I
立 场</w>
监 会</w>
ic h
数据 包</w>
减 去</w>
动 物
购 买
升 降</w>
抗 震</w>
t s</w>
与此 同时</w>
工作 者</w>
at e
10 2</w>
0. 00
udi o</w>
传 奇</w>
承 包</w>
大 多</w>
探 伤</w>
天 津</w>
大 街</w>
每 位</w>
更 快</w>
不 知</w>
对 本</w>
Document um</w>
透 视</w>
一 会儿</w>
比 重</w>
死亡 率</w>
Pro ject</w>
尺 度</w>
域 网</w>
流 动
k s</w>
1. 8</w>
艰 难</w>
度 过</w>
决 心</w>
观 察
承 担
升 降
乙 醇</w>
泄 露</w>
1 200</w>
监 察</w>
受 理</w>
D F
养 老
早 晨</w>
来 源于</w>
选择 器</w>
f 2</w>
波 长</w>
专 有</w>
齐 全</w>
加利 福
较 少</w>
绘 画</w>
水 面</w>
轻 轻</w>
本 手册</w>
干 涉</w>
開 關</w>
U s
泥 浆</w>
促 销</w>
停 留</w>
b ar</w>
犯 罪
失 望</w>
对 面</w>
回 忆</w>
p H</w>
车 载</w>
西 省</w>
器 械</w>
之 日</w>
抵 押
首 选项</w>
更 高</w>
妥 善</w>
主 义
钢 铁</w>
强制 性</w>
f f</w>
热 点</w>
液压 油</w>
沉积 物</w>
弃 物</w>
火 山</w>
经济 学家</w>
姑 娘</w>
跨 越</w>
0. 05</w>
形 资产</w>
图 示</w>
机 车</w>
应 从</w>
不 愿</w>
S 5</w>
无 缝</w>
V ault</w>
毫 无</w>
通 货
梯 度</w>
为 期</w>
目 前
目前 为止</w>
拉 丁
4. 0</w>
纳 米
C at</w>
PC M</w>
有 毒</w>
媒 介</w>
里 程</w>
狭 窄</w>
北 省</w>
突 变</w>
两 名</w>
核 对</w>
压 阀</w>
R P</w>
航 天
分 支
a p</w>
摩 擦
分支 机构</w>
地 毯</w>
神 秘</w>
医 师</w>
支 援</w>
h o
惊 讶</w>
执行 机构</w>
st er</w>
后 台</w>
L o
U PS</w>
摆 脱</w>
粘 合</w>
Sn ap
衬 垫</w>
设计 规范</w>
楼 层</w>
增 益</w>
I R</w>
耳 机</w>
Stora ge</w>
国 民</w>
Re v
A tt
眼 镜</w>
多 层</w>
江 省</w>
年 初</w>
经济 效益</w>
专 项</w>
赔 偿
熊 猫</w>
游 泳</w>
编译 器</w>
年 内</w>
凹 槽</w>
敏感 性</w>
c t</w>
论 证</w>
婚 礼</w>
酸 性</w>
航 天</w>
广 东</w>
加 油</w>
异 议</w>
各 位</w>
一 端</w>
明 年</w>
研究 院</w>
Manag ement</w>
实用 新型</w>
不 大</w>
口 袋</w>
制 動</w>
现 实
此 后</w>
量 子</w>
宽 带</w>
电 影
人 会</w>
失 业</w>
0. 8</w>
便 是</w>
存 取</w>
沉 淀</w>
特 别
今 晚</w>
残 余</w>
3 3
阻 尼</w>
脂 肪
深 化</w>
杠 杆</w>
G T
专 员</w>
既 然</w>
语 言
回 流</w>
过 热</w>
en g
热 水</w>
废 弃物</w>
安全 气囊</w>
西 门
老 鼠</w>
AR T</w>
执 法</w>
i a
酰 胺</w>
Xt ender</w>
里程 碑</w>
能 耗</w>
染 色</w>
崩 溃</w>
器 材</w>
A N</w>
u c
去 世</w>
淀 粉</w>
承 包
氨 基
听 见</w>
伸 出</w>
风 力</w>
甲 烷</w>
明 确
空 心</w>
横 截面</w>
ic s</w>
主 页</w>
谱 法</w>
饮 用水</w>
护 士</w>
保 守</w>
致 使</w>
挑 选</w>
公司 章程</w>
Exp ress</w>
如 图
新 疆</w>
分 量</w>
培 训
使用 权</w>
消 耗
双 手</w>
抛 光</w>
石 化</w>
土 地
P N</w>
输 电</w>
如图 所示</w>
大 坝</w>
简 便</w>
酸 钠</w>
村 庄</w>
带 到</w>
千 年</w>
教 会</w>
交 谈</w>
F i
并 购</w>
B us
B ro
按 规定</w>
合 成
M A</w>
联 接</w>
河 道</w>
定 时</w>
i o</w>
定 期
外 科</w>
保 单</w>
简 直</w>
人 口
钢丝 绳</w>
一 期</w>
塞 尔</w>
这 张</w>
上 传</w>
曲 轴箱</w>
好 好</w>
D N</w>
股 票
吊 装</w>
2 30</w>
档 位</w>
感 知</w>
刀 片</w>
队 员</w>
硬盘 驱动器</w>
风 暴</w>
紧急 情况</w>
对 不起</w>
冒 险</w>
外 汇
电 能</w>
流 行
压力 容器</w>
布 什</w>
气 温</w>
ac eb
快 速
湿 地</w>
无 须</w>
楼 板</w>
动 力
议 院</w>
值 为</w>
户 外</w>
美联 储</w>
代理 商</w>
阀 座</w>
位 数</w>
分析 法</w>
内 心</w>
H BA</w>
称 之为</w>
中 毒</w>
深 入
X X</w>
每 秒</w>
切 削</w>
wor k</w>
Power Path</w>
瑞 典</w>
高 中</w>
实 质性</w>
滑 块</w>
估 值</w>
疯 狂</w>
M et
锥 形</w>
台 上</w>
局 面</w>
频 器</w>
地 域</w>
缅 甸</w>
派 遣</w>
心 脏
广 阔</w>
手 架</w>
一 页</w>
an t</w>
会计 准则</w>
备 选</w>
洛 杉
手 臂</w>
C B</w>
营 企业</w>
流 出</w>
大 气
经 纪
加 压</w>
制冷 剂</w>
恒 定</w>
防 范</w>
直 升机</w>
并 联</w>
a in</w>
脚 手架</w>
控制 室</w>
伺 服</w>
病 变</w>
電 池</w>
m A</w>
转 矩</w>
局 长</w>
ri but
刻 度</w>
装饰 板</w>
生 育</w>
获 得
乔 治</w>
过 大</w>
P 1</w>
抽 样</w>
宗 旨</w>
哥 伦
滤 芯</w>
遵 照</w>
西 南</w>
教 程</w>
学 术
视 频
关 系
似 的</w>
选 手</w>
遗 憾</w>
节 气门</w>
聚 会</w>
预 警</w>
水 域</w>
旁 通</w>
脱 硫</w>
电 场</w>
年 级</w>
贯 穿</w>
睡 觉</w>
随 附</w>
锁 止</w>
上海 市</w>
计 提</w>
10 4</w>
CO 2</w>
E S</w>
控制 电路</w>
G u
氏 度</w>
门 口</w>
配 额</w>
三角 形</w>
市 民</w>
额 定
m k</w>
L C</w>
虚 假</w>
图 例</w>
P re
路由 器</w>
lin k
所 能</w>
确 切</w>
植 物
m ent
回 去</w>
水 力</w>
购 物
温 室</w>
中 东</w>
8. 1</w>
立 法
橡 胶
化 妆
设 在</w>
创造 性</w>
间 断</w>
表 面
培 育</w>
垂 直
称 作</w>
不 如</w>
水 电</w>
摄影 机</w>
情 报</w>
度 假</w>
尸 体</w>
补 救</w>
平 衡
G S</w>
爆 炸
挡 板</w>
c o</w>
1 28</w>
整 改</w>
过 载</w>
片 机</w>
发 达</w>
会 谈</w>
有 序</w>
国 有</w>
B e
时 性</w>
约束 力</w>
繁 殖</w>
上 载</w>
让 人</w>
膨 胀
试 运行</w>
花 岗
单 体</w>
拍 卖</w>
为 本</w>
微 观</w>
RA C</w>
公 安
通 行</w>
最大 化</w>
竞 赛</w>
贴 合</w>
受 控</w>
5 5
可视 化</w>
C re
ov er</w>
一 声</w>
油 门</w>
. d
东 南
腺 癌</w>
00 00
舒 适
免 受</w>
床 上</w>
货 车</w>
违 约
落 后</w>
色 谱</w>
成 年人</w>
经 费</w>
斯 坦
时 段</w>
研 磨</w>
仿 佛</w>
通 话</w>
之 所以</w>
夹 紧</w>
水 源</w>
地 球
可 达</w>
两 倍</w>
秘书 处</w>
安 静</w>
日 后</w>
一 大</w>
萃 取</w>
年 限</w>
相 匹配</w>
究 竟</w>
抗 议</w>
oo m</w>
时 光</w>
别 名</w>
s u
幼 儿</w>
公 斤</w>
入 境</w>
专 题</w>
p d
铭 牌</w>
发 出
四 年</w>
规 章</w>
物 件</w>
不 必要</w>
拿 到</w>
N C</w>
歧 视</w>
机械 设备</w>
9 0
ar d
矿 床</w>
开发 区</w>
生 气</w>
灵 感</w>
节 日</w>
船 上</w>
代表 性</w>
二 者</w>
媒 体
洁 净</w>
外 交</w>
主 意</w>
生 长
心 情</w>
格 式化</w>
P art
周 年</w>
空 档</w>
退 回</w>
切 除</w>
P ors
东 京</w>
w s</w>
棕 色</w>
V M</w>
is t</w>
199 1</w>
投资 人</w>
次 级</w>
管理 制度</w>
各 个
排放 量</w>
R et
筑 物</w>
研究 生</w>
同 比</w>
印 尼</w>
从 前</w>
调 研</w>
瞬 间</w>
活 塞
短 暂</w>
第 七
某 种
照 明
滚 筒</w>
涡 轮机</w>
期 刊</w>
T ra
特 征
营 造</w>
实 物</w>
参 数
一 无
佛 罗
书 写</w>
Ag ent</w>
磁 带
气 氛</w>
少 数
浓 缩</w>
E G
大 豆</w>
国家 标准</w>
3 4
粉 尘</w>
推 迟</w>
司 法
P ID</w>
效 能</w>
鉴 别</w>
本 机</w>
报 告
豪 华</w>
姿 势</w>
Pors che</w>
患 有</w>
舞 蹈</w>
核 查</w>
阳 性</w>
I O</w>
破 损</w>
丙 烯</w>
全 身</w>
椅 子</w>
枢 纽</w>
广 义</w>
充 电器</w>
控制 措施</w>
le ct
检 验
布 莱
Ak amai</w>
焦 虑</w>
建筑 师</w>
太 大</w>
A L</w>
氯 化
看 作</w>
报 警
IS O
天 数</w>
多元 化</w>
建议 书</w>
电力 系统</w>
多 种
E PC</w>
完 好</w>
M T
大 厅</w>
寒 冷</w>
预 付款</w>
表 征</w>
冷 冻</w>
实 践
需 求
投标 书</w>
佣 金</w>
格 局</w>
口 中</w>
触 摸
空 格</w>
广 大</w>
小 学</w>
校 园</w>
左 边</w>
讨 厌</w>
初 级</w>
染色 体</w>
终 结</w>
度 计</w>
S er
串 联</w>
X P</w>
基 底</w>
构 筑物</w>
N m</w>
概 括</w>
l d</w>
U T
C tr
洗 钱</w>
买 家</w>
马 克</w>
系 統</w>
拉 杆</w>
意 愿</w>
平 原</w>
继 续
杀 死</w>
人 身</w>
财政 部</w>
海 滩</w>
阿拉 伯
基 督</w>
层 级</w>
发 射
L ive</w>
奥 斯
谐 波</w>
霉 素</w>
种 族</w>
没 什么</w>
波 兰</w>
本 体</w>
开放 式</w>
旅 馆</w>
难 度</w>
E E</w>
股 价</w>
一 节</w>
软件 包</w>
限 位</w>
版 本
mm 2</w>
7 50</w>
运 算
il ity</w>
第五 十
矿 山</w>
长 大</w>
默认 设置</w>
外 径</w>
储 蓄</w>
牙 齿</w>
凸 轮</w>
制 裁</w>
微 粒</w>
本 地
阐 明</w>
经 由</w>
2. 7</w>
1. 7</w>
准 许</w>
操作 性</w>
成 因</w>
等 离子
C ay
解 调器</w>
小 写</w>
文本 框</w>
差 不多</w>
时间 段</w>
邻 近</w>
任 职</w>
流 程
牺 牲</w>
演 化</w>
假 期</w>
等离子 体</w>
随 机
聚 氨
I G
坚 固</w>
温 和</w>
c r
计算 结果</w>
en s
并 发
菲 律
轿 车</w>
伸 缩</w>
D o
西门 子</w>
lo c
B as
安全 壳</w>
迫 使</w>
王 国</w>
轻 型</w>
惊 人</w>
工程 项目</w>
销 量</w>
终 端
声 誉</w>
流 感</w>
机 电</w>
尼亚 州</w>
控制 程序</w>
L oc
测试 方法</w>
海 洋
偶 尔</w>
水 性</w>
am p</w>
H D
聚 焦</w>
宝 石</w>
合同 条款</w>
绿 化</w>
几 点</w>
染 料</w>
提供 者</w>
外 币</w>
Ctr l</w>
舒 服</w>
否 认</w>
仅 限于</w>
跑 道</w>
支 护</w>
中 标</w>
年 期</w>
时 机</w>
无 权</w>
右 边</w>
粘 合剂</w>
贫 穷</w>
被 迫</w>
ag e
劳 工</w>
特 有</w>
Pro d
异 步</w>
顺 时针</w>
反 射
立 柱</w>
稍 微</w>
专 家
并发 症</w>
不 带</w>
照 射</w>
控 股
储 层</w>
运 行
s t</w>
销 毁</w>
同 类</w>
启 动器</w>
切 勿</w>
O pt
气 味</w>
E F
阳 极</w>
两 组</w>
水 土
分 歧</w>
全 年</w>
滤 波</w>
板 上</w>
行动 计划</w>
移 至</w>
撤 消</w>
性 格</w>
布 尔</w>
健 康
注册 资本</w>
铁 矿</w>
行 道</w>
圆 柱
监 事</w>
准备 金</w>
流程 图</w>
系统 管理员</w>
开 设</w>
模 块
新 生
之 地</w>
灌 溉</w>
开 裂</w>
纳 税
就 绪</w>
最 快</w>
实用 程序</w>
零售 商</w>
付 费</w>
使 命</w>
毕业 生</w>
带 领</w>
电 偶</w>
尊 敬</w>
悬 浮</w>
带 动</w>
预 热</w>
整 套</w>
总 值</w>
互 感器</w>
刚 才</w>
些 时候</w>
资 讯</w>
摊 销</w>
提 取
碱 性</w>
发 射器</w>
担 保人</w>
三 分之一</w>
T or
邻 居</w>
任 期</w>
低 速</w>
无 形资产</w>
每 当</w>
夫 妇</w>
老 年人</w>
从 此</w>
比 较
贝 尔</w>
冬 天</w>
账 单</w>
冷凝 器</w>
投 票
对 冲</w>
顶 端</w>
清 洗
F E</w>
成 效</w>
受 力</w>
房 产</w>
布 朗</w>
助 手</w>
气 泡</w>
采 购
R T</w>
问 卷</w>
见 表</w>
一 日</w>
发生 率</w>
直 观</w>
震 动</w>
钢 丝</w>
年 份</w>
从 不</w>
不 满</w>
诚 实</w>
comp lex
一 所</w>
按 时</w>
E D
变 异</w>
电源 线</w>
er t
进 场</w>
ul l</w>
8 8
受 限</w>
再生 能源</w>
千 克</w>
飞 轮</w>
武 汉</w>
预 案</w>
量 程</w>
正 极</w>
试 件</w>
怠 速</w>
M on
P ort
辩 论</w>
不 易</w>
曝 光</w>
接 器</w>
普通 股</w>
干 部</w>
石 墨</w>
合 金
着 手</w>
n b
拟 合</w>
微 小</w>
急 救</w>
r i</w>
走 出</w>
o k
第三 个</w>
口 头</w>
劳 务</w>
处 所</w>
激 情</w>
往 来</w>
宏 观</w>
周 二</w>
延 续</w>
系 列
每 台</w>
分 化</w>
防 盗</w>
始 人</w>
收 获</w>
宝 宝</w>
墙 体</w>
LD AP</w>
S el
缺 口</w>
G C</w>
承载 力</w>
三 级</w>
c s
沿 线</w>
光 伏</w>
外 界</w>
克 兰</w>
争 端</w>
D el
0. 6</w>
断 电</w>
土 壤
鱼 类</w>
领 土</w>
餐 馆</w>
愿 望</w>
is e</w>
大 桥</w>
P H
客 车</w>
津 贴</w>
指 责</w>
附 加
缺 省</w>
罗 斯
适应 性</w>
仲 裁
溶 性</w>
短 缺</w>
应 收款</w>
总 督</w>
国 债</w>
轻 易</w>
螺丝 刀</w>
盖 子</w>
St udio</w>
处理 厂</w>
宣 称</w>
潮 流</w>
银 行业</w>
深 圳
数 码</w>
面 试</w>
前 排</w>
电 解
可 编程</w>
聚氨 酯</w>
界 限</w>
友 谊</w>
原 本</w>
交 往</w>
推 行</w>
complex script
洛杉 矶</w>
最 具</w>
U T</w>
层 次
制 冷</w>
采取 行动</w>
不 动产</w>
实 施
规 划
结构 设计</w>
能 器</w>
绝缘 子</w>
头 脑</w>
权 威</w>
野 生
必 要性</w>
可 疑</w>
检 察
圆 柱</w>
C V
震 器</w>
厕 所</w>
难 道</w>
毕 竟</w>
Bus in
修 改
印度 尼
气 阀</w>
风 景</w>
蓝 牙</w>
荣 誉</w>
Prod Name</w>
玛 丽</w>
四 种</w>
拯 救</w>
ing s</w>
电 脑
调制 解调器</w>
分 配
第 五</w>
8. 2</w>
关键 点</w>
名 叫</w>
痕 迹</w>
正 好</w>
隔 板</w>
光 束</w>
赎 回</w>
液 相</w>
水 稻</w>
昆 虫</w>
立 体</w>
库 中</w>
通 往</w>
威 尔
吃 饭</w>
检 疫</w>
抵 消</w>
状 态
船 长</w>
冰 箱</w>
最终 用户</w>
联合 会</w>
宠 物</w>
加 工
东 北</w>
印 花</w>
葡 萄</w>
应 是</w>
网络 连接</w>
六 个月</w>
保持 架</w>
金融 危机</w>
送 给</w>
栏 杆</w>
基 座</w>
调 速</w>
涂 装</w>
幕 墙</w>
切 口</w>
抽 象</w>
将 军</w>
救 济</w>
主义 者</w>
透 镜</w>
浪 漫</w>
节 奏</w>
en c
进 出</w>
公 用
直流 电</w>
分 类
上 来</w>
平 面
拆 解</w>
转换 成</w>
介 入</w>
行 业
翻 转</w>
重 心</w>
步 行</w>
财务 报告</w>
日 常
中 为</w>
O 2</w>
热 电偶</w>
企业 家</w>
菲律 宾</w>
兑 换</w>
C 1</w>
我 行</w>
建设 项目</w>
高 血压</w>
H S
朝 向</w>
售 后
售后 服务</w>
风 雨</w>
齿轮 箱</w>
计 量
监 管
整 体
出 示</w>
局 域网</w>
年 末</w>
喇 叭</w>
灭 火器</w>
条 形
风 化</w>
双 层</w>
转 发</w>
en d</w>
碳 酸
强 迫</w>
易 燃</w>
飞行 员</w>
紫 外线</w>
电视 台</w>
源 自</w>
资 金
实 证</w>
净 额</w>
矿 业</w>
照 灯</w>
市场 营销</w>
E v
激光 器</w>
球 形</w>
校 长</w>
图 书</w>
增 多</w>
国际 标准</w>
三 十</w>
理 人</w>
变 频器</w>
浅 析</w>
锚 固</w>
调 解</w>
RA M</w>
早 餐</w>
出 租</w>
增 值</w>
耐 用</w>
陆 地</w>
一 杯</w>
假 日</w>
集 器</w>
月 球</w>
创 始人</w>
彼 得</w>
烟 雾</w>
机 型</w>
天 使</w>
培 养
毒 素</w>
递 延</w>
十 字</w>
延 时</w>
同 行</w>
陆 军</w>
i v</w>
认 同</w>
商 人</w>
晶 体
项目 部</w>
触摸 屏</w>
上 网</w>
竞 选</w>
氨基 酸</w>
明 亮</w>
览 会</w>
轴 上</w>
斯 科</w>
堆 放</w>
加 剧</w>
再 也</w>
缔约 方</w>
传 入</w>
平 静</w>
Pro du
两 天</w>
云 南</w>
公司 法</w>
1 22</w>
适 于</w>
聚 糖</w>
受害 者</w>
重 启</w>
优 雅</w>
a il
i p</w>
. exe</w>
音 量</w>
隐 患</w>
出 库</w>
S V
谈 到</w>
综合 性</w>
跟 着</w>
散 射</w>
滤 网</w>
岩 体</w>
0 5
变 频</w>
精 彩</w>
动 态
战 术</w>
不 太
s y
公 顷</w>
R D</w>
宣 言</w>
哪 种</w>
L a
诞 生</w>
自 行
换 热器</w>
旁 路</w>
工艺 流程</w>
玫 瑰</w>
氮 气</w>
气 缸盖</w>
各种 各样</w>
随 之</w>
立方 米</w>
样 条</w>
乐 趣</w>
T M
衬 衫</w>
ub lis
脱 水</w>
Dat a
合 理
路 段</w>
减 震器</w>
ic k</w>
扩 建</w>
体 会</w>
普 遍
功 能性</w>
摆 动</w>
教 室</w>
s c
交换 器</w>
转 至</w>
箱 子</w>
病 率</w>
测 验</w>
财务 状况</w>
一 幅</w>
M 8</w>
配 送</w>
经纪 人</w>
寻 常</w>
中小 企业</w>
障 碍
疏 散</w>
网 址</w>
Su n</w>
怀 孕</w>
帽 子</w>
钻 机</w>
夜 晚</w>
An d
环 氧
管 网</w>
触 发器</w>
纳税 人</w>
缩 写</w>
4 7
沿 海</w>
废 弃</w>
th e</w>
IP v
救 助</w>
亚 太
设计 方案</w>
6. 4</w>
4. 6</w>
先 后</w>
事 业
确 信</w>
两 家</w>
进 攻</w>
运算 符</w>
不 予</w>
白 宫</w>
回 购</w>
渐 渐</w>
每 隔</w>
燃 料
护 罩</w>
测 井</w>
正 当</w>
史 密
高 峰</w>
经营 者</w>
氛 围</w>
T ur
管理 部</w>
时 才</w>
证 明
机 房</w>
外 商
改 正</w>
原 件</w>
描 绘</w>
i x</w>
市 区</w>
华 尔
v al</w>
D CS</w>
偏 好</w>
啮 合</w>
pp ort
F 1</w>
恐怖 主义</w>
人 才
E T
耳 朵</w>
ol d
定 书</w>
多 达</w>
同 步
多 久</w>
外 包</w>
表 示
烟 草</w>
皮带 轮</w>
投 保</w>
Gro up</w>
7. 3</w>
0. 0</w>
关键 帧</w>
创 新
数据 处理</w>
未 有</w>
总 会</w>
野 生</w>
聊 天</w>
大 修</w>
自 我
色 素</w>
很 长</w>
警 示</w>
企 图</w>
老 年</w>
节 中</w>
车 子</w>
炸 弹</w>
以 其</w>
Vie w
维 亚</w>
ul t
血 浆</w>
蒸 气</w>
扰 动</w>
胎 儿</w>
王 子</w>
下 属</w>
d B</w>
语 义</w>
剥 离</w>
气 象</w>
射 频</w>
m b
烧 结</w>
适用 法律</w>
前 缀</w>
务 员</w>
石 灰
哪 儿</w>
纺 织</w>
多 元</w>
单 纯</w>
u r</w>
高 原</w>
条 纹</w>
实 习</w>
描 述
配电 盘</w>
单 片机</w>
水 道</w>
心脏 病</w>
模块 化</w>
领 取</w>
制 動
r pm</w>
明 显
B 1</w>
苹 果
Re p
MA X</w>
几 次</w>
优 选</w>
海 拔</w>
分 部</w>
机动 车</w>
成 年</w>
G U
只 不过</w>
句 子</w>
安 德
大 写</w>
g e
Con fig
198 8</w>
副 总裁</w>
按 摩</w>
维 尔</w>
风 速</w>
恒 星</w>
小 波</w>
置 换</w>
中 介</w>
螺 柱</w>
SS L</w>
报 废</w>
手 里</w>
数 百
发 言</w>
货 品</w>
人 员
姿 态</w>
高 品质</w>
弹 性
内 径</w>
电 荷</w>
P O</w>
井 口</w>
前 述</w>
配 偶</w>
置 图</w>
正 常
内 核</w>
不 含</w>
im k</w>
标 志
初 探</w>
几何 图形</w>
做 成</w>
oo l</w>
数 控</w>
进 料</w>
SA E</w>
矿 区</w>
净 值</w>
逾 期</w>
ro r
西 北</w>
挪 威</w>
火 花</w>
P R</w>
R S
退 休
括 号</w>
春 天</w>
万 人</w>
整 天</w>
决 权</w>
F F
精 细</w>
粗 糙</w>
外 资</w>
P D</w>
奥 林
处 分</w>
m an
高新 技术</w>
启 示</w>
ig n
功能 区</w>
al e</w>
勇 气</w>
据 说</w>
每 股</w>
ic k
那 天</w>
10 6</w>
辞 职</w>
缔 造</w>
景 点</w>
苏 格兰</w>
ir e</w>
鼻 子</w>
传 导</w>
尽 力</w>
消 化</w>
小 节</w>
B ack
6 6
盖 章</w>
有所 不同</w>
SM TP</w>
耐 磨</w>
台 阶</w>
00 2</w>
搜 索
边 界
控制 权</w>
千 米</w>
检 测器</w>
不 住</w>
冷 凝</w>
发 病</w>
菜单 项</w>
变 速</w>
h r</w>
复 原</w>
证明 文件</w>
捐 赠</w>
八 个</w>
简 易</w>
病 理</w>
生 成
专业 知识</w>
S 7</w>
水 口</w>
树 立</w>
en ce</w>
高 科技</w>
法 则</w>
模 仿</w>
写 道</w>
设 为</w>
所 处</w>
对 外
选 民</w>
大 地</w>
收 据</w>
棉 花</w>
化 石</w>
计算 公式</w>
大 声</w>
家 中</w>
室 温</w>
测量 方法</w>
毫 秒</w>
其 后</w>
芝 加
高 精度</w>
产 地</w>
s k
规 范
3 16</w>
S im
A V
交 替</w>
如 说</w>
伴 侣</w>
报 销</w>
固 有</w>
M ess
错 过</w>
民主 党</w>
高 管</w>
灌 注</w>
胰 岛
套 装</w>
草 地</w>
共 识</w>
法律 责任</w>
国际 化</w>
诗 歌</w>
出 行</w>
气 象
挡 风
坚 定</w>
蒙 古</w>
多 样</w>
数据 文件</w>
C lo
等 到</w>
中 药</w>
总 和</w>
黑 人</w>
天 堂</w>
得 知</w>
胶 囊</w>
环 绕</w>
更 具</w>
振 幅</w>
试 点</w>
届 满</w>
健 身</w>
Op en
测试 仪</w>
残 疾
电子 设备</w>
i D
生 日</w>
管 接头</w>
废 料</w>
计 价</w>
无法 访问</w>
压 入</w>
粒 径</w>
白 天</w>
预 见</w>
赤 字</w>
甲 醇</w>
宝 贵</w>
转 向
行 人</w>
下拉 菜单</w>
10 3</w>
序 号</w>
定 理</w>
O R</w>
尽 职</w>
印度尼 西亚</w>
ra y</w>
j ect
盒 子</w>
198 9</w>
称 重</w>
S a
机 密</w>
美国 政府</w>
据 此</w>
架 上</w>
升 起</w>
Vis a</w>
教 科
面 部</w>
杭 州</w>
C H</w>
多 于</w>
一 度</w>
稳 态</w>
短 信</w>
信 念</w>
De f
商 用</w>
具体 情况</w>
洗 涤</w>
新 一代</w>
改 动</w>
业务 部门</w>
不 足以</w>
塑 造</w>
中国 人民
um b
退 化</w>
西 洋</w>
情 节</w>
周 四</w>
召 集</w>
油 液</w>
支 撑
控股 公司</w>
钻 石</w>
大 师</w>
Conn ect
还 款</w>
条 中</w>
跟 随</w>
旋 钮</w>
罕 见</w>
拆 分</w>
线 索</w>
武 装</w>
收 率</w>
干 旱</w>
连 锁</w>
力 学
韧 性</w>
笔记 本
C li
倡 议</w>
神经 元</w>
拿 出</w>
R NA</w>
转 运</w>
er p
范 畴</w>
1 15</w>
岛 屿</w>
除 此
规 性</w>
标 示</w>
期 满</w>
Jo h
用 到</w>
clas s
责 令</w>
说 服</w>
代表 团</w>
Att ribut
切 实
一 带</w>
大 学
H 2
挡风 玻璃</w>
议 题</w>
巩 固</w>
账 号</w>
跨 度</w>
两 项</w>
A W
上 将</w>
活 顶</w>
Re cover
堆 栈</w>
al k</w>
风 管</w>
犹 太
动 臂</w>
乐 队</w>
旅游 业</w>
峰 会</w>
内 存
胰岛 素</w>
全 方位</w>
门 槛</w>
表 层</w>
仔 细
未 指定</w>
2. 8</w>
电 平</w>
智 力</w>
co lo
篮 球</w>
分 摊</w>
脆 弱</w>
20 1</w>
笔记本 电脑</w>
oo g
F MI</w>
F I
不 动</w>
三 大</w>
就 此</w>
H O
钢 制</w>
应 答</w>
史密 斯</w>
适 用性</w>
第一 条</w>
不 出</w>
生产 工艺</w>
犹 如</w>
会 员国</w>
粘 结</w>
抽 取</w>
发 起
阳 市</w>
边 框</w>
M L
攻 击
快捷 方式</w>
奠 定</w>
补 给</w>
不 符</w>
国际 贸易</w>
发 现
就 业
借 贷</w>
M M
铲 斗</w>
回 阀</w>
一 遍</w>
涂 漆</w>
起 飞</w>
泳 池</w>
周 日</w>
词 语</w>
碰 到</w>
市 政
N i
雕 刻</w>
熄 灭</w>
诊 断
文件 格式</w>
id e</w>
行政 区</w>
精 简</w>
现 已</w>
被 告</w>
查 明</w>
止 回阀</w>
无 人
服务 业</w>
信 封</w>
O FF</w>
撰 写</w>
发 布
生态 环境</w>
活动 状态</w>
多样 化</w>
一 经</w>
0. 01</w>
解 放
花岗 岩</w>
提取 物</w>
职 权</w>
带 给</w>
农 产品</w>
H yp
理 财</w>
模 量</w>
u re
工作 量</w>
第 一步</w>
佩 戴</w>
纪 律</w>
3 20</w>
管辖 权</w>
数据 链</w>
营 地</w>
S MS</w>
结构 化</w>
分 销</w>
饰 面</w>
优 惠
牛 肉</w>
非 凡</w>
os t</w>
蛋 糕</w>
el d</w>
CL I</w>
碎 屑</w>
定 律</w>
相关 者</w>
创 立</w>
克 萨
可 怜</w>
金融 服务</w>
被 保险人</w>
螺 杆</w>
戏 剧</w>
附 有</w>
负 面
l y</w>
轨 道
S cript</w>
行政 部门</w>
邮 政
it e
压 机</w>
有 意</w>
流 板</w>
诗 人</w>
四 十
县 级</w>
稳 固</w>
信 誉</w>
真 理</w>
首 要</w>
矿 井</w>
变 性</w>
过 量</w>
减 速器</w>
政 权</w>
撤 回</w>
持 股</w>
10 8</w>
此 事</w>
氏 体</w>
护 照</w>
反 转</w>
丹 麦</w>
u g
巡 航</w>
enn e</w>
RO M</w>
提 出
卡 尔</w>
刊 登</w>
边 境</w>
蓄 電池</w>
另 行</w>
硫 酸</w>
5 00
这 点</w>
力学 性能</w>
百 姓</w>
性 能
信 贷
次 要</w>
机 动</w>
P ro</w>
证 件</w>
就 算</w>
石 膏</w>
研究 成果</w>
按 压</w>
墙 面</w>
逮 捕</w>
退 还</w>
若 有</w>
咨询 服务</w>
团 结</w>
P G</w>
照 相机</w>
内 部
监 测
V er
胚 胎</w>
船 员</w>
S i
种 种</w>
关键 技术</w>
尔 顿</w>
通 路</w>
质量 标准</w>
政 党</w>
对 性</w>
改 装</w>
联 动</w>
职 能
G en
資 料</w>
深 处</w>
学 历</w>
i f</w>
制 药</w>
修 整</w>
脱 落</w>
V DC</w>
G IS</w>
专 为</w>
钻 头</w>
市场 份额</w>
午 餐</w>
不 规则</w>
赞 助</w>
克 莱
克 斯坦</w>
密 性</w>
I K
满 足
拟 建</w>
单 向</w>
两 台</w>
隔 热</w>
时 要</w>
T E</w>
鼓 风机</w>
选 出</w>
松 散</w>
坐标 系</w>
S L</w>
Re plication</w>
仅 为</w>
印 刷
统计 数据</w>
已 损坏</w>
I V
预 约</w>
奥林 匹
褐 色</w>
特 此</w>
修 订
科学 技术</w>
工作 台</w>
b o</w>
几何 体</w>
共产 党</w>
恐 怕</w>
施工 图</w>
纺织 品</w>
co de</w>
工 时</w>
D ME</w>
划 线</w>
公 交
振 器</w>
较 长</w>
自然 资源</w>
S U
F R</w>
逆 时针</w>
点 焊</w>
二 条</w>
D T</w>
附 上</w>
g ra
晚 餐</w>
标 人</w>
安 保</w>
E B
N a
数据 传输</w>
减 压</w>
A G
基 质</w>
修改 器</w>
0 4
缠 绕</w>
涂 覆</w>
铁 路
Tim e
非 政府</w>
投 入
F CS</w>
分 配器</w>
常 务
确保 您</w>
高 度
识 别
恐 怖</w>
言 语</w>
共 用</w>
F ram
环 氧</w>
期 日</w>
税 费</w>
ation s</w>
离 婚</w>
传 说</w>
山 东</w>
看 待</w>
周期 性</w>
几 十年</w>
耐 心</w>
孟 加
农 药</w>
餐 饮</w>
反 对
e R
氨 基</w>
熟 练</w>
穆 斯
滞 后</w>
长 达</w>
推 理</w>
公 交</w>
2 10</w>
外 国人</w>
国 防</w>
立 体
化妆 品</w>
载 入</w>
屋 面</w>
T ou
信 件</w>
受 让人</w>
印 章</w>
通货 膨胀</w>
3. 7</w>
紫 色</w>
DH CP</w>
过 低</w>
演 奏</w>
导 演</w>
削 弱</w>
目 光</w>
逻 辑
浙 江</w>
8. 3</w>
扫描 仪</w>
乘 以</w>
中央 银行</w>
C al
更 換</w>
职能 部门</w>
毫无 疑问</w>
修 剪</w>
A 2</w>
SR DF</w>
纤维 素</w>
i al
预防 性</w>
Cay enne</w>
议 案</w>
机 舱</w>
对 系统</w>
发 作</w>
须 知</w>
补 助</w>
本 土</w>
外商 投资</w>
尽 量
薪 资</w>
甲 状
不可 避免</w>
摧 毁</w>
合 理性</w>
二 醇</w>
V AC</w>
怎么 办</w>
中 未</w>
M y
互 连</w>
叠 加</w>
198 4</w>
转 弯</w>
解 散</w>
巴 勒
合 规性</w>
市 政</w>
一 轮</w>
L CD</w>
人民 代表
考 验</w>
通 胀</w>
起 草</w>
上 班</w>
特 种</w>
排 队</w>
以 至于</w>
偿 付</w>
部 落</w>
较 强</w>
网 膜</w>
火 山
发送 至</w>
k Pa</w>
鸟 类</w>
T un
航 线</w>
欺 骗</w>
拨 打</w>
澳 门</w>
多 孔</w>
美 食</w>
AN SI</w>
列 为</w>
分 流</w>
橄 榄
总 共</w>
尾 部</w>
立 面</w>
D IN</w>
监 禁</w>
区 段</w>
u al
利 比亚</w>
O P</w>
普 及</w>
伸 展</w>
拾 取</w>
到 期日</w>
电 镀</w>
激 动</w>
行李 厢</w>
管理 程序</w>
民 事
198 6</w>
环 球</w>
盐 酸</w>
运 费</w>
氯 乙烯</w>
不 清</w>
视 口</w>
拨 号</w>
凸 缘</w>
渗 漏</w>
奥 运</w>
说 出</w>
迄 今
来 讲</w>
千 斤
强制 执行</w>
上 文</w>
as t</w>
每 项</w>
M ir
当 地
i al</w>
马 拉
逆 变
微 米</w>
平 坦</w>
困 扰</w>
要 约</w>
殖 民
星期 五</w>
核 电站</w>
仪表 盘</w>
服 从</w>
最小 化</w>
帮 忙</w>
车 厢</w>
Fo und
基 坑</w>
发 动</w>
J B</w>
千斤 顶</w>
附 注</w>
弯 头</w>
搭 建</w>
量 表</w>
固 醇</w>
为 重要</w>
顶 板</w>
家 用</w>
超 市</w>
缩 减</w>
环 路</w>
布 斯</w>
TE R</w>
化学 成分</w>
不 行</w>
龙 头</w>
小 区</w>
鸡 蛋</w>
精 致</w>
早 已</w>
振 荡</w>
V SS</w>
磷 酸</w>
石 英</w>
那 位</w>
返 还</w>
山 脉</w>
瓷 砖</w>
光 栅</w>
阶 层</w>
文 学
颜 料</w>
钻 探</w>
M at
椭 圆</w>
表 情</w>
生产 率</w>
温度 计</w>
干 细胞</w>
开 销</w>
更 长</w>
每 一</w>
圣诞 节</w>
限 期</w>
执 业</w>
新 生</w>
侵 入</w>
生 化</w>
交 接</w>
8. 5</w>
分 之
全 力</w>
ublis her</w>
Ap p</w>
统计 学</w>
约 翰
见 图</w>
政府 部门</w>
市 长</w>
3 7
枚 举</w>
特 异性</w>
会 见</w>
主管 机关</w>
惯 性</w>
见 面</w>
减 弱</w>
高 档</w>
基督 教</w>
远 镜</w>
Wor d</w>
ill ar</w>
重 申</w>
邮 编</w>
日 报</w>
伦 理</w>
瞬 态</w>
修 正
用 表</w>
水 平
比 尔</w>
草 原</w>
尘 器</w>
不 论
口 号</w>
C L</w>
望 远镜</w>
养 殖</w>
I K</w>
身 体
结 尾</w>
廉 价</w>
内 向</w>
公共 汽车</w>
远 程
历 程</w>
展 会</w>
就 位</w>
E P</w>
建议 您</w>
偶 然</w>
一 月</w>
高 级
眼 前</w>
aceb ook</w>
日 本
卡 入</w>
绝 大多数</w>
市场 经济</w>
冶 金</w>
异 物</w>
在 场</w>
or d
晚 期</w>
闪 存</w>
硕 士</w>
洗 涤
播放 器</w>
N IC</w>
管 如此</w>
尽 管如此</w>
排水 管</w>
互 换</w>
R over</w>
自 杀</w>
2. 1.
打 磨</w>
地 貌</w>
前 列
巧 妙</w>
签 约</w>
决 赛</w>
D ev
数据 保护</w>
核 心
无 数</w>
一 门</w>
I t
替 代
支 配</w>
住 院</w>
N O</w>
传 感</w>
S R</w>
闭 式</w>
8 4
拉 动</w>
委 派</w>
定 罪</w>
因 其</w>
车 灯</w>
文件 类型</w>
卧 室</w>
人 格</w>
C F</w>
野生 动物</w>
矿 产</w>
半 岛</w>
U P</w>
波 浪</w>
技 师</w>
层次 结构</w>
审 美</w>
道 理</w>
迷 人</w>
出 台</w>
罗 伯特</w>
中 是</w>
这 使</w>
比 利
接 种</w>
千 万</w>
一 览
元 区</w>
作用 力</w>
孔 径</w>
麦克 风</w>
一 头</w>
扰 流板</w>
岩 土</w>
在 家</w>
里 克</w>
线 缆</w>
p a</w>
无 误</w>
付 给</w>
二 甲
管理 机构</w>
渔 业</w>
期 末</w>
单 项</w>
瞬 时</w>
Cat erp
小 镇</w>
ar y</w>
迈 克尔</w>
欧 元区</w>
3 500</w>
障碍 物</w>
穆斯 林</w>
燃 油泵</w>
大 战</w>
限 制
光 泽</w>
生 存
9. 1</w>
主 教</w>
13 5</w>
高 效率</w>
果 实</w>
想 想</w>
组 态</w>
可 信</w>
嵌 套</w>
lin e</w>
联合 体</w>
潜 水</w>
固 态</w>
血 糖</w>
Ch ar
Rev it</w>
热 交换器</w>
陷 阱</w>
步 伐</w>
检 定</w>
UN IX</w>
高 出</w>
门 窗</w>
宽 松</w>
礼 品</w>
x ml</w>
电 池
申请 书</w>
邮 寄</w>
3 9
江 苏</w>
6 4
Caterp illar</w>
本 期</w>
A X</w>
鞋 子</w>
成 套</w>
之 际</w>
美 观</w>
反 弹</w>
U t
话 说</w>
198 7</w>
导 流</w>
密 集</w>
as h
点 燃</w>
这 笔</w>
A ir</w>
粗 糙
开 立</w>
值 得
表 述</w>
传染 病</w>
ri al</w>
美 学</w>
线 性
无 机</w>
开 具</w>
反 而</w>
G e
G oog
金融 市场</w>
光 子</w>
等 候</w>
工作 日内</w>
关联 方</w>
t d</w>
吻 合</w>
per t
特 许
标 本</w>
外 表</w>
咱 们</w>
電 機</w>
战 斗
代 号</w>
a st
时 所</w>
内 衬</w>
合 资企业</w>
并 于</w>
Tran s
一 阵</w>
Power link</w>
计 时器</w>
浇 注</w>
任 务
C 2</w>
信 赖</w>
人 文</w>
蔓 延</w>
布 置图</w>
卫生 间</w>
客 运</w>
拉 力</w>
光 缆</w>
负面 影响</w>
水泥 砂浆</w>
支持 者</w>
表 决权</w>
针 对性</w>
辐 射
抬 起</w>
Fil e</w>
收 藏
里 斯</w>
我 司</w>
車 门</w>
p e</w>
3 80</w>
倾 角</w>
忍 受</w>
初 次</w>
时 报</w>
堆 积</w>
2 500</w>
球 迷</w>
议 定书</w>
录 音</w>
取 得
t ype</w>
村 民</w>
压 差</w>
火 星</w>
卡 因</w>
剪 辑</w>
避 开</w>
宏 观
钢 琴</w>
多 家</w>
x AE</w>
整 齐</w>
转 入</w>
挂 钩</w>
圣 经</w>
废 除</w>
刮 水器</w>
冲 压</w>
a z
H D</w>
旗 下</w>
斯 顿</w>
祈 祷</w>
强 有力</w>
列 举</w>
u n</w>
En ter
侧 向</w>
懂 得</w>
肥 胖</w>
Int el</w>
I IS</w>
腹 部</w>
扩展 性</w>
生产 能力</w>
便 捷</w>
录 像</w>
浴 室</w>
邮 政</w>
道 德
佛罗 里
海 域</w>
m l
经济 性</w>
大 西洋</w>
月 底</w>
失 误</w>
Tor x</w>
残疾 人</w>
思 想
3. 1.
坐 下</w>
威 廉</w>
两 周</w>
地 段</w>
R PC</w>
小 的</w>
富 裕</w>
P 2</w>
6 000</w>
追 究</w>
杰 出</w>
BI OS</w>
Ad v
笔记 本</w>
马 斯</w>
而 易
总 价</w>
摄 氏度</w>
引 人
请 问</w>
独 自</w>
达 州</w>
西 安</w>
ec h</w>
J 2</w>
训 练
监 事会</w>
星期 一</w>
聘 用</w>
Q C</w>
可 控</w>
世界 银行</w>
Act ive
可 持续性</w>
色 谱法</w>
负 面</w>
型 材</w>
心 肌
根 源</w>
方 应</w>
印 第
伙 伴
手 持</w>
并 发</w>
纷 纷</w>
导 师</w>
6 00
德 里</w>
迎 接</w>
E D</w>
慈 善</w>
后 勤</w>
十 六
林 业</w>
无 力</w>
质 押</w>
屏 障</w>
An al
造 价</w>
ex p
自动 控制</w>
伤 口</w>
胸 部</w>
尼 日
偏 心</w>
真 相</w>
浙 江省</w>
中 型</w>
养老 金</w>
光 度</w>
纯 粹</w>
in f
存 为</w>
nb sp</w>
不 太</w>
成 都市</w>
E A</w>
产 阶级</w>
DL L</w>
19 80</w>
勇 敢</w>
F acebook</w>
配 制</w>
开发 者</w>
对 付</w>
型 机</w>
纵 断面</w>
相 交</w>
主 持
D L</w>
透 气</w>
科 研
h s
证 监会</w>
蒸 发器</w>
接触 器</w>
2. 2.
人 心</w>
万 用表</w>
L P</w>
受 雇</w>
C o</w>
过 后</w>
芝加 哥</w>
系统 控制</w>
这 段</w>
D T
依 托</w>
I F</w>
破 坏
耐 久性</w>
隧 洞</w>
著 作</w>
气 口</w>
P r
人 家</w>
I ON</w>
试 者</w>
米 兰</w>
威 尔</w>
B I</w>
旅 程</w>
不 上</w>
轧 制</w>
6. 0</w>
呈 现出</w>
肠 道</w>
核 武器</w>
开 拓</w>
1 70</w>
逆变 器</w>
比 如说</w>
补 偿
推 入</w>
改 革
模 糊
日常 生活</w>
省 级</w>
途 中</w>
液 晶</w>
外 来</w>
离 职</w>
推 测</w>
O r
联 赛</w>
音 器</w>
试 着</w>
C ur
祝 福</w>
卖 出</w>
4 28</w>
张 紧</w>
失 业
修 饰</w>
盈 余</w>
这 台</w>
疏 忽</w>
AS P</w>
10 .</w>
镜 子</w>
解 读</w>
纯 度</w>
十 个</w>
编 织</w>
垄 断</w>
车 上</w>
用 车</w>
玩 笑</w>
丢 弃</w>
组 合
申请 表</w>
笔 者</w>
包 围</w>
迄今 为止</w>
过 时</w>
预 估</w>
长 江</w>
气 孔</w>
工程 建设</w>
一 刻</w>
In c</w>
柱 塞</w>
K B</w>
水 文</w>
侵 权</w>
pl i
颈 部</w>
水 利
除此 之外</w>
复 兴</w>
一 小
抗 原</w>
出租 车</w>
明 智</w>
总 之</w>
神 圣</w>
H B
淬 火</w>
日 元</w>
他 用</w>
起 源</w>
放 下</w>
油 道</w>
水 解</w>
3. 8</w>
电 弧</w>
正 规</w>
人 造</w>
大 胆</w>
种 群</w>
粘 性</w>
儿 童
栅 格</w>
字 样</w>
基本 原理</w>
i Ph
1 11</w>
建筑 面积</w>
污 水处理</w>
注 射
充 当</w>
少数 民族</w>
临 界
金 刚
视 力</w>
S CA
轻 盈</w>
葡萄 糖</w>
燃烧 器</w>
多 名</w>
a ch
磷 酸
亨 利</w>
t on</w>
4. 8</w>
退休 金</w>
梯 子</w>
阿 里</w>
国防 部</w>
上 安装</w>
提 示
25 5</w>
肯 尼亚</w>
总 局</w>
过 分</w>
搜 寻</w>
埃 塞
多 维</w>
P ol
气 瓶</w>
罗 马
组 长</w>
修正 案</w>
路 口</w>
法定 代表</w>
将 近</w>
剧 院</w>
超 高</w>
不 敢</w>
震 惊</w>
重 要
承担 责任</w>
滑 坡</w>
油 压</w>
抽 出</w>
在 外</w>
报 导</w>
常 见
am ar</w>
4 4
第二 章</w>
建筑 工程</w>
o m</w>
Found ation</w>
超 速</w>
百分 点</w>
淡 水</w>
降 到</w>
羊 毛</w>
仓 储</w>
较 差</w>
空 军</w>
引 领</w>
围 栏</w>
线 型</w>
控制 点</w>
意 志</w>
视 作</w>
交互 式</w>
时 限</w>
Ad min
炸 药</w>
正 文</w>
功 耗</w>
凝 固</w>
保 安</w>
打 包</w>
大 小写</w>
服 饰</w>
圆 弧</w>
愚 蠢</w>
一览 表</w>
罪 犯</w>
另 存为</w>
不 合理</w>
实 测</w>
月 度</w>
尼 龙</w>
消 灭</w>
CE O</w>
有 望</w>
瓶 颈</w>
e c</w>
an c
液 态</w>
战 场</w>
CR M</w>
文 稿</w>
编 组</w>
学 到</w>
SA S</w>
无论 如何</w>
L NG</w>
柏 林</w>
水 准</w>
欲 望</w>
劳动 者</w>
En ter</w>
谢 您</w>
植 入</w>
这 名</w>
频 谱</w>
再 循环</w>
7. 4</w>
开 来</w>
募 集</w>
5. 6</w>
精 英</w>
封 面</w>
不 准</w>
pp m</w>
A U
短 时间</w>
主 机
真 诚</w>
入 住</w>
全 文</w>
闭 锁</w>
变 质</w>
举 升</w>
C N</w>
江 苏
酌 情</w>
搜索 引擎</w>
盐 水</w>
光 度
账 簿</w>
人 人</w>
环氧 树脂</w>
传 热</w>
DM A</w>
GM O</w>
钻 井
背 部</w>
柜 台</w>
信 函</w>
走 到</w>
保险 费</w>
增 加
S 4</w>
I d
重 定向</w>
营业 执照</w>
储 液</w>
尼 尔</w>
引 出</w>
D om
服务 中心</w>
幻 想</w>
用 力</w>
银行 业务</w>
稀 土</w>
Wor k
截 止
全 额</w>
宾 馆</w>
电 工</w>
哥 哥</w>
课 程
第 八
G ra
住 所</w>
lo g
詹 姆斯</w>
平 移</w>
D yn
居 住
四 分之一</w>
两 大</w>
砾 石</w>
伙伴 关系</w>
加 盖</w>
总 表</w>
章 制度</w>
8 5
f er
T T
跨 国</w>
画 家</w>
用 手</w>
核 电厂</w>
软件 开发</w>
屈 服</w>
传 送
穿 透</w>
大 国</w>
I d</w>
G b</w>
麦 克</w>
更 少</w>
首 个</w>
a w
言 之</w>
正 向</w>
出 租人</w>
放 射</w>
P F</w>
管 控</w>
北 约</w>
创 伤</w>
填 补</w>
DM X</w>
配 料</w>
妊 娠</w>
3 2
链 轮</w>
耶 路
同 性
一 番</w>
调节 阀</w>
13 2</w>
感 激</w>
斯 州</w>
男 女</w>
框 中</w>
永 恒</w>
作用 域</w>
集成 电路</w>
降 低成本</w>
耶路 撒
伊斯 兰</w>
M B
夹 持</w>
油 井</w>
房 价</w>
上 层</w>
通 报</w>
规 章制度</w>
大 力</w>
众 人</w>
周 六</w>
un t</w>
价 款</w>
连接 点</w>
极 性</w>
0. 25</w>
z h
il e</w>
车 队</w>
口 处</w>
登 陆</w>
送 交</w>
版 权
妹 妹</w>
公 称</w>
第二 条</w>
依 旧</w>
气 相</w>
听 力</w>
化学 物质</w>
经 纪</w>
氢 气</w>
消 化
热 油</w>
合金 钢</w>
煤 层</w>
向 阀</w>
手 法</w>
Av amar</w>
取 向</w>
最 新
av e</w>
St e
毛 发</w>
夹 点</w>
谈 谈</w>
燃 油箱</w>
教 徒</w>
信息 中心</w>
绞 车</w>
198 5</w>
细 化</w>
操作 规程</w>
整 洁</w>
交 割</w>
管 人</w>
Te ch
计 时</w>
共和 党</w>
同 志</w>
泥 土</w>
A s
现 存</w>
足 迹</w>
化学 分析</w>
N FS</w>
签 出</w>
外 套</w>
一 步
匿 名</w>
公 元</w>
简 短</w>
扩展 名</w>
小 小的</w>
l b
T B
R A</w>
生成 器</w>
十 年代</w>
K V</w>
磨 机</w>
早 就</w>
引 脚</w>
局 势</w>
Sy n
宿 舍</w>
自 治</w>
耶路撒 冷</w>
性 状</w>
D D</w>
胶 片</w>
空气 质量</w>
公共 交通</w>
9. 2</w>
fi g</w>
开 门</w>
W IS</w>
选 型</w>
势 力</w>
乐 器</w>
eR oom</w>
曲 率</w>
信 箱</w>
O EM</w>
Inv ent
深圳 市</w>
油 墨</w>
上 角</w>
ist a</w>
强 力</w>
医 学
F TP</w>
走 过</w>
蒙 皮</w>
预 付</w>
热 爱</w>
le y</w>
脂肪 酸</w>
汽 缸</w>
大 力
XX X</w>
内 地</w>
几 周</w>
S 6</w>
3 04</w>
第三 章</w>
可 向</w>
Snap View</w>
当 选</w>
A I</w>
知 名
C ap
同 位
显 著
测定 方法</w>
数据 流</w>
雕 塑</w>
路 易
微 机</w>
可 视</w>
9. 5</w>
肝 脏</w>
紧 缩</w>
沮 丧</w>
远 处</w>
职 人员</w>
控制 中心</w>
空 闲</w>
埃塞 俄
真 菌</w>
山 东省</w>
保护 层</w>
违 背</w>
监 控器</w>
辨 识</w>
巴 士</w>
德 尔</w>
8 6
碾 压</w>
一 架</w>
煤 气</w>
工具 包</w>
中 子</w>
主 导
上 学</w>
Sec ur
阿 根
不 间断</w>
硫 化
Enter pr
野 外</w>
特 网</w>
商务 部</w>
f ace</w>
物 理学</w>
江苏 省</w>
不 让</w>
C X</w>
新 能源</w>
教 材</w>
名 词</w>
另一 端</w>
欢 乐</w>
本 月</w>
节 流</w>
重 构</w>
记录 器</w>
换 句
战 士</w>
高 水平</w>
活 化</w>
G et
补 救
神 奇</w>
大 海</w>
I m
安全 措施</w>
闪 光</w>
金 山</w>
一 股</w>
+ +</w>
紧 器</w>
沉 默</w>
宣 告</w>
F M</w>
篇 文章</w>
概 念
获 利</w>
iD RAC</w>
货币 政策</w>
乌 克兰</w>
法 团</w>
地 面积</w>
辖 市</w>
羟 基</w>
油 价</w>
景 色</w>
倾 听</w>
遥 感</w>
抑 制
临 近</w>
聘 请</w>
继 承
第六 十
喷 漆</w>
度 假
升降 机</w>
色 调</w>
琼 斯</w>
单 相</w>
世界 杯</w>
工程 质量</w>
勘 测</w>
国家 级</w>
宣 传
水 层</w>
放 缓</w>
好 友</w>
载 有</w>
真实 性</w>
降 水</w>
悲 伤</w>
同位 素</w>
穿 孔</w>
存 量</w>
兴 起</w>
M c
工业 化</w>
辅 助
遗 漏</w>
仆 人</w>
下 限</w>
9 5
深 层</w>
免 税</w>
广 西</w>
坚 硬</w>
H R</w>
G O
高 压
卵 巢</w>
Re m
挤 出</w>
不论 是</w>
残 疾</w>
地理 位置</w>
编 码器</w>
人 道
和 平
上 万</w>
烟 囱</w>
淹 没</w>
正 义</w>
智能 化</w>
布 拉
音 响</w>
本 金</w>
退 火</w>
m d
肾 上
状 及</w>
G M</w>
3. 2.
降 雨</w>
构 造
马克 思
转 基因</w>
分 光</w>
写 字母</w>
记 账</w>
冲 刷</w>
所 载</w>
ou t</w>
通 量</w>
球 阀</w>
本 款</w>
开关 设备</w>
re ss
自 助</w>
紧 凑</w>
照 相</w>
会 员
两 层</w>
衍 射</w>
玻璃 纤维</w>
En g
特许 权</w>
新生 儿</w>
井 场</w>
裙 板</w>
军 官</w>
三 通</w>
传 统
聚 物</w>
敞 口</w>
公 路
中 以</w>
水 体</w>
所 订</w>
n d
供 油</w>
何 处</w>
有 害
场 馆</w>
否 定</w>
环 保
支 助</w>
F re
时 数</w>
e x</w>
文 物</w>
山 市</w>
保护 措施</w>
a h
两 类</w>
激 活
室 内
作 业
带 电</w>
x x</w>
PW M</w>
三 天</w>
相对 湿度</w>
工程 图</w>
大 使</w>
周 三</w>
er g
T alk</w>
转 账</w>
访 者</w>
涵 洞</w>
lo b
学 期</w>
乘 员</w>
通 告</w>
电路 板</w>
C r
次 序</w>
优 美</w>
S K
着 陆</w>
日 程</w>
接 受
射 击</w>
人 行道</w>
补救 措施</w>
看 不到</w>
自由 度</w>
自 豪</w>
七 个</w>
朝 着</w>
旋 开</w>
cf cf</w>
电视 节目</w>
中 时</w>
近 代</w>
自 有</w>
辩 护</w>
赛 事</w>
现 状及</w>
个 案</w>
So ur
垫 层</w>
ma x</w>
高 位</w>
直 辖市</w>
占 领</w>
切实 可行</w>
国有 企业</w>
精确 度</w>
受 试者</w>
v al
排 空</w>
ig ht
这 样
平 时</w>
摩 尔</w>
含 水量</w>
财 产
归 还</w>
休 息
毛 细
切 线</w>
C ++</w>
法 语</w>
不 足
sp ect</w>
间 歇
带 上</w>
传动 装置</w>
益 处</w>
致 动器</w>
0 8
本 科</w>
骄 傲</w>
着 色
得 多</w>
一 九
分析 器</w>
10 000</w>
退 货</w>
跨 接</w>
配 对</w>
25 6</w>
精 心</w>
树 林</w>
原 位</w>
电气 系统</w>
拟 议</w>
申 诉</w>
中 会</w>
双 边</w>
角 落</w>
栽 培</w>
孤 立</w>
k N</w>
Tur bo</w>
娱 乐
全 自动</w>
成 千
增 殖</w>
看 器</w>
此 参数</w>
所 含</w>
标 有</w>
使 馆</w>
跨 境</w>
查 看器</w>
分 销商</w>
前 者</w>
ic al</w>
缸 体</w>
煤 灰</w>
击 败</w>
民 事</w>
后 排</w>
徽 标</w>
制 动
a ut
機 油</w>
是 非</w>
存储 设备</w>
存 活</w>
换句 话说</w>
吞 吐
e .
U l
拉 链</w>
东南 亚</w>
P ar
遗 址</w>
提 问</w>
8 000</w>
W h
冲 程</w>
两 只</w>
O N
A I
电 报</w>
机 票</w>
工作 温度</w>
O P
视 网膜</w>
街 上</w>
显 微</w>
比 值</w>
抗 生素</w>
横 断面</w>
崛 起</w>
H E
灵 敏</w>
u le</w>
斯 蒂
洗 衣
宇 航
否 是</w>
供 热</w>
生产 总值</w>
特 区</w>
没 人</w>
权 证</w>
聚 丙烯</w>
智能 手机</w>
史 蒂
会 同</w>
露 天</w>
军 人</w>
Web S
十 五</w>
答 应</w>
瞄 准</w>
相 处</w>
P H</w>
两 国
G UI</w>
蓄 能器</w>
流 场</w>
麻 醉</w>
简 洁</w>
通 向</w>
苏 丹</w>
Goog le</w>
埃塞俄 比亚</w>
城 堡</w>
主机 名</w>
可 不</w>
保险 杠</w>
要 用</w>
月 亮</w>
字 典</w>
凹 陷</w>
私 有</w>
Recover Point</w>
拨 款</w>
阻 燃</w>
石 灰</w>
医疗 保健</w>
S et</w>
非 正式</w>
质 保</w>
液压 泵</w>
坠 落</w>
r ing</w>
牧 师</w>
活 着</w>
后 退</w>
保险 单</w>
ab le
定期 检查</w>
分 辨</w>
摄 入</w>
前 沿</w>
院 长</w>
珠 宝</w>
配 线</w>
年 度
PC M2</w>
跟 进</w>
自 检</w>
0. 7</w>
瓦 斯</w>
膝 盖</w>
a k</w>
发 病率</w>
是 否是</w>
分 散
奇 迹</w>
Attribut e</w>
随 即</w>
应用 软件</w>
s et
剪 裁</w>
PC I</w>
孤 独</w>
休 假</w>
成 份</w>
天 性</w>
耐 火
毁 灭</w>
使 人</w>
五 十</w>
两 边</w>
an a</w>
H C</w>
授权 代表</w>
拜 访</w>
商 户</w>
4. 7</w>
光度 法</w>
ind er</w>
指 纹</w>
径 流</w>
暴 雨</w>
发起 人</w>
E l
礼 貌</w>
点 儿</w>
V 2</w>
词 典</w>
从 属</w>
比利 时</w>
会议 室</w>
骨 头</w>
大 宗</w>
20 2</w>
系 泊</w>
离 心</w>
i m</w>
格 栅</w>
地 利</w>
震 源</w>
撤 离</w>
学 金</w>
哺 乳
准确 度</w>
粗糙 度</w>
烹 饪</w>
以 致</w>
特别 行政区</w>
rat or</w>
促 成</w>
交通 运输</w>
充 满
申 索</w>
星 球</w>
加 仑</w>
St at
股 份
立 式</w>
本 部</w>
过 失</w>
公 主</w>
二 是</w>
服务 质量</w>
一 艘</w>
领 先
贝 尔
硫 酸
法 兰
或 非</w>
并 须</w>
小 齿轮</w>
爱 好
保持 一致</w>
m a</w>
L T
采 纳</w>
6 5
阿根 廷</w>
辉 煌</w>
擅 自</w>
干 线</w>
增 添</w>
范 例</w>
极 化</w>
b ps</w>
Ad d
AT E</w>
fil e</w>
做 些</w>
信息 安全</w>
X 1</w>
木 质</w>
没 能</w>
遥 远</w>
书 记</w>
针 织</w>
莱 坞</w>
河 床</w>
马 尔
市 中心</w>
剪 贴
性 研究</w>
可行 性研究</w>
行李 箱</w>
湖 泊</w>
风 口</w>
地下 室</w>
GU ID</w>
关 节
带 式</w>
区 块</w>
跳 舞</w>
穷 人</w>
鞋 面</w>
杂 交</w>
中 华</w>
类 型
R 2</w>
星 系</w>
同 于</w>
罢 工</w>
活性 剂</w>
征 税</w>
犹太 人</w>
林 顿</w>
公 开
适用 於</w>
十 五
信号 灯</w>
切 实</w>
伤 亡</w>
iPh one</w>
审 理</w>
加 速器</w>
弧 焊</w>
回 事</w>
抑 郁</w>
分 项</w>
保 修
益 于</w>
币 种</w>
竟 然</w>
社会 保障</w>
燃 机</w>
1 12</w>
CM C</w>
普 勒</w>
P ack</w>
订 明</w>
接 纳</w>
ag u
V O
轻 质</w>
赔偿 金</w>
密切 相关</w>
谴 责</w>
成千 上万</w>
古 典</w>
用 药</w>
PI WIS</w>
V 6</w>
海 运</w>
净 利润</w>
抑 制剂</w>
伯 格</w>
七 年</w>
粉 碎</w>
令人 满意</w>
某 项</w>
缆 线</w>
沉 重</w>
DB 2</w>
00 0
喷 水</w>
span span</w>
W IN
定 额</w>
参 数值</w>
亿 英镑</w>
不 止</w>
A B</w>
推 移</w>
大 熊猫</w>
喷 雾</w>
原 点</w>
高 密度</w>
节 性</w>
拥 挤</w>
微 量</w>
授 信</w>
密封 胶</w>
广 州市</w>
远 期</w>
理 工
大 理
详 尽</w>
仅 当</w>
一 双</w>
欧 姆</w>
高 可用性</w>
减 缓</w>
买 入</w>
金融 工具</w>
贯 彻</w>
放 行</w>
B RE
批 注</w>
S k
車 身</w>
记 忆
召 回</w>
纯 化</w>
水 晶</w>
副 作用</w>
信用 风险</w>
荣 耀</w>
M Hz</w>
福 特</w>
解决 办法</w>
自 费</w>
题 目</w>
雨 量</w>
6 7
外 出</w>
商 场</w>
SA TA</w>
R F</w>
账 目</w>
维 护
纸 板</w>
8 9
面 层</w>
经验 丰富</w>
加 勒
国 籍</w>
不 宜</w>
n m</w>
哈 萨
co m</w>
品 位</w>
前 轮</w>
只 好</w>
部 份</w>
态 势</w>
S co
辅 导</w>
C U</w>
Busin ess</w>
B iz
磁 粉</w>
双 面</w>
T T</w>
不 像</w>
每 条</w>
H el
版 面</w>
游 离</w>
投 产</w>
助 力</w>
H T</w>
十 分
Edit or</w>
C ID</w>
危险 品</w>
一 眼</w>
Invent or</w>
爱 好</w>
功 率
Inf o
共 计</w>
悠 久</w>
审 阅</w>
全球 性</w>
工作 室</w>
导 航
一 副</w>
高 分子</w>
外 墙</w>
M V
轨道 交通</w>
胜 任</w>
炉 膛</w>
心 血管</w>
党 人</w>
上 年</w>
一般 来说</w>
忠 诚</w>
前 置</w>
澳 洲</w>
医 用</w>
制造 厂</w>
夹 层</w>
个人 信息</w>
一 并</w>
狮 子</w>
大 自然</w>
推 进
金 色</w>
用 例</w>
汇 总表</w>
救 生
缩 略
某种 程度</w>
克 逊</w>
A 4</w>
降 级</w>
晶体 管</w>
d at
街 头</w>
坏 账</w>
UR I</w>
Admin ist
计 费</w>
莫 斯科</w>
处 以</w>
夹 克</w>
端 面</w>
违 规</w>
車 轮</w>
车 内</w>
探 究</w>
危险 性</w>
全 套</w>
生 于</w>
敏 捷</w>
基 体</w>
ay er</w>
访问 控制</w>
et e</w>
起 步</w>
AT I</w>
需求 量</w>
松 弛</w>
吊 车</w>
S B
衰 竭</w>
Te am</w>
两 份</w>
占 地</w>
美 味</w>
炎 症</w>
混 沌</w>
P V</w>
受 到
原 则
美 术
服务 费</w>
it le</w>
19 0</w>
系列 产品</w>
程序 包</w>
款 式</w>
结构 性</w>
G W</w>
M R</w>
限 性</w>
缺 血</w>
全 都</w>
善 于</w>
光 明</w>
安 娜</w>
头 痛</w>
高 风险</w>
会 上</w>
前 来</w>
新 颖</w>
条 所</w>
紧 紧</w>
起 伏</w>
产品 开发</w>
绳 索</w>
绝 对
读 书</w>
操 控</w>
园 林</w>
酵 母</w>
定位 器</w>
主 办</w>
集 体
日 程
减 振器</w>
D 1</w>
解 雇</w>
西班 牙
来 临</w>
群 落</w>
明确 规定</w>
锻 造</w>
证券 交易</w>
佛 教</w>
试 论</w>
折 算</w>
浸 泡</w>
试验 报告</w>
死 者</w>
P L</w>
商 会</w>
还 给</w>
灭 菌</w>
海 湾</w>
参 和</w>
移 位</w>
Q A</w>
车 架</w>
地 方
资本 主义</w>
S I
MA C</w>
平 安</w>
多 地</w>
S B</w>
简 历</w>
因 特网</w>
发现 自己</w>
专 人</w>
首 相</w>
电 车</w>
凝 结</w>
增 进</w>
假 人</w>
列 明</w>
镀 层</w>
富 含</w>
A G</w>
R om
歌 手</w>
奥 地利</w>
凋 亡</w>
模 态</w>
页 岩</w>
降 落</w>
丙烯 酸</w>
PC R</w>
1 21</w>
桁 架</w>
M T</w>
正 本</w>
应 于</w>
Fram e
Bu il
A rial</w>
不 定</w>
战 胜</w>
吃 惊</w>
f 25</w>
顺 利
赞 成</w>
死 去</w>
后 轮</w>
er t</w>
天 下</w>
供 参考</w>
镶 嵌</w>
科 学院</w>
登 上</w>
标 牌</w>
乃 至</w>
Sol ar
等 式</w>
深 深</w>
手 表</w>
研究 员</w>
天 文
架 空</w>
女 王</w>
国 产</w>
喂 养</w>
A b
EC U</w>
空 隙</w>
D O</w>
长期 以来</w>
砌 块</w>
始 于</w>
漫 长</w>
情 报
充 填</w>
充分 发挥</w>
之 旅</w>
订 货</w>
好 象</w>
再 现</w>
分 期</w>
切 片</w>
隔 热
积 金</w>
徒 刑</w>
宗 教
甲 醛</w>
切 尔
机 体</w>
截 断</w>
飞行 器</w>
翅 膀</w>
除 术</w>
利 益
精 美</w>
叶 子</w>
原 始
优先 权</w>
if t</w>
密 闭</w>
1 23</w>
姐 妹</w>
大 城市</w>
净 资产</w>
一 分钟</w>
戒 指</w>
前 所
下 车</w>
H o
铆 钉</w>
见 解</w>
接收 机</w>
好 吗</w>
上 时</w>
声 学</w>
可 追溯</w>
U pd
吞吐 量</w>
冲 击
依 法
不 然</w>
菲 尔德</w>
CA S</w>
感 应
沙 发</w>
清 扫</w>
功 效</w>
. c
正确 性</w>
极 具</w>
听 众</w>
O LE</w>
排水 沟</w>
er y</w>
17 5</w>
除 以</w>
笔 记</w>
杂 物</w>
在 一起</w>
这 块</w>
代理 行</w>
隔 离
套 期</w>
Enterpr ise</w>
峡 谷</w>
G R
登记 册</w>
as s</w>
金刚 石</w>
重 写</w>
好 莱坞</w>
游 览</w>
上 个月</w>
一 是</w>
焊 条</w>
发出 通知</w>
o v</w>
邮 件
亚 马
le x</w>
跨 国
ad d
招 致</w>
家 乡</w>
燃 气
数据 分析</w>
微 调</w>
最 有</w>
外 围</w>
严 厉</w>
不 及</w>
联 想</w>
洞 口</w>
负 极</w>
冷却 剂</w>
搭 接</w>
F e
长 官</w>
口 服</w>
优先 股</w>
严 肃</w>
BO M</w>
球 体</w>
2 70</w>
第 六</w>
导 热油</w>
中 继</w>
笑 声</w>
挑 战
右 前</w>
W TO</w>
j av
ic le</w>
遗传 算法</w>
记 号</w>
续 费</w>
滑 轮</w>
淘 汰</w>
中 控
马 丁</w>
界 线</w>
丰 田</w>
R V
调 动</w>
湿 润</w>
剧 烈</w>
页 码</w>
飞 船</w>
Pro cess</w>
G N</w>
着 力</w>
河 北省</w>
L ev
跳 过</w>
图 象</w>
新 款</w>
实 地</w>
口 腔</w>
电视 机</w>
强 烈
早 些时候</w>
谱 仪</w>
E L</w>
建 工程</w>
国家 有关</w>
口 径</w>
换 算</w>
M ob
珍 贵</w>
压 制</w>
乐 意</w>
农 村
ul l
航 道</w>
报 送</w>
6 f16lang1024</w>
聆 讯</w>
前 应</w>
H A</w>
结 核</w>
汇 编</w>
委托 书</w>
可 处</w>
爱好 者</w>
分 担</w>
敦 促</w>
停 工</w>
h s</w>
创造 力</w>
诊断 系统</w>
桌 上</w>
擦 除</w>
诱 发</w>
职业 生涯</w>
电 图</w>
燃 煤</w>
F u
鲜 明</w>
相 一致</w>
投入 使用</w>
10 7</w>
转 化
中 压</w>
多 边</w>
短 语</w>
移动 电话</w>
Tim e</w>
路 堤</w>
消 极</w>
访 谈</w>
上 衣</w>
身份 证</w>
入 手</w>
别 墅</w>
空 载</w>
幽 默</w>
专 门
化 器</w>
擅 长</w>
工作 面</w>
多 糖</w>
198 2</w>
离 线</w>
猜 测</w>
ad e</w>
马克思 主义</w>
T as
高尔 夫
消耗 量</w>
局 限性</w>
极 度</w>
挠 性</w>
身 分</w>
签 订
b e
it y
4 80</w>
通 气</w>
AR E</w>
奋 斗</w>
固定 装置</w>
2 25</w>
自 制</w>
里 兰
国民 经济</w>
9 7
法 学</w>
斯 基</w>
工具 箱</w>
化 疗</w>
麻 醉
必 要
1 14</w>
拼 写</w>
奶 粉</w>
酸 酯</w>
交 联</w>
对 比
PC B</w>
发 明
公 务员</w>
闻 名</w>
后 代</w>
可 扩展性</w>
试 用</w>
颗 粒
贫 困
L IN
话 语</w>
养 老</w>
隔 膜</w>
收 敛</w>
和 解</w>
T er
所 称</w>
f ont
遥 控器</w>
水 轮机</w>
P age</w>
那 边</w>
接 合
电 流
开 通</w>
华尔 街</w>
主持 人</w>
an k</w>
必 不可
1. 1.
联邦 政府</w>
成 交</w>
人道 主义</w>
un d</w>
三角 洲</w>
S H</w>
关键 词</w>
ub e</w>
喷 砂</w>
以 期</w>
除 尘</w>
灭 绝</w>
Ret ro
内 有</w>
硬 币</w>
恶 意</w>
2 32</w>
i g</w>
并 经</w>
安 放</w>
周 知</w>
利 物
P 0
F in
饮 用</w>
旅行 社</w>
长 远</w>
品 牌
神 话</w>
测 得</w>
处 方</w>
预 后</w>
独 家</w>
属 何</w>
祭 司</w>
柬 埔
言 论</w>
插 图</w>
a g</w>
T ext</w>
心 态</w>
一 看</w>
Re g
葡萄 牙</w>
特殊 要求</w>
期 货
加 重</w>
re g</w>
G SM</w>
记 入</w>
芬 兰</w>
后 端</w>
at ch</w>
Mir ror
王 朝</w>
有 名</w>
悲 剧</w>
形 容</w>
衣 物</w>
排 气管</w>
归 属</w>
喷 洒</w>
发 热</w>
中 风</w>
难 民</w>
井 下</w>
一 切
p h</w>
看 过</w>
Syst em
百 年</w>
旋 转
关 机</w>
L A</w>
衬 板</w>
进 水</w>
贩 运</w>
大 幅度</w>
十二 条</w>
调查 结果</w>
血 症</w>
修订 版</w>
越 大</w>
购 置</w>
基 点</w>
6. 6</w>
这 片</w>
工作 效率</w>
PT O</w>
系统 故障</w>
复 核</w>
市 政府</w>
固 体
加 班</w>
资本 化</w>
决 定性</w>
Biz Talk</w>
新 区</w>
k e</w>
护 栏</w>
riv e</w>
创 业
调 速器</w>
批 处理</w>
表 水</w>
电子 表格</w>
伪 造</w>
视 线</w>
根本 原因</w>
Retro spect</w>
包 覆</w>
烦 恼</w>
遮 阳
英 文
抵 销</w>
增 速</w>
接 点</w>
X L</w>
B 2</w>
高 亮</w>
操作 数</w>
尼 泊
磋 商</w>
星期 六</w>
可 燃</w>
re t
in a</w>
阻 挡</w>
愿 景</w>
P U</w>
地 表水</w>
借 用</w>
裂 隙</w>
第四 章</w>
卵 石</w>
驳 船</w>
该 文</w>
脖 子</w>
蒸 馏</w>
.d ll</w>
百 万
急 剧</w>
英 国人</w>
坚 实</w>
抵 御</w>
亦 可</w>
橙 色</w>
如 属</w>
其 他
违 法
转 录</w>
致 电</w>
一 氧化
源 性</w>
努 力
il l</w>
报 文</w>
快 递</w>
运行 状况</w>
反 思</w>
专业 化</w>
er n
有 何</w>
坚 决</w>
SQ L
艺术 品</w>
火 花
希 尔</w>
管 壁</w>
指挥 官</w>
保 障
香 味</w>
占 地面积</w>
称 号</w>
资 深</w>
安 慰</w>
十 三</w>
ht m</w>
叙 利亚</w>
钢 铁
4. 2.
油 藏</w>
k g
控制 柜</w>
手 上</w>
低 频</w>
礼 服</w>
祖 国</w>
时 常</w>
S al
混 淆</w>
移动 式</w>
必不可 少</w>
几 率</w>
发 件人</w>
动 词</w>
压力 计</w>
货 单</w>
耕 地</w>
四 大</w>
视 属何</w>
磨 削</w>
存储 管理</w>
平方 公里</w>
即 属</w>
信息 管理</w>
清洁 剂</w>
A 3</w>
桥 面</w>
售 价</w>
硫 化</w>
AC E</w>
缺 损</w>
滚 轮</w>
面 向
网 球</w>
店 铺</w>
基因 组</w>
发 音</w>
经 常
数 以
诊 所</w>
BRE W</w>
耐 火</w>
P B</w>
治 疗
过 剩</w>
聚 氯乙烯</w>
有 待</w>
PL N</w>
全 程</w>
电力 公司</w>
适 度</w>
下 一代</w>
表 现
法 线</w>
补 丁</w>
意 向</w>
归 纳</w>
吊 销</w>
口 气</w>
缓 和</w>
泥 沙</w>
厂 区</w>
代 数</w>
弟 弟</w>
射 流</w>
中国人民 银行</w>
收 割</w>
捆 绑</w>
专业 人士</w>
者 说</w>
无 意</w>
左 前</w>
谷 物</w>
利物 浦</w>
计算机 系统</w>
瓶 子</w>
会 长</w>
专 属</w>
法 典</w>
新 年</w>
小 车</w>
切 除术</w>
保 费</w>
不 知
跳 动</w>
ar ch</w>
在 乎</w>
侵 害</w>
第三 条</w>
球 菌</w>
下 级</w>
期 徒刑</w>
资源 部</w>
贿 赂</w>
ation al</w>
4 8
守 则</w>
螺 塞</w>
劳动 合同</w>
F D</w>
防 尘</w>
景 象</w>
F T
地 向</w>
动 脉
M D</w>
开关 柜</w>
一点 点</w>
CF R</w>
动物 园</w>
Tou ch</w>
D av
18 00</w>
隐 蔽</w>
水 压</w>
散 热</w>
主 观</w>
魔 法</w>
重复 使用</w>
受 过</w>
火 炬</w>
清 偿</w>
沟 槽</w>
阀 杆</w>
苯 乙烯</w>
机 翼</w>
难 点</w>
很 强</w>
遗 嘱</w>
条形 码</w>
幼 儿
马 里</w>
剥 夺</w>
t im
Mirror View</w>
第 九
16 00</w>
0. 9</w>
行 情</w>
熔 化</w>
尔 特</w>
列 示</w>
昨 晚</w>
m p</w>
邪 恶</w>
协调 员</w>
郊 区</w>
继续 执行</w>
桥 架</w>
Inter n
追 加</w>
目 标
众 所
超 链接</w>
捐 款</w>
增 强
全 过程</w>
每 份</w>
杰 克逊</w>
伊斯 兰
一般 性</w>
M 10</w>
抗 压
一 封</w>
掌 控</w>
姐 姐</w>
分 拣</w>
这 部分</w>
布 料</w>
名 人</w>
序列 化</w>
CX 4</w>
重 现</w>
统计 分析</w>
or g
J agu
测 算</w>
严格 遵守</w>
10 9</w>
始 终
ar ch
Set t
无 可
To ol
感 染
土 建</w>
下 层</w>
圆 角</w>
衍 生物</w>
伸 缩
4 9
金属 材料</w>
安 培</w>
耐 受</w>
利 亚
优 越</w>
锚 杆</w>
度 表</w>
融 化</w>
负 有</w>
焚 烧</w>
不 能
瑕 疵</w>
Ad d</w>
穿 戴</w>
比 起</w>
塔 尔</w>
步 进</w>
失业 率</w>
分 隔
一 性</w>
油 量</w>
散 步</w>
变 迁</w>
電 器</w>
荣 获</w>
大 会
多 普勒</w>
上 半年</w>
推 断</w>
名 册</w>
加 热
保 温
会 面</w>
仍 旧</w>
三 层</w>
源 文件</w>
时 空</w>
可 执行
反 洗钱</w>
众所 周知</w>
T 1</w>
一 线</w>
或 者说</w>
cr mk</w>
Ut ility</w>
升 值</w>
危 及</w>
8. 8</w>
B old</w>
饲 养</w>
密封 垫</w>
报 率</w>
6 9
基 板</w>
土 方</w>
性 感</w>
St art</w>
弯 管</w>
制 图</w>
下 拉</w>
版本 号</w>
换 器</w>
补 充
海 尔</w>
季 节性</w>
00 3</w>
薄 板</w>
汇 款</w>
渐 变</w>
高 低</w>
霍 尔</w>
后 侧</w>
巨 头</w>
一 员</w>
电 解</w>
流 经</w>
缝 合</w>
秋 天</w>
灌 木</w>
s a
赛 车</w>
第三 次</w>
电 化学</w>
土地 利用</w>
实 心</w>
告 人</w>
着色 器</w>
ic e
预 备</w>
波 段</w>
前所 未有</w>
D SP</w>
矫 正</w>
下 调</w>
F A</w>
维 多
Produ ct
同性 恋</w>
沙 滩</w>
e y</w>
St yle</w>
等 离子</w>
发 挥
6 8
显著 性</w>
我 来</w>
传动 系统</w>
零 点</w>
8. 4</w>
值 班</w>
计划 表</w>
构 架</w>
前 言</w>
箱 体</w>
希 腊
农 田</w>
例 行</w>
拉丁 美洲</w>
不 明</w>
过 敏
比 特</w>
解 放</w>
胆 固醇</w>
毁 坏</w>
此 值</w>
惊 奇</w>
音 响
病 学</w>
奇 异</w>
人 事</w>
口 味</w>
陕 西</w>
老 虎</w>
薪 水</w>
磁 共振</w>
公 积金</w>
di t</w>
损 害
损害 赔偿</w>
s et</w>
来 回</w>
乳 液</w>
所 要</w>
担 保
原 先</w>
中 得</w>
过 敏</w>
现 值</w>
清 晰
皮 书</w>
家 园</w>
亚太 地区</w>
al se</w>
越 过</w>
斯 加</w>
放 进</w>
抛 弃</w>
传 媒</w>
污 垢</w>
祖 先</w>
N et</w>
大理 石</w>
一无 二</w>
存储 阵列</w>
苏 州</w>
议 书</w>
方 程式</w>
破坏 性</w>
壁 厚</w>
悬 浮
肥 料</w>
清 水</w>
气 息</w>
容 忍</w>
监 护
太 长</w>
唤 醒</w>
风 味</w>
机 身</w>
维 斯</w>
全 面
高尔 夫</w>
碳 纤维</w>
散 发</w>
美 妙</w>
末 尾</w>
描述 符</w>
c ess
蒙 特
显 式</w>
M 1</w>
件 箱</w>
a h</w>
动 式</w>
保 值</w>
帐 号</w>
P 3</w>
id e
管理 工具</w>
m e
独 一无二</w>
排水 系统</w>
执 政</w>
分析 表明</w>
一 倍</w>
SO A</w>
民 用</w>
焊 工</w>
夫 妻</w>
证券 公司</w>
推 到</w>
队 长</w>
绝 望</w>
E B</w>
行业 标准</w>
手 机
语 文</w>
畸 形</w>
普 尔</w>
1 17</w>
讯 息</w>
触 及</w>
股东 会</w>
尺 码</w>
SN MP</w>
设 备
干 什么</w>
卢 比</w>
一 口</w>
C G
奖 学金</w>
土 层</w>
拒 收</w>
公 制</w>
牲 畜</w>
东 南</w>
福 建
已 为</w>
售 后</w>
线 上</w>
惠 普</w>
巴勒 斯坦</w>
剪贴 板</w>
六 年</w>
务 人员</w>
回 避</w>
压 裂</w>
4 3
多 人</w>
lo g</w>
角 膜</w>
收 支</w>
多 方面</w>
P B
重 于</w>
股 利</w>
同 情</w>
号 线</w>
重复 性</w>
终 身</w>
两 根</w>
租 用</w>
社 团</w>
瀑 布</w>
光 照</w>
医疗 保险</w>
蒙 古
Dyn am
道 歉</w>
存 入</w>
克 林顿</w>
人 际
Sm art
达 成
筹 资</w>
轴 承
教科 文
粉 煤灰</w>
P IN</w>
体 量</w>
Hyp er
火花 塞</w>
人 造
EC T</w>
此 刻</w>
裁 判
子 弹</w>
SE T</w>
自然 灾害</w>
牛 顿</w>
海 事</w>
如 该</w>
圣 诞</w>
区域 性</w>
保修 期</w>
单 向阀</w>
f l
Val ue</w>
调 拨</w>
肩 膀</w>
承包 方</w>
弗 兰
头 寸</w>
详 述</w>
S O</w>
城 乡</w>
in e
抗压 强度</w>
铝 制</w>
知 晓</w>
m o
饱 和
施工 单位</w>
商 学院</w>
转 为</w>
割 机</w>
遇 见</w>
耐 磨
老 挝</w>
尼日 利亚</w>
置 信</w>
分 工</w>
氧化 铝</w>
回 报率</w>
营业 日</w>
囚 犯</w>
乙 烯
赚 钱</w>
有 线</w>
封 信</w>
递 增</w>
结 局</w>
句 柄</w>
摩 西</w>
出 入</w>
教科文 组织</w>
华 丽</w>
生 病</w>
预 言</w>
经 理人</w>
V I
组 成员</w>
间 歇</w>
裤 子</w>
注 目</w>
出 境</w>
2 80</w>
装 船</w>
全 体
锈 蚀</w>
达成 协议</w>
管 材</w>
科学 研究</w>
Ser ies</w>
红 利</w>
烧 伤</w>
雄 性</w>
St or</w>
调 谐</w>
同 业</w>
ov e</w>
枢 轴</w>
水 温</w>
ol og
complexscript s
游 行</w>
赞 同</w>
On e</w>
血 流</w>
经 受</w>
插 孔</w>
填 筑</w>
倡 导</w>
中 医</w>
W il
Config u
本 着</w>
不 佳</w>
形 圈</w>
山 谷</w>
S ub
微 处理器</w>
n sr
l es</w>
E V
ri g
原 谅</w>
生 动</w>
P SM</w>
黄 铜</w>
而 出</w>
每 名</w>
9. 3</w>
Comm and</w>
无 菌</w>
美 军</w>
取 值</w>
F T</w>
激活 状态</w>
技术 创新</w>
年 纪</w>
黑 龙
P et
参考 资料</w>
出 生
涡 流</w>
停 下来</w>
ot e</w>
尾 巴</w>
is s
脑 袋</w>
2 60</w>
逆 转</w>
评 标</w>
前 款</w>
5. 7</w>
天 才</w>
五 金
二 十</w>
绞 线</w>
清 盘</w>
for m</w>
手 提
皮 细胞</w>
原则 上</w>
请 在</w>
中 美</w>
1 13</w>
解 剖</w>
技术 参数</w>
子 句</w>
M in
革 新</w>
德 克萨
L T</w>
ri d
手 续费</w>
4. 1.
误 解</w>
n s
SS D</w>
Jagu ar</w>
ac h</w>
T 恤</w>
会 者</w>
防 滑</w>
不 合格
一 来</w>
西 藏</w>
柔 和</w>
存 者</w>
元 前</w>
令 牌</w>
参 议员</w>
饥 饿</w>
ara ct
沉 淀
星 星</w>
坦 克</w>
著 作
地 处</w>
你 好</w>
运 载</w>
牵 引力</w>
智 利</w>
右 手</w>
出 资
起 初</w>
抽 屉</w>
建设 工程</w>
入 学</w>
us e</w>
装 载
操作 过程</w>
lo w</w>
轧 机</w>
化 工
从 来
半 球</w>
衔 接</w>
哥伦 比亚</w>
写 下</w>
底 下</w>
合法 权益</w>
演 习</w>
子 里</w>
肝 炎</w>
理 查
北 极</w>
差 值</w>
困 惑</w>
变 暖</w>
分之 二</w>
架 设</w>
革 命
细 致</w>
牛 仔
栖 息
星期 二</w>
重 庆
档 案
对 账</w>
会 为</w>
IPv 6</w>
钢 轨</w>
停 堆</w>
Re ad
私 营
子 板</w>
DB C</w>
网 点</w>
拉 斯
东 北
1 1.</w>
严 密</w>
磁 铁</w>
金 矿</w>
腺 素</w>
幸 存者</w>
a in
精 准</w>
空 缺</w>
主 要
水 槽</w>
相 适应</w>
电阻 器</w>
平 民</w>
一 首</w>
油 机</w>
掩 码</w>
承 保</w>
K PI</w>
间歇 性</w>
突 发
开 机</w>
理 图</w>
入 门</w>
标准 规范</w>
卷 影</w>
适用 范围</w>
禁 令</w>
眼 中</w>
一 时</w>
派 生</w>
日 益
口 语</w>
钱 包</w>
束 缚</w>
P ER
氯 化</w>
重 金属</w>
衬 砌</w>
用 具</w>
原 理图</w>
理 处</w>
大 众
F P</w>
这 事</w>
警 报
技术 标准</w>
农 作物</w>
防 守</w>
贬 值</w>
计算机 辅助</w>
散 装</w>
湖 南</w>
两 点</w>
无 条件</w>
拥 抱</w>
垂直 于</w>
盎 司</w>
理 会</w>
氧 基</w>
分 理处</w>
发挥 作用</w>
制 止</w>
一 新</w>
K W</w>
阴 性</w>
栖息 地</w>
臭 氧</w>
批 发</w>
差 分</w>
V o
现 任</w>
6 50</w>
20 4</w>
亚 太</w>
路 边</w>
举 例
H IV</w>
对 数</w>
严 峻</w>
H om
启 发</w>
oo k
留 出</w>
永 磁</w>
爵 士</w>
公 平
偏 见</w>
v er</w>
T H
DW F</w>
g o
有 过</w>
导 率</w>
特 质</w>
尼泊 尔</w>
赞 助
发 动
置 权</w>
大 连</w>
讲 解</w>
Lin k</w>
C K</w>
显 而易
利 息
型 钢</w>
浮 点</w>
汉 字</w>
弹 药</w>
B ar
显而易 见</w>
尖 端</w>
可 乐</w>
亚 历
总 面积</w>
对 流</w>
压 板</w>
粘 附</w>
木 板</w>
履 带</w>
实 用性</w>
正 当
减 肥</w>
完 备</w>
二 元</w>
肢 体</w>
un ic
星期 三</w>
这 句</w>
没 错</w>
符合 规定</w>
交通 事故</w>
5 50</w>
拖 曳</w>
9 001</w>
治 愈</w>
席 会议</w>
天 赋</w>
量 级</w>
不 去</w>
un g</w>
重 合</w>
讲 座</w>
吩 咐</w>
6 3
再 度</w>
兔 子</w>
NA ME</w>
海 报</w>
C le
携 手</w>
河 南</w>
收 集器</w>
o p</w>
if ic
高 等</w>
拔 下</w>
总 公司</w>
折 弯</w>
Tim es</w>
税 法</w>
白 人</w>
控制 技术</w>
干 扰
奴 隶</w>
健康 状况</w>
ap e</w>
机 密
长 城</w>
比 亚
德 拉</w>
从来 不</w>
诉 讼
种 族
折 磨</w>
非 洲
辖 区</w>
赞 赏</w>
中国 银行</w>
L and</w>
198 3</w>
突 发</w>
冲 动</w>
亲 密</w>
乙 酸</w>
E r
菌 株</w>
认 真
传动 轴</w>
计算 器</w>
柬埔 寨</w>
履行 合同</w>
的 吗</w>
日 光</w>
座 垫</w>
事 后</w>
天 气
7 7
极 了</w>
大 面积</w>
违约 金</w>
帆 船</w>
窗 玻璃</w>
加 元</w>
人 性</w>
灰 岩</w>
不 该</w>
万 向
整 流器</w>
多 级</w>
罚 金</w>
电子 产品</w>
溢 价</w>
在此 期间</w>
背 书</w>
N D</w>
药 剂</w>
文化 遗产</w>
截止 阀</w>
届 时</w>
管理 模式</w>
不 开</w>
洛 克</w>
宿 主</w>
外 科
遗 失</w>
Cli ent</w>
甲状 腺</w>
本地 化</w>
提 单</w>
F inder</w>
脉 动</w>
可 拆卸</w>
使用 费</w>
馈 线</w>
泵 送</w>
奶 酪</w>
stron g
闸 板</w>
全 长</w>
Tech n
红 细胞</w>
硫 酸盐</w>
均 须</w>
协 议书</w>
政治 家</w>
宝 贝</w>
相 似
工 资
加 深</w>
该 软件</w>
提 条件</w>
刑事 责任</w>
梗 死</w>
很 棒</w>
平面 布置</w>
p ut</w>
走 上</w>
哈 尔
设计 标准</w>
斯 科
主 板</w>
d is
常务 委员会</w>
内 饰</w>
件 事</w>
归 类</w>
ect ion</w>
B R
交 错</w>
M Q
毫 不
建筑 材料</w>
下 达</w>
审 慎</w>
烘 干</w>
格 兰
服务 水平</w>
挖 掘
十 足</w>
标 题
口 岸</w>
DW G</w>
两 岸</w>
阴 极</w>
第一 天</w>
竖 向</w>
对比 度</w>
溢 流</w>
干燥 器</w>
利 斯</w>
诱 惑</w>
张 贴</w>
3 30</w>
卷 筒</w>
冰 川</w>
向 外</w>
传送 带</w>
it ion</w>
磁盘 驱动器</w>
数 十
学习 者</w>
现 今</w>
永 不</w>
喷 淋</w>
墨西 哥
人力 资源部</w>
O M</w>
缓冲 器</w>
合 营</w>
收 货</w>
互 联</w>
聚 酯</w>
反 光</w>
参 议院</w>
pl ay</w>
執 行</w>
前 提条件</w>
Serv er
建 构</w>
简 述</w>
数 码
大 容量</w>
公 元前</w>
Ma il</w>
运动 鞋</w>
获 益</w>
食品 安全</w>
紫 外</w>
根 据
数 控
教 导</w>
红 外线</w>
Gen er
遍 布</w>
洞 穴</w>
晶 粒</w>
冷 静</w>
冷 水</w>
显 现</w>
福建 省</w>
印第 安
W H
抬 头</w>
生 殖</w>
亚马 逊</w>
若 干
福 建</w>
环境 污染</w>
演 练</w>
撕 裂</w>
城市 化</w>
r e</w>
典 礼</w>
作 出
每 人</w>
时 效</w>
变 体</w>
减 排</w>
从 业
书 签</w>
m et
辆 车</w>
萎 缩</w>
平 常</w>
密封 剂</w>
U E</w>
消费 品</w>
注册 商标</w>
女 生</w>
再 试
微 分
等 同于</w>
R SA</w>
G lob
预 算
管 道
蛋白 酶</w>
在 建</w>
感 谢您</w>
开 业</w>
电阻 率</w>
必 备</w>
委托 方</w>
古 巴</w>
m i
有机 物</w>
油 封</w>
裁 判</w>
构 想</w>
朝 鲜
发布 会</w>
装 配
听 取</w>
附 图</w>
河 南省</w>
加利福 尼亚州</w>
20 5</w>
奢 华</w>
石 棉</w>
数 年</w>
情 境</w>
钻井 液</w>
规 格
岁 月</w>
缝 隙</w>
ron ic</w>
站 台</w>
建筑 设计</w>
哺乳 动物</w>
奶 油</w>
固 结</w>
依赖 性</w>
改革 开放</w>
享 用</w>
H ar
防 雷</w>
烷 基</w>
Control Center</w>
错误 信息</w>
美 金</w>
便 会</w>
SY ST
经济 衰退</w>
陪 审
扩 充</w>
上 所述</w>
装 满</w>
留 存</w>
星期 四</w>
硬 质</w>
监 护</w>
文 摘</w>
音 频
熔 融</w>
N 1</w>
漂 移</w>
标题 栏</w>
自 動</w>
温 器</w>
接地 线</w>
下 雨</w>
车 库</w>
旧 金山</w>
即 为</w>
顶 层</w>
源 头</w>
统 治
检 出</w>
三 分之二</w>
X F</w>
溶 胶</w>
保 守
场 上</w>
四 处</w>
商 标
定 时器</w>
相 比
我 用</w>
冠 状
市 值</w>
粘 剂</w>
米 尔</w>
轻 度</w>
方 同意</w>
排 斥</w>
双 方同意</w>
人 机
产业 化</w>
阻 尼
山 羊</w>
器 中</w>
再试 一次</w>
L D</w>
男 士</w>
尔 森</w>
切尔 西</w>
電 子</w>
拍 照</w>
中 海</w>
视 察</w>
式 表</w>
核 销</w>
机 上</w>
心 率</w>
利润 率</w>
今 年
搜 集</w>
岩 层</w>
雾 灯</w>
新 华
联 结</w>
Rom an</w>
指导 方针</w>
打 断</w>
展 出</w>
跳 线</w>
医疗 器械</w>
提 请</w>
唱 片</w>
关 乎</w>
投 射</w>
方 言</w>
孔 洞</w>
雕 像</w>
指 甲</w>
必 将</w>
厉 害</w>
临床 试验</w>
ment al</w>
5 8
提出 申请</w>
人 选</w>
互 操作性</w>
购买 力</w>
绝 不</w>
安 市</w>
ob e</w>
柠 檬
交 际</w>
贵 州</w>
线 管</w>
扣 留</w>
售 出</w>
SD K</w>
爱 德
精 品</w>
以 备</w>
万向 节</w>
em b
Pro pert
ES X</w>
逗 号</w>
流 过</w>
抵押 品</w>
倘 若</w>
主 角</w>
AT F</w>
IS P</w>
管 段</w>
宴 会</w>
参数 设置</w>
各个 方面</w>
sp n
H 2</w>
深 受</w>
法 对</w>
每 分钟</w>
货 人</w>
疑 难
Ni ke
译 者</w>
绳 子</w>
性 气体</w>
肺 癌</w>
缓 震</w>
热 门</w>
掩 盖</w>
燃烧 室</w>
仲裁 员</w>
一 堆</w>
都 是</w>
山 地</w>
半 个</w>
意 见
高 分辨率</w>
游 泳池</w>
海 盗</w>
她 说</w>
操作 程序</w>
关节 炎</w>
l d
规范 化</w>
消 息
树 枝</w>
黄 河</w>
飓 风</w>
病 情</w>
信 度</w>
Ma c</w>
复 发</w>
R PM</w>
解 码</w>
Jav a
审 视</w>
电力 电缆</w>
心 肌</w>
S IM</w>
眼 泪</w>
二 期</w>
逃 避</w>
资 料
算 是</w>
税 额</w>
看 似</w>
血 性</w>
收 件箱</w>
分隔 符</w>
样 式表</w>
试验 机</w>
独 有</w>
已 于</w>
周 边
id spn
边 际</w>
动 员</w>
薄 层</w>
方 框</w>
大 肠
吊 架</w>
L im
增 幅</w>
减 压阀</w>
订 定</w>
毫 升</w>
指 望</w>
与 否</w>
肉 类</w>
势 头</w>
报警 器</w>
IS A</w>
软 化</w>
继承 人</w>
家庭 成员</w>
促 进
人 能</w>
习 俗</w>
o ur
ar k
U L</w>
培养 基</w>
ER P</w>
带 走</w>
先 决
近 来</w>
涂 敷</w>
活性 炭</w>
倍 数</w>
i o
试 试</w>
第四 条</w>
税务 机关</w>
合作 社</w>
M ac
C W
B S
20 3</w>
五 月</w>
近 日</w>
ir t
身 后</w>
变化 规律</w>
草 坪</w>
妇 人</w>
外 露</w>
亲 属</w>
F r
发 動</w>
存储 空间</w>
R ob
N AS
原 告</w>
电 价</w>
有害 物质</w>
其 所</w>
公交 车</w>
光 学
产 值</w>
载 明</w>
青 铜</w>
感 冒</w>
M 3</w>
7. 0</w>
4 6
繁 忙</w>
地 为</w>
固定 式</w>
Frame work</w>
呼吸 道</w>
粉 丝</w>
突发 事件</w>
消 音器</w>
跨国 公司</w>
先 进
n et
M ich
1. 9</w>
畸 变</w>
C l</w>
纽约 市</w>
先决 条件</w>
大 麻</w>
网络 安全</w>
纸 质</w>
化学 反应</w>
动 植物</w>
创 办</w>
供 选择</w>
3. 9</w>
随 访</w>
O per
清 醒</w>
土 木
左 后</w>
贵 族</w>
残 留
当 量</w>
套 房</w>
克 拉
音 节</w>
淋巴 细胞</w>
派 对</w>
抵 制</w>
T R</w>
匈 牙
遮阳 板</w>
帐 目</w>
宫 殿</w>
上 课</w>
EM S</w>
推 销</w>
大 赛</w>
一 個</w>
5 6
注 水</w>
Th e</w>
搬 迁</w>
崇 拜</w>
剖 析</w>
防 腐
粮 食
载 重</w>
拇 指</w>
卸 货</w>
S 1</w>
IE EE</w>
太 小</w>
无 比</w>
排 污</w>
再 试</w>
on d
N UR
水 井</w>
斑 点</w>
奥 委会</w>
F i</w>
随 便</w>
火 车站</w>
相 片</w>
差 动</w>
决策 者</w>
R un
第一 章</w>
系统 性</w>
1 100</w>
郁 症</w>
道 路
焊 机</w>
倾 倒</w>
检验 员</w>
衰 老</w>
驾 车</w>
M D
通知 单</w>
提 倡</w>
化 床</w>
管 内</w>
引 号</w>
帐 篷</w>
质 地</w>
初 步
健 身
稳 健</w>
祷 告</w>
之 用</w>
Ed ge</w>
年 龄
伴 有</w>
con fig</w>
ar a</w>
战 役</w>
单 层</w>
App Xtender</w>
脚 步</w>
海 啸</w>
越 高</w>
外 加</w>
六 月</w>
V I</w>
O C</w>
进 球</w>
耗 材</w>
墨 水</w>
B a
衍 生
常 量</w>
外交 部</w>
L R
箱 盖</w>
家 属</w>
出 价</w>
第一 阶段</w>
温度 控制</w>
解 密</w>
高 炉</w>
萝 卜</w>
勘 查</w>
闲 置</w>
美 容</w>
19 70</w>
骨 髓</w>
栏 上</w>
大 选</w>
公共 卫生</w>
环境 因素</w>
征 求</w>
u e
详细 资料</w>
天 上</w>
辨 认</w>
留 置权</w>
率 高</w>
折 射</w>
不 便</w>
umb er</w>
. g
购物 中心</w>
热 力学</w>
带 入</w>
交通 工具</w>
举 动</w>
一 章</w>
f s
N F
孟加 拉
专 辑</w>
燃气 轮机</w>
制 服</w>
规 避</w>
山 上</w>
夯 实</w>
肺 炎</w>
笑 话</w>
有 价
引 水</w>
198 1</w>
香 烟</w>
茶 叶</w>
内 衣</w>
00 4</w>
退 款</w>
电 镜</w>
持 牌</w>
断 开
断开 连接</w>
严格 执行</w>
选 址</w>
运 河</w>
z z
Sh ift</w>
5 4
私营 部门</w>
前 任</w>
谐 振</w>
恶 性</w>
SO AP</w>
水 印</w>
微 分</w>
兑 现</w>
线 段</w>
遏 制</w>
第一 位</w>
有价 证券</w>
干 事</w>
中 小型</w>
三 月</w>
S w
精 华</w>
滑 行</w>
流 阀</w>
同 伴</w>
免 于</w>
10. 1</w>
降 温</w>
邮政 编码</w>
私 营</w>
温 柔</w>
好 事</w>
O L
D C
调 试
确 认
花 朵</w>
铠 装</w>
尼 克</w>
去 掉</w>
un ct
Bas ic</w>
流 化床</w>
既 定</w>
包装 材料</w>
Ob ject
车 主</w>
照明 灯</w>
外 部
出 水</w>
墨 盒</w>
F B
战略 性</w>
防 喷
比 例
Pow er</w>
锻 件</w>
正常 值</w>
放 心</w>
小 板</w>
歇 尔</w>
插 值</w>
这 幅</w>
底 壳</w>
内 陆</w>
arg et</w>
IN G</w>
储 蓄
现 浇</w>
动 荡</w>
使用 率</w>
重 用</w>
扣 押</w>
Ar ch
海 峡</w>
仪 器
乳 腺癌</w>
服务 员</w>
创 建
氧化 剂</w>
过 渡
供 气</w>
Upd ate</w>
获 胜</w>
美 的</w>
程序 员</w>
奖 项</w>
S ID</w>
测 绘</w>
按 揭</w>
Des ign</w>
液 面</w>
格 林</w>
形 图</w>
尘 埃</w>
不合格 品</w>
填 入</w>
气 化</w>
折 叠
孔 中</w>
结 核
一 小</w>
方 差</w>
岩 性</w>
驱 動</w>
烘 焙</w>
展 商</w>
互 补</w>
殖民 地</w>
圆 盘</w>
i re
监 测器</w>
怪 物</w>
评 论
微分 方程</w>
公共 服务</w>
闸 阀</w>
ma il</w>
Solar is</w>
SD D</w>
站 立</w>
1 18</w>
存 续</w>
其 为</w>
偏 移
检查 表</w>
操作 者</w>
多 大</w>
刚 好</w>
装载 机</w>
发 售</w>
硅 酸盐</w>
标 段</w>
d b
合格 证</w>
建设 银行</w>
坚 强</w>
骑 士</w>
访 客</w>
装 上</w>
擦 拭</w>
摆 放</w>
on g
招 募</w>
拖 到</w>
colo r</w>
留 有</w>
人 次</w>
Sc ale</w>
隔 开</w>
轴承 座</w>
讽 刺</w>
搭 载</w>
总 的
变 色</w>
鼓 舞</w>
钎 焊</w>
生 人</w>
青 春</w>
工艺 品</w>
Re c
问 道</w>
后 缀</w>
x 2
系统 配置</w>
读 出</w>
获 准</w>
扶 持</w>
告 警</w>
Port al</w>
G L</w>
看 不见</w>
受 限制</w>
于 此</w>
St re
模拟 器</w>
彰 显</w>
有 期徒刑</w>
星 级</w>
居 然</w>
下 行</w>
公 报</w>
会议 记录</w>
承 压</w>
C ro
AB C</w>
隔 间</w>
居 民
阳 离子</w>
木 头</w>
珍 珠</w>
服 装
新 工艺</w>
F A
组 策略</w>
揭 露</w>
得 不到</w>
0 2
变 换器</w>
兼 职</w>
疟 疾</w>
扁 平</w>
军 方</w>
跳 跃</w>
中 午</w>
1 27</w>
皮 质</w>
漫 游</w>
留 给</w>
B r
無 法</w>
各 向
T CM</w>
迪 拜</w>
天 津
配电 箱</w>
幼儿 园</w>
世 上</w>
不太 可能</w>
踩 下</w>
独立 性</w>
并 重</w>
B ip
船 体</w>
市场 需求</w>
评 判</w>
忧 虑</w>
喜 悦</w>
柴油 发动机</w>
堆 芯</w>
准 入</w>
住 户</w>
高速 缓存</w>
船 用</w>
膜 片</w>
聆 听</w>
抹 灰</w>
哈 利</w>
要 说</w>
写 出</w>
接触 面</w>
低 下</w>
虐 待</w>
挣 扎</w>
完全 相同</w>
关键 因素</w>
足 球
省 份</w>
燃料 电池</w>
滑 移</w>
流 畅</w>
待 机</w>
处 境</w>
or s</w>
集 会</w>
闪 电</w>
选 装</w>
背 板</w>
减 免</w>
不 容
单 位
流 水</w>
尽 早</w>
亮 起</w>
此 举</w>
承载 能力</w>
夹 子</w>
加 斯</w>
密 实</w>
to p</w>
胁 迫</w>
拘 留</w>
畅 通</w>
尽量 减少</w>
共同 体</w>
水 头</w>
妥 协</w>
土木 工程</w>
关键 问题</w>
香 料</w>
Back up</w>
赌 场</w>
芳 香</w>
构 成
指 标
导航 系统</w>
奥 氏体</w>
复 印</w>
哮 喘</w>
油 罐</w>
机 电
观 光</w>
标 价</w>
AX 100</w>
高 处</w>
想 像</w>
热 力</w>
填 土</w>
am b
en g</w>
适 量</w>
略 微</w>
准备 就绪</w>
V ista</w>
SCA DA</w>
油 厂</w>
压 电</w>
疏 浚</w>
水 上</w>
夏 威
读 卡
总 收入</w>
at h
膳 食</w>
尴 尬</w>
内 六角</w>
门 外</w>
血 小板</w>
离 岸</w>
冠状 动脉</w>
骚 扰</w>
赫 兹</w>
装 箱
秋 季</w>
点 钟</w>
一 枚</w>
耗 尽</w>
探 析</w>
o ut
当 下</w>
平方 英尺</w>
乳 化</w>
NUR BS</w>
4. 3.
萧 条</w>
种 植
批 判</w>
南 北</w>
个人 资料</w>
生产 者</w>
气 球</w>
开 玩笑</w>
该 处</w>
L R</w>
机密 信息</w>
往 返</w>
发 掘</w>
y l
相比 之下</w>
未 定义</w>
整 流</w>
效 用</w>
at t
返 工</w>
记 帐</w>
So ft
除 尘器</w>
病 毒
授权 书</w>
外 情况</w>
例 外情况</w>
哈萨 克斯坦</w>
卫 星
郵 件</w>
偏移 量</w>
降 下</w>
L M</w>
底 面</w>
大 腿</w>
SR M</w>
血 栓</w>
内 膜</w>
高 职</w>
代理 服务器</w>
上 司</w>
资 格
调 频</w>
精 子</w>
青 岛
组 和</w>
再 用</w>
T ech</w>
租 约</w>
品 尝</w>
回 顾
中 去</w>
不 已</w>
哪 怕</w>
b y</w>
T em
长 久</w>
牵 引
施工 进度</w>
连 通</w>
蜜 蜂</w>
留 意</w>
尿 素</w>
多 条</w>
14 4</w>
人工 智能</w>
1 16</w>
表 皮</w>
防 洪</w>
开 创</w>
学 费</w>
头 顶</w>
可 知</w>
袋 子</w>
注 视</w>
增 高</w>
公安 机关</w>
质量 体系</w>
数字 式</w>
宏观 经济</w>
办公 楼</w>
O T</w>
龙 骨</w>
触 头</w>
矿 物质</w>
产品 设计</w>
雌 性</w>
身 为</w>
y t
0 .</w>
漏 油</w>
利益 冲突</w>
量 分析</w>
用 人
Active X</w>
愈 合</w>
宁 静</w>
吸 气</w>
E lect
曲 柄</w>
开发 署</w>
er e
西 斯</w>
就业 机会</w>
ic a</w>
V ol
水 利</w>
州 长</w>
u ri
嘴 唇</w>
M er
风 电</w>
点 数</w>
197 9</w>
谋 杀</w>
摇 臂</w>
推 杆</w>
大 批</w>
事务 处理</w>
測 量</w>
换 热</w>
惰 性气体</w>
人 类
征 服</w>
异 常
Time Finder</w>
精神 病</w>
搅拌 机</w>
奥林匹 克</w>
围 岩</w>
严重 性</w>
连 线</w>
评 为</w>
集 料</w>
行 长</w>
住 宅
re g
地 震
信 纳</w>
F 2</w>
温 泉</w>
体 检</w>
位 图</w>
G A
日 止</w>
收藏 夹</w>
再 见</w>
B D</w>
裸 露</w>
受 托</w>
E X</w>
湍 流</w>
注 定</w>
树 叶</w>
必 填</w>
尾 气</w>
身 高</w>
自然 人</w>
羽 毛</w>
托 马斯</w>
信号 处理</w>
Q U
滑 雪</w>
软 骨</w>
褶 皱</w>
手 术
黄 金
额定 电流</w>
席 位</w>
卡 拉</w>
un t
影 子</w>
r era</w>
O L</w>
G P</w>
直 立</w>
拖 延</w>
关 切</w>
人 身
水土 流失</w>
机 能</w>
半 数</w>
铁 矿石</w>
模 型
余 热</w>
通 性</w>
悉 尼</w>
升 压</w>
结 合
水 文
不 相同</w>
密 码
多 点</w>
例 程</w>
中 起</w>
受 压</w>
一 届</w>
市政 局</w>
后 轴</w>
停 放</w>
做 事</w>
硝 酸</w>
湖 北省</w>
寻 址</w>
传 来</w>
普 查</w>
承 办</w>
R 1</w>
条 码</w>
忽 然</w>
子 集</w>
RE F</w>
6. 7</w>
管理 费</w>
乐 园</w>
贴 现</w>
用人 单位</w>
e B
R H</w>
储 备
强 行</w>
海 豚</w>
有 效率</w>
无 所
功率 因数</w>
送 入</w>
谅 解</w>
2. 9</w>
还 原
X T</w>
专利 权</w>
6 2
排 量</w>
G D</w>
色 板</w>
恶 性
拆 装</w>
岛 上</w>
乙 二醇</w>
索 取</w>
空 运</w>
开 会</w>
7. 6</w>
感 动</w>
积 水</w>
断 器</w>
弱 点</w>
密 集
概 览</w>
昨 日</w>
竞争 者</w>
好 奇</w>
身 材</w>
观 赏</w>
与 会者</w>
限制 性</w>
里 亚</w>
河 水</w>
m d</w>
衍生 品</w>
抗 菌</w>
顶 盖</w>
借 口</w>
en ame</w>
K h
外 语</w>
办 学</w>
肾 脏</w>
无 聊</w>
眼 光</w>
甲 酸</w>
失 踪</w>
金 牌</w>
V IN</w>
S 2</w>
十 四</w>
关 怀</w>
财务 部</w>
加利福 尼亚</w>
中 文
有 意思</w>
嫌 疑
不良 反应</w>
漏 电</w>
吊 索</w>
出 众</w>
阶 梯</w>
阴 道</w>
一 列</w>
主 办
it or</w>
8 7
碎 机</w>
曼 联</w>
安全 系数</w>
瞻 性</w>
热 线</w>
錯 誤</w>
适 时</w>
D et
门 诊</w>
该 行</w>
美 术</w>
边 上</w>
多 用途</w>
打 结</w>
升 至</w>
勾 选</w>
屋 子</w>
此 人</w>
前 瞻性</w>
走 路</w>
汽 机</w>
同 名</w>
充分 考虑</w>
工 单</w>
饼 干</w>
进口 商</w>
裙 子</w>
板 式</w>
孔 子</w>
遮 盖</w>
抗 拉
诠 释</w>
催 化
统 筹</w>
第一 款</w>
13 1</w>
读 写</w>
流动 资产</w>
弧 形</w>
中 世纪</w>
1 26</w>
驻 留</w>
近 平</w>
自 来
引人 注目</w>
下 班</w>
深 远</w>
拆 迁</w>
倒 车</w>
油 站</w>
挥 发性</w>
开发 利用</w>
公 职人员</w>
知 情</w>
班 组</w>
继 電器</w>
所在 国</w>
习 近平</w>
需 在</w>
菜单 栏</w>
参 看</w>
y s</w>
L ib
猪 肉</w>
条 线</w>
于 本</w>
质 检</w>
真空 泵</w>
s cript</w>
停 运</w>
T RA
拉 里</w>
为 人
Car rera</w>
超 级
湖 北</w>
整 治</w>
惊 喜</w>
St and
日 记</w>
开 式</w>
交叉 口</w>
u l</w>
W W
腰 部</w>
满 载</w>
劳 工
交 道</w>
八 年</w>
溃 疡</w>
小 女孩</w>
不 高</w>
测试 程序</w>
天 生</w>
全 市</w>
一 会</w>
项目 名称</w>
法 治</w>
Us er</w>
有 线
口 令</w>
in st
蠕 变</w>
On e
盘 式</w>
开 展
熔 断器</w>
政 客</w>
蜡 烛</w>
与 非</w>
Ke y</w>
焊 接
汇 集</w>
知识 库</w>
刑 法</w>
上 空</w>
被 告人</w>
尤 为</w>
升 温</w>
党 员</w>
恐 慌</w>
五 金</w>
197 8</w>
倒 角</w>
e e</w>
as i
白 血
头 枕</w>
东 亚</w>
CO N
照 亮</w>
井 架</w>
摄影 师</w>
废 水处理</w>
读卡 器</w>
自 觉</w>
电 感</w>
开 辟</w>
co l
T P
防护 装置</w>
精 灵</w>
1 2.</w>
身 心</w>
就 让</w>
喝 酒</w>
讨 论
博 览会</w>
中国 证监会</w>
15 5</w>
出 差</w>
ke t</w>
立体 声</w>
主 控</w>
武 汉
城 里</w>
春 季</w>
挂 车</w>
10. 2</w>
MA P</w>
文本 文件</w>
冷 器</w>
L i
5 9
陌 生人</w>
绩 效
石灰 石</w>
时 为</w>
原 文</w>
清 新</w>
挖掘 机</w>
异 构</w>
运 气</w>
机 加工</w>
第五 条</w>
有 源</w>
博 弈</w>
人才 培养</w>
ec k</w>
蜂 窝</w>
远 距离</w>
水土 保持</w>
放 气</w>
系统 管理</w>
签订 合同</w>
挑战 性</w>
客户 关系</w>
财政 年度</w>
白 云
安全 可靠</w>
公 章</w>
迟 到</w>
胳 膊</w>
辐 照</w>
覆盖 率</w>
忠 实</w>
ke y</w>
L B</w>
风 量</w>
轻 轻
脊 髓</w>
毛 泽
宁 波</w>
UL L</w>
in i</w>
发 电站</w>
总 金额</w>
根 部</w>
果 汁</w>
o f
醒 来</w>
ent s</w>
P N
首 歌</w>
重新 配置</w>
结 实</w>
查 尔斯</w>
AT M</w>
东 盟</w>
病 原
壳 牌</w>
均 匀
人民代表 大会</w>
Bo x</w>
解 释
毛细 管</w>
不 起
增 生</w>
卫生 组织</w>
贯 彻
大 臣</w>
新 鲜
描 写</w>
行 进</w>
克 罗
栅 栏</w>
第六 条</w>
一 圈</w>
U M</w>
M O</w>
接 口
报 名</w>
岩 浆</w>
亚 洲
Secur ity</w>
Pl us</w>
音乐 会</w>
腹 板</w>
借 方</w>
上 线</w>
钻 杆</w>
营业 额</w>
沙 特
反 过来</w>
一 贯</w>
杀 害</w>
出 让</w>
偏 转</w>
Bip ed</w>
B B
箱 内</w>
I DS</w>
铰 接</w>
規 定</w>
售 卖</w>
剖 面图</w>
3. 3.
长 的</w>
财 物</w>
南 京
14 5</w>
银行 家</w>
断 裂
恶 心</w>
或 本</w>
加 长</w>
输入 您</w>
自动 更新</w>
批 复</w>
成 熟
Not es</w>
威 特</w>
天 体</w>
受 访者</w>
不 利于</w>
统 一
积 聚</w>
前 锋</w>
谱 分析</w>
放 空</w>
客 厅</w>
预 示</w>
航 运</w>
海 军
出 卖</w>
祝 贺</w>
毛 刺</w>
sr c</w>
n ing</w>
达 标</w>
载 波</w>
相 差</w>
激 酶</w>
损 益
前 台</w>
电动 汽车</w>
星期 天</w>
少 女</w>
吉 姆</w>
厌 恶</w>
业务 部</w>
马克 思</w>
落 地</w>
前 途</w>
编 录</w>
沙 特</w>
中 介
高 潮</w>
小 儿</w>
中 要</w>
0 10</w>
阻 断</w>
转 储</w>
肚 子</w>
门 户
版权 所有</w>
先 知</w>
x r</w>
盘 点</w>
一 号</w>
武 装
Configu ration</w>
池 中</w>
投 放</w>
坚 信</w>
七 月</w>
周 转</w>
倾 销</w>
4 85</w>
损益 表</w>
意 外
M g
M C
好 多</w>
音响 系统</w>
滚 子</w>
其 应</w>
Sett ings</w>
N am
抗拉 强度</w>
草 稿</w>
粘 接</w>
壁 垒</w>
调 色板</w>
联系 方式</w>
第一 项</w>
当 成</w>
8. 0</w>
财务 管理</w>
自行 决定</w>
一 时间</w>
m od
胶 粘剂</w>
演 绎</w>
漂 浮</w>
十 一</w>
k Pa
死 刑</w>
拒 绝
唱 歌</w>
后 备</w>
车 床</w>
毛 巾</w>
n s</w>
潜 能</w>
PD P</w>
. html</w>
用户 组</w>
深入 研究</w>
推 翻</w>
福 音</w>
用户 手册</w>
P an
腰 带</w>
精 制</w>
赌 博</w>
砌 体</w>
理查 德</w>
孕 妇</w>
减 震</w>
ac e
澳 元</w>
漏 斗</w>
外 层</w>
E m
系统 地</w>
20 30</w>
蜂 蜜</w>
布 什
低 廉</w>
FL ARE</w>
面 具</w>
热 带
至 上</w>
I n</w>
类 产品</w>
短 期内</w>
黄 油</w>
溶 解
改 建</w>
套 餐</w>
卡 住</w>
分子 量</w>
丝 绸</w>
w s
难以 置信</w>
空 压机</w>
ie w</w>
匈牙 利</w>
裁 剪</w>
等 价</w>
清 空</w>
三 位</w>
Comm unic
阐 释</w>
积极 参与</w>
毛 病</w>
发展 前景</w>
F D
本 年度</w>
转 盘</w>
检查 员</w>
岸 上</w>
卡 罗
做 过</w>
S G</w>
机械 性能</w>
压 出</w>
印 制</w>
前 侧</w>
俄 国</w>
管辖 区</w>
商 誉</w>
Opt ions</w>
维 也
杯 子</w>
P 2
年度 报告</w>
香港 特别行政区</w>
5. 2.
森 林
善 良</w>
凝 聚</w>
I s
下 发</w>
销售 量</w>
绕 过</w>
格 尔</w>
精 炼</w>
活 门</w>
link 13</w>
1 2.5</w>
0 9
Pl ayer</w>
5 3
私 募</w>
督 促</w>
直 播</w>
病 患</w>
树 中</w>
门 票</w>
造 影</w>
负 载
装 在</w>
海 绵</w>
回 收率</w>
H K
年 均</w>
备 受</w>
马 车</w>
警 察
空气 压缩机</w>
丝 网</w>
h el
脚 下</w>
定 义
喜 剧</w>
a x</w>
开 孔</w>
IM M</w>
紧 密
境 界</w>
围 墙</w>
克里 斯</w>
互 利</w>
论 点</w>
四 月</w>
青 睐</w>
精 选</w>
f 6</w>
交易 商</w>
轮 辋</w>
游 戏
卡 扎
俄 罗斯
人 事
逃 离</w>
连接 处</w>
Re pli
雷 斯</w>
法 例</w>
动 轴承</w>
中 性
Not e</w>
16 8</w>
相 近</w>
电 所</w>
或 缺</w>
M Q</w>
顶 尖</w>
请 用</w>
营业 部</w>
平 价</w>
等 价
分 形</w>
AS C
小 型
绝 佳</w>
右 后</w>
ro r</w>
重庆 市</w>
一 顿</w>
迎 来</w>
局 限</w>
全 资</w>
v i</w>
T PM</w>
压 降</w>
维多 利亚</w>
电子 邮件
轮 询</w>
快捷 键</w>
塞 尔
it t
中 外</w>
it ect
泥 岩</w>
交易 日</w>
额定 功率</w>
荣 幸</w>
税务 局</w>
大 象</w>
全 职</w>
MR I</w>
生 殖
犹 大</w>
M ult
se c</w>
炼 油厂</w>
逼 近</w>
辈 子</w>
Int eg
裁 处</w>
者 之间</w>
挂 牌</w>
岸 线</w>
地 壳</w>
端 盖</w>
抗 氧化</w>
千 瓦</w>
V 1</w>
電 磁
电 控</w>
tr ue</w>
苷 酸</w>
大 使馆</w>
坐 落</w>
原 发性</w>
1 19</w>
脊 柱</w>
联 络
合 板</w>
Cor po
学 士学位</w>
d o
电 热</w>
工程 技术</w>
东 北部</w>
维也 纳</w>
法 在</w>
当 前
预 埋</w>
气 性</w>
第一 批</w>
下 角</w>
W A</w>
感 官</w>
海 南</w>
扣 减</w>
工业 用</w>
复 用</w>
石 材</w>
哈 佛</w>
Repli Stor</w>
失 控</w>
M pa</w>
涨 幅</w>
粪 便</w>
竞争 性</w>
排 入</w>
SD L</w>
蝴 蝶</w>
物 业
如 表</w>
好 消息</w>
高 昂</w>
盘 子</w>
毗 邻</w>
斯 托
展 览会</w>
太 高</w>
Fi re
山 西</w>
车 辆
童 年</w>
沸 腾</w>
我 家</w>
小 男孩</w>
转 角</w>
辨 别</w>
管 局</w>
F P
放射 性
总体 规划</w>
开 出</w>
建 立
id th</w>
N G
D H</w>
流 式</w>
采 办</w>
嘉 宾</w>
通 行
博 会</w>
赞 美</w>
聚 酯
结构 图</w>
防 锈</w>
出 现
下 沉</w>
对 角</w>
咳 嗽</w>
门 店</w>
长 江
该 组</w>
法律 顾问</w>
审计 师</w>
后 会</w>
停 电</w>
观 设计</w>
硕 士学位</w>
格 斯</w>
控制 策略</w>
ac t</w>
巴 巴</w>
凡 是</w>
IS T</w>
本 例</w>
an y</w>
迄 今</w>
不 平</w>
越 野</w>
施工 人员</w>
值得 注意</w>
传 出</w>
直 觉</w>
m e</w>
驳 回</w>
椭 圆形</w>
师 范
减 速
Pa int</w>
贷 方</w>
能 为</w>
斗 杆</w>
各 大</w>
移 出</w>
大大 提高</w>
ann el</w>
H ost</w>
积极 性</w>
天 候</w>
低 估</w>
防喷 器</w>
锚 定</w>
壮 大</w>
g ro
盖 茨</w>
分 派</w>
产 资源</w>
Lev el</w>
高 山</w>
由 该</w>
山 顶</w>
Ap plication</w>
恐 龙</w>
听 觉</w>
Control ler</w>
超 额</w>
树 上</w>
过 长</w>
翻 译
网 上
戴 尔</w>
传 到</w>
3 01</w>
后 盖</w>
F IT</w>
暖 风</w>
插 入式</w>
一 千
沈 阳</w>
失 真</w>
省 略</w>
垃圾 邮件</w>
互 联
糖 果</w>
檢 查</w>
封 闭式</w>
Char Style</w>
文 艺
试 车</w>
古 怪</w>
算 子</w>
最高 法院</w>
日 内
子 项</w>
金 字
恐怖 分子</w>
的 呢</w>
商 家</w>
共 聚物</w>
货 物
数 个</w>
電 缆</w>
干 式</w>
争 夺</w>
世界 大战</w>
领先 地位</w>
臀 部</w>
经济 社会</w>
病 房</w>
水 率</w>
晚 会</w>
候 选</w>
下 周</w>
上 图</w>
R DS</w>
Fl ash</w>
格 外</w>
吉 林
腹 泻</w>
算 术</w>
猩 猩</w>
卡扎 菲</w>
传 承</w>
世 卫</w>
T G</w>
A l</w>
轮 子</w>
死 于</w>
农 民
球 面</w>
楼 宇</w>
招 标人</w>
抑 郁症</w>
年 月
工程 学</w>
这 套</w>
弗 吉
奉 献</w>
会计 年度</w>
二 战</w>
街 区</w>
放 样</w>
前 门</w>
爱 因
爱因 斯坦</w>
弹 力</w>
serv er</w>
脾 气</w>
定 为</w>
轻轻 地</w>
系统 工程</w>
天 地</w>
司 令
R os
0 6
画 布</w>
女 式</w>
头 盔</w>
低 位</w>
迈 克</w>
筹 备</w>
弯 矩</w>
巨 型</w>
再 次
ext font</w>
asi ant
asiant extfont</w>
活塞 环</w>
率 为</w>
整 机</w>
抑制 作用</w>
高 层
阅 读
配 比</w>
程序 设计</w>
潜 艇</w>
亮 点</w>
小 数
仅 供</w>
设计 者</w>
基 数</w>
首 位</w>
虫 剂</w>
立 管</w>
屠 杀</w>
凝 汽
万 英镑</w>
R E</w>
重 设</w>
课 税</w>
料 斗</w>
di v</w>
膀 胱</w>
时 长</w>
律 师
G H
定 量分析</w>
加 盟</w>
服务 供应商</w>
宁 愿</w>
夏威 夷</w>
门户 网站</w>
施工 工艺</w>
忙 碌</w>
回 滚</w>
不 管
一 身</w>
f o
批 号</w>
S W</w>
F ran
O H</w>
续 期</w>
真 皮</w>
疑难 解答</w>
致 密</w>
满足 要求</w>
非常 适合</w>
这 边</w>
第一 百
真 寺</w>
好 了</w>
女 孩子</w>
信 號</w>
低 音</w>
A A
波 导</w>
打 败</w>
会员 卡</w>
D 2</w>
醒 目</w>
航空 器</w>
操作 手册</w>
不 为</w>
Con so
短 裤</w>
检查 点</w>
右 击</w>
古 典
2. 3.
热 烈</w>
清 真寺</w>
横 跨</w>
快速 增长</w>
中国 共产党</w>
连接 线</w>
新 的</w>
上 岗</w>
新 车</w>
第 七条</w>
气 机</w>
pp ort</w>
C K
莎 白</w>
热 轧</w>
波 纹</w>
三 倍</w>
x t</w>
进 一步
进一步 提高</w>
舒适 性</w>
状 体</w>
重 载</w>
避 孕
细 小</w>
loc k</w>
耐火 材料</w>
牙 膏</w>
总 行</w>
外 地</w>
商 贸</w>
抱 死</w>
利 性</w>
一小 部分</w>
p e
复 方</w>
反 腐败</w>
Ul tra
耐磨 性</w>
甘 油</w>
泵 站</w>
交 底</w>
五 十
攻击 者</w>
中 说</w>
间 谍</w>
职业 病</w>
電磁 阀</w>
雨 季</w>
厦 门</w>
香 蕉</w>
图像 处理</w>
听 器</w>
细 微</w>
心理 健康</w>
富 集</w>
暂 定</w>
振 荡
M ot
预 测
苹果 公司</w>
时 代
V 8</w>
矿 产资源</w>
牛仔 裤</w>
P e
高 中
过 早</w>
变 电所</w>
单 号</w>
人 间</w>
结 石</w>
并 入</w>
b ur
送 往</w>
货 架</w>
本 能</w>
地 狱</w>
高 斯</w>
组 委会</w>
预 审</w>
销售 收入</w>
防 抱死</w>
表 框</w>
y c
Ex t
自然 保护区</w>
曲 线图</w>
天 天</w>
高 铁</w>
责任 人</w>
老 婆</w>
含 水</w>
绑 扎</w>
整 车</w>
p re
P P
L ot
K er
警 惕</w>
电 加热</w>
鲜 花</w>
腔 镜</w>
不 堪</w>
你 方</w>
15 1</w>
钻 进</w>
绝 大部分</w>
立方 体</w>
白 皮书</w>
没 法</w>
b l
9. 4</w>
客 观
In s
考 量</w>
筹 集</w>
白 细胞</w>
V C</w>
I E</w>
流 变</w>
工程 地质</w>
封 锁</w>
GM T</w>
第 九条</w>
弃 权</w>
大 片</w>
企业 级</w>
航空 航天</w>
介 意</w>
L td</w>
雾 化</w>
前 面板</w>
Tun e</w>
江 西</w>
九 个</w>
结 转</w>
炎 热</w>
温度 场</w>
合法 性</w>
云 计算</w>
5. 8</w>
Cont ent</w>
波 纹
波 特</w>
南 海</w>
尊 严</w>
p at
全 天候</w>
珊 瑚</w>
洗 手
民 用
入 到</w>
窗 帘</w>
施 用</w>
变 现</w>
后 窗</w>
专 题
it al</w>
稍 候</w>
柱 子</w>
抗 性</w>
顺 便</w>
未 曾</w>
金融 公司</w>
勃 勃</w>
圆 圈</w>
上 调</w>
达 到
梳 理</w>
强 壮</w>
人 来</w>
H E</w>
注射 液</w>
意 识
高 空</w>
耗 费</w>
屈 曲</w>
尼 奥</w>
一 事</w>
法律 效力</w>
大 人</w>
th e
18 5</w>
进 度表</w>
巴 布
定位 系统</w>
新 娘</w>
数据 交换</w>
保护 器</w>
it ed</w>
格 鲁
极 高</w>
市场 部</w>
14 00</w>
热 能</w>
交通 量</w>
交 点</w>
内 阁</w>
1 24</w>
高 大</w>
赋 值</w>
让 步</w>
电 泳</w>
Sel ect</w>
资 产
笑 容</w>
卧 式</w>
份 文件</w>
電 气</w>
双 头</w>
T 2</w>
Fil e
试验 台</w>
无人 机</w>
另 行
列 表框</w>
蓄 水</w>
玄 武
水 深</w>
年月 日</w>
13 00</w>
1. 25</w>
运 维</w>
想 着</w>
肺 部</w>
百 度</w>
当 初</w>
外 贸</w>
地 中海</w>
m ol</w>
模 特</w>
校 核</w>
呈 交</w>
中国 建设银行</w>
记 下</w>
刻 录</w>
计 画</w>
自 如</w>
与 众
20 8</w>
财务 会计</w>
渗透 率</w>
孟加拉 国</w>
犹 豫</w>
沿 岸</w>
入 点</w>
O 3</w>
花 纹</w>
色 金属</w>
等价 物</w>
or m
4. 9</w>
16 5</w>
白血 病</w>
土 工</w>
p ort
蚂 蚁</w>
氢 氧化
陆 上</w>
地 被</w>
准 时</w>
l u</w>
H MI</w>
膜 炎</w>
月 初</w>
斜 度</w>
杰 夫</w>
搅拌 器</w>
分 娩</w>
Su pport
L if
EM A</w>
商业 模式</w>
并 列</w>
Power Point</w>
统计 局</w>
浸 渍</w>
国 主义</w>
非 金属</w>
甲 基
昆 明</w>
与众 不同</w>
不 相
公 益
作 好</w>
中 线</w>
经济 危机</w>
沙特 阿拉伯</w>
圆 锥</w>
微 弱</w>
9 000</w>
金属 板</w>
耐 压</w>
卸 料</w>
Vis ual
世 人</w>
L 1</w>
过 电压</w>
个 数</w>
CH AP</w>
ow n</w>
表 列出</w>
数据 仓库</w>
害 人</w>
花 生</w>
饱和 度</w>
诉 人</w>
缩略 图</w>
束 带</w>
意大 利
免 责</w>
主 线</w>
Ap plic
泰 勒</w>
家 禽</w>
节 省
中控 台</w>
东 南部</w>
运动 会</w>
期 初</w>
德 斯</w>
复 习</w>
兽 医</w>
专家 组</w>
O n</w>
立法 会</w>
更 新
恢复 正常</w>
安 慰
后 处理</w>
In Touch</w>
海 里</w>
am il
車 顶</w>
通 公司</w>
按 本</w>
S PS</w>
Ad obe</w>
琥 珀
应 激</w>
陕 西省</w>
避 雷
理 化</w>
土 豆</w>
储 物
v e</w>
aract er</w>
设计 图</w>
周 围
气 质</w>
否 决</w>
受 众</w>
防 潮</w>
门 框</w>
宾 客</w>
奶 奶</w>
反 演</w>
I CP</w>
工作 岗位</w>
层 空间</w>
外 层空间</w>
可 逆</w>
假 装</w>
赶 上</w>
猴 子</w>
捐 助</w>
多 彩</w>
土 建工程</w>
克 林</w>
P K
A F</w>
波纹 管</w>
多 长时间</w>
卖 家</w>
I FC</w>
着 火</w>
导 入到</w>
单 身</w>
不可 或缺</w>
Op en</w>
这 本</w>
项 式</w>
建 材</w>
原 产地</w>
第 八条</w>
池 塘</w>
来 电</w>
常 务</w>
天 平</w>
场 外</w>
关 上</w>
十 大</w>
三 名</w>
台 风</w>
艾滋 病毒</w>
情 人</w>
几 内
体 力</w>
s ch
电 信
更 强</w>
控制 杆</w>
197 6</w>
设计 阶段</w>
看 成</w>
数据 管理</w>
性能 指标</w>
贮 藏</w>
翻 新</w>
居 中</w>
命 中</w>
i er</w>
平均 水平</w>
布 里
d a</w>
起 着</w>
千 分
入 口处</w>
Re qu
马 力</w>
厨 师</w>
中 外
毫 不</w>
花 键</w>
可 见
乳 酸</w>
et t
走 势</w>
系统 对</w>
发 表
D FS</w>
心 病</w>
a o</w>
粉 红色</w>
9 6
派 出</w>
构造 函数</w>
乳 房</w>
ru ct
W MI</w>
调 整
散 布</w>
奥 尔
Rep ort
CA M</w>
C 3</w>
黑 洞</w>
万 个</w>
e k</w>
风 向</w>
静 脉
覆盖 层</w>
被 称作</w>
思 议</w>
Ob ject</w>
统治 者</w>
院 子</w>
花 钱</w>
工程 部</w>
丑 闻</w>
P 0</w>
00 0.00</w>
IT B</w>
2 2.
击 中</w>
首 批</w>
趋 于</w>
警 戒</w>
裁判 官</w>
尖 锐</w>
密封 条</w>
G R</w>
用 语</w>
克 拉</w>
斯 洛
悬 臂</w>
安慰 剂</w>
坡 口</w>
公用 事业</w>
w h
form ation</w>
威尔 士</w>
并 行
大 型机</w>
回 放</w>
中 度</w>
Dis k</w>
水 溶液</w>
政 策
压 紧</w>
侧 板</w>
降 雨量</w>
艾 伦</w>
税 前</w>
用 餐</w>
涤 纶</w>
实施 方案</w>
九 月</w>
杀 虫剂</w>
叉 车</w>
WebS phere</w>
V Tune</w>
给 水泵</w>
管 径</w>
第五 章</w>
空气 污染</w>
有 制</w>
L V
陪 同</w>
折 射
明 示</w>
U N</w>
一 维</w>
选 票</w>
偏 置</w>
iv ers
缺 席</w>
面 包
称 赞</w>
拉 德</w>
专 职</w>
D rive</w>
液压 缸</w>
反 抗</w>
u b</w>
逃 生</w>
城 镇
世界 卫生组织</w>
智能 卡</w>
股份 公司</w>
缘 故</w>
社会 保险</w>
围 堰</w>
SC M</w>
R MS</w>
评 述</w>
生长 因子</w>
瑜 伽</w>
活塞 杆</w>
业 内</w>
铅 笔</w>
疲 软</w>
指标 体系</w>
或 用</w>
固定 器</w>
低 迷</w>
褪 色</w>
气 源</w>
不可 思议</w>
装 货</w>
网络 适配器</w>
报 复</w>
恒 温</w>
填 满</w>
半 成品</w>
3 00
金字 塔</w>
薄 弱</w>
参考 文献</w>
二 十年</w>
初步 设计</w>
卡 钳</w>
标 头</w>
关 掉</w>
掺 杂</w>
Administ rator</w>
钓 鱼</w>
收 于</w>
I G</w>
H ART</w>
微 量
肥 皂</w>
叔 叔</w>
侦 察</w>
木 制</w>
亚历 山
ASC II</w>
5. 1.
弹性 体</w>
卡 特</w>
管理 软件</w>
人 文
增 至</w>
严格 控制</w>
we b</w>
U R</w>
一 向</w>
辣 椒</w>
回 火</w>
以 南</w>
节 约
娃 娃</w>
埋 件</w>
Joh n</w>
题 为</w>
布 设</w>
人际 关系</w>
IR M</w>
货 款</w>
税 金</w>
免疫 系统</w>
a c</w>
库 房</w>
土 墙</w>
后 应</w>
二 百
AX 4</w>
藉 由</w>
花 粉</w>
更 能</w>
纬 度</w>
丙 酮</w>
部 门
透 气性</w>
口 感</w>
地球 化学</w>
形 貌</w>
兼 顾</w>
it h</w>
S K</w>
报 价
E ff
1 10
辽 宁
舌 头</w>
搜 查</w>
力 求</w>
G 1</w>
血 管
碳 水
碳水 化合物</w>
外 国
伊 丽
第二 阶段</w>
极 致</w>
心 轴</w>
内 燃机</w>
解 开</w>
海 关
心理 学家</w>
二 烯</w>
煤 机</w>
导 则</w>
防 水
赞 扬</w>
说 来</w>
itect ure</w>
as cript</w>
获 奖</w>
沟 渠</w>
意 味</w>
尽 头</w>
家 居</w>
201 9</w>
13 3</w>
总 成本</w>
sy st
牵 头</w>
子 孙</w>
出 席会议</w>
转 身</w>
热 塑性</w>
日 语</w>
提示 符</w>
打 扰</w>
丝 毫</w>
安全 检查</w>
总 工程师</w>
力 器</w>
之 道</w>
9 9.
宇航 员</w>
好 转</w>
各 界</w>
灿 烂</w>
核 证</w>
样 例</w>
开 端</w>
备 有</w>
wit ter</w>
特 拉
堆 叠</w>
1. 00</w>
黑 白</w>
软件 产品</w>
极 少</w>
投票 权</w>
约翰 逊</w>
数 百万</w>
总 署</w>
左 手</w>
静 压</w>
毫 克</w>
V irt
支 气管</w>
伸 长</w>
ra l</w>
8 50</w>
那 条</w>
日内 瓦</w>
搁 置</w>
坡 道</w>
后 卫</w>
油 轮</w>
民 航</w>
有效 值</w>
海 平面</w>
残 酷</w>
捷 豹</w>
崭 新</w>
网 路</w>
无 功</w>
不 算</w>
选 购</w>
无线 网络</w>
慈 善
us er</w>
轻 重</w>
股票 市场</w>
气 道</w>
统 称</w>
Un ic
线 槽</w>
直流 电源</w>
直 接
电源 插座</w>
Info Path</w>
这 篇</w>
译 文</w>
自由 基</w>
小 规模</w>
保 健
端 接</w>
玄武 岩</w>
暴 力
时 有</w>
列 中</w>
管理 中心</w>
狂 热</w>
读 取
海 滨</w>
T D</w>
曲 目</w>
实 业</w>
参 展商</w>
储 能</w>
硅 胶</w>
歌 唱</w>
特 兰
安 东
15 2</w>
换 向</w>
星 形</w>
商 机</w>
仅 供参考</w>
临 时
View er</w>
G T</w>
监护 人</w>
打 入</w>
丙 烷</w>
吸 取</w>
纳 德</w>
病 因</w>
恋 爱</w>
凝汽 器</w>
温 州</w>
深 厚</w>
尽 情</w>
铲 刀</w>
课 堂
万 平方米</w>
符合 标准</w>
坟 墓</w>
区 中</w>
云 南省</w>
爱德 华</w>
副 总经理</w>
乙 酯</w>
Ma x
I B</w>
违法 行为</w>
市场 化</w>
山 坡</w>
今 天
书 中</w>
SA M</w>
肝 癌</w>
密封 面</w>
R ange</w>
单 线</w>
恰 好</w>
im g</w>
角 度
举 例</w>
经常 性</w>
爆 震</w>
剧 本</w>
Pa d</w>
CO O
面 粉</w>
渗 流</w>
微量 元素</w>
运 至</w>
财产 损失</w>
询 价</w>
爆炸 性</w>
放 出</w>
邀 请
相 连接</w>
植 株</w>
预 紧</w>
静 音</w>
被 控</w>
精 矿</w>
环境 变量</w>
斯 里兰
先 天性</w>
作 废</w>
us t</w>
起 见</w>
力 场</w>
经济 损失</w>
系 带</w>
构 思</w>
数据 结构</w>
公 益</w>
机 油泵</w>
T L</w>
AS T</w>
记录 仪</w>
结构 钢</w>
轮 椅</w>
线 形</w>
巨 额</w>
党 派</w>
眼 球</w>
流 传</w>
電 阻</w>
肾上 腺素</w>
熟 知</w>
风 光</w>
暴 风雨</w>
一 丝</w>
MO ST</w>
治 安</w>
. j
胡 子</w>
u ro
R O</w>
超 标</w>
呕 吐</w>
切 断
伊 利
d es
输出 功率</w>
伤 心</w>
高 产</w>
防护 罩</w>
留 学</w>
宝 马</w>
14 6</w>
薄 壁</w>
美国 联邦</w>
然 不同</w>
处理 过程</w>
二 年</w>
s m
阿 姆
紊 乱</w>
闭 环</w>
理论 依据</w>
工 装</w>
定 点</w>
蓝 图</w>
法定 人数</w>
Mob ile</w>
Inst all
受 人</w>
承 租
因 于</w>
嘲 笑</w>
优 秀
学 生
ri c</w>
迷 你</w>
接线 图</w>
挽 救</w>
当地 政府</w>
应 付款</w>
内 蒙古</w>
领导 力</w>
斯 通</w>
接地 系统</w>
发 运</w>
an s</w>
格 里
价 钱</w>
ur n</w>
抖 动</w>
后 门</w>
水泥 浆</w>
领导 小组</w>
良 性</w>
波 士
期 付款</w>
守 护</w>
位 计</w>
青 春
拆 下
和 谐
凝 剂</w>
ag es</w>
自 发</w>
海 面</w>
山 西省</w>
孢 子</w>
T yp
本 届</w>
数字 签名</w>
开 阔</w>
H VAC</w>
蒙 特</w>
2 35</w>
庭 院</w>
回顾 性</w>
p ort</w>
间 隔
接 字</w>
全 景</w>
事业 部</w>
移 走</w>
架 结构</w>
第十 条</w>
竖 直</w>
知 觉</w>
修 道
热 水器</w>
捉 到</w>
屏 幕
四 季</w>
香 水</w>
另一 侧</w>
成本 低</w>
得 益于</w>
城市 规划</w>
光 芒</w>
Po d</w>
粘 稠</w>
6. 8</w>
Edit ion</w>
演 说</w>
上 行</w>
鲨 鱼</w>
窒 息</w>
浸 入</w>
尔 曼</w>
DM P</w>
精 心
以 为
一 年
联 机
ust om
光 亮</w>
WIN S</w>
英 亩</w>
苯 胺</w>
符合 条件</w>
热 源</w>
封 口</w>
可执行 文件</w>
伊丽 莎白</w>
均 值</w>
f alse</w>
T ool</w>
数据 量</w>
二 阶</w>
试验 设备</w>
根据 上述</w>
中华 民族</w>
投资 银行</w>
战斗 机</w>
意识 形态</w>
吊 顶</w>
信贷 风险</w>
供 款</w>
IP O</w>
状态 栏</w>
共同 努力</w>
产业 链</w>
碳 氢
每 组</w>
Sco pe</w>
轿 厢</w>
班 级</w>
测 评</w>
桥 墩</w>
13 .</w>
取得 成功</w>
接 获</w>
尾 灯</w>
举 起</w>
西 南
凸 起</w>
倒 塌</w>
经营 范围</w>
磨 料</w>
敏感 度</w>
屋 里</w>
阻尼 器</w>
推 车</w>
合 一</w>
务 实</w>
价值 链</w>
临床 意义</w>
警 示
基金 组织</w>
可 观</w>
ar k</w>
CA T</w>
物理 学家</w>
同 轴</w>
in o</w>
软 弱</w>
患 病</w>
储 存
五 种</w>
三 类</w>
登 机</w>
正 值</w>
分 页</w>
超 临界</w>
本 会</w>
冰 淇
效 率高</w>
P ri
难 过</w>
局 限于</w>
在 我
8. 6</w>
遮 挡</w>
硫 磺</w>
惟 一</w>
场 面</w>
三 点</w>
Ch annel</w>
摊 铺</w>
可 惜</w>
S F</w>
Cur r
问 卷
问卷 调查</w>
进 气管</w>
身体 健康</w>
实 务</w>
哈 佛
卡 人</w>
逆 向</w>
十 月</w>
三 明
MA N</w>
笔 划</w>
德 语</w>
土 机</w>
压 迫</w>
体 型</w>
腺 炎</w>
值 时</w>
中 欧</w>
b u
蜘 蛛</w>
番 茄</w>
开展 业务</w>
S EC</w>
G re
栏 中</w>
标 度</w>
接合 处</w>
填 报</w>
一 下
P ublisher</w>
美 分</w>
内存 不足</w>
经 贸</w>
河 谷</w>
p a
J e
顾 及</w>
洽 谈</w>
锁 闭</w>
锁 扣</w>
m o</w>
G W
锦 标
教育 部</w>
加 氢</w>
再 说</w>
高尔夫 球</w>
铃 声</w>
端 口号</w>
出 自</w>
内 圈</w>
Dynam ics</w>
而 后</w>
观 者</w>
花 园
率 先</w>
心 跳</w>
学 分</w>
重 度</w>
存储 模块</w>
参 和
刺 激
占 位</w>
玩 耍</w>
春 节</w>
音 译</w>
强烈 建议</w>
前列 腺</w>
锦标 赛</w>
造 纸</w>
嘴 里</w>
下 令</w>
递 归</w>
呼吸 器</w>
二 层</w>
B 2
阳 台</w>
极 好</w>
征 得</w>
取 自</w>
二十 世纪</w>
Lin k
2 1.
回 调</w>
马 拉</w>
碳氢 化合物</w>
烯 烃</w>
差 错</w>
善 意</w>
休 克</w>
世 行</w>
Mich a
硫 化物</w>
深 水</w>
招 股</w>
婚 姻
ma il
西班牙 语</w>
有线 电视</w>
承 重</w>
导 游</w>
定 型</w>
二 人</w>
Im age</w>
林 地</w>
开 户</w>
巨 大
女 朋友</w>
t w
9 99</w>
00 5</w>
路 机</w>
湖 南省</w>
欢 迎
机动 车辆</w>
开 办</w>
E dit</w>
知 悉</w>
引 爆</w>
co mm
U X</w>
起 动机</w>
方 程
增长 速度</w>
河 北</w>
氏 硬度</w>
技术 性</w>
K S</w>
10. 5</w>
高 通公司</w>
操纵 器</w>
归 属于</w>
出 线</w>
图 样</w>
水 龙头</w>
时 请</w>
患 儿</w>
失 调</w>
独 资</w>
水 平面</w>
管 状</w>
科 尔</w>
拉 姆</w>
幕 式</w>
1 1.1</w>
购买 者</w>
理 赔</w>
体 上</w>
雄 厚</w>
门 上</w>
甲 苯</w>
SE L
这 辆</w>
气 站</w>
色 泽</w>
港 元</w>
药 材</w>
票 价</w>
字 幕</w>
音 速</w>
目 测</w>
栓 塞</w>
代 码
生产 成本</w>
刑 罚</w>
检 波器</w>
大 酒店</w>
公用 设施</w>
当 做</w>
大 米</w>
黄 土</w>
须 经</w>
车 轴</w>
推 广
水 阀</w>
拦 截</w>
勒 斯</w>
雅 虎</w>
移 動</w>
交流 电</w>
两 级</w>
g et
香 气</w>
面 对面</w>
看 电视</w>
试 用
艰 苦</w>
标 出</w>
上 应</w>
爱 人</w>
泊 位</w>
5. 3.
黑 客</w>
民 间
形 态
巴 克</w>
医 学院</w>
N F</w>
Corpo ration</w>
20 6</w>
选 件</w>
第二 种</w>
河 口</w>
播放 机</w>
异 化</w>
小 孩子</w>
对外 贸易</w>
乔 布斯</w>
温 差</w>
ss ize</w>
complexscript ssize</w>
振荡 器</w>
or g</w>
IC E</w>
防 尘
国 旗</w>
交 由</w>
录 名</w>
个人 电脑</w>
三 项</w>
越 多</w>
磷 酸盐</w>
治疗 师</w>
放 映</w>
基 岩</w>
右 上角</w>
发电 量</w>
前 轴</w>
戏 剧
起 床</w>
包 装箱</w>
SE Q</w>
对 称
哭 泣</w>
京 东</w>
自然 界</w>
华 为</w>
ro id</w>
lb s</w>
本 品</w>
投资 收益</w>
醋 酸</w>
逃 跑</w>
火 警</w>
条 带</w>
角 钢</w>
聚 合
砂 轮</w>
八 月</w>
站 场</w>
眼 神</w>
回 波</w>
首 页</w>
面 值</w>
雷 电</w>
转 接</w>
前 线</w>
隐 含</w>
换 成</w>
M em
综合 症</w>
控制 板</w>
高 清</w>
随 身
p ublisher</w>
质 子</w>
淤 泥</w>
录 取</w>
尔 文</w>
通风 口</w>
温 升</w>
中间 轴</w>
下 水道</w>
疏 水</w>
热 稳定性</w>
清 晨</w>
时 区</w>
上 演</w>
d oc
X 2</w>
N ULL</w>
示 范
架 子</w>
服务 公司</w>
壮 观</w>
ion al</w>
Sp ace</w>
长 长的</w>
礼 仪</w>
整 整</w>
保 卫</w>
COO EC</w>
流 水
s h</w>
顶 面</w>
腿 部</w>
结 构件</w>
时 装</w>
批 发
商业 化</w>
L ist</w>
H ot
舞 会</w>
波 特
控制 箱</w>
坏 死</w>
供 电
黄 酮</w>
背 心</w>
科 威特</w>
哈 拉</w>
x2 122</w>
ub l
青岛 市</w>
电源 开关</w>
哲 学家</w>
不 肯</w>
A H
陌 生</w>
棒 球</w>
弗兰 克</w>
ke t
Net work</w>
遗 迹</w>
成 矿</w>
六 十</w>
滴 定
涵 义</w>
承租 方</w>
社会 科学</w>
申请 单</w>
密集 型</w>
噪 声
Dis cover
14 1</w>
落 下</w>
沙 子</w>
调查 报告</w>
股东 权益</w>
第三 节</w>
好 看</w>
全 省</w>
组织 者</w>
连 结</w>
网 状</w>
感应 器</w>
主 梁</w>
V PN</w>
阴 极
进 水口</w>
圆柱 体</w>
不 列
求 得</w>
握 住</w>
迫 切
核 苷酸</w>
de f
通讯 簿</w>
当地 人</w>
子 网</w>
侧 边</w>
val ue</w>
Dis k
高 盛</w>
饰 板</w>
遗 留</w>
特 里</w>
包 容</w>
ar i
连接 起来</w>
演 讲
平 方</w>
漫 步</w>
停 下</w>
软 盘</w>
小 屋</w>
印 有</w>
义 务人</w>
符合 规范</w>
使用 量</w>
超 出
三 星</w>
等 值</w>
应 计</w>
公 会</w>
交 所</w>
p er</w>
雅 典</w>
轴 颈</w>
核 能</w>
复 查</w>
协 同
One Note</w>
M 12</w>
角度 看</w>
绘 图
愉 悦</w>
吸 附
不列 颠</w>
ic t
路 线图</w>
精 通</w>
摇 摆</w>
标志 性</w>
在 意</w>
分 立</w>
B L
第 一种</w>
暂 时性</w>
最 先</w>
发 证</w>
单 井</w>
中 空</w>
责任 感</w>
收 发</w>
MP 3</w>
人 应</w>
l l
i Pod</w>
挠 度</w>
巷 道</w>
安 徽
第十 一条</w>
生态 学</w>
心 室</w>
非 营
紧 接</w>
拧 松</w>
预 备
耗 时</w>
夹 杂</w>
佛罗里 达</w>
传 真
质量 检验</w>
级 社</w>
大 火</w>
冰淇 淋</w>
赶 到</w>
草 药</w>
学 士</w>
关键 性</w>
热 浸</w>
双 眼</w>
凯 恩</w>
9 8
is or</w>
in ter
H a
食 堂</w>
附加 费</w>
西 北
缴 费</w>
Qu ick
证券 市场</w>
斯 达
加 纳</w>
价格 上涨</w>
严 谨</w>
船 级社</w>
理 智</w>
涉 嫌</w>
沙 拉</w>
上 会</w>
肯 尼
B ra
未 决</w>
小 心
冶 炼</w>
纱 线</w>
解 体</w>
新华 社</w>
手 轮</w>
好 几个</w>
中 产阶级</w>
complexscripts font</w>
5 12</w>
建 于</w>
一点 儿</w>
I e</w>
审计 报告</w>
防 渗</w>
辽宁 省</w>
终 极</w>
权 衡</w>
吊 钩</w>
体 温</w>
4 20</w>
该 款</w>
宾 夕
T PS</w>
造 就</w>
拉 夫</w>
带 状</w>
压 盖</w>
全 是</w>
大 灯</w>
博 士
jav ascript</w>
来 宾</w>
性 行为</w>
x 1</w>
构成 犯罪</w>
I CS</w>
竖 井</w>
EC S</w>
根 目录</w>
不 成</w>
起 计</w>
摩 根</w>
形 尺寸</w>
封 存</w>
富 翁</w>
外 形尺寸</w>
3 10</w>
行 者</w>
泵 房</w>
油 污</w>
品 味</w>
十 八</w>
伦 比</w>
4 2
跌 落</w>
谎 言</w>
西 南部</w>
停 滞</w>
5 2
降 压</w>
创新 能力</w>
上 锁</w>
B H
砌 筑</w>
目 表</w>
Gro up
牢 牢</w>
追 逐</w>
捕 捉到</w>
安 妮</w>
奇 妙</w>
国际 货币
医疗 机构</w>
偶 像</w>
优 质
坦 桑
ID E</w>
0. 75</w>
顺 畅</w>
滑 轨</w>
气 量</w>
毛泽 东</w>
构 型</w>
N P</w>
伦 斯</w>
不 远</w>
恩 斯</w>
第 七</w>
接 头
喷 头</w>
气 藏</w>
冷 藏</w>
修 理
一 到</w>
r y
被 害人</w>
直 角</w>
T witter</w>
I mp
D u
车 体</w>
活 泼</w>
误 导</w>
强 势</w>
t xt</w>
L H</w>
银 色</w>
转化 成</w>
总的 来说</w>
复 审</w>
和谐 社会</w>
倒 入</w>
闪 光灯</w>
质 感</w>
标准 偏差</w>
攀 升</w>
批 评
薄 片</w>
第十 二条</w>
火 力</w>
气 罐</w>
侦 查</w>
AB B</w>
考 古</w>
油 画</w>
握 手</w>
持 有者</w>
及 时
一 棵</w>
E P
社会 学</w>
护 板</w>
利 班</w>
万 一</w>
F R
E 1</w>
马 铃
汉 堡</w>
收 拾</w>
萨 诸
大 类</w>
Fr ont
血 红
苯 基</w>
熟 练
V R</w>
V ER
饰 品</w>
大 笑</w>
N PT</w>
负责 管理</w>
疏 松</w>
所 持</w>
道 岔</w>
标准 规定</w>
名 声</w>
压 路机</w>
事 件
d el
齿 条</w>
隐 瞒</w>
通 过
玛 丽
后 悔</w>
划 定</w>
穿 刺</w>
照 度</w>
栏 目</w>
异 丙
市场 竞争</w>
H2 S</w>
给 付</w>
制动 液</w>
超 载</w>
农 户</w>
溯 到</w>
损 毁</w>
大 幅
从 没</w>
H R
6. 2.
风 景
自来 水</w>
日 间</w>
征 地</w>
存储 容量</w>
可 谓</w>
判 别</w>
事 儿</w>
O DBC</w>
身 处</w>
文 凭</w>
意 料</w>
安 定</w>
马 路</w>
女 神</w>
中 立</w>
巴 斯</w>
pl ain</w>
im age</w>
综合 利用</w>
漫 画</w>
原 装</w>
压 表</w>
魔 鬼</w>
加热 炉</w>
c m2</w>
邮 票</w>
启 動</w>
出 任</w>
会 晤</w>
任务 栏</w>
F M
邓 小
路 虎</w>
习 惯
胜 地</w>
神经 系统</w>
客 运
进 气口</w>
详细 描述</w>
留 言</w>
万 物</w>
htt p</w>
Def ault</w>
预 料</w>
编 程
管理 费用</w>
宾夕 法
几 百
证券 商</w>
出口 商</w>
i um</w>
开 标</w>
N 2</w>
西 北部</w>
河 岸</w>
天 后</w>
大 事</w>
使 该</w>
建设 性</w>
应 予以</w>
塔 利班</w>
AP 1000</w>
0. 15</w>
蘑 菇</w>
深 海</w>
检察 官</w>
出 场</w>
M W
磺 酸</w>
抵 触</w>
小 时数</w>
对 价</w>
去 过</w>
刮 器</w>
Pro f
19 72</w>
旗 帜</w>
主 题
捕 鱼</w>
已 满</w>
封 头</w>
秘 鲁</w>
石油 化工</w>
存储 卡</w>
包 方</w>
动 用</w>
Col lect
C u
经 贸
百 叶
打 扮</w>
开 源</w>
书 店</w>
海 地</w>
出 国</w>
急 需</w>
层 状</w>
Ke y
C an
缺 氧</w>
总 管</w>
丝 绸
篮 子</w>
海 鲜</w>
时 说</w>
a x
渗透 性</w>
进 线</w>
覆盖 范围</w>
拓 宽</w>
报告 书</w>
复 议</w>
吉 尔</w>
中 非</w>
自动 检测</w>
索 马里</w>
甲 乙
想 象
工业 区</w>
宋 体</w>
克 鲁
保 暖</w>
下 划线</w>
工 位</w>
SY S</w>
皮 层</w>
动 箱</w>
绝 热</w>
第十 三条</w>
法 制</w>
敞 开</w>
张 紧器</w>
奇 特</w>
上 移</w>
核 电</w>
斯里兰 卡</w>
好 评</w>
多 项式</w>
保 留
代 人</w>
产品 线</w>
exp nd
躯 干</w>
裂 解</w>
斜 面</w>
心 电图</w>
原 产</w>
分 动箱</w>
内 战</w>
公 吨</w>
C G</w>
轻 便</w>
水 坝</w>
最 优化</w>
O M
知名 度</w>
渐 进</w>
水 系统</w>
整 定</w>
持 卡人</w>
录 像
前 行</w>
必 然
争 吵</w>
中 用</w>
SL A</w>
7 000</w>
19 2</w>
预 置</w>
极 小</w>
收 发器</w>
慷 慨</w>
复 数</w>
GB 50
桌 面上</w>
换 挡</w>
招 生</w>
导 性</w>
司令 部</w>
军 用</w>
门 前</w>
卡 路
ut e</w>
7. 8</w>
贝 克</w>
雅 各</w>
进 食</w>
应 使</w>
锯 齿</w>
请 求
相 变</w>
浆 液</w>
流行 病学</w>
两 张</w>
甲乙 双方</w>
充 斥</w>
饮 酒</w>
规 模
第 八</w>
牛 仔</w>
雨 刮器</w>
发 誓</w>
公 积</w>
不 需</w>
供 暖</w>
体育 场</w>
丰 厚</w>
C U
问 候</w>
行 列</w>
百叶 窗</w>
电解 质</w>
e h
13 6</w>
注 浆</w>
待 定</w>
粘 膜</w>
云 母</w>
石 方</w>
得 出
得出 结论</w>
同 心</w>
卡路 里</w>
出 门</w>
近 距离</w>
该 笔</w>
筛 查</w>
理 事</w>
熔 体</w>
涂 上</w>
不 着</w>
et a</w>
概 率
地 线</w>
圆 周</w>
信 徒</w>
绝缘 材料</w>
尼 古
众 议院</w>
L 2</w>
197 3</w>
電 源</w>
拉 紧</w>
关 闭
购 单</w>
技术 员</w>
充 实</w>
交 织</w>
锋 利</w>
过 往</w>
超 大</w>
睡 着</w>
参 展</w>
全国 性</w>
从业 人员</w>
is h
纵 横</w>
第十 四条</w>
洗衣 机</w>
小 伙
兰 德</w>
亦 然</w>
13 4</w>
更 佳</w>
n o
餐 具</w>
见 过</w>
清洁 度</w>
洋 葱</w>
油 温</w>
巨 人</w>
化 肥</w>
遗传 学</w>
送 风</w>
离心 泵</w>
海 员</w>
复 合物</w>
款 单</w>
桩 基</w>
传染 性</w>
W SDL</w>
F O</w>
末 期</w>
星期 日</w>
太 空
兴 建</w>
想象 力</w>
模 式
摩擦 力</w>
喷 射器</w>
群 组</w>
支 线</w>
对 立</w>
典 范</w>
块 状</w>
高 点</w>
走 私</w>
在 职</w>
F DA</w>
计算机 上安装</w>
常见 问题</w>
电 导率</w>
武汉 市</w>
杀 菌</w>
日程 表</w>
抽 水</w>
会 用</w>
Techn olog
正 比</w>
旅 途</w>
巴 塞尔</w>
基 站</w>
先 锋</w>
乐 于</w>
风 门</w>
重 塑</w>
边界 条件</w>
菲 利
度假 村</w>
各向 异性</w>
分 校</w>
u i</w>
ot h</w>
承 接</w>
情 愿</w>
一 整天</w>
一 一</w>
首 饰</w>
相似 性</w>
核 定</w>
学 业</w>
佛罗里 达州</w>
三 是</w>
铜 矿</w>
巴 嫩</w>
会 以</w>
遗 忘</w>
正 直</w>
斜 率</w>
寄 生
Un ivers
数 月</w>
宇 宙
储 藏</w>
l and</w>
er y
装 设</w>
掉 落</w>
H SS</w>
回 转
马铃 薯</w>
身 穿</w>
晚 饭</w>
P AT
E U</w>
重 点
近 几
次 世界大战</w>
s .
V el
时 序</w>
备 份文件</w>
乙 炔</w>
纪 要</w>
献 给</w>
权 威
承 销</w>
友 好
冷却 塔</w>
内 含</w>
Sm art</w>
失 衡</w>
从 小</w>
玉 米
波士 顿</w>
定 居</w>
划 痕</w>
相 容性</w>
海 边</w>
扩 增</w>
一 式</w>
um e</w>
远程 桌面</w>
設 定</w>
耐 热</w>
亚 特兰
中 级</w>
中 标人</w>
r it
E le
轨 电车</w>
有 钱</w>
布 满</w>
几内 亚</w>
道路 交通</w>
抢 救</w>
可 溶性</w>
通用 电气</w>
选择 权</w>
舰 队</w>
皱 纹</w>
单 机</w>
ro ot</w>
风险 投资</w>
陶 瓷
漏 水</w>
异 步
各 州</w>
Fl u
E x</w>
参 加
公 关</w>
负载 平衡</w>
稳定 器</w>
浮 选</w>
so c
U D
In it
级 配</w>
分 红</w>
其 间</w>
I EC
陪审 团</w>
叙 事</w>
反 恐</w>
EE D</w>
德克萨 斯州</w>
风 挡</w>
被 捕</w>
莱 斯</w>
略 有</w>
居 室</w>
格 线</w>
无 害</w>
EN TER</w>
理 想
工 商</w>
威 斯
北 极
mp h</w>
结构 调整</w>
琥珀 色</w>
替代 品</w>
共 存</w>
oo t</w>
得 起</w>
管 上</w>
石 块</w>
相 继</w>
浪 涌</w>
人 须</w>
之 久</w>
管 柱</w>
眼 里</w>
入 量</w>
网络 化</w>
民 国</w>
广播 公司</w>
复 式</w>
内 壁</w>
下 半年</w>
皮 肤
报 关</w>
圆柱 形</w>
T el
邻 国</w>
越 性</w>
坚 持
列 车
0. 001</w>
近 几年</w>
剪 切
DE F</w>
通风 管</w>
如 要</w>
F act
梯 形</w>
阳 性
E SD</w>
而 言之</w>
磁带 库</w>
有 史
有史 以来</w>
安徽 省</w>
Pl at
秉 承</w>
癫 痫</w>
T ER
Bo x
称 呼</w>
照明 设备</w>
排 气阀</w>
手 势</w>
想 不到</w>
加 装</w>
高 地</w>
量 子
同 胞</w>
养 成</w>
f e
Conso le</w>
核 酸</w>
不起 作用</w>
PC Ie</w>
A V</w>
面 罩</w>
货物 运输</w>
等 奖</w>
土 体</w>
偏 低</w>
或 经</w>
态 性</w>
酬 金</w>
第一 年</w>
沉 渣</w>
污 物</w>
完全 符合</w>
压 头</w>
不 下</w>
赛 场</w>
拖 欠</w>
基督 徒</w>
中央 政府</w>
n g</w>
Des k
打 交道</w>
bo x</w>
泉 水</w>
榜 样</w>
体 制
N R
16 3</w>
连 串</w>
远 方</w>
贪 婪</w>
能 效</w>
方 便
排 泄</w>
a il</w>
系统 软件</w>
安 徽</w>
P art</w>
M CC</w>
环 状</w>
塞 子</w>
双 脚</w>
R ad
天文 学家</w>
出版 商</w>
必 定</w>
兴 奋
qu e</w>
o u</w>
证券 化</w>
薪 金</w>
舞 弊</w>
打 桩</w>
好 运</w>
197 4</w>
而 异</w>
机械 化</w>
抢 劫</w>
互 相
填 列</w>
锥 体</w>
形态 学</w>
大肠 杆菌</w>
图像 文件</w>
监 理人</w>
外 圈</w>
半 小时</w>
主 键</w>
7 5
学 说</w>
资金 来源</w>
联 营</w>
15 6</w>
礼 拜</w>
珍 惜</w>
题 材</w>
养 分</w>
ph a</w>
各 不相同</w>
公司 债券</w>
b r
邮 轮</w>
解放 军</w>
装 订</w>
民 营</w>
机械 加工</w>
害 虫</w>
失 灵</w>
回 收
D ri</w>
赞助 商</w>
剔 除</w>
13 8</w>
生产 厂家</w>
听 从</w>
叫 声</w>
南 极</w>
三明 治</w>
7 8
名 誉</w>
海 岸线</w>
废 液</w>
发动 机舱</w>
十二 月</w>
举 止</w>
一 共</w>
10 00
记录 表</w>
美 景</w>
乘 法</w>
4 15</w>
福 德</w>
大 写字母</w>
用 油</w>
棘 手</w>
. microsoft.com/
粒 体</w>
之 人</w>
yn c</w>
航 海</w>
嫁 给</w>
四 次</w>
专利 法</w>
播 出</w>
几 十
M F</w>
税 项</w>
狩 猎</w>
y z
Stat us</w>
万 亿美元</w>
M en
疫 情</w>
德 国
V E</w>
P PP</w>
19 75</w>
相 干</w>
盘 管</w>
申 报表</w>
无 知</w>
技术 改造</w>
夜 里</w>
ra n</w>
on d</w>
L ab
苛 刻</w>
响 应
首 领</w>
功能 表</w>
n ull</w>
音 符</w>
阿 森
重 整</w>
输出 模块</w>
特殊 性</w>
几 位</w>
监管 局</w>
余 量</w>
带 回</w>
实用 工具</w>
名 片</w>
纽约 州</w>
投 影
展 位</w>
SA T</w>
灰 度</w>
EN T</w>
Act iv
17 4</w>
晶 格</w>
水 压
改 写</w>
多 行</w>
Val id
19 00</w>
问 题
结 账</w>
案 设计</w>
拌 合</w>
目 睹</w>
澳 门
沼 泽</w>
决 不</w>
eng er</w>
聚 力</w>
称 量</w>
国际货币 基金组织</w>
UN C</w>
非常 简单</w>
中 东
时 髦</w>
数据 挖掘</w>
卫生 部</w>
专利 申请</w>
微 妙</w>
g er</w>
早 于</w>
如 上所述</w>
夸 张</w>
回 头</w>
中 途</w>
el s</w>
co m
装 机
巴 尔
分 手</w>
l ight</w>
表 面积</w>
ST D</w>
镜 片</w>
脉 冲
管理 信息系统</w>
探 险</w>
先 行</w>
a u
队 友</w>
长 途
汽 車</w>
方 块</w>
推 向</w>
传 染</w>
不 饱和</w>
7. 7</w>
誉 为</w>
比 喻</w>
总 账</w>
R el
现 货</w>
热 泵</w>
激 进</w>
宽 容</w>
台 面</w>
SC C</w>
工艺 技术</w>
封 堵</w>
吉 尔
爱 心</w>
测 点</w>
多 台</w>
F OR
转 而</w>
水 溶性</w>
H F</w>
Anal ys
难 忘</w>
结核 病</w>
瑞 拉</w>
上 以</w>
五 大</w>
SO P</w>
非 法
根本 上</w>
假 名</w>
传 播
从 根本上</w>
超出 范围</w>
石 英
Ass ist</w>
Al t</w>
数 千
北 韩</w>
方 案设计</w>
料 器</w>
乃 是</w>
N IK
富 人</w>
卷 上</w>
主 体
Eff ect
讲 师</w>
调 味
肤 色</w>
清 漆</w>
断 言</w>
卷 入</w>
挥 发</w>
增 减</w>
该 区</w>
粘 结
副 产品</w>
亚历山 大</w>
侵 袭</w>
高度 重视</w>
螺旋 桨</w>
福 利
牙 科</w>
服 務</w>
圆 筒</w>
单 点</w>
一氧化 碳</w>
时 分</w>
布 尔
or der</w>
G l
亲 切</w>
高 浓度</w>
网络 服务</w>
Ca che</w>
1 1.2</w>
高 强</w>
身 子</w>
诺 贝尔
获得 最佳</w>
牧 场</w>
工业 园区</w>
出 入口</w>
地 平
Al l</w>
飞 往</w>
绿 地</w>
始终 保持</w>
加 工厂</w>
出 名</w>
E G</w>
抽 烟</w>
偿 债</w>
起 源于</w>
第一 季度</w>
服务 部</w>
操作 符</w>
哥伦 比亚
前 缘</w>
伊斯兰 教</w>
举例 来说</w>
d ing</w>
3 05</w>
胶 合板</w>
示 意</w>
步 入</w>
多 尔</w>
CA T
问 问</w>
萨 拉</w>
w in
S G
气 垫</w>
木 工</w>
扰 乱</w>
奔 驰</w>
几 家</w>
交 付给</w>
Per form
饰 件</w>
剪 力</w>
17 6</w>
销 钉</w>
绝缘 层</w>
登记 簿</w>
法 国
按 计划</w>
总 干事</w>
化 验</w>
事业 单位</w>
C CD</w>
通 配
提 升机</w>
小伙 子</w>
占 有
修道 院</w>
不 在</w>
an e</w>
G o
采 油</w>
绵 羊</w>
利润 分配</w>
自然 环境</w>
未 成年人</w>
提 琴</w>
平方 英寸</w>
大 奖</w>
通配 符</w>
赠 送</w>
指导 书</w>
重 症</w>
犹 太</w>
了 不起</w>
D OS</w>
画 廊</w>
公 证</w>
石 油气</w>
图 解</w>
10 23</w>
鸡 肉</w>
纵 梁</w>
奥斯 卡</w>
凯 特</w>
降 临</w>
闪 亮</w>
蝶 阀</w>
坝 址</w>
Unic ode</w>
度 高</w>
培训 师</w>
哈 里</w>
T Y
焊 丝</w>
世界 级</w>
黏 土</w>
著作 权</w>
在 位</w>
Mod ule</w>
淋 浴</w>
扶 梯</w>
盗 窃</w>
特 种
入 选</w>
作 风</w>
渲 染
打 滑</w>
大 衣</w>
减 低</w>
花 卉</w>
宪 报</w>
休 眠</w>
以 人
V IP</w>
音 调</w>
网 卡</w>
F C
时 起</w>
囊 肿</w>
从 动</w>
亚 伯
DA E</w>
该 表</w>
行 中</w>
国际 奥委会</w>
回 合</w>
各种 类型</w>
關 闭</w>
水压 试验</w>
月 末</w>
晋 升</w>
地 势</w>
凝 结
消 毒
此 页</w>
校 区</w>
固体 废物</w>
依法 追究</w>
两 块</w>
专业 技能</w>
A IX</w>
而 生</w>
笔 刷</w>
投 保人</w>
净 收入</w>
l et
M AT
返 回
跑 车</w>
工程 进度</w>
丝绸 之路</w>
林 肯</w>
技术 开发</w>
开 幕</w>
简 报</w>
水 肿</w>
Joh n
限 速</w>
递 减</w>
评 选</w>
经验 教训</w>
挫 折</w>
d s
马 萨诸
防 范
浓 郁</w>
面 孔</w>
选 配</w>
新 泽
挡 土墙</w>
中介 机构</w>
不 妨</w>
p g</w>
NAS A</w>
Clo th</w>
计划 书</w>
维 加斯</w>
渲染 器</w>
Tr ue</w>
纸 箱</w>
清洗 器</w>
挖 方</w>
年 版</w>
字 形</w>
判 处</w>
风 情</w>
宪 章</w>
难 性</w>
无 形</w>
助 剂</w>
解 剖
耐 腐蚀</w>
策 略
应 先</w>
失 常</w>
合 闸</w>
元 器件</w>
氯 化物</w>
奶 牛</w>
奔 跑</w>
双 边
13 7</w>
陪 伴</w>
设计 院</w>
未 见</w>
只 用</w>
0. 02</w>
猛 烈</w>
旋 律</w>
和 表</w>
凸 显</w>
C CS</w>
10. 3</w>
引 渡</w>
J 2
滑 板</w>
技术 指标</w>
勉 强</w>
阁 下</w>
开 花</w>
即 期</w>
M F
不 通</w>
淋巴 结</w>
忠 诚
屏幕 显示</w>
在我 看来</w>
U TC</w>
动 量</w>
中 场</w>
And roid</w>
系统 集成</w>
受到 限制</w>
两 套</w>
en se</w>
温 馨</w>
单 调</w>
余 下</w>
长 石</w>
针 织
蚀 刻</w>
生 物质</w>
每 层</w>
晚 些时候</w>
授 课</w>
路易 斯</w>
森 堡</w>
吊 环</w>
取 水</w>
三 元</w>
一 瓶</w>
H Y
Discover y</w>
病 害</w>
申请 者</w>
接头 处</w>
元 法</w>
育 种</w>
等 同</w>
四 肢</w>
功能 测试</w>
全 民</w>
价 比</w>
交叉 点</w>
7 6
残留 物</w>
多 媒体
迷 宫</w>
低 收入</w>
试验 装置</w>
亲 戚</w>
T ri
菲 尔</w>
柠 檬</w>
敲 击</w>
拉 开</w>
帐 单</w>
出 院</w>
管 式</w>
社会 化</w>
拟 订</w>
聚 类</w>
抵 扣</w>
屁 股</w>
土 库
凉 爽</w>
丹 尼尔</w>
s el
自 旋</w>
办 事</w>
位 点</w>
枕 头</w>
新 城</w>
恶 魔</w>
基 部</w>
垫 板</w>
视 觉
备 品
备品 备件</w>
乡 镇</w>
语言 学</w>
眼 部</w>
浓 缩
正 弦</w>
孵 化</w>
册 子</w>
临界 值</w>
Net App</w>
第十 五条</w>
树 种</w>
振 动
折 断</w>
多 为</w>
埋 场</w>
分析 模型</w>
转向 架</w>
绑 架</w>
粉 色</w>
清 算
波 罗</w>
此 类
常 识</w>
小 孔</w>
E SC</w>
管理 水平</w>
ap p
5. 9</w>
欧 美</w>
3 40</w>
面 貌</w>
滞 留</w>
流 产</w>
援 引</w>
排 污
协 商
到 货</w>
其他 费用</w>
乙 基</w>
Sour ce</w>
选择 开关</w>
编 排</w>
循环 泵</w>
实施 细则</w>
k m2</w>
CA L</w>
面向 对象</w>
非 对称</w>
招 待</w>
侧 壁</w>
Front Page</w>
衣 裙</w>
磁 化</w>
指 着</w>
启 动
刺 绣</w>
不 懈</w>
一 连串</w>
197 7</w>
顺 着</w>
百 万美元</w>
喜 好</w>
CV S</w>
装机 容量</w>
流动 资金</w>
台 湾
AS E</w>
容 错</w>
地 脚</w>
反对 派</w>
捕 捞</w>
十 进制</w>
低 端</w>
aul t
这样 一来</w>
药 性</w>
纳米 管</w>
尽 全力</w>
千 兆</w>
产业 园</w>
19 60</w>
风 能</w>
采取 任何</w>
田 间</w>
渗 入</w>
m y
K E
滴 定</w>
MS B
a f
T I</w>
试 管</w>
最 强</w>
彩 色
头 键</w>
周围 环境</w>
T ext
AS M</w>
质 控</w>
罗 拉
现实 意义</w>
样 机</w>
服 役</w>
基 材</w>
前 项</w>
事 故
D IS
隔离 器</w>
当 今
买 到</w>
pro du
钢 带</w>
摄 取</w>
就 诊</w>
宽 敞</w>
re ct</w>
营 业务</w>
立 大学</w>
斯 塔</w>
动 摇</w>
人 有</w>
主 营业务</w>
十 六</w>
以 上
197 1</w>
透 析</w>
解 码器</w>
经 理
担 当</w>
尾 门</w>
十六 进制</w>
两 面</w>
一 旁</w>
领 地</w>
多 态性</w>
PE G</w>
曼 哈
刚 体</w>
近 似
微 结构</w>
布什 总统</w>
s ub
DF I</w>
间隔 时间</w>
洒 水</w>
年 里</w>
原 生</w>
该 条</w>
当 月</w>
复 活</w>
随 地</w>
语 境</w>
致 死</w>
科 比</w>
示 波器</w>
位 居</w>
麦 当
防腐 剂</w>
保护 性</w>
节 水</w>
管道 工程</w>
不 许</w>
颗粒 物</w>
动 手</w>
交 出</w>
联轴 节</w>
没 事</w>
归 因于</w>
IM F</w>
留 下来</w>
字符 集</w>
合 营企业</w>
简 单
社 区
回 升</w>
乘 车</w>
下 水</w>
材 料
从 头
U CS</w>
级 联</w>
烘 烤</w>
激 起</w>
小 狗</w>
嫌疑 人</w>
制 片
j ian</w>
测试 报告</w>
性 价比</w>
弟 兄</w>
并 处</w>
助 力器</w>
以人 为本</w>
腹 腔镜</w>
委 内
分 期付款</w>
濒 危</w>
条形 图</w>
小 企业</w>
R SS</w>
韧 带</w>
约 瑟
名 录</w>
中 点</w>
风 道</w>
终端 用户</w>
框 图</w>
周 到</w>
即 刻</w>
h link</w>
黎 巴嫩</w>
冠 心病</w>
相 间</w>
现 阶段</w>
框 架结构</w>
应用 领域</w>
防范 措施</w>
网络 设备</w>
忠诚 度</w>
坍 塌</w>
中 转</w>
b us</w>
可 折叠</w>
一 律</w>
胞 胎</w>
纳 州</w>
有 轨电车</w>
召 唤</w>
馈 电</w>
脱 开</w>
武 力</w>
底 线</w>
雷 诺</w>
脚 趾</w>
午 饭</w>
创 下</w>
od y</w>
N E</w>
隔 音</w>
标 尺</w>
普 京</w>
收 购
控制 站</w>
光 辉</w>
阴 离子</w>
橡胶 套</w>
喷 气</w>
AT C</w>
运动 型</w>
箭 头键</w>
签 入</w>
情 节
悬 崖</w>
已 过期</w>
大会 常务委员会</w>
加勒 比
信 托
人民代表 大会常务委员会</w>
大气 层</w>
耐 力</w>
9 96</w>
鸟 儿</w>
罪 恶</w>
amil y</w>
黑龙 江省</w>
砂 砾</w>
岸 边</w>
主管 人员</w>
Window s
负 压</w>
每 张</w>
手 腕</w>
填 埋</w>
医 药
c lo
Ma p</w>
体制 改革</w>
tim e</w>
遮 蔽</w>
数 次</w>
供电 系统</w>
低 碳钢</w>
项 链</w>
追 溯到</w>
波 音</w>
审 讯</w>
回 油</w>
加 油站</w>
R CS</w>
更 进一步</w>
动 能</w>
以 求</w>
一般 而言</w>
St ore</w>
供 水系统</w>
预防 犯罪</w>
车 祸</w>
有 色金属</w>
打 扫</w>
巴 拉克</w>
太 过</w>
适 中</w>
母 乳</w>
咖啡 因</w>
但 应</w>
普遍 存在</w>
撑 杆</w>
台 式</w>
保持 良好</w>
阿森 纳</w>
表 演
球 蛋白</w>
格 林
杜 绝</w>
服务 态度</w>
学术 界</w>
声 响</w>
侦 听</w>
陈 列</w>
邮 局</w>
跌 幅</w>
经 合
经合 组织</w>
匆 匆</w>
i Pad</w>
3 75</w>
输送 到</w>
宣 誓</w>
史蒂 夫</w>
印 花
P ress</w>
资源 量</w>
病 症</w>
烟 道</w>
多 多</w>
B E</w>
防 空</w>
红 线</w>
短 时</w>
残 渣</w>
新 世纪</w>
收 货人</w>
托 运</w>
G 2</w>
A WS</w>
迫 切</w>
第十 六条</w>
离 去</w>
漂 白</w>
异常 情况</w>
多 路</w>
在此 之前</w>
乳 糖</w>
驻 車</w>
阿 里
长 率</w>
保持 稳定</w>
世 纪
不 全</w>
达 尔</w>
灾 难性</w>
快 点</w>
击 者</w>
肯尼 迪</w>
纳 粹</w>
矿 化</w>
开 票</w>
t a</w>
T W
L ist
矿 工</w>
教 皇</w>
课堂 教学</w>
详细 情况</w>
Syn c</w>
西 西
海 中</w>
河 段</w>
每 件</w>
尔 多
可 操作性</w>
确认 书</w>
杀 人</w>
产品 组合</w>
中 亚</w>
吉 他</w>
dat a</w>
贵 州
华盛 顿
俄 亥
an k
解 除
容 差</w>
再 来</w>
隆 起</w>
发 泡</w>
O E</w>
赚 取</w>
油 水</w>
動 力</w>
中 所列</w>
稍 稍</w>
电子 邮箱</w>
水 手</w>
提 款</w>
H PLC</w>
Glob al</w>
活 率</w>
家 电</w>
虚 弱</w>
节 段</w>
新 近</w>
有 形</w>
外 底</w>
Dat ab
AC L</w>
几 项</w>
n i
肩 部</w>
晃 动</w>
循环 水</w>
二 手
h er
大 都</w>
近 乎</w>
贵 金属</w>
流 体
en s</w>
M ag
辛 苦</w>
罗马 尼亚</w>
结 肠</w>
料 机</w>
太 好了</w>
Re fer
PE T</w>
需 方</w>
通用 汽车</w>
控 系统</w>
坚 果</w>
中 西部</w>
u an</w>
纲 领</w>
竞 标</w>
改 编</w>
支 管</w>
借 助于</w>
d c</w>
as e
T A
落 入</w>
一 整套</w>
陀 螺</w>
长 短</w>
花 序</w>
组合 式</w>
箱 梁</w>
电 击</w>
没 想到</w>
承 兑</w>
K N</w>
角 线</w>
美 女</w>
模 具
扩 散
外 籍</w>
P HP</w>
高 架</w>
蒸 馏
肋 骨</w>
瘫 痪</w>
尿 道</w>
at or
O D</w>
进 行
掌 声</w>
凌 晨</w>
充 沛</w>
交流 电源</w>
Tas k
6. 9</w>
2 16</w>
瞩 目</w>
理工 学院</w>
杀 手</w>
推广 应用</w>
Id ent
Conn ect</w>
7 9
测量 仪</w>
日 渐</w>
支 流</w>
v i
ch aracter</w>
每 季度</w>
振 兴</w>
大 雨</w>
厌 倦</w>
儿 女</w>
鲜 艳</w>
舱 壁</w>
极 限值</w>
安 理会</w>
Cl ass
阻 燃
迁 徙</w>
观察 员</w>
教学 方法</w>
感 性</w>
参 赛</w>
Pro v
触 电</w>
结 晶
畅 销</w>
星 座</w>
尤 指</w>
好 坏</w>
不 定期</w>
贡 献
规范 性</w>
断 点</w>
坦桑 尼亚</w>
H O</w>
监管 部门</w>
例 中</w>
H I</w>
放 开</w>
多 伦
响 起</w>
S il
营养 不良</w>
经 销</w>
禽 流感</w>
L ab</w>
面 漆</w>
轴 瓦</w>
涂 刷</w>
彻 底
双 语</w>
凹 凸</w>
is co</w>
ak amai</w>
杆 式</w>
占 空
午 夜</w>
安全 装置</w>
M TA</w>
15 0
行 之
系统 分析</w>
地平 线</w>
包 中</w>
二 月</w>
B 16</w>
遥 测</w>
这样 的话</w>
航 路</w>
背 包</w>
直 通</w>
快 要</w>
客 服</w>
吸 水</w>
SS E</w>
船 东</w>
男 式</w>
狐 狸</w>
婴 幼儿</w>
刊 物</w>
警 官</w>
占空 比</w>
风 电场</w>
非 标准</w>
硝 酸盐</w>
浪 潮</w>
暖 通</w>
国际 法</w>
防 腐蚀</w>
牛 排</w>
机 载</w>
征 用</w>
剧 场</w>
T 4</w>
L L</w>
重 返</w>
激 动
暂 行
切断 阀</w>
不 稳定性</w>
Mod e</w>
符合 国家</w>
慢 速</w>
s s</w>
F 3</w>
聘 任</w>
拍 卖
张 开</w>
发 包方</w>
联机 帮助</w>
由 本</w>
葫 芦</w>
滚 翻</w>
中 均</w>
Del ete</w>
第十 七条</w>
R V</w>
B F</w>
卡 尔
医疗 卫生</w>
税 收
数据 通信</w>
逐 年</w>
乙烯 基</w>
那 次</w>
源 地</w>
测定 法</w>
CA P</w>
草 莓</w>
节 数</w>
磁 力</w>
支持 系统</w>
拐 角</w>
博 士学位</w>
物 价</w>
家 宝</w>
凸 出</w>
id er</w>
警报 器</w>
物 价
本 田</w>
对称 性</w>
冷 战</w>
二 个</w>
隔 绝</w>
湿 气</w>
沐 浴</w>
杆 件</w>
旋 风</w>
四 十</w>
al s</w>
V S</w>
IP T</w>
ro n</w>
Sh ell</w>
破 碎机</w>
技 艺</w>
张 家
l i</w>
西 州</w>
扇 区</w>
成 交
剩 余
函 数
高 能</w>
长 得</w>
竞 技</w>
提 高效率</w>
B U</w>
集 聚</w>
投 机</w>
弹性 模量</w>
尖 叫</w>
两 者之间</w>
苍 白</w>
14 .</w>
色 散</w>
着 眼
地 面
入 账</w>
稀 疏</w>
生 锈</w>
残 忍</w>
上 皮</w>
is h</w>
N DMP</w>
调 和</w>
舱 盖</w>
男 生</w>
手 持
塑料 袋</w>
列 报</w>
Po st
1 29</w>
顺 序
证券 交易所</w>
突 破
园 林
Lib ra
恶性 肿瘤</w>
冰 岛</w>
公共 设施</w>
G Hz</w>
磷 脂</w>
优惠 政策</w>
U ML</w>
递 送</w>
延 迟
巡 逻</w>
at ure</w>
2. 11</w>
爷 爷</w>
数 十年</w>
到 场</w>
主导 地位</w>
Adv isor</w>
雷 德</w>
奔 腾</w>
不 禁</w>
S 14</w>
罢 了</w>
拉 罕</w>
幸 福
增 设</w>
吸收 光谱</w>
一下 子</w>
C DMA</w>
2 3.
A AA</w>
质 谱</w>
电视 剧</w>
写 字
d er
Ti pt
Lim ited</w>
C u</w>
有 罪</w>
掌 管</w>
安全 设备</w>
委内 瑞拉</w>
体 质</w>
t arget</w>
A DS</w>
片 状</w>
工业 生产</w>
保险 业</w>
低 压
ar y
CD ATA</w>
过 氧化
摆 在</w>
密切 合作</w>
科 室</w>
A t
窗 外</w>
电池 组</w>
混 溶</w>
消 声器</w>
Q R</w>
14 2</w>
盖 住</w>
洗涤 器</w>
新 一轮</w>
对 角线</w>
不 一</w>
一 例</w>
ot e
赶 紧</w>
裁 员</w>
彩 虹</w>
尘 土</w>
轮 式</w>
花 瓣</w>
电 讯</w>
检察 院</w>
又 称</w>
优 越性</w>
注 塑</w>
机 壳</w>
s q
告 别</w>
n e</w>
Us er
M icro
认 出</w>
莎 士
即 时
米 勒</w>
电影 院</w>
政 务</w>
台 北</w>
传 递
重新 分配</w>
莎士 比亚</w>
空间 站</w>
生 日
截 然不同</w>
4. 2.1</w>
采 样
国 土</w>
厘 定</w>
印第安 人</w>
Dis play</w>
行之 有效</w>
插 拔</w>
巡 视</w>
分 会</w>
PC S</w>
计量 单位</w>
各 有</w>
不 小</w>
领 带</w>
采取 有效</w>
第十 八条</w>
性 病</w>
东 方
N ort
De p
阴 谋</w>
税 后</w>
既 往</w>
学 报</w>
存 有</w>
多 段</w>
分 明</w>
配 色</w>
湿 法</w>
填 埋场</w>
侧 重于</w>
Tipt ronic</w>
长 沙</w>
负 值</w>
执行 者</w>
k ad
16 1</w>
获 批</w>
系统 资源</w>
男 朋友</w>
文件 大小</w>
接触 不良</w>
器 皿</w>
订 单号</w>
瓦 尔</w>
无 穷
大 方</w>
制 导</w>
演 唱</w>
Cal ib
退 税</w>
电 商</w>
楔 形</w>
a u</w>
P y
立 方</w>
中 底</w>
采取 相应</w>
抬 高</w>
嫉 妒</w>
反 之
制 卡</w>
充满 活力</w>
合 力</w>
反之 亦然</w>
A Q
骨 盆</w>
报 收</w>
储 油</w>
中 来</w>
i as</w>
电磁 场</w>
个 子</w>
ol i</w>
ad er</w>
5 01</w>
风 范</w>
采 集器</w>
电 性</w>
期 末
恶 意
场 内</w>
仍 会</w>
长 岩</w>
调 压</w>
甜 蜜</w>
天 主教</w>
反 倾销</w>
t itle</w>
NO x</w>
潮 汐</w>
最 佳
稀 释
我 说</w>
人力 资本</w>
高新 区</w>
超 前</w>
大 功率</w>
灌 装</w>
拉 索</w>
y y
硫化 氢</w>
海 藻</w>
服务器 端</w>
常 驻</w>
买 卖
专 线</w>
we ight</w>
C 2
自 营</w>
熔 断</w>
发 型</w>
价格 表</w>
D D
贫 血</w>
试 块</w>
纸 浆</w>
科 罗拉
橡 皮</w>
R ay</w>
20 25</w>
豪 华
硝 基</w>
电 液</w>
堆 焊</w>
ri st
Pro t
空 洞</w>
景 气</w>
所 见</w>
孔 板</w>
同 级</w>
下 侧</w>
万 能</w>
SF P</w>
补偿 器</w>
纲 要</w>
的 值</w>
涂 布</w>
案 子</w>
克 森</w>
下 端</w>
预 扣</w>
苏 珊</w>
所 学</w>
年 产</w>
Support Assist</w>
Lin e</w>
沃尔 玛</w>
图 谱</w>
一致 意见</w>
D SC</w>
魔 术</w>
节 假日</w>
篡 改</w>
第二十 二条</w>
格鲁 吉
推 土机</w>
路 透</w>
赐 给</w>
前 列</w>
优 缺点</w>
人 生
筛 分</w>
抽 查</w>
减 振</w>
PD M</w>
H A
第十 九条</w>
折 现</w>
完 好
奢 侈
Net W
越来 越
祖 父</w>
C 4</w>
远 端</w>
轨 枕</w>
动力 系统</w>
w idth</w>
colo ur</w>
词 汇
物业 管理</w>
接 枝</w>
找 个</w>
阿尔 斯通</w>
含 水层</w>
冷凝 水</w>
方程 组</w>
房 屋
小 写字母</w>
确 诊</w>
油 品</w>
总 长</w>
弹 头</w>
低 级</w>
. xml</w>
篮 球
目 镜</w>
岩 溶</w>
价 位</w>
3 15</w>
门 徒</w>
吉 利</w>
传 给</w>
付 清</w>
青 年
本 级</w>
本 性</w>
患 上</w>
冷 轧</w>
保险 合同</w>
中 小</w>
连 衣裙</w>
虚 线</w>
算 器</w>
很 久
同 意
保 湿</w>
ad min</w>
无 用</w>
情节 严重</w>
di a</w>
配 重</w>
苦 难</w>
磁 体</w>
游 艇</w>
杂 草</w>
ar m</w>
L IN</w>
马 德里</w>
消防 系统</w>
枪 支</w>
盲 目</w>
无 水</w>
废 墟</w>
上 校</w>
9 50</w>
食 管</w>
退 役</w>
转 变成</w>
电子邮件 发送</w>
热 电</w>
务 局</w>
S 3</w>
R R</w>
示 威</w>
环境 署</w>
易 爆</w>
尾 矿</w>
如 实</w>
H ig
8. 7</w>
出 力</w>
el op
N BA</w>
1 2.1</w>
无 情</w>
小 额</w>
生 理
电磁 兼容</w>
点 头</w>
推 荐
埃 尔</w>
低 价</w>
H V</w>
随 时
配 线
武 术</w>
er ing</w>
G I</w>
4 00
相 较</w>
孔 口</w>
可 比</w>
不 曾</w>
15 3</w>
绿 色
现 时</w>
灯 丝</w>
抗 剪</w>
意 志
女 友</w>
外 加剂</w>
亚伯 拉罕</w>
h a</w>
这 话</w>
救 护
捆 机</w>
拖 放</w>
尤 为重要</w>
中性 点</w>
输送 带</w>
应 经</w>
前 体</w>
Ne w
遍 及</w>
软件 设计</w>
沃尔 沃</w>
客户 群</w>
出租 方</w>
潜 水
招 呼</w>
葬 礼</w>
电 离
焦 炭</w>
其 内</w>
Th e
轮 船</w>
背 上</w>
点 上</w>
可 取</w>
体育 馆</w>
碳 酸</w>
片 刻</w>
测 温</w>
歌 剧</w>
拿 走</w>
IPv 4</w>
转 回</w>
告 诫</w>
B CM</w>
4. 2.2</w>
14 3</w>
高 高
注 油</w>
专 栏</w>
oo d</w>
Typ e
14 9</w>
钝 化</w>
收 听</w>
持 久性</w>
复杂 度</w>
an o</w>
造 林</w>
过 流</w>
未 必</w>
命 题</w>
出 路</w>
举 报</w>
图 上</w>
人 性化</w>
下 巴</w>
解剖 学</w>
泪 水</w>
汇 兑</w>
天津 市</w>
乘 用车</w>
P al
硬 质
排 行
报价 单</w>
Product Name</w>
空 中
煤 粉</w>
洛 斯</w>
曼哈 顿</w>
商 讨</w>
呈 请</w>
冰 冻</w>
B T</w>
霉 菌</w>
选 档</w>
水 务</w>
谐 器</w>
登 录名</w>
延 缓</w>
H L</w>
C SA</w>
8 3
调 谐器</w>
敏 锐</w>
信号 线</w>
Buil der</w>
餐 桌</w>
表 头</w>
克 莱</w>
世 博会</w>
on e
G F</w>
详细 分析</w>
亚 当</w>
二 世</w>
中 端</w>
Cre ate</w>
标准 值</w>
服务 商</w>
排行 榜</w>
壁 画</w>
Log ic</w>
过 错</w>
超 细</w>
起 落
西 屋</w>
猎 人</w>
时 域</w>
肿 胀</w>
电子 束</w>
卖 掉</w>
RF ID</w>
漏 气</w>
播放 列表</w>
单 次</w>
传动 带</w>
二 零
17 2</w>
高 层次</w>
造 船</w>
志 愿</w>
尿 液</w>
B U
施工 期</w>
播 种</w>
开 枪</w>
安全 事故</w>
其 余
其余 部分</w>
or e
o ff
隐 性</w>
银行 贷款</w>
行为 准则</w>
田 野</w>
d 0
Sp ort</w>
SY M
职业 道德</w>
用 处</w>
深 色</w>
拉斯 维加斯</w>
小 船</w>
哈 希</w>
阵 容</w>
总 资产</w>
差 压</w>
产品 销售</w>
转 会</w>
现 成</w>
密 歇
一 夜</w>
pt ion</w>
测 控</w>
最 坏</w>
整体 式</w>
教学 模式</w>
前 桥</w>
下 落</w>
16 2</w>
纯 净</w>
疑 虑</w>
习 班</w>
Fu el</w>
15 8</w>
飙 升</w>
耐 药</w>
老 年
炼 油</w>
林 中</w>
商品 价格</w>
化 解</w>
乙 烷</w>
丛 林</w>
Cl ass</w>
驱 动力</w>
调查 表</w>
审 定</w>
击 穿</w>
休息 室</w>
资格 证书</w>
历 时</w>
除 草
证 会</w>
渔 民</w>
数据 库
彼 得
寂 寞</w>
一 则</w>
大 额</w>
光 彩</w>
卡 拉
W P</w>
L G</w>
In Control</w>
落 于</w>
进 给</w>
这 时候</w>
请 见</w>
希 拉里</w>
代表 处</w>
基 石</w>
中 等
逐 步
逃 脱</w>
进 取</w>
运输 工具</w>
肮 脏</w>
宽 阔</w>
威 士
ri s</w>
文 献
大 块</w>
可 收回</w>
一 辈子</w>
W at
Gu ide</w>
高 技术</w>
语 法
引 致</w>
兰 州</w>
全 部
W D</w>
比 为</w>
预 装</w>
防 静电</w>
获 悉</w>
肉 体</w>
相 遇</w>
一 排</w>
点 处</w>
基本 概念</w>
下 放</w>
Part icle</w>
M y</w>
信息 处理</w>
两 相</w>
so r</w>
闭 塞</w>
蚊 子</w>
缆 绳</w>
硬质 合金</w>
兰 人</w>
相对 论</w>
电 费</w>
本 年</w>
多 播</w>
B it
A DC</w>
轧 辊</w>
影 视</w>
图 画</w>
伤 性</w>
采 暖</w>
西 欧</w>
脑 部</w>
生 计</w>
物 质
未 付</w>
总 能</w>
原 创</w>
凝结 水</w>
计划 生育</w>
滚 柱</w>
小 册子</w>
吉林 省</w>
裂 化</w>
壁 纸</w>
九 年</w>
Java Script</w>
路 程</w>
改 用</w>
嘴 巴</w>
Stand ard</w>
F I</w>
轮 流</w>
玫 瑰
幅 值</w>
奢侈 品</w>
高 阶</w>
裂 变</w>
蚀 剂</w>
来 访</w>
三 聚
绒 毛</w>
索 具</w>
稳 步</w>
构 筑</w>
曼 谷</w>
推 介</w>
兰 特</w>
伸 长率</w>
乐 团</w>
檔 案</w>
旅行 者</w>
兄 弟
c c</w>
祖 母</w>
地 去</w>
二 次
与 会</w>
调 出</w>
念 头</w>
S ur
生物 体</w>
混 合器</w>
斯 克</w>
失 稳</w>
减 慢</w>
共 享
强 硬</w>
质 教育</w>
素 质教育</w>
M V</w>
以 较</w>
Te am
手 写</w>
意 向
开放 性</w>
吊 耳</w>
l y
J ord
连 锁
法 国人</w>
最新 版</w>
式 样</w>
工 频</w>
史 上</w>
不 好
浴 缸</w>
母 语</w>
正 方形</w>
同 盟</w>
人 际</w>
TR L</w>
14 7</w>
非常 高兴</w>
脱 扣</w>
图形 卡</w>
准 予</w>
三 人</w>
更 糟</w>
建筑 业</w>
寄 生</w>
实 话</w>
威 力</w>
大 体</w>
外 螺纹</w>
T itle</w>
9. 0</w>
蓬 勃
车 桥</w>
微 动</w>
回 国</w>
打 发</w>
华 人</w>
住 院
9. 7</w>
露 点</w>
发射 机</w>
下 垂</w>
Sour ce
OR T</w>
App le</w>
特 制</w>
泡 沫
曲 折</w>
小 小</w>
预 先
皇 后</w>
病 理学</w>
手 枪</w>
成 正比</w>
三 者</w>
M SC
雨 林</w>
豆 腐</w>
著 称</w>
甘 肃</w>
同 性</w>
P i
陆 续</w>
议 者</w>
奢 侈</w>
压 痕</w>
织 带</w>
白 炽
村 子</w>
另一 台</w>
St ring</w>
I g
留 学生</w>
同意 书</w>
创新 性</w>
三 家</w>
SA R</w>
过 境</w>
级 数</w>
开关 站</w>
装箱 单</w>
温 家宝</w>
梅 花</w>
塑 胶</w>
均匀 分布</w>
K n
黄 瓜</w>
该 方</w>
英 制</w>
网络 管理员</w>
文 法</w>
可 藉</w>
力 图</w>
共产 主义</w>
倒 闭</w>
o per
Win 32</w>
蒂 斯</w>
电 邮</w>
热 值</w>
海 港</w>
推 送</w>
下 表中</w>
铁 芯</w>
车 票</w>
无 穷</w>
重 音</w>
说 明
致 敬</w>
污染 源</w>
土 著</w>
十 九</w>
关键 在于</w>
钉 子</w>
工 后</w>
繁 多</w>
生物 学家</w>
数据 模型</w>
战 后</w>
开发 新</w>
A AS
荧 光灯</w>
舆 论</w>
发 包</w>
亚 利
一 国</w>
Po p
7 4
胜 过</w>
细 长</w>
方 在</w>
fi eld</w>
镀 铬</w>
演 进</w>
基准 面</w>
全体 会议</w>
2 100</w>
药 物
必要 条件</w>
层 间</w>
卡 环</w>
利 害
不同 之处</w>
st at
orm al</w>
马 桶</w>
寺 庙</w>
周 刊</w>
半 部</w>
书 本</w>
GT 3</w>
F ort
9. 6</w>
隔热 板</w>
补 强</w>
天 晚上</w>
共和 党人</w>
Aut h
17 1</w>
相 配</w>
总 有</w>
分子 筛</w>
in u
E 2</w>
Box ster</w>
细 腻</w>
打 捆机</w>
卢 森堡</w>
不 在乎</w>
iz ation</w>
P U
土 方
频 段</w>
逐 个</w>
分 录</w>
传 票</w>
ro m</w>
En erg
营业 税</w>
第二 节</w>
磁带 机</w>
水 渠</w>
实 收</w>
S am
陈 旧</w>
宏 伟</w>
大大 降低</w>
商业 秘密</w>
剥 落</w>
至 此</w>
折叠 式</w>
大 陆
国 道</w>
骨 质</w>
血红 蛋白</w>
自 带</w>
每 一项</w>
四 氟
SC R</w>
齐 平</w>
酒 店
离子 交换</w>
好 吃</w>
e on</w>
Mess enger</w>
2 4.
良 好
绩效 考核</w>
一 团</w>
Inf o</w>
试验 室</w>
新鲜 空气</w>
就 象</w>
3 03</w>
袜 子</w>
战 队</w>
在 世界
在世界 上</w>
低 密度</w>
高层 建筑</w>
躲 避</w>
展 厅</w>
少 许</w>
印 记</w>
arg 1</w>
B ur
紧 迫</w>
数 千</w>
H er
照 料</w>
流 转</w>
意 象</w>
历 经</w>
保护 膜</w>
三 方</w>
白炽 灯</w>
甲 酯</w>
注 射器</w>
for e</w>
难 得</w>
随时 随地</w>
自 控</w>
指导 意义</w>
发 卡</w>
郑 州</w>
职 称</w>
收 缩
发展 观</w>
U C</w>
P ack
DE R</w>
矿 物
悬 吊</w>
原始 数据</w>
3. 2.1</w>
驾驶 者</w>
血 液
渔 船</w>
本 分</w>
已 久</w>
孟加 拉</w>
需 用</w>
红 十字
确保 安全</w>
威 尼斯</w>
含 油</w>
罩 盖</w>
水 污染</w>
或 组</w>
干 达</w>
内 障</w>
不 合</w>
苯 酚</w>
网 民</w>
格鲁吉 亚</w>
无 与
旅 费</w>
u k
间 盘</w>
轮 驱动</w>
手持 式</w>
小 朋友</w>
地下 水位</w>
Manag e</w>
Col or</w>
Cat al
频 带</w>
腹 腔</w>
无与 伦比</w>
挂 起</w>
并 会</w>
头 衔</w>
历史 数据</w>
w ind
投资 方</w>
听 证会</w>
十字 架</w>
ow n
US D</w>
E SP</w>
律 法</w>
停 泊</w>
Mar k</w>
CS V</w>
19 50</w>
14 8</w>
路 肩</w>
约瑟 夫</w>
执 法
成熟 度</w>
V P</w>
运 到</w>
软 键</w>
废 止</w>
土方 工程</w>
D ra
手 下</w>
实 体
圆 顶</w>
乐 曲</w>
计 值</w>
保险 金</w>
亚 胺</w>
3 70</w>
载 人</w>
责 备</w>
象 征
液 晶
海 浪</w>
测试 数据</w>
摩 洛
农业 部</w>
停 顿</w>
五 分钟</w>
00 6</w>
青 蛙</w>
部 长
牌 号</w>
星 号</w>
关 门</w>
盟 友</w>
接 待
多 变</w>
it al
18 2</w>
过 氧化物</w>
线 粒体</w>
淡 化</w>
橡 皮
控 告</w>
工商 行政</w>
兆 瓦</w>
人 寿
T D
For m
20 7</w>
诊 治</w>
第二 季度</w>
發 生</w>
现实 生活</w>
字 节数</w>
喷 雾
3 65</w>
25 4</w>
躯 体</w>
租 户</w>
电动 车</w>
供应 量</w>
涌 入</w>
南 亚</w>
人 节</w>
K g</w>
表 上</w>
前 一天</w>
保 育</w>
13 9</w>
膝 关节</w>
定 心</w>
大 风</w>
切 尔</w>
人 孔</w>
w en</w>
17 8</w>
这 起</w>
贵州 省</w>
电 波</w>
开 拓
巴 塞
分 裂
St art
H and
17 7</w>
自 在</w>
扣 件</w>
飞 溅</w>
结 冰</w>
格 雷
抗 拒</w>
健身 房</w>
不良 影响</w>
at ed</w>
Su pport</w>
船 厂</w>
模型 试验</w>
很 久</w>
喷 油</w>
分 解
仔细 检查</w>
人寿 保险</w>
t on
6 30</w>
收 紧</w>
折 合</w>
几 秒钟</w>
内 控</w>
返回 值</w>
线 宽</w>
焦 油</w>
消 火
吸 毒</w>
C iv
搬 到</w>
南 路</w>
单 车</w>
前 身</w>
N D
花园 里</w>
地 幔</w>
不 作</w>
答 辩</w>
第 四个</w>
总 则</w>
客 机</w>
业务 范围</w>
Jord an</w>
Applic ation
所 附</w>
切 开</w>
冥 想</w>
盘 中</w>
吨 位</w>
另一 边</w>
受 阻</w>
卫 队</w>
热 管</w>
楼 面</w>
打 捆</w>
所 罗
声 道</w>
预 埋件</w>
试 行</w>
租 赁
滴定 法</w>
Rem ote</w>
音乐 家</w>
跌 倒</w>
更 深</w>
关联 性</w>
关 注
之 情</w>
不 育</w>
痉 挛</w>
拉丁 文</w>
左 键</w>
学 徒</w>
全 美</w>
世 贸
us e
el d
球 头</w>
加 以
AC C</w>
5 40</w>
露 天
磨 耗</w>
事 例</w>
乙 酰</w>
一 分</w>
除草 剂</w>
适 配</w>
近 海</w>
固定 点</w>
南 美</w>
医 务人员</w>
身 着</w>
绘图 仪</w>
皮 瓣</w>
摩擦 系数</w>
两 座</w>
ak e</w>
F IM</w>
次 于</w>
过氧化 氢</w>
泥 浆
林 木</w>
摩洛 哥</w>
妥 善
多伦 多</w>
分 流器</w>
避雷 器</w>
行政 长官</w>
摇 晃</w>
排 烟</w>
招 商
孟 买</w>
卷 材</w>
针 刺</w>
装 机</w>
维 奇</w>
甘 肃
买 下</w>
不 顾</w>
泊 车</w>
基础 知识</w>
侮 辱</w>
输入 输出</w>
腐 烂</w>
反 驳</w>
一 对
Plat form</w>
F G</w>
运动 学</w>
研 讨</w>
盛 行</w>
H 1</w>
舒适 度</w>
没 有
巴 比
塞 州</w>
右 岸</w>
切 割机</w>
L U</w>
Ac c
孔 内</w>
在 实践
可 回收</w>
Vis io</w>
V LAN</w>
4 10</w>
项目 组</w>
破 产
B i
而 下</w>
罗 拉</w>
有效 途径</w>
归 于</w>
软 硬件</w>
斯 勒</w>
康 普</w>
层 层</w>
处理 机</w>
凤 凰</w>
驱 逐</w>
示 威
开 锁</w>
内 螺纹</w>
饮 食
缴 款</w>
祝 愿</w>
油 耗</w>
被 盗</w>
必要 措施</w>
开 幕式</w>
各 处</w>
产品 名称</w>
饮 水</w>
长 寿</w>
管理 条例</w>
抗 器</w>
HD PE</w>
G O</w>
竭 力</w>
白 内障</w>
滑 入</w>
泥 板</w>
国有 资产</w>
回 声</w>
十 八
肉 眼</w>
第二十 条</w>
庄 园</w>
外 观设计</w>
外 光</w>
f amily</w>
OR D</w>
钞 票</w>
配线 架</w>
猜 想</w>
测量 点</w>
底 图</w>
幼 虫</w>
天 文</w>
四氟 乙烯</w>
其 上</w>
耐 高温</w>
波 斯
晶 状体</w>
持续 增长</w>
感 到
小 鸟</w>
停 止
追 赶</w>
左 转</w>
趋 向</w>
监 听</w>
套 设备</w>
丧 生</w>
一九 九
W i
防 撞</w>
烧 烤</w>
左 上角</w>
低 碳</w>
从 文件</w>
mm 0</w>
T 3</w>
Qu ery</w>
韦 尔</w>
用 房</w>
湿 式</w>
欧洲 人</w>
制 定
k Hz</w>
阿姆 斯特
学 时</w>
主 席
m t</w>
极 佳</w>
捷 克</w>
循环 系统</w>
反 之</w>
C isco</w>
流 中</w>
功能 强大</w>
w eb
J am
HT O</w>
而 上</w>
绅 士</w>
乙 醚</w>
里 奥</w>
衰 落</w>
通讯 录</w>
知识 分子</w>
格 雷</w>
挡 住</w>
手 掌</w>
动 画
出 发
体育 运动</w>
长 途</w>
此 图</w>
欢 呼</w>
开关 电路</w>
应 急
城 墙</w>
喷 出</w>
从 主</w>
起 身</w>
语 气</w>
增强 型</w>
塞 浦
lo y
说 服
肠 癌</w>
开 度</w>
回 忆
a che</w>
第三 季度</w>
国家 队</w>
压 载</w>
分 选</w>
分 批</w>
亚利 桑
s ec
j o
给 排水</w>
电 抗器</w>
汇 聚</w>
槽 内</w>
完 后</w>
塞浦 路
塔 架</w>
吊 杆</w>
g a</w>
N o
9 60</w>
风 景区</w>
除 锈</w>
着眼 于</w>
历史 性</w>
中 学生</w>
不 计</w>
PR O</w>
送 货</w>
生产 性</w>
炼 厂</w>
危险 废物</w>
半 自动</w>
克 劳
wor k
无 声</w>
哈佛 大学</w>
乌 兹
Analys is</w>
6. 1.
顺利 进行</w>
陡 峭</w>
忙 于</w>
发 觉</w>
V B</w>
D XF</w>
4. 1.1</w>
收 盘</w>
已 向</w>
寄 送</w>
冰 雪</w>
老 式</w>
有 利
审 判
十二 个</w>
分 阶段</w>
co unt</w>
c m3</w>
ang e
量 规</w>
砍 伐</w>
无 辜</w>
后 座</w>
不 及
15 .</w>
长 距离</w>
自 重</w>
电 缆
特征 值</w>
格 达</w>
敬 畏</w>
解 说</w>
规 定值</w>
哈 根</w>
辛 格</w>
登记 表</w>
时 装
带 子</w>
周 长</w>
功 夫</w>
wor d</w>
Effect s</w>
非 正常</w>
排 风</w>
子 目录</w>
东 道
N ull</w>
采购 部</w>
该 死</w>
建立 健全</w>
境 地</w>
利 尔</w>
农民 工</w>
罐 车</w>
纽约 时报</w>
水 生</w>
Stora ge
C SS</w>
马萨诸 塞州</w>
放 宽</w>
多 方</w>
受 热</w>
逐 一</w>
起落 架</w>
洗 澡</w>
拉 美</w>
回 落</w>
劣 势</w>
Servic e
C od
波 斯</w>
图形 文件</w>
侵 略</w>
中 旬</w>
8 58</w>
易 趣</w>
小 子</w>
体 操</w>
00 01</w>
货 运
考 试
杂 项</w>
基 团</w>
作 证</w>
Res our
Anal yz
线 器</w>
施 肥</w>
发生 冲突</w>
F L</w>
秸 秆</w>
掩 饰</w>
损 失
履行 职责</w>
安全 隐患</w>
kad ov</w>
转 移
疲 力
指 令
uri er</w>
um m
C am
相 册</w>
措 辞</w>
半 透明</w>
中心 点</w>
三 个
wor ks</w>
I DC</w>
形 变</w>
中 共</w>
隔 套</w>
辩 解</w>
起 泡</w>
诱 人</w>
坐 落于</w>
军 团</w>
万 名</w>
Se arch</w>
最 差</w>
卡 罗</w>
上 述
Busin ess
沉 浸</w>
扇 形</w>
兼 并</w>
Qu ark
阿 联
阿联 酋</w>
测 距</w>
民 生</w>
庆 典</w>
并不 需要</w>
Libra ry</w>
终 生</w>
比 照</w>
授 权人</w>
拌 和</w>
就 职</w>
国务 卿</w>
追 讨</w>
轴 封</w>
责任 制</w>
脆 性</w>
埋 设</w>
各 项
伊利 诺
wit h</w>
选 拔</w>
简 约</w>
期货 交易</w>
区 划</w>
S IS</w>
那 州</w>
迈 进</w>
椎 间盘</w>
平 直</w>
尔 多</w>
关 爱</w>
乌兹 别
b e</w>
PA R</w>
递 给</w>
带 帽</w>
免 提</w>
业 余</w>
酰 基</w>
气 井</w>
层 序</w>
th er
Ma ch
蓬勃 发展</w>
深 深
异 地</w>
安全 策略</w>
SYM BO
SS T</w>
透 社</w>
网 友</w>
推进 器</w>
推 定</w>
店 里</w>
译 本</w>
水文 地质</w>
抽 吸</w>
墓 地</w>
加 强
日 立</w>
审计 员</w>
单 选</w>
Wor ld</w>
金属 表面</w>
第二十 一条</w>
EG R</w>
1 2.2</w>
用 水量</w>
最 短</w>
技术 水平</w>
开 始
希 伯
丰 富
路 透社</w>
服务 项目</w>
斯 堡</w>
接线 板</w>
增 资</w>
傻 瓜</w>
lis t</w>
a a</w>
Sim Sun</w>
违 规
足 轻重</w>
考 古
浸 出</w>
库 区</w>
口 盖</w>
代 为</w>
运 往</w>
说服 力</w>
细 粒</w>
棕 榈
Intern ational</w>
零售 业</w>
获 取
第二十 三条</w>
填 方</w>
交通 管理</w>
C ustom
2 5.
波 束</w>
巴 拉</w>
格 子</w>
敌 军</w>
拼 命</w>
延迟 时间</w>
冰 冷</w>
低 电压</w>
Co urier</w>
进 近</w>
艺 人</w>
聚 苯乙烯</w>
托 管人</w>
延 展</w>
卡 通</w>
in s</w>
Lot us</w>
静 力</w>
集中 式</w>
已 用</w>
乌 干达</w>
起 动器</w>
线 路
絮 凝</w>
矿 体</w>
混 杂</w>
巴 拿
写 信</w>
偏 振</w>
FP GA</w>
显 眼</w>
小 组
哈尔 滨</w>
停 靠</w>
yc le</w>
CR F</w>
鸡 尾
空 氣</w>
保护 环境</w>
gra m</w>
访问 者</w>
无 缝
V W</w>
野 蛮</w>
赶 快</w>
壳 聚糖</w>
值 班
三 份</w>
生 理学</w>
新 人</w>
动 漫</w>
内 嵌</w>
o oth</w>
n o</w>
SC A</w>
N W
排 除
护 坡</w>
可 卡因</w>
两 颗</w>
烟 尘</w>
控制 棒</w>
园 艺</w>
7. 2.
阿拉 斯加</w>
M ill
CO N</w>
3 25</w>
首 字母</w>
阀 盖</w>
葡萄 园</w>
特 勒</w>
林 斯</w>
换 料</w>
克 里</w>
xx x</w>
h mk</w>
熟 料</w>
国 情</w>
其 时</w>
j i</w>
d0 e
T EC
筒 体</w>
总 重</w>
徽 章</w>
市 价</w>
M art
雪 茄</w>
纤维 化</w>
彩 票</w>
阅读 器</w>
选择 对象</w>
编 目</w>
等 高
排 汗</w>
喷 发</w>
各 组</w>
不断 扩大</w>
不 用
T rac
隐 形</w>
特 异</w>
不 以</w>
一 口气</w>
B 3</w>
莱 特</w>
瑞 士
救护 车</w>
实 地
夸 大</w>
Su ite</w>
H U
移 开</w>
我 院</w>
导 热</w>
对外 开放</w>
位 器</w>
高 素质</w>
瓦 特</w>
特 纳</w>
汇 流</w>
水 产</w>
来 往</w>
sp ace</w>
重 物</w>
遮 阳</w>
猎 物</w>
摄 入量</w>
成 绩
int s</w>
0 1
这 支</w>
营 销
查 验</w>
拥 堵</w>
奥 会</w>
地 力</w>
第一 节</w>
新闻 稿</w>
乏 味</w>
素 体</w>
球 墨
平 米</w>
双 胞胎</w>
全 息</w>
人 以</w>
交易 类型</w>
星 云</w>
凭 藉</w>
俄罗斯 联邦</w>
亲 吻</w>
S 8</w>
鲁 棒
换 取</w>
小 岛</w>
参与 方</w>
出 货</w>
RT D</w>
镁 合金</w>
招 待
怀 特</w>
往 常</w>
南 瓜</w>
互 通</w>
AT P</w>
球墨 铸铁</w>
捆 扎</w>
折射 率</w>
制動 器</w>
伺服 电机</w>
伙 计</w>
从 业</w>
U DP</w>
F E
上 皮细胞</w>
SP E</w>
F 8</w>
金融 体系</w>
虚 构</w>
纪 录
太阳 系</w>
仔细 阅读</w>
激 增</w>
欧洲 央行</w>
州 政府</w>
墨 尔
决 算</w>
丽 丝</w>
AW G</w>
顾 问
精 度高</w>
外交 政策</w>
基准 点</w>
偏 向</w>
非营 利</w>
阿尔 及
不 大
d a
盘 车</w>
橱 柜</w>
速 度
节 流阀</w>
外 购</w>
范 式</w>
汽车 公司</w>
招 商</w>
参 量</w>
加工 过程</w>
pl an</w>
私 人
卫生 保健</w>
出 手</w>
I MS</w>
索 尼</w>
甘肃 省</w>
寄 给</w>
商 议</w>
TR UE</w>
St ate</w>
S i</w>
诈 骗</w>
视 听</w>
眼 下</w>
牧 业</w>
火山 岩</w>
并 非
f w
ber g</w>
饮 品</w>
规划 设计</w>
西 路</w>
菲 特</w>
丁 基</w>
一个 点</w>
AAS HTO</w>
男 友</w>
收 单</w>
S t</w>
本 科
护 理
幼 苗</w>
喂 食</w>
交易 量</w>
19 5</w>
通 则</w>
经济 区</w>
e p
L eg
B K</w>
骨 干</w>
研 讯</w>
拆 开</w>
cript ion</w>
處 理</w>
腰 椎</w>
Z K
電 机</w>
实 现
保 税
su pport
遮 罩</w>
电子 版</w>
展 品</w>
哈 哈</w>
附加 值</w>
远 景</w>
该 机</w>
脊 椎</w>
美 好
算 出</w>
的 物</w>
无 源</w>
拿 来</w>
好 比</w>
A s</w>
美国 公司</w>
续 订</w>
樱 桃</w>
卡 塔尔</w>
剪 刀</w>
置 疑</w>
曼 斯坦</w>
土库 曼斯坦</w>
Wor ks</w>
相 加</w>
挡 圈</w>
Soft ware</w>
8 2
违约 责任</w>
趣 味</w>
菜 肴</w>
油 层</w>
扬 程</w>
封 盖</w>
It em
轴 心</w>
多 层次</w>
外 围
C ube</w>
直 达</w>
周 岁</w>
傍 晚</w>
一 世</w>
V GA</w>
还 好</w>
识别 码</w>
床 垫</w>
尔 蒙</w>
骆 驼</w>
水 里</w>
氰 胺</w>
干燥 机</w>
尼 克
唐 代</w>
an s
鳄 鱼</w>
高 峰
较 弱</w>
议 事
片 式</w>
书 法</w>
P K</w>
静 静
量 值</w>
罐 头</w>
瑞 克</w>
牛 米</w>
紧 要</w>
睾 丸</w>
本 项</w>
新 股</w>
探 测
夏 日</w>
可 不是</w>
全 权</w>
200 00</w>
靠 着</w>
迪 士
在实践 中</w>
名 牌</w>
防 锈
这 为</w>
环 比</w>
水 汽</w>
楼 上</w>
戴 上</w>
恰 恰</w>
平均 数</w>
小 时候</w>
士 们</w>
企 鹅</w>
S ing
C Y
第一 家</w>
石 流</w>
沥 青
根 系</w>
含 硫</w>
os e</w>
马拉 松</w>
阿 密</w>
被 誉为</w>
虫 病</w>
脚 踝</w>
开发 银行</w>
唯 一性</w>
银行 卡</w>
另一 人</w>
乳 腺</w>
Sec ure</w>
耕 作</w>
日 趋</w>
双 臂</w>
亿 吨</w>
背 叛</w>
给 水管</w>
管 沟</w>
等 待
费 时间</w>
继 任
红 军</w>
源 泉</w>
港 区</w>
洪 道</w>
桥 台</w>
有 色</w>
教科 书</w>
友 善</w>
克 利</w>
金 正
金 斯</w>
精 油</w>
玻璃 钢</w>
抄 送</w>
不 服</w>
V ers
E HS</w>
D U
货 船</w>
线 或</w>
没 关系</w>
果 树</w>
余 地</w>
Analyz er</w>
20 9</w>
诉 求</w>
Sh ar
SP A</w>
海 地区</w>
察 觉</w>
印 发</w>
隐 喻</w>
迈 出</w>
谋 求</w>
讲 习班</w>
端 头</w>
易 燃
斯 塔
工商 银行</w>
巡 检</w>
9 4
这 门</w>
宗教 信仰</w>
停止 使用</w>
X Y
System s</w>
比例 尺</w>
有所 增加</w>
支 腿</w>
和 阀</w>
傲 慢</w>
B ank</w>
颠 覆</w>
青春 期</w>
胶 结</w>
第 条</w>
圆 环</w>
冷 冻
ec k
顶 峰</w>
集 气站</w>
该 种</w>
规格 书</w>
航天 器</w>
美 德</w>
班 次</w>
分 法</w>
全 家</w>
装 车</w>
纪念 碑</w>
第二 款</w>
共 生</w>
迪士 尼</w>
孙 子</w>
国 度</w>
参加 者</w>
解 法</w>
板 中</w>
客户 经理</w>
c re
Wil li
驾 照</w>
金融 业</w>
迈 阿密</w>
自 律</w>
肾上 腺</w>
私 有
电阻 值</w>
模 样</w>
排放 物</w>
不管 怎样</w>
附 着力</w>
聚酯 纤维</w>
直 销</w>
海 马</w>
注 解</w>
技术 部</w>
安德 鲁</w>
胎 盘</w>
粗 略</w>
树 状</w>
k A</w>
B H</w>
阿 布
纪录 片</w>
突 起</w>
版 次</w>
标识 号</w>
时 速</w>
所 受</w>
使 者</w>
Pro x
高 级别</w>
透 平</w>
贵 宾</w>
素 养</w>
淋 巴</w>
抚 养</w>
弱 势</w>
哪 些
一对 一</w>
这 颗</w>
转 轴</w>
垂 体</w>
低 点</w>
x s
V ide
Cor p</w>
航 程</w>
缝 线</w>
三 峡
u o</w>
in ity</w>
N B</w>
D K
胶 水</w>
快速 访问</w>
密封 环</w>
实践 证明</w>
公共 部门</w>
XX XX</w>
气 溶胶</w>
放 款</w>
SS C</w>
弗 朗
外汇 储备</w>
土 石方</w>
公 安</w>
红十字 会</w>
帆 布</w>
会议 纪要</w>
一 回</w>
t w</w>
D IMM</w>
证券 法</w>
次 日</w>
可 燃
原 讼</w>
三 峡</w>
N i</w>
震 荡</w>
身 旁</w>
贯 通</w>
解 脱</w>
脸 部</w>
标 的物</w>
机械 手</w>
情 况
尚 无</w>
压 低</w>
刷 子</w>
分 泌
龄 化</w>
除 本</w>
此 地</w>
标 準</w>
喉 咙</w>
X 4</w>
0 20</w>
迪 斯
谈 会</w>
美 利
汽 水</w>
巴塞 罗
主 场</w>
美 元
滤 液</w>
测试 计划</w>
提 炼</w>
干 嘛</w>
实验 性</w>
双 线</w>
冲击 波</w>
乒 乓
c n
15 4</w>
节 能
有 点
明 尼
再 造</w>
g re
GP RS</w>
高等 学校</w>
编 码
片 区</w>
彩 信</w>
小 球</w>
th on</w>
L LC</w>
酸 奶</w>
纸 盒</w>
等待 时间</w>
用 过</w>
尾 管</w>
出 身</w>
产业 结构</w>
下 肢</w>
三个 代表</w>
清晰 度</w>
尿 管</w>
锂 离子</w>
帖 子</w>
中小 学</w>
上 端</w>
长 春</w>
软件 系统</w>
计算机 网络</w>
一个 多</w>
us er
16 7</w>
赤 道</w>
收 音</w>
内 应</w>
通行 证</w>
最 远</w>
指挥 部</w>
T able</w>
G ST</w>
10. 0</w>
透 射</w>
油 气田</w>
梯 级</w>
悲 哀</w>
分 型</w>
保 全</w>
的 事</w>
病原 体</w>
爬 行</w>
学 派</w>
n Cloth</w>
瑟 琳</w>
拉 登</w>
凝 析
六 十
es p
默 德</w>
荒 谬</w>
官 方
四 级</w>
d b</w>
频 率
预 热器</w>
泥 石流</w>
惰 性</w>
团 结
初 中</w>
1. 3.
采购 商</w>
迫切 需要</w>
行政 处罚</w>
时 滞</w>
摄 像</w>
w ay</w>
行 数</w>
砾 岩</w>
渐 近</w>
校 对</w>
啤 酒
铁 素体</w>
晚 宴</w>
德 勒</w>
小 计</w>
哥 本
华 氏度</w>
便 携</w>
EM C
B BC</w>
3 300</w>
胃 癌</w>
病 菌</w>
留 住</w>
微 博</w>
IL M</w>
阿里 巴巴</w>
获得 成功</w>
莱 德</w>
考 生</w>
约束 条件</w>
支 路</w>
成 岩</w>
决 定
上 门</w>
并 存</w>
单 方面</w>
隔 墙</w>
消防 安全</w>
微 孔</w>
三 十年</w>
Micha el</w>
3 02</w>
邓小 平</w>
石灰 岩</w>
浓 厚</w>
据 称</w>
多 位</w>
仲裁 庭</w>
Hel p</w>
2 200</w>
首 尔</w>
规 矩</w>
胎 压</w>
石 场</w>
文 字
徘 徊</w>
量 生产</w>
质量 检查</w>
注 桩</w>
核 磁共振</w>
批 量生产</w>
写 明</w>
F Q
酸 化</w>
红 酒</w>
应 得</w>
平 凡</w>
人民 检察院</w>
S ize</w>
烤 箱</w>
双 腿</w>
丁 二烯</w>
R ich
19 69</w>
重 重</w>
极 其
工 种</w>
好 玩</w>
加 沙</w>
t r</w>
K G</w>
要 花</w>
节 理</w>
盖 上</w>
电 信号</w>
受害 人</w>
k a</w>
Object s</w>
评论 家</w>
色 情</w>
本 市</w>
十五 日</w>
丘 陵</w>
V E
肖 像</w>
离心 机</w>
浸 润</w>
应 适当</w>
东 风</w>
讼 费</w>
被 判</w>
服务 提供者</w>
斯 拉</w>
成 套设备</w>
RA S</w>
降 水量</w>
自然 科学</w>
教 员</w>
常 温</w>
完 工后</w>
利息 收入</w>
之 初</w>
D K</w>
16 6</w>
如 是</w>
加 劲</w>
矿 渣</w>
用 心</w>
技术 培训</w>
块 链</w>
古 城</w>
In formation</w>
运输 系统</w>
粉 末
托 运人</w>
区 块链</w>
买 受人</w>
ad ing</w>
顶 上</w>
资源 配置</w>
系统 安全</w>
查 理</w>
兼 具</w>
中 山</w>
LA B</w>
碳 酸盐</w>
止 动</w>
我 爱
地 亚
n a</w>
Dev elop
雌 激素</w>
看 好</w>
按 期</w>
小 巧</w>
垫 块</w>
匆 忙</w>
内 科</w>
跟 上</w>
微 波
合理 要求</w>
E IA</w>
香 草</w>
法 是</w>
中 英文</w>
航 站
航站 楼</w>
百 货
白 酒</w>
深 刻
左 岸</w>
出资 额</w>
st e
L ic
辽 宁</w>
走 动</w>
电 压表</w>
每 批</w>
无 尽</w>
散 文</w>
救 灾</w>
专家 系统</w>
G MP</w>
洗 净</w>
孕 育</w>
合理 化</w>
超 重</w>
灌 注桩</w>
济 南</w>
架 构
无 毒</w>
因 果
利害 关系</w>
主 动脉</w>
贴 纸</w>
胶 原
回 归
亚 麻</w>
缔 结</w>
床 单</w>
噪 比</w>
出发 点</w>
下 个月</w>
7. 9</w>
2 8.
1 3.1</w>
. b
公 示</w>
he ight</w>
f unct
ch o
进 军</w>
生命 力</w>
流 感
4 01</w>
麻 管局</w>
驱 使</w>
通 风机</w>
美术 馆</w>
疲 惫</w>
溶 于</w>
思 念</w>
输 电线</w>
歌 声</w>
无 色</w>
地 物</w>
制定 者</w>
减速 机</w>
交 响
g et</w>
撒 谎</w>
Bu zz
舰 船</w>
强 健</w>
基础 教育</w>
创 新型</w>
分 局</w>
主 人
S ite
S IP</w>
R GB</w>
间 接
急 速</w>
TO P</w>
第二 年</w>
汲 取</w>
文件 共享</w>
干 道</w>
亮 相</w>
迷 惑</w>
花 旗
生物 降解</w>
水 流量</w>
正 试图</w>
抨 击</w>
咎 于</w>
克 利
不可 分割</w>
Civ il</w>
热 心</w>
归 咎于</w>
应 税</w>
外科 手术</w>
危险 源</w>
M API</w>
3 90</w>
视 点</w>
归 入</w>
冲 浪</w>
再 保险</w>
义 词</w>
第一 层</w>
法 老</w>
收 养</w>
报告 期</w>
岩 心</w>
合同 法</w>
如 因</w>
喷 射
分析 家</w>
主 编</w>
一致 同意</w>
IF T</w>
轰 炸</w>
职 工
空 调
去 年
十 分之一</w>
力 争</w>
住 民</w>
co ok
锤 子</w>
质 素</w>
最高 点</w>
带 钢</w>
原 状</w>
万 年</w>
集 输</w>
老 龄化</w>
挥 发
Se a
黑 夜</w>
阴极 保护</w>
逼 真</w>
丙烯 酸酯</w>
Power Edge</w>
费 力</w>
电 势</w>
接 插件</w>
塌 陷</w>
cl ip
H y
石 料</w>
极 力</w>
之 星</w>
V T</w>
路 灯</w>
洗手 间</w>
总 长度</w>
山 水</w>
人 中</w>
东 路</w>
Y Y
2 75</w>
19 1</w>
近 年</w>
脚 部</w>
胡 萝卜</w>
类型 信息</w>
申 购</w>
汽 油机</w>
段 性</w>
常 态</w>
国际 性</w>
力 气</w>
体 积
1 25
概念 设计</w>
棒 材</w>
时 能</w>
撤 出</w>
抗 氧化剂</w>
上述 情况</w>
d c
贝 拉</w>
布 里</w>
履行 义务</w>
光 临</w>
C TRL</w>
颤 抖</w>
踏 上</w>
绝 不会</w>
抑 或</w>
威 廉
奥 迪</w>
主 干</w>
脂 蛋白</w>
缓 缓</w>
牢 度</w>
所 为</w>
办 人</w>
券 市场</w>
内 幕</w>
债 券市场</w>
酸 洗</w>
洗 衣</w>
大 堂</w>
估 计值</w>
C r</w>
高压 泵</w>
银行 存款</w>
规 限</w>
离 不开</w>
消火 栓</w>
不容 忽视</w>
不 均</w>
N ext</w>
转 交</w>
资 讯
绿 灯</w>
流 逝</w>
橡 木</w>
影 院</w>
W al
洁 净
外 衣</w>
历史 学家</w>
加 倍</w>
全 天</w>
l a</w>
Cor e</w>
缺 省
缺省 值</w>
无 故障</w>
施 加
大气 压力</w>
助 者</w>
k n
错 位</w>
行 了</w>
整 顿</w>
宫 颈</w>
各 异</w>
公共 关系</w>
会 因</w>
互 助</w>
复 制品</w>
农 夫</w>
之 心</w>
过 热器</w>
犯 人</w>
热 解</w>
心 动
历史 悠久</w>
之 物</w>
临 时性</w>
Tool s</w>
. org</w>
麦当 劳</w>
起 因</w>
罐 体</w>
墙 板</w>
圆 满
函 件</w>
信 噪比</w>
二氧化 硅</w>
两 件</w>
逗 留</w>
差 点</w>
结 节</w>
打 出</w>
成 功
含 水率</w>
古 迹</w>
伏 特</w>
c ent
Q o
16 9</w>
金 子</w>
脆 弱
绝缘 体</w>
管 束</w>
碟 机</w>
点 心</w>
数据 格式</w>
推进 剂</w>
初始 值</w>
交 配</w>
一切 都是</w>
道 琼斯</w>
民 意
反 击</w>
印花 税</w>
B ul
連 接</w>
缩 进</w>
掀 起</w>
小数 点</w>
填 充
凯 瑟琳</w>
中间 体</w>
高 贵</w>
纯 洁</w>
百分之 十</w>
熔 炼</w>
新 兴
开 除</w>
好 人</w>
鲍 勃</w>
调试 器</w>
网络 接口</w>
约 瑟</w>
管理 体制</w>
欧 文</w>
想 念</w>
伸缩 缝</w>
一大 堆</w>
O T
2 90</w>
工作 电压</w>
凝 聚力</w>
低 水平</w>
个 世纪</w>
p ol
PC C</w>
M BA</w>
1 3.2</w>
警示 灯</w>
土 矿</w>
跟 踪
独 占</w>
放 线</w>
抛 售</w>
大 为</w>
反 正</w>
占有 率</w>
A E
17 3</w>
航天 飞机</w>
扫描 电镜</w>
一 词</w>
it s</w>
试 运</w>
记 名</w>
美 化</w>
瓷 器</w>
内 镜</w>
m RNA</w>
ht ml
AS S</w>
鸽 子</w>
驱 動
有 误</w>
当 场</w>
南 美洲</w>
sa w</w>
16 4</w>
说 谎</w>
法 郎</w>
求 职
卡 上</w>
出现 异常</w>
全 权
之 余</w>
st ance</w>
B B</w>
西 雅
脊 椎
缝 制</w>
残 骸</w>
抗 议者</w>
可 笑</w>
B er
警察 局</w>
后 裔</w>
饱 满</w>
铣 刀</w>
注册 处</w>
日程 安排</w>
地 盘</w>
仇 恨</w>
仅 能</w>
d ev
Smart s</w>
镇 静</w>
该 市</w>
萨 尔</w>
华 州</w>
超 导</w>
紧 张
向 着</w>
动 向</w>
内 分泌</w>
仅 次于</w>
硅 谷</w>
小 腿</w>
单 证</w>
水 准
模 件</w>
T arg
ISO 9001</w>
B atch</w>
虫 害</w>
某 事</w>
匹 林</w>
re e</w>
齿轮 泵</w>
金 相</w>
選 擇</w>
环 流</w>
晚 于</w>
地 步</w>
立 面图</w>
河 边</w>
战略 目标</w>
处理 工艺</w>
发 烧</w>
写 成</w>
le ft</w>
这 才</w>
转 動</w>
行政 许可</w>
罪 名</w>
珠 海</w>
状 况
熔 点</w>
怎么 回事</w>
失 速</w>
同 上</w>
区 位</w>
功 于</w>
相 色谱</w>
活 检</w>
宽 恕</w>
堆 场</w>
中 段</w>
7 20</w>
阴 茎</w>
红 灯</w>
深深 地</w>
形 体</w>
帕 特
去年 同期</w>
W i</w>
骚 乱</w>
纳 斯</w>
每 根</w>
忘 了</w>
开 槽</w>
并不 一定</w>
倒 退</w>
EM P</w>
金融 中心</w>
一 阵
un it</w>
重新 装配</w>
看 守</w>
电 保护</w>
汉 姆</w>
哥本 哈根</w>
卷 曲</w>
M K
家 用
介 导</w>
7 3
19 67</w>
1 1.3</w>
钛 合金</w>
生长 发育</w>
爱 上</w>
外围 设备</w>
塞浦路 斯</w>
Cle ar
落 到</w>
窥 镜</w>
真空 管</w>
归 功于</w>
动 感</w>
金 银</w>
资源 分配</w>
盐 岩</w>
或 多
年 生</w>
就 行了</w>
4. 1.2</w>
软 组织</w>
第 九</w>
揭 开</w>
国民 党</w>
勤 奋</w>
保 有</w>
部门 经理</w>
表现 形式</w>
能 以</w>
更 多地</w>
排 在</w>
投 降</w>
可 口
关 断</w>
保 证书</w>
侏 罗
七 天</w>
高 尚</w>
股 款</w>
纠 缠</w>
牙 医</w>
点 子</w>
挡 泥板</w>
报 刊</w>
I I
2 12</w>
身 于</w>
英语 教学</w>
理 所
法 人
暖 和</w>
文件 柜</w>
外 资企业</w>
颠 倒</w>
面 谈</w>
阻 滞</w>
阳 区</w>
聚 四氟乙烯</w>
社会 效益</w>
液 力</w>
氧 量</w>
太 平</w>
参 赛
16 .</w>
统计 表</w>
纪念 品</w>
打 下</w>
四 轮驱动</w>
入 睡</w>
d w
SE RV
鞋 底</w>
阿 曼</w>
铁 道</w>
西 侧</w>
总 重量</w>
S N</w>
F ire</w>
F e</w>
空 白
右 转</w>
从 那
Di rect</w>
10. 4</w>
奥林匹 克
IN E</w>
B T
颤 动</w>
萨 尔
股 骨</w>
水 蒸气</w>
料 到</w>
搭 档</w>
协商 一致</w>
下 料</w>
TO PI
P ers
M i
铜 合金</w>
胶 体</w>
空 腔</w>
成 功率</w>
ps ig</w>
font colour</w>
P OS</w>
火 鸡</w>
操作 步骤</w>
振 捣</w>
L L
电力 供应</w>
平 整
常 开</w>
Tem pl
译 员</w>
无 障碍</w>
压 抑</w>
O F
高 雅</w>
芳 烃</w>
简 明</w>
深 部</w>
投资 额</w>
加 满</w>
交 会</w>
Bl u
积 雪</w>
测 线</w>
平 铺</w>
启 亮</w>
单 人</w>
c ur
SM B</w>
D an
防 御
即 用</w>
上 表</w>
Virt ual</w>
NT FS</w>
轴 套</w>
荷 尔蒙</w>
算 例</w>
田 地</w>
毛 皮</w>
五 次</w>
G D
B en
B and</w>
3. 1.1</w>
镇 痛</w>
解 冻</w>
脚 板</w>
正 压</w>
公 爵</w>
p x</w>
19 3</w>
项 中</w>
锁 住</w>
清 代</w>
浇 铸</w>
流 利</w>
文 物
捷 克
变化 率</w>
克 拉克</w>
陆 战队</w>
砂 石</w>
水 洗</w>
意见 书</w>
帷 幕</w>
双 侧</w>
2 400</w>
第二十 五条</w>
熄 火</w>
湿 性</w>
是 谁</w>
外 伤</w>
f 1</w>
外 接</w>
变化 趋势</w>
之 家</w>
http:// go
al ign</w>
虔 诚</w>
纽 带</w>
第二十 四条</w>
意向 书</w>
年 会</w>
专用 章</w>
TOPI x</w>
限 量</w>
向 本</w>
他 命</w>
ik i</w>
CL R</w>
15 7</w>
质 询</w>
电 离</w>
P AR
IT S</w>
责任 心</w>
结 点</w>
吸 尘器</w>
听 听</w>
A K
道 具</w>
经济 体制</w>
激 励
植 入
姓 氏</w>
大 夫</w>
切 成</w>
产 权
不用 说</w>
T est</w>
On line</w>
3 45</w>
19 61</w>
跳 转</w>
葡 聚糖</w>
脚 注</w>
社 交
生物 量</w>
本 币</w>
拉 圭</w>
就 读</w>
净 水</w>
p age</w>
鞍 座</w>
阶 段性</w>
游 说</w>
斯科 特</w>
开 工
二氧化 硫</w>
不 尽
不 久
X Y</w>
谓 词</w>
能 级</w>
火 炉</w>
世界 贸易
T C
PM C</w>
骑 马</w>
跨 文化</w>
藻 类</w>
新 药</w>
双 倍</w>
下 半
该 段</w>
网络 管理</w>
稳定 剂</w>
画 出</w>
月 光</w>
倍 体</w>
E clip
过 得</w>
第一 部</w>
滨 海</w>
伊 斯</w>
生 机</w>
现 场
卡 斯</w>
企业 法人</w>
T ab</w>
8 6.
风 采</w>
欠 款</w>
勇 士</w>
肩 上</w>
砂 土</w>
相 距</w>
物 权</w>
出口 处</w>
会 展</w>
三聚 氰胺</w>
M G</w>
L PG</w>
/ ?
防 卫</w>
苯 二
泛 滥</w>
水 系</w>
步 长</w>
正当 理由</w>
户 外
德 国人</w>
强 奸</w>
工程 造价</w>
青 年人</w>
第二十 六条</w>
历 来</w>
卡 梅
八 十</w>
会 社</w>
专 长</w>
L Y
贴 近</w>
粒 状</w>
烧 毁</w>
沙 龙</w>
个人 所得税</w>
世 代</w>
立 足</w>
立 学校</w>
法 论</w>
前 向</w>
划 伤</w>
W PC</w>
走 开</w>
热 性</w>
模 数</w>
时 用</w>
拟 用</w>
堪 称</w>
体 面</w>
K o
IN T</w>
野 兽</w>
费 城</w>
致 病</w>
社 群</w>
碳 化
http://go .microsoft.com/
缩 回</w>
方 法论</w>
捡 拾</w>
指 在</w>
导 数</w>
使用 方便</w>
c or
隔 壁</w>
提 要</w>
付 诸
Al l
层 楼</w>
I MAX</w>
超 限</w>
科 医生</w>
标 号</w>
原 住民</w>
创 性</w>
tra de</w>
Aut o</w>
非常 感谢</w>
钻 具</w>
金 黄色</w>
车 外</w>
继 电保护</w>
筹 划</w>
端 到</w>
王 室</w>
扇 门</w>
怎 样
呼 唤</w>
中 频</w>
贵 司</w>
怜 悯</w>
如 是说</w>
亲 近</w>
九 十</w>
下 移</w>
x i
脆弱 性</w>
洗涤 剂</w>
急 诊</w>
巴 格达</w>
马 达
艰 巨</w>
自 体</w>
翻译 成</w>
洗 手</w>
变 流器</w>
不足 道</w>
o id</w>
Do S</w>
避 免
日益 增长</w>
无法 控制</w>
扣 缴</w>
安 哥
商品 房</w>
传动 比</w>
上 周五</w>
一 十</w>
fw link
enc y</w>
Fl y
Communic ations</w>
CM P</w>
锥 齿轮</w>
银 河</w>
裝 置</w>
立 足
男 女
分子 结构</w>
ver s
I PC</w>
新闻 报道</w>
备 胎</w>
B N</w>
黄 素</w>
江 西省</w>
全 开</w>
入 职</w>
SO 2</w>
食 谱</w>
轻 轨</w>
舱 内</w>
等高 线</w>
窗 框</w>
督 导</w>
十 几
00 7</w>
迟 于</w>
赢 取</w>
立 项</w>
母 细胞</w>
开 着</w>
围 巾</w>
sp aceb
转 轮</w>
责任 人员</w>
讨论 会</w>
肝 细胞</w>
第六 章</w>
怎样 才能</w>
专 心</w>
万 辆</w>
G CC</w>
0 11</w>
状 物</w>
油 口</w>
忧 郁</w>
养 生</w>
零 星</w>
西 装</w>
星 际</w>
教 士</w>
所 涉</w>
切 面</w>
不 怕</w>
选 区</w>
浪 漫
正 要</w>
接 听</w>
布鲁 塞尔</w>
增 产</w>
伸 手</w>
18 8</w>
自 锁</w>
模糊 控制</w>
世 俗</w>
靴 子</w>
铁路 运输</w>
想 过</w>
公司 股票</w>
限制 器</w>
消化 道</w>
浮 子</w>
校 园
异步 电动</w>
低 功耗</w>
W H</w>
黎 明</w>
隶 属</w>
长 于</w>
错误 报告</w>
辅 料</w>
共 鸣</w>
俄亥 俄
e fore</w>
L un
随身 携带</w>
谣 言</w>
粥 样</w>
病 历</w>
概 算</w>
栽 培
承 运</w>
心肌 梗死</w>
小 数</w>
spaceb efore</w>
Set up</w>
It em</w>
2 15</w>
高 标准</w>
蝙 蝠</w>
画 像</w>
实现 目标</w>
周 转
临床 表现</w>
不 觉</w>
http://go.microsoft.com/ fwlink
目标 值</w>
排除 故障</w>
墨尔 本</w>
土 工
十字 路口</w>
凸 耳</w>
共 轭</w>
ur a</w>
那 家</w>
沥青 路面</w>
复 选</w>
埋 葬</w>
伤 员</w>
也 门</w>
迪 克</w>
无 偿</w>
St ev
SR S</w>
車 型</w>
胶 质</w>
吃 掉</w>
反射 率</w>
加勒 比</w>
棵 树</w>
反 面</w>
作 文</w>
中 枢
ar i</w>
Produ ct</w>
摘 录</w>
夹 板</w>
n Particle</w>
锁 销</w>
病 灶</w>
款 中</w>
桅 杆</w>
已 故</w>
同 一时间</w>
合格 证书</w>
代 之</w>
事 态</w>
邮 递</w>
痕 量</w>
州 立大学</w>
太 低</w>
公共 场所</w>
m on
2 11</w>
采 石场</w>
配 电网</w>
表 观</w>
自治 州</w>
晶 片</w>
教学 质量</w>
挂 接</w>
供应 方</w>
P ort</w>
师 生</w>
回 弹</w>
减 灾</w>
中间 件</w>
一 栋</w>
车 手</w>
舱 室</w>
习惯 于</w>
ust er</w>
钢 质</w>
酿 造</w>
液 位计</w>
模具 设计</w>
保持 联系</w>
T iv
操作 方法</w>
井 筒</w>
17 00</w>
起 码</w>
排 查</w>
悬 停</w>
崇 高</w>
十 九
A 5</w>
黏 膜</w>
高 音</w>
百分 之</w>
理工 大学</w>
牢 记</w>
已 获</w>
E VA</w>
预 知</w>
明显 提高</w>
合 众
可 可</w>
参考 点</w>
个 体
Sp ort
2 64</w>
航 向</w>
第一 百</w>
租 车</w>
歌 词</w>
收 割机</w>
急 救
干 粉</w>
压 气机</w>
半 角</w>
保 税</w>
促进 作用</w>
x 2</w>
雪 佛
绝对 值</w>
第 页</w>
白 蛋白</w>
电 枢</w>
消防 泵</w>
检 讨</w>
亚特兰 大</w>
an ce
Buzz saw</w>
A z
麻 痹</w>
电 刷</w>
楼 梯
果 说</w>
更 衣
实 惠</w>
单 面</w>
作 法</w>
K M</w>
附 于</w>
教学 改革</w>
埋 藏</w>
军事 行动</w>
乘 积</w>
y e</w>
G en</w>
Al pha</w>
违 章</w>
物 流
津 巴布
柠檬 酸</w>
人 体
p i</w>
F lex</w>
C ode</w>
量 身</w>
无 意识</w>
插 销</w>
录 用</w>
寄生 虫</w>
传 授</w>
首 脑
首 府</w>
达 尔文</w>
考 虑
类 比</w>
t 1</w>
st ruct
ram et
邀请 函</w>
讯 号</w>
职 守</w>
短 片</w>
看 一看</w>
电 炉</w>
如 果说</w>
厚 的</w>
一 扇</w>
at a</w>
P PE</w>
N umber</w>
水 化</w>
整 形</w>
心 思</w>
五 角
风 洞</w>
服务 设施</w>
最 合适</w>
平整 度</w>
学 年</w>
外 资
i D</w>
行业 协会</w>
最低 点</w>
工程 机械</w>
防 线</w>
水 区</w>
害 性</w>
墨西哥 湾</w>
P X
M IL</w>
An g
银 河
斯 图
布 雷</w>
小 事</w>
http://go.microsoft.com/fwlink /?
飞 翔</w>
道 教</w>
养老 保险</w>
页 眉</w>
笼 罩</w>
打 死</w>
内 皮细胞</w>
以下 几点</w>
so l
N B
该 法</w>
接 入点</w>
尽 可
大力 发展</w>
大 叫</w>
台 车</w>
加 水</w>
别 忘了</w>
ber os</w>
K 1</w>
57 1.
菱 形</w>
线 材</w>
吸附 剂</w>
19 49</w>
计算机 程序</w>
派 驻</w>
交 纳</w>
N R</w>
AT S</w>
雪 花</w>
西雅 图</w>
本 段</w>
当 有</w>
年 收入</w>
妥 当</w>
A ir
18 1</w>
钾 盐</w>
租 借</w>
气 隙</w>
方 人</w>
当今 世界</w>
小 路</w>
剑 桥</w>
6 10</w>
静 下来</w>
气 动
政 司</w>
压 接</w>
加 利亚</w>
食 物
着 装</w>
有限 元法</w>
普 森</w>
停 机
传 動</w>
东 欧</w>
一 百</w>
H ol
CO D</w>
ph ere
NE T
高 差</w>
航天 局</w>
无 视</w>
上 场</w>
第四 季度</w>
新加 坡
断 定</w>
和 子</w>
发送 器</w>
北 美洲</w>
停 业</w>
三 轴</w>
u d</w>
邮 报</w>
有 种</w>
无 处
向 往</w>
动 人</w>
L u
被 困</w>
血 脂</w>
胶 原</w>
机 长</w>
期 中</w>
十 一月</w>
共和 国
长 裤</w>
较 高</w>
浪 费时间</w>
小 偷</w>
对 阵</w>
多 巴
上 而下</w>
o ff</w>
O ff</w>
M 5</w>
L a</w>
15 9</w>
针织 衫</w>
车 里</w>
耐 久</w>
紧 身</w>
精 湛</w>
碳 纳米管</w>
救 治</w>
夹 钳</w>
基准 线</w>
互 锁</w>
两 性</w>
lin e
ia f</w>
2. 2.1</w>
震 撼</w>
牛 津</w>
托 尼</w>
彼 此
可 信度</w>
不 休</w>
a LUN</w>
S IM
马达 加
象 限</w>
相 切</w>
灾 区</w>
微 微</w>
及 本</w>
伍 德</w>
丙烯 酰胺</w>
ret urn</w>
能 见
由 此
牌 子</w>
安 大
内 力</w>
伊 朗
W R</w>
陈 代谢</w>
防护 用品</w>
赞 比亚</w>
联 运</w>
消费 量</w>
新 陈代谢</w>
拉 特</w>
华 北</w>
全 力
乳 胶</w>
上 车</w>
荣 誉
监 察
卸 车</w>
价 目表</w>
SS HE</w>
19 39</w>
津巴布 韦</w>
差 异化</w>
均 衡
加勒比 海</w>
Ev ent</w>
2 6.
生存 率</w>
村 落</w>
引 流</w>
不 至于</w>
st art</w>
R R
马达加 斯加</w>
触 针</w>
约 旦</w>
数码 相机</w>
展 现出</w>
大 蒜</w>
特 工</w>
抗 辩</w>
小 吃</w>
夺 取</w>
哈 特</w>
出 新</w>
亲 人</w>
st ore</w>
f s</w>
2. 2.2</w>
正 则
减 税</w>
19 9</w>
t t</w>
软 篷</w>
车 程</w>
藏 室</w>
菌 剂</w>
疲 倦</w>
环境 监测</w>
树 干</w>
我爱 你</w>
姚 明</w>
句 话</w>
压力 机</w>
一 手</w>
Tr ust</w>
重 伤</w>
经理 部</w>
精 明</w>
离心 式</w>
打 捞</w>
交易 员</w>
v iew</w>
I AS</w>
CI CS</w>
高 温
结 清</w>
接 触点</w>
压 强</w>
卫 浴</w>
ro b
铁 塔</w>
能见 度</w>
皇 室</w>
君 主</w>
儒 家</w>
4 40</w>
降 价</w>
沙 丘</w>
梓 潼</w>
暑 假</w>
揽 胜</w>
掉 期</w>
子 程序</w>
外 商</w>
信 服</w>
ific ation</w>
E PA</w>
路 径
电气 化</w>
求 助</w>
尽可 能
之 事</w>
长 方形</w>
行为 能力</w>
热 衷
注册 号</w>
参考 价值</w>
做 饭</w>
颇 为</w>
签 收</w>
滚 珠</w>
清 册</w>
据 悉</w>
国 营</w>
其 一</w>
说 起</w>
组织 学</w>
情 侣</w>
事 前</w>
E qu
3. 2.2</w>
第二十 七条</w>
暂 态</w>
故 乡</w>
支 付
夹 角</w>
嘧 啶</w>
加 气</w>
网络 系统</w>
清 点</w>
感 恩</w>
幸 存</w>
M ed
C CP</w>
Ar t
表 土</w>
盛 大</w>
搭 乘</w>
半 轴</w>
下 个</w>
Y ou
自 私</w>
第二 层</w>
堕 落</w>
养 殖
酸 度</w>
气 态</w>
修 筑</w>
装 甲</w>
自 尊</w>
着 迷</w>
电话 线</w>
灯 座</w>
em c
able d</w>
NIK E</w>
B CV</w>
阵 地</w>
虚拟 目录</w>
联合 王国</w>
石 蜡</w>
普通 人</w>
效 性</w>
外 延</w>
城市 交通</w>
向 东</w>
会 场</w>
at es</w>
铜 线</w>
转 发器</w>
考 勤</w>
老 是</w>
浮 雕</w>
江 南</w>
微 不足道</w>
已 婚</w>
审计 工作</w>
埃 德</w>
厂 址</w>
中华人民 共和国
3 D</w>
节 制</w>
聚 光灯</w>
白 垩</w>
戏剧 性</w>
导 板</w>
N EMA</w>
Aut om
鲸 鱼</w>
重 量
送 至</w>
觉 醒</w>
港 币</w>
消耗 品</w>
油 路</w>
格 拉斯</w>
工 发</w>
女 士们</w>
删 除
Fil ename</w>
本 案</w>
安全 帽</w>
名 列</w>
海 洛
可 更改</w>
乳 制品</w>
一 时期</w>
送 回</w>
老 朋友</w>
粘结 剂</w>
煤 炭
本 表</w>
新 手</w>
应 付
塞尔 维亚</w>
吸 烟
压 口</w>
出 土</w>
人 大</w>
世 间</w>
AP T</w>
除 霜</w>
置 入</w>
移 植
流 率</w>
悲 观</w>
W h</w>
Ph ot
B E
风 筝</w>
英文 版</w>
脱 颖
焊 后</w>
来 得</w>
当事 方</w>
干燥 剂</w>
ress ion</w>
p art
S V</w>
脱颖 而出</w>
聘 者</w>
i pp
b s</w>
S 10</w>
Cro ss
细胞 膜</w>
洞 察
弄 清楚</w>
保证 体系</w>
中 枢</w>
上 用</w>
羡 慕</w>
爵 士
古 希腊</w>
加 里</w>
前 盖</w>
P age
CI FS</w>
情 人节</w>
d ana</w>
艺术 作品</w>
海 量</w>
有 意识</w>
普通 话</w>
开 户
以 东</w>
一 角</w>
RT U</w>
较 快</w>
电磁 波</w>
滑 稽</w>
旺 盛</w>
戴 着</w>
小 康
安哥 拉</w>
0. 03</w>
项目 区</w>
集中 化</w>
缺 水</w>
标 语</w>
无 刷</w>
新 版</w>
搭 设</w>
取 而
分裂 症</w>
债 项</w>
Mon itor</w>
J MS</w>
AR M</w>
8. 9</w>
雄 心
转 售</w>
货 舱</w>
背 景
民 营企业</w>
P F
Dom ain</w>
D ig
骗 子</w>
面 条</w>
追 随</w>
规 管</w>
表面 温度</w>
空 前</w>
私 钥</w>
柱 上</w>
快 餐</w>
叶 绿
再 也
之 力</w>
S ave</w>
赛 道</w>
接触 式</w>
年龄 段</w>
国 立</w>
体积 小</w>
E EC</w>
迎 合</w>
继 而</w>
打 字
取而 代之</w>
厄 瓜
为 一体</w>
M MC</w>
A EC</w>
集 线器</w>
焊 剂</w>
微 风</w>
安 宁</w>
Medi a
纪念 日</w>
珊 瑚
毛 衣</w>
平 头</w>
局 部
处 处</w>
地 用</w>
各 层</w>
可见 光</w>
位 角</w>
顾 虑</w>
选 矿</w>
该 页</w>
电解 液</w>
淤 积</w>
实践 经验</w>
中 仅</w>
T I
太 少</w>
麻醉 药品</w>
阿尔及 利亚</w>
自 助
能 量
测 度</w>
低压 配电</w>
S PC</w>
Ra inf
Ker beros</w>
溢 洪道</w>
格 拉</w>
持 平</w>
投 掷</w>
打 分</w>
革命 性</w>
桥 接</w>
媒体 报道</w>
喷 管</w>
产 妇</w>
义 务
量 度</w>
石 膏
无 锡</w>
控制 算法</w>
戈 尔</w>
契 据</w>
塔 楼</w>
化 妆</w>
先 用</w>
储备 金</w>
也 好</w>
稀 有</w>
才 华</w>
命令 提示符</w>
判 据</w>
Quark X
19 6</w>
齿 形</w>
高 时</w>
读 入</w>
蒸 汽
清洗 剂</w>
浅 层</w>
所 有制</w>
首脑 会议</w>
能源 部</w>
得 来</w>
巴比 伦</w>
右 下角</w>
LO CK</w>
钢 厂</w>
超 音速</w>
纪 律
比 利</w>
无线 通信</w>
帐 簿</w>
契 机</w>
堡 垒</w>
Calib ri</w>
经营 权</w>
对 焊</w>
偏 远</w>
镇 压</w>
热 工</w>
油 嘴</w>
地球 物理</w>
合格 率</w>
公 钥</w>
令人 兴奋</w>
为人 知</w>
B ase</w>
顶 住</w>
排 气口</w>
房 地
年 报</w>
外 长</w>
吞 噬</w>
医 保</w>
b in</w>
Ti O2</w>
Rainf inity</w>
调 度
角 处</w>
罗 德</w>
屈 服
客 舱</w>
减 至</w>
公 牛</w>
一 滴</w>
遍 历</w>
这 间</w>
测量 范围</w>
拱 顶</w>
多种 多样</w>
内 皮</w>
偏 航</w>
s v
Sh ow</w>
S en
C RE
表 笔</w>
实 习
四 元</w>
删除 程序</w>
环境 保护
扶 贫</w>
打 孔</w>
度 盘</w>
Ma ster</w>
18 6</w>
身 影</w>
而 行</w>
溪 流</w>
接 替</w>
下 线</w>
R ot
时 值</w>
后 背</w>
公共 利益</w>
倾 斜度</w>
so ur
ow er</w>
ag er</w>
19 4</w>
齿 轮轴</w>
重 工</w>
避孕 套</w>
蒸馏 水</w>
海 伦</w>
放 牧</w>
就 近</w>
光 荣</w>
过 压</w>
第四 系</w>
数据 项</w>
太 快</w>
合 乎</w>
L V</w>
稀 少</w>
百分 率</w>
人 格
丽 莎</w>
a .
王 星</w>
漩 涡</w>
师范 大学</w>
增加 值</w>
喷 丸</w>
另 一家</w>
公 务</w>
侦 测</w>
ial s</w>
伪 装</w>
7. 1.
隐 式</w>
透 水</w>
轮 廓
硬 顶</w>
硅 烷</w>
平 息</w>
小 肠</w>
外交 官</w>
公 河</w>
会计 报表</w>
裂 谷</w>
纸 币</w>
热 闹</w>
应 予</w>
五 分之一</w>
9 3
耶 稣
核 素</w>
多 德</w>
堵 住</w>
医 嘱</w>
切 入</w>
乔 治
T ot
GP O</w>
DO T</w>
Ch ina</w>
钢 梁</w>
透 支</w>
论 者</w>
疲 劳
机电 设备</w>
干 管</w>
师 傅</w>
十 四
争 辩</w>
不 前</w>
sh i</w>
SF 6</w>
解 析
胡 锦
死 后</w>
未 获</w>
摔 倒</w>
可 口</w>
双 工</w>
倍 增</w>
五金 件</w>
C SP</w>
蔗 糖</w>
特 大</w>
有 助</w>
垃圾 桶</w>
另一 半</w>
C ook
迷 失</w>
磨 床</w>
水 机</w>
文 斯</w>
拥 有者</w>
吸 湿</w>
s c</w>
O ver
H2 O</w>
Desk top</w>
Dav id</w>
AL L</w>
弊 端</w>
常 压</w>
单 行</w>
致 辞</w>
炫 耀</w>
发行 股票</w>
分布 图</w>
颁 奖
破 解</w>
湄 公河</w>
洞察 力</w>
水 厂</w>
有 功</w>
换 言之</w>
性 爱</w>
应 变
台 架</w>
争 执</w>
三 菱</w>
背 光</w>
缔 约</w>
粒 细胞</w>
没 用</w>
时 尚
埋 入</w>
合众 国</w>
吁 请</w>
19 68</w>
香 肠</w>
甜 点</w>
户 口</w>
T i</w>
0 1.
观察 者</w>
精神 分裂症</w>
环境 质量</w>
測 试</w>
攸 关</w>
扮 演
德 曼</w>
尽量 避免</w>
Re plic
ON E</w>
菌 素</w>
粗 体</w>
管 中</w>
第二十 八条</w>
疑 似</w>
清 澈</w>
海洛 因</w>
SE M</w>
A MS</w>
著 名
有 益于</w>
旷 野</w>
应 仅</w>
安东 尼</w>
分配 利润</w>
C MS</w>
青 海</w>
更 多</w>
文 体</w>
俄亥俄 州</w>
UL T</w>
RE SS</w>
A F
5. 1.1</w>
水 冷</w>
对 非</w>
家 务</w>
下 为</w>
Hom e</w>
油 流</w>
敲 打</w>
搞 好</w>
天 花</w>
圣 灵</w>
Refer ence</w>
CR R</w>
降 噪</w>
购物 车</w>
热衷 于</w>
沼 气</w>
文件 传输</w>
捍 卫</w>
宁 夏</w>
另 一名</w>
刻 画</w>
M a</w>
违规 行为</w>
社会 福利</w>
水 工</w>
小 行星</w>
劣 化</w>
公司 员工</w>
19 65</w>
调整 器</w>
词汇 表</w>
比 拟</w>
异 形</w>
布莱 克</w>
巴塞罗 那</w>
1 1.5</w>
显 出</w>
少 见</w>
密封 性</w>
后 勤
9. 8</w>
闪 闪
长 袖</w>
生 育
旅游 者</w>
放射性 物质</w>
打 開</w>
哈 尔</w>
主 教练</w>
一 朵</w>
.c n</w>
零 配件</w>
朝 下</w>
当 该</w>
同步 器</w>
全 名</w>
id d
N ode</w>
页 面
较 慢</w>
结 余</w>
系统 化</w>
Perform ance</w>
庇 护</w>
四 方</w>
号 召</w>
反 渗透</w>
保 质
lo ad</w>
进 货</w>
试 压</w>
胡锦 涛</w>
男 孩子</w>
无 功
教 师
怀 着</w>
圣 地亚
土 质</w>
商业 活动</w>
以上 学历</w>
人员 伤亡</w>
重量 轻</w>
脂 质</w>
断 開</w>
挑 剔</w>
全 线</w>
侧 梁</w>
D PM</w>
需 品</w>
达 斯</w>
药 用</w>
直 线
现 年</w>
本 协定</w>
一 站
Ch ar</w>
19 58</w>
驾驶 舱</w>
首 届</w>
防护 服</w>
诅 咒</w>
描述 性</w>
发 育
保 加利亚</w>
资 产阶级</w>
营 救</w>
得 上</w>
匮 乏</w>
全 书</w>
假 说</w>
上 取</w>
三 维
Nav ig
5. 2.1</w>
页面 设置</w>
电 灯</w>
水 合物</w>
最 受</w>
差 异性</w>
基准 日</w>
东 侧</w>
一体 式</w>
v s</w>
s ect
0 2.
魔 力</w>
非常 低</w>
购 买方</w>
紧 邻</w>
次 生</w>
极其 重要</w>
插 脚</w>
仪器 仪表</w>
买 进</w>
pl y</w>
4. 3.1</w>
顺 应</w>
硝 化</w>
摇 滚</w>
n ap</w>
d ate</w>
W LAN</w>
造 出</w>
流 媒体</w>
改 性
原 地</w>
先 驱</w>
休 闲
Tiv oli</w>
Cre ate
头 来</w>
原 木</w>
人 用</w>
设计 变更</w>
滋 润</w>
水 冷
晶 石</w>
显示 方式</w>
喷 泉</w>
先进 性</w>
or y
U p</w>
调查 局</w>
终端 服务器</w>
相 隔</w>
座 圈</w>
PS U</w>
G S
Fact ory</w>
1 4.1</w>
闪 耀</w>
相 容</w>
晓 得</w>
弹 塑性</w>
层 中</w>
储 气罐</w>
上 映</w>
st er
h a
TY PE</w>
铝 箔</w>
肝 硬化</w>
汇 入</w>
氢 化</w>
不 复
ri d</w>
P ent
2 22</w>
2 13</w>
0. 10</w>
稳 压</w>
核 数
即时 消息</w>
长 约</w>
申 明</w>
滋 养</w>
游 标</w>
清 华
一 再</w>
X 3</w>
0. 50</w>
热 键</w>
屏 蔽
出生 日期</w>
EC C</w>
返 修</w>
表 彰</w>
inf o</w>
问题 解答</w>
问 世</w>
转 炉</w>
明 知</w>
放 回</w>
eng th</w>
ad a</w>
5 20</w>
联 通</w>
碳 化</w>
盟 委员会</w>
率 领</w>
欧 盟委员会</w>
德 州</w>
切 削
Sp e
紧急 制动</w>
签 定</w>
浮 力</w>
棉 布</w>
封 建
坡 面</w>
内 华
代 谢
3 12</w>
原 油
北 欧</w>
ch an
E uro
4 60</w>
12. 7</w>
转 过</w>
穿 梭</w>
哲 学
84 82</w>
领 事
自由 主义</w>
是 指</w>
受 制
加 州
加 宽</w>
Col l
BO T</w>
集成 式</w>
有点 像</w>
承 建
思 索</w>
型 肝炎</w>
之 多</w>
NetW are</w>
页 脚</w>
焊 道</w>
无 关
感 恩
岩 石
国 内
千 万
全 厂</w>
一 职</w>
s 2</w>
讲 究</w>
硬 件
电子 显微镜</w>
照 着</w>
外科 医生</w>
土 星</w>
中国 科学院</w>
不足 之处</w>
g if</w>
cs s</w>
AX 100
颇 具</w>
领 事</w>
随 者</w>
浮 式</w>
建筑 施工</w>
做 生意</w>
下 均</w>
运 移</w>
读取 器</w>
紧 接着</w>
看 得
电 筒</w>
收 录</w>
审 查
問 題</w>
ic h</w>
T om
N TP</w>
Ma in</w>
Cap t
肺 结核</w>
慕 尼
导 员</w>
地 形图</w>
国际 劳工
不 吃</w>
N M
繁 华</w>
灌 木
厚 厚的</w>
仁 慈</w>
CP P</w>
议 定</w>
衬 底</w>
探 险
张 拉</w>
岩 相</w>
冰 块</w>
不 来</w>
烹 调</w>
教学 法</w>
平 缓</w>
工业 园</w>
鞋 款</w>
粉 质</w>
玻 利
每 晚</w>
日 记帐</w>
er o</w>
O SS</w>
环境 空气</w>
操作 前</w>
圣地亚 哥</w>
可 否</w>
今天 下午</w>
临时 文件</w>
B AM</w>
轮 罩</w>
第二 项</w>
理所 当然</w>
al a</w>
SS O</w>
H SSE</w>
试用 期</w>
社 保</w>
民 俗</w>
更 为重要</w>
探 寻</w>
G Y</w>
资产 负债</w>
综合 体</w>
斯洛 伐
收 款人</w>
建 有</w>
入 学
不 信</w>
下 会</w>
u g</w>
soc i
View Cube</w>
萌 发</w>
流水 线</w>
拉 拔</w>
心 力
巨 星</w>
套 头</w>
吡 啶</w>
具体 内容</w>
例 行
pat h</w>
n am
N H
抛 出</w>
惊 叹</w>
大 通</w>
分布 式
亲 和
h ost</w>
R L</w>
B PM</w>
电话 会议</w>
提供 数据</w>
僵 局</w>
细 砂</w>
直 射</w>
熔 岩</w>
流 道</w>
江 市</w>
民事 诉讼</w>
护 目镜</w>
性 命</w>
封 建</w>
介 电
ME P</w>
筹 措</w>
直 肠</w>
画 笔</w>
方 体</w>
居 所</w>
刹 车
刚 果</w>
SP I</w>
N PS</w>
火 力
毯 子</w>
杏 仁</w>
屋 子里</w>
寿 险</w>
二十 一</w>
下 单</w>
b ack
ation al
U SE
St ar</w>
流 血</w>
晶 硅</w>
敢 于</w>
借 此</w>
一 分
N V</w>
1 20
隶 属于</w>
深 层次</w>
明 代</w>
惯 性
底 特
常 年</w>
以 该</w>
维 他命</w>
电 器
t e
锁 上</w>
资本 金</w>
管 有</w>
水 滴</w>
拼 装</w>
当 心</w>
废 品</w>
北 路</w>
非常 复杂</w>
课 时</w>
烧 炉</w>
批 予</w>
大大 减少</w>
中 值</w>
S Y</w>
Men u</w>
. htm</w>
运 载
缺 血性</w>
缓 释</w>
殖 民</w>
权 益
本 赛季</w>
擦 伤</w>
抽 头</w>
国 标</w>
但 会</w>
下 压</w>
sh ot</w>
con n
民主 党人</w>
往 复</w>
布 兰
前列 腺癌</w>
t ran
高 额</w>
隔 振</w>
评 测</w>
涌 现</w>
氣 囊</w>
棕 榈</w>
两 分钟</w>
纳 斯达
糖 浆</w>
工 党</w>
基础 油</w>
先 是</w>
侦 探</w>
作 曲
亚 热带</w>
expnd tw</w>
Ident ity</w>
B y
AR C</w>
里 亚
脑 子</w>
水 坑</w>
智 商</w>
征 集</w>
如 上</w>
zh i</w>
ut ion</w>
避免 出现</w>
英国 政府</w>
线 框</w>
素 材</w>
档 次</w>
架 飞机</w>
失 敗</w>
多 处</w>
及 第</w>
al t</w>
CB M</w>
酗 酒</w>
日 产</w>
攀 登</w>
手 動</w>
仪器 设备</w>
黄 昏</w>
高 龄</w>
边 缘
穆 罕
刺激 性</w>
人身 安全</w>
1 3.5</w>
钢 笔</w>
解除 合同</w>
球 状</w>
l in</w>
PT FE</w>
财政 部长</w>
设 防</w>
美国 市场</w>
罗斯 福</w>
示威 者</w>
展 示
CC TV</w>
财务 总监</w>
角 形</w>
气 液</w>
成 本法</w>
居住 区</w>
地质 灾害</w>
5 60</w>
電 動</w>
木 星</w>
加 速
凶 手</w>
停 产</w>
on y</w>
G a
玩 游戏</w>
汉 族</w>
专用 设备</w>
不 敢
M SD
镇 上</w>
强 国</w>
事 由</w>
S un
Open Manage</w>
6 20</w>
缺 乏
签 章</w>
洁 度</w>
墙 纸</w>
因 该</w>
不 合
Y es</w>
SYST IMAX</w>
落 叶</w>
翼 翼</w>
漠 化</w>
斯 卡</w>
底特 律</w>
远 光灯</w>
跌 至</w>
赌 注</w>
语法 错误</w>
螺 帽</w>
经营 性</w>
管 炎</w>
照 看</w>
妈 的</w>
堆 肥</w>
国际 金融公司</w>
加 尔</w>
MA X
Fre e</w>
青 藏
管 器</w>
浇 水</w>
条 形</w>
2 14</w>
集 市</w>
神经 细胞</w>
炭 黑</w>
滑 道</w>
换 能器</w>
押 金</w>
一站 式</w>
Reg ist
L SI</w>
FO NT</w>
4 30</w>
颅 内</w>
阳 光
水 密</w>
F ig
3. 4.
零 位</w>
防 控</w>
轻 柔</w>
行政 区域</w>
癌 细胞</w>
电子 系统</w>
犯罪 行为</w>
弯 道</w>
实际 操作</w>
反 射器</w>
出 产</w>
侵 略
专 营</w>
st re
鸡尾 酒</w>
高级 官员</w>
磨 光</w>
碳酸 盐岩</w>
电 汇</w>
我 校</w>
夏 令
包 容性</w>
中 路</w>
I A
防 水层</w>
详 情
蕴 含</w>
脉 搏</w>
牢 固
开放 系统</w>
DV I</w>
酿 酒</w>
配 售</w>
筒 仓</w>
服务器 时</w>
日 照</w>
新 式</w>
密码 保护</w>
一 束</w>
需求 方</w>
见 于</w>
物 性</w>
放 油</w>
幽 灵</w>
安全 标志</w>
厌 烦</w>
冷 漠</w>
修 养</w>
亚 伦</w>
V II</w>
解 聘</w>
船 队</w>
绿 洲</w>
监督 员</w>
合 肥</w>
光 洁度</w>
re ad
Sh ow
L CC</w>
5. 2.2</w>
计量 泵</w>
苯 丙
舒适 感</w>
耀 眼</w>
纸 盘</w>
笼 子</w>
空 地</w>
测试 步骤</w>
发生 意外</w>
压 井</w>
些 许</w>
不 介意</w>
三 重</w>
6 90</w>
车辆 段</w>
膨胀 率</w>
纳斯达 克</w>
灌 溉
插 口</w>
岗 位
因果 关系</w>
参考 值</w>
写字 楼</w>
下 的</w>
f er</w>
2 42</w>
防 震</w>
精 加工</w>
机 率</w>
扎 实</w>
大 程度</w>
V 3</w>
N M</w>
需 要
财 团</w>
第二 百</w>
泥浆 泵</w>
怪 异</w>
多 相</w>
口 音</w>
区 政府</w>
付 款人</w>
亦 须</w>
中 长期</w>
中 速</w>
管 家</w>
易 用</w>
守 卫</w>
大 中型</w>
塞 性</w>
唯 有</w>
关键 作用</w>
为 限</w>
这 有</w>
温 水</w>
步 枪</w>
放 慢</w>
住 处</w>
E mail
里 尔</w>
朝 上</w>
无 序</w>
基因 型</w>
受 精</w>
分 卡</w>
出 人
克莱 斯勒</w>
Sp ec
醛 树脂</w>
罐 子</w>
穆罕 默德</w>
皮 质
汽 包</w>
所 定</w>
急 于</w>
应付 账款</w>
光 谱仪</w>
丰富 多彩</w>
2 O3</w>
超 强</w>
地方 性</w>
乘 数</w>
ric h</w>
b order</w>
F ir
通讯 器</w>
普通 法</w>
摇 摇
悲 惨</w>
取得 联系</w>
几 条</w>
内 窥镜</w>
Sn ap</w>
SP EED</w>
铣 削</w>
画 作</w>
战略 规划</w>
学 界</w>
办公 桌</w>
g a
F ID</w>
3. 1.2</w>
里 奇</w>
肾 病</w>
突 尼斯</w>
更衣 室</w>
掘 进</w>
承建 商</w>
光 驱</w>
低 时</w>
中枢 神经</w>
s ys
PER C</w>
E I</w>
西 红
正则 表达式</w>
卵 泡</w>
克 雷
麦 凯恩</w>
高 手</w>
美国 银行</w>
秘 诀</w>
根 基</w>
戴 维斯</w>
总 包</w>
布 拉</w>
大大 的</w>
d o</w>
RO I</w>
5. 00</w>
胰 腺</w>
福 州</w>
热 备</w>
来 时</w>
慕尼 黑</w>
医 务</w>
传输 数据</w>
M bps</w>
紧 靠</w>
熔 炉</w>
T F</w>
集 气</w>
该 书</w>
米 歇尔</w>
本 厂</w>
分 枝</w>
三十 日</w>
Py thon</w>
格 栅
性能 参数</w>
居住 地</w>
喷 枪</w>
呼 声</w>
原 水</w>
光 合</w>
产 率</w>
专 科</w>
不 胜
p ut
S ite</w>
据 估计</w>
对 点</w>
复 古</w>
保 函
隔 断</w>
并不 知道</w>
巡 回
农 用</w>
再次 出现</w>
an i</w>
踏 步</w>
惧 怕</w>
人 称</w>
腔 室</w>
第三 代</w>
浸 没</w>
本 应</w>
四 位</w>
兴奋 剂</w>
一 幕</w>
x ml
Fil es</w>
走 近</w>
曝 气</w>
麻 省
金 星</w>
护 面</w>
广 大
化 水</w>
东 海</w>
Ver dana</w>
Ultra Scale</w>
O I</w>
门 控</w>
虚拟 现实</w>
第二 代</w>
打 着</w>
市 内</w>
别 处</w>
公共 政策</w>
Gener al</w>
Eclip se</w>
非 常规</w>
谢 谢
沉淀 池</w>
新 高</w>
X Path</w>
2 28</w>
足 额</w>
课 件</w>
角 落
稽 核</w>
独 裁
整 型</w>
客 体</w>
响 声</w>
g u
T CO</w>
C md</w>
铺 筑</w>
缩 水</w>
细 心</w>
有 点儿</w>
工作 服</w>
入 场</w>
交通 部</w>
九 龙</w>
L ight
顶 盒</w>
联系 电话</w>
美国 国会</w>
系统 结构</w>
空 转</w>
灰 泥</w>
极 为重要</w>
普遍 认为</w>
接 洽</w>
名 额</w>
力 墙</w>
剪 力墙</w>
产 于</w>
R W</w>
2 21</w>
综合 治理</w>
竹 子</w>
百 货</w>
干 活</w>
实 在
伺服 系统</w>
J PEG</w>
镜 面</w>
資 訊</w>
石 家
您 好</w>
安全 感</w>
一 队</w>
am s</w>
T o</w>
问 及</w>
溶 剂
名 胜
号 楼</w>
入 位</w>
ig ner</w>
Connect rix</w>
Ch eck</w>
面 体</w>
第二 步</w>
灰 分</w>
挺 杆</w>
差 速</w>
小心 翼翼</w>
小 提琴</w>
密 西西
作 响</w>
wit ch</w>
D em
Al ias</w>
A 0</w>
2. 4.
青 海
那 场</w>
脑 海</w>
棱 镜</w>
救 护</w>
巴 菲特</w>
差 旅费</w>
就 餐</w>
家 畜</w>
备 用
只 得</w>
加 密
K O
镀 金</w>
摇 动</w>
振 奋</w>
恤 金</w>
弹 道</w>
大 都市</w>
另一 只</w>
但 愿</w>
不 等式</w>
M il
Co un
第三十 一条</w>
甜 美</w>
明 火</w>
意 想不到</w>
信 片</w>
中 铁</w>
一 想</w>
12 50</w>
配置 管理</w>
部长 级</w>
过 滤
美 洲
测试 运行</w>
扭 力</w>
山 峰</w>
就 医</w>
合作 项目</w>
党 的
储蓄 所</w>
作 弊</w>
tr y</w>
酸 钾</w>
起 火</w>
脊椎 动物</w>
祈 求</w>
感恩 节</w>
国 土
仇 敌</w>
上 位</w>
万 亿</w>
2. 1.1</w>
1 4.2</w>
表 扬</w>
翻 滚</w>
欢 喜</w>
日 电</w>
拉 尔</w>
德 育</w>
ys t</w>
at ive</w>
0 10
租 船</w>
游 击
汇 丰
安德 森</w>
孤 儿</w>
受制 于</w>
内 脏</w>
高 通</w>
記 錄</w>
点 火器</w>
日 落</w>
投资 性</w>
二 甲基</w>
Am er
2 45</w>
调 平</w>
肿 块</w>
眼 科</w>
目 击者</w>
板 条</w>
时 而</w>
总 裁
分 度</w>
偏 高</w>
五 天</w>
神 庙</w>
演 唱
患 病率</w>
思 科</w>
大 地
几 小时</w>
m ess
Microsof t.com/
LIN K</w>
5 10</w>
西红 柿</w>
提 纯</w>
抽 象
或 少</w>
开 罗</w>
嗅 觉</w>
车 用</w>
生活 区</w>
渗 水</w>
每 桶</w>
此 表</w>
无 家
效 果
拿 起</w>
埋 深</w>
iv er</w>
装 到</w>
痴 呆</w>
正 弦
收 纳</w>
同 种</w>
县 城</w>
伊 德</w>
Th om
移 入</w>
电 弧焊</w>
承 诺
影 像
大气 污染</w>
圣 地</w>
丢 掉</w>
顶 棚</w>
陡 坡</w>
装 料</w>
营养 素</w>
自 上而下</w>
第二十 九条</w>
私 下</w>
瞬 变</w>
显示 信息</w>
冲 销</w>
财 经</w>
能 用</w>
爆 裂</w>
点 位</w>
消息 传递</w>
星 人</w>
拿 破
大力 支持</w>
主办 方</w>
三 国</w>
领事 馆</w>
短 短</w>
更 易</w>
做 个</w>
他 妈的</w>
事实 证明</w>
k VA</w>
http://www. Microsoft.com/
Ph il
N Z
C W</w>
AN D</w>
27 1</w>
达到 最佳</w>
贸易 协定</w>
经 过
消防 员</w>
浑 身</w>
水平 线</w>
无功 功率</w>
救 生</w>
很 多年</w>
录 音
地理 信息系统</w>
司 令</w>
動 車</w>
v 2</w>
V 5</w>
Mod el</w>
Blu et
绿 茶</w>
知识 经济</w>
畏 惧</w>
检 视</w>
易 用性</w>
探 查</w>
德 森</w>
一 匹</w>
F AST</w>
破产 法</w>
犯 下</w>
沉 没</w>
汽 轮
某种 意义</w>
总裁 兼</w>
后 桥</w>
t rac
anc ed</w>
高 涨</w>
新 值</w>
十 分钟</w>
加 号</w>
分 管</w>
借 入</w>
中 拉出</w>
http://www.Microsoft.com/ contentredirect.asp</w>
预 制
起 動</w>
第一 届</w>
留 时间</w>
滚 动轴承</w>
浮 游
性 别
停 留时间</w>
点 云</w>
析 出</w>
昏 迷</w>
同 居</w>
顺利 完成</w>
撒 哈拉</w>
影像 学</w>
前 走</w>
And re
运输 机</w>
苍 蝇</w>
科 普</w>
省 市</w>
涉 足</w>
无家 可
斑 块</w>
L O</w>
F x</w>
里 德</w>
起 义</w>
负 数</w>
让 方</w>
扔 掉</w>
引 诱</w>
值 守</w>
Po s
25 1</w>
航空 运输</w>
粉 体</w>
禁 区</w>
皮 特</w>
欲 了解</w>
抗 肿瘤</w>
恳 求</w>
工 匠</w>
堆 内</w>
动脉 瘤</w>
入 站</w>
仿 真
W A
ME A</w>
Lif ec
AX 150</w>
19 66</w>
0 3.
鞋 跟</w>
沉 思</w>
正常 人</w>
方 能</w>
声 速</w>
借 给</w>
付 款
B L</w>
管 板</w>
程 控</w>
档 文件</w>
更 名</w>
心力 衰竭</w>
定 金</w>
商 界</w>
上 任</w>
编程 语言</w>
盘 旋</w>
彗 星</w>
弹 道
乒乓 球</w>
主人 公</w>
cook ie</w>
WebS phere
19 8</w>
饰 条</w>
记 卡</w>
格 拉
天 基</w>
假 冒</w>
临 到</w>
下 一
B ook</w>
狗 狗</w>
我 刚</w>
城 乡
在 校</w>
净 重</w>
任何 理由</w>
之 差</w>
p p</w>
man n</w>
U NE
里 昂</w>
诚 挚</w>
状况 良好</w>
整体 性</w>
敏 电阻</w>
改 制</w>
入 门
互 惠</w>
k t
解 压缩</w>
联合国 教科文组织</w>
相 接</w>
牢固 地</w>
毒 药</w>
根 除</w>
开 箱</w>
好 奇
地 亚</w>
咀 嚼</w>
免 得</w>
He al
说 是</w>
灯 罩</w>
显 性</w>
新 品</w>
斜 角</w>
失 眠</w>
供 需</w>
3 33</w>
路易 斯
裁 军</w>
蜗 杆</w>
线 下</w>
机 顶盒</w>
投票 表决</w>
导 电性</w>
厄瓜 多尔</w>
单 级</w>
动 火</w>
一 楼</w>
稀释 剂</w>
族 群</w>
拳 击</w>
巡 回</w>
国防 部长</w>
固 性</w>
代表 大会</w>
中 原</w>
ter n
龙 门</w>
紧 身
电 传</w>
极 易</w>
宾夕法 尼亚州</w>
安 防</w>
始 建</w>
奴 隶
压 碎</w>
千 计</w>
亚 特</w>
GB 500
Comp any</w>
若 为</w>
炉 子</w>
滋 味</w>
无处 不在</w>
指 称</w>
平 和</w>
天 鹅</w>
凯 文</w>
伦 萨</w>
B re
车 削</w>
誓 言</w>
行政 局</w>
竖 立</w>
步 兵</w>
标 量</w>
往 前</w>
广播 电台</w>
金正 日</w>
行政 处分</w>
得 意</w>
形 容
干 酪</w>
光 镜</w>
俄 语</w>
ur n
ers on</w>
T a
Bluet ooth</w>
00 8</w>
野 餐</w>
祭 祀</w>
地 道</w>
两 处</w>
QuarkX Press</w>
输 尿管</w>
超 压</w>
激动 人心</w>
澳大 利亚
淋巴 瘤</w>
外 语
噬 细胞</w>
内 所</w>
rit er</w>
项目 编号</w>
银河 系</w>
计算机 科学</w>
盼 望</w>
新 奇</w>
式 各样</w>
年 长</w>
各 式各样</w>
分 贝</w>
全 能</w>
鲁棒 性</w>
过 夜</w>
蜿 蜒</w>
电动 工具</w>
灰 浆</w>
機 构</w>
应 可</w>
定 标</w>
可口 可乐</w>
列 于</w>
Q ID
G al
袖 口</w>
药 房</w>
耐 用性</w>
第三十 条</w>
生 代</w>
弹 簧
咖啡 馆</w>
单 色</w>
入 院</w>
领导 层</w>
浮 现</w>
无 奈</w>
外 周
外周 血</w>
均 会</w>
哥 华</w>
Elect ric
高峰 期</w>
送 来</w>
经 皮</w>
技术 开发区</w>
inu ity</w>
Vis ion</w>
H old
装饰 品</w>
蜗 轮</w>
莲 花</w>
温 哥华</w>
明 信片</w>
斯 托</w>
征 兆</w>
寂 静</w>
卡 扣</w>
党 内</w>
arch itecture</w>
IF RS</w>
H Z</w>
19 64</w>
17 .</w>
筛 网</w>
渊 源</w>
形 夹</w>
宇航 局</w>
可 得</w>
元 音</w>
pd f</w>
In du
龙 虾</w>
转换 开关</w>
无 子</w>
数据 字</w>
小 费</w>
小 径</w>
多 米
剥 削</w>
京 都</w>
不 加</w>
en e</w>
Q M</w>
路径 名</w>
表示 法</w>
自由 化</w>
粗 鲁</w>
省 政府</w>
炸 机</w>
漫 反射</w>
中 向</w>
B M
象 是</w>
胆 囊</w>
珍 珠
注 塑
教 养</w>
开工 日期</w>
开关 电源</w>
威士 忌</w>
内 未</w>
井 底</w>
两 用</w>
世界贸易 组织</w>
上 拔</w>
SK I</w>
Fi eld</w>
CR C</w>
顶 篷</w>
比 克</w>
唤 起</w>
另行 通知</w>
之 比</w>
不 成
评 估
篇 章</w>
平 齐</w>
女 演员</w>
图 块</w>
各 省</w>
丁 橡胶</w>
le v
X L
1 2.3</w>
鞋 带</w>
疗 程</w>
测 出</w>
揽 子</w>
主 力</w>
ac o</w>
Docum ent</w>
管理 学</w>
派 出
标 杆</w>
式 机</w>
售 前</w>
双 相</w>
et c</w>
H P
集中 管理</w>
硅 橡胶</w>
片 剂</w>
激 怒</w>
标 线</w>
好奇 心</w>
主 动
l a
Sea Ray</w>
. p
脱 脂</w>
维 吾
明尼 苏
悲 痛</w>
吉 布
不久 前</w>
R I</w>
讲 授</w>
现实 主义</w>
服务器 上安装</w>
找 寻</w>
必 需品</w>
干 爽</w>
只 见</w>
不 经
一 揽子</w>
Wind ow</w>
AP C</w>
速 表</w>
边界 层</w>
牵引 车</w>
投资 决策</w>
承 销商</w>
侵 权
高 价</w>
母 乳
母乳 喂养</w>
极 低</w>
望 值</w>
伯 利亚</w>
Z h
3 21</w>
账 龄</w>
市 级</w>
大 家庭</w>
来 信</w>
拿破 仑</w>
技术 规程</w>
心 目</w>
停车 位</w>
举 个</w>
中 层</w>
am a</w>
2 34</w>
输 液</w>
滑 动轴承</w>
恐 吓</w>
坚 定
在 短期内</w>
台 式机</w>
偏 爱</w>
保 密性</w>
串 口</w>
不 容</w>
o g</w>
n er
W S
2 27</w>
菲利 普</w>
芳 香
波 动性</w>
此 款</w>
抛 物
应 聘者</w>
圣诞 老人</w>
其 值</w>
储物 箱</w>
Ra di
鸣 器</w>
造 纸
灭 亡</w>
新 密码</w>
单元 测试</w>
关注 点</w>
值 应</w>
b c
SP N</w>
R ender</w>
说 完</w>
见 下文</w>
管理 策略</w>
稳 压器</w>
私 营企业</w>
上 半</w>
4 500</w>
考 评</w>
电子 书</w>
欠 缺</w>
效 应
全 民
井 眼</w>
二 号</w>
oc k</w>
l ing</w>
草 场</w>
老 实</w>
拧 开</w>
弗吉 尼亚州</w>
动力 装置</w>
乔 木</w>
世纪 末</w>
18 4</w>
高等 法院</w>
页 数</w>
睡 衣</w>
生命 科学</w>
文化 产业</w>
应 聘</w>
巴 尔</w>
压 印</w>
mm ol</w>
N ov
18 9</w>
鸭 子</w>
说 过</w>
特 斯拉</w>
对 吗</w>
变 型</w>
分 叉</w>
凝析 油</w>
主 演</w>
M ic
阻燃 剂</w>
转 播</w>
购 入</w>
脸 颊</w>
求 出</w>
幕 后</w>
存 活率</w>
以 至</w>
两 步</w>
饱 受</w>
轴 流</w>
蠕 虫</w>
硼 酸</w>
刀 刃</w>
P 4</w>
重要 环节</w>
重 装</w>
徒 步</w>
导 引</w>
反应 时间</w>
Add ress</w>
6 40</w>
迟 缓</w>
管理 权限</w>
参和 者</w>
i us</w>
胆 碱</w>
沸 点</w>
最 能</w>
多种 不同</w>
阿 波罗</w>
胸 腔</w>
业 已</w>
b ase</w>
DA B</w>
铭 记</w>
赢 家</w>
苏 黎
膨 润
碳酸 钙</w>
抓 取</w>
公 债</w>
传 球</w>
两 段</w>
d ll</w>
ass word</w>
AR D</w>
A sp
越 好</w>
血 统</w>
维 尔
清 关</w>
水利 工程</w>
扑 灭</w>
弗 洛
制 得</w>
M ont
镇 流器</w>
钢 瓶</w>
僵 尸</w>
一 如
it h
19 7</w>
饰 演</w>
轻 触</w>
浆 料</w>
文艺 复兴</w>
手术 室</w>
层 气</w>
家 族
可 供
产 儿</w>
乌兹别 克斯坦</w>
O D
Lo ct
K ar
H i
CC B</w>
糊 涂</w>
第二 次世界大战</w>
检查 程序</w>
晚 间</w>
戒 烟</w>
微波 炉</w>
座 舱</w>
工商 管理</w>
层 压</w>
喷 油泵</w>
分之 三</w>
串 行
AN SYS</w>
连 贯</w>
海军 陆战队</w>
叛 乱</w>
出 庭</w>
丑 陋</w>
c at
销售 价格</w>
票 房</w>
盗 版</w>
玛 利亚</w>
煤 层气</w>
测试 用例</w>
期 望值</w>
无 故</w>
年 金</w>
地 铁
全国 人民代表大会常务委员会</w>
佛罗 伦萨</w>
n umber</w>
m t
http://go.microsoft.com/fwlink/? Link
视觉 效果</w>
百分 数</w>
核 桃</w>
持 证</w>
戴 维</w>
妇 女
典 雅</w>
为 数
N N</w>
软件 程序</w>
珍 妮</w>
液 滴</w>
浓 密</w>
各 人</w>
st ra
CM B</w>
17 9</w>
近 视</w>
蓄 水池</w>
胡 椒</w>
维护 性</w>
紧 贴</w>
海 事
求职 者</w>
水 沟</w>
支持 性</w>
元 首</w>
侦 听器</w>
上 升
J A
马 歇尔</w>
身份 证明</w>
滚 珠
宁 市</w>
动 议</w>
冲 孔</w>
冲 头</w>
保 卫
价格 指数</w>
Su per
Sel ect
C 5</w>
阿 司
阿司 匹林</w>
转 台</w>
超 微结构</w>
考虑 一下</w>
网 眼</w>
穆 迪</w>
灭 失</w>
滚珠 轴承</w>
民族 主义</w>
技术 上</w>
弧 度</w>
太阳 光</w>
受 性</w>
协同 工作</w>
丽 特</w>
mb ol</w>
热 镀锌</w>
日 出</w>
华 德</w>
内 政
住宅 区</w>
E V</w>
需 水量</w>
时 点</w>
作 業</w>
E ther
5 0000</w>
食 者</w>
闻 名
透 视图</w>
连 带
汽车 行业</w>
最低 工资</w>
小康 社会</w>
一 阶</w>
SYST EM</w>
选 为</w>
膨润 土</w>
狂 欢</w>
油 膜</w>
栖 息</w>
人类 学</w>
中 西
万 桶</w>
f n</w>
离 体</w>
承 保人</w>
功能 键</w>
他 的</w>
M al
J on
B al
金属 结构</w>
粘 连</w>
油 料</w>
攀 爬</w>
接收 者</w>
意外 事故</w>
坏 事</w>
J VM</w>
G N
高速 铁路</w>
酸 碱</w>
酰 亚胺</w>
客 流</w>
可 控
制 度
利润 表</w>
充分 性</w>
作曲 家</w>
人 手</w>
Lo g</w>
E DI</w>
配 筋</w>
资 历</w>
肥 皂
水 剂</w>
模 组</w>
实验 教学</w>
O m
Mod bus</w>
首 要
问 到</w>
监 造</w>
时 延</w>
一 条
触 动</w>
聚 酰胺</w>
看 做</w>
比 赛
数以 千计</w>
弧 线</w>
同 类产品</w>
双 赢</w>
包 络</w>
不 怎么</w>
万 人次</w>
f e</w>
阵 营</w>
销售 部</w>
贫 民
热 插拔</w>
每 套</w>
倒 置</w>
N IST</w>
E PS</w>
罐 装</w>
有机 溶剂</w>
体 征</w>
Pro gram</w>
Mess age
AC K</w>
2 7.
风 俗</w>
焦 距</w>
正 则</w>
原 样</w>
低 调</w>
in c
顺序 排列</w>
法 拉
柱 状</w>
新 进展</w>
孩 儿</w>
同 年</w>
冻 土</w>
份 数</w>
复合 体</w>
印第 安</w>
卡 瓦</w>
免 费
3 0.
高 空
销售 商</w>
特 人</w>
机械 式</w>
按 鈕</w>
劳 伦斯</w>
Tas k</w>
长 方体</w>
金 币</w>
水 疗</w>
毁 灭
普 林
无关 紧要</w>
巴 德</w>
北京 大学</w>
SS P</w>
Energ y</w>
香 槟</w>
砖 块</w>
特 拉</w>
流 派</w>
橄 榄</w>
极 值</w>
方 方
re s</w>
Lifec ycle</w>
鹦 鹉</w>
跳 水</w>
看 清</w>
有机 质</w>
战 时</w>
夹 住</w>
只 为</w>
体 燃料</w>
SEL ECT</w>
C 4
0 21</w>
驾 驭</w>
萨 科
热 情
橄榄 油</w>
普 斯</w>
成本 计算</w>
总 泵</w>
多 岁</w>
雪 橇</w>
车 牌</w>
航 母</w>
法兰 克
林 业
夺 得</w>
IV E</w>
EC D</w>
特 曼</w>
沿 途</w>
毁 掉</w>
性 生活</w>
小 汽车</w>
婴 儿
变 小</w>
僵 硬</w>
2 31</w>
雷 击</w>
闹 钟</w>
输 水</w>
改 成</w>
保温 材料</w>
便 利
or d</w>
IT Y</w>
A x
A f
频 域</w>
标准 配置</w>
放 疗</w>
小 学生</w>
医 治</w>
剂 量
伯 爵</w>
专 卖
s l
贝 壳</w>
笔 直</w>
沉淀 物</w>
展 览
富 于</w>
外 人</w>
俯 瞰</w>
一如 既往</w>
差 旅</w>
客 商</w>
分离 出来</w>
母 材</w>
小 幅</w>
多 路径</w>
内部 结构</w>
上 诉人</w>
运输 车</w>
路 况</w>
走 来</w>
印度 洋</w>
以 北</w>
主 宰</w>
Prof ess
Flu id
谢谢 你们</w>
记录 下来</w>
留 置</w>
期 盼</w>
并非 如此</w>
多 发性</w>
凝 血</w>
乡 下</w>
St or
饥 荒</w>
雪 地</w>
警 卫</w>
舒 缓</w>
板 坯</w>
帕 金
外 罩</w>
不良 贷款</w>
m V</w>
Valid ator
DH A</w>
B 4</w>
2 44</w>
闸 管</w>
自 主
害 羞</w>
利 多
人 道</w>
P SI</w>
除 率</w>
阿拉伯 文</w>
野 心</w>
轰 炸机</w>
贪 污</w>
子 类</w>
b it</w>
Y L</w>
18 7</w>
雷 曼</w>
蓝 天</w>
甘 油
推 算</w>
手 提</w>
户 名</w>
悄 悄
地 里</w>
制 取</w>
传输 线</w>
一 趟</w>
D SA</w>
高 校
调 式</w>
瓦 解</w>
点 缀</w>
氮 氧化物</w>
毁 损</w>
栽培 技术</w>
整 修</w>
恶意 软件</w>
奖 杯</w>
回 想</w>
压 裂
跟 鞋</w>
感 测</w>
威斯 康
前 人</w>
衬 衣</w>
行 号</w>
特 效</w>
数字 电视</w>
回 执</w>
原 料
卡罗 来
励 磁
别 无
出口 国</w>
B2 B</w>
5 02</w>
自 称</w>
文件 名称</w>
报警 信号</w>
基本 特征</w>
produ ct</w>
黑 名单</w>
陷 入
触 觉</w>
裕 度</w>
脚 踏</w>
瑞 典
热 潮</w>
欢迎 您</w>
模 压</w>
松 树</w>
时 向</w>
摇 滚
异 味</w>
宁 波
大幅 度
六 种</w>
偷 偷</w>
交通 系统</w>
乘 务员</w>
ab ility</w>
深 感</w>
机 车
夹 头</w>
两国 关系</w>
p y
m at
fo x</w>
P b</w>
锚 索</w>
位 列</w>
转 折
赫 尔
权益 法</w>
推 论</w>
悄 悄</w>
之 作</w>
上 半
一 季度</w>
Validator Attribute</w>
4 05</w>
麻 疹</w>
除 掉</w>
迈 向</w>
试 制</w>
烃 类</w>
新 星</w>
塑 性
圈 子</w>
告 诉
下 设</w>
Z oom</w>
G o</w>
G F
风 貌</w>
面 面</w>
私有 化</w>
相 通</w>
消 融</w>
晶 闸管</w>
四 分之三</w>
T K</w>
Microsof t
G ran
自由 贸易</w>
汇丰 银行</w>
心 智</w>
制 作
de x</w>
Catal yst</w>
韩 国
生 境</w>
早 日</w>
房 间
参 会</w>
AL T</w>
角 色
石膏 板</w>
求 职</w>
核 反应堆</w>
提 振</w>
心 律
姊 妹</w>
告诉 您</w>
业务 管理</w>
l x</w>
SS H</w>
高 危</w>
计算机 软件</w>
萨 斯</w>
热 膨胀</w>
新 书</w>
地 坪</w>
上 扬</w>
4. 3.2</w>
遗 弃</w>
沸 石</w>
时 须</w>
成交 量</w>
总 图</w>
干 脆</w>
体 中文</w>
代表 人</w>
人 要</w>
W C</w>
6 60</w>
米 饭</w>
突破 性</w>
甲 氧基</w>
核数 师</w>
标 配</w>
柜 内</w>
整 平</w>
微 球</w>
床 位</w>
布 管</w>
受 约束</w>
再 融资</w>
党 委</w>
Wi Fi</w>
R B</w>
ME L</w>
未 经
拖 鞋</w>
归 来</w>
带 出</w>
声 望</w>
发 芽</w>
ou r</w>
高空 作业</w>
背 离</w>
凑 型</w>
公共 安全</w>
个 州</w>
R ol
IN I</w>
验 资</w>
补 助
直 管</w>
无缝 钢管</w>
形容 词</w>
宣 扬</w>
城镇 化</w>
in d</w>
酸 酐</w>
能源 消耗</w>
第一 级</w>
礼 拜
深入 分析</w>
宫 廷</w>
外部 环境</w>
出 演</w>
Vol ume</w>
Run ning</w>
自 负</w>
股票 价格</w>
大 洋</w>
其 能</w>
胰 腺炎</w>
肉 瘤</w>
第四 次</w>
电 表</w>
深 切</w>
最 深</w>
投资 信托</w>
托 收</w>
影 视
器 上</w>
一 笑</w>
裸 体</w>
第二 届</w>
游 乐</w>
收 费
固 有
V III</w>
19 62</w>
阳性 率</w>
看 重</w>
无 污染</w>
所罗 门</w>
原子 能</w>
印刷 机</w>
透 射
螺旋 弹簧</w>
擦 洗</w>
接 送</w>
克 朗</w>
一个 个</w>
ot h
Loct ite</w>
高 跟鞋</w>
防 冻
补充 协议</w>
病 史</w>
电 杆</w>
梦 幻</w>
无 机
数控 机床</w>
人机 界面</w>
丰 满</w>
黑 猩猩</w>
紧 凑型</w>
旋转 轴</w>
围 着</w>
会议 员</w>
两 地</w>
一无 所知</w>
面 团</w>
说 家</w>
认 缴</w>
致 于</w>
细胞 因子</w>
类 化合物</w>
算 起</w>
斗 式</w>
找 回</w>
SO C</w>
C DP</w>
林 区</w>
明 暗</w>
换 乘</w>
很 漂亮</w>
庄 稼</w>
奇 偶
头 疼</w>
二十 四</w>
syst em</w>
Me chan
30 51</w>
2 9.
贯彻 落实</w>
白 俄罗斯</w>
电 火花</w>
有 幸</w>
撤 退</w>
恶 人</w>
同 轴
为 首</w>
To p
M DS</w>
L ync</w>
H g</w>
荷 兰
木 地板</w>
复 活
即 会</w>
ar m
RA DI
这 艘</w>
胃 肠道</w>
经济 运行</w>
第三 十二条</w>
电磁 干扰</w>
标准 差</w>
弗吉 尼亚</w>
动态 变化</w>
体 细胞</w>
万 事
一 如</w>
输送 泵</w>
湖 区</w>
全国 人民代表大会</w>
交互 作用</w>
规划 署</w>
浇 灌</w>
水 力
树 皮</w>
制動 盘</w>
伦 敦
不 景气</w>
E 3</w>
8. 1.
1 5.2</w>
集中 精力</w>
泄 压</w>
新 品种</w>
基 建</w>
W AN</w>
T S
P SA</w>
高 光</w>
缓 蚀剂</w>
水平 井</w>
救生 艇</w>
批 准
因 本</w>
体 液</w>
y an</w>
HT TPS</w>
生态 旅游</w>
附 例</w>
阿姆斯特 丹</w>
防尘 套</w>
表 体</w>
获得 者</w>
国家 机关</w>
人工 神经网络</w>
世 贸</w>
4 25</w>
股 权证</w>
玛 格
株 式
株式 会社</w>
昼 夜</w>
故 事
团 聚</w>
吉尔 吉
变 电</w>
初 创</w>
兵 团</w>
余 年</w>
举 足轻重</w>
且 经</w>
TE D</w>
疑 惑</w>
消 极
木 箱</w>
服务 体系</w>
口 译</w>
友 情</w>
千分 表</w>
Cap ital</w>
限 流</w>
闻 到</w>
迪 斯</w>
色 度</w>
脉 宽
脉宽 调制</w>
用 尽</w>
武 士</w>
极 强</w>
我 该</w>
居 家</w>
Fort ran</w>
西 瓜</w>
蒙 德</w>
置 信
相 關</w>
往 后</w>
形 术</w>
引 物</w>
天气 预报</w>
卫生 标准</w>
单 轴</w>
RA L</w>
2 62</w>
观 测
管理 处</w>
火 腿</w>
断 口</w>
总 统
形 环</w>
布莱 尔</w>
分析 员</w>
值 来</w>
二零 零
es h</w>
AN I</w>
露 面</w>
误 导性</w>
良 心</w>
火山 灰</w>
太 久</w>
公 义</w>
乌 龟</w>
酒 类</w>
财 力</w>
证 书
激励 机制</w>
水 带</w>
投 递</w>
怀 念</w>
公 民
体 能</w>
XY Z</w>
蒙特 利尔</w>
药 典</w>
维 克</w>
给 与</w>
滑 雪
氢氧化 钠</w>
时 刻
施 压</w>
拣 机</w>
情 事</w>
如 前
副 经理</w>
S amp
B Y
银 团</w>
谈 及</w>
至 多</w>
拿 下</w>
宽 大</w>
分 拣机</w>
侵 占</w>
SH A</w>
S l
RE M</w>
镶 边</w>
这 天</w>
第一 台</w>
硬 拷贝</w>
水利 水电</w>
术 前</w>
技术 转让</w>
作出 反应</w>
讲 机</w>
羧 酸</w>
数 位</w>
抉 择</w>
对 讲机</w>
奉 行</w>
国 会议员</w>
击 球</w>
互 操作</w>
m i</w>
Te st
P SD</w>
胸 前</w>
禁 忌</w>
单 晶</w>
肠 炎</w>
索 要</w>
昏 暗</w>
明显 降低</w>
延 伸
庄 严</w>
初 学者</w>
难 于</w>
或多 或少</w>
慈善 机构</w>
寡 妇</w>
存储 单元</w>
分 机</w>
关系 人</w>
共 创</w>
世贸 组织</w>
E JB</w>
黑 莓</w>
风 压</w>
通 航</w>
王 后</w>
流 浪
正 态
既 能</w>
中 美
B ran
As soci
5. 1.2</w>
阿拉伯 语</w>
细 菌
游 玩</w>
深 夜</w>
收 敛
心 房</w>
多 用户</w>
听 证</w>
pro pert
B SM</w>
A ML</w>
制片 人</w>
冲击 力</w>
d om
IS C</w>
Electric al</w>
盛 会</w>
爱 国
求 值</w>
掩 护</w>
中 较</w>
罗 河</w>
网 眼
结构 特征</w>
烟 火</w>
座 谈会</w>
已 达</w>
吸 管</w>
进 修</w>
胜 者</w>
监视 系统</w>
每 笔</w>
摩 根
打 碎</w>
异 型</w>
ia o</w>
选 举
清晰 可见</w>
新 任</w>
平 层</w>
吸 血
入门 级</w>
但 须</w>
N ormal</w>
D DE</w>
2 18</w>
雷 诺
长 线</w>
语言 包</w>
有 氧</w>
月 经</w>
忧 伤</w>
出 风口</w>
儿 科</w>
丙 基</w>
Col um
9 97</w>
里 叶</w>
覆盖 物</w>
盾 构</w>
昆 士
无 常</w>
敬 意</w>
式 起重</w>
商 量</w>
不 具</w>
z ip</w>
end ash</w>
Nike Fuel</w>
飞 到</w>
芬 芳</w>
致 力</w>
村 里</w>
抵押 物</w>
安 检</w>
壁 上</w>
同 仁</w>
砖 墙</w>
油 尺</w>
懒 惰</w>
小 溪</w>
实际 成本</w>
坏 消息</w>
中 信</w>
CM OS</w>
黏 度</w>
堆 积
ne w
Indu st
D GN</w>
衰 变</w>
蜂 鸣器</w>
文本 编辑</w>
拖 缆</w>
所在 位置</w>
场 区</w>
图 片
因 為</w>
光 度计</w>
交 汇
L F</w>
D TS</w>
载 货</w>
覆 层</w>
维修 保养</w>
精 馏</w>
第一 件</w>
截 图</w>
开发 工具</w>
圆 满</w>
出 站</w>
o us</w>
O UT</w>
通 关</w>
详情 请</w>
若 该</w>
群 众
应 选</w>
己 烷</w>
学 问</w>
垂直 面</w>
信息 管理系统</w>
伏 安</w>
hel p</w>
O PC</w>
G er
长 者</w>
選 择</w>
网眼 布</w>
接受 方</w>
成 对</w>
安全 套</w>
B lo
首 家</w>
顺 从</w>
科 院</w>
是 吗</w>
关系 式</w>
兰 花</w>
之 举</w>
网络 地址</w>
继任 者</w>
私 立</w>
每 侧</w>
大 型
薄 薄
游戏 机</w>
测 序</w>
本 植物</w>
帝 国主义</w>
字 号</w>
回 馈</w>
发 式</w>
会 费</w>
in ing</w>
FB X</w>
许 诺</w>
小 微</w>
万 象</w>
sh ell</w>
G am
难 者</w>
赛 跑</w>
肥 沃</w>
米 亚</w>
特 意</w>
灯 塔</w>
火 炮</w>
消费 税</w>
民主 共和国</w>
棘 轮</w>
售 货
可供 使用</w>
克 制</w>
Profess ional</w>
Comp on
难 受</w>
轮 班</w>
澳门 特别行政区</w>
温 控</w>
发 亮</w>
冒 犯</w>
乳 头</w>
25 2</w>
顽 固</w>
西 亚
拘 役</w>
拒绝 接受</w>
主 控
PH A</w>
骑 兵</w>
而易 举</w>
指导 思想</w>
投 机
建 国</w>
干 膜</w>
巴拿 马</w>
一 秒</w>
ic y</w>
L uc
BO P</w>
3. 3.1</w>
连带 责任</w>
调 换</w>
皮 鞋</w>
煅 烧</w>
浦 东</w>
浅 色</w>
沿 海地区</w>
母 体</w>
段 名</w>
服务器 之间</w>
扮演 着</w>
形 势
人 为
高 岭
音 质</w>
违约 方</w>
轻 而易举</w>
轮 齿</w>
记忆 力</w>
监测 仪</w>
物 项</w>
点 对点</w>
异 构
如前 所述</w>
壁 炉</w>
RF P</w>
Det ail
1 3.3</w>
暴 跌</w>
抹 布</w>
家 兔</w>
加 之</w>
不 移</w>
万 达</w>
一 月份</w>
精 益</w>
矿 场</w>
有 素</w>
总 人口</w>
平 板
居 留</w>
大 气压</w>
国 产
同轴 电缆</w>
口 腔
产 后</w>
交 车</w>
一氧化 氮</w>
oc k
Loc ker</w>
线 性化</w>
火 箭
海 豹</w>
协 会
光 体</w>
例 会</w>
代 币</w>
专 项
精 密度</w>
粘 着</w>
玻璃 窗</w>
工具 集</w>
崩 塌</w>
圣 母</w>
再次 发生</w>
ph as
ke n</w>
4 22</w>
旧 式</w>
斐 济</w>
常 设</w>
多 万</w>
填充 物</w>
吸血 鬼</w>
冲 积
两 极</w>
Opt im
C JB</w>
西 方人</w>
维 系</w>
线 电压</w>
模拟 计算</w>
总 结
交通 标志</w>
s er
DM I</w>
18 .</w>
特征 分析</w>
煤 油</w>
得 克萨
平 等
中 能</w>
两 部</w>
不断 完善</w>
一 两个</w>
ut er</w>
T CS</w>
Des igner</w>
首 件</w>
票 数</w>
护 者</w>
基本 功能</w>
集 管</w>
足 部</w>
精心 设计</w>
稻 草</w>
电 导</w>
检查 一下</w>
最低 水平</w>
南京 市</w>
几 分</w>
优 劣</w>
n av
追 随者</w>
法 制
此 字段</w>
推 崇</w>
打 个</w>
战 线</w>
山 路</w>
多 用</w>
反射 镜</w>
力 拓</w>
s w
PL S</w>
Ch rist
Bro w
院 士</w>
钢 架</w>
有 如</w>
布鲁 斯</w>
亲 身</w>
五 入</w>
不好 意思</w>
下 摆</w>
ill a</w>
d ell
2 95</w>
锅 炉
肩 带</w>
无 可</w>
折 旧
投 运</w>
总 价值</w>
决定 权</w>
入 驻</w>
光 机</w>
伤 残</w>
三 线</w>
M as
集 合
调 入</w>
草 本</w>
第三十 三条</w>
牛 津
漆 膜</w>
报 关
打 赌</w>
并 在</w>
发行 版</w>
净 空</w>
云 层</w>
G L
雨 天</w>
超 高压</w>
湖 人</w>
斯洛伐 克</w>
收 入
得 名</w>
市场 占有率</w>
君 子</w>
分 步</w>
um p</w>
T ag</w>
OR E</w>
NS R</w>
3 600</w>
随 著</w>
通 畅</w>
软 土</w>
脸 色</w>
时 需</w>
弯 曲
垃圾 箱</w>
周边 地区</w>
产 区</w>
不锈 钢管</w>
不 难</w>
it ies</w>
Loc al</w>
霍 华德</w>
防 病毒</w>
贩 卖</w>
被 测</w>
气 式</w>
发 改
出 料</w>
内 心
ce pt</w>
Tun es</w>
NF PA</w>
苯 甲酸</w>
羁 留</w>
深 信</w>
斯坦 福
抽 汽</w>
执行 局</w>
手 推车</w>
平均 温度</w>
巴 里</w>
夫 斯基</w>
培训 中心</w>
垫 子</w>
向 性</w>
切 割
产 科</w>
联 查</w>
罗 兰</w>
竞 价</w>
福 克斯</w>
机 头</w>
应 力场</w>
圣 节</w>
一 顶</w>
符 号
相关 系数</w>
宠 物
定 居
塑料 管</w>
传 闻</w>
ubl ic</w>
s 1</w>
In put</w>
采购 计划</w>
表 型</w>
舰 艇</w>
接触 网</w>
Tran sp
4 08</w>
飞 速
除 氧
远 远
报 单</w>
固 井</w>
四 舍
厌 氧</w>
五 百</w>
M or
K 2</w>
Eng inuity</w>
19 45</w>
高 考</w>
适 宜
计划 署</w>
荒 野</w>
程序 开发</w>
极 点</w>
子 目</w>
地 理学</w>
图形 用户界面</w>
因 果</w>
四舍 五入</w>
侵权 行为</w>
at o</w>
Re d
E TS</w>
风 吹</w>
该 次</w>
花 瓶</w>
笨 拙</w>
機 上</w>
技术 手段</w>
埃 尔
双 金属</w>
主 合同</w>
Propert y</w>
C 20</w>
闯 入</w>
触 感</w>
硫 酸钠</w>
爱 沙
灭 火
方 图</w>
招 投标</w>
外 力</w>
哈 马斯</w>
反 感</w>
us s
c d
T IF
载 重量</w>
类 中</w>
稠 度</w>
白 云</w>
旋 下</w>
敌 意</w>
承 受
展 台</w>
垄 断
催 缴</w>
M U
M SM
CN C</w>
缉 获</w>
热 点
地 砖</w>
四 点</w>
发 球</w>
创业 者</w>
亲 眼
ic es</w>
Fig ure</w>
电动 车窗</w>
杰 作</w>
方 格</w>
收 受</w>
挠 曲</w>
技 工</w>
恐怖 袭击</w>
德 罗</w>
宜 人</w>
会 令</w>
三 期</w>
丁 堡</w>
g ong</w>
VI MS</w>
MP EG</w>
M u
Cook ie</w>
18 50</w>
财政 司</w>
耐 药性</w>
羊 群</w>
罗 纹</w>
精确 性</w>
用 工</w>
暂 存</w>
大 屠杀</w>
在 线
在 生活
从 未
二 楼</w>
之 夜</w>
W ar
R D
6 01</w>
豚 鼠</w>
血 清
荧 光
绞 痛</w>
病 性</w>
比 分</w>
最 优
房间 内</w>
关键 设备</w>
住 址</w>
伞 齿轮</w>
人 质</w>
交通 安全</w>
中 继
Aut h</w>
5 70</w>
马 里兰
静静 地</w>
通 孔</w>
辞 去</w>
苏黎 世</w>
经济 合作
电 晕</w>
松 软</w>
方方 面面</w>
新 月
外 星人</w>
回 旋</w>
十 七</w>
倒 数</w>
业务 员</w>
Qu al
J IS</w>
車 窗</w>
花 边</w>
组 别</w>
氯 丁橡胶</w>
旧 版本</w>
家用 电器</w>
前 额</w>
传 记</w>
B ut
20 50</w>
耶稣 基督</w>
电路 设计</w>
水 闸</w>
有 不同</w>
指 南
弹道 导弹</w>
层 上</w>
大 体上</w>
一 晚</w>
k Wh</w>
e p</w>
租 客</w>
直 方图</w>
理 应</w>
多巴 胺</w>
保质 期</w>
Sm ith</w>
2 48</w>
片 麻
无 泄漏</w>
字 段名</w>
列 名</w>
五角 大楼</w>
V EG
N V
随 之
阻 塞性</w>
追 寻</w>
贝 克
设 計</w>
而 应</w>
精 髓</w>
簿 册</w>
科学 性</w>
杆 上</w>
技术 咨询</w>
尊 贵</w>
变 通</w>
发 酵
及时 处理</w>
光 器</w>
人 脸</w>
专卖 店</w>
PRO M</w>
11. 4</w>
铜 管</w>
连 通性</w>
质 体</w>
让 你
获 知</w>
精 良</w>
每 家</w>
正态 分布</w>
[...]
